#version: 0.2
* *
** :
Ġ \
Ġ **
Ġ t
M O
MO T
C H
CH I
Ġt h
Ġ w
Ġ a
Ġ y
o u
Ġ i
r e
Ġ h
Ġth e
Ġ s
a t
Ġ o
Ġy ou
Ġ d
i n
Ġ b
Ġ c
Ġ g
' s
Ġ m
Ġw h
a n
Ġ n
e r
Ġi t
Ġd o
Ġ l
Ġ I
l l
in g
Ġ p
Ġth at
n d
Ġg o
Ġn o
Ġ f
e s
o o
e a
Ġo n
Ġ <
U N
UN K
a y
Ġh e
Ġwh at
Ġa nd
i s
Ġt o
o m
' t
Ġw e
e t
i t
Ġh a
k e
v e
o r
s e
o w
Ġi s
i g
I N
Ġ u
e e
IN V
Ġi n
Ġo h
A T
l e
a s
u t
Ġy ea
i d
Ġthe re
Ġs h
Ġyea h
F AT
Ġth is
c k
a r
Ġ r
h t
e n
Ġc an
oo k
Ġ e
Ġon e
ig ht
o n
Ġb e
Ġw an
om e
Ġdo n
Ġl i
n a
Ġ k
s t
Ġa re
a d
Ġo f
Ġyou r
c h
Ġ M
i r
l d
a ll
Ġs t
Ġha ve
Ġm e
Ġli ke
ou t
Ġl ook
Ġhe re
e re
e d
v er
o t
u m
Ġs ee
Ġ re
k ay
Ġthe y
' re
i c
Ġo kay
Ġ j
Ġd id
Ġno t
Ġk n
Ġb a
in k
Ġy es
i m
Ġp ut
Ġsh e
Ġg et
y y
Ġy yy
m y
i e
Ġf or
Ġp l
it h
Ġw as
Ġa n
Ġwh ere
Ġu p
Ġr ight
Ġgo t
Ġkn ow
a m
Ġw ith
Ġm y
Ġwan t
a ke
Ġno w
a u
Ġs ome
o d
Ġj u
Ġgo n
Ġa ll
Ġa t
Ġc h
Ġth ink
o p
r a
it t
h er
Ġs o
ou ld
ea r
Ġ out
i ll
Ġwan na
u r
u n
' m
t er
Ġb ut
Ġgo ing
' ll
a l
Ġju st
Ġl et
o re
Ġwe ll
e ll
w n
Ġthe n
Ġgon na
Ġdo es
r y
Ġ D
Ġwh o
u h
Ġthe m
l y
Ġc ome
p p
itt le
Ġu h
Ġl ittle
an d
w w
Ġdo wn
Ġgo od
Ġs ay
au se
d y
t a
Ġbe c
c e
Ġu m
Ġbec ause
b y
Ġpl ay
Ġt w
h ing
ic e
ver y
Ġb ig
Ġb o
E X
um my
Ġ T
EX P
Ġh er
Ġh ow
i ck
in d
i l
Ġb r
Ġm ore
S I
u s
Ġe at
Ġc ar
Ġo r
Ġwh en
' ve
Ġtw o
Ġwh y
Ġa b
Ġa l
ou g
o l
Ġb l
Ġi f
Ġba ck
Ġ S
h m
ad dy
om my
o se
Ġf r
g e
Ġba by
n t
Ġ C
Ġs p
Ġt oo
a in
Ġh is
Ġh im
Ġ B
u ck
ou nd
Ġab out
A D
in e
ĠM ummy
Ġha s
Ġm hm
Ġ P
id e
i ve
Ġof f
Ġ J
a p
ee d
Ġ very
Ġ A
Ġm ake
Ġs a
t y
Ġo ver
Ġan y
on e
Ġw at
Ġdo ing
all y
SI S
a k
ot her
a b
d ay
Ġw ould
an k
am e
Ġt ake
Ġn e
Ġh m
Ġthe se
Ġc l
b er
as t
Ġb ook
q u
f f
ou r
Ġdid n
Ġa h
R O
Ġh uh
Ġn eed
Ġd r
it e
Ġis n
Ġre ad
is h
Ġa s
Ġth ing
ee p
re e
Ġt r
Ġha f
Ġhaf ta
Ġs om
ĠD addy
Ġsom et
Ġt ell
B RO
Ġa g
Ġth ose
u e
ĠT h
i es
oug h
w ay
Ġm m
Ġha d
er s
ou se
u re
Ġn ice
o ck
Ġwe re
Ġs l
Ġw ill
Ġt ra
ĠM ommy
m e
Ġbo y
Ġ F
c t
oo n
Ġc ould
t her
Ġag ain
im e
Ġth ank
Ġw ww
Ġb u
Ġm an
Ġo ther
Ġ N
al k
o ve
on g
Ġ L
i p
Ġ G
x t
Ġan other
o f
Ġc om
om as
ĠTh omas
ea se
u p
a ir
g g
Ġsomet hing
t h
Ġm u
Ġpl ease
un n
e l
Ġdoes n
Ġb it
t ing
Ġg re
e p
Ġp re
Ġs w
o b
Ġb all
Ġb y
Ġf l
Ġw or
Ġha pp
e et
Ġsa id
t e
ar d
o ld
Ġc at
Ġs it
u l
o s
Ġ E
o st
Ġt ur
r ight
Ġre ally
Ġt ime
Ġf i
Ġg ir
T E
Ġh ouse
o h
Ġe l
Ġw ay
es s
ee n
Ġal right
um p
M CH
TE A
a re
z z
ea d
Ġgo es
Ġel se
Ġc all
i ch
r ow
ar t
Ġw a
an t
Ġ qu
Ġsh all
oo d
Ġth ree
a ck
oo m
Ġg ive
an g
Ġhe l
L O
Ġc r
y s
Ġp u
Ġgir l
D AD
Ġtur n
Ġfr om
Ġa way
Ġwat er
oo l
Ġbl ue
Ġre d
Ġb et
Ġt ry
us h
Ġa r
Ġc ol
b e
at e
Ġuh h
Ġhe y
Ġdon e
Ġh and
ĠC h
p en
Ġl e
Ġtra in
Ġwe nt
s ide
Ġgon e
o c
Ġm ay
Ġhel p
is s
Ġ R
v ing
Ġb ir
Ġcol or
Ġl ot
Ġs e
Ġhapp en
is t
Ġuhh uh
or n
a h
Ġwat ch
Ġo pen
ir st
ra w
ww w
ar l
Ġb re
Ġf ind
ve n
LO I
Ġthing s
G R
Ġbe d
Ġs c
m ber
unn y
ĠF r
Ġp ie
Ġgre en
en t
Ġs m
Ġin t
Ġh ome
o ll
A R
Ġre me
Ġu s
nd er
i ld
od y
Ġ ke
P AT
oo r
Ġreme mber
Ġm ommy
i on
Ġp r
Ġp ic
Ġch e
Ġsh ould
Ġp e
a ce
Ġto day
a ge
Ġe very
l es
ee l
oug ht
p h
Ġsh ow
at h
le an
ke d
Ġmay be
Ġf our
one y
Ġb ot
Ġbet ter
Ġh or
Ġt alk
Ġsl eep
Ġbo x
ak ing
Ġdo g
Ġh i
ll o
t hing
AD U
e nd
Ġhe llo
f ul
Ġwa it
b ody
Ġw r
Ġd ay
' d
Ġ v
Ġd i
Ġl ove
Ġg r
Ġh old
Ġwor k
Ġf all
Ġh ear
Ġk ind
Ġby e
an ge
Ġ en
a g
Ġt ea
Ġc ook
Ġd ear
Ġme an
o ke
Ġwh ich
oo t
F CH
am a
Ġg u
Ġwe e
b b
Ġdo or
l f
Ġcall ed
Ġy ell
Ġf irst
Ġh ead
Ġcom ing
GR A
Ġd addy
Ġm in
Ġmu ch
Ġw on
Ġ W
Ġtr uck
as er
ad y
Ġare n
Ġl ea
ĠFr aser
Ġb ear
il k
ar k
m an
Ġdr ink
Ġlook s
o g
Ġsay s
te xt
| >
Ġ< |
of text
end oftext
Ġ H
Ġyell ow
t ure
ut e
Ġn ame
Ġst op
oo p
Ġm ilk
Ġd e
Ġint o
Ġf in
Ġch air
Ġfi re
Ġa f
ch ool
Ġhave n
Ġs or
Ġpic ture
Ġh ur
Ġju ice
Ġsh o
Ġb een
Ġdo ll
Ġc up
Ġst ill
i x
ad e
Ġs u
Ġr ound
Ġha ir
Ġh at
Ġs chool
as s
Ġf ive
y ou
Ġd in
Ġf ood
i le
Ġth r
Ġfin ish
is e
Ġe x
f t
C AR
Ġe y
Ġar ound
Ġne xt
Ġs ure
ĠG r
Ġpe op
Ġaf ter
Ġm ight
le ph
Ġto ys
m a
Ġn ight
Ġp en
Ġu nder
Ġpeop le
Ġd raw
Ġread y
Ġthr ough
re am
Ġb us
Ġc o
Ġ our
u ff
Ġd is
Ġon ly
as h
im al
Ġa pp
Ġst ick
Ġget ting
es t
Ġp ick
ab le
arl ing
Ġan imal
ill y
Ġl ong
Ġf unny
ou s
Ġm ine
Ġd arling
Ġke ep
Ġh ot
Ġu se
es e
Ġsw eet
ap er
Ġw ow
Ġplay ing
Ġne w
Ġc ow
Ġhappen ed
Ġc are
ĠM ama
Ġy a
Ġe gg
Ġs n
g et
Ġbre ak
Ġor ange
Ġw alk
a il
Ġp ig
Ġm on
s s
SI B
Ġj ump
re d
ou ch
Ġ K
Ġbot t
or y
Ġto p
Ġf ish
Ġ z
Ġhur t
op s
au g
Ġpre t
g er
Ġa m
a ch
ke y
Ġd uck
Ġc ut
v es
J E
Ġpie ce
out h
Ġlook ing
Ġmin ute
n e
Ġs qu
Ġm ade
Ġbr oke
Ġst ay
s h
u ally
Ġpu ll
op p
Ġth row
Ġm aking
Ġany thing
Ġc ame
Ġm outh
Ġt able
ar m
se lf
Ġl ast
Ġon es
ap e
Ġout side
Ġd at
Ġeat ing
Ġbr ing
Ġbir d
Ġsa w
Ġth ought
ĠM om
Ġno se
Ġpret ty
Ġs na
f ore
un g
Ġp ush
or d
Ġwas n
Ġbe fore
Ġthe ir
r i
ak es
air s
th day
a c
Ġy ep
Ġman y
Ġr oom
Ġi ce
Ġf oot
e w
ĠGr and
ct or
Ġche ese
i pp
orn ing
ie nd
Ġst art
Ġm orning
Ġst and
a v
Ġlot s
Ġfl oor
leph ant
Ġha r
Ġbir thday
Ġs illy
Ġw ind
ow n
Ġl ady
Ġl ight
Ġe lephant
Ġst uff
Ġba g
Ġdi ff
Ġst ory
Ġs ing
Ġs ix
Ġm om
Ġm at
Ġfr iend
Ġo oh
Ġg l
Ġha ving
un ch
E L
Ġp ot
Ġn um
Ġm ove
ĠD ad
um m
Ġo w
ir t
ea s
Ġc lean
Ġapp le
k es
Ġmu st
Ġ ear
Ġanimal s
Ġf it
Ġdo gg
Ġsho es
Ġo ld
Ġsor ry
Ġlea ve
Ġball oon
Ġhor se
Ġb ath
Ġwant s
o le
Ġcare ful
Ġy et
Ġh oney
a w
Ġp aper
o nd
Ġhar d
Ġp ard
Ġpard on
Ġfi x
Ġsp oon
Ġw ear
Ġbu ild
Ġch oo
Ġc ake
Ġwh ite
Ġle g
Ġa ct
ĠN in
aug ht
Ġt ree
an a
at er
d ie
c le
b le
an e
Ġlet ter
Ġcom es
Ġpr ob
Ġwas h
Ġdiff ere
Ġk itt
Ġwh oop
Ġey es
p e
Ġf ing
Ġf eel
Ġnum ber
ung ry
Ġf ound
is ter
u g
ur p
ĠCh i
Ġf eet
Ġs k
re n
ĠJ www
Ġt i
Ġc old
Ġhand s
ic ke
lean or
Ġth ough
itt ing
Ġuh oh
Ġcl ose
ĠE leanor
it ch
c u
Ġbu y
Ġh ungry
Ġa w
Ġp ar
ir ty
Ġno ise
Ġe h
r oom
Ġch oc
Ġbook s
Ġb ea
Ġdiffere nt
Ġe ven
Ġto get
Ġc ou
Ġtoget her
Ġst r
au r
te nd
Ġne ver
Ġdr i
Ġfinish ed
Ġwr ite
icke n
Ġt ape
h one
Ġf ace
Ġc ry
b o
Ġpre tend
r ist
n er
Ġe ight
st airs
Ġact ually
Ġs and
Ġst uck
ĠM um
Ġbl ack
in s
Ġt ick
Ġbut ter
R S
Ġs ame
Ġwhoop s
Ġneed ta
U RS
Ġd re
im es
Ġto m
Ġsay ing
Ġin side
Ġhapp y
Ġfl ow
ĠP ur
ĠM a
Ġb ang
Ġf ell
ĠA n
t on
Ġs ide
ot h
Ġm oney
Ġsome body
Ġwh eel
Ġgre at
Ġr oll
ee k
d s
Ġt ouch
Ġtry ing
w h
ĠPur die
Ġk iss
Ġo ops
n y
Ġch icken
Ġp ain
ab b
ed dy
Ġre al
Ġgot ta
Ġput ting
Ġp ink
d d
Ġl ist
u b
Ġre c
Ġhor s
Ġat e
Ġth an
Ġto w
os s
ig er
se d
Ġm ess
Ġchoc ol
Ġp age
Ġr ain
Ġli kes
Ġs itting
id ing
Ġen ough
Ġwh ile
Ġs ound
Ġyour s
Ġtalk ing
i z
Ġas k
Ġse ven
ab ly
Ġg ra
Ġb ad
Ġa ir
ig h
Ġp art
Ġsm all
os aur
Ġprob ably
Ġp oor
Ġbroke n
Ġkitt y
Ġdin ner
Ġwind ow
Ġr un
Ġsee n
abb it
JE N
a ve
Ġcook ie
Ġt en
Ġp op
u st
Ġlist en
Ġl ater
on t
Ġu n
O P
Ġt e
Ġnot hing
Ġb ow
IN T
N in
way s
Ġe nd
Ġchocol ate
by e
g ine
Ġbl ock
Ġsw im
c y
Ġc ra
Ġbre ad
R E
Ġbo at
Ġto y
Ġevery thing
Ġt eddy
Ġs un
id ge
wh ere
R Y
RY A
Ġti red
Ġqu ick
Ġ er
OP E
ar a
Ġf un
Ġf ly
Ġr ock
C O
Ġlove ly
Ġsn ow
m as
Ġbott le
Ġr ide
i zz
Ġcl oth
f e
c es
Ġr abbit
Ġp ol
p l
Ġli on
ar y
Ġy up
Ġr o
Ġgu ess
Ġle ft
at her
Ġt a
oo f
ĠB ob
Ġw o
rist mas
Ġd irty
Ġb an
Ġd a
Ġal ways
or t
Ġb ite
b all
Ġ O
Ġn ine
Ġdin osaur
st er
Ġmat ter
Ġbe ing
Ġto ld
Ġba b
s y
Ġst raw
Ġt ook
Ġqu ite
Ġbl ow
Ġc ream
Ġst ar
Ġwant ed
av or
Ġwee k
an ce
Ġb i
i a
Ġso ck
Ġk id
Ġdoll y
n ight
aught y
ĠA my
Ġbe h
Ġmon key
Ġar m
Ġe ver
Ġsh op
Ġyes ter
Ġyester day
Ġy um
Ġn aughty
Ġt iger
Ġs au
oh n
u ll
f ast
Ġb unny
Ġl unch
Ġsomet imes
Ġhas n
Ġp urp
am p
Ġe m
Ġcat ch
ant s
Ġt eet
Ġbreak fast
Ġwe t
Ġpu pp
Ġg ame
at o
at ion
or row
Ġcar s
i ly
Ġch ild
e an
et s
Ġf arm
Ġh op
Ġr ing
ĠJ ohn
Ġc ir
Ġf avor
Ġwr ong
re ady
Ġha h
Ġal ready
Ġteet h
Ġh it
Ġpl ate
Ġbr ush
Ġt re
oo h
Ġwould n
Ġcloth es
Ġc orn
Ġpar ty
Ġbeh ind
Ġpurp le
Ġli ve
ĠM r
Ġfr og
Ġcou nt
RE S
Ġu nt
ff ee
Ġbr own
is y
Ġyour self
am es
ĠC arl
Ġg i
Ġb eep
Ġt ail
im b
F AD
re w
Ġco ffee
Ġm oon
I C
ea l
A N
Ġb ump
t ie
n ie
Ġj ob
Ġs ong
Ġcould n
Ġbut ton
r ot
Ġd ad
Ġhors ie
Ġm o
Ġm iss
Ġn ear
umm ie
Ġpie ces
Ġtom orrow
ou p
n ow
Ġwo nder
Ġsho e
C AT
Ġboy s
Ġbot h
zz z
Ġdre ss
Ġfing er
Ġb ee
ur s
Ġsor t
Ġpol ice
Ġfavor ite
Ġm other
c i
ĠL ara
ip e
Ġsh eep
Ġs et
Ġpu zz
er y
Ġp izz
Ġha m
Ġfr ont
Ġgr and
Ġdogg ie
Ġ zzz
Ġt aking
Ġkn ock
Ġstraw ber
Ġsh irt
Ġyea r
Ġcl imb
Ġdr ive
th e
Ġbow l
Ġpain t
Ġr unn
Ġrec ord
Ġal m
ou n
Ġpl ace
Ġsna ke
Ġp eek
Ġk itch
ill i
Ġle m
Ġkitch en
Ġwho a
au ra
Ġen gine
na me
as k
ir d
e m
Ġi d
Ġpizz a
Ġm ag
Ġp ost
Ġt in
Ġb oo
ip s
Ġbye bye
Ġunt il
Ġbe l
M EL
an s
Ġse c
Ġm akes
Ġey e
Ġbott om
JE S
Ġm ummy
n g
Ġh iding
Ġcry ing
Ġb at
Ġgl ass
Ġwho le
Ġg ave
ĠGrand ma
Ġevery body
Ġrunn ing
n ess
Ġalm ost
Ġsh ut
Ġdo ctor
se nt
Ġget s
Ġegg s
ost a
Ġgu y
Ġf ast
Ġl ost
Ġsp osta
Ġo wn
Ġm ind
ea ch
Ġp us
Ġt ast
Ġb ar
ĠCh ristmas
l ing
le ver
c ream
Ġpicture s
r ies
Ġto ast
Ġbig ger
ill ar
w ich
Ġpre sent
Ġh ole
e y
Ġflow ers
Ġh ang
Ġbu bb
Ġd ig
Ġup stairs
Ġd ere
on s
ĠL aura
Ġsand wich
ĠB r
Ġl oo
Ġp o
Ġbea ut
Ġc lever
Ġbr idge
p illar
Ġh igh
Ġsleep ing
d le
Ġd uh
Ġtra ctor
Ġg row
opp ing
ea k
ith er
m ore
t le
Ġsm ell
Ġp hone
Ġre st
Ġsu pp
Ġany more
Ġchild ren
Ġt ummy
Ġy ummy
ĠDad a
Ġid ea
Ġbeaut i
ick s
Ġex cu
Ġno pe
o y
ere st
en ty
or g
Ġs ister
Ġtw enty
Ġint erest
an c
Ġm ouse
Ġp ark
Ġban ana
Ġbutter f
a se
Ġneed s
u nd
Ġtea ch
Ġsl ide
Ġbeauti ful
Ġf eed
Ġsweet ie
p t
Ġexcu se
Ġit s
i ed
m ing
Ġw all
a pp
u bb
Ġm ic
Ġcat er
Ġs oon
Ġl o
ĠA un
ĠP et
Ġs al
opp ed
d er
Ġp eas
Ġsc are
Ġp ants
Ġcater pillar
Ġm oo
k now
CO L
Ġpuzz le
at or
Ġst ore
Ġro ad
id er
Ġh ide
Ġleg s
Ġhah a
Ġe ither
ch oo
Ġqu ack
Ġblock s
id ay
c l
Ġl a
Ġcr ay
Ġtick le
ĠS ar
r op
un k
Ġp er
ĠSar ah
Ġl or
Ġz oo
g ot
Ġb ask
ĠC ar
ĠJ ean
Ġb ought
ĠA d
w ard
Ġg ar
Ġcook ies
Ġdogg y
Ġsec ond
Ġlor ry
Ġbl ank
uck y
et a
Ġcolor s
Ġswim ming
Ġa c
ard en
Ġfor got
Ġw arm
Ġcar ry
ĠJ o
Ġuh uh
Ġcar rot
a ff
Ġhad ta
Ġf ew
Ġm ummie
Ġus eta
Ġbask et
Ġp oo
Ġg arden
Ġb is
Ġcr ash
c il
Ġtra ck
Ġdri ver
Ġthank s
as ter
Ġd ark
l s
Ġletter s
cu it
Ġsau s
b r
w ell
and a
Ġkid s
Ġf ine
Ġwalk ing
Ġbis cuit
Ġbi ke
in t
Ġbe ll
g ar
Ġs ea
Ġcir cle
Ġgr ass
Ġc on
Ġcra ck
Ġsock s
Ġbutterf ly
oll y
Ġbr other
Ġcl ock
Ġd ust
Ġch ange
Ġfriend s
l eep
a le
i re
v y
Ġo o
Ġc ause
G A
Ġp at
Ġpen cil
Ġbab ies
ta in
Ġwheel s
Ġd ry
Ġd el
Ġj ig
Ġmic rop
ĠAd am
Ġy ay
Ġc ool
K AR
i et
Ġm us
Ġst ep
EL S
Ġear s
R A
ĠN ic
Ġha lf
Ġm ix
ab oo
Ġh ea
Ġdown stairs
Ġ U
u it
ĠS p
GA I
Ġsp e
G LO
s aw
Ġ V
Ġw oof
Ġd ra
Ġn ap
Ġh ol
g on
Ġ eas
ĠB e
i ous
le d
Ġon ce
Ġtin y
Ġtow er
ĠN a
l i
e h
ll a
et t
Ġa p
Ġfing ers
Ġsome where
Ġmicrop hone
Ġpre ss
Ġp ock
Ġm ama
Ġw ood
Ġhappen s
Ġgu ys
Ġjig saw
Ġair pl
r ic
Ġsp l
Ġn urs
Ġte leph
Ġst re
t o
Ġwor d
ne y
ou d
it ing
ĠAn na
Ġp ear
Ġpupp y
Ġl ad
ut es
Ġme ow
Ġtre es
Ġpig g
ci al
Ġf ull
Ġgir aff
Ġtast e
Ġw ipe
is p
Ġhear d
Ġbuild ing
Ġf ar
Ġmin utes
Ġus ually
ĠS h
Ġloo ked
Ġb in
im a
Ġche ck
ĠCar ol
Ġstart ed
g u
Ġqu iet
Ġsu gar
t ime
Ġcar d
Ġwere n
Ġwh ee
Ġsw ing
Ġp ast
Ġ Z
Ġsh opping
Ġflow er
Ġm ar
ĠPet er
Ġg ent
Ġah ead
ĠN ana
Ġsc r
e ver
Ġco at
Ġm en
Ġst ra
Ġb ur
Ġsome one
er ry
u d
s o
Ġteleph one
Ġr i
ĠNa ima
i an
m er
k in
Ġkind a
ag es
Ġwho se
Ġin st
Ġb oot
Ġpeek aboo
Ġairpl ane
Ġre ach
Ġbr ought
Ġfoot ball
Ġs ick
Ġs oup
Ġe le
n ine
Ġsee m
Ġspe cial
Ġex c
ĠJean nine
on y
ĠP ooh
Ġs ad
ĠM ich
Ġb oom
ĠS t
Ġcr oss
ĠNic ole
e b
Ġal so
Ġw ake
ig g
ĠB a
Ġgirl s
Ġw in
a ct
Ġsk y
Ġb oun
om an
ell y
Ġne ck
Ġhold ing
Ġwatch ing
Ġsp ider
Ġplay ed
Ġdri ving
Ġsh ake
Ġbus y
ee z
Ġany way
Ġl id
Ġwork ing
Ġpock et
ĠF irst
Ġwear ing
ĠCarol ine
ĠM iss
it y
iz e
ĠP ost
Ġbr icks
L A
ĠFirst name
l ot
Ġc ur
Ġal ong
a ld
illi am
Ġmean s
p es
Ġli e
Ġdr op
Ġme at
Ġk ick
Ġsound s
Ġche w
Ġpus sy
y ing
ag h
Ġmus ic
h ah
ĠW illiam
Ġsc rew
on es
um b
ĠPost man
Ġgiraff e
Ġhop e
ett i
ĠA le
am b
Ġscare d
Ġ each
u es
Ġblank et
Ġab le
ĠA nd
Ġdr opped
Ġbubb les
Ġp our
Ġch ips
Ġp in
en ry
P at
au l
Ġse at
Ġp ers
Ġcr oc
Ġkn ee
Ġf at
Ġsl ipp
Ġhea vy
ck y
at es
Ġb est
ear t
b in
t en
Ġpot ato
ĠP o
Ġtruck s
Ġt all
h eart
Ġah hah
Ġlem me
Ġfall ing
Ġdraw ing
Ġgo sh
ink y
E V
Ġbu g
Ġstrawber ry
A UN
Ġm ost
Ġno body
st a
ĠAle x
n ing
ap s
unn el
s sed
Ġcroc od
Ġl aug
Ġha sta
it al
Ġfr uit
d a
t s
or k
ion s
agh etti
i fe
p le
Ġc u
Ġwas hing
Ġd ump
at ch
Ġpers on
Ġsqu are
Ġgra pes
Ġ ouch
Ġv an
Ġfor k
Ġsp ot
Ġsweet heart
an ny
Ġto night
Ġsh h
Ġread ing
Ġsp aghetti
Ġas leep
ie l
ĠS an
u zz
Ġli ft
v is
Ġw oo
ĠB ear
id dle
Ġhi pp
Ġow l
Ġsp ell
Ġknow s
bo ard
Ġcl own
g one
ĠA r
b re
Ġto es
ĠH enry
Ġstand ing
Ġso ft
ĠM ar
Ġgi ving
i er
Ġpr op
Ġmiss ing
Ġt v
Ġl ine
Ġpen gu
Ġh ug
L Y
on ald
Ġsp ill
LY N
r is
Ġteach er
Ġc ute
ĠAn ne
er t
Ġm is
a el
Ġmy self
Ġp a
Ġco ver
Ġl ay
ĠBe cky
Ġb uck
an ut
Ġm ot
Ġpe anut
Ġap art
Ġc ere
Ġt unnel
Ġr a
Ġwill n
LA U
m ent
Ġp ump
ath y
oc ked
Ġcere al
Ġstra ight
Ġmon ster
b ur
or s
Ġke ys
Ġtur tle
av id
Ġy og
Ġl ear
in nie
en ce
Ġas ked
ĠS am
M A
Ġany body
Ġnear ly
Ġgrand ma
Ġa y
b ear
ĠM ister
ĠSan ta
Ġrecord er
Ġtom ato
Ġf o
Ġpoor ly
Ġbird s
Ġp et
d ad
Ġr an
Ġtell ing
ĠM at
ang le
ur se
ack et
Ġrain ing
Ġd anc
ĠMr s
Ġst airs
cl ock
Ġgar age
Ġn ee
Ġp ee
ĠS ue
Ġtrain s
Ġhappen ing
Ġinst ead
Ġsh ort
Ġfor get
Ġjump ing
Ġmot or
Ġke y
ward s
in ce
K AT
Ġm ach
Ġf ight
ĠAun tie
n ic
ic y
Ġcrocod ile
Ġthink ing
Ġsaus age
Ġbe ans
Ġp as
i f
ĠD avid
ĠB ar
g ood
Ġd ance
g r
Ġprop er
Ġstick y
Ġp ill
e ct
Ġstre et
Ġli ves
good ness
ur t
our se
ou ble
ĠJ en
Ġelephant s
Ġi m
Ġmo v
in es
u gg
R IC
E N
h e
ing s
Ġup side
Ġst ation
Ġdog s
Ġj elly
up er
p a
Ġsh ar
N IC
Ġy eh
Ġham mer
om i
f l
Ġsh ape
Ġcou ple
ie ld
h aps
Ġch eek
Ġtow el
Ġper haps
Ġnurs ery
c ome
Ġtr ous
Ġcat s
er a
ĠP er
ĠJ ack
Ġbea ch
at ur
Ġduck s
Ġlight s
Ġ ve
Ġbe g
Ġwor ds
ĠP aul
ast ic
bo x
Ġpain ting
ĠMich ael
ĠE l
Ġtw el
ere d
Ġt id
Ġdust bin
Ġsu ch
Ġc am
Ġlike d
Ġl ate
Ġm iddle
Ġem p
Ġwith out
Ġl oud
op e
ĠP l
Ġtoo th
ĠB ig
Ġfly ing
Ġo ink
Ġwait ing
Ġday s
Ġemp ty
Ġpic nic
Ġtrous ers
ĠJ ames
Ġbear s
Ġdig ger
Ġp h
Ġme d
Ġsu it
ar s
Ġglass es
und ay
Ġlea f
Ġsupp ose
B ear
Ġd ing
Ġapp les
Ġc ourse
Ġtr i
Ġkn ife
Ġcray ons
Ġwh oo
Ġfall en
Ġdre ssed
Ġh os
Ġsp ace
Ġmach ine
Ġs urp
ĠS unday
ĠBa by
Ġsing ing
Ġt ap
Ġtwel ve
Ġp anda
Ġcan dy
Ġn ut
en s
ĠGrand dad
Ġsm art
Ġsp r
Ġball s
ĠE m
umm er
Ġu g
ĠP at
Ġc aught
un h
atur day
Ġcar ds
Ġo op
Ġcl os
Ġlo ves
i ke
Ġr ub
Ġr ubb
CO U
Ġstrawber ries
j am
Ġsh are
Ġwr iting
Ġmat ch
Ġdi aper
Ġlady b
p ort
p ital
Ġp ay
ĠC athy
Ġsna p
s c
Ġdo o
Ġkn ew
om in
eb ra
at ing
ĠN omi
Ġstr ong
ĠNin a
Ġele ven
Ġth irty
id es
ĠBr o
i o
h h
u ild
Ġpo int
im it
Ġarm s
Ġv is
Ġinterest ed
le m
Ġqu est
Ġd ish
Ġf ur
al a
ath an
Ġeas y
Ġpill ow
Ġn in
gg ie
ar oo
il t
Ġmis sed
Ġhos pital
ĠD omin
p ed
Ġdra gon
Ġbat ter
Ġboot s
Ġn app
Ġpl ane
Ġbab a
w een
Ġl and
Ġc oc
Ġscr atch
Ġcook ing
Ġ Y
ĠA be
ĠW innie
ir r
Ġde c
Ġpigg y
ĠD imit
Ġal one
re l
ang aroo
Ġse es
Ġeat s
Ġcam era
ĠG e
Ġt ight
ipp ed
Ġt iss
Ġz ebra
ĠDomin ic
ĠDimit ra
X X
Ġm ad
ĠA l
Ġturn ed
ĠGrand ad
Ġdrink ing
Ġpolice man
ow ed
l a
Ġf am
Ġc oll
op ter
uild er
Ġquick ly
Ġri bb
ce pt
Ġwhat ever
Ġbit s
Ġlear n
bb le
Ġt ie
Ġcow s
Ġmed ic
Ġdanc ing
ic opter
Ġpot ty
Ġsl ow
Ġag o
Ġfire man
Ġmov ie
Ġk angaroo
Ġp ool
Ġ ee
Ġf air
Ġgood ness
ord on
Ġs at
Ġspl ash
ar ren
Ġch ang
Ġt er
as hing
Ġsupp er
Ġa ah
ĠG ordon
Ġon to
l et
ig n
Ġt imes
Ġm ark
Ġtr ied
ĠT ig
Ġcar ri
Ġcorn er
Ġm ail
ĠS aturday
Ġcl ass
r m
Ġmedic ine
ĠS te
Ġgr ound
T O
Ġt ip
ut h
Ġl amb
Ġcr isp
Ġbel ong
f r
Ġwe l
ĠT om
Ġsc ary
r on
Ġr iding
ĠE d
Ġmom ent
ĠFr iday
b oo
Ġprob lem
Ġcarrot s
Ġay e
Ġwel come
ac es
Ġa in
Ġgo at
Ġp ass
Ġtr ouble
S S
ab el
ie ve
Ġmag ic
Ġshould n
ri ble
dd le
ĠU n
Ġm um
Ġcir c
Ġmo ving
Ġpengu in
jam as
Ġvis it
Ġte le
z y
Ġfo x
Ġcom p
ump ty
Ġf oll
Ġto il
Ġhol iday
Ġpic ked
Ġlea ves
vis ion
Ġhe e
ond ay
ĠR ach
c ake
ing er
Ġw ish
Ġmu d
ĠD e
Ġc one
Ġsqu ir
ve nt
Ġeat en
ĠTh e
ĠTig ger
Ġclose d
ĠM ic
Ġthrow ing
Ġr ac
Ġp ound
le w
ĠR ob
Ġhel icopter
Ġlad der
ĠE ve
Ġhors es
Ġproper ly
Ġdel ic
Ġm irr
Ġno isy
Ġcray on
Ġwork s
Ġstep s
i b
Ġa er
Ġj am
Ġac r
Ġtoil et
Ġw ra
Ġmag n
Ġen j
Ġtri angle
Ġf ield
Ġtele vision
b ow
o e
Ġhurt s
Ġcom b
al ked
Ġdinosaur s
Ġhim self
Ġp an
Ġex cept
c at
Ġr ace
Ġto ng
st and
Ġst ea
b ul
ĠS m
Ġsc iss
m on
Ġd es
Ġl ying
ĠW arren
Ġy uck
Ġsh ap
Ġde y
Ġpump kin
an as
ig ator
Ġsh ark
ĠE r
Ġs ince
ĠI s
Ġnew s
ĠB en
Ġuse d
Ġr ow
ĠPl ay
re t
ic ul
ast le
Ġbiscuit s
ĠCh arl
Ġb um
ĠMic key
Ġballoon s
Ġyear s
ĠPer cy
Ġrubb ish
Ġne at
Ġenj oy
ĠL u
o ice
Ġbutton s
ĠS c
Ġnapp ie
as on
Ġmon th
ĠB l
k ing
Ġch im
Ġchair s
Ġdoll s
Ġmirr or
Ġh ill
Ġup s
icy cle
ĠE th
Ġpull ing
Ġstr ing
Ġy ucky
o at
Ġr oof
Ġbo ard
p ack
ĠUn cle
Ġsciss ors
ĠS is
Ġam bul
Ġf ence
Ġinterest ing
Ġsh out
ne ath
Ġweek s
Ġacr oss
ĠEth an
Ġl oll
ang er
ĠL ily
Ġunder neath
Ġtiss ue
Ġlem on
Ġcrack er
Ġp oop
il ing
Ġdelic ious
re ss
Ġum bre
e g
ve l
Ġba a
ĠH ar
Ġk ing
ĠC r
ĠJ ess
Ġfit s
d ge
Ġunder stand
Ġsleep y
r r
Ġf ree
Ġh our
ap a
Ġs uper
Ġear ly
ĠM onday
Ġs ummer
Ġstop ped
Ġst or
Ġs i
ĠM an
Ġpig s
i ff
Ġwor m
Ġba se
Ġwh ale
Ġcl ap
Ġsa ve
Ġbuck et
Ġambul ance
Ġto e
Ġso ap
oor ay
Ġbel ieve
n es
Ġh ooray
Ġb ody
ow er
Ġli ving
Ġo y
Ġsweet s
RA C
Ġsl ice
Ġv room
Ġli ck
Ġus ing
Ġra is
TO Y
Ġb ra
ull y
and y
gg y
Ġstar s
Ġspoon s
Ġr ice
Ġch ip
Ġback wards
Ġhur ry
Ġcut ting
as ty
ch a
Ġcheek y
Ġbu ll
pp er
Ġgood bye
Ġbag s
eez e
s w
Ġafter n
Ġs ign
ĠR uth
Ġaftern oon
Ġd ead
Ġtong ue
Ġh o
in a
Ġumbre lla
T he
Ġ es
Ġbell y
ĠRach el
um s
og n
Ġjump ed
Ġfarm er
M AD
Ġkn ocked
Ġchim ney
Ġnumber s
Ġac c
Ġpa jamas
is hing
Ġcup s
Ġcra b
Ġa d
RO B
Ġsp in
el t
Ġfl at
Ġgent le
Ġhipp o
ĠMat th
Ġo ven
Ġevery where
c c
Ġh oo
Ġdon key
Ġd ough
Ġn ames
Ġpl astic
Ġnin et
i ver
ĠA www
Ġany where
R I
Ġg ate
b a
l er
Ġtr unk
Ġst amp
c ase
ĠR oman
B uilder
an y
el et
Ġban anas
Ġbar n
und red
ĠMatth ew
pp ed
id ent
ĠP ipp
Ġroll ing
Ġt akes
Ġf re
Ġf ill
Ġr h
Ġso re
e er
ur ch
ĠF l
Ġor ang
ore d
Ġfeel ing
Ġhol es
Ġt y
Ġfi f
Ġsqu eak
Ġwa ve
irst y
Ġgent ly
Ġrec ogn
Ġr at
bo y
Ġh undred
Ġgo ld
Ġj acket
Ġv ide
f in
Ġn ah
Ġn ail
ell e
dd ing
illi ant
Ġbr illiant
ĠMa isy
f ish
p er
Ġc astle
Ġg im
Ġgl ue
Ġsh in
Ġpresent s
Ġw igg
Ġbi b
Ġwa ff
ash ed
Ġsau ce
Ġd en
Ġclimb ing
Ġcolor ing
Ġcup board
ĠAnd y
Ġg um
Ġt u
ĠF ire
Ġsal t
Ġug h
urs day
Ġwor ry
ke ys
un e
Ġhel m
Ġr ob
ĠCh rist
Ġsna ck
ues day
b ut
Ġl ap
Ġn a
Ġpretend ing
w ise
Ġtra il
Ġloll ip
Ġfoll ow
o ver
it ed
Ġshar p
Ġgim me
Ġevery one
Ġlaug hing
Ġch urch
Ġfr o
Ġk ill
Ġbed room
Ġbox es
nes day
ĠG ra
Ġth irsty
w ee
Ġme et
Ġtr ick
Ġh um
ĠS www
Ġc ap
l and
Ġt ill
Ġc raw
et h
Ġsk in
Ġyog urt
Ġst om
op l
Ġg ames
GR M
ul a
Ġr ad
Ġbu zz
et her
row n
Ġpl ant
ind a
ĠJ ul
Ġsnow man
G MA
Ġi nd
Ġtid y
Ġorang es
Ġfix ed
Ġg un
ink le
Ġother wise
Ġj o
me an
Ġcrisp s
Ġth rew
Ġhear t
f ully
Ġp each
Ġaer opl
all ow
unn o
Ġc ot
ĠCh ild
Ġbubb le
Ġd unno
ous es
Ġcr unch
AN N
ĠG od
Ġuhh um
Ġstr ip
ra id
ĠA b
Ġs er
Ġsh ops
at ed
Ġback pack
Ġh orn
Ġb icycle
ach e
i ol
Ġh on
Ġpear s
Ġshap es
ĠM ark
ĠH e
Ġex act
Ġw oman
ĠW ed
Ġve get
Ġaf raid
c orn
l on
p s
a z
ĠFire man
Ġb and
Ġmust n
T RA
f or
ĠN athan
Ġp ack
ĠL iz
Ġwash ed
ĠM ary
Ġch ick
Ġhelm et
ĠP ing
Ġlo ad
P ooh
Ġd anger
Ġc ouch
Ġpotato es
M AT
ren ch
Ġg inger
Ġne igh
Ġto wn
il s
ri an
Ġgo r
ĠT uesday
ĠWed nesday
Ġd ream
ĠT elet
Ġv oice
Ġde fin
Ġspot s
e x
ol f
Ġwor ld
Ġsp eak
Ġrock et
in c
ĠBob by
Ġlaug h
Ġsh oot
Ġsal ad
b ot
Ġfam ily
Ġan sw
Ġpus hing
y m
ĠM ummie
Ġtr ip
ĠTh ursday
Ġslipp ers
ubb ies
Ġm ush
Ġto r
Ġfr idge
ĠE ric
Ġvide o
Ġdefin ite
Ġdo l
Ġbird ie
Ġcall ing
b ie
Ġg as
ch es
fl akes
Ġsw e
Ġgar b
Ġboun ce
Ġpas ta
ĠSm art
ĠJ ose
d ough
Ġtake n
Ġdol ph
O B
Ġf act
ĠS ally
ct ion
Ġo ch
Ġse nd
Ġro ar
Ġsaus ages
Ġturn ing
K EN
Ġc ock
Ġgi ant
Ġgarb age
Ġsa fe
n o
Ġf ather
Ġf elt
Ġbu d
Ġdefinite ly
Ġlollip op
Ġv ac
ĠSp ot
Ġc al
ĠZ org
Ġpick ing
c ing
Ġs ink
Ġbl ess
Ġfr ight
ent s
S am
Ġh u
Ġh hh
t u
Ġbaby s
ar on
Ġmess y
ĠB ow
Ġp ow
om er
c up
Ġtur key
Ġchoo se
u dy
Ġplay s
Ġpe pper
Ġmom ma
Ġacc ident
Ġtrail er
Ġopen ed
Ġcup cake
Ġclean ing
Ġexact ly
ĠMa x
l ess
ĠT o
ĠB er
Ġti re
Ġw itch
Ġ x
ĠD ip
N AN
c ked
B ird
GR F
Ġkeep s
ĠJose ph
Ġr ather
Ġups et
Ġsw eep
Ġstom ach
Ġaeropl ane
Ġf ore
Ġaw ful
Ġl ucky
Ġstuff ed
Ġquest ion
Ġc ost
Ġk et
Ġpush ed
Ġi ron
Ġm a
Ġwh ether
Ġf ig
Ġfor ty
i k
Ġst ir
Ġall owed
m o
Ġn urse
ĠPipp in
au s
Ġstay ed
Ġp ea
Ġp ages
na w
Ġfif ty
Ġh ouses
Ġc ough
Ġme nd
Ġse w
ĠD o
ĠN ew
Ġfi ft
Ġlisten ing
Ġf old
Ġhelp ing
opp y
Ġan g
Ġall igator
Ġkind s
Ġcu ddle
RO G
Ġladyb ird
L L
ab les
d ing
itt er
Ġsquir rel
Ġd irt
Ġhe n
Ġke pt
Ġcar p
k er
Ġa ch
Ġm et
ĠW h
Ġcow boy
Ġl ose
Ġc akes
Ġf e
h uh
ĠL inda
Ġsm ile
Ġdoor s
Ġw alked
Ġmu ff
r ise
ĠP apa
Ġse vent
Ġch erry
l in
Ġs eal
Ġsee ds
C h
is es
Ġpull ed
ri ver
Ġb es
ĠPing u
ĠNathan iel
Ġre fr
Ġtr ue
Ġwh ist
ill a
al s
Ġrock s
Ġblow ing
im my
Ġbase ball
Ġp anc
Ġp urse
Ġf lew
ĠL ittle
Ġfright en
Ġpl ates
Ġsurp rise
Ġstick er
Ġno rm
ch air
Ġbr ick
Ġpupp et
Ġrefr iger
d river
Ġbeg in
Ġshe ll
Ġdr um
Ġbet ween
Ġlea st
Ġchang ed
ĠD an
ct op
Ġcoll ect
nt h
op her
e es
Ġp eep
ĠM el
Ġs ent
Ġp or
Ġno ne
Ġgl ad
ĠJen ny
Ġh ay
Ġb ead
Ġfrog s
ĠEr nie
Ġcl ou
oll er
Ġpot tie
Ġfift een
ctop us
Ġbr ight
d les
p r
Ġpr am
Ġstick s
ĠGrand pa
Ġrefriger ator
S AR
Ġs ize
Ġp ond
Ġgo ose
Ġnews p
an na
Ġh ook
Ġre g
ĠB rian
Ġshow er
Ġpost man
Ġfig ure
ĠL ala
Ġmon keys
w ork
Ġth irt
Ġbr oom
Ġbump ed
Ġmonth s
y r
st ers
Ġgra pe
ĠAr an
Ġgo d
Ġstick ing
Ġt ear
ĠG ab
Ġstick ers
Ġf ishing
Ġk ite
ap ers
Ġpar rot
y a
c ol
m m
Ġo ctopus
Ġoff ice
D oh
Ġgra b
Ġham bur
ad a
ĠG re
bb ie
Ġsh ot
Ġcoc oon
Ġc ont
ĠDip sy
Ġmagn et
Ġb one
Ġcarp et
d o
Ġch in
Ġnice ly
l o
Ġtr ay
Ġgre y
Ġb unch
Ġpen ny
Ġnap kin
but ter
Ġf an
Ġpl an
Ġch op
Ġd ese
Ġli fe
ch ed
ĠU r
Ġrac ing
Ġre m
Ġsi xt
Ġbu ilt
Ġcr ane
Ġc er
ĠEl mo
ĠDad da
Ġwonder ful
ĠMiss us
Ġw ip
Ġf aster
Ġbe es
br ush
Ġo at
T ank
Ġs ell
Ġlet s
C A
Ġr ug
Ġbe an
Ġrain bow
Ġth umb
Ġp eel
ĠMom ma
Ġsmall er
e me
il es
ast name
Ġwa gon
Ġcer tain
n ce
Ġsees aw
Ġde m
Ġribb it
ĠCh ris
ĠSmart ies
od dy
Ġdoll ars
Ġcarry ing
Ġm ice
Ġst ove
Ġwindow s
Ġseem s
Ġli br
ĠCharl ie
L I
l aus
ĠL www
Ġsweet ies
ol a
Ġask ing
ĠSh em
O N
Ġl ob
Ġbur n
z er
ĠD a
Ġsqu eeze
Ġrais ins
Ġansw er
on na
ĠS w
Ġsqu ish
ĠAun ty
Ġrub ber
Ġcarri age
ĠGra eme
ish a
Ġstor ies
Ġsh ove
Ġcar t
Ġd ee
Ġl ock
ipp er
Ġyou ng
Ġb other
Ġhad n
Ġsm oke
Ġold er
ĠMa ggie
ur ing
Ġcirc us
ĠT ra
Ġcl ip
Ġw olf
Ġcr ied
Ġc ase
Ġpl ants
Ġthink s
os ie
Ġang ry
g est
Ġc ous
ber ry
am ed
Ġcra zy
Ġfre sh
c er
Ġbe at
pp le
Ġsc ream
Ġmotor cy
l t
Ġc oo
Ġp ile
is a
ri ed
Ġfour t
Ġstea dy
r o
Ġw oke
Ġz org
Ġsandwich es
Ġs sh
Ġp ony
Ġthirt een
Ġlibr ary
Ġm eas
Ġclou ds
d oo
c o
Ġtw eet
ĠO li
L IN
ter s
XX X
Ġbath room
Ġdolph in
Ġm ister
Ġb un
up id
Ġrun s
Ġbr umm
Ġbed time
Ġhang ing
or ge
Ġexc ited
Ġdish es
iz ed
Ġrock ing
Ġsurp ris
Ġqu ar
Ġt ub
ĠT ony
sh irt
ta ins
ĠH oney
ipp ing
ĠUr s
d og
Ġdad a
Ġexc iting
Ġsuppose d
Ġh ate
Ġwhat s
id ed
Ġdiff icul
Ġo b
Ġph ot
ke nd
Ġdraw er
Ġpick le
Ġgrow n
ĠI n
ĠF ather
z el
ĠT inky
ĠE aster
Ġnut s
Ġtr ash
Ġput s
os h
Ġche er
Ġrabbit s
Ġbo ing
ĠTelet ubbies
Ġlet tu
ĠP il
H A
Ġr oo
ot e
Ġat t
Ġr id
ic ked
Ġfeel s
ĠGe org
Ġa dd
Ġp ad
Ġwee kend
Ġwalk s
or ing
Ġjump er
Ġdanger ous
Ġfourt een
ch ard
iss a
Ġgr oup
Ġlong er
ĠChrist opher
Ġstart s
Ġeas ier
ĠGe orge
re ad
Ġb ark
gr oup
Ġlettu ce
r ol
Ġwa h
us s
ĠDe bbie
Ġdifficul t
n gine
ĠH umpty
Ġtast es
Ġsh ip
ĠL isa
aw s
h ouse
y l
Ġch alk
Ġstr ange
t r
Ġhor rible
Ġchicken s
Ġpop corn
Ġcrack ers
Ġme ant
ver s
ĠUrs ula
p ot
v ia
an n
us hing
Ġsna kes
ĠJo e
Ġn amed
Ġp ir
Ġe xt
Ġher self
Ġh ose
Ġmove d
Ġcl ear
Ġ ea
ĠRob in
m eal
er c
Ġcol ored
Ġmag az
i ble
u k
se l
Ġso f
Ġgrand pa
D onald
as ing
er ries
ĠPil chard
Ġu nd
ra ct
Ġkn ees
dd en
ood le
Ġmotorcy cle
Ġsa il
Ġnewsp aper
b ee
o ber
Ġbr oc
Ġdel iver
Ġim ag
Ġhu ge
Ġh unh
Ġc ush
ĠS leep
Ġsw itch
ĠEm ily
Ġtw inkle
Ġhat s
Ġbang ing
Ġbig gest
E ngine
i v
Ġpen n
Ġp air
Ġwaff le
Ġsh ed
Ġcan dles
Ġpound s
ĠDo ctor
Ġp ipe
op h
ĠCr omer
Ġha ll
Ġba h
Ġter rible
ell ent
Ġsn ip
at ure
ĠS n
oc er
col i
Ġoat meal
Ġm eal
Ġn est
Ġj ack
Ġr ail
ĠK im
T CA
Ġc ab
ĠG ail
Ġof ten
Ġexc ellent
Ġbroc coli
Ġd ess
ell a
ber ries
Ġsu dden
Ġsna il
g o
h ost
Ġpl ums
ard s
EV A
Ġhe h
ĠM c
Ġhur ting
Ġhunh unh
k s
Ġw ings
ĠR oss
Ġbott les
F A
ĠJ une
Ġwater me
Ġring s
ĠM org
ĠA m
Ġhambur ger
Ġt asty
Ġa un
Ġqu een
Ġkick ing
Ġwhist le
Ġd u
ch oc
gr ound
Ġw ire
Ġh un
ĠD onald
ĠB ert
Ġwin ter
Ġrad io
Ġun less
y n
ed y
ent ion
Ġshow ing
Ġleg o
Ġcomp ut
Ġsixt een
Ġc amp
ta ble
Ġtoo ls
uff y
Ġninet een
Ġdess ert
Ġst upid
Ġat ta
Ġch ristmas
Ġde er
Ġc re
ĠF red
Ġturn s
Ġb out
le n
b ook
Ġpuzz les
Ġbum ble
Ġbegin ning
Ġany one
ĠJ ason
Ġcrash ed
Ġneck l
Ġyog h
EN V
ut s
Ġbatter y
Ġnorm ally
m en
Ġt ank
ic a
Ġs ir
Ġbe nd
Ġhand le
ĠGr over
RE B
id s
ĠW end
Ġbead s
Ġw ide
Ġsee ing
Ġfall s
ug s
Ġwra p
iol et
ing o
Ġb on
Ġz ip
Ġbelong s
Ġswe ater
Ġst ones
Ġb ush
ch ing
ĠLu cy
Ġveget ables
C LI
Ġsurpris ed
Ġbatter ies
Ġwaterme lon
Ġs im
Ġo il
Ġkiss es
Ġquest ions
ie f
are nt
Ġta x
MA L
ĠTo by
Ġst ack
Ġm oun
Ġf uzz
Ġfeed ing
Ġrecogn ize
inc ess
r ick
Ġb orn
th at
ot s
am i
pp ing
Ġfix ing
Ġboun cy
Ġstar ting
Ġfight ing
Ġp opped
Ġch a
ĠB oo
ĠA s
ĠE www
Ġbud dy
Ġdo se
ĠM ot
Ġkitt en
Ġpigg ie
c ord
Ġg host
Ġw re
Ġbring ing
Ġclimb ed
Ġchew ing
Ġlob ster
le nt
are n
osaur us
Ġfe ather
Ġo ce
Ġr ope
Ġspill ed
ĠWend y
Ġm ac
ic ed
Ġsof a
Ġe w
Ġch asing
eed ee
ipp y
Ġfrighten ed
p uzz
ĠD or
ĠS now
Ġnee naw
ĠMel issa
Ġ '
Ġlion s
Ġcomput er
ĠC on
Ġscrew driver
Ġs od
er g
ĠT eddy
ud e
Ġn i
Ġwhat cha
Ġtick et
z ing
Ġno od
ge l
ĠP h
Ġba l
Ġsm ack
ĠSte ve
Ġket ch
ĠT re
Ġtre at
Ġstre t
Ġch ar
ĠJo ey
is k
Ġclos er
Ġaw ake
Ġbel t
Ġbug s
Ġshove l
Ġketch up
ci ally
Ġtrack s
Ġs unny
Ġroo ster
tr uck
ove red
Ġoce an
ĠK at
Ġsqu ash
Ġeight een
U S
v or
ĠGr anny
Ġpret zel
Ġm erry
ter n
ĠM other
ĠK aren
Ġz oom
fe ct
Ġgrow ing
Ġmagaz ine
Ġc a
ĠB ab
Ġwatch ed
Ġnail s
Ch ristmas
ĠM ac
Ġs le
Ġre ason
Ġen vel
it es
ĠJ ill
F RI
Ġl ess
Ġdi ed
Ġb ones
Ġc mon
Ġdis app
Ġri ver
Ġin v
Ġst ool
ĠC ind
Ġtoo t
k ins
Ġbed s
am us
Ġp unch
Ġsl ee
ĠR osie
Ġneckl ace
ĠCind ere
b and
ar f
Ġe dge
ick et
ff ic
ĠN oddy
Ġpen ce
Ġr u
Ġgive n
Ġshe lf
Ġshow ed
ĠTre vor
op ot
Ġmush room
Ġvac u
Ġpas se
Ġt ent
lent y
Ġn uh
is on
Ġcan dle
Ġfl ag
Ġduck ie
Ġpar ce
Ġsuit case
ĠD eedee
Ġdig g
Ġclos et
Ġwh e
en gine
Ġex pl
Ġpo in
Ġhipp opot
Ġsit s
ĠCindere lla
l ies
Ġen g
ĠEd die
Ġshin ing
d own
Ġs uck
Ġno ises
Ġstay ing
Ġmix ed
ĠIs ab
ĠM olly
od d
Ġsc oop
Ġlive d
Ġty pe
ĠDa isy
Ġ Q
Ġm itt
Ġp lenty
ĠK e
M abel
Ġsh oo
Ġper fect
W inky
Ġs il
Ġb ank
Ġp ian
Ġr uff
Ġst one
Ġso ld
Ġsn eak
ĠJohn ny
Ġshort s
ĠM eg
ĠD www
Ġmix er
Ġquar ter
ook ie
Ġcount ing
Ġcirc les
Ġvacu um
Ġhippopot amus
Ġab ove
Ġpengu ins
Ġtax i
Ġc op
ĠP ig
Ġgu it
oop y
Ġcame l
Ġsong s
Ġstrip es
um e
ĠB uzz
H H
it a
Ġan t
ur r
ub by
Ġpian o
Ġwh isp
ĠL astname
Ġy ard
id dy
Ġcare fully
Ġtra ffic
ĠV iolet
Ġcraw l
C laus
Ġst e
Ġbot bot
Ġkiss ing
Ġsort s
Ġyogh urt
M AR
Ġc e
Ġj ar
Ġwigg le
Ġl amp
Ġab s
Ġpin ea
o ves
ĠS oph
ff ord
Ġdrink s
bre ad
ĠSleep y
t ed
Ġpr incess
a a
ĠY ork
Ġs on
ing le
Ġdec or
Ġb en
Ġguit ar
Ġba ke
ul ar
Ġd eep
le y
am ma
Ġair port
Ġforgot ten
Ġcertain ly
m other
CH R
ĠM ike
Ġtouch ing
Ġrem ind
Ġcous in
b s
et te
ĠC www
Ġspr ing
Ġy ah
Ġbe er
Ġk i
Ġch ug
Ġplay er
ĠA f
ĠSte ven
r um
Ġl ar
Ġher s
ĠB ill
ĠAn nie
Ġsmell s
Ġcur tains
od e
Ġsqu irt
Ġaw oh
ather ine
Ġnot iced
Ġother s
Ġar r
pe cially
S HA
b ar
Ġd ah
Ġcl ay
Ġdoll ar
Ġkitt ens
Ġcom pl
Ġpir ate
i um
ig her
Ġsk ip
Ġes pecially
Ġsm oo
Ġrh in
ĠSoph ie
ĠT ween
Ġrecord ing
Ġwhoo sh
ĠL yn
Ġpu dding
ĠAm anda
cord er
Ġl au
Ġtr oll
Ġfl ies
Ġmac aron
Ġch ase
ĠJ es
ĠG old
Ġgl oves
d ers
ĠD anny
ĠJ udy
ĠMorg an
UN C
ol ute
ue la
Ġtea pot
ĠSam my
Ġc em
or m
Ġpanc akes
Ġabs olute
ĠM on
Ġbasket ball
Ġh igher
Ġc age
ĠJ im
puzz le
Ġ q
Ġw ild
ĠR ober
Ġlea ving
ĠBar b
Ġtoo l
ĠFr ank
Ġpow der
c on
g es
Ġth ird
Ġtu na
GR D
E I
Ġm kay
Ġex erc
E O
b ag
Ġpin ch
for table
ĠC atherine
ent ist
Ġimag ine
G EO
st ick
Ġtooth brush
ĠMan uela
ĠIsab elle
c les
Ġp ops
Ġgo o
Ġgo bble
Ġball et
Ġmacaron i
ic es
R US
Ġr ip
ĠS uk
ĠJ an
Ġcr umb
i os
Ġju ng
al es
il i
Ġpu ff
ĠAun t
t les
Ġr ough
ĠN or
Ġsal ami
Ġwin dy
b eep
Ġi cing
Ġba k
ly n
da isy
Ġgor ge
b les
Ġc overed
ĠPet e
Ġach e
Ġabsolute ly
h og
k a
p oo
ĠC ookie
Ġseem ed
re et
Ġd um
ĠI nd
ĠR ich
nth ony
ĠGab r
Ġl ow
Ġcan n
Ġfl our
Ġcorn flakes
Ġribb on
u al
Ġl ines
Ġwood en
Ġshin y
Ġsod a
G RO
p ie
Ġstea m
ĠRober t
Ġgorge ous
MO M
Ġfore st
Ġpinea pple
Ġjung le
Ġhe dge
ĠA nthony
Ġa ge
Ġm ap
ĠT r
Ġbr ushing
Ġs ur
se um
Ġor der
ĠC orn
ĠB ird
ac ked
Ġl ocked
choo s
Ġwhe at
w ood
pe ct
Ġun cle
Ġgi ves
ĠAb i
Ġmuff in
ad ow
ĠO ld
Ġfuzz y
ĠAf ric
Ġt ig
Ġf il
GR N
Ġb urp
Ġc ust
Ġn asty
ĠO sc
Ġext ra
Ġlau nd
ĠJ on
b ly
Ġsil ver
p ing
Ġp acket
Ġli l
um ber
j a
Ġre s
Ġbes ide
sel ves
Ġw ob
Ġbr an
Ġcr ib
ĠEd ward
ĠPig let
re ls
Ġf ed
ĠN an
Ġdec ided
w ow
Ġpat ty
k y
Ġjo in
ock s
ĠPat sy
e ese
Ġb oring
ĠH allow
ĠSuk ie
se e
ĠP olly
Ġtell s
th a
Ġbee f
Ġwh isk
ĠT odd
Ġsp it
Ġbit ing
Ġtig ers
m s
Ġd ie
Ġl og
Ġr ipped
Ġli p
li er
ĠEm ma
ĠBl ue
ĠIn v
Ġlaund ry
g ie
ĠB et
Ġbuy ing
Ġboat s
ĠHallow een
ĠC li
and er
ĠHar old
Ġfan cy
n is
Ġch est
Ġshould er
oke y
ĠBr ook
ĠPat rick
Ġdough n
Ġd er
Ġb ash
Ġg iddy
um ble
ick y
ĠE ll
Ġwr ote
Ġland ed
Ġslow ly
Ġc ity
Ġg ym
id ers
ĠS on
Ġcl oud
Ġfl ip
Ġtre as
I D
f ight
Ġ ought
Ġt ee
z en
Ġpot s
Ġclean ed
Ġcoo ked
Ġt ad
Ġr as
ĠL o
Ġhelp ed
Ġthr oat
Ġwe ather
Ġtreas ure
J U
u nder
Ġfood s
ous and
ĠAn n
re corder
Ġsp iders
Ġdi am
Ġdogg ies
Ġcush ion
Ġmoun tain
Ġcem ent
Ġpl aces
Ġmu seum
Ġstay s
Ġear lier
Ġroll er
Ġtomato es
Ġspr ay
Ġhour s
Ġwhisp er
Ġl olly
ph ab
Ġslipp er
Ġatt ention
ĠRich ard
Ġh itting
st r
Ġsp ort
oop s
app y
Ġbell s
ĠJen n
Ġdiam ond
j ect
Ġk o
ĠM andy
ĠAl ice
Ġre ct
Ġnot ice
pl ace
M IC
b or
er o
Ġf rench
Ġenvel ope
Ġth ousand
ra ph
bur y
Ġsudden ly
g h
Ġth in
ey ore
h am
w i
Ġc ave
Ġsm iling
Ġsevent een
z e
Ġcheck ing
Ġninet y
Ġfollow ing
ea red
ir thday
al ie
Ġsp read
Ġtr ans
ĠE eyore
Ġcount ry
cc a
Ġtw ist
Ġopen ing
sh ine
Ġd uring
Ġp ract
es ame
Ġar t
Ġour s
Ġun h
Ġshar ing
f er
Ġt est
Ġal phab
Ġbre aking
Ġring ing
Ġlad ders
ĠMark y
ĠGeorg ie
Ġh eal
ĠJ ake
Ġter ri
LL L
ĠJenn if
r am
ĠM ay
Ġpr og
ĠOsc ar
m ill
Ġt alked
ab out
Ġrat tle
ĠDan iel
ĠSn oopy
Ġneed ed
ĠL ond
ĠJennif er
Ġo oo
Ġagain st
Ġsk unk
Ġdes k
Ġginger bread
ĠJes us
Ġaw right
ĠCli fford
ĠF el
Ġhead s
Ġwo ah
ĠLond on
il ar
Ġwa ving
Ġdiffere nce
ĠKat ie
Ġd entist
Ġb lew
an es
Ġsp ilt
th y
ĠBr itt
Ġla wn
ious ly
Ġchang ing
R R
o a
ot te
ill on
Ġjump s
Ġsk irt
G FA
ic le
Ġj ingle
Ġba con
Ġpl ain
ĠR y
Ġeng ines
r oller
ic er
zz y
Ġpen s
J J
Ġm ill
ic s
Ġpr om
a id
u ary
ar n
ĠMeg an
se y
Ġr ides
Ġju n
ĠA ll
Ġda isy
Ġcrumb s
id d
ĠD ingo
ĠG l
em s
Ġpet rol
ĠBar bie
ĠQ u
ĠBarb ara
Ġc ents
en se
Ġbre ath
Ġbutterf lies
Ġworm s
Ġsmoo th
t ee
Ġc ash
Ġwe dding
Ġcon c
ĠIs abel
Ġup on
Ġum m
ĠA pr
og raph
Ġz ero
Ġim port
Ġce iling
ĠApr il
Ġw ool
Ġg en
Ġf aces
Ġcom fortable
el s
p ee
t ub
Ġg ee
on ge
ĠT immy
Ġmon sters
Ġcon tain
Ġbull do
Ġwe ird
Ġsee d
ol and
Ġsl ip
ĠL ou
Ġreg ular
Ġben ch
Ġought a
Ġs ides
Ġb oop
ĠC are
Ġcl ick
Ġtow ards
Ġnood les
Ġm er
ĠS us
ile d
Ġte m
Ġload s
Ġimport ant
et e
ĠC l
Ġopen s
Ġsc ra
Ġhard er
Ġwonder ing
Ġstamp s
ĠBer tie
Ġsew ing
i ans
Ġa ma
Ġwh a
Ġbl ood
Ġdi re
Ġchocol ates
Ġki wi
J A
c akes
ĠS al
Ġc rown
al m
ĠD uck
ĠB illy
Ġcr icket
Ġfro ggie
ĠJul ia
Ġpoin ting
j ou
Ġsun shine
ng ers
Ġbak ery
f u
Ġdo t
r isp
Ġh y
Ġon ion
Ġmark et
Ġcap ital
Ġpasse ngers
Ġp opp
ĠS uper
ĠH anna
ret t
Ġlemon ade
Ġwaff les
F RA
i ers
itt en
Ġco ach
Ġfriend ly
iz es
Ġrest aur
D umpty
ĠS ean
ĠN o
Ġpenn ies
Ġdigg ing
ĠTween ies
Ġprog ram
ĠD en
are d
Ġind eed
Ġhedge hog
ĠSon ia
Ġo p
Ġp oss
Ġr ush
Ġcall s
Ġex pect
g l
ou nt
Ġd ep
ĠJ ane
qu e
Ġv est
Ġfirst name
AN T
Ġpencil s
Ġele ct
ĠBer n
ĠOli via
Ġalphab et
d oodle
an tha
LO R
Ġwater ing
Ġsc arf
Ġfin ally
Ġpart s
ĠBritt any
l ight
Ġc ob
Ġsp ank
up lo
Ġti ed
ĠSam antha
Ġmeas ure
d onald
e br
Ġre p
Ġkn eel
Ġfl ash
ĠAnd rew
Ġtroll ey
Ġch erries
Ġb orrow
qu ack
Ġsc oo
ass es
Ġtick ling
Ġmagn ets
Ġm arm
ot ch
ĠD er
Ġsix ty
Ġd you
Ġb uh
ig i
ump y
Ġchoo choo
Ġbee ba
Ġloo se
ĠHar ry
Ġsim ilar
ĠRy an
Ġbulldo zer
J O
d ies
Ġre sc
Ġal ive
Ġle an
Ġfire fight
Ġwear s
ĠAr iel
Ġresc ue
v in
in dy
Ġto dd
ĠD illon
ĠSp ider
r idge
z o
Ġre ind
ĠE lla
ĠZ oe
Ġcost ume
c an
Ġli ps
bb led
r ing
Ġh ic
Ġm ashed
Ġpl ug
Ġplay group
Ġsw ish
Ġfire work
Ġsn iff
Ġwind mill
Ġdri ed
Ġpart icul
ĠMich elle
Ġmitt ens
Ġl ou
Ġst eer
Ġsp end
Ġdri ves
Ġpupp ies
Ġsec ret
Ġbur ger
Ġrob ot
Ġmet al
ĠSw eet
Ġphot ograph
Ġparticul ar
o x
Ġbear d
Ġsmell y
ĠHe len
i al
Ġclean er
Ġlad ies
ĠBrook lyn
Ġw ine
ĠT www
ĠR oland
ĠFr ost
Ġsn eeze
Ġtid ying
ĠHanna h
Ġp il
oo sh
ĠD oug
ĠC oc
ĠL a
Ġpaint ed
Ġsea side
Ġn ana
ake d
Ġpre s
Ġfl ap
Ġhelp s
ĠFel ix
b ell
ĠJ am
ale nt
ĠCharl otte
Ġgor illa
h ead
Ġc or
is ie
Ġbe et
Ġtell y
ĠSt ep
ĠBa a
Ġcu c
SS S
Ġwhisk ers
Ġd ist
en a
Ġst udy
Ġkn ick
ĠG igi
Ġsn eez
Ġc ord
Ġth under
Ġfind ing
ĠK alie
Ġladyb ug
ĠTra vis
ĠDor a
Ġd ip
Ġm ask
Ġfor ward
Ġten nis
Ġcal m
ĠJon athan
K EL
Ġs ung
Ġp ole
Ġto ck
el f
are t
ĠMar ie
Ġt us
Ġb unn
Ġgo lf
Ġgre w
Ġwor ked
Ġel bow
aught er
Ġwood s
Ġrect angle
j i
Ġt ab
Ġo pp
ĠP e
ĠN oo
Ġbit es
ĠK ate
Ġbrother s
Ġg er
ĠM ouse
Ġstar fish
ĠJo el
Ġsmart ie
Ġroll ed
Ġsweep ing
N EI
r ound
Ġd am
oo dy
ĠT im
est igator
Ġknock ing
Ġblank ie
Ġswing ing
Ġmatch es
Ġhon est
Ġlar ge
Ġrestaur ant
M ouse
Ġme lt
ĠD i
th ur
ĠR www
c ope
Ġdo ts
Ġsh adow
Ġan ts
Ġhon k
Ġumm hm
n it
n ed
Ġst ink
Ġba ked
ĠMa isie
Ġcur tain
Ġkill ed
ĠInv estigator
i am
th ough
Ġblue berries
Ġdress ing
Ġmost ly
Ġbeg ins
ili ar
G r
S t
ĠR ed
Ġlove d
Ġbump y
Ġsa ck
ĠR u
Ġpr ince
aul t
es sed
ea h
Ġman age
Ġz ipper
ches ter
ĠCorn flakes
l ish
Ġt ough
Ġab c
ĠC al
ĠW ill
Ġafter wards
ation s
Ġcrunch y
Ġwre ck
ĠBet ty
f ic
Ġa choo
et er
Ġcup cakes
Ġsquare s
Ġfair y
ĠRob bie
Ġob v
g ers
Ġsp onge
Ġhm m
Ġpol ar
Ġbat ht
for m
Ġras p
Ġal though
Ġtea s
Ġcut ter
Ġfam iliar
ĠSc oop
iff y
ĠStep h
o king
Ġd eal
ĠB at
Ġplease d
Ġgi ft
Ġtor to
risp ies
o es
Ġst ood
ĠP r
Ġsw ord
os es
Ġevery day
Ġhic cup
Ġm ist
Ġch ance
ĠB amb
Ġim p
Ġcal f
Ġbes ides
Ġparce l
bar row
n ger
ĠC a
Ġkeep ing
Ġya wn
Ġmar ried
ĠAr thur
ĠMan chester
Ġsp an
Ġsomet ime
Ġdel i
Ġvan illa
Ġbra ce
ĠI t
as es
Ġr in
um bo
Ġfl oat
Ġsm ash
Ġsn ugg
ĠK ath
Ġfree zer
Ġpor ridge
ĠAfric an
B R
Ġch icks
Ġbea k
Ġpupp ets
Ġlay ing
ĠSc ot
Ġcann ot
nit ure
ob ile
Ġdre w
Ġcur ly
Ġfur niture
Ġama zing
Ġscoo ter
E RI
Ġl uck
en ny
ĠB rown
Ġduck ling
Ġer r
Ġtad ah
Ġy er
Ġh ops
bo at
Ġgrand ad
ĠBar ney
ĠLo is
Ġlou der
F E
Ġli z
Ġpl um
ĠD uplo
ĠB o
Ġstr oller
Ġspin ning
Ġwave d
d ear
w oof
Ġin ter
LO U
Ġv ill
Ġrais in
ĠS andy
ĠB ella
ĠR a
ĠMat ty
Ġmotor b
ĠCon or
c ed
i ent
Ġt ac
Ġh ugg
am my
Ġswing s
Ġsmart ies
ĠMc Donald
Ġste pped
Ġt at
Ġp itch
Ġsh y
Ġdi apers
Ġcoc oa
itt y
c ar
m ark
ĠM ore
ĠAlex ander
Ġslee ve
Ġw om
Ġw aking
Ġc row
Ġg a
ĠM ia
Ġso cc
Ġdin ing
Ġteach ers
Ġdra g
Ġpil ot
l ets
Ġc ub
ke e
id a
Ġpl us
Ġpl aster
ain s
ies t
Ġfl avor
ĠEr in
Ġenjoy ing
Ġsocc er
c oon
Ġc oug
Ġc oke
Ġwe ight
Ġdis c
Ġwheel barrow
Ġboun cing
Ġshout ing
ĠDer wood
Ġreind eer
a by
b ird
m b
Ġy o
Ġd ouble
Ġst eal
ĠB rett
Ġroll s
Ġsister s
ĠBe cca
Ġlick ing
Ġvac ation
Ġpanc ake
Ġelect ric
ĠJam ie
ĠBamb i
K ID
ĠM www
Ġsw allow
opp er
Ġpocket book
Ġaun t
Ġw al
Ġp oke
Ġcl aws
Ġoops ie
Ġhorn s
Ġp apers
om p
ĠD onna
Ġfl ashing
Ġspell s
Ġrac coon
Ġobv iously
c row
Ġh us
it s
al ade
and ra
ĠT es
ak er
ĠL eg
Ġgr r
Ġgra bb
Ġlearn ed
Ġmuff ins
ĠOli ver
N N
c ut
c al
Ġd aughter
Ġit self
Ġp ip
Ġst ock
Ġsteer ing
Ġcuc umber
L a
re st
it ion
Ġe d
Ġtalk s
Ġsnow ing
Ġnurs ie
Ġcontain er
Ġtodd ler
ic al
el ery
ang a
Ġmoo se
Ġiron ing
Ġreg ister
D ad
Ġ et
Ġt aught
Ġg igg
Ġst ate
ta ge
Ġstr oke
Ġreal ize
Ġtus ks
Ġtorto ise
Ġwor ried
Ġleg os
Ġbang ed
ĠGre g
Ġrhin ocer
Ġsung l
Ġs led
Ġo t
Ġsleep s
Ġstret ch
Ġheal thy
Ġmarm alade
Ġg all
Ġm am
Ġit ch
Ġwhen ever
Ġsp o
Ġchoo s
Ġdoctor s
ale nd
Ġtap ing
Ġth ick
Ġst inky
ell o
Ġfr ost
Ġtell ie
Ġfish es
ding ton
Dad aw
V I
Ġn icke
Ġst eak
ra l
ĠE ng
Ġfall ed
Ġfill ed
ĠP ad
ĠG www
ĠW ell
Ġwall s
Ġmix ing
Ġbark ing
M on
r ay
Ġs ang
Ġb anda
Ġsh aking
ĠS im
ĠC indy
oc ery
Ġwhoops ie
izz y
Ġsau cer
Ġquiet ly
Ġtem per
Ġvill age
ĠTes co
d r
m ies
Ġp ork
Ġp arent
Ġr ude
Ġj ail
ĠR oo
Ġear th
ids bury
ĠBat man
Ġw i
an ces
Ġp apa
ĠM iffy
ast e
ĠCh eer
Ġkneel ing
b illy
p aste
id i
Ġme lon
ie lla
al ing
Ġenjoy ed
Ġgen er
Ġy e
Ġpour ing
ĠJul ie
Ġbun s
Ġni bbled
Ġfirefight er
w alk
Ġit ems
ee nth
ĠR ice
Ġgr ocery
ĠK anga
Ġrh y
Ġveget able
ĠPad dington
t ock
Ġbeep beep
Ġfil m
i kes
Ġt een
Ġp aw
ar ate
ry n
ĠD idsbury
and ma
Ġpat tern
Ġdec ide
Ġsle pt
Ġdoughn ut
Ġrin se
Ġrhinocer os
f ood
Ġdr ill
Ġthrow n
Ġmo ves
Ġscare crow
JO A
ĠT w
Ġhome work
ag ed
Ġsu b
Ġscrew s
Ġarr ive
Ġmotorb ike
Ġhus band
s on
u ct
ta p
ob e
Ġnuh huh
Ġdeli very
v a
Ġs ense
in y
Ġr ake
Ġba re
ill e
ĠD eb
ĠS ep
ĠC ol
Ġen ne
Ġstop s
em i
Ġee e
Ġcompl ete
b uilder
s k
Ġt uh
Ġf ant
ight y
Ġst ing
Ġunder w
ĠK ent
Ġeven ing
Ġtick ets
c ht
or ter
Ġu r
Ġkn ot
ĠP u
ease l
ead er
ent re
Ġus es
Ġooo o
y e
it er
ĠT ommy
Ġsp ark
Ġdra in
Ġmar ch
Ġmar bles
Ġund o
alent ine
Ġbrace let
FE M
Ġlook it
Ġpe g
Ġsound ed
mark et
Ġt ipped
Ġin k
Ġe qu
ĠS esame
Ġshould ers
ĠEl iz
Ġfro zen
Ġpeach es
yr up
Ġbunn ies
ĠKath ryn
g osh
Ġgot ten
Ġfeather s
Ġc alend
Ġl ake
Ġba ker
ĠJ u
te mber
Ġshow s
Ġdi zzy
Ġset tee
Ġcon es
ĠNic ola
ĠSep tember
d e
Ġd ummy
in ess
Ġb ill
Ġr amp
ĠM innie
Ġj oke
Ġbl ah
ĠJ ac
Ġneed le
ĠL e
Ġcom f
Ġfl uffy
Ġsc ri
Ġbon k
Ġwom en
Ġsungl asses
L E
d oll
g le
Ġhe at
ĠP ean
Ġas s
Ġtall er
Ġcre ature
g a
j u
Ġw ife
Ġm obile
Ġto ad
au ce
Ġgr rr
Ġtouch ed
Ġdump er
Ġtap es
Ġwra pped
Ġsuper market
Ġcop y
Ġbatht ub
N ON
Ġ X
Ġw rench
ick ory
Ġdoll ies
ud ge
ĠSt ock
Ġea ster
Ġfirework s
Ġmist ake
Mon ster
at ter
ink er
Ġbr r
Ġcl ub
xt ure
Ġgl ove
Ġcou n
Ġcu dd
fl ower
Ġsquir rels
P A
l een
ic les
oth y
oe be
Ġcraw ling
Ġswe at
Ġket tle
Ġko ala
Ġopp os
D AN
Ġn et
Ġpr oud
ĠSt reet
Ġsi ren
Ġtrick y
Ġfant astic
Ġa e
Ġs ippy
at os
Ġn u
Ġp aws
Ġwe igh
en e
Ġst ew
Ġthem selves
Ġv iol
Ġhard ly
Ġhoo ver
Ġt une
Ġre l
ĠT isha
ies el
ĠF izz
Ġkid ding
ci ous
Ġgiraff es
ĠFl oppy
pr int
ĠGabr iella
Ġd w
Ġc elery
ke ep
Ġtw ice
of t
Ġpaint s
Ġbar rel
ĠJess ica
ĠFl or
Ġtu be
in ter
ĠS ummer
Ġtr ies
ĠN anny
Ġbreak down
Ġer m
Ġbowl s
ĠAs ian
Ġsur f
a i
Ġs elf
Ġb erries
Ġbe ets
ir ds
Ġan n
Ġpock ets
Ġug ly
Ġbanda id
Ġg eese
Ġdo od
Ġsh ush
Ġreme mb
Ġpick s
Ġro ast
Ġfoll owed
p ar
er v
ear s
ĠS yl
Ġcook er
cl oth
Ġla zy
Ġlear ning
Ġve h
Ġcart oon
Ġmushroom s
Ġb om
Ġdon g
ate ly
ĠR on
Ġhot el
Ġtrunk s
ĠBaa ee
Ġrememb ered
Ġto t
Ġsh amp
Ġcan t
Ġdr ank
ent ly
Ġhi ya
Ġmilk man
Ġtooth paste
Ġsneak ers
Ġcalend ar
Ġshamp oo
c urr
Ġp ath
Ġlet ting
ĠD r
ĠE ls
ĠR abbit
Ġgrand mother
Ġbeg an
a f
Ġl un
or ah
ot ape
ĠJ e
bb les
Ġhead ache
Ġgra vy
Ġcomp any
Ġshap ed
Ġscream ing
ing ton
es l
Ġbr um
Ġcl uck
ĠG er
Ġar row
ent r
Ġgr oss
ĠSp ain
Ġclos ing
Ġcot ton
Ġprom ise
w ah
Ġp sh
ĠD is
ĠD umbo
ĠB unny
ĠF at
Ġsqu ashed
Ġwip ing
Ġs ip
Ġc abb
Ġwe ed
Ġch oke
ĠP op
Ġdr ove
ĠR emi
Ġgu ard
ĠPh oebe
ĠGold il
Ġexerc ise
Ġliz ard
b l
Ġd ate
in ed
ĠN e
ĠG inger
ul p
Ġcr ashing
bb it
Ġjigsaw s
Ġinst rum
Ġbra ve
OB S
Ġt ag
Ġm ood
Ġto aster
ĠM mm
ab eth
AN D
HH H
ĠStock port
Ġf ee
Ġblue berry
Ġmov ies
Ġneigh bor
Ġcheer l
Ġsail or
Ġdisapp eared
n s
Ġp acked
Ġf et
Ġout ta
our t
Ġfish ies
Ġhors ies
Ġwra pping
ĠNan cy
Ġhonest ly
N oo
w l
Ġs yrup
Ġn anny
it am
Ġsh r
Ġbl eed
ĠB ost
Ġbea ker
Ġda e
Ġmeas uring
Ġpenn ys
n ers
Ġa qu
Ġd umb
Ġp ed
Ġp ail
Ġr ul
ic t
Ġch ugg
ta il
Ġv et
Ġshirt s
Ġpost box
Ġshark s
Ġm ath
ĠK athy
ĠSal tie
ĠGoldil ocks
Ġp ies
Ġsl iding
ang u
Ġaw h
Ġeas ily
Ġspr ink
ym es
Ġjun k
Ġhiccup s
Ġhops c
ĠBost on
d um
Ġs s
at ive
Ġwe b
Ġsh ame
Ġba king
ĠT yr
ĠJ erry
ang les
ĠK ing
Ġmess ing
Ġsevent y
Ġknick ers
ĠSyl via
p y
Ġt im
Ġl abel
Ġst ole
Ġbo l
Ġal arm
up s
Ġtur tles
Ġpr ot
Ġv itam
Ġblack curr
illi an
Ġholiday s
ĠLu c
Ġpor cup
h ow
Ġl ump
Ġl oft
Ġl angu
ig an
Ġwas te
Ġsp are
ĠA lf
ĠN em
ĠN onna
TE L
Ġfur ther
Ġaun tie
Ġcamp ing
Ġsold ier
Ġlip stick
ĠEliz abeth
Ġhopsc otch
b us
d in
um n
Ġfor th
ĠD izzy
Ġcatch ing
Ġdust ing
Ġpigg ies
ĠBern ice
ĠFlor ida
Ġawh ile
D ON
K K
Ġsee k
ĠS pen
ĠJ immy
pen s
Ġsand box
Ġbal ance
ĠNor man
an ie
ll y
is sed
Ġst able
ie w
Ġdis g
Ġbring s
ĠLu ke
JU D
Ġpitch er
I AN
T T
Ġa ut
Ġf a
ell otape
ĠA ction
gg edy
Ġgr ocer
Ġfire men
ĠK ay
Ġmust ard
Ġpeanut s
D N
E DN
Ġy all
ut ch
ank s
Ġpr o
Ġtea m
ust ing
ĠFrank lin
ĠDis ney
m it
Ġst age
ic ally
ĠD ave
ĠB eth
Ġbuild er
Ġviol in
b irthday
Ġbo ss
Ġfr ies
Ġsu nd
Ġmus cles
Ġspl ashing
Ġpussy cat
Ġcrocod iles
Ġterri fic
Ġnicke l
ĠDeb orah
keep er
ĠNem o
i ence
m ed
Ġt uck
Ġg uh
Ġdo m
ĠM or
Ġall ey
Ġsp ade
Ġball er
Ġbreak s
Ġbad ge
ĠSt u
ĠWell ington
Ġw ing
Ġb ored
Ġk issed
ch er
Ġtr icks
Ġpre fer
Ġhigh chair
Ġfact ory
O T
b row
Ġc ree
Ġm ain
Ġp ant
Ġr ode
ĠR oy
Ġreal ized
Ġsecond s
Ġgold fish
Ġprot ect
C LA
Ġan gel
pp y
and el
Ġbec ome
ĠA mer
ild a
Ġside walk
Ġap ric
ĠEm my
ĠWh at
Ġwire s
Ġparent s
OT H
B rown
Ġm ash
Ġp ower
Ġha w
Ġba gel
Ġsp out
Ġwor se
ĠW oody
Ġer ase
Ġeye brow
Ġlaugh ed
Ġcont rol
ĠPh il
Ġrhy me
Ġporcup ine
Ġlangu age
H AR
g i
s ie
Ġb as
ank y
ul u
Ġpr ize
Ġdoll ie
Ġfish y
Ġpump kins
Ġcarri ed
ret te
Ġcoun ter
Ġblackcurr ant
ĠStu art
Ġa v
Ġp ss
Ġf ool
Ġdon ut
Ġj eep
ra bbit
ĠR e
Ġround about
ĠK www
ĠAs her
Ġexpl ain
alm at
leen ex
re ssed
Ġs ep
Ġf ry
Ġk icked
Ġstand s
app ing
Ġhug s
Ġrecogn izes
Ġcot tage
ighty ear
cht ime
Ġlun chtime
ĠJe ff
Ġcabb age
Ġd ime
Ġf ault
Ġre t
Ġtw ins
Ġdra wn
ĠAl ad
ĠNo ah
ĠRu by
Ġteen y
c ock
Ġm ia
Ġf uss
Ġare a
ĠM al
Ġout f
il o
ĠG ood
oot s
ĠCheer ios
n n
Ġa u
ĠC ap
Ġdr opping
ang led
Ġduck y
Ġbar rette
ĠLeg o
c ie
i ves
l ers
ar ium
ĠK en
ĠKe vin
Ġbran ch
Ġs eas
in ing
Ġbl ind
ĠL ucky
Ġrh ymes
ĠJul ian
Ġshell s
d ed
Ġs ush
Ġan ten
ĠD on
Ġqu it
Ġsing s
Ġpol ish
imb a
Ġpa id
Ġrad i
Ġhun m
Ġcoug hing
Ġcomf y
Ġdisg usting
H EL
h ere
Ġd are
Ġd ung
Ġb le
ĠS imba
Ġmar ble
igg y
Ġcover s
Ġsquish y
Ġpract ice
Ġot ter
M ar
Ġh ip
Ġm unch
Ġon ions
Ġju icy
Ġbo lt
ick le
Ġsing le
Ġsk ate
Ġsand als
Ġser ve
ĠInd ian
ju ice
Ġsush i
s et
x x
Ġd as
Ġso ggy
Ġhor r
Ġtre ad
Ġfro ggy
ann el
L astname
Ġm i
Ġin s
ĠM ad
ir l
Ġtra pped
ne ct
ean s
Ġtail s
Ġpee pp
ĠEll ie
Gr andma
S h
i or
i ana
Ġw easel
Ġm op
Ġcan s
Ġju g
Ġbut t
uck le
Ġwr itten
Ġsqu eez
ball s
Ġblank ets
Ġslipp ed
Ġrail way
Ġchar ac
Ġgrabb ed
k n
s es
Ġc ig
Ġme m
Ġtick les
Ġfork s
pens ive
Ġh ood
Ġpl at
Ġch ose
ue l
gg ing
Ġv alentine
Ġco al
Ġslipp ery
Ġtiss ues
ĠWh ite
ĠJu ly
Ġh ush
et y
ra h
ĠT ex
Ġtr icycle
ĠO wl
Ġfinger na
Ġdes ert
Ġcoach es
C www
Ġp al
Ġj our
Ġpl eas
Ġeat er
ol k
ĠL ulu
Ġmar ching
Ġwigg ly
ĠSweet ie
r us
re r
Ġre f
Ġkn it
Ġch oice
ĠC laus
ĠB aura
ĠB ugs
Ġcr ad
Ġkitt ies
Ġbea ver
Ġcu be
ment s
Ġskin ny
Ġsport sc
ain e
Ġbus iness
Ġpick les
Ġcoat s
Ġcross ing
Ġser v
Ġpatty cake
VI S
Ġchugg a
Ġballer ina
a e
g n
Ġw ond
Ġo dd
Ġnow here
Ġpe ck
Ġeight y
Ġproblem s
Ġadd ress
Ġdeliver ing
Ġwob bly
idd en
ĠCap tain
Ġradi ator
Ġha e
all s
Ġgot s
ĠB ee
Ġcr ust
Ġex pensive
Ġscr ub
Ġes c
o int
w oo
Ġth read
Ġli f
ĠD in
ĠT iger
Ġsw iss
Ġow ls
Ġpar ked
oy o
Ġpark ing
Ġcon fu
ĠMat t
Ġpay ing
Ġslee ves
ĠJac ob
Ġn aw
Ġp ah
or se
Ġdid dle
Ġas h
Ġfl uff
Ġcheek s
Ġlate ly
Ġgoat s
Ġpad d
Ġdire ct
Ġcomplete ly
LE A
p ooh
r ings
v et
Ġst ream
Ġsa le
Ġtr ump
Ġboth ered
Ġpo ison
Ġgrow s
ĠBar ry
Ġshout ed
Ġcont roller
Ġarrive d
Ġaqu arium
Ġmia ow
d ee
f ord
j o
m unk
p ool
y um
Ġw akes
Ġpl iers
Ġwa ves
Ġsm ashed
Ġex p
ĠThe o
Ġfore ver
Ġmend ed
Ġpretzel s
Ġwhisper ing
ĠCa it
Ġtemper ature
o ked
y ard
Ġh umm
Ġh idden
at s
Ġm os
Ġm ous
Ġgre edy
ool aid
ater pillar
Ġbeh ave
Ġbat s
fr uit
ĠMac Donald
Ġpops icle
Ġduckling s
Ġfet ch
Ġcrad le
L www
P l
Ġm all
Ġp ets
ke n
ut ta
Ġr ose
Ġj ew
Ġba m
Ġput tap
Ġdr unk
Ġfour th
ĠH appy
Ġpar ade
ĠHe idi
ĠTra cy
ĠFrost y
Ġsnugg le
Ġputtap utta
Ġt ins
Ġa x
Ġm ike
Ġno r
Ġju gg
ĠS eth
Ġthank you
Ġgr an
RE N
Ġser ious
Ġbother ing
Ġm id
Ġj olly
Ġwr ist
Ġsea m
Ġpea cock
Ġcab in
Ġl one
Ġp y
Ġp ou
Ġp it
Ġf ake
ch ief
ra ck
Ġag es
ĠL ee
art in
Ġbi kes
Ġcaterpillar s
ud dy
Ġele v
Ġmail man
Ġchip munk
Ġcush ions
ĠSus an
v al
Ġp ine
Ġp os
Ġch eep
ĠJ ay
ock y
ĠL aur
ĠH ungry
ust r
oof y
Ġaer ob
Ġspin ach
Ġpea ce
Ġcha sed
Ġoutf it
Ġs ss
Ġwh ales
Ġn at
Ġli qu
ĠP ar
ip er
are es
Ġstop ping
Ġnight time
Ġam en
Ġbrush ed
Ġpast ry
Ġfur ry
ĠKe isha
Ġdung arees
ĠTex as
Ġt ut
Ġt art
an tern
Ġp itter
en ces
ĠM oosh
Ġfor m
Ġan k
Ġwill ie
Ġle op
Ġv ase
ass ie
Ġfish ie
ac a
Ġpat ch
Ġpoint s
Ġsave d
Ġbreath e
J ON
b ah
Ġc ons
Ġm ou
all owed
ic an
ĠD u
Ġbr and
Ġgr ay
ĠK ip
Ġmar s
Ġea gle
Ġunh unh
Ġaerob ics
Ġt angled
Ġd est
Ġwh ad
Ġwan d
ĠP ot
ĠJ osh
qu it
Ġlot ion
Ġtop s
Ġpurp ose
Ġwip ed
ro ad
Ġatta ched
Ġparce ls
Ġcust ard
RR R
y le
Ġhe ld
Ġsp aces
AD R
os cope
Ġpu ddle
Ġpr ick
ĠCar le
Ġnorm al
Ġjour ney
W h
re en
Ġch ain
op es
ell er
Ġdr ops
ĠN ick
ĠG ary
Ġsw allowed
Ġcut ie
Ġaw fully
Ġfavor ites
Ġdanc er
Ġjo king
JJ J
JA K
ĠBo zo
Ġelev ator
o gg
r obe
Ġn ea
ĠM ir
Ġshe et
Ġsp eed
ĠJ ust
ĠA na
Ġway s
ble d
Ġrain ed
Ġswim s
Ġpus s
Ġgold en
str ich
Ġconc entr
ĠSpen cer
Ġcig aret
c ause
p ants
Ġs ake
Ġg arl
se ct
Ġj eans
Ġbo bble
Ġpeop les
fr iend
Ġmeet ing
Ġdolph ins
ĠCare y
ĠRa ggedy
Ġconfu sed
L ightyear
k o
Ġo strich
Ġm od
Ġr od
ĠT y
ĠT ed
Ġam ount
wh eel
iver s
Ġapric ot
ĠLaur ie
T h
Ġh opping
ĠM artin
Ġnot e
Ġhold s
Ġrec ently
ĠDe ce
ĠJan uary
Ġwal rus
Ġt end
Ġw ore
as her
Ġapples auce
Ġscratch ed
Ġrob in
Ġpres chool
ĠCait lin
Ġmos quit
b oom
d oh
p an
p her
Ġw if
Ġm essed
ĠM ilo
ĠC at
ĠJ illy
Ġbu ff
ĠG oofy
Ġfire place
Ġpig e
Ġbur nt
but ton
Ġwond ered
ĠDece mber
Ġa i
in na
Ġgo ed
st ress
ad o
Ġst at
ot a
ĠC ourt
Ġcl ue
Ġbird ies
Ġnurs ies
Ġdes ign
Ġrob ber
ĠTelet ubby
g ull
u z
Ġs ig
ve d
Ġk oolaid
Ġgot cha
ĠB ea
ĠB on
Ġsw an
ug ust
Ġper i
Ġscr am
Ġpas sed
Ġspeak ing
ĠEric a
Ġchar ge
Ġfrost ing
ĠX av
Ġseam stress
c oat
h ive
in i
Ġme l
one ys
Ġbus s
Ġhot dog
Ġbat hing
Ġmic row
Ġpat ient
Ġseat s
Ġtowel s
Ġve l
ĠPipp o
Ġgiddy up
Ġlone ly
Ġo key
Ġc uck
ar th
ore s
Ġdi et
ĠGr amp
Ġbar ber
Ġsea gull
igg ly
Ġclown s
x ter
Ġc aboo
Ġg ang
Ġl os
Ġe i
ch e
Ġsal mon
Ġap ron
ĠMar ch
Ġbuzz y
Ġpeep ing
Ġcous ins
Ġbush es
ĠGabr iel
Ġmicrow ave
v an
Ġs our
Ġd it
Ġd andel
Ġst ud
ic ip
Ġbr u
ĠS ellotape
Ġne ither
Ġpr od
Ġmess age
Ġhea ven
ĠV ery
ĠBl ack
Ġcrab s
Ġtor ch
FA Y
Ġplat form
G IN
Ġwh addy
Ġp ap
Ġf um
UN I
Ġre la
pp ers
ĠB all
ĠF rench
ip ment
Ġgr anny
ĠJack ie
Ġbase ment
Ġatta ck
Ġpy jamas
Ġcuck oo
M www
g an
r uct
Ġy arn
Ġd ou
ut ter
Ġwho ever
hm allow
Ġow ie
Ġsk ating
dd er
Ġairpl anes
Ġbuck le
Ġscratch ing
Ġshoo ting
Ġcheerl eader
Ġrela x
Ġv ol
Ġgr ade
Ġgr umpy
Ġham ster
Ġroad s
ĠSh aron
Ġrecogn ized
Ġequ ipment
ĠCourt ney
D E
Ġsh a
ĠD iesel
ĠF ebr
Ġcon vers
Ġnapp ies
la ire
ib ly
Ġsqueak y
Ġteas ing
ĠEls ie
Ġmars hmallow
ĠFebr uary
K rispies
d okey
s oon
Ġm umm
Ġn ick
es h
Ġmin i
Ġac orn
ĠAb by
Ġoppos ite
Ġwhaddy a
F r
M an
i h
Ġt ables
Ġh id
Ġsh ave
Ġr unny
na l
Ġwhere ver
Ġbl ink
Ġsw am
Ġfl o
Ġcr an
Ġmilk sh
Ġpig let
Ġgra ham
Ġbowl ing
jam in
Ġland ing
Ġmud dy
Ġtire s
Ġdep end
Ġperi od
h orse
at ops
Ġd ive
Ġn aked
Ġsh it
il a
ĠS her
Ġfr ame
ĠC aterpillar
ak a
Ġsl ot
ĠCh ant
Ġche cked
bb ling
Ġz ebr
Ġblow s
Ġbrush es
Ġbar s
Ġcarri ages
Ġfif th
Ġrail road
Ġzebr as
Ġhe eh
or ld
ak y
ul t
Ġde ck
Ġpull s
Ġloo kee
Ġcarri er
ĠBl ues
Ġpack age
Ġtot ally
m ower
Ġy oyo
Ġm ow
Ġm oneys
Ġl itt
Ġp ans
ut y
out s
Ġre port
Ġch at
ĠT iny
ĠS ains
ĠR ib
Ġche ers
Ġhear ts
Ġyell ing
Ġhit s
ĠSt ar
Ġgarl ic
Ġcaboo se
ĠRib ena
R ob
j ama
o ff
w ash
Ġs ess
Ġm aster
Ġr oses
ĠA ugust
Ġsa f
Ġbu ggy
Ġcr ies
ĠR olly
ah a
Ġmust ache
Ġun if
Ġcon nect
Ġpou red
g um
Ġb w
Ġm ention
en cy
Ġwant ing
ĠB ur
orn ia
Ġpart icip
Ġbur st
if ornia
Ġdream s
ĠGre at
ĠBab a
Ġremind s
ĠPean uts
d oor
Ġw ard
Ġba be
ĠC laire
ĠB www
ĠTh anks
el es
Ġche ating
ĠK it
ĠK ipper
ew is
Ġsun flower
Ġnap kins
Ġpillow s
Ġlamb s
Ġstrip y
Ġtor n
ĠTr ina
Ġcust omer
ĠCal ifornia
Ġunderw ear
gi ving
c ers
o ink
Ġ eel
Ġg ulp
ay a
Ġdr ip
Ġtra p
of ty
ob bin
Ġburn ed
Ġhall ow
ĠLuc ille
Ġlif ting
Ġpadd ling
ĠXav ier
DE B
Ġunif orm
m ouse
Ġw ar
Ġl ead
oo ey
ar ry
Ġj ello
ol as
ĠC an
ĠL iam
ĠFr ance
Ġtear s
ĠLyn ette
Ġbeet le
Ġstock ing
ĠThanks giving
Ġy ikes
Ġyou nger
is her
Ġr rr
en ing
Ġbaby doll
Ġbu l
ĠN at
Ġsm ily
Ġtractor s
ĠBen jamin
Ġcollect ing
ĠAlf ie
Ġlos ing
ĠBall oon
K EV
re ct
Ġs ens
Ġg ah
Ġl at
Ġtw in
ĠP en
Ġar my
EL L
Ġaw es
cc as
Ġwip es
Ġinv ite
Ġitch y
Ġhallow een
Ġi ll
Ġh ung
Ġd ude
Ġg ag
Ġp up
Ġso l
us sy
Ġbl ouse
ĠP opp
Ġdr ums
ĠH ilda
Ġduck ies
EL I
Ġda ff
Ġfigure d
ĠMac donald
Ġann oy
Mar ie
Ġleop ard
ĠChant illy
H enry
M ac
c ess
Ġw uh
Ġa st
im p
Ġch annel
Ġte xture
Ġend s
Ġsort ed
ĠJo anna
Ġspl ish
ĠTo ad
Ġstomach ache
Ġbleed ing
Ġeyebrow s
Ġsep arate
Ġdaff od
B U
y ay
Ġh olly
at t
Ġd almat
Ġb ing
is co
ĠH www
Ġhair cut
ri ly
Ġmusic al
Ġpa jama
Ġmark s
Ġstret ched
ĠSpider man
ĠWellington s
Ġgran ola
Ġconvers ation
Ġflo ating
BU D
i oc
j or
u a
re x
re nd
Ġb ay
Ġm ass
Ġl oop
Ġhe he
ut o
ic orn
Ġwould ja
ĠF arm
ĠL au
ĠL ofty
ĠR en
Ġsu gg
Ġbump s
ĠPer ri
Ġscratch y
Ġgun s
Ġhen s
Ġtwist ed
ĠEng land
Ġawes ome
C l
D uck
Ġw icked
Ġd ice
oo ty
Ġin sect
Ġfr ustr
Ġcl apping
ul k
Ġsc oot
Ġpr ay
Ġun icorn
Ġpost ing
Ġla id
br um
Ġstrawberry s
Ġstor m
Ġtac os
Ġgall op
ĠPu ddle
f ly
p it
Ġm ah
ig ail
ad es
ad ad
ad ill
Ġkn ob
am ing
ĠD umpty
ĠP atch
ĠG um
oc key
Ġche es
Ġhear ing
Ġteach ing
print s
Ġhorr id
l ia
p in
Ġt il
Ġy uh
Ġl l
Ġl oun
Ġr acket
Ġso il
ur n
Ġbo b
ĠS e
ĠS ara
hm m
Ġbar ri
Ġad vent
ĠAb igail
Ġbran ches
Ġpopp et
Ġmilksh ake
o ices
Ġo val
Ġc oop
Ġr ot
Ġbr ief
Ġback yard
AD A
ĠN www
Ġalright y
Ġmin es
Ġco ins
Ġdress es
oun ce
Ġcon f
ĠV on
ĠPl uto
Ġtri angles
Ġtap ioc
Ġbatter ys
Ġsent ence
ĠDor othy
Ġdecor ate
Ġtapioc a
S AN
Ġ een
Ġwh ada
Ġl al
ĠI an
Ġp opping
Ġqu ilt
ĠCh icken
Ġpe ppers
ust y
Ġem erg
Ġcor rect
Ġsneez ing
Ġrasp berries
Ġyawn ing
Ġdood le
Ġscram bled
c are
d ah
r od
w a
Ġb unk
Ġp ave
Ġf unnel
Ġst em
ol ine
Ġbl ond
Ġman aged
Ġhelp er
Ġmom mies
ĠO h
Ġstra ps
Ġmatch ing
Ġcoll ar
Ġty p
Ġdisapp ear
Ġste pping
Ġposs ibly
D O
e le
Ġth ump
re k
Ġh oop
ĠM ill
Ġbo il
Ġor gan
ain t
ab ee
Ġcr ush
Ġevery time
Ġfire s
Ġpot atos
ba a
ik i
Ġlawn mower
J AN
f ire
Ġgo wn
or ia
Ġr ah
Ġk ah
ad er
Ġbr rm
ĠS ooty
Ġsp ent
ĠL or
ĠL en
Ġhelp ful
Ġfell ow
Ġlift ed
Ġrubb ing
Ġcap tain
Ġplan et
Ġsle igh
Ġrasp berry
Ġspaces h
Ġloun ge
n se
v il
Ġd itch
es ting
all ey
Ġdr ipping
ip t
Ġar rest
GR E
Ġv ine
Ġdraw ers
Ġgra ce
Ġgrass h
Ġlad ys
Ġreach ed
Ġshar pen
Ġsign s
Ġband age
ĠSuper man
ĠIt al
Ġanten na
b it
g y
Ġt inker
Ġh ula
Ġc ast
Ġm ole
ke rel
Ġis land
ar row
Ġwas p
Ġne cess
Ġtr ipped
Ġsl ug
Ġsl ides
ĠN ove
ĠG oo
ĠR onald
Ġgreen s
Ġsn ort
Ġbow wow
ooh oo
Ġmar gar
Ġbur ning
ĠMar g
ĠSteph en
Ġmou st
ĠJust in
Ġsh ock
op hone
ĠJ oy
Ġmu g
Ġwa x
Ġcut s
Ġro ared
ort un
Ġstra p
bear s
Ġbumble bee
Ġlog s
ĠSus ie
Ġpeepp eep
Wh ite
ĠNove mber
Ġmargar ine
I A
M R
Ġg ates
it ies
ĠT oot
ĠB al
ĠP in
Ġoff er
Ġtr ade
Ġhur ray
Ġarm adill
ey e
Ġger b
Ġhugg ing
Ġmoust ache
MR X
y c
Ġt ug
Ġs ite
Ġc inna
Ġsh ore
Ġfor wards
ul ah
Ġbath s
Ġlem ons
Ġbar be
Ġsea sh
ĠLyn n
Ġposs ible
Ġparticip ant
in ation
Ġin c
ĠM uck
ĠD obbin
ĠC am
ĠA aron
Ġread s
Ġsna ils
bo ys
Ġcra cked
ĠBob o
Ġunt ie
Ġset ting
Ġhipp os
ĠSmart ie
onna ise
Ġca fe
ĠSim on
Ġaut umn
ĠBeth any
Ġsund ay
Ġmem ory
Ġsportsc aster
ĠLau ren
l as
m ar
n as
Ġh ockey
Ġl ed
Ġl aw
Ġp ins
Ġkn ives
ĠT erry
Ġcar ries
Ġfl oppy
Ġco nd
Ġda et
Ġjob s
Ġnurs ing
ashing ton
ĠPlay doh
ĠBab s
Ġart ist
NN N
ĠCol in
Ġsugg est
I n
f ather
p ol
Ġh oops
Ġdo ve
Ġl it
Ġf ac
Ġcan e
st al
ad i
ĠP www
ĠP ark
ĠA is
Ġmay onnaise
Ġsor ting
Ġact ing
Ġpupp ys
ĠJo an
ba by
any a
Ġplan es
ĠMon ster
Ġterri bly
Ġscra pe
Ġdire ction
JA M
Ġcinna mon
c astle
i ot
m ers
t w
Ġt ar
Ġo per
Ġc red
is ed
Ġsh ine
Ġk uh
ic o
Ġnot es
Ġsome place
Ġbl ues
Ġfr iday
ĠP oppy
Ġpr ice
Ġunder pants
Ġapp arent
Ġow e
Ġtick ly
ĠO ct
to e
Ġphot o
Ġpir ates
Ġhose p
Ġmoun tains
Ġperfect ly
ĠSteph anie
ĠScot t
Ġgrocer ies
u ce
Ġd ed
Ġp oodle
Ġto ns
ĠJ illian
Ġtr amp
Ġbir dy
Ġgr ill
ĠW il
Ġpat io
Ġspl inter
Ġwin ner
Ġcoll e
Ġhambur gers
Ġnood le
ĠGreg ory
Ġpave ment
Ġapparent ly
l ves
Ġm uh
Ġf er
as c
Ġknow n
Ġch opping
Ġbo ck
ĠT anya
Ġwor th
Ġbir th
ĠH an
Ġfire truck
Ġsk ipped
Ġun f
Ġset tle
Ġbar rels
Ġdry ing
Ġemerg ency
B E
M oon
d en
Ġt ack
Ġb ong
Ġm uck
Ġl ower
Ġno ses
Ġf ab
en ed
ĠM e
Ġba e
Ġch art
ĠP uss
Ġfind s
ash a
Ġwalk ie
Ġthrow ed
ĠMar iana
Ġtid ied
ĠJess ie
ĠChrist ine
Ġpor ch
Ġtrump et
Ġhumm us
ĠOct ober
c r
Ġi gl
Ġh ut
Ġm amma
is ing
Ġe ff
Ġsc ar
Ġscri bble
ĠAlad ar
Ġserv ice
Ġspacesh ip
Ġigl oo
s uit
ĠI m
oo ked
Ġk leenex
ere nce
ĠL eah
ĠR ose
Ġice cream
AN G
Ġalm ond
Ġcard board
Ġless ons
Ġpasse nger
ĠCoc a
Ġpip es
Ġtim er
Ġpro ject
ogg ins
p oon
w eed
Ġw ise
Ġhe ck
ch io
ĠT oddy
Ġsl ing
Ġcol esl
Ġgu in
Ġcow boys
Ġtow ers
Ġte at
Ġsal ty
Ġlorry s
Ġbuilding s
Ġmach ines
JU L
Ġtac o
ĠMcDonald s
Ġdrag ons
Ġcartoon s
Ġcolesl aw
c om
Ġn tu
on i
ta gon
ĠS andra
ge ls
art en
ĠH or
Ġsor ta
Ġpush chair
sc rew
Ġsnack s
Ġsold iers
ĠQu een
Ġbrum brum
Ġblond e
Ġguin ea
Ġntu u
A B
I M
Ġs aturday
in al
Ġb erry
er ver
Ġr ipe
Ġst eth
Ġba w
Ġsome day
al og
Ġbo iled
ĠJ J
ĠN icky
Ġpre ssed
Ġfl ush
iss y
Ġwatch es
Ġhur rah
Ġapart ment
Ġladyb irds
Ġtight s
Ġneigh b
Ġatta ch
erg arten
Ġdepend s
Rob in
R ed
c ri
u c
re s
Ġp on
ic ing
Ġsp icy
Ġhop ing
Ġbel ow
Ġbottom s
Ġjelly fish
Ġpoint ed
Ġfree zing
ĠSw iss
Ġdoughn uts
Ġmer rily
PA U
B AB
Y ork
Ġt eles
om es
Ġre ce
Ġkn itting
Ġch ea
Ġhis s
ĠB irthday
air y
Ġpre f
Ġqu ail
Ġside ways
Ġgra cious
umb ling
Ġspell ing
Ġcoc on
ĠEd dy
Ġsail boat
Ġless on
Ġmelt ed
Ġmam m
Ġpant ies
ĠAmer ica
ĠPar is
ĠMarg aret
Ġcred it
Ġneighb ors
u ction
Ġd un
Ġb op
Ġwe d
st alk
Ġch ee
ĠS ister
ĠFr anc
Ġpr int
ĠGr an
Ġletter box
Ġteleph ones
Ġcur ls
Ġstrong er
Ġfill ing
Ġind ian
Ġsell ing
Ġmill ion
Ġn an
Ġk it
Ġst irr
Ġch oking
ak ota
Ġus ual
Ġdi al
Ġun screw
bur ys
bur ger
ĠDe xter
icul ous
Ġhun t
ĠPhil ip
g ed
h ood
Ġo l
Ġl antern
Ġp s
Ġshe pher
Ġplay ground
ĠS qu
ĠL ion
art ment
Ġgra in
ĠJohn athan
Ġcheck ers
ĠZ ita
Ġx yl
ĠDen ise
ĠDoug las
Ġveh icles
ĠPop eye
Ġcabin et
Ġxyl ophone
Ġi gn
Ġs ear
Ġn icer
Ġgo of
ĠD akota
ĠT ab
Ġcar av
Ġsp itting
ang ers
Ġcr o
ont roller
Ġun us
ĠO at
ĠO bs
Ġcur ious
Ġspill ing
Ġph on
Ġladyb ugs
Ġquar ters
Ġexerc ises
Ġres cu
Ġelectric ity
Ġstat ue
P r
Ġb ent
Ġl ane
Ġr ack
Ġch ops
ĠC ur
Ġmm h
ock et
Ġman e
Ġle vel
ĠR os
ven ue
Ġgr amma
ĠW ashington
ĠH olly
Ġsn ips
aur us
Ġph ones
Ġnin ight
ron a
Ġseal s
Ġnewsp apers
Ġrid iculous
Ġrhin o
Ġwob ble
ĠGl oria
Ġspan ner
Ġsteth oscope
ĠObs erver
L ewis
b et
d ong
m ere
w asher
re y
Ġo li
Ġd ya
Ġb zz
on k
Ġsome how
ĠD arling
ĠT elly
ĠP iggy
ma le
Ġsweet corn
Ġsqu eal
Ġsk ates
Ġpress ing
Ġplant ed
Ġbabys chool
Ġob s
Ġward robe
Ġunus ual
Ġoli ves
b el
c ad
f ing
Ġi h
Ġm oth
Ġp urr
Ġf oo
en ter
Ġst itch
Ġst iff
Ġcome d
Ġtr uth
ĠG av
Ġsc ales
Ġwait ed
ĠO kay
ĠRach ael
Ġwitch es
Ġmill ions
Ġcreature s
kn ock
Ġfingerna ils
Ġexp ress
Ġdest r
Ġeen sie
t es
Ġt umble
Ġp ra
itt ed
ĠD og
Ġbo iling
ak ie
ĠN ich
Ġwa ist
ĠFr an
Ġsho el
ile y
ri et
Ġinst ruct
ugg ed
ĠGab by
ĠJan et
ĠLou ise
Ġspank ing
Ġflash light
Ġsniff ing
Ġphotograph s
par ty
Ġweed s
ĠTyr ann
Ġseas on
Ġnea rer
Ġast rona
Ġteles cope
G oggins
H ood
b ed
b elt
d uh
i ents
t own
x y
Ġw ight
Ġy ipp
Ġr am
im i
ĠC ity
Ġdr own
Ġthing y
Ġcom bin
ph ss
ĠH ong
Ġsn atch
Ġthrow s
Ġpush es
Ġsk i
Ġend ed
Ġid eas
ĠGeorg ia
ĠNich olas
C ola
i que
Ġi gu
Ġc ell
Ġc ent
es ter
om s
Ġr ag
Ġst air
ver al
Ġsa iling
Ġbu st
Ġman s
Ġcat alog
Ġse veral
Ġpen is
ipp ers
Ġgl ug
Ġtast ed
Ġwin ning
Ġmark ers
Ġhum an
Ġfe male
Ġgrown ups
Ġpad dle
iv ity
ĠKim ber
St reet
Ġinstrum ents
Ġsig nal
Ġcarav an
C at
h aw
Ġs esame
Ġsh ield
Ġbut cher
Ġcar wash
ab a
Ġel astic
art s
ĠR ud
ph ones
Ġkind ergarten
Ġex per
Ġbang s
Ġrest ing
Ġtickle d
Ġchick ie
Ġund one
ĠCoc o
ĠMor ag
ĠMir iam
ĠBlack pool
D IA
b u
Ġit sy
ow el
Ġr ushing
Ġbl own
ĠJ as
Ġany ways
ber t
ess a
ma id
Ġun l
Ġur gh
Ġpige ons
p aper
u f
Ġ vers
Ġp airs
Ġp ips
Ġp omp
Ġu t
Ġst ung
ith a
Ġgood y
ĠT all
Ġoff icer
Ġpu b
oc us
ĠR ay
Ġcolor ful
ah ah
Ġdi ving
Ġmight n
Ġhang er
Ġsea weed
Ġhope fully
Ġbra in
Ġinv ited
Ġvitam ins
Ġheeh ee
Ġcolle ge
D ay
Ġ ver
Ġt elet
Ġt sk
at ty
Ġc y
Ġn erv
Ġp ac
en g
Ġj et
ie ll
Ġpl op
ĠB oots
gg ies
Ġyell ed
ĠW es
Ġmat er
Ġdri bble
Ġding aling
ens ie
Ġcoc kerel
ĠCr anky
Ġcock ad
erg y
Ġdigg ers
BE T
Ġteat ime
Ġnerv ous
b ack
d ress
Ġh int
Ġo ow
er sey
Ġl oc
Ġwe ensie
Ġch ess
Ġplay room
Ġbl ast
Ġsom ers
ĠL arry
Ġfl ute
Ġtur keys
og na
Ġfin ishing
Ġpick y
Ġtoy box
Ġdry er
ĠNa omi
ĠZ o
Ġchang es
Ġbean bag
ĠMorg ie
Ġdu vet
Ġtab lets
Ġcrow ded
Ġed ges
Ġsled ge
Ġspo il
Ġdou b
Ġbrief case
Ġgerb il
c ue
d rop
Ġthe ater
Ġd jou
Ġc aca
Ġwh ack
Ġp est
Ġp iles
Ġsh ade
ar r
im ble
Ġso ak
Ġbo bb
uck s
Ġover alls
ĠG u
Ġwa g
Ġv iew
Ġnight s
Ġmouth ful
iz ard
ust er
CO S
Ġpol ite
Ġrunn ed
Ġsmell ing
cl op
ĠV an
Ġbur gl
Ġmark er
Ġfore head
Ġflag s
ĠAll en
Ġrep air
Ġabc s
ĠAis lin
Ġunf ortun
Ġdestr oy
A nd
S OP
u ed
v on
Ġn ummy
er n
Ġin ches
Ġr aw
Ġli ly
ĠM arm
Ġhow ever
Ġdr ipped
Ġag h
Ġsl ap
ĠH uckle
ĠGr ammy
Ġsmall est
Ġboo boo
Ġspl it
Ġlid s
Ġpin ched
ĠHar riet
Ġphot os
Ġtrans m
Ġveh icle
Ġinstrum ent
Ġrul er
ĠKimber ly
Ġdoub t
ĠAislin n
c ul
c rack
n ips
s chool
w ind
Ġy olk
at a
Ġg e
Ġl ah
Ġl ord
id ges
Ġst eep
ĠD ick
Ġcome re
ĠT er
ĠA me
Ġah phss
Ġbit sy
Ġsm ashing
ĠW ood
ĠH ow
Ġkeep er
Ġuse ful
Ġsn oo
Ġstory t
Ġrecord s
Ġmail box
Ġhoo ked
ĠDan iell
Ġpony tail
Ġsim ple
Ġenvel opes
Ġav oc
Ġnor th
Ġdaffod ils
Ġchees y
Ġhosep ipe
Ġinstruct ions
G G
g uh
m are
Ġt esting
Ġto re
ur oy
ĠB elle
ĠFr og
ix ie
Ġco in
Ġstraight en
Ġdream ing
Ġsafe ly
Ġgrape fruit
Ġwoke n
ĠAfric a
KK K
Ġdom in
ivers ity
Ġvine gar
e in
Ġs igh
Ġp ouch
Ġr ang
Ġbe ating
Ġli m
Ġor din
ĠS l
Ġsp ee
ab oom
Ġgu est
ĠH ead
Ġhair s
Ġour selves
uff s
ĠK elly
Ġstr ings
Ġteet hing
ĠDada ji
Ġrat tles
Ġcrunch ing
Ġansw ered
Ġcont in
Ġchalk board
ĠSleep ing
iv al
ĠNor th
ĠCl ar
dr ops
Ġrul es
TT T
Ġarmadill o
Ġyipp ee
w in
Ġo of
Ġc entre
Ġm aker
ve y
Ġsh aky
Ġk aka
ĠD ay
ĠD arren
ĠC ord
Ġwor n
ĠR h
Ġmean ing
Ġdoor bell
ĠK o
Ġroom s
Ġsk ipping
ĠMar gie
if ic
icket y
ĠScot land
ĠGer man
Ġcigaret te
Ġfac ing
Ġigu ana
ĠAme lia
U ID
c ourse
i red
o ard
Ġs y
Ġd unk
Ġm ale
Ġn n
Ġdo die
Ġf asc
Ġr out
Ġr ich
ot ty
al ity
Ġbl eep
Ġsa ving
Ġbook case
Ġmm m
ĠE va
ump er
Ġde h
Ġnight mare
Ġsqu ashing
sh ire
Ġmouth s
ĠSp an
ĠSh rek
ĠMon sters
ĠDen ver
Ġbol ogna
ĠJoy ce
Ġpon ies
Ġcocon ut
Ġshepher d
Ġastrona ut
ĠDaniell e
Ġavoc ado
Ġordin ary
P ark
t ree
w o
Ġbe y
Ġst alk
Ġre pe
Ġj eez
Ġnot eb
Ġab ra
ĠS ully
ĠA sh
RO Y
Ġen ter
Ġbus es
Ġco zy
Ġhands ome
Ġbang ad
Ġban jo
ĠAnd re
Ġph ew
Ġfield s
Ġcheer io
Ġstack ing
ĠEll en
Ġvitam in
Ġvol can
Ġsess ion
ĠFarm er
Ġnoteb ook
H EI
t in
Ġt ipping
ing e
Ġto ss
Ġwe h
Ġan te
ĠT oy
Ġback s
Ġag uh
Ġman ners
Ġar f
Ġsn oring
Ġsqu iggly
Ġer aser
Ġhah aha
Ġhammer ing
Ġsplash ed
ĠLiz a
Ġlob sters
Ġru le
Ġcub es
Ġmous ie
ĠLen ita
ĠTab itha
Ġbangad rum
M SS
h ones
l or
Ġg ather
Ġp ing
Ġr oot
Ġk arate
ĠM ag
Ġdid jou
Ġsp y
ĠA ust
Ġtr icer
ul ars
Ġqu ill
Ġtrain ing
Ġtick lish
Ġsnow y
Ġcard igan
Ġfruit s
Ġsoft ly
Ġtap ed
Ġloll ies
Ġrem ote
Ġtank er
Ġcop ying
ĠBern ard
Ġgener al
Ġau ber
Ġll ama
Pr ice
Ġcombin ation
Ġbey ond
B unny
a wn
l ine
re at
Ġd ub
in ny
Ġf udge
as ag
Ġr ash
ld ow
Ġdid ldow
Ġch ih
ĠT ur
ind er
Ġcar n
Ġfr is
Ġne ct
Ġsl im
ĠL illy
Ġwater f
ĠH at
Ġpig lets
wh oo
dd les
Ġrain y
Ġstraw s
br idge
Ġhea v
Ġspr inkle
Ġpoop ie
Ġgas ped
Ġchin ese
Ġbas ically
Ġcharac ter
Ġmarshmallow s
ĠSains burys
Ġstirr ing
ĠGav in
Ġunfortun ately
Ġtricer atops
Ġnect ar
C ontroller
H AN
c ow
o ad
oo by
ea st
Ġk ay
ere k
Ġwant a
au n
ĠD erek
Ġtw eez
ĠT am
ĠP enny
ĠA ri
Ġsl am
Ġsl ices
gg ed
el icopter
Ġfl u
ood led
oc ulars
Ġlot ta
Ġrain s
Ġdrive n
Ġdragon fly
ĠSc ar
Ġmagnet ic
LI A
ĠInd ians
esl ie
Ġmod el
Ġsling sh
A nn
t oo
Ġh ickory
Ġc au
na way
ĠM o
Ġcar ton
ĠL eslie
Ġcr ooked
Ġhand y
Ġlight ning
Ġask s
Ġdriver s
Ġsea horse
Ġmicrop hones
Ġdump truck
Ġsqueak s
Ġaeropl anes
Ġpack ing
bot tle
Ġalligator s
Ġmitt en
Ġpuff ed
Ġpres ident
Ġcudd ly
Ġsprink ler
Ġmater ial
ĠCord uroy
A www
T HA
t or
Ġth a
Ġp ooh
ar i
Ġe vent
Ġtra vel
Ġhair y
Ġsnow ball
Ġfast en
Ġfar my
ĠSt an
Ġlollip ops
Ġni bble
Ġbal oney
Ġru in
ĠEng lish
Ġlat te
Ġbarbe cue
ĠTall ulah
b uh
c ases
g own
u ral
Ġb itten
Ġc enter
ch an
Ġst eg
Ġfor t
Ġwell ies
Ġbec ame
ĠT ar
Ġab oard
ol ph
Ġtra pe
ĠCh in
ĠR od
Ġen ergy
Ġmin ce
sh op
EL A
Ġyog a
ĠChris ta
Ġgrown up
Ġatt ic
Ġhun ting
Ġparticular ly
ĠPe ggy
Ġcran berry
Ġpref ers
Ġtweez ers
b al
g in
i key
Ġs outh
Ġm iles
Ġn ugg
Ġp au
Ġin g
Ġal i
ĠJ ones
ab ra
ĠTh ere
ĠN ate
ĠL ady
Ġtow ard
ĠO www
Ġdad dies
Ġpeek ing
ubb ie
Ġcon str
ĠSt ella
Ġslipp ing
Ġdump ed
uzz y
Ġcomb ing
Ġparrot s
ĠSw iper
ĠBoo boo
Ġwre st
Ġdecor ations
ĠRon nie
ĠKen n
Ġskate board
Ġpleas ant
Ġesc ap
Ġjew el
ĠJosh ua
Ġgrassh opper
Ġtelet ubbies
Ġbangadrum time
Ġfarmy ard
R od
g oo
n um
ĠM amma
Ġch ute
Ġch ores
Ġfr ied
ĠJ em
ead ow
Ġsc reen
ash ion
Ġtable cloth
Ġmother s
Ġbin oculars
Ġpast e
Ġmad am
Ġrace car
Ġstrip ed
ĠBab ar
Ġru naway
Ġmer maid
ĠRen ee
Ġsnips nips
ĠMarm ite
P ot
n oo
u ation
Ġw ad
ou l
Ġi cky
Ġs ight
Ġp un
Ġf ences
or ice
ar ily
Ġre ck
Ġshe lves
Ġch illy
Ġout door
Ġher o
Ġtr ot
Ġag g
Ġbump ity
Ġwall et
ĠPooh bear
CA M
Ġsport s
Ġteas poon
ĠBee hive
Ġprick ly
b ob
d ered
k i
n or
Ġt ush
Ġh opped
Ġc ine
Ġc mere
Ġn en
na h
Ġch ili
ĠS k
ĠC oke
Ġfl aps
ĠE arth
ger y
Ġstr ipe
Ġquick er
Ġlo af
Ġpoo ey
Ġreach ing
ĠMar ia
Ġfair ly
ĠSte f
ĠBen ny
Ġstor ys
Ġbra kes
Ġmend ing
Ġsquish ed
Ġdu ke
ĠFred dy
ĠLyn ne
Ġconc ert
Ġspan ish
Ġchose n
Ġref le
Ġliqu id
Ġbul b
Cl ues
Ġtramp oline
ĠVan essa
Ġfasc in
Ġfris bee
Ġsteg osaurus
ĠChin ese
Ġcine ma
d one
s a
Ġ ent
Ġs ets
Ġd et
Ġm onday
Ġu dder
na ke
ad ie
Ġshe ets
Ġbr oked
ĠA nt
Ġsl ugs
ĠL i
Ġcom m
Ġmin t
Ġmorning s
Ġwheel ie
Ġsau cers
Ġcatch es
Ġsheep s
Ġdrive way
ĠSh e
Ġtight en
Ġsmile y
Ġsuck ing
Ġsweat shirt
Ġdirect ions
Ġank le
Ġfrustr ated
B ook
h a
r os
Ġd amp
Ġdo ck
Ġf ir
Ġf uck
Ġf unn
Ġre wind
ĠC le
ab aby
Ġcl op
Ġcl unk
Ġhear s
Ġapp re
ĠO re
Ġwarm er
Ġmis er
ĠJen ell
ugg l
Ġspr outs
Ġpass ing
Ġfre ight
ĠGab e
Ġsmooth ie
Ġexpect ing
Ġdist ur
Ġret urn
Ġcharac ters
yc ling
A M
c a
n et
Ġs ill
at hing
Ġl asag
Ġf iddle
ch u
ĠC ra
ue y
ĠL assie
Ġcom ma
Ġfl akes
ise y
Ġroll y
Ġbee b
Ġmar ry
Ġchew ed
Ġspot ted
Ġgum drops
Ġbabys itter
Ġpoin ty
Ġcompl ain
ĠAll ison
ĠFrost ie
Ġmosquit o
Ġinsect s
ĠHor ton
Ġtransm itter
d ock
u se
u dd
w are
Ġi ced
Ġgo al
Ġno m
Ġk a
au p
itt les
ose d
Ġsl ight
zz le
Ġsna pped
Ġbump ing
Ġdad ada
oun tain
Ġbuck ets
if ier
Ġpill s
ĠAl an
Ġkangaroo s
Ġhill s
Ġflat ten
Ġgentle man
Ġtrip od
Ġimp ressed
Ġpeg s
ĠNe il
Ġdandel ion
Ġbarri er
Ġled ge
ĠWil bur
Ġappre ci
r ie
Ġdo in
na m
ĠM oo
ĠM aine
Ġre vers
Ġal t
Ġsw ap
Ġpu ddles
Ġpr iv
og ether
ĠH aw
Ġtom atos
Ġte nder
Ġteddy s
Ġcount ed
Ġpo x
ĠSh adow
Ġseat belt
Ġfree ze
Ġfold ing
Ġbean stalk
Ġwre cked
Ġdep artment
Ġsneez ed
ĠGer ald
Ġbol ts
Ġash es
ĠGramp a
Ġps st
Ġauber gine
K RI
d u
n ot
Ġth ursday
Ġo ccas
Ġd ying
Ġn arrow
er ve
or th
as aurus
al o
ell s
Ġbr m
ĠC or
Ġcl ues
ĠF ox
TE R
ĠR ex
Ġsm oking
Ġv oices
Ġex h
Ġdraw ed
ung le
Ġfoot prints
Ġspot ty
Ġpet als
Ġsuit cases
Ġrat s
Ġcheer ios
Ġbal anc
Ġunh appy
Ġlean ing
Ġger ms
Ġdam n
Ġgigg les
Ġadvent ure
Ġspee ch
Ġvolcan o
Ġreck on
Ġmiser able
T im
u w
Ġo me
Ġn ip
is andy
Ġsh ook
Ġsh orter
st ein
Ġall ow
by es
ĠT ot
ĠC yr
ĠP ower
ĠJ ere
Ġbre ast
Ġsc ale
Ġche f
Ġmat t
ĠMa isey
app ed
Ġmed ium
let on
ĠSm ith
Ġwigg ily
ils on
ĠMc donald
Ġmi xture
Ġsaf ety
Ġseash ore
ĠSpan ish
a my
m oo
Ġb ins
Ġm ate
Ġn ere
Ġgo in
ea dy
Ġfor ce
Ġbo k
ĠA pple
Ġtra ve
Ġhapp ily
os y
ĠCh uck
Ġhat ch
ord an
ac ty
Ġun z
Ġstore s
vis ible
Ġribb ons
Ġmush y
ĠKat y
ĠDi ane
Ġdalmat ian
Ġcoop er
M c
b ing
t alk
Ġw ig
Ġd y
Ġg ap
Ġli c
Ġli cked
Ġk aboom
ver t
Ġch uck
ill ou
Ġsp oke
ĠP as
Ġcl am
ĠG opher
eet ah
ĠFr ances
Ġche m
ag a
ĠK itty
Ġguess ing
Ġbump er
ĠV ict
Ġprop eller
Ġcover ing
Ġph ss
ĠCr ash
Ġstamp ing
Ġty pes
Ġvide os
Ġdream ed
Ġsixt h
Ġimag ination
Ġswitch ed
ĠItal y
Ġpicky aup
K ing
T her
p eep
Ġb od
Ġdo d
Ġp uh
Ġin visible
ar ian
ĠM ass
Ġplay dough
ick ie
Ġbl ame
Ġbl oody
ĠE van
Ġint rod
Ġwr igg
Ġday time
ĠW ay
ĠH ulk
Ġschool s
ĠK irst
Ġwash cloth
ug a
Ġbea st
Ġrecord ed
ask et
ik a
Ġcollect ed
Ġpeel ing
Ġscream ed
ĠCa illou
Ġgener ally
Ġesc ape
oint ment
ĠMacDonald s
ĠGum drop
Ġmmh hmm
Ġwaterf all
ĠCyr il
W o
h ole
v ie
Ġt an
Ġs ke
Ġc ass
Ġhe el
Ġin ject
le br
ad ger
ot hing
Ġch opped
Ġbr idges
Ġor ig
ĠS outh
ĠS adie
ive red
Ġbu ys
Ġmu ah
os sed
ĠCh atty
ĠGr iz
Ġact ion
Ġfeet s
Ġclimb s
Ġengine er
Ġpost c
Ġpat ter
Ġwoo lly
Ġra ise
Ġfold ed
ided own
Ġmeal s
Ġexpl ore
Ġce lebr
Ġluck ily
Ġped al
ĠCan ada
DO U
Ġchea p
Ġalt ogether
Ġmatt ress
B r
k at
p at
Ġdo c
Ġl ing
Ġk ings
ĠM imi
Ġst ri
ĠT ay
Ġal ike
Ġtr im
ĠL and
be cca
Ġhand bag
Ġke e
Ġde i
Ġya i
Ġlight er
Ġnurs es
to es
Ġbur gers
Ġups idedown
Ġres p
Ġshr imp
ĠRe becca
Ġtut u
Ġsha ving
Ġsens ible
AM Y
Ġrevers ing
A L
a vers
k ie
v iew
w e
Ġs ile
Ġc ases
Ġr umm
Ġj oy
Ġso aking
ĠT ick
Ġwhy n
ĠP an
ĠA id
Ġred s
ĠR og
Ġday care
Ġv oom
av y
Ġhar bor
Ġpar ach
Ġknock s
Ġspl at
Ġsod as
Ġtrans p
Ġdam age
ĠTim othy
Ġunderw ater
Ġbom b
ĠJoan ne
ĠTelly t
Ġante ater
Ġconstr uction
B l
R iding
c ro
Ġt ou
Ġa da
Ġm ie
Ġwh ew
Ġno one
ay la
as y
id dles
ch o
Ġme chan
um es
ic ated
Ġj ell
Ġpl ugged
ra g
ell ow
ĠD el
ol ice
ab l
ank ie
Ġneed les
Ġag ree
ob ble
Ġwon t
Ġde vel
Ġdoll ys
Ġey el
Ġlight house
Ġgrand father
ĠZ ach
Ġperson ality
Ġwoo ly
ĠMar c
Ġcomp ost
ym b
Ġob ject
Ġmagaz ines
Ġbon fire
Ġghost s
Ġpal ace
Ġrot ten
ĠBal oo
tw eet
N ight
l ong
Ġt s
re es
Ġm eadow
Ġr uh
Ġr osie
ook y
Ġdon keys
ĠM iles
od od
Ġch u
ill as
un can
ol n
ĠF re
een er
ĠR ocky
Ġsc ene
ĠW illy
Ġtick tock
izz ly
Ġpolice men
Ġpaint brush
ĠV ir
gu ard
Ġboun ces
Ġsnap s
Ġter m
Ġty re
Ġshoot s
ĠWh ere
Ġsevent h
ĠGre en
Ġhy dr
Ġweight s
ĠSim ple
inker bell
ĠMill isandy
Ġnecess arily
ĠPin oc
ĠTyrann osaurus
Ġsomers ault
Ġmie ow
P ocket
b irds
g or
k ong
Ġb itty
Ġf ussy
na ck
Ġj ars
Ġbr rr
us se
ĠC oll
ĠC ric
ĠC andy
ound er
ĠJ ungle
Ġcl ips
ep s
ul ous
Ġcr anky
Ġturn table
Ġv i
ĠK er
sh ip
Ġrain coat
Ġpizz as
Ġcon st
ĠU s
Ġboun cie
Ġdump ing
Ġpet al
Ġjam mies
cad abra
Ġjewel ry
ĠPinoc chio
B OB
R ex
b one
d ub
h oo
Ġt ah
Ġto en
ĠM ex
Ġch eetah
ĠD ean
us ing
Ġbl oom
ĠG us
ĠG len
Ġcom mer
Ġbre athing
Ġwr ink
Ġgr ate
ri ka
Ġsand pit
Ġfarm ers
Ġdress er
Ġpost er
ĠMar ty
Ġpass ion
ĠGra ce
ĠMark s
ĠPing a
Ġload er
inc oln
Ġcost umes
Ġshot s
ĠCon nor
Ġdist ract
Ġinter act
Ġboss y
Ġsqueez ing
ĠDu ke
Ġmel ting
Ġcockad oodled
Ġtoen ail
W O
i y
j ack
o kes
Ġth imble
Ġh uff
Ġs ch
Ġs us
it ive
st em
ad ing
Ġj ohn
Ġpl a
ell ers
ĠT adi
SI L
ĠP izz
ĠJ up
ab ix
ĠL ord
Ġshow n
Ġwalk er
ubb ard
Ġvisit ed
Ġbabys it
Ġfry ing
Ġfab ulous
fing ers
Ġcarn ival
Ġoccas ion
Ġdevel op
ĠCric ter
ĠJup iter
C entre
g ue
w en
Ġw ound
Ġy ee
Ġb ink
Ġc ubby
Ġwh ady
Ġl aces
Ġha v
Ġsh ips
Ġr ay
Ġme mber
Ġba ld
Ġwith in
Ġch unk
ĠC ount
ĠB oy
Ġany how
ĠR ory
Ġsm acked
ag u
ĠW eener
Ġam ong
Ġsaw ing
Ġwind ing
Ġpeek ababy
Ġdark er
Ġclock s
Ġfootball s
Ġcur l
icy cles
Ġwhist les
Ġcollect ion
Ġtub by
choc s
ĠCal pol
Ġoppos ites
Ġnu is
Ġlitt ler
Ġstitch es
B ill
K IM
f ield
g li
Ġt ep
Ġb illy
Ġc ape
Ġm ucky
Ġl ugg
Ġl eader
ig ade
Ġr ar
Ġdon t
ir ly
Ġju dge
Ġch ief
ĠD ig
ol og
Ġbl ick
ul ts
ĠR ock
Ġsc an
Ġsc ore
Ġsn otty
Ġspoon ful
Ġrec ycling
Ġham mers
Ġexcu sed
Ġdel ivered
Ġcu z
Ġnin th
Ġcoll ap
Ġcomp ared
Ġna e
Ġsmile d
Ġsell s
Ġrail s
puzz les
ĠGold ie
Ġspray ing
Ġneighbor hood
ĠAmer ican
Ġmention ed
ĠMe ike
Ġrescu ed
Ġoutdoor s
ĠPas cal
Ġnuis ance
L inda
R abbit
S TE
W ow
h ee
r k
Ġw od
Ġw arn
at ory
Ġc ork
Ġf og
Ġf ountain
se at
Ġin cl
Ġk er
st icks
Ġkn ight
ur f
Ġgood s
ĠT an
ĠT ank
Ġgr ouch
Ġegg y
ĠK leenex
Ġun com
Ġbask ets
Ġpat ting
ĠV as
Ġsuit s
Ġevent ually
F R
P ig
d on
Ġyou se
Ġd iesel
Ġm ower
Ġwh ining
ĠI ris
oo o
na p
ĠM ow
am ingo
ĠT or
ĠS ta
ĠP ee
Ġmake d
Ġsw amp
Ġalright ie
Ġapp ointment
Ġbad ger
Ġbeaut y
und e
ĠAle c
Ġpoop ing
Ġclear ly
Ġhall way
Ġheal th
about s
Ġpleas ure
ĠPot ter
Ġpac ifier
dress er
Ġsy stem
ĠJere my
B aby
F arm
h ill
l ee
w inky
z ed
Ġb ashed
Ġc w
Ġwh om
Ġn ips
Ġl oops
ĠM erc
ĠM ikey
Ġmy ster
Ġall erg
Ġch rist
ur y
ur ts
ĠC upid
ĠB rend
ĠP arent
ĠG ree
Ġar gh
Ġtrain ed
Ġsc ience
Ġche at
ag er
Ġcook s
Ġsn out
iz ing
Ġcrack ing
Ġstep mother
Ġbur ied
ĠMich igan
ĠMich ele
Ġmeat balls
Ġlear nt
Ġstor age
Ġad ult
Ġsqueak ing
Ġbuzz ing
Ġband s
Ġsend ing
Ġbud gie
Ġsuck er
Ġras cal
idd ly
Ġsub mar
Ġspark ly
Ġrel ative
Ġsurf ing
Ġsprink les
Ġcree py
Ġvel cro
Ġappreci ate
Ġome let
ĠMow gli
G re
h op
v ille
Ġt al
Ġd ang
in er
Ġg it
Ġdo zen
Ġgo og
Ġst ab
Ġwhere abouts
od ger
il ity
Ġbl ub
ĠS ug
ge ant
ĠN ell
ĠR ap
Ġsure ly
Ġlong est
umm ies
ub a
Ġrec ipe
pl ay
Ġda is
Ġstar ing
Ġwall paper
Ġspe ci
Ġwoof woof
eh e
ĠSh aun
Ġter ms
ro ach
Ġatt ract
Ġcoug ar
Ġgrabb ing
Ġfool ing
Ġjugg le
Ġconcentr ating
Ġinc red
Ġtransp orter
D EN
r at
Ġa venue
Ġthe rm
Ġs ieve
Ġd ea
Ġd ances
Ġg es
Ġgo p
Ġf ear
Ġf isher
it ation
Ġsh er
Ġsh akes
Ġe v
ra p
ould er
ter y
al t
ry stal
ĠT unde
Ġbl each
Ġdr ool
gg le
Ġsit uation
ump s
oc i
ph y
Ġgr in
Ġbye byes
ag on
og s
Ġex am
Ġsk ittles
Ġlisten ed
Ġem pt
Ġbutterfly s
ĠY aya
ĠCharl es
Ġclou dy
Ġfingerna il
ĠMacdonald s
gin ia
Ġing red
ĠTay lor
olice man
Ġcommer cial
Ġtep ee
A pple
g oat
m ine
o id
Ġs uh
Ġs ilk
Ġd arn
Ġb ree
Ġg w
Ġm ouses
Ġha re
or a
Ġdon uts
ĠT illy
ĠB ud
Ġtake d
Ġhand les
Ġse m
ph ooey
Ġdi ap
Ġhead ed
Ġpret t
ren ce
wh at
Ġpost ed
Ġbell e
Ġmus cle
ĠSp ud
Ġscr ubb
Ġboot ie
Ġdanc ed
ps on
ĠDo ggie
Ġew e
Ġskunk s
Ġprom ised
Ġdom es
Ġmid night
Ġdandel ions
Ġannoy ing
Ġcatalog ue
acty l
ĠPizz a
ĠSug ar
d i
m p
in n
Ġwh ine
Ġp i
ee na
st ore
Ġso y
ick a
Ġcl iff
Ġboy friend
ĠR ick
Ġwr ites
Ġv ans
ĠW e
ĠK yle
opp ity
Ġact ual
Ġwash es
ĠMum ma
amp er
eal by
eal ous
ĠBr isco
Ġdust er
GA M
Ġforget ting
ĠEd na
Ġpan ther
Ġanswer ing
ann on
Ġtreat s
Ġko k
Ġrush ed
Ġstink s
Ġgigg le
ĠLe ila
Ġass oci
Ġbru ise
ĠRud olph
Ġburgl ar
Ġfascin ated
Ġlugg age
Ġomelet te
B rian
c et
g ing
g ah
r oll
z ie
Ġt ease
Ġh up
Ġno on
Ġhe ater
Ġin fin
ut ion
Ġwan der
ad ada
Ġj ealous
Ġch ir
ĠD olly
il een
Ġtoo ts
Ġany time
Ġcl ickety
el ine
Ġpre p
Ġpre cious
Ġqu e
ĠCh ar
Ġhold er
ĠW ilson
Ġsn ots
Ġgl ued
Ġpol ka
Ġstar ving
Ġshop keeper
Ġunt ied
Ġgrow l
Ġgarden ing
Ġmotor way
Ġdes cri
ĠHar vey
ĠCr uz
Ġind oor
Ġsent ences
Ġdecor ating
ĠMon ique
Ġop oss
Ġbaw k
Ġcau li
ĠStef an
Ġwod ar
Ġuncom fortable
Ġspeci fic
B ealby
D www
i ft
Ġt it
ou pe
Ġd ue
Ġd uel
an et
Ġp w
om eter
Ġin form
ck er
Ġr av
um sy
Ġwas her
ĠB ir
Ġwould jou
Ġcl othing
ĠL incoln
Ġfl op
ĠR icky
Ġbre aked
Ġv iolet
ag s
Ġmin ts
Ġsu cc
ĠK rispies
arm ing
Ġhar m
ĠAn gel
Ġlisten s
Ġpo king
Ġpoo s
ett s
Ġcur r
ĠPer ro
ĠJack son
Ġug uh
Ġho ly
ĠTween ie
Ġgoo ey
Ġfil thy
Ġdiamond s
Ġwal n
Ġbare ly
Ġnat ural
Ġpray ers
crack er
Ġheav ier
Ġali en
Ġinfin ity
> <
G PA
S im
m ie
Ġt am
Ġw ins
at ic
an z
Ġn ipp
Ġl ined
Ġno n
Ġf erry
oo s
Ġhe els
om it
ĠT e
ĠT erence
ol o
ĠS ch
ĠS ir
ĠB ra
day s
RO S
ess or
Ġar gum
ĠK rist
ĠGrand mother
Ġcon cer
ĠSh annon
Ġra ind
Ġfight s
ĠEl aine
hh h
Ġtu cked
Ġpack ets
Ġcost s
ik y
Ġwhist ling
ĠIn c
Ġdisapp oint
pie ce
Ġpract icing
Ġsack s
Ġstole n
Ġsund ae
Ġhaw ks
Th omas
ĠJas mine
ĠKo ala
Ġescap ed
ĠKirst en
Wo ggie
Ġingred ients
A V
D AV
b um
m ilk
r as
r up
s auce
Ġt ed
Ġa a
Ġh ides
Ġd ar
Ġm ee
Ġm oom
Ġgo lly
Ġto nic
as p
ed e
un t
ĠT ots
Ġor dered
me nd
ĠF uzzy
ĠG illian
Ġfl amingo
Ġwor st
Ġqu ake
Ġar ri
Ġpe bbles
bb ly
Ġlea p
ĠK enny
ac le
Ġbirthday s
Ġact ivity
Ġcream s
amp a
Ġshut ting
aff y
Ġfight er
Ġwhoo whoo
Ġhelm ets
Ġind ians
ĠHe ather
Ġlaugh s
Ġoat s
ĠInd ia
Ġscra p
Ġtab let
ĠPe bbles
ĠDi andra
Ġax e
Ġliqu orice
Ġconcentr ate
Ġeff ect
Ġobs essed
ĠClar abel
Ġslingsh ot
ĠCra ig
Ġpriv ate
Ġunz ip
Ġchem ist
ĠUs her
D avid
n ip
Ġw ishing
Ġs izz
Ġs ched
Ġd ur
Ġg ums
er m
ig hing
le na
Ġr r
ĠM ur
ĠM unch
ry den
and s
Ġbo ink
ĠS chool
ĠJ ordan
ap tor
ĠF o
Ġfl own
eet abix
Ġhand ed
Ġv ar
Ġv oc
Ġv alley
bb a
Ġdoor way
opp ers
Ġbad ly
ĠO r
Ġtin sel
dle y
Ġquack quack
igg les
Ġrubb ed
ĠY ou
ĠIs land
Ġser ving
Ġload ing
Ġwip ers
Ġinv ol
Ġlar gest
Ġarr ange
Ġcob ra
bell s
ĠDi and
ĠTw eet
Ġmain ly
Ġhaw k
ĠRe ve
Ġjugg ling
Ġcigaret tes
Ġscar ing
Ġgoof y
Ġslim y
ashion ed
Ġent ire
ĠVict or
ĠMass ach
ĠVir ginia
Ġcockadoodled oo
f le
u le
w orth
in key
Ġn anas
ch eese
Ġlike ly
Ġba gels
ake y
ra ge
Ġtw irl
ip es
Ġke bob
les t
Ġdi bble
Ġwork er
ĠW eetabix
Ġlea sh
ĠGr amma
Ġsqu id
Ġfoot s
Ġstuff ing
ister s
Ġstr oking
Ġid ent
Ġfast est
Ġscare s
Ġdust y
ĠZ ack
Ġsad dle
Ġvis iting
Ġdish washer
Ġtong s
Ġad vert
Ġad ults
Ġcoo led
light s
ĠSweet s
Ġelbow s
ĠDin ah
ĠBea uty
Ġacorn s
ĠBur ger
ipt ion
Ġdingaling aling
ĠTam ar
Ġallerg ic
b ug
d om
h y
h at
i us
m ind
Ġt uesday
re te
Ġh omes
in ked
Ġp okey
ow k
as a
Ġlook a
Ġch ow
Ġch ap
ra ine
ly ing
ta ils
ĠS aint
ĠP ink
qu et
el ope
Ġfl ipping
ĠW inter
Ġde ir
dd led
Ġcool er
ĠEl mer
Ġribb et
ĠDe von
Ġad v
ĠGra ham
Ġspeak er
Ġpeep o
Ġtub a
ĠSn uffy
ĠFred er
band s
Ġsteal ing
Ġbrr rm
Ġsqueez ed
Ġpos ition
Ġtons ils
Ġshoel ace
ĠKenn edy
Ġparach ute
Ġhydr ant
Ġsubmar ine
Ġcauli flower
B us
D ryden
H elicopter
j ay
j ah
r ops
t ies
Ġb icycles
Ġwh ing
Ġl ab
Ġno sy
ow s
le ne
Ġk ites
Ġj agu
am as
Ġdown town
ĠS uz
ĠC ara
ĠP ush
Ġtra ce
ĠL ena
Ġpre gn
ĠCh ester
Ġgr ad
Ġfinish es
ĠK id
Ġun lo
ĠO n
amp shire
ric ia
Ġmar vel
Ġdrawing s
ĠFl ore
Ġpepper oni
Ġpeep bo
Ġgroup s
Ġbon net
ĠPr incess
Ġimp ress
Ġdisc uss
Ġcucumber s
ict ion
Ġmow ing
Ġorgan ized
ĠFranc is
Ġsear ch
Ġpomp oms
Ġnugg ets
Ġeyel ash
Ġkok owk
Sim on
B am
E lephant
W ood
b asket
t op
u ah
w uh
Ġt umbling
Ġw ink
Ġa ff
Ġh oot
Ġl ent
Ġp ter
Ġno nse
is ta
or ty
le nd
ch ie
Ġj oo
Ġan ch
am ut
ĠP uddy
Ġhapp ier
Ġar ch
ĠW est
av a
Ġpar s
Ġun pl
ĠO l
Ġkid do
Ġpoo ed
MA X
ĠJen ko
Ġleaf s
Ġscratch es
ĠY eah
Ġsquir ting
Ġdes erve
rr r
Ġes cal
Ġma a
Ġyogh urts
ĠDen nis
Ġdist ance
ĠWill ie
Ġsub way
ĠMoosh as
Ġcell ar
ĠZo ie
talk ie
Ġbod ies
ĠWay ne
Ġtou can
ĠFreder ick
B www
P ar
g en
i ar
l icken
p ark
y ah
Ġw eak
Ġb ound
Ġl itter
Ġto ne
ow ers
ig s
Ġst en
Ġwell y
Ġtwo s
ĠS o
ge y
ĠB am
ĠB uddy
ĠP ut
qu es
Ġtr ust
Ġbu nd
ĠN anna
ul es
ĠCh r
ĠCh ina
Ġde ath
Ġdin ners
Ġnight gown
Ġdogg ys
Ġbad dies
Ġpart ies
Ġlo ving
ĠV eena
Ġpress ure
Ġgent lem
Ġboun ced
Ġra z
Ġfo al
Ġland s
Ġgor illas
bot tles
Ġund ressed
ĠJes se
Ġsur gery
Ġjun ior
Ġcor al
Ġtat a
Ġdisc overed
Ġscri bbling
ĠGood night
Sh op
Ġslight ly
Ġdiap ie
ĠReve rend
Ġmarvel ous
Ġpter od
Ġnonse nse
Ġgentlem en
H ubbard
M AN
t oot
u ctor
Ġt ying
Ġb ashing
Ġdo w
Ġli es
ĠM y
ĠM oon
ir a
Ġre ver
ĠD ot
ĠD uncan
ĠT iddles
ĠC ou
ĠL ex
ant ly
ĠR ow
ĠR usty
Ġche que
ĠW om
Ġapp eared
ĠK amut
Ġeh rm
ont osaurus
Ġpo ked
Ġper c
Ġslipp y
fl ake
Ġpainting s
rel and
Ġtip toes
mon ster
Ġboard s
Ġrat t
ĠDip l
Ġcust om
Ġconc rete
ĠPe pper
Ġwi bble
Ġsurf ace
Ġcant al
Ġseagull s
Ġtyp ical
Ġwaist coat
Ġbobb in
Ġdomin oes
Ġhav ta
Ġincred ible
Ġdisappoint ed
Ġescal ator
G www
c lean
h o
i as
p ox
u ing
Ġw izard
Ġd eter
Ġc act
Ġn avy
Ġp j
Ġp ause
Ġp alm
Ġhe ll
om pson
Ġpl ans
us etts
ĠS ab
ĠMummy s
ĠP ier
ure d
ĠL ind
ĠL ance
Ġey ed
Ġfell a
wh ile
Ġbad ji
Ġdinner time
Ġfly s
Ġem bar
Ġcatch ed
Ġcorn ers
Ġbee hive
Ġpat ience
iet h
ĠMiss is
Ġchew y
if ying
Bear s
Ġclos es
Ġground hog
Ġcrisp ies
Ġad j
Ġfrighten ing
Ġclear ing
Ġdecor ation
Ġgym n
Ġcheerl ead
Ġlabel s
Ġbuff alo
Mac donald
In c
Ġol ive
Ġcontin ue
Ġenter tain
Ġske leton
Ġinject ion
Ġoposs um
ĠMur phy
B RI
b out
p olly
Ġa id
Ġa dad
Ġs izes
Ġo og
Ġd ull
ĠI reland
Ġf art
Ġf ever
id ence
Ġst ain
am s
ĠC her
Ġsp at
Ġsp iky
ĠP anda
Ġcl umsy
ĠG ammy
Ġmu l
ul ture
Ġhand ker
ĠCh im
Ġmommy s
Ġwhich ever
ĠH a
Ġdin o
Ġnew t
Ġsn oopy
Ġcut ters
sh elf
Ġhar ry
Ġgra v
ĠO t
oun ces
Ġgrow ed
cl ack
cl ues
Ġdel ight
Ġspe ck
ĠV ai
Ġbur y
ĠHar v
Ġrob e
Ġfollow s
Ġcraw led
Ġcrunch ed
ĠGeorg y
Ġjack ets
Ġbend ing
Ġstret ching
Ġdw arf
Ġsportscaster s
Ġoccasion ally
Ġted dies
Ġjagu ar
ĠFlore nce
Ġcantal oupe
Ġcact us
Ġhandker chief
b room
c ast
l ines
Ġt amb
Ġn ay
Ġdo h
Ġdo r
Ġin ch
st on
au st
ĠD ucky
ĠD arth
Ġuh n
Ġgood ies
Ġbr igade
Ġback ward
ĠC ape
ĠJ olly
ĠJ ingle
ĠA v
ong a
ep t
Ġfl ee
ood les
be y
Ġsc ulp
Ġsm ush
Ġyellow s
Ġdis aster
Ġgl itter
aw k
Ġcry stal
wh ite
Ġpink ie
oss ible
Ġbad ges
Ġsnow flakes
Ġblow ed
Ġgrand p
ĠBr other
ĠBe ccas
Ġpast ries
Ġneck s
Ġmeat ball
Ġmis chief
ors ie
Ġclass es
Ġtip toe
ĠDe id
cat s
Ġhundred s
Ġstom p
lo af
Ġru ined
Ġbeeba a
ĠWill em
ĠTy ler
Fr ank
Ġblink ing
att ford
Ġdalmat ians
Ġconf using
Ġboil er
Ġwed nesday
bet ween
Ġski ing
ĠGu y
Ġsnoo ze
Ġrepe at
Ġbalanc ing
WO M
Ġraind rops
ĠMassach usetts
Ġsten cil
Ġtamb our
A n
L ittle
P e
d ickory
m at
p atter
r oot
y p
Ġw id
Ġa itch
Ġh h
Ġs ult
Ġno d
Ġf au
Ġf igh
Ġhe ating
Ġcan oe
ic ia
Ġj a
Ġwhere as
ĠT ah
ĠT iki
Ġeat ers
ĠS illy
Ġne ph
ff er
Ġdr ies
Ġbu p
Ġcom mon
gg er
Ġgre asy
Ġfl ight
Ġfi er
be es
Ġhand c
Ġpr oc
ath ered
Ġmean while
ĠH el
Ġmilk y
Ġde vil
Ġsing er
Ġeight h
ĠMa jor
Ġkiss y
abb ed
Ġrock y
Ġbrown ies
Ġmag pie
Ġfeed er
cl uck
cl ip
Ġlift s
ĠAr n
Ġspill s
he it
ĠPat ty
ĠAl right
Ġdelic ate
Ġwra pper
dog s
orm or
Ġburp ed
Ġtee na
Ġpopp er
Ġfirefight ers
Ġnu uw
Ġweigh ed
Ġped als
Ġfuss ing
Ġanten nas
Ġcons erv
ĠGramp y
Ġstud ents
Mac Donald
Ġign ore
ĠCur ly
Ġvers ion
Ġsteep le
Ġrefle ction
ĠBrend a
Ġindoor s
Ġneph ew
R oad
S e
W orld
l east
n og
s ets
Ġ ounces
Ġh opper
Ġs inc
at oh
Ġd aw
Ġb itter
Ġg az
Ġm ould
ĠI ng
Ġp eed
Ġin vent
Ġr osy
st ation
st ones
ch ch
Ġre nt
Ġknow ing
op ey
ill s
ĠD oc
ĠD utch
ce l
Ġback ground
ĠB iff
ĠA ut
ish ed
ers on
Ġmu lt
Ġfl ames
ĠE st
ĠCh ic
ĠR up
Ġpen tagon
ĠK ier
ew r
Ġold est
Ġscr uffy
gr andma
sc r
Ġcal cul
Ġhook s
col m
Ġthumb s
Ġexerc ising
ĠEll iot
Ġcontain ers
alent ines
Ġcord s
ĠPean ut
Ġsurf board
Ġbom ber
Ġcree p
ĠMal colm
Ġble h
Ġmous se
abee ba
Ġmamm als
Ġexh aust
ĠTot o
ĠRog er
ĠTellyt ubbies
ĠKer mit
ĠMex ico
Ġinform ation
Ġsched ule
ĠPier re
ĠVai vy
ĠDeid re
ĠArn old
atoh ead
b orn
p ole
p eth
u x
Ġa im
Ġs ized
in ch
Ġf ist
Ġe ea
na c
st ack
ad ee
ĠM in
ĠM uf
Ġan gels
od ocus
ore en
ĠD oo
ĠD ye
ĠT ric
ĠC lever
ĠB odger
ĠP oo
Ġsl id
Ġfl ick
ĠE ars
zz ie
be ans
Ġgr izzly
uff le
Ġdis co
sh eep
sh ade
sh ield
Ġtheir s
ri en
Ġwind shield
Ġpart ner
Ġun iversity
Ġbow s
Ġda ft
und heit
Ġstre ets
Ġfar ther
Ġpin ching
ten s
bre k
Ġtunnel s
Ġfo il
ĠY an
Ġmoment s
ĠSc ooby
Ġsew s
ĠWh isk
Ġgrab s
Ġplan ting
Ġca f
Ġwhisp ered
Ġben e
Ġcompl icated
orm ous
Ġbeet root
Ġdam aged
Ġfloat s
Ġfloat ed
Ġpattern s
ĠTw inkle
Ġcudd ling
ĠEls peth
Ġwaste basket
Ġpro v
Pl attford
Ġpeace ful
Ġrobber s
Ġannoy ed
Ġtyp ewr
ĠLor raine
Ġeff ort
Ġunl ock
Ġstoryt eller
Ġwrest le
Ġcomm un
Ġempt ied
Ġrav iol
Ġraz or
ĠDipl odocus
Ġaitch oo
ĠRup ert
ĠMuf asa
ĠDye isha
J ohn
f th
g ies
h oe
Ġt ing
Ġt ul
Ġt ant
Ġw est
Ġi c
re me
Ġh oppy
Ġo om
Ġd an
Ġwh ip
Ġdo ot
Ġl uh
Ġhe ight
Ġwhat a
Ġwe ighing
Ġha bit
or ters
on a
Ġre act
ĠD oreen
ĠT inkerbell
ĠS a
ĠS u
ĠC assie
Ġsp ear
ĠB ry
ĠA g
Ġmake up
qu er
ĠF ord
Ġman ager
Ġbet cha
ĠH erc
Ġhar p
Ġclean s
Ġgrand mas
ĠBr um
Ġfar ty
Ġshare d
ĠAl ison
Ġee h
Ġfox es
Ġacr ob
Ġdes per
Ġcraw ls
Ġjo kes
Ġmush ed
Ġma am
ĠNew s
Ġplan ning
Ġlar ger
Ġforest s
Ġinter rup
ĠDisney land
ĠBea ver
ĠBaba ji
Ġgag aa
Ġphon ed
Ġexper im
Ġrout ine
Ġmyster y
Ġtal c
Ġges undheit
ĠDiand ros
Ġperc ent
Ġtambour ine
Ġsinc ere
ĠHerc ules
B ar
G ay
S H
b ank
d ry
k k
Ġt ips
Ġth reat
Ġi cy
Ġo pt
er k
Ġp od
or p
Ġu tens
Ġin j
ar ly
Ġe p
ĠM u
Ġst ates
ot t
ĠD opey
Ġbr ontosaurus
ol ks
ĠS un
ĠS ky
ĠB uster
ĠA li
Ġcl ipp
Ġtr ips
Ġtr icked
Ġtr owel
Ġcr anes
ĠR o
Ġpr on
ĠH umm
Ġsqu ishing
Ġmom s
ĠO ver
amp le
Ġmiss es
Ġnear by
Ġbubb ly
Ġgrow ling
ĠSp ice
ĠSp ring
Ġspe cially
Ġpigg ys
Ġlay s
Ġlay er
ĠAl bu
Ġcrisp y
ĠSm urf
Ġad mit
ĠGre ta
Ġmeas les
Ġinv itation
Ġchug a
ĠSal ty
Ġgift s
ĠKent ucky
Ġsportsc ast
Pl od
Ġpige on
Ġlitt lest
Ġsaf ari
ĠSe uss
Ġcast les
ĠRh ode
Ġtrave ling
Ġbree ze
Ġcustom ers
Ġgymn astic
ĠHarv ard
Ġfau cet
ĠTah oe
Ġfier ce
ĠTric er
m iss
Ġt anger
Ġw ea
ou bles
Ġi ck
at ers
Ġd ash
Ġd ud
in cy
Ġc ages
Ġg ung
Ġn ic
Ġdo p
Ġl iter
ll as
ea e
is c
Ġto n
le g
ar ves
Ġcan dies
Ġli king
Ġst all
Ġpl ow
ta c
ĠT ippy
Ġcar ve
Ġor na
Ġbl oss
ĠP ic
ap an
ĠL ia
Ġfl ood
are y
Ġwa w
Ġtrain ers
ĠR ain
ag us
ĠW ee
ĠH i
Ġhair dresser
ne ys
ord er
av is
ĠDad aw
Ġsand y
Ġsnow balls
Ġmo an
Ġown er
ĠAd rien
Ġfo am
Ġtwel fth
Ġloud ly
Ġind ex
Ġser iously
Ġtor t
Ġtear ing
Ġcre che
Ġdecor ated
Ġrect angles
eter ia
Ġsiren s
Ġlump s
ĠMor ris
Ġpoison ous
ĠSains bury
Ġlal al
ĠCam bridge
ĠGerman y
Ġwad dle
ĠColl een
ĠSta cie
ĠBud gie
Ġdeter m
ĠEst her
Ġcalcul ator
quer que
ĠAlbu querque
Z oo
b ath
d ale
p ir
p eas
s ay
s qu
v o
v ory
Ġ ou
Ġw u
Ġw ider
Ġa ud
Ġh ankie
Ġs oul
Ġb ou
Ġg al
Ġn er
Ġp oll
Ġsh ish
Ġsh aker
Ġr ipping
en as
ir aptor
Ġnot her
Ġch oices
Ġplay ers
ĠC ass
ĠB utch
ĠP eps
ĠF lying
ĠL ola
ĠG onga
Ġsw ear
ess y
Ġar k
Ġsm okes
Ġremember s
Ġremember ing
Ġpr ison
Ġen c
ĠW anda
ĠW inky
Ġsu ds
ĠGr inch
Ġdraw s
Ġegg nog
Ġfloor s
Ġgl uggl
Ġaw k
Ġpretend ed
Ġleft over
Ġta le
Ġlunch box
now man
Ġhang ers
ĠBr am
ĠBr uce
Ġsoon er
ĠSh am
ĠBa x
Ġding ding
Ġhos es
Ġfre ck
ĠFl ounder
Ġansw ers
HA Z
Ġtool box
see k
ĠLou is
ĠRu f
Ġspo ilt
ĠStreet name
ĠNe xt
GG G
Ġnen aw
ĠFox y
Ġsucc ess
ĠKrist en
Ġpregn ant
Ġpterod actyl
clean er
ĠOt to
Ġsculp ture
Ġcaf eteria
SH E
C arey
b es
b oon
k ah
l ittle
p ress
w inkle
Ġa hm
Ġm ur
Ġm art
Ġn icked
Ġto fu
Ġwe bs
Ġis s
Ġin f
Ġr um
Ġe vil
ch eep
Ġre el
Ġre pl
Ġget cha
Ġch ik
Ġeat ed
Ġsp ooky
ĠB el
ĠL ow
Ġcom ic
Ġfl ied
Ġfl ipped
Ġar gue
Ġcol t
ĠR ing
Ġsm oked
oll ey
Ġen ormous
ĠW olf
ĠH enny
ĠK ool
Ġz ig
ne ck
Ġcame ls
Ġdifferent ly
Ġstr anger
Ġun w
amp ers
Ġdad adad
Ġboo ster
cl ick
ĠV alentine
Ġspell ed
Ġmagn ifying
Ġsummer time
Ġbull ies
cup s
Ġfold er
Ġhay stack
ĠGre ggy
Ġsmack ing
Ġsquash y
fight er
Ġwindmill s
Ġsneez es
Ġwreck ing
Ġinter view
Ġgigg ling
par agus
Ġmel ts
Ġheaven s
Ġbarri ers
Ġtug boat
ĠFran ken
Gre gor
Ġconcer ned
Ġsizz le
Ġtalc um
Ġdeterm ined
ĠPeps i
B right
H at
J US
S p
T ots
r il
v room
Ġa uth
Ġy oohoo
Ġh oe
at on
Ġd ye
Ġb ung
Ġdo ody
Ġl ellow
Ġp ort
Ġp oppy
ea m
ea ked
ea uty
om ing
et i
Ġr ise
Ġe cho
ad ed
ch y
ir ley
Ġup py
Ġch omp
Ġch atter
ra x
ĠD ear
Ġbr o
ol anda
Ġbl ocked
Ġback side
ĠS een
Ġsp ices
Ġsp ikes
ĠB ubb
ĠP a
Ġbu b
ĠN on
ĠL aa
ĠE li
Ġcr ump
Ġdaddy s
ĠH er
ĠH orsie
Ġdat s
Ġbuy ed
Ġstr uck
Ġunt ill
Ġbee bah
Ġown s
Ġcrack le
ĠBe at
li ft
Ġim it
ĠY olanda
Ġcoll ie
Ġee ee
bow l
Ġcomb ed
Ġumbre llas
Ġbull s
Ġadd ed
yl osaurus
Ġcamp er
Ġsle dding
Ġrep orters
Ġdw arves
Ġseas ons
olk sw
Ġnea rest
ĠBon nie
Ġmumm ies
Ġoper ation
Ġgrill ed
ĠFranc isco
Ġpra wn
Ġincl ud
Ġdea f
Ġnipp le
Ġrever se
ĠKier a
Ġtypewr iter
Ġutens ils
ĠAdrien ne
J immy
b th
c www
d uck
t oy
y ll
Ġ eek
Ġt ide
Ġw is
Ġa is
Ġa pe
Ġd airy
Ġb oulder
Ġg ear
Ġm wah
Ġwh is
Ġwh izz
Ġdo do
Ġl ining
Ġp and
Ġp arl
Ġf iddly
ut ton
Ġr ider
ĠM er
Ġj im
ie ce
od on
Ġtw is
ĠB ed
ĠJ un
ers h
ĠF ay
ĠN i
el ess
Ġcr ate
Ġcr ossed
Ġsm iles
Ġgr ind
Ġhat es
Ġz ub
aw a
Ġact ive
Ġda wn
cream s
Ġwake d
Ġtap ere
ĠY eti
Ġvisit s
Ġpoop ed
Ġsauce pan
Ġfro ggies
Ġload ed
Ġheh ehe
Ġsim p
Ġlamp s
ĠBet sy
St ation
ĠPr ince
Ġimp ossible
Ġstock ings
Ġarrow s
med i
Ġwar ning
Ġgallop ing
Ġcond ition
Ġtar get
Ġsettle d
Ġshoel aces
Ġahphss s
Ġintrod uce
Ġbloom ing
ĠMerc ed
Ġdescri be
Ġadj ust
Ġcheerlead ers
Ġconserv atory
ĠAut umn
Ġsincere ly
Ġgymnastic s
ĠRuf us
b oop
k uh
t an
u ds
w orld
Ġt ies
Ġy ak
ou ette
Ġthe e
Ġo c
Ġdo me
Ġp ur
Ġf olks
Ġha p
ar in
ir ls
Ġst yle
Ġkn ots
ra c
ra ce
Ġout a
ĠD ar
ĠD almat
ĠD affy
il ies
ĠC as
ĠP un
ĠP ap
Ġhm hm
Ġah em
Ġread er
Ġsl urp
Ġqu arts
ĠCh els
Ġse ction
Ġpr of
ag ag
ĠH ome
ĠH ampshire
Ġhair brush
Ġsaw ed
Ġbath robe
Ġeight eenth
Ġroll ers
Ġboo gie
Ġbat tle
Ġbeauti fully
br umm
Ġhalf way
ĠV olksw
Ġquiet er
Ġpee led
Ġim medi
fl owers
ĠPaul a
Ġmirr ors
Ġunderstand s
Ġwigg ling
Ġcap ture
Ġdeliver s
Ġpopp ers
Ġcub s
Ġnicke ls
ĠJay len
ĠMir anda
Ġmumm um
Ġsess ions
Ġcrush ed
Ġded e
ĠHan sel
ĠOat ios
Ġstoryt ellers
ĠHead lines
Ġbeeb abeeba
ĠTick les
usse ls
Ġtoenail s
Ġtherm ometer
Ġvoc ab
Ġaff ect
ĠAv ril
Ġawk ward
ĠFranken stein
Ġpand as
P LA
T r
t ered
Ġt ch
Ġt ipper
Ġt ippy
Ġth orn
Ġa le
Ġc ellotape
Ġgo b
is ion
Ġsh ift
Ġpl ugs
ĠD ixie
Ġcar pen
ĠB ean
ĠP ort
Ġbook shelf
ĠTh umper
Ġmm mm
ĠL amb
ĠG ret
ĠE ug
ant ic
ack s
Ġle gg
Ġle ather
ist ic
Ġlea king
Ġfin s
ops y
ach a
Ġstory book
Ġten th
Ġparty s
Ġdad s
Ġpolice car
ask a
aff a
ĠSp ark
ĠV al
ĠZ oo
ĠSt r
Ġcur ve
ĠPat ricia
ĠUn iversity
Ġwish ed
Ġorang ut
Ġmotorcy cles
Ġchalk s
Ġneckl aces
Ġremind ed
Ġmap le
ĠTr amp
Ġrep orter
Ġborrow ed
Ġmarm ite
Ġbatht ime
Ġmunch es
Ġins ist
ĠBon ny
jor ie
Ġfab ric
Ġnectar ine
Ġlasag na
Ġwhady ou
Ġanch or
Ġchik ada
Ġparl or
ĠEug ene
L ane
e ys
Ġi vy
Ġs ard
Ġo pe
Ġm ol
Ġl umber
Ġl eng
Ġp yr
Ġp ita
Ġr are
Ġli ar
Ġli me
Ġk icks
Ġan em
Ġch ains
ĠD abee
Ġbec omes
Ġback hoe
ĠS unny
ĠB urt
ĠB adger
ĠP oliceman
ĠJ affa
Ġsa ves
Ġhuh uh
Ġneed n
ĠTh ree
ĠF ur
ĠN ame
ĠN ik
ong o
gg les
el ia
Ġpre scr
Ġlot tery
ag o
Ġhead lights
ĠW orld
Ġde g
Ġnight ie
Ġhot ter
Ġold s
Ġcou p
Ġun huh
Ġtre ating
Ġduh m
ĠSh elly
ĠBar nes
Ġhelicopter s
Ġsoap y
Ġrob ots
ĠChrist ina
Ġrad ish
Ġsweep er
ĠSn eez
ĠKe ith
ĠCoc oa
Ġpss h
Ġble nder
Ġmosquit oes
Ġbuff ers
ĠGum by
ĠSe ven
ĠThere sa
Ġdais ys
Ġwaln uts
Ġinvol ved
ĠTweet y
Ġpyr am
B C
C r
J IM
S m
o ys
r ite
s p
u sed
z an
Ġt un
Ġh ive
Ġh og
Ġh oppity
Ġc our
Ġp ale
Ġgo bl
ig a
Ġr ap
Ġr umble
ĠM ini
Ġst ere
Ġre cept
Ġgot ted
am ole
Ġat tend
ĠD oodles
pp les
Ġum a
ĠC aca
Ġhis self
ĠP am
eed le
ĠA dd
ĠTh at
Ġman go
ep end
Ġfl av
ul ary
ĠCh ucky
Ġshould a
ph one
Ġgu ac
ĠW iggles
oop er
Ġfin al
Ġhur ried
uff et
wh o
Ġbab es
Ġcheck s
Ġri b
Ġcur ry
Ġfork lift
ĠMar s
Ġfo ggy
Ġee ya
ĠSte vie
Ġrac oon
Ġacc ord
ĠFl int
Ġaccident s
Ġsurpris es
Ġsof ter
Ġeng lish
bag s
Ġder rick
Ġspread ing
Ġtrans cri
Ġhy rax
Ġtodd lers
Ġliz ards
ĠLeg os
Ġtread ing
Ġconnect ed
Ġsol id
ĠGran ma
Ġcro iss
ĠAndre na
Ġdistur b
Ġfisher man
Ġsnots not
Ġmoom ilk
Ġshish i
ĠLow ly
Ġimmedi ately
Ġvocab ulary
Ġgobl ins
Ġguac amole
E d
E ileen
M en
S T
b ump
d ot
r it
u cy
v ale
Ġt shirt
Ġth i
Ġw oohoo
Ġa dding
Ġs ump
Ġs urr
Ġd im
Ġd ab
Ġc urs
Ġwh il
Ġl am
Ġf itting
Ġha zel
ig o
Ġsh immy
Ġe re
na do
Ġk w
st ra
ĠM oom
ĠM og
Ġdid ja
ur key
Ġuh p
Ġal ouette
Ġback ing
ĠP oc
Ġsa iled
Ġcl over
Ġtr ough
ĠF ix
Ġmu ddled
ob ber
oh o
ood oo
ĠR eady
ah ont
Ġpr inc
ath on
ix on
Ġschool bus
Ġsn ore
Ġlots a
Ġdre ad
Ġfun ky
Ġsnow ed
amp ire
ĠJohn son
Ġstra iner
ald o
Ġwoo sh
Ġpet ting
if y
ĠAl bert
Ġfam ous
ĠIs ob
Ġking dom
Ġma id
Ġgod mother
Ġrem ove
Ġroo sters
Ġjack s
Ġpunch ing
Ġpunch ed
Ġcann on
Ġbunn ys
Ġbeak ers
Ġsweat ers
Ġpeepp o
Ġlal ight
ĠItal ian
Ġcond uctor
ĠOat io
Ġexper ience
Ġlic ense
Ġruh f
ĠRap un
Ġpars ley
Ġauth or
Ġleng th
Ġflav ored
M iss
O ne
b ies
w orm
Ġ entr
Ġs is
Ġm ak
Ġdo s
Ġdo pe
Ġp osh
Ġno o
Ġf itted
Ġu ah
Ġin it
Ġsh red
Ġsh orty
ar ound
na ge
Ġk h
ch ine
ĠM ormor
Ġst ap
Ġpl umber
Ġch ases
Ġso aked
ur dy
ĠD am
ĠT ime
Ġbr ist
ĠS er
ĠS pl
ĠC om
ap o
Ġwat ers
ĠF er
ĠF oot
ĠN aughty
ĠG ull
Ġfi zzy
be an
oc iraptor
ĠR olf
Ġsc en
Ġpe bble
Ġpig tails
ĠK r
ĠAn ge
ĠAn imal
Ġpain ter
Ġteddy bear
ation al
Ġmoon s
ĠBr ad
Ġsmell ed
ĠSp onge
li ke
ĠBa iley
ĠEl ana
Ġempty ing
Ġwish es
ĠRob ber
Ġtor nado
ĠMel anie
Ġfigure s
ĠTra fford
Ġbark s
Ġext reme
Ġsneak y
ĠQu avers
Ġhedgehog s
ral ia
Ġgener ous
Ġbill s
ĠMad eline
Ġhumm ing
ĠPot ato
Th ompson
ĠPen n
Ġsharpen er
Ġfoo led
ĠAust ralia
ĠTar zan
Ġtush ie
Ġcomplain ing
Ġsile nt
Ġobject s
Ġconst antly
ĠNell ie
Ġmul berry
Ġsurr ound
ĠPoc ahont
Ġprinc ip
A rk
K ong
L aa
e ers
h and
m in
r ina
t rack
w oman
Ġn ature
Ġl ala
Ġp ose
Ġf rag
Ġu rr
Ġin n
ar ch
en n
st op
Ġj abbed
Ġch k
un ting
Ġtw it
Ġsp ong
ĠB us
ĠP inky
ap hone
Ġsl iced
Ġbu ds
ĠG aby
Ġgre ase
ĠE arly
Ġel ves
Ġwa e
ĠCh eese
arl in
Ġv ulture
Ġwork ers
Ġhead band
Ġex cl
ma chine
Ġpick up
sh oes
Ġbring ed
Ġcheese burger
Ġbath e
Ġbuild ers
Ġcold er
Ġhop eless
Ġbeep ing
Ġdad da
Ġtast ing
Ġpo em
ĠSp in
ĠSh awn
Ġcur ved
ĠMar sh
ugg ing
Ġph ooey
ĠAl ista
Ġclass room
Ġmagic al
Ġvisit ors
ogn ese
Ġcupboard s
Ġaccident ally
Ġplan ets
ĠUr ler
Ġclip clop
ĠGl uck
JO S
Ġgall ons
Ġspo iled
Ġcudd les
Ġaut om
Ġblind s
Ġank ylosaurus
Ġwhad day
uc ch
ĠHow ard
ĠShe ila
AL X
Ġmechan ic
ĠMunch ing
Ġdwarf s
cast les
Se uss
ĠIng a
Ġexperim ent
yll is
Ġprescr iption
ĠAlista ir
C he
D D
L icken
M ike
S chool
b at
m aker
y al
Ġi r
Ġc os
Ġc aps
Ġg ay
Ġg athered
Ġm old
an ne
Ġp ity
ut z
Ġsh ades
Ġr aff
Ġr oots
Ġme h
ere n
ic key
im o
im ee
Ġch ina
ra in
ĠD W
ĠP ongo
ĠJ apan
ab ab
Ġcl aw
ĠTh en
ĠF am
Ġsw ans
Ġfl aming
ang ed
Ġpu bl
Ġcol our
ĠCh ew
Ġle nd
Ġse g
Ġsc otch
Ġsc orp
Ġpr im
Ġv alentines
Ġgr o
ag en
Ġround ed
Ġunder ground
Ġco aster
Ġwow ie
ĠGrand addy
Ġgl obe
Ġfing s
Ġfeel ings
ĠPur d
ĠMa le
Ġbad ada
Ġend ing
Ġswim mers
Ġro ars
Ġfarm s
Ġeye ball
Ġtoast ed
anc ed
Ġpat ients
Ġmus k
eh eh
Ġwood pe
ĠPl anet
Ġnin i
ĠGe off
Ġtight er
ĠPlay days
Ġroof s
Ġugh oh
Ġjo ker
Ġjo gging
ĠIn cy
Ġvacuum ing
Ġlamp shade
Ġthousand s
ĠLou ie
Ġhy enas
Ġreind eers
Ġsniff s
Ġbeet les
ĠPr ud
Ġtat ty
LE S
PA M
Ġpitter patter
ĠGoo gey
Ġguest s
Ġtrape zo
ĠCle o
ĠHaw ai
Ġdy nam
Ġpostc ard
ĠMarc us
Ġsus p
ĠFo zzie
Ġliter ally
ĠBram well
ĠSham u
ĠNon no
Ġlegg ings
Ġcroiss ant
Ġfrag ile
K at
a ids
d aw
f ty
g ee
j e
r uff
w eb
re ne
Ġh oller
Ġd ap
Ġd icky
Ġb ic
Ġc av
Ġc aus
Ġwh iz
ĠI www
Ġp addy
Ġf ut
ee e
id o
Ġr ange
Ġe ve
Ġli ver
st ood
ĠM oe
Ġst ubb
Ġre fu
ĠT igg
ĠT ina
Ġbr ake
Ġsp ice
ĠB an
ĠP eep
ĠP eek
Ġcl eared
Ġcl ippers
Ġtr odd
ĠL ove
ĠG il
ump t
Ġcr ick
Ġcol ander
Ġopen er
ĠFr uit
Ġhi king
ĠW ild
ĠH ay
ĠGr umpy
ĠDad dad
umm ing
ĠNin tend
Ġblock ing
Ġsun tan
ĠO z
ĠO ll
Ġarm bands
ato es
Ġmiss us
ling s
Ġhigh est
und y
ĠU www
Ġele vent
Ġnut ella
ĠAl aska
Ġslow er
Ġlick s
Ġsign ed
Ġwigg les
Ġtrail ers
Ġind epend
Ch alk
ĠFred die
ĠGold en
Ġass ist
ĠRoy al
ĠDin o
Ġhotdog s
Ġvel ociraptor
Ġstud ent
Ġbob by
Ġprint s
Ġpurr ing
Ġcent ral
Ġpomp om
Ġfir m
ĠMcdonald s
Ġcass ette
Ġdistract ed
Ġdont cha
ĠTan ta
Ġsher bet
Ġsilk y
ĠWe ist
iction ary
Ġgrav it
Ġhandc uffs
Ġbene ath
ĠAg ra
Ġsimp ly
Ġwhil st
ĠRapun zel
ĠGeoff rey
ĠNintend o
B eauty
K MO
R anger
b unny
g ow
l antern
w ife
Ġt ic
Ġt ummies
in ary
Ġb ingo
Ġc ong
Ġl ace
Ġp unk
Ġhe x
om ot
et ery
Ġis h
Ġr ung
ad on
ink s
Ġwas ps
od ge
Ġch uff
itt ers
ĠT asha
Ġsp ir
ĠP rest
ĠJ ud
Ġover night
Ġas pir
Ġas paragus
ĠN ad
Ġfl utter
Ġel f
Ġcr uel
Ġgreen house
Ġke en
Ġke nn
ag ing
bb ed
ĠW o
ĠH on
ĠH ipp
Ġde f
Ġfire house
Ġapp et
Ġapp ear
Ġcare s
Ġsn ug
Ġjump ers
Ġsna pping
ond a
Ġfell ed
Ġwo k
Ġfarm house
Ġcon cept
Ġcard inal
Ġtall est
Ġbuck les
Ġpet er
Ġpee ing
Ġtight ly
Ġcomb s
ĠSm udge
Ġkill ing
Ġcock roach
Ġea st
Ġexpl oring
Ġcem etery
ĠNan ette
Ġtem p
Ġtab by
Ġger m
ĠTw o
Ġsweat y
ĠKay la
Ġexplain ed
Ġret ur
ĠBur nage
Ġbabydoll s
Ġrece iver
ĠCur ious
ĠRud olf
Ġdestroy ed
ĠAsh a
ĠFre re
Ġenc ou
Ġtapere corder
Ġorangut an
Ġpyram id
Ġstere o
Ġtrapezo id
B ee
D ot
P eter
R angers
V IN
f oot
k l
t ank
Ġ easel
Ġh oof
Ġs an
Ġb ickie
Ġg at
Ġg ain
Ġwh ey
Ġl ee
Ġp sy
Ġf w
it or
Ġsh ocked
ch i
Ġst acked
un ted
ly mp
ĠS atur
ĠS indy
Ġfr ank
ĠC all
ĠC ath
ĠA imee
Ġcl ing
Ġcl ink
ber ty
Ġsl inky
ĠN ac
ĠL anz
ob by
ĠE x
Ġgirl friend
iss ipp
ĠR over
Ġse le
ĠFr anny
Ġgr ip
ĠW izard
ĠH ood
Ġmon arch
Ġz ucch
Ġhurt ed
ĠMom m
Ġhar mon
Ġsand castle
Ġrec y
Ġgra vel
Ġpop ular
Ġun c
Ġun button
Ġsnow men
fe ction
Ġro yal
Ġring ring
Ġmo ist
Ġhang s
Ġfeed s
Ġmic r
Ġper f
Ġhea red
ĠMiss issipp
Ġra ft
Ġpoop y
Ġes press
Ġband ana
Ġburn s
Ġsneak er
Ġpinea pples
Ġjoin ed
Ġama zed
Ġtim ber
ĠAlad din
Ġmod ern
ĠBon een
Ġbru ises
Ġchat ting
Ġgag a
Ġfrustr ating
Ġgrassh oppers
pol es
Ġloc omot
Ġfunn iest
Ġlasag ne
Tim ms
Ġorig inal
Ġcollap sed
Ġsult anas
ĠChic ago
ĠCass andra
ĠVolksw agen
ĠSneez y
Ġentr ance
ĠSer geant
ĠPocahont as
Ġdynam ite
ĠPrest on
ĠMississipp i
B F
B illy
F RE
d iddle
h i
m int
r oses
u u
z a
Ġ zz
Ġth igh
Ġth ief
Ġd ame
Ġd uplo
in als
Ġb inky
Ġc le
Ġl atch
Ġp f
Ġp ish
Ġp bth
Ġf uh
om mend
ar ar
Ġr aking
Ġcan al
Ġk l
st ool
ir ie
ir ling
Ġme ets
od o
ear ch
Ġout er
al as
ta ct
ĠC e
ĠC od
Ġsp ins
ber g
Ġas ide
ĠTh ey
Ġsl oth
Ġfl annel
ĠE ast
Ġfi le
Ġfi igh
Ġcr umble
ĠW ind
ĠH am
Ġjump y
Ġgl ory
Ġeh h
Ġstr ugg
Ġrec ommend
Ġbab oon
Ġsheep dog
Ġham m
Ġshut ing
rop ri
Ġhol a
ĠBa xter
ĠEl vis
ĠRob bin
Ġsuper man
ĠFl ip
Ġbib s
Ġveget arian
Ġtor ture
Ġpram s
Ġbroom broom
Ġlock er
Ġund ress
Ġtank s
Ġpinch ers
Ġpops icles
Ġtad poles
oosh as
Ġplaster s
Ġraccoon s
Ġrel ated
ĠNe ville
Ġmath s
Ġattack ing
Ġmamm oth
Ġtumble d
ĠJas per
ĠZo ey
Ġcooper ate
ĠAid an
Ġvar iet
Ġspat ula
Ġflee ce
Ġexhaust ed
ĠSa fe
Ġacrob at
dry er
ĠRain bow
ĠGret el
ĠIsob el
Ġkenn el
Ġespress o
BF D
K www
d umpty
i als
l oe
t owel
u ced
Ġt our
Ġa fford
Ġo le
in o
Ġwh ipped
Ġn un
Ġl umpy
Ġp ont
Ġp olly
Ġgo ggles
Ġf ocus
es li
Ġha il
Ġha llo
or is
as gow
Ġr ocked
en ta
Ġe uh
na il
st reet
ĠM am
ĠM os
Ġst y
Ġj ing
ra ham
ĠD aw
Ġwat ered
Ġtr am
Ġtr od
Ġsl oppy
Ġman t
ĠL ong
Ġmu esli
Ġfl ask
ĠCh loe
Ġpe cul
Ġhi ke
Ġgu essed
ĠW al
Ġsu g
ĠK erry
Ġam er
Ġgl ow
Ġact iv
Ġtree house
Ġstr angers
Ġpretend s
Ġbroken ed
Ġrock er
Ġwo e
Ġbi bbie
Ġbrown ie
Ġteach es
rop e
ĠAd rian
Ġscr itch
Ġscr umpt
ĠSt ickle
ĠSam ara
Ġtrous er
Ġfam ilies
Ġser ies
az e
Ġsew ed
Ġcont r
Ġbeat s
Ġtweet tweet
Ġsurpris ing
Ġpad s
Ġbush y
ĠAs da
Ġca ves
ĠBab e
Ġexpl os
ĠTr ixie
ĠGl asgow
ĠDoug all
Ġstudy ing
Ġshadow s
ĠCheer io
Ġcomf ort
ĠDr ive
Ġtag s
Ġfa wn
ĠDin osaur
Ġnat ivity
Ġvol ume
ĠPopp a
Ġdaffod il
Ġphon ing
Ġstri ke
Ġjell ies
Ġwander ing
Ġunlo ad
Ġeyelash es
Ġtant rum
leg s
Ġcarpen ter
Ġrecept ion
Ġcurs ive
Ġextreme ly
Ġpubl ic
Ġpecul iar
Ġscrumpt ious
M e
b ab
p op
v inc
Ġth as
Ġa ck
Ġc rew
Ġc ope
Ġc yl
Ġm aw
an che
Ġn iece
er on
Ġdo ed
Ġno vel
oo oo
Ġwe es
Ġin fection
Ġsh iver
Ġe ld
Ġe va
Ġbe be
Ġk ung
Ġre qu
ear ning
ore e
ĠT ickle
Ġbr ide
ĠC ot
ĠC ase
Ġne g
ĠN urse
ĠG o
Ġfl ea
Ġar gu
Ġfour s
Ġv r
sh h
Ġmust h
Ġear rings
ub ub
Ġcra ft
sy l
Ġbi ka
Ġdad adada
ĠPet ra
ĠCar rie
Ġcool ing
ĠNa i
ĠSh irley
agh e
Ġpers ons
ĠMar issa
Ġshort bread
Ġproper ty
sc ent
Ġbaba a
ĠSte w
Ġvisit or
ib by
Ġaer ial
Ġjam my
Ġrow ing
Ġneat ly
ĠSc arl
Ġjo ey
ĠTelet ubbie
Ġrainbow s
Ġbrumm brumm
Ġcamp fire
Ġant elope
ĠBarb ies
Ġexpect ed
Ġcob web
Ġmeasure d
ĠRa f
Ġdisc over
Ġsub ject
Ġgrocer ys
Ġsep ar
ĠJeff ery
ĠNoah s
Ġdest ruct
Ġcran berries
ĠSher ry
bel ieve
ĠOre os
ĠHaw kins
Ġcelebr ate
Ġtah ini
Ġscrubb ing
Ġprep are
Ġtit le
Ġargum ent
ĠWhisk as
Ġraviol i
Ġtanger ine
Ġsard ines
Ġcrick ets
ĠLanz ar
Ġzucch ini
Ġharmon ica
Ġperf ume
Ġlocomot ive
G irl
a sed
b op
c art
d ar
f ied
h as
m www
u cked
v able
Ġt ales
Ġh oll
Ġd ell
Ġd ies
Ġd ug
Ġd uper
Ġc opper
Ġc ourt
Ġn een
Ġdo ink
Ġdo op
Ġl ens
Ġp ure
Ġto ffee
Ġwe en
it able
Ġr opes
Ġcan ce
Ġbe ater
ĠM ilk
Ġst are
Ġst aff
ĠD ee
ĠD ale
ĠT ammy
Ġher d
Ġbl ades
ge h
ĠC y
Ġhis t
ĠB ash
ĠP les
Ġdr inked
Ġag a
Ġag re
ĠN ala
ĠG w
ĠG wen
Ġpre d
ack y
Ġhand ful
ĠCh op
Ġsc ree
Ġpr ote
Ġtalk ative
Ġgr ubby
Ġgr ampa
Ġtea cup
ĠGr omit
Ġsn uff
Ġaw are
Ġbad die
Ġsun flowers
ull ah
Ġham sters
br rm
amb ler
ĠAr k
Ġbuck s
Ġkey hole
Ġbelong ed
Ġpoop s
ĠMonday s
Ġty res
Ġkill er
Ġroar ing
Ġcollect s
Ġtub es
Ġbend y
arent s
ĠBoo boon
Ġsneak ing
Ġloose n
Ġsnugg ly
Ġpip it
Ġspark les
Ġhoover ing
ĠTyr one
ĠMad ison
Ġmem or
ĠDu dley
Ġvel vet
Ġrelax ing
Ġnick name
Ġtexture s
att ered
ĠOh io
Ġexpress ion
Ġdrown ed
Ġflatten ed
Ġwrigg le
Ġgrouch y
An ne
miss ion
Ġoc tagon
Ġwhadday a
Ġwoodpe cker
Ġhex agon
ĠSatur n
ĠCase y
syl van
D og
J olly
L ou
T ears
a im
g th
j udge
p o
s er
t ion
y d
Ġt aps
Ġs oo
Ġd eed
Ġd ickory
Ġd arlin
Ġg ems
an odon
Ġl u
it z
en ch
Ġk oo
Ġk nack
st orm
ad oo
ir ing
Ġst ren
Ġre e
Ġkn uckle
Ġup hill
Ġso cial
ĠT umble
ick ing
Ġal c
ĠS el
Ġsp arrow
ĠB oun
ĠB aghe
ĠP ussy
Ġoff ic
Ġne h
Ġbook ie
Ġdr ips
ĠG em
ĠG host
ard ess
ĠR ita
Ġsc all
Ġsc use
ĠFr umble
Ġdi v
Ġde v
Ġsu cked
Ġhat ched
Ġz a
ac ed
ĠGrand father
Ġcatch er
Ġham per
Ġbel ts
Ġsupp ort
br icks
Ġcause d
Ġdra gging
Ġscr unch
Ġmen s
ĠMat ilda
Ġnee nah
ĠJen na
ĠSunday s
Ġee at
Ġcomp ass
Ġyuck o
Ġnews ag
sw ish
ĠRuth ie
Ġcock le
Ġma jor
Ġsevent eenth
Ġsixt eenth
Ġext ens
Ġsuck s
Ġspend ing
St ory
Ġcrow d
ĠLe o
Ġtoad s
Ġstew ardess
ĠSpen cers
ĠMal ta
Ġhorr or
Ġins ur
Ġdesign s
Ġmass age
Ġalmond s
Ġburgl ars
ific ent
Ġwrink led
Ġchir p
ĠHa iley
Ġteena ger
Ġcommun ic
Ġreact ion
ĠTricer atops
ĠMerced es
ĠPenn sylvan
Ġprincip al
Ġflaming os
Ġscorp ion
Ġtrodd en
ĠScarl ett
ĠLanzar otte
Ġhist ory
ĠBaghe era
ĠPennsylvan ia
S qu
b ling
c ony
i ant
p ig
Ġw ead
Ġy ey
re ts
Ġs ym
Ġb ure
Ġc ider
Ġp eak
Ġf le
Ġf ond
is hm
Ġoh p
Ġr ate
st y
ĠM au
ĠM ack
Ġst ared
Ġre pt
ic ar
Ġch amp
ill ed
and ad
ta h
ce y
ĠT it
ĠT inkey
Ġcar ol
Ġor ch
ol ves
Ġbl ade
ĠS ears
ĠS alley
ĠS issy
ĠC o
ĠB i
ĠP ter
ĠP umb
ĠP amper
ĠJ ock
ĠJ elly
ĠJ ello
ame l
Ġtr u
ĠF it
ĠG illy
ĠG ina
Ġfi ves
Ġcol a
oc ious
ĠR aff
ĠR eese
Ġpr ices
Ġpr izes
Ġshow ers
Ġsleep er
Ġv ag
Ġv ampire
Ġdi ver
Ġgr ated
Ġgr unt
Ġcook book
og i
ĠH all
ĠH ill
ĠH end
Ġmilk ing
Ġde ers
Ġdoll house
Ġhat ching
Ġunder stood
Ġdis p
Ġapp ropri
ĠK irsty
ne z
opp ie
Ġstuff y
Ġgl uing
Ġhard est
Ġsand al
Ġblack bird
Ġtouch es
Ġwo a
Ġban ner
Ġid iot
Ġown ed
Ġtummy s
ĠZ ee
Ġri bs
igg le
ĠMiss es
Ġcur led
Ġra ggedy
Ġpump s
gr ove
ĠEm m
ĠY ogi
ĠAl icia
Ġter r
TO M
ĠFire fighter
ĠHe aton
Ġplan ned
Ġlock ing
Ġob long
ĠGeorg ina
Ġbal cony
Ġspray ed
els on
Ġelect ron
Ġflap jack
Ġtus k
Ġwi bbly
wah wah
Ġcontrol s
ĠDon ny
Ġdirect ly
Ġtend s
Ġheeh aw
Ġol ie
Ġcy cle
ĠTur tle
ras sed
ĠChr issy
Ġembar rassed
Ġspeck led
Pe ggy
Ġep is
Ġunw rap
ĠFlint stones
ĠMomm ily
Ġvariet y
Ġexplos ion
Ġstren gth
J ac
R over
T ree
V al
W ee
b un
g irl
p f
t eddy
v ark
v est
w obble
Ġ est
Ġw ou
Ġi vory
Ġh umps
at ford
Ġo cc
Ġo xy
Ġd ink
Ġd ictionary
Ġg n
Ġn is
er al
Ġf oss
Ġwe bbed
se n
id y
Ġcan es
Ġme me
um a
Ġj og
Ġba p
Ġch om
Ġch ubby
ra ctor
ur g
ur ity
ta kes
ĠT ower
Ġhow bout
il ty
ol ie
ĠS ea
ge on
ĠB umper
ĠB apo
ĠP ak
ĠN ow
ĠN elson
ĠL ane
Ġmu le
ard vark
ĠE ur
Ġwa vy
ist an
ist or
ĠFr iend
ent al
Ġv olley
Ġhead ing
Ġlea fl
ĠH ums
Ġex ample
Ġmight y
Ġdis gu
ĠK ix
Ġmat s
Ġsk ittle
Ġdri bbling
bo ing
Ġpink y
Ġun s
Ġpol es
Ġcount s
Ġsec urity
Ġbar ked
Ġbar rett
Ġmix ers
aboo sh
ĠV erm
Ġhipp ity
bre ak
Ġdanc ers
Ġcam ere
Ġding dong
Ġenj oys
ĠBl anche
Ġshout s
ĠJul ius
ĠThursday s
Ġbright ly
Ġtray s
ĠFred rick
ĠCon nie
Ġscoop ing
Ġsmoo ther
Ġthroat s
Ġpract ically
ĠPr ide
Ġhugg le
Ġhugg ed
Ġfrost y
Ġdrill ing
Ġbare foot
Ġtot al
ĠTyr anna
Ġapric ots
ĠJeff rey
Ġeel s
ĠNat alie
Ġknob s
DO C
ĠGoo sey
Ġrescu ing
Ġexplore r
Ġresp ons
Ġic icles
Ġdesper ate
Ġorna ments
ĠJun ior
ĠAnge la
Ġspong es
Ġaspir in
Ġamer ican
Ġcance led
Ġinsur ance
Ġbure au
ĠJock o
ĠPak istan
ĠHums ah
ĠVerm ont
B en
D r
F oot
H ut
a bye
i i
k nack
l ou
l ow
m ade
p ies
u v
w ick
w anna
z ag
Ġt iles
Ġw it
Ġa ardvark
Ġs ib
Ġd eez
Ġb zzz
Ġb umb
Ġc ops
Ġit ching
Ġl ull
Ġl oses
Ġl ava
Ġp way
Ġf ashioned
Ġwhat chu
Ġha b
Ġr aces
on ka
st one
ch in
ch ant
Ġre fer
Ġre arr
Ġan u
Ġch o
Ġch ed
ĠD avis
Ġbo s
Ġbo bbles
ol iday
ĠS id
ĠP ie
ĠP ip
ĠP ass
ĠP unch
ĠA qu
Ġcl o
ber s
Ġah h
ĠN est
ĠL ewis
Ġfl oss
iss ie
ĠR ug
ĠR iding
Ġpr in
Ġtalk aphone
Ġwait er
Ġgr umble
ĠH uey
ĠGr ant
Ġnew born
ug h
Ġsk ips
Ġclose ly
Ġblack berries
ont o
Ġun it
ĠBob bie
ĠO ne
Ġgi ants
Ġgarden er
Ġap olog
Ġscrew ed
Ġdump ling
Ġfight ers
Ġph ys
Ġdec ision
Ġfair ies
Ġpan ic
Ġrow s
ĠBl asing
Ġchim neys
Ġty r
Ġind igo
Ġgas oline
Ġang le
Ġsquirrel ie
Ġtreat ment
Ġspring time
ĠTodd lers
Ġtat too
ĠCol or
ĠLuc as
ĠMal tes
Ġmi aw
Ġtart an
Ġoper ator
Ġfer ris
Ġsear ching
Ġvers us
ĠAid en
Ġvi ole
Ġcollap se
rat ul
Ġnic est
Ġbloss om
Ġleftover s
Ġmart ians
Ġgob lin
ĠMoom ooshas
Ġgro an
Ġstubb orn
ĠWo nder
Ġrecy cle
ĠRaff i
Ġoxy gen
Ġbarrett es
ĠMaltes ers
B oo
J oe
N ick
T all
d ut
d ges
j un
k h
m ee
p w
r hy
t ip
Ġ ounce
Ġt ay
Ġt aming
MO H
Ġy ack
Ġh an
Ġs um
Ġo re
Ġd imes
Ġb dr
Ġc aw
Ġc ert
Ġm ut
an an
er ie
Ġdo z
Ġl ink
Ġl ass
Ġl ung
Ġf ink
ay ay
Ġha unted
Ġsh ears
en ium
Ġk ale
ch ers
ĠM aster
Ġst icked
Ġj ersey
ie go
od ile
al ian
ĠD entist
Ġuh s
Ġplay ful
Ġtw ent
ĠT ele
ol i
Ġbl ob
Ġfr inge
ĠC ad
ĠC ody
ĠB ol
ĠB iddy
ĠP oor
ĠP ro
ff e
Ġah ah
ue h
Ġsl ips
ĠN een
ĠG ar
ĠG arf
Ġwa gging
Ġhand ing
ĠFr illy
Ġsm ock
ion a
Ġhi h
Ġdi ary
Ġwork man
ĠW all
Ġde w
Ġhat ed
Ġsweet peas
ĠK aa
Ġfix es
ĠNin ja
eek y
Ġte esh
Ġta pping
ĠBr on
eak y
Ġinterest s
Ġper for
Ġwarm ed
Ġcon tact
Ġdust pan
Ġcool s
ĠU m
Ġeas iest
ĠZ e
Ġmar ac
Ġwoo o
Ġmis takes
Ġsplash es
Ġrac ed
Ġbull et
Ġplastic ine
Ġind ic
ĠAb raham
Ġpack ages
Ġchick y
ĠWednesday s
Ġiron ed
Ġthirt eenth
ĠGab i
Ġcart wheel
shirt s
Ġrid ges
Ġnest s
Ġtax is
Ġprincess es
Ġsquirt ed
ĠJim iny
Ġpuff ing
Ġres earch
Ġhy per
Ġborrow ing
ox y
ĠBo ko
sk ating
Ġjew els
Ġmid get
Ġmid wife
Ġchipmunk s
Ġpos itive
ĠPot atohead
Ġnecess ary
Ġbust ed
Ġsile nce
Ġamong st
ĠTor rence
Ġprett iest
Ġtoots ies
ĠBra ve
Ġarri ving
yp sy
Ġtul ips
oubles ome
Ġinclud ing
Ġanem one
Ġfut ure
Ġmicr oscope
Ġactiv ities
Ġargu ing
Ġdestruct ive
Ġepis ode
rhy me
ĠGarf ield
D oris
J elly
L ady
P an
R www
S www
b ang
f um
m umm
m ary
n ut
p ins
w atch
y ear
Ġw au
Ġw ike
Ġw akie
Ġa ra
Ġy i
Ġy ike
Ġs up
Ġd up
Ġd une
in as
in ct
Ġn g
oo om
it ish
Ġha lves
ig e
Ġin fl
ut ches
Ġr usty
ch grove
ĠM ont
Ġst ump
Ġst ale
Ġst urdy
Ġre ar
Ġre place
od er
Ġch arming
Ġthem e
Ġtw ink
Ġbo g
il ts
us her
Ġfr own
ĠC ocky
ĠC rystal
ĠC elia
Ġsp lend
ĠB uilder
Ġoff ered
ĠA stra
Ġcl icks
ĠF unny
ĠN ot
ĠG on
Ġcom on
el by
Ġpre h
ĠE lephant
Ġhel ium
Ġcr ank
Ġle ver
ĠR al
ĠR and
ĠR oll
eel s
Ġsleep over
Ġv o
Ġmean ie
Ġgu ide
ĠW ars
ĠH ank
ma e
Ġcare less
Ġsna ppy
av ior
Ġte ch
Ġswim mer
Ġsun set
Ġda ily
ĠAmy e
Ġbeh avior
Ġcount ries
Ġeye balls
ĠBr and
Ġpark s
Ġsal es
Ġpoo pp
Ġcrash es
Ġexc av
Ġexc itable
ĠSt ate
Ġchew s
aul ts
ĠMar tha
bur n
Ġcam er
ĠY von
ĠSte g
Ġsteps isters
vel and
Ġad op
Ġworry ing
Ġchick ies
Ġpea m
Ġdrum stick
Ġtub s
Ġcheer ful
Ġund ersh
Ġatta cked
ĠSnow y
Ġexpl od
Ġscoop s
ĠFrank ie
ĠNor a
Ġsilver ware
Ġlil ac
ĠBrook vale
ĠMay a
Ġscra ped
risp ie
Ġspend s
Gr andad
Ġspan ked
Ġcrow s
Ġequ als
Ġdw onk
Ġcree k
Ġble nd
ĠBee chgrove
yum yum
ĠMoosh aboosh
Ġill ustr
Ġpray er
Ġdisappear ing
Ġbrrm m
cr oss
Ġrece ipt
Ġchee red
Ġver se
crack ers
Ġgather ing
ĠTur key
Ġdod odod
Ġque ue
ĠBir die
ĠTe ppy
Ġunpl ug
Ġthreat ened
Ġais le
ĠNi ag
Che ese
ĠHawai i
Ġelevent h
Ġindepend ent
Ġcong ratul
Ġagre ed
istor ic
ĠBlasing ame
ĠColor ado
Ġteesh irt
Ġmarac as
ĠYvon ne
Ġundersh irt
G l
L earning
S nake
a ver
c ra
d ly
f ashioned
r om
r id
s itter
t i
u ppy
Ġt angle
Ġy ap
Ġi u
Ġh ump
at ee
Ġb iz
Ġg ing
Ġm or
Ġf u
Ġf ah
et ty
Ġha ul
or ies
id get
Ġr ust
Ġj e
Ġpl ough
Ġgon g
ur ty
ĠD es
ĠD idi
ĠT oo
ĠC ub
ĠB ook
ĠB ally
ĠB ath
eed s
ĠA va
Ġcl im
Ġcl ang
Ġsl ime
ĠF www
Ġman ger
ĠL ise
ĠL ean
ĠL ightyear
ĠL ullah
ĠG en
ob i
os pital
Ġqu avers
ĠR acket
Ġbot ty
Ġv ous
Ġdi h
Ġen a
Ġdrink ie
ĠH oll
ass ic
ĠK iki
ĠK rystal
Ġlight bul
ole y
ĠNin ny
Ġtow ing
ust ers
Ġta lent
Ġbeep er
Ġcrack s
ĠBe ck
to ast
ĠCarol ina
ĠAr lo
bur gh
fr og
Ġrac quet
Ġambul ances
nes ota
ĠGra cie
Ġpepper mint
Ġfift eenth
Ġfourt eenth
Ġboing y
Ġrid ers
Ġea h
Ġcre amy
Ġant lers
poo s
Ġsteam roller
ĠJon athon
ĠSon ny
bor ough
Ġscra ping
Ġpopp op
Ġsword s
Ġpork ch
Ġav oid
Ġmunch ing
Ġcons ider
Ġrrr r
Ġlantern s
Ġign oring
Ġbobb ing
Ġslingsh ots
Pot ter
Ġallow ance
Ġjell ys
abl abl
Ġcurr ants
ĠPush pa
ĠDalmat ian
ĠChels ea
ĠMog li
Ġsurround ed
Ġrefu se
ĠSafe way
Ġkung fu
Ġneen or
ĠHend rika
ĠTyranna don
Ġpreh istoric
E R
F l
J im
N T
W ars
b ones
b ench
g os
h elicopter
p ea
v ous
v ette
y boom
Ġa day
Ġh ulk
Ġs itter
Ġc akie
Ġm orn
Ġit alian
Ġp el
is chief
Ġwe ep
Ġsh uffle
Ġbe gg
ĠM aur
ĠM erry
Ġst eel
ed i
ic ious
Ġkn ead
Ġfor ms
Ġpl ot
Ġwas ting
od ie
ur assic
ĠD ippy
pp led
Ġgood ie
dy g
Ġbo bs
ĠT op
ĠT NT
Ġher bal
ick ity
ol ate
Ġbl oop
ĠS ant
ĠS ling
ĠS ony
ĠB row
ĠB ug
ĠB umbo
ĠP uff
ĠP okey
ĠJ urassic
Ġsa ils
ab ell
ab ber
Ġne ato
Ġdr ug
Ġtr om
Ġag u
Ġag ug
Ġsl ots
Ġsl obber
Ġbu dge
ĠL orn
ĠL ooby
Ġgre et
Ġfl ake
te m
ĠFr o
Ġv al
Ġv eter
Ġgr ater
Ġwork top
ĠW in
Ġmilk s
ma il
Ġapp roach
Ġpick er
Ġsweet y
Ġya cht
ail able
ĠGrand m
Ġwind s
Ġgl ub
Ġsk ies
cu be
Ġcou rage
Ġstr oll
ins on
Ġpain ful
Ġmess es
Ġun pack
Ġbi ble
ĠCarl os
Ġdig est
Ġhigh way
oy d
anc a
Ġlor ries
ĠSp ar
Ġspe c
Ġri fle
Ġboot ies
Ġshort ly
fl ies
Ġpicnic s
Ġug ah
Ġmagic ian
ĠDe cky
ĠSc uffy
ĠSc arry
ĠBl it
Ġwigg led
Ġser geant
ĠTuesday s
Ġcock y
ĠTo ffer
ĠNew castle
ĠWh y
Ġcherry s
Ġshove ls
ĠAm es
Ġcomput ers
Ġtoot toot
Ġgobble dyg
Ġwob bling
ĠLo i
JU I
Ġplain s
Ġclick ing
ĠCl au
Ġhy ena
ĠDoug al
Ġthick er
Ġye ow
Ġbom bs
Ġshr ink
Ġpower ful
Ġcrust y
Ġswims uit
Ġbuff er
Ġsens itive
Ġoffer ing
Ġtack le
Ġloc al
Ġtush y
ĠCle veland
ĠChuck ie
Ġwrink ly
Ġchunk s
play er
Ġprett ier
ĠOl win
Ġwhizz ing
ĠFam ily
Ġretur ned
Ġprote in
Ġextens ion
Ġtru ly
ĠFit zie
Ġappropri ate
Ġcert ific
Ġcamer as
ĠRacket yboom
ĠSling er
B o
C rispies
E C
G MO
J ones
Q u
S tu
a x
b i
k oo
r ats
t ips
v ah
v ious
w ees
Ġth y
Ġa mber
Ġy ow
at ters
Ġo ak
Ġyou s
Ġd art
Ġd uty
Ġb ass
Ġg ig
Ġg her
an o
Ġn atur
Ġp out
Ġf east
om a
od a
Ġch i
Ġch arm
Ġbo ld
ĠT iggy
ick les
Ġbr mm
ĠS il
ĠB ingo
ab i
qu o
Ġtell ed
Ġag ah
ĠN ia
el u
ĠE id
ĠE lena
ess ion
Ġcr ook
Ġcr utches
ĠCh ico
ĠR ever
Ġsm ar
ĠW or
ĠW ater
ĠW acky
ĠH il
Ġsor ter
Ġpick led
Ġegg ie
Ġz at
ne w
sh oo
Ġstory time
Ġmove ment
Ġact ions
Ġsk ills
Ġpink s
iz er
Ġrock ets
Ġsnow s
Ġpol o
Ġlem ur
Ġbubb a
Ġroad gr
ĠJo jo
aff e
Ġgarden s
Ġmeow ing
kin ny
Ġscrew ing
Ġfat ter
ĠMar got
fl op
Ġsupper time
ĠFriday s
ĠUn ited
ĠPlay dough
ĠCr u
Ġfill s
Ġspeak s
Ġcough ed
Ġlife guard
Ġhun ter
Ġchar ged
Ġalphab ets
Ġrestaur ants
Ġstink er
Ġinter f
Ġstretch y
Ġstretch er
Ġchoos ing
Ġrhy ming
ĠLe on
Ġass ume
ĠRon ny
Ġjew elery
Ġbam boo
Ġchees es
Ġcorrect ly
ĠGoo se
Ġcro ak
ĠFran nie
Ġrag s
ĠTer rence
ĠMo by
Ġfuck ing
Ġexh ib
Br umm
Ġresp ond
usse ll
Ġstab il
Ġassoci ated
Ġcurr ant
Ġgrad u
ĠCher yl
ĠMin nesota
Ġinf ant
Ġdeg rees
Ġrib ena
ĠDam ian
ĠSpl ash
Ġcaus ing
Ġappet ite
ĠBash ful
ĠPumb aa
Ġviole nt
Ġsplend id
Ġexcav ator
ĠNiag ara
ĠBlit zen
Ġnatur ally
ĠRever and
Ġroadgr ader
C EC
E gg
G U
J IN
b ars
f a
f uey
g ent
i ally
i ah
i bb
l oops
o ah
w itch
w yn
w akie
x ious
Ġw oh
Ġw iff
Ġw olves
Ġa en
re cord
Ġs ymb
Ġo k
Ġm h
Ġm es
Ġm ir
Ġm alt
Ġn aming
Ġl es
ĠI ce
Ġp ampers
Ġgo g
Ġwhat ch
Ġto asty
et ic
Ġu dd
Ġsh an
Ġr arr
Ġk ook
Ġk aking
ĠM all
ir k
Ġme g
Ġre j
ic ut
Ġj ac
Ġch ump
ĠD yllis
Ġdown hill
ta ck
ĠT en
ĠT ara
Ġher ds
Ġor ders
ĠS and
ĠC B
ĠP al
ĠP addy
ĠP oke
ĠP ac
ĠA bbie
ak i
ab ama
Ġcl ipped
Ġtr op
ure ka
me ow
ĠF isher
Ġman ner
ĠG ymb
Ġcom ics
Ġsw ip
Ġsw irl
ob b
Ġfl ippers
ĠE s
ost er
Ġgir ly
Ġle gged
ĠR ene
ven ient
Ġpr ove
Ġche ated
Ġpe w
Ġtalk ie
Ġgr it
Ġhold ers
ĠW y
ĠGr am
ous ie
ĠK ris
ach es
ipp ery
Ġti kat
Ġstr ands
Ġtick ing
ĠAn gie
Ġwheel chair
Ġgreat est
Ġreal istic
Ġmess ages
Ġsound ing
Ġun st
Ġer ased
Ġbi up
Ġbeh a
ans as
Ġmind ing
Ġdig s
Ġmic key
Ġwarm ing
Ġcon ne
ĠV im
Ġyog urty
Ġim pr
ugg y
Ġpass age
rr rr
Ġbull ets
Ġho ag
Ġacc ess
Ġad m
Ġjo int
Ġchick adee
Ġupset ting
Ġyoung est
iv id
ĠMother care
Ġsil o
Ġdeep er
ĠAf www
Ġtest s
Ġjun ky
ĠNo el
Ġflash es
Ġspo iling
Ġcudd led
Ġbas in
Sh aron
Pl ay
Ġpos ies
Ġcons ist
Ġbru ised
Ġprod ding
eles te
ĠKit kat
Ġarmadill os
In k
ĠPark er
eng ines
Ġsnoo zing
Ġdomin os
Ġchih uah
Ġfort night
Ġbalanc ed
Ġprep ared
Ġargum ents
Ġchow der
Ġimpress ive
Ġratt ling
Ġpron ounce
Ġdread ful
ĠAnimal s
Ġraff le
ĠTigg ers
Ġhamm ock
ĠStickle bricks
Ġcyl inder
ĠGem ma
ĠBi anca
Ġvo ila
Ġcongratul ations
ĠMaur ice
Ġgobbledyg ook
ĠHil ary
Ġsymb ol
ĠGymb oree
Ġchihuah ua
A venue
J ill
P ops
T wo
U n
b usters
d ins
g www
g reat
h an
i j
k u
k rispies
p ost
Ġw ur
Ġo g
Ġd arts
Ġb ough
Ġg h
Ġm imi
er ole
Ġit ches
Ġp illar
Ġp ier
ow ow
id uck
Ġsh ucks
en er
Ġwan noo
ad um
ch ild
ĠM s
ĠM it
ĠM abel
ed ar
Ġre pa
Ġba sed
Ġup pie
al al
ell ey
uh h
ĠC eleste
ĠB ut
ĠB ump
ĠB ack
ĠB utter
ĠP rot
ĠJ ersey
ĠA ud
ĠTh umb
ĠTh under
Ġsl ither
Ġman atee
ĠL ook
Ġsw oop
ĠE ureka
iss i
ĠR in
Ġsc i
Ġsc old
Ġhome made
Ġv omit
Ġwork book
Ġdear y
Ġuse less
Ġsn uck
Ġlight ening
Ġmat zo
Ġbuild s
Ġrec ess
Ġun bel
Ġsnow flake
Ġban n
Ġhop ed
Ġboo by
Ġeye gl
Ġshut s
ĠJean ine
Ġcon vinc
Ġdel ay
ĠV ader
eb ae
ĠBa ebae
umb les
Ġtoes ies
Ġprop ellers
gr o
ĠAl abama
Ġcoll age
Ġee y
ĠSaturday s
Ġrais ed
Ġbra ces
Ġad ios
Ġflat s
Ġstamp ed
Ġfre ak
Ġty ping
Ġkill s
ĠMary se
Ġchick a
ĠDa wn
Ġrid den
ĠAm ara
ĠCon nect
Ġni bbling
Ġca ution
Ġru f
gh etti
idd ler
ĠSweet heart
Ġmask s
Gr umpy
Ġbrace lets
ĠKath leen
Ġmam as
ĠTw eedle
Ġscri bbled
ĠFizz ie
Ġshr unk
ĠDave y
Ġcree ping
Ġav ailable
Ġserve d
ĠMad ame
Ġpadd ock
Ġpine c
Ġmosquit os
Ġll amas
Ġchea per
Ġsqueal ing
Ġunl ocked
Ġut ility
Ġrepair ing
Ġlily s
ĠSl ippery
Ġwrest ling
Ġdet ail
ĠOre gon
Ġcass erole
Bl ack
Ġinteract ive
Ġwhady a
Ġswamp s
Ġchrist ening
Ġattract ed
ĠChar ley
Ġarri ves
ĠSuz anne
Ġbund les
Ġratt ly
Ġbou illon
Ġgluggl ug
Ġsuccess ful
Sp ider
Ġimit ating
ĠAdd a
ĠFix it
ĠJapan ese
ĠWal ter
ĠPles h
Ġched dar
Ġtyr ann
Ġpoopp oop
Gl uck
Stu art
ĠCru ella
Ġudd ers
Ġrej oice
Ġtikat ika
ĠVim to
Ġrepa ired
B AR
B irthday
E ve
I s
P eep
c s
c ob
l oo
p ick
p oop
r iting
s nip
t ur
w eet
Ġt um
Ġt ipp
Ġw ick
Ġw ock
Ġa eae
Ġy oo
Ġy ip
ou h
re nt
Ġh okey
Ġs me
Ġo od
Ġd iss
in ters
Ġc able
Ġg el
Ġg ween
Ġm ile
Ġwh ites
Ġwh irly
Ġl in
Ġp uck
Ġf uel
oo ba
ea ble
or ting
ig or
Ġe lla
ad ums
ch ase
ĠM ath
ĠM ade
ĠM illy
ĠM ixon
ir cle
ir affe
ld a
Ġst oop
Ġre v
Ġan oder
al oo
ĠD inky
pp et
Ġplay house
Ġtw igs
Ġbr ass
Ġor zo
Ġfr ock
ĠC up
ĠC amp
Ġsp agh
Ġsp ike
ĠB right
ĠB ess
ĠP ors
ĠJ ade
ab aba
Ġsl ith
Ġwill ing
Ġbu dley
ĠL et
Ġcom ment
Ġfl opped
ĠE sk
ood ood
ĠCh a
oc op
Ġv igor
Ġgr am
Ġwork men
oop ers
ass ing
Ġdin os
ĠGr undy
Ġthrough out
Ġmon k
ach u
arm en
Ġlight ing
Ġside board
Ġpart ners
pl ane
ĠBob s
Ġmatter s
Ġplace mat
ĠBr ussels
ĠCar rot
Ġac cept
ĠSp rite
Ġnap s
ett is
Ġspl inters
Ġexc ite
Ġboun cer
ĠWilliam s
umb us
Ġpin wheel
ĠAlex andra
Ġdump s
ris on
Ġclos est
hh hh
ĠY ing
ib ility
ĠSc oo
ĠBl oat
Ġbra id
Ġbra vo
Ġcrab by
Ġad ah
Ġrat ty
land s
Ġsink ing
ya i
isha wn
Ġshove ling
Ġlock s
Ġwhats a
Ġrhin os
ĠQu inn
Ġopp osed
Ġstink ing
ĠCal vin
ĠRa ishawn
Ġgall oppy
Ġur chin
ĠEliz a
Ġrel ief
Ġann ounce
Ġrode o
Ġbutt ered
Ġpeck ing
Ġleop ards
ĠNick i
Ġrod s
pan z
Ġdit iduck
Ġbul bs
Ġsuggest ed
Ġpra ise
Ġsomers aults
Ġrout e
Ġslam med
ĠJem ima
Ġsch m
Ġdevelop ed
Ġray s
Ġker pl
ĠSuz ie
ĠPush ba
Ġpj s
ĠLind say
ĠHel ga
clip se
Ġfreck les
Ġrepl ied
ĠBubb les
Ġtwis ty
ĠVal erie
ĠSpin osaurus
Ġcav ities
ĠCot ton
Ġvolley ball
Ġanu dder
ĠBrow nie
elu jah
Ġconne ction
Ġhoag ie
Un ited
Ġunbel ie
ĠConnect icut
ĠPlesh ette
Ġtyrann osaurus
Ġbudley ley
A A
A Y
B ells
E M
T ommy
W inkey
b uck
c ars
f ox
j ump
l ock
l amb
m uh
p ain
p ah
t v
w illy
w ashed
Ġt inkle
Ġt ents
Ġy u
at in
Ġd aught
Ġb er
Ġb id
Ġb order
Ġg aw
Ġm and
Ġm aze
Ġdo b
Ġl oon
Ġl ave
ĠI nez
Ġp ist
Ġp oof
Ġthat s
Ġgo nd
om m
Ġha ired
ut tle
Ġr umbling
ht ray
on ia
Ġbe ige
Ġli ed
ad ay
Ġst out
um an
Ġre b
Ġba al
Ġfor g
Ġup per
am und
Ġgon ga
Ġch ame
Ġch imes
ry s
ĠD ina
ĠT hing
ĠT ress
ĠS ull
ĠC armen
ĠB ell
ĠB udd
ĠP each
ĠA bba
Ġcl icked
Ġah ahah
Ġas htray
ĠTh is
Ġsl apped
ĠL eeds
unn ing
Ġsw ipe
Ġsw ept
Ġfl ips
ĠE ma
ĠE ye
ump ling
Ġcr ink
Ġcr iss
Ġgirl ie
Ġturn ips
ĠR andy
AR L
Ġv ote
ĠW iggly
Ġde mon
Ġdis play
ĠK oosh
Ġnose d
ĠGrand a
Ġhar ness
Ġear phones
Ġbea m
ĠO lymp
ily n
Ġbee bee
Ġfast ened
Ġbar g
Ġbar row
Ġquack s
Ġla e
gu in
Ġmar dy
Ġlid dle
Ġsoft ball
ince y
Ġcam ed
ĠMic ah
Ġchim panz
Ġpoop ies
Ġninet eenth
ĠMel issi
Ġcont est
Ġswitch es
Ġhall elujah
ĠMc K
ĠMc Gregor
Ġbon ked
ĠSnow man
Ġarr anged
Ġgoo k
Ġpuff in
ĠAll y
ĠCl are
Ġhy p
Ġdep ot
Ġsniff ed
Ġyo ink
Ġspark le
Ġundo ing
Ġpolish ed
Ġtart s
Ġmou f
Ġwalrus es
Ġdesign ed
Ġprod uct
Ġtables poon
Ġlat est
Ġmass ive
ĠChicken licken
ĠMill ie
mar jorie
Ġsuggest ion
Ġdun geon
duh duh
Ġoow ah
Ġrattles nake
Ġtrape ze
Ġhuff ed
Ġwarn ed
ĠGree ce
Ġgoog oo
Ġtoots ie
Ġeffect s
Ġident ify
Ġadvert ise
Ġchap ter
Ġgrandp as
Ġgrandp arents
ĠYan kee
Ġclipp ety
ĠNik ki
ĠOll iga
Ġeld er
Ġneg ative
Ġterr or
GU E
Ġtrop ical
Ġswip ing
Ġeyegl asses
ĠPors che
EM I
B aa
E leanor
E ars
H ungry
J ay
M oo
O f
O n
V ader
b uzz
d os
l ons
l olly
s nowman
t ickle
y an
z es
z ona
Ġ ven
Ġth o
re se
Ġh utch
Ġs el
Ġs ucky
Ġo omp
Ġd angle
Ġd utch
Ġb oppie
Ġc oor
Ġc ode
Ġg ree
Ġn ur
Ġl akes
Ġp um
Ġp ong
Ġp ett
nd y
Ġgo s
it is
ig ger
Ġu l
Ġin na
Ġr olie
en ge
ad ah
ch en
ch ip
ch ug
ch uga
ĠM umm
ĠM itch
Ġst ems
ere r
Ġba bbling
am an
od el
Ġch uh
ĠD ana
ĠD ub
ĠD andel
ĠD iego
Ġsay ed
ĠT ul
ĠT ubby
ĠT uc
Ġbr oth
SI D
Ġcar car
ĠS s
hm mm
ĠC ow
ĠC entre
ĠP ea
ĠP ole
ĠA t
Ġsa ber
ff ice
Ġsl icing
ĠF iona
ĠL is
ĠL ake
ob o
Ġwa i
Ġqu art
Ġcr amp
Ġcr ates
Ġwater col
ĠCh ips
ĠR oad
end ers
Ġwait s
Ġdi pped
Ġhold ed
oot ie
Ġgu ilty
ĠW ags
ĠW isc
Ġlea k
ĠH oo
Ġmilk ie
ass y
Ġthr illed
Ġco ff
Ġsn ot
Ġtop tie
Ġz ippers
Ġcut ted
ves ter
Ġhar vest
Ġpot ties
Ġclean ers
Ġear n
Ġkitt ys
Ġsk ill
Ġsk ull
Ġbea ks
Ġstr ips
ins ki
cy cle
Ġteddy bears
ĠO x
Ġbab as
Ġblow er
Ġsock ies
Ġkid die
Ġkid ney
Ġboo ked
Ġsec rets
ons in
ming ham
ubb a
Ġper form
Ġac id
ĠSp aghetti
ĠV ik
ett o
ĠSh op
Ġsoup s
Ġcross es
ĠMar vin
Ġra a
ĠBar ret
gr ocer
ugg ets
sc reen
Ġpool s
Ġsat s
Ġsat is
boo s
Ġfox y
ĠRob by
Ġbra ids
Ġtrick ing
Ġhum id
Ġhum ans
Ġser ves
ĠHe lena
Ġcock tail
yr o
co aster
Ġwaterme lons
Ġaun ts
Ġchar ging
ĠKat rina
Ġpoin ter
Ġlau n
ĠJan ice
wow wow
ĠBet ta
ĠLo ly
Ġskirt s
ĠQu incy
ĠCl ara
ĠCl ues
Ġopp ortun
ĠDi ana
Ġmotorb ikes
Ġhugg ie
ĠPu er
Ġspark s
Ġclub s
Ġfool ish
kn ob
Ġstream ers
ĠTy rese
Ġlead s
ĠRose mary
Ġrece ive
ĠSqu eaky
ĠTyrann asaurus
Ġlim me
ĠAndre a
ĠAri zona
Ġnugg et
Ġali ens
Pot tage
Ġbeeb as
olog y
Ġknight s
Ġdang ling
ĠMajor ca
ĠSu zy
ĠBry an
Ġinj ured
Ġcondition er
ST F
ĠPrud ence
Ġassist ant
Ġcontr ary
Ġcobweb s
Ġholl ow
Ġclo ak
ĠBol ognese
Ġtrom bone
ĠPoke mon
Ġbeha ving
Ġsme lt
Ġdaught ers
Ġlave nder
Ġbaal amb
Ġchame le
ĠWisc onsin
B e
B ump
B atters
C an
C ar
J ack
K elly
M ail
R oom
S elby
c ap
c ile
e my
m inder
n ces
p ad
p aint
r ill
r osie
w ater
Ġt ink
Ġt aper
Ġw ooh
Ġs in
Ġs ul
Ġo ob
Ġg unk
Ġm org
Ġm wuh
Ġn igh
er oy
ĠI r
Ġp ounce
Ġf ought
oo se
it ude
or able
ow a
Ġu w
Ġcan cer
na kes
Ġk umb
ĠM urr
ĠM icky
Ġst ork
Ġst ucked
Ġlook in
Ġdid i
Ġba gg
Ġba ggy
Ġup right
Ġju s
Ġch all
ill ip
ĠD usty
pp ie
pp ost
Ġuh eh
Ġcar go
Ġcar washed
Ġal bum
ĠC ly
ĠC omp
ĠC edar
ĠB ett
ĠP ear
ĠP ab
ĠP erry
ĠP inkerbell
ĠJ ody
ber lin
ĠF itt
ĠN ight
ĠG ob
ĠG erry
Ġbit ed
Ġpre par
Ġpre vious
Ġsw oll
Ġfl apping
Ġhapp iness
Ġwa imit
oc odile
Ġpr icked
Ġche ater
Ġwr iggly
Ġv arn
ag oon
ĠW itt
Ġtruck ie
og o
og er
ĠH ook
Ġfire guard
Ġdis k
Ġapp l
Ġmon itor
sh ed
ri er
Ġsix pen
umm ers
Ġair pw
Ġbread stick
Ġsnow pl
ces ter
ĠO berlin
Ġpurp les
Ġteeth ies
Ġcorn bread
Ġgrand dad
Ġrunn er
Ġmag pies
ĠBr itish
Ġsupp lies
Ġchildren s
ĠPet rie
Ġsal am
cl aus
Ġper man
ale d
Ġhea p
ĠV en
led ge
Ġpin ata
Ġouch ie
ĠMar gery
Ġmis chie
Ġcereal s
EN I
Ġph ony
ĠBaby gro
Ġspr out
Ġpass es
ĠLu na
ĠSc an
Ġbra ins
Ġbull y
Ġacc ent
Ġhoo ves
Ġbarn s
Ġrob ins
ĠGra pe
Ġpack s
Ġcock at
Ġhhh h
Ġbabys itting
Ġma e
ĠWh it
Ġbroom s
ĠIn ky
Ġweekend s
Ġwah wahwah
Ġcre scent
ĠMother s
Ġinv iting
Ġeng aged
ĠIsab ell
Ġcop ies
ĠInd iana
Ġburp ing
Ġwob bles
Ġtreasure s
Ġko alas
ĠBritt ney
St ar
ĠRu ld
Ġrin sed
Ġga e
ĠWell fle
Ġbanda ids
Ġaqu a
Ġfa ith
Ġprefer red
Ġsqueez es
Ġdesert ed
ĠPar rot
Ġpitter pat
Ġank les
Ġspeed ing
Ġmumm mumm
Ġburst ing
ĠPen elope
Ġkah l
ĠLor na
Ġgerb ils
Ġbarbe que
Ġseash ells
ĠCam eron
ĠRos a
ĠRos amund
ĠHow ie
Ġcarton s
ĠSk ipper
ĠGerald ine
Ġlic orice
Ġpostc ards
ĠTellyt ubby
ĠGlen mae
Ġdevelop ment
Ġbink ie
Ġwhing y
Ġproc ess
ĠSmurf s
ĠPic cad
Ġmoan ing
Ġfreck le
Ġaccord ing
Ġsump in
Ġlam ppost
ĠGull iver
Ġencou rage
chi osaurus
ishm ent
ĠEmm itt
Ġfoss il
Ġpel ican
Ġbegg ars
Ġcertific ate
Ġgig antic
Ġmir acle
Ġsci entist
Ġexcite ment
Ġunbelie vable
Ġbarg ain
Ġcoor din
ĠMitch ell
ĠTuc son
ĠPuer to
ĠMurr ay
Ġbagg age
Ġswoll en
ĠWellfle et
B uster
C ake
G irls
H ook
K AY
L e
M ary
P enny
P udd
P oliceman
R ow
S nowman
S kinny
b ush
b ac
b ler
d id
f i
h ut
i ac
n i
r ob
r oof
u pper
Ġt ak
Ġt ugging
Ġth rees
Ġa na
Ġh ind
Ġs ulk
Ġo d
Ġd al
in sect
Ġc ad
Ġit ty
Ġit em
Ġl assie
Ġp ace
Ġp int
Ġp ik
Ġp amper
Ġf oc
es ca
Ġto ssed
et eer
Ġin tend
Ġe clipse
Ġk u
ad el
ad ys
ch ick
Ġst ains
ic ol
Ġj aw
Ġba cked
Ġshe l
ur ora
ore y
ĠD oh
ĠD ebra
Ġab u
Ġbl up
ĠS eb
ĠC J
ĠC ous
ĠC ory
Ġhas s
ĠP af
ĠA urora
Ġsa fer
Ġover board
ab by
ast ian
ff y
Ġsl ope
ĠF alls
Ġbu dle
ĠN y
ĠL ass
ip sy
ĠG iraffe
up ty
gg ers
Ġbit ch
Ġpre c
ead le
row row
Ġwa a
Ġcr ummy
Ġturn it
ĠCh eeky
oc ke
ĠR iver
ĠFr i
ent ial
ph ia
Ġwr iter
Ġv ets
Ġdi vers
Ġlove y
Ġgu ah
ĠH ed
ĠGr izz
Ġz i
Ġz is
Ġam use
JE A
Ġsand castles
Ġrec ital
oss op
Ġsun sh
Ġarm or
Ġlive ly
Ġmiss y
Ġid eal
Ġpost s
Ġsec ure
Ġshut tle
Ġhang ed
Ġjig g
ĠSp ir
led uck
ett es
Ġcheck out
Ġbur ny
Ġri vers
Ġri vet
Ġinst r
ĠSt eel
Ġwake n
Ġwin ned
ork y
ĠBear s
Ġran ch
Ġpee ked
ugg a
he at
Ġve ggies
Ġrub s
Ġpay s
Ġdec ides
Ġcomp artment
Ġtong ues
Ġdes er
ĠEr icka
ĠSc r
ĠBl ankie
oat s
Ġsuper b
Ġrais ing
Ġafternoon s
ĠFl oyd
Ġbedroom s
Ġcraw ly
ĠGod z
Ġhorn ed
Ġcarp ark
Ġfe ature
Ch icken
Ġcont roll
Ġob st
Ġswitch ing
oph y
oph am
Ġhun ts
Ġscoop ed
Ġyah oo
Ġsquirt s
ĠSuk i
Ġbak ers
ĠTr oublesome
Ġsur v
Ġjoin ing
Ġpract ise
Ġdot dot
Ġlean ed
Ġtab ard
Ġdeli ber
Ġequ al
ĠTyr an
ĠPhil adel
Ġpss hh
ĠMad am
Ġexp osed
Pl atford
Ġwhad da
yle ys
utter ing
Ġdeck er
ĠRen aldo
Ġlal ala
Ġcockad oo
ĠTer adon
Ġnightmare s
Ġstalk s
uggl ug
Ġcelebr ation
Ġbink ies
Ġdrool ing
Ġexam ine
ĠBir mingham
Ġadv anced
Ġembar r
Ġpoll en
uds on
ĠPun x
ĠFur by
Ġprim ary
Ġsele ction
Ġshiver ing
chant ed
Ġlung s
ĠRal ph
ĠSony a
ĠClau de
ĠWy oming
ĠProt ocer
Ġbann ister
Ġconvinc ed
ĠMcK ayla
ĠDandel ion
ĠBett ina
ĠPab lo
Ġvarn ish
Ġmischie vous
Pudd leduck
ĠSeb astian
Ġbudle yleys
ĠPhiladel phia
C aterpillar
D e
M art
M ersey
M ischief
R yan
c ane
e gg
e ist
h ael
k le
m ate
m obile
o ly
p oll
p ire
r h
r ide
t ick
w riting
y i
Ġ ease
Ġt ubbie
Ġw ars
Ġa ctor
Ġa judge
Ġh es
Ġh ound
Ġh oh
Ġh ided
Ġs ly
at ient
at ives
Ġo v
Ġo ot
Ġd ill
Ġb ick
Ġc ore
Ġc oot
Ġm ack
Ġm oss
Ġm ort
Ġm ashing
Ġm esh
Ġwh inge
an ana
ĠI dah
Ġp oom
Ġf est
Ġf ail
Ġf wee
Ġf aint
Ġf ashion
is m
Ġto ddle
le h
Ġsh ak
Ġsh isha
Ġr anger
on se
Ġwan n
na wn
Ġk na
ad ian
ad ora
ĠM un
ĠM anny
Ġst a
ed ed
ver ly
ic ircle
Ġj ets
Ġyes h
Ġju ices
Ġch ipper
Ġch ances
Ġch oked
al ee
ĠD ush
ĠD emi
uh n
Ġtw itt
Ġbig gies
ĠT od
ĠT onka
Ġbl a
ĠS ee
ĠS yrup
ĠC ook
ĠC os
ĠC row
ĠC esca
ĠB og
ĠJ t
Ġcl ack
Ġdr umming
ĠDaddy s
Ġwill y
ĠN ut
th s
Ġsw ung
Ġwor ries
ĠE ileen
Ġfi b
oh ol
be yc
Ġhand print
ĠCh ip
ĠCh eadle
oc olate
Ġhelp ers
ĠR inny
Ġbir o
ist o
Ġgr ief
Ġen emy
Ġhead phones
ĠW ool
ĠH en
ĠH ickory
Ġround s
Ġhair band
Ġthr one
Ġz oop
Ġsqu eaked
opp et
ri a
Ġdiffere nces
Ġsk is
Ġblack s
Ġblack birds
Ġswim med
Ġlunch es
Ġtre acle
Ġshoe maker
Ġgrand d
Ġboo gies
Ġbar ge
Ġbar ley
Ġsupp ly
Ġper mission
Ġcon ker
ĠNic olas
ĠSp a
Ġnap time
ĠBe fore
Ġspl its
to ys
ĠSh ana
Ġsugar s
Ġpast ure
Ġmar ked
Ġmar sh
Ġstra in
Ġstra pped
Ġreach es
Ġsad ly
ĠSt ory
amb les
ĠMar ion
ĠSam uel
Ġforget s
if ied
Ġtooth ache
Ġnut ty
Ġrubb le
Ġrac er
Ġsciss or
ĠFl uffy
ĠChild ren
ĠAb beyc
ĠMel inda
pr oof
ĠGre y
Ġsell er
LI S
ĠTra il
Ġpile d
Ġqueen s
Ġinv est
Ġtrans port
Ġprog ress
JA S
Ġhy ster
Ġbuh m
Ġtorto ises
Ġimp atient
Ġyawn ed
Sh eep
Ġref res
Ġcrust s
Ġform ula
ĠSher yl
ĠPen nie
Ġsol ution
imp les
Ġantenna e
ĠCam mie
Ġhosep ipes
arr h
Ġwag ons
ĠClar abell
Ġadventure s
ĠRog ers
Ġchu cked
Ġpla it
ĠRap hael
Ġdais ies
ĠChar lene
Ġspecific ally
mend ous
Ġwhing ing
Ġimpress ion
ĠChr issie
ĠWom ble
ĠWom bles
Ġinj ury
Ġtort illa
Ġwhis ker
ĠFay e
ĠChew ies
Ġmusk eteer
ĠJud ith
Ġmant el
Ġsepar ated
ĠGhost busters
Ġchom ping
Ġlull aby
Ġlass o
ĠWall ace
ĠGon zo
Ġdiss ol
Ġspagh ettis
ĠEye ore
Ġdemon str
Ġopportun ity
Ġsnowpl ow
ĠPiccad illy
Ġfoc used
ĠIdah o
nawn ee
ĠAbbeyc entre
B ean
B ald
C ol
H all
J o
N ut
P ete
T om
V ery
W eist
b ig
b ong
c all
f ir
g od
g les
h ome
h old
i bble
j our
l ie
n ots
n uggets
o ife
r ons
s u
s ake
s ill
u ch
w all
Ġw ook
Ġi g
re sent
in ate
Ġb oohoo
Ġc ymb
Ġg naw
Ġg ears
Ġdo ves
Ġl aps
ing u
Ġp om
Ġno is
Ġf ans
Ġf olk
Ġto ts
om b
ke red
ve red
Ġu eh
ut her
Ġsh aw
Ġsh ines
Ġr om
Ġr ye
Ġe c
Ġli mit
ad dle
ch uff
ĠM as
ĠM ik
Ġre ins
ic oot
Ġj ay
Ġdid dly
Ġba ub
Ġpl ank
Ġpl aced
Ġch ill
Ġch uk
Ġch chch
ra v
itt s
ĠD alm
Ġplay time
ĠT a
ĠT em
ĠT upty
Ġhow dy
Ġcar ving
Ġal ert
Ġbl ime
Ġbl oat
ĠC ent
ĠB ub
ĠP or
ĠP iper
ĠJ er
ĠA oife
Ġsa x
Ġover head
Ġtr ipping
Ġsl ick
ĠL il
ip ul
ĠG os
ĠG asp
Ġmu ddle
Ġcat tle
ĠE v
Ġfi zz
ang ing
Ġcr ushing
ĠCh e
Ġle ot
ĠFr itz
Ġwork bench
ĠW orm
Ġlea ping
ĠH okey
ĠH udson
ĠGr izzly
ma c
est ra
Ġwalk y
ĠK end
Ġz e
Ġsqu oosh
sh ow
Ġdat es
fore st
ac y
Ġice berg
Ġlight year
Ġact s
Ġsk im
Ġsk ins
Ġblack board
Ġbang le
Ġmess pot
Ġcloth s
Ġda es
ĠO jo
Ġbee u
Ġalm ighty
oun ced
em or
Ġbubb ling
Ġgrow led
ĠAd ele
Ġbell ies
Ġcon venient
Ġpat ches
ĠSp ike
ĠV alley
ĠBe verly
ĠSh a
ĠZ eren
ud ud
ĠMiss y
Ġowl ets
urt les
ĠPl ace
Ġnin ja
Ġnapp ing
Ġpass port
Ġtoil ets
ĠEr ie
Ġacc ount
Ġad orable
Ġsqueak er
Ġind ivid
Ġwindows ill
Ġatt itude
Ġsail ors
iv a
FA I
Ġcre pt
Ġbend s
Ġfeather y
Ġchar ity
ĠYork shire
Ġfil ter
Ġres ist
Ġcountry side
ĠGl ossop
Ġdot ty
ĠPe le
ĠTim on
Ġsnugg led
Ġfrost ed
ĠPu ppy
Ġspark ling
Ġweigh s
ĠDr akey
Ġfee led
Ġshr ie
Th umb
Ġstat ic
Ġstud io
Ġmini ature
Ġshave d
ĠPopp leton
Ġsharpen ing
Ġmamm al
ĠAndre as
ĠMag enta
ĠAust in
Ġfort un
Ġescap ing
ĠSk ippy
ĠLi bba
Ġrewind ing
ĠOre o
Ġinject ions
ĠMarc ella
ĠTor onto
ĠSpud inski
Ġlent il
Ġdelight ed
squ eak
Ġmur der
ĠBeat r
Ġtwis ting
Ġstap le
Ġscen es
ĠSponge bob
Ġseg ment
Ġcle ment
ĠSel a
Ġscall op
ĠTit us
Ġdisp os
Ġleafl et
break down
ĠSteg asaurus
ĠHoll and
Ġschm utz
ĠCly de
ĠPear l
Ġairpw ane
ĠSteel ers
ĠWool worth
Ġcymb als
Ġbaub les
Ġblime y
ĠCent ral
ĠGasp ard
B oy
B ox
D oodle
E x
G len
L ily
L oops
S c
T odd
b oh
c oo
c oe
g as
g obble
n igh
r ome
r ock
w ar
Ã ¦
Ġt ile
Ġt ato
Ġt iring
Ġw are
Ġw oop
Ġw oops
Ġi z
Ġs ank
Ġd yn
Ġb oon
Ġb ony
Ġn ought
Ġn oun
ĠI rene
Ġp ia
Ġgo pher
Ġwe n
it ions
Ġha i
ut ie
Ġcan ary
ook er
Ġdon cha
Ġk in
Ġk ink
ad ders
ch icka
Ġst ings
Ġj ah
Ġj erk
Ġwant uh
Ġju h
ra gon
un ts
Ġtw irling
ĠT urtles
Ġbr ook
Ġcar amel
ol ina
Ġbl u
ĠS ix
ĠS ask
ĠS nake
ĠB ul
ĠB art
ĠB inky
ĠB oulder
ĠB BC
ĠJ P
ĠA y
ĠA ida
Ġsa kes
ĠTh or
Ġsl acks
Ġtra ps
Ġman tle
Ġman ipul
ĠN ep
ĠN ail
ĠN ola
ĠL in
ĠL ea
ĠL ough
ĠL eroy
Ġsw ell
ob bly
Ġfl ounder
Ġsit es
een y
Ġwa ck
Ġwa wa
ack a
Ġturn ip
Ġwater y
Ġblue y
Ġmay pole
Ġsc ab
Ġgreen grocer
Ġint ell
Ġpr un
Ġwait ress
Ġv a
Ġv im
Ġdi pping
Ġdi arrh
Ġen chanted
Ġtea red
ĠW ord
Ġsn arl
Ġsn ooker
Ġjump in
ĠK in
ĠK immy
Ġz h
sh a
Ġsaw s
Ġfoot st
Ġfound ation
itch es
Ġtick s
ĠPur ds
ub on
Ġten tagon
Ġun b
Ġsun k
Ġsock et
Ġsock ie
Ġarm chair
ĠJohn nie
Ġgi ya
Ġgrow ls
oy oy
Ġzoo s
ĠJo anie
Ġdark ness
Ġoo ching
Ġpat ties
Ġmix es
ĠSp am
Ġdra gged
eh a
Ġspl odge
Ġpast els
Ġscr ummy
board s
ĠSam son
ĠBar ber
Ġnut tin
boo boo
Ġpass y
Ġmagn ificent
ĠSm all
ĠSc otch
ĠBl ock
Ġloll ie
Ġspin ner
Ġfre qu
Ġband ages
ĠMary ann
Ġsalad s
Ġpow ers
ĠWh eels
Ġbright er
Ġthirt ieth
Ġbunch es
Ġchop sticks
Ġlibr arian
Ġscream s
Ġphot og
Ġmeant ime
Ġshed s
Ġbotbot s
Ġpuff s
Ġsteam ed
Ġsur fer
Ġfil ms
Ġtrans form
Ġooo ooo
ĠFel icia
Ġmill er
ĠAll igator
Ġprogram s
JO H
Ġed ger
Ġed ible
Ġpsh h
Ġbas ic
Ġbas il
ĠMad die
Ġash amed
Ġwand ered
ivers ary
Th ree
Ġsig na
Ġstud ies
Ġdou bles
Ġarrest ing
Ġarrest ed
Ġded ede
ĠRos coe
Ġraw r
ĠAsh ley
Ġtoss ing
Ġfuck er
Ġdistur bing
Ġspoke n
Ġorig ami
Ġbilly goat
ĠRock abye
ĠVas ie
ĠGree k
Ġsuh m
Ġsnots nots
asp onda
Ġentire ly
Ġadv ance
lend a
Par cel
Ġsmush ed
Bar b
ĠSpice y
Ġdingding ding
ĠSpark y
Ġradish es
Ġtun ed
Ġbrist les
ĠBus y
Ġexcl aim
Ġautom atic
DD D
Ġsug ary
ĠRaf ael
Ġalc ohol
Ġorch estra
ĠLane y
ĠLeon ard
ĠBump a
ĠAud ubon
Ġpist ol
ĠTress a
ĠCous in
Ġtwitt woo
Ġdiarrh ea
B rek
B ucy
H ouse
H ospital
J une
L and
S AL
T ractor
W incy
a way
d ew
h ook
h ad
l an
l aw
l ane
l ery
l ocky
n uh
o ky
p ath
p uff
p ipe
r au
t rain
v ir
v idence
w ack
w ord
z ers
Ġi ris
at us
Ġd andy
Ġd ete
Ġb addy
Ġc ables
Ġg eh
Ġm im
Ġm oc
Ġm umbling
Ġn y
Ġn ag
Ġn ene
ĠI zzy
Ġp le
Ġp app
Ġf are
it n
it on
or us
Ġu b
Ġu ff
Ġsh u
ar ant
Ġe mail
Ġk aw
ch ou
ĠM ick
ĠM us
ĠM ole
ot ic
Ġre ward
Ġj um
Ġj aws
Ġkn if
Ġpl unk
Ġwas ted
Ġan th
Ġan xious
am med
od or
Ġch um
itt ens
ur ry
ĠD rac
ĠD itn
Ġbec oming
ĠS oopers
Ġbaby e
ĠC orey
one l
other ium
Ġdr r
Ġdr am
Ġtr out
ĠF our
ĠF ish
ĠF iddler
ct ic
Ġbu ster
ĠN oodle
ĠL am
ĠL icken
ĠL izz
ĠG ing
ĠG ep
ting ham
Ġsw irly
ob ee
Ġball ie
Ġcat tie
oh oh
ump kin
Ġcall ap
Ġqu at
Ġcr u
Ġhand ies
Ġhand ling
ĠCh eet
ĠR ee
ĠR uss
Ġpr ior
Ġbox ing
Ġv ouch
Ġen vir
Ġgu arant
ĠW alm
ĠH igh
Ġdis ease
Ġsn eaked
ĠK land
ĠK ansas
ach oo
Ġcut lery
sh oe
Ġnose y
ri o
Ġfoot print
eas ant
Ġsk id
Ġflow ing
Ġrun way
Ġbow el
Ġer asing
Ġda le
ĠO ma
Ġcream er
Ġchild minder
Ġtre et
Ġtre mendous
Ġunt idy
ĠCarl a
Ġbeep s
Ġmoon light
Ġtin iest
Ġbar ny
Ġloo ser
Ġpo ach
Ġpo ems
Ġtummy ache
Ġscare dy
unk a
ĠU h
Ġstre ss
Ġfull y
ĠSh al
Ġbin bag
ĠZ az
Ġbur row
Ġinst ant
Ġcur vy
Ġfat ty
atch er
Ġperson al
ĠMar jorie
if i
he im
Ġtooth ies
Ġmed al
ĠAl issa
Ġcomp et
Ġpound ing
Ġcrayon ing
ĠEr n
Ġacc essor
Ġflat ter
Ġsalt ine
Ġswe ating
ĠMax well
ĠTo ys
Ġsew er
Ġfold s
ĠWh o
Ġbean ie
Ġdem ol
ĠTra in
ann ys
Ġhandle bars
Ġmac kerel
Ġzoom ing
Ġexpl ode
lies t
Ġmill enium
ĠGl adys
Ġgen ie
Ġregular ly
ĠFrost ies
Ġsneez y
Ġobv ious
Ġpip er
Ġsungl ass
Ġot ters
de f
Ġann iversary
Ġcabb ages
Ġpussycat s
Ġexplain ing
ĠAlad in
Ġbehave d
Ġconcentr ation
adad ada
Ġtar ant
cr ossed
Ġpra irie
Ġsnatch ing
ĠDay ja
Ġrepe ating
Ġnectar ines
ĠStan ley
Ġagg rav
ĠLi berty
Ġdock s
Ġintrod uced
Ġwrigg led
Ġorig in
Ġsem i
Ġsem icircle
Ġwaln ut
Ġadvert ising
Ġdiscuss ion
Ġbund le
ĠLex ie
ĠLind sey
Ġhandkerchief s
Ġmult icol
Ġtul ip
Ġinterrup t
ott i
Ġchatter box
Ġprof essor
Sm all
Sm ith
Ġattend ance
Ġaccord ion
Ġsusp enders
Ġtemp ered
Ġpsy ch
Ġstrugg ling
Ġelectron ics
Dr ive
Ġapolog ize
Ġphys ical
Ġtwent ieth
ĠPro vidence
ĠNot tingham
Ġclim ber
Ġpinec one
ĠEsk imo
ĠCarrot s
Ġforg ive
Ġhyp not
Ġchamele on
Ġsixpen ce
ĠScan ia
ĠGodz illa
Ġinvest ig
ĠNail a
Ġfootst eps
ĠDrac ula
ĠLizz ie
Ġenvir on
ĠWalm art
ĠKland at
A sh
H ar
J anet
K rispie
L iz
M or
O ffice
P ole
b ucks
d oot
e at
h ouses
j abi
k ers
l ion
s pl
t ors
w ant
w olf
y o
Ġt ame
Ġt sh
Ġt atoes
Ġi i
Ġi rr
re m
Ġs q
Ġs am
Ġd au
Ġd uff
Ġd ashing
Ġc ure
Ġc ities
Ġc osy
Ġg ul
Ġm ock
Ġm ode
Ġwh iny
Ġdo of
Ġdo og
Ġl aughter
Ġp im
Ġp row
Ġp oddy
Ġf al
Ġf av
et ry
it o
se m
as ons
Ġr ig
Ġr ins
Ġe ie
Ġk r
Ġk ae
st ar
st ep
ad ition
Ġyour selves
ĠM ammy
ĠM ousie
um in
Ġj er
Ġnot icing
im s
ie ves
Ġsome what
Ġju dges
Ġch ur
Ġch opper
Ġch rys
ill er
ur d
pp ies
us ion
Ġab a
Ġfr ames
ĠC orky
ĠC utie
ĠB ay
ĠB uffy
ĠB ubby
ĠB ox
ĠB asha
uck les
ĠP ampers
Ġsa ver
Ġhm pf
Ġcl ipping
our i
Ġtr oubles
Ġtr adition
Ġmm kay
Ġmm hh
Ġsl ave
Ġwill ies
ĠF or
ct ions
Ġman gos
ĠL izzy
ĠL ilo
ĠG umpy
ĠG ene
el ts
Ġfl a
Ġfl ipper
ard ed
ich e
Ġqu iche
Ġgive d
Ġturn around
Ġwater proof
ĠR d
ah l
Ġbre w
Ġsc ones
ph an
Ġgr ader
ĠW aldo
ĠH omer
Ġhat tie
Ġco ast
Ġya e
Ġam inals
Ġcut est
Ġsqu awk
sh oot
ĠGrand p
Ġstand ard
Ġlight ly
Ġaw a
Ġeh eh
Ġblack berry
dd ed
Ġtow ed
Ġten ta
Ġun like
Ġbump ers
Ġpeek a
Ġboo bies
Ġbat ch
Ġmind s
Ġpo ly
Ġpo ker
Ġduh duhduh
Ġlo an
Ġlo ver
Ġhide out
unk y
Ġgar ages
int osh
ĠSp ace
ĠV icks
ĠSh ayla
Ġmar oon
ĠMiss ouri
Ġcur lers
Ġpour s
Ġlay ed
Ġturtle neck
Ġstation s
Ġcats up
ĠPer i
Ġsuit able
Ġnut cracker
Ġmatch ed
Ġdec ent
Ġdes ks
ĠBl u
Ġfre ed
ps ons
Ġcouch es
ĠDo ggy
Ġcarp ets
Ġgrab ber
Ġoat ie
Ġrug s
Ġcheer ing
tr unk
ann ed
Ġimag inary
Ġmeal time
ĠRoss y
Ġstack s
ĠMot or
Ġscrewdriver s
Ġsmack s
Ġtroll eys
Ġtuna fish
Ġpuff y
Ġclick click
Ġrep ly
ĠDer ik
Ġcuc ar
Ġthunder storm
Ġsword fish
Ġmist let
Ġswings et
Ġsteal s
Ġwal t
ĠJu die
Ġtoad stool
bl ack
Ġtim ing
ĠDisney world
ĠMal ik
Ġoutf its
Ġexp ert
Ġmall ard
Ġnick ing
Ġdepend ing
ĠStar bucks
Ġlead ing
Ġbing bong
Ġloop ty
Ġthump ing
tw o
ĠIm py
ĠSqu are
Ġobs erv
Ġrattles nakes
ĠKo ko
ĠTar ci
Ġfunn ily
udd ly
ĠCor r
ĠWay land
ĠPan acka
ĠZach ary
ĠCandy land
Ġgrate ful
Ġspoonful s
Farm er
Ġgoog ly
Ġnoon oos
Ġentertain ment
Ġadad ada
Ġstencil s
born e
Ġeea w
Ġwea p
ĠLouis iana
Ġdadadad ada
ĠPun jabi
ĠBean o
ĠPort ug
Ġcour get
Ġbrist le
ĠGull ivers
Ġspir it
ĠHipp ity
Ġjing ly
ĠLong neck
ĠStew art
ĠGw ampa
ĠFriend ly
ĠKaa ee
Ġindic ator
ĠGrandm amma
Qu een
ĠKris ta
ĠMit ra
Is land
Ġelder ly
Batters by
Ġkumb aya
ĠRuld olph
ĠBog dos
Ġprun es
ĠKin ana
Ġdete ctor
Ġanth ill
ĠGep etto
Ġorigin ally
Ġmulticol ored
Ġenviron ment
Ġchrys al
A r
D uncan
G reen
H appy
J ordan
L oxy
M ay
N ame
T own
W itch
Y ou
_ <
b by
b ugs
b uster
b adger
b awk
f ers
h in
j eans
m n
m orning
n uts
p ans
r ush
t hm
u ke
w y
Ġt ask
Ġw up
Ġw eal
Ġy uk
Ġi rk
Ġh ick
Ġh ost
Ġh itch
Ġh oho
Ġthe day
Ġs issy
Ġs ample
Ġd rench
Ġd ickie
Ġb ummer
Ġb ases
Ġc it
Ġc od
Ġg in
Ġm il
Ġm ild
Ġm opping
Ġwh am
an cy
Ġn am
Ġn adi
Ġl olo
ĠI gu
is ure
or ough
Ġu na
ut i
ut tered
Ġsh erry
Ġthis tle
ar re
Ġr ab
ook ies
Ġe g
on ed
Ġwan a
Ġdon k
st own
ad wick
ĠM il
ĠM ach
ĠM amas
ĠM uffet
ir ting
all as
um ing
Ġsee p
Ġre asons
ic ian
Ġkn itted
Ġkn uckles
Ġpl anks
Ġch il
ra se
ra ction
un o
al y
ore st
ĠD rew
ĠD allas
pp ets
Ġtw uck
Ġbig gy
ĠT own
ind ing
us es
us sel
ĠS y
ĠC ole
ĠC astle
Ġsp un
ĠB isto
ĠP uffs
ĠP itts
ĠJ a
ap ika
ĠA re
Ġne y
Ġcl ipper
Ġcl ogs
ers erk
ĠF air
Ġbu gging
ĠN u
ove n
ĠL iver
ĠL uther
ĠG n
ĠG ill
ĠG ia
ĠG arden
ĠG omer
ĠG ogg
Ġcom for
Ġmu zzle
Ġfl eas
Ġcat eg
ĠE ngine
Ġwa fer
be h
ĠCh atter
ĠCh esh
ah aha
Ġbed dy
Ġsc ored
Ġsc uba
Ġsc attered
Ġwr ited
Ġday light
Ġv ir
Ġdi aling
Ġgu ards
Ġdoor knob
Ġdoor step
ĠW ales
ĠH ouse
ĠH airy
Ġfire d
Ġafter ward
Ġsweet ers
ĠK n
Ġtheir selves
Ġgl or
Ġear ring
Ġold en
Ġhorse y
Ġbuild ed
Ġbea vers
Ġstr um
Ġtouch down
Ġgra ve
Ġair borne
Ġun p
Ġun cles
pl ant
Ġbab aba
Ġtook a
Ġshop man
Ġtre s
Ġcorn field
Ġbump ety
Ġmiss ion
Ġgrand son
Ġshut ters
Ġmoo s
rop he
ĠJean ie
Ġjig gle
li fe
Ġspl osh
ĠZ or
Ġbur ner
ĠSt ation
ĠBa ld
Ġblanket ie
ĠAnd rex
Ġbest est
ĠPo int
Ġwoo oo
ĠMar ian
ĠMar io
Ġra zzle
bur g
ĠSanta claus
Ġfo e
if ty
ĠBar on
ĠPer sey
Ġve ggie
Ġoink oink
Ġph ase
Ġspace man
ĠBaby kins
Ġter race
ib iot
Ġstea led
ĠBl oom
Ġsuper her
Ġfro ze
Ġstom ping
Ġsend s
Ġhu f
Ġpow dered
Ġach ing
Ġmuff s
Ch adwick
col a
Ġdem and
Ġlob by
Ġrubber s
Ġbother s
Ġaun ty
Ġwre ath
Ġeng age
Ġhippopotamus es
Ġant ibiot
aa a
Ġremind ing
Ġsur name
ĠCorn y
Ġburp s
Ġres our
Ġtad pole
ĠGl ory
Ġcapital s
Ġabc def
ĠScot ty
Ġflavor s
Ġelectric al
ĠLeg oland
Ġgall on
Ġsteak s
ĠCol ette
Ġsting ing
de cker
ĠKay lia
Ġballer inas
Ġprotect ing
Ġret ired
Ġtread mill
Ġref re
Ġserv ant
Ġpos y
Ġwhad ja
Ġpans ys
ĠCan adian
Ġsol ar
DO R
Ġseash ell
Ġkuh z
Ġsear ched
Ġmoth s
dress ers
Ġdestroy ing
Ġsy ll
Ġrout ines
Ġheav ily
Ġkay ak
ĠScar borough
ĠRod ney
Ġpun ct
Ġpun ished
Ġdet ect
ĠVict oria
ĠFre sc
ĠMex ican
WO R
ĠSta cy
Ġident ical
ĠRow an
Ġinvent ion
squ amy
Ġaud io
Ġcrump led
ĠStr ip
Ġinsist ed
Ġmol asses
Ġshred ded
ĠFer die
ĠMarsh a
ĠMarsh all
ĠHay es
Ġchuff chuff
ĠMos asaurus
Ġack ack
Ġween y
ĠMilk y
Ġnewsag ent
Ġfle x
ĠCo by
Ġcho ir
ĠCad burys
cra ft
Ġlightbul b
ĠFro ggy
Ġkerpl unk
ĠSull ey
Ġcrink ly
Ġadvertise ment
Ġwatercol ors
Ġsul king
Ġchall enge
ĠVen us
Ġpik apika
Ġsunsh ining
Ġdeliber ately
ĠTyran osaurus
Ġhyster ical
ingu isher
Ġfortun ately
ĠBeatr ix
ĠNep al
Ġknif es
Ġguarant ee
Ġbarny ard
Ġcucar acha
ĠIgu anodon
ĠChesh ire
B il
D ave
H ead
M iddle
P o
T IN
b an
c ond
c atcher
d oc
i ber
m os
o k
p ong
s ut
t woo
z oom
Ġw oom
Ġa ches
Ġy ook
Ġs en
Ġs ue
Ġs ums
Ġb ummie
Ġb erserk
Ġc as
Ġg ut
Ġg ad
Ġg au
Ġg ur
Ġwh as
er p
Ġl ack
ĠI owa
Ġf ai
ea u
se ed
ow els
Ġoh ahah
Ġsh one
Ġr oger
Ġbe ware
Ġli berty
Ġk k
st yle
ch ee
ch airs
ĠM ee
ĠM aura
ir rel
Ġst er
ver age
ot ter
ot ops
um um
Ġba ch
Ġput ta
Ġput ted
Ġput cher
ra irie
ould ers
ur o
ĠD ry
ĠD ia
ĠD oodle
ĠD ragon
uh uh
Ġtw ig
ĠT itch
ĠT eg
ĠT ata
il ia
Ġmore s
Ġab oo
ĠC ome
ĠC uddly
ĠB and
ĠB uck
ĠP eg
ĠJ T
ĠJ ew
eed ah
ĠA mber
ĠA ppled
Ġover wh
ab r
ab ad
Ġbook store
qu eline
Ġthing ies
Ġag ether
ĠF ido
ct ric
Ġcould a
Ġbu gger
unn er
ep ot
Ġsit u
ĠE le
Ġtur quo
Ġcr ikey
Ġpu d
ĠCh ocolate
Ġse xy
Ġbed die
Ġtalk in
Ġv icar
Ġdi b
Ġdi ab
Ġwork shop
Ġgu g
ĠW icked
man s
ĠH ans
ĠH ym
Ġyellow y
Ġsu ffer
Ġdin er
Ġco y
ous ly
ĠK arming
Ġam inal
ri k
ri bbit
Ġfoot stool
Ġfoot path
Ġgl ig
Ġgl ance
Ġbath ie
Ġwash ie
cu bes
Ġaw ound
Ġbea dy
Ġrain forest
Ġpop ing
Ġcra p
Ġda i
ĠO wen
Ġem u
Ġpurple y
Ġbrown s
Ġrecord ers
Ġbel uga
Ġbar bie
ĠBr idget
ĠBr odie
Ġwall op
Ġpuzzle d
Ġstore d
Ġclock wise
ĠSh eep
ĠZ ara
Ġmar ched
ud a
umb a
Ġmis ery
Ġpump ing
bur gers
dad um
fl ops
Ġph rase
Ġtri ke
ĠBaby bel
Ġvis ual
Ġtight ening
Ġcoll aps
Ġcoll ars
Ġmedic ines
Ġmark ing
fr ost
ĠRob ocop
ĠSm okey
ĠCr unch
Ġunderstand ing
Ġoy ster
Ġtu k
wee wee
Ġhon ked
ĠMary land
Ġtown s
no chio
Ġbless ing
ĠBer nie
Ġma ids
Ġpond s
Ġmagnet ized
lo xy
Ġrem ain
Ġwip er
Ġwhats its
Ġpair plane
ĠAm ira
rick et
Ġni bbles
Ġstret ches
ĠIsab ella
ĠGold y
Ġpuff er
Ġlow ly
Ġthin ner
Ġcash ier
ĠCl ip
Ġdot ted
Ġop in
Ġvest s
Ġrep airs
Ġrep resent
Ġerr ands
Ġtat t
cut ter
Ġed uc
ĠCol by
Ġramp s
Ġstew ed
bl ock
Ġbol ognese
Ġfa ire
Ġjug s
Ġserv ants
Ġpoison ed
Ġdive d
off ice
Ġmaster piece
Ġpray ing
Ġgallop y
Ġconf erence
Ġorgan ize
ĠLor i
Ġsharpen ed
ĠPin nochio
ĠWil ma
Ġcolle ctor
Ġcocon uts
bel ts
Ġante aters
ĠHat u
Ġpun ishment
Ġfascin ating
Ġdistur bed
Mc Donald
Ġwrigg ling
ĠDel hi
Ġvi br
hee hee
Ġlab or
Ġlent ils
ĠSab rina
ĠMu seum
Ġorna ment
Ġlalal ight
Ġaud ience
Ġner ves
Ġgluggl ugglug
ĠBel fast
ĠBel uga
Ġbub by
Ġrollers k
Ġthorn s
Ġrare ly
Ġcoup on
Ġhyrax es
ST U
Ġholler ing
ĠLove y
ĠGil bert
ĠNad ine
ĠNad ia
Ġzz zz
ĠBoun cing
Ġoffic ers
Ġrept ile
Ġocc up
Ġdisgu ise
Ġperfor ming
Ġbiz arre
Ġporkch op
Ġdrug store
Ġinterf ere
Ġgradu ate
Ġunst uck
Ġmand arin
ĠPeach es
Ġchimpanz ee
Ġoomp apa
ĠTul ip
Ġprepar ing
Ġshel ter
Ġprec ise
ĠScr uffy
ĠPunx sut
ĠTrail or
Todd lers
Barb ara
Ġrins ing
ĠMotor cycle
ĠLiver pool
ĠTeg ama
ĠAppled umpling
ĠPunxsut awn
B ug
C ricket
D on
O ld
P opp
P iper
T v
W ilson
a ves
b ill
b ins
c us
c os
c ocks
d ur
d umb
f oe
j oe
k ker
k itty
l am
m ay
m ates
o am
o chio
u ine
w obbly
Ġt ilt
Ġth orough
Ġw un
Ġw eady
Ġy am
Ġy icky
Ġthe ra
Ġs ou
Ġo i
Ġo x
Ġo ooh
Ġd ag
Ġd ental
Ġb icka
Ġc ue
Ġc ia
Ġc ello
Ġg aps
Ġm au
Ġm asc
Ġwh ass
Ġwh ipping
er ing
er ts
Ġdo on
Ġp ff
Ġp th
Ġf ff
Ġf eta
Ġhe m
is er
om ime
Ġin ta
Ġoh h
id ocious
ar o
Ġcan cel
Ġk uk
ch ips
ĠM en
Ġme er
ot to
Ġre view
im ore
Ġup p
op ing
ra cu
al ala
Ġwell ys
ĠD zen
pp ity
ta pe
Ġtw irly
Ġbo a
Ġbo nd
ĠT at
ĠT ad
ĠT ic
ĠT opham
ind le
Ġbr on
Ġcar ved
Ġab ac
Ġab sent
Ġbl ister
ĠS of
Ġfr u
ĠC oh
ĠC rack
Ġsp i
ĠB ade
ĠB ones
ĠB umble
ĠP oy
ĠP org
ĠP res
ĠP ickles
ĠP rairie
Ġany place
Ġwould a
Ġtra cing
ĠF orest
ĠN ever
ĠN uts
ĠL es
ĠL urkey
ĠG ypsy
gg a
gg ly
Ġsw apped
ul as
ump h
Ġwa ggle
Ġqu ality
Ġtry na
Ġhand prints
ĠCh ie
ĠR om
ĠR ambler
Ġsm urf
Ġpe cked
Ġv ane
Ġv ict
Ġdi x
Ġgr ant
Ġmin im
ĠW oll
Ġde fe
ma ids
Ġsn uffle
ĠK atherine
Ġz ipping
ĠMom mie
ac ing
Ġgl ider
Ġpot ter
Ġhoney dew
Ġchoo ch
Ġwash y
ug ug
Ġsk ink
Ġti ka
Ġcold s
Ġbea ms
Ġwheel er
Ġkiss ie
Ġhors y
ont otherium
Ġun o
Ġbread s
Ġcorn s
Ġcorn flake
eal and
Ġpolice woman
Ġboo g
ĠBr ontotherium
oy al
anc er
app a
br igade
ĠV www
ĠV inc
Ġap es
Ġcard inals
ĠZ ippy
Ġflower pot
ĠSt at
ĠSt uck
ĠSt one
ĠBa um
Ġcur b
Ġcur rent
hah a
Pat ty
Ġseat belts
Ġstraight ening
ugg le
Ġtooth pick
ĠEm pire
Ġfur ious
ĠY ellow
Ġslow ing
ĠEd in
Ġmum ma
Ġwra ps
Ġdes cr
Ġyuck ies
ĠCharl een
ĠSc amp
Ġloll ys
ĠCr isp
Ġfree way
Ġhoo vered
ps ack
Ġtrip le
Ġfather s
Ġsink s
Ġpea cocks
Ġmet er
Ch atter
Ġwhist led
Ġcont ent
Ġpeel s
ĠSw at
Ġdifficul ty
uss ian
iv an
Ġbah bah
Ġbon jour
ĠMac y
Ġdisapp ears
Ġru ining
Ġcop ied
Ġwhisp ers
Ġsmoo ch
ĠFrank y
Ġcann ed
Ġgen ius
Ġmer ing
Ġchoochoo choo
ial idocious
Ġpil ots
Gr uff
Ġsnugg ling
ĠScot tie
sk ates
Ġsting ray
Ġur gent
Ġspark ler
Ġproud ly
Ġshush us
Ġlun ar
Ġpsh sh
Ġchugg ing
Ġfa ctor
Ġpant omime
Ġsss s
Ġoper ating
ĠHan key
BE Y
ĠHor ace
Ġign ored
Ġdrown ing
Ġcent ip
Ġsigh ed
Ġlim ited
ĠAnt ony
Ġcooper ating
Ġstri kes
abl ocks
Ġpla its
Ġblick ing
Ġincl ude
Ġmyster ious
Ġscrubb ed
Ġtam er
Ġvar ious
jay s
Par cs
ĠPut nam
ĠSab ato
Ġstain ed
Ġdelight ful
Ġdor me
cluck cluck
Ġmult ip
Ġsurfboard ing
Ġinterrup ted
Ġopt ion
Ġbung al
Ġcrump ets
Ġprawn s
Ġjim by
ĠDalmat ians
ĠCas sey
Ġaffect ed
Ġrap tors
Ġmak ers
Ġseg ments
ĠPrud ential
Ġgravit ate
Ġflutter ing
Ġrequ ire
Ġknuckle head
Ġnewsag ents
ĠPter anodon
Ġsib ling
Ġrefer ring
Ġbos om
Ġtech nic
Ġadop tion
Ġtalent ed
ĠSant ie
Ġgher kin
ĠMall ard
ĠMade lyn
Ġannounce ment
Ġcockat oo
Ġcad et
ĠNy la
Ġsurv ive
Ġembarr assing
Ġkna psack
ĠDush awn
ĠMik ie
ĠWoolworth s
ĠSask ia
Ġmantle piece
Ġunb uckle
Ġexclaim ed
Ġtreet op
ĠZaz u
Ġpim ple
Ġfal se
ĠPeri winkle
Ġmistlet oe
mn op
Ġoverwh el
Ġturquo ise
Ġcoy ote
ĠPunxsutawn ey
Ġabac us
ĠCoh en
ĠBade ga
B ed
B ang
H O
M ummy
O z
P andy
R ussell
c ous
d ish
d ood
d oop
f o
f old
g un
i w
i ance
l ouse
m om
p al
p ialidocious
w ith
w ark
x pialidocious
y oo
Ġt la
Ġt shh
Ġw es
Ġw igh
Ġa ce
Ġs ar
Ġs yr
at y
at ta
Ġd ut
Ġc uh
Ġc ul
Ġc uff
Ġg ummy
Ġg oud
Ġm are
Ġwh iff
Ġdo e
Ġdo rm
ĠI f
Ġp ne
Ġgo go
Ġgo alie
Ġno dding
Ġf ain
Ġf ame
Ġf oul
Ġwe cord
et es
ig old
Ġu geh
le x
Ġsh ady
Ġr os
Ġr ump
Ġr ole
Ġr ucks
on ic
Ġk ar
Ġk ak
Ġk iki
ch ange
Ġst alls
Ġba kes
Ġba lo
Ġyes sie
im et
Ġan oth
Ġup town
Ġright ly
ake et
Ġch innie
Ġch andel
Ġch ocky
op le
op ops
ra pher
Ġout s
ore t
ĠD aws
ĠD airy
ĠD avy
Ġuh m
Ġdown s
Ġgood er
Ġbr as
Ġbr ussels
hm an
ose y
ĠC ontroller
Ġsp elt
ĠB ang
ĠB unch
ĠB each
ĠP om
ĠP he
ĠP appy
ĠP umpkin
ĠA ggie
ĠA venue
Ġsa h
ab aa
Ġcl apped
Ġcl arin
ber n
Ġah hh
Ġdr oo
Ġdr ippy
Ġtr ooper
ies ta
Ġwere wolf
Ġsl apping
Ġbu dd
Ġman or
ĠL y
ĠL oop
ĠG et
ĠG ib
ĠG inny
ĠG iant
ep her
Ġfl ing
Ġfl ame
ĠE e
zz er
ich el
ich ard
Ġwa cky
Ġqu id
Ġfrom age
Ġblue bird
Ġhand stand
pen ny
Ġtrain er
ĠR angers
ĠR olo
ah oma
Ġsc ent
Ġsc off
Ġgreen y
Ġgreen beans
Ġhi bern
Ġv rm
Ġgr uel
Ġgr inder
ag i
Ġgu ppy
Ġdoor man
Ġmin now
ĠW ish
ĠW alt
og en
ĠH ot
Ġde frost
Ġfire crackers
ĠGr ouch
Ġpen ces
Ġapp ears
ĠK arl
ĠK irk
Ġz ap
Ġz ipped
Ġlast ed
ĠMom mies
ipp o
Ġhar ps
Ġooh ooh
Ġgl ee
Ġear l
aw aw
Ġpaper work
Ġti k
Ġpar akeet
Ġcou pl
ub s
Ġrec ent
Ġer h
Ġfun eral
Ġrock rock
ĠO k
ĠO ron
ĠO kl
night s
Ġunt angle
Ġmo ly
Ġboo th
ĠBr uno
und s
app er
ĠPet ey
ĠAd a
Ġdust men
Ġpat s
Ġpat ing
ĠV inny
ĠBe cause
li an
ĠSh el
ĠSh ark
Ġswing ie
Ġri bit
Ġele g
Ġboom p
ĠAnd erson
Ġfruit y
Ġwoo woo
ĠAr too
Ġra e
Ġay a
Ġfight ed
if rag
Ġve nt
Ġnut rit
Ġlearn s
Ġfair ground
Ġter ra
Ġground s
Ġcomp ar
Ġstea ming
eg o
Ġbaa aa
ĠCr icket
Ġsuper cal
ĠMan n
Ġad van
Ġsauce pans
ĠChrist ian
Ġrad ar
ĠAb c
Ġfright ens
Ġplays chool
Ġma x
Ġcough s
Ġcont ract
Ġchin ny
Ġcous cous
Ġfresh en
ann els
Ġext end
ĠSn uggy
Ġbon us
Ġscoop er
ĠBill ie
ĠMon key
ĠTr ish
Ġres pect
ĠNan nie
Ġwhisk y
ĠBlue y
Ġought oh
Ġspray s
Ġart ich
Ġmer cy
Ġdire ctor
Ġposs um
Ġbeeba abee
ĠWill s
Ġgigg ly
Ġmam ama
sk ate
ĠPu ds
ĠLe kker
ĠPean uh
atter ing
Ġble at
kn icks
kn ife
Ġcig ar
ĠDin os
Ġostrich es
Ġpap adums
Ġchat ty
Ġward rob
Ġsol ve
ĠPopp le
ĠFarm ie
ĠPatch es
ĠPin ochio
Ġdaet z
ĠScott ish
Ġhiss ing
Ġpref erence
Ġnan ana
Ġnan cy
Ġsnatch ed
Ġstair case
Ġver bal
Ġdunk ing
ĠMag ic
ĠAust ra
goo goo
Pot ato
Ġdamp er
Ġsill iest
Ġcooper ative
Ġclam s
Ġterm ites
Ġsus pect
Ġrar ara
Ġscan ner
ĠGree nd
Ġattract ive
Ġtherm os
Ġassoci ate
Ġpw ease
Ġadv ice
ĠLex y
Ġflight s
Ġhopper oo
ĠWhisk ers
Ġraviol is
Ġdesper ately
ĠRo ly
utton s
Ġdawn ing
ĠDar lene
ĠChels a
Ġprof ession
Ġmol es
Cr ane
sp ider
ĠSpin ner
ĠPurd iter
ĠFruit shoot
ĠHay ley
Ġpunk y
ĠCall um
Ġmoist ure
ĠCe cile
Ġundress ing
ĠMau reen
Ġrept iles
Ġvag ina
Jac ques
Ġprin ting
Ġgrumble d
ĠToo th
Ġimpr ove
Ġdelay ed
Ġsel fish
Ġsats uma
Ġlaun ch
Ġperman ent
Ġfaith ful
Ġobst acle
Ġmantel piece
Ġchchch ch
Ġindivid ual
Ġdispos al
Ġphotog rapher
Ġsigna ls
Ġpapp ap
Ġdram atic
Har rison
Mor ris
Ġwalt zing
Ġchrysal is
Po inter
ĠHym ie
Ġopin ion
Ġfaire st
Ġcia o
Ġmeer kat
ĠPres ident
ĠVinc ent
ĠStat ue
ĠStuck ard
ĠEdin burgh
Chatter box
Ġpne um
Ġrucks ack
ĠDaws on
ĠPhe obe
ĠOkl ahoma
Ġnutrit ious
Ġadvan tage
Ġbeebaabee baa
Ġwardrob es
A ggie
B row
D o
D en
F I
F or
G e
R ing
S n
S tr
b ad
b up
c as
d uff
e z
e ater
f eed
f igh
f inger
g ate
h oop
h oops
i ate
l ins
m outh
p athy
p okey
r ation
r ums
v uh
w ig
x es
Ġt angles
Ġth t
Ġw arren
Ġa ka
Ġy ick
ou fl
Ġh ub
Ġh ooh
Ġs ow
Ġs ash
Ġs ons
at op
at ically
Ġd era
Ġd ashed
Ġg y
Ġg our
Ġg utter
Ġg ambler
Ġg ypsy
Ġm ops
Ġm asher
Ġm umps
Ġwh im
Ġn ipped
er pillar
Ġdo i
Ġl ux
ĠI ss
ĠI vy
Ġp ome
Ġp imples
Ġno dded
ea rer
Ġhe ated
Ġto pple
it ations
ig ot
Ġu u
Ġu uh
Ġu ne
Ġu der
Ġyea st
Ġyeah h
Ġr ips
Ġr iddle
Ġr ising
en o
on ing
Ġbe ers
na ire
Ġk ur
Ġk ern
ad der
ad actyl
ĠM avis
ĠM opsy
ĠM ittens
ed ient
ic i
Ġj ive
am ine
Ġsome ping
Ġat tem
Ġch lor
un sw
un shine
Ġuh ah
dy a
Ġum h
ice xpialidocious
ĠT al
ĠT ell
il ist
Ġbr ang
Ġcar ouse
Ġab and
Ġsp ine
Ġsp indle
Ġsp igot
ĠB M
ĠB y
ĠB eet
ĠB ull
ĠP age
ĠP ik
ĠJ osie
Ġover all
Ġover fl
Ġne m
Ġcl k
our ite
Ġah a
Ġah unting
Ġhuh u
Ġdr ummer
Ġtr aded
Ġag ed
Ġsl ate
me lon
ĠF all
ĠF udge
ĠN ept
ĠL issa
ĠL ester
gg o
el ise
ob aby
Ġfl ippy
eet oo
Ġhouse hold
ich ord
art z
Ġwa ah
ang y
Ġred dy
Ġuhh h
ĠCh ick
ĠR ead
ĠR ico
ist s
Ġsc outs
Ġhi ho
Ġv om
Ġv ale
Ġgr oo
Ġgr im
Ġgr ump
Ġgr unting
Ġhear th
Ġdear ie
ama j
bb ing
ĠW eb
ĠW ye
Ġlea gue
ĠH ere
ĠH ammy
ĠH etty
Ġsu ff
Ġsu ite
Ġhair dryer
Ġhat ches
Ġbus stop
Ġegg plant
ĠK an
ĠK angaroo
ĠK oolaid
ĠK icking
Ġz ips
ĠGrand mas
Ġfeet ies
Ġstr ict
bo e
Ġwheel ing
wh ack
Ġchicken pox
Ġreal izes
Ġrec all
Ġrec ipes
mas ter
Ġpol ie
Ġbab by
Ġkid dy
Ġpeek y
Ġbat on
ons cious
Ġpo kes
Ġduh n
ĠPet to
Ġmoo sh
ator s
ĠCar win
Ġsea food
Ġcon sent
Ġoo ch
ĠV innie
Ġdra ins
Ġpear ls
Ġscr ipt
Ġmen u
Ġinst ance
ĠSt art
ĠSt ates
Ġwin nie
umb ly
Ġpin ball
atch el
bre lla
Ġapart ments
Ġmotor boat
gr an
ĠJen essa
Ġcam oufl
Ġtooth ie
Ġph h
Ġsuit suit
Ġwhoo o
ens ak
Ġshare s
ĠY ul
ĠY obaby
Ġdec iding
ĠRob inson
ĠEve lyn
Ġups ets
ĠHar lem
Ġhurry ing
Ġad i
ĠFl ick
ĠFl opsy
Ġgum drop
Ġrad ido
Ġhon king
bot s
Ġvac c
ĠSpot ty
Ġquestion naire
Ġstir s
Ġstir red
Ġseal ie
Ġhay ride
Ġbroom stick
ĠSw amp
Ġext inguisher
Ġea gles
Ġdeliver ies
Ġhun ters
Ġwinter time
ĠCon cord
Ġinv itations
Ġben ches
ĠTween ys
ĠMon ica
Ġq wyn
ĠJan ie
Ġcrumb ly
Ġrough ly
Ġdum bb
ĠTr iton
ĠTodd ler
Ġspit s
ĠAnn elise
Ġtrans l
Ġjun iper
ĠQu aver
Ġmer maids
Ġscra per
Ġcrown s
Ġop era
ĠJam al
lish ed
Ġdisc s
Ġswallow ing
Ġstate ment
ĠSim psons
Ġrhy thm
doll s
ĠFlor a
ĠNe v
Noo s
Ġped aling
Ġsprink ling
Ġtuck ing
ĠMor oc
Ġprotect s
Ġpss s
Ġtut us
Ġstat ues
Ġpap rika
Ġrelax ed
Ġsha ft
Fr anks
ĠPopp ins
Ġshock ing
Ġmuck ing
Ġbae k
Ġproject s
Ġshepher ds
ĠHuckle cat
ĠSl udge
win cy
Ġdeh n
Ġrepe ated
Ġping a
Ġflu id
too th
Ġtrave ls
Ġtrave led
Ġphss s
Wo nder
Ġmechan ics
ĠDel ia
Ġbonfire s
ĠNell igan
Ġque uing
Ġnipp les
ĠOr ange
Ġquackquack quack
Ġarrange ment
ĠTweet ie
Shop man
Ġadad a
Ġflick er
Ġprov ide
Ġcommun ity
Ġbloss oms
Ġwaw awa
Ġlalal ala
Ġsmokes tack
ĠKool ade
Ġimit ate
ĠMer rill
ĠPap rika
Tr imble
Ġdim ple
ĠOll ie
Ġstrugg le
Ġrequ est
Ġvr ooom
Lou ise
Ġree f
Ġcommunic ate
Ġsym pathy
ĠSid ney
ĠAqu aman
Ġkale id
Ġcartwheel s
Ġinfl u
ĠLean ne
Ġveter in
Ġshrink ing
Ġsmar ter
Ġstabil ize
ĠCha os
ĠScoo ter
ĠCotton tail
Ġpett ed
ĠDub lin
ĠOx ford
Ġsatis fied
ĠComp any
ĠWhit ney
Ġhass le
rh ymes
Ġhoh oho
Ġdissol ve
Col umbus
Ġchuk a
Ġintell ig
ĠGing ells
Ash worth
Ġsq wark
ĠPortug al
Ġcourget te
ĠBald y
Ġresour ce
ĠFresc a
Ġsitu ations
ĠEle ctric
Ġdiab etes
Popp ins
ĠNever land
ĠWoll ensak
Ġdorme z
Ġbungal ow
Ġsyr inge
Ġgoud a
Ġclarin et
Ġharps ichord
ifrag ilist
Ġsupercal ifragilist
ĠGreend ale
Ġpneum onia
Ġdera iled
Ġpome gran
Ġattem pt
unsw ick
Ġcarouse l
ĠPik achu
ĠNept une
Ġqwyn nie
Ġsupercalifragilist icexpialidocious
> '
A O
B room
B oat
B adger
C RI
D oo
D doh
D eetoo
F ish
F ogg
G iant
G oats
H oliday
L ucky
M ag
M essy
M uffet
P h
P ut
R oo
S pen
T iny
a it
d ig
e i
f alk
f ries
h ose
h oes
j uh
k et
l uh
l ucy
m art
p ose
r over
t one
t art
t rees
t imore
w ally
w anz
Ġth aw
Ġa ht
Ġa uh
Ġa verage
Ġy an
Ġh ank
Ġh oy
Ġh ilar
Ġh woo
Ġh itted
Ġs umm
Ġs oph
at as
Ġo ig
Ġo ars
Ġd ir
Ġd ings
Ġb oulders
Ġc oon
Ġc ycling
Ġc ulture
Ġg ab
Ġm asses
Ġwh aa
Ġn it
Ġn ifty
Ġl is
Ġl aser
Ġl ug
Ġl yn
ĠI ll
ĠI ch
ll ie
Ġp es
Ġp ate
Ġgo ver
Ġgo osie
Ġf f
Ġf ag
Ġf idd
ea led
ay e
it os
se ls
se ums
ow l
IN S
Ġu d
ee m
Ġin tern
Ġsh ee
Ġr ink
Ġr us
ht h
ome d
na k
Ġk ab
ad uct
ad iga
ch ar
ĠM ersey
ĠM ootie
ir led
Ġst im
Ġre lish
Ġba i
Ġba it
ink ie
Ġpl ush
Ġright ie
Ġch ipped
Ġch itty
ra el
ill ie
wn y
ĠD yl
ĠD otty
Ġwho ah
Ġuh mm
Ġgood night
ce lia
Ġbo h
Ġbo bo
ĠT ing
ĠT are
ĠT ibble
Ġher bs
Ġhow ling
il er
il ee
il bie
Ġbr at
Ġbr ung
Ġab uh
Ġback ways
ĠS asha
ĠS ayla
ĠS nap
ĠC u
ĠC ee
ĠC ove
ĠB K
ĠB age
ĠB ible
uck er
ĠP ir
ĠP av
ĠP ets
ĠP ocket
ĠP appa
ĠJ edi
ĠA pt
Ġneed ing
Ġdr ama
ĠTh ompson
Ġmm g
Ġsl ab
ong s
ĠL olly
ĠL asha
ĠG of
gg s
Ġmu ppets
Ġmu seums
Ġfl esh
ĠE y
ĠE rika
Ġqu ilts
Ġhel ip
Ġbet ta
Ġsc one
Ġsc urry
Ġv av
Ġgr ibb
Ġen h
Ġgu st
Ġwee ow
ĠW heat
ĠH ee
ĠH ello
ĠH ubbard
Ġde ux
Ġfire cracker
Ġaf ro
Ġdin na
Ġco ath
Ġlong it
Ġcare d
Ġsn ores
ĠK nie
ĠK ings
ĠK ids
ĠK wanz
Ġz one
Ġz inn
Ġthrow er
Ġthought s
Ġthought ed
ac in
Ġmat oes
Ġooh oo
Ġgl ide
Ġnum b
Ġmust a
Ġbath ed
Ġwhoop ee
Ġeven ings
Ġstr ay
Ġbutter cup
Ġbutter cups
Ġtom cat
ĠMa lenda
Ġfell er
wh eat
Ġthan ked
oss y
Ġair k
Ġsun s
Ġsun burn
Ġpol os
Ġta pped
Ġstar ve
Ġteet her
Ġhop es
Ġtre ated
Ġpost bag
Ġboo bie
Ġbar my
Ġtoast ing
ey ed
Ġla a
Ġpoo ing
br oke
Ġsea led
Ġdust man
Ġhea h
ĠV ase
ĠV iv
ĠV icky
ric t
Ġcheck er
Ġmar igold
ud ges
ud gy
Ġcur ves
Ġpin ned
iel ocks
ĠAr lene
Ġpee red
Ġshar per
Ġleaf y
sc otch
Ġvis itting
Ġlamb ie
boo sh
Ġjam med
Ġcomb ine
ĠIs lam
ĠIs rael
ĠCr oss
nes see
Ġoy sters
Ġbra chiosaurus
sw orth
Ġad ore
iver se
Ġfre s
Ġcap t
Ġstom ped
Ġdream t
Ġma i
ĠNew ton
Ġreg ist
Ġoctopus es
Ġfresh ly
Ġquar ry
Ġadd ressed
Ġext ent
Ġea ger
bee f
Ġimag in
Ġrail ing
ĠMc duff
Ġcre ative
Ġbend ed
Ġmac a
Ġew oo
ĠDor is
ĠSnow don
ĠCon ner
Ġzoom er
ĠBab es
Ġshoo shoo
Ġchug chug
Ġtoothbrush es
ĠCorn falk
Ġres erv
Ġwob bled
Ġchest nut
Ġart icle
Ġtest ed
ĠMay or
ĠLou isa
Ġtem pt
Ġhy acin
Ġpopp ies
Ġsecret ary
ĠPe z
Ġwreck er
Ġwom bat
Ġwi red
Ġsub st
Ġdrain ing
ĠJac ques
ĠJac queline
Ġann ounced
bl ades
Ġfet ching
ĠRe va
ĠMal ificent
Mar ilyn
Ġins ides
Ġradiator s
Ġthread ing
Ġrose y
Ġcheep cheep
ĠBea st
Ġmel ons
Ġpap u
Ġbw oke
Ġrrr rr
ĠNat asha
ĠPen guin
Ġseparate ly
att an
Ġrot or
Ġtyp ically
bit sy
gy pt
Ġnecess ity
ĠBal timore
Ġwed ged
ĠOat lands
ĠRos ita
Ġblast off
Ġquill s
Ġwaterf alls
Ġflu or
Ġcau ld
ĠKenn eth
Ġpun ish
Ġagg ress
ĠSk ittles
acty ls
ĠKirst ie
Br unswick
Ġrumm age
Bl obby
Ġpaintbrush es
Ġvi aduct
jack s
Ġbink ys
Ġchunk y
ĠMerc ury
Ġsher iff
ĠFo zzy
Ġunlo ading
Ġdiscuss ing
Ġhandc uff
Ġmould s
Ġeea i
ĠSpring time
Ġtanger ines
Ġnic nic
Ġsculpture s
ĠWolf ie
Ġzig zag
ĠBubb a
ĠBeat le
Ġcondition ing
Ġaffect ion
Ġattend ant
Ġtranscri be
Men ace
hand ed
Ġir ons
kl mnop
Ġsele ct
diddle y
Ġkl unk
ĠCe celia
ĠHam let
Ġscree ch
Ġalc ove
Ġchamp ion
Ġrespons ibility
ĠNest or
ĠBrand on
Ġexplod ed
Ġhaul ing
Ġconsider ing
Ġveter inary
ĠTen nessee
ĠCB BC
Ġconsist ently
Ġdetail s
ĠMath ilda
ĠCup cake
ĠCamp bell
Ġslith ery
ĠLet ter
uman ji
Ġreb uild
ĠKoosh ball
Ġnur sed
Ġcoff ees
Be ilbie
ĠFitt is
ĠGob lin
Ġsalam ander
Ġamuse ment
Ġhunts man
Ġfest ival
Ġrefres hing
Ġmanipul ate
Ġdrr un
ĠCheet o
heim er
Ġcompet ition
Ġinvestig ate
Ġirr it
Ġfav ourite
Ġtenta cles
Ġfreed om
ĠCorr ine
ĠStrip y
Ġthera py
Ġcentip ede
Ġwes tern
Ġterra pin
ĠDinos orter
ĠAustra lian
Brow ne
Ġlux ury
ĠNev ada
Ġkaleid oscope
ĠTare nce
ĠLasha wn
ĠIslam abad
ĠCornfalk es
A id
B ounce
D a
D is
D ock
D ickory
D uke
H ampshire
J www
M S
M s
N AO
O r
P ony
R eed
S US
V AL
W ashington
W uzzy
a www
b ith
c ity
e be
h al
h onk
i at
l it
l um
l ady
l akey
m es
m et
m id
m one
o in
p igs
s n
t ea
u cc
u cing
w it
Ġt t
Ġt ubbies
Ġw inky
Ġw iddle
Ġa ster
Ġy el
Ġi y
Ġh ing
Ġs ist
Ġo der
Ġo lymp
Ġo boe
Ġd ick
Ġd us
Ġd eet
Ġd ent
in ie
Ġb ish
Ġm al
Ġm eek
an i
Ġn as
Ġn uff
Ġn ya
Ġn yah
ĠI nce
Ġp ook
Ġgo op
Ġf aking
Ġf aw
oo ah
Ġhe uh
is in
Ġwe dge
Ġha l
ke l
Ġsh attered
Ġyeah huh
ar otti
Ġr and
Ġr ookies
en ting
Ġe u
Ġli lies
Ġk ool
Ġk ully
Ġk its
Ġk nac
ch ain
ch ops
ĠM i
ĠM ak
Ġba abaa
Ġput t
Ġpl ugging
Ġright o
am ation
Ġgon k
Ġch ing
Ġch orus
Ġch annels
ra ve
Ġso ci
ill age
Ġbut chers
ĠD ink
ĠD ew
ĠD isp
pp a
and sworth
ta g
Ġtw itch
ĠT ri
ĠT utter
Ġbr id
Ġbr andy
Ġab re
oug e
oug her
ol es
Ġbl ush
Ġbl oke
Ġbl imp
ĠS ox
ĠS iam
Ġfr anks
ĠC ay
Ġsp ose
Ġsp ying
ĠB aker
ĠB isc
ĠP ops
ĠJ oh
ĠJ ama
ĠJ umbo
ĠJ umanji
ab od
ab ata
Ġcl in
Ġcl aps
Ġcl earer
RO N
Ġneed a
Ġdr oopy
eep ee
Ġsl ack
Ġsl ided
Ġtra l
me x
ĠF a
ĠF ra
Ġbu bu
Ġman aging
ĠL oley
ĠL agoon
ĠL adders
ĠG ummy
air yl
th ree
el or
ob ster
Ġfl an
Ġcat h
Ġcat fish
ĠE n
ead ed
ood a
Ġcr itter
Ġcr usher
Ġar ts
Ġar rr
ĠCh urch
ĠR ic
ĠR ush
orn er
Ġpr oof
Ġhor ri
Ġdi als
Ġgr ams
Ġgu ll
Ġmin ib
ĠW alk
ĠH y
ĠH ersh
Ġde b
Ġaf ric
Ġdin a
Ġex it
Ġbus am
ous ine
Ġwow ee
Ġsn ipping
Ġwalk walk
ĠK ello
ĠK elley
Ġsqu el
Ġdat a
Ġsna kie
Ġgl ows
umm ings
pe cial
icke l
Ġdri bbled
Ġeight s
ĠMa zy
ny um
Ġpain ters
ub ar
Ġten s
Ġun gh
Ġun iverse
Ġsun suit
pl ady
Ġfavor s
Ġbrush u
Ġbutton ed
Ġdrive d
Ġpost ers
Ġtin ned
Ġbat ty
Ġbar racu
Ġwall aby
Ġsoon y
cl ear
Ġdust ed
ĠAdam s
ĠU tah
ĠV is
ĠV ol
Ġstre ak
Ġmeow s
ĠSh rew
ĠZ ealand
ĠSt ream
Ġshake n
Ġcur se
Ġdump ers
ĠMar x
Ġpa ving
Ġnee na
Ġkey board
Ġph il
ĠEm erson
ala f
ĠY uppy
Ġtight ened
Ġfam ilar
Ġmedic al
Ġsplash y
lew orm
ĠIs a
Ġrow dy
ĠBl andsworth
Ġpoop sie
Ġbra ck
Ġes k
Ġwigg leworm
Ġjo ins
az oo
Ġcock yro
Ġfig uring
nth ia
mm m
Ġrem ark
Ġrubber y
Ġrubber band
Ġpony tails
ĠFather s
Ġroo ft
iv il
Ġdess erts
Ġcre ated
erg us
ĠPh yllis
ĠMac cles
Ġdigg ed
Ġshoo ter
Ġbank s
Ġvacuum ed
ĠGold ielocks
ze ma
ĠQu ik
Ġtem ple
Ġmeasure s
ĠStep ney
Ġtat oo
Ġtat tle
Ġet cet
Ġgigg led
Ġgigg ler
Ġearth qu
Ġye i
Ġdelivery s
Ġur inate
Ġviol ets
Ġrel ease
Ġroast ed
Ġlazy bones
Ġpath etic
Ġdrove d
Ġsprink led
Ġprotect ed
Ġfry s
Ġblind fold
Ġins pect
Sh ore
Ġsqueez y
Ġserv ices
Ġwond ers
Ġconfu se
ĠCait lyn
Ġcons cious
Ġdou ie
Fr aser
Ġmilksh akes
Ġbw ack
Ġuniform s
Ġconf etti
Ġfellow s
ĠBal mex
ĠHan uk
Ġfiretruck s
Ġletterbox es
ĠSqu irrel
Ġoow ee
Ġloc ust
Ġlim ousine
Ġspee dy
ĠAsh ay
ĠAsh worth
ĠMag na
Ġslam ming
Ġmodel ing
Ġteaspoon s
Ġrefle ct
Ġmate y
Ġinteract ion
ĠBrend an
Ġempt ies
Ġcliff s
Ġdescri bing
Ġtam ar
Ġsquid gy
Ġunpl ugged
Ġprov idence
Ġtant rums
Ġick le
Ġbou quet
boon y
Ġmur m
Ġiss ue
Ġunw ra
Ġbung ed
ĠCas per
Ġcapture d
ĠSpark ly
Ġdeg ree
Ġcoup ons
Ġtranscri bing
Ġsump n
Ġdope y
Ġinit ials
ĠKr issy
Ġexcl amation
Ġautom atically
Ġcolour s
Ġcoaster s
ĠPeek ababy
Ġgravit ated
Ġspir al
Ġcockroach es
Ġcraft s
ĠStew arts
ĠCy nthia
Ġmemor ized
Squ are
Squ amy
Ġelectron ic
Ġsib lings
ĠNest le
Ġhan abata
Ġore o
ĠZe ven
Ġillustr ations
ĠDes ie
ĠWor zel
Ġexhib it
Ġwur ly
ĠThumb kin
Ġeey ore
Ġgond ola
Ġven om
Ġgos ling
chen ia
ĠSpaghetti os
Ġdivers ion
poll ies
Ġmort g
su dden
Ġec zema
ĠDalm ation
Ġsax ophone
ĠBul gie
ĠAy isha
Ġfrequ ently
Ġtransform ers
rau chenia
Ġtradition al
Ġtoadstool s
Ġdrench ed
cond ition
Ġbach elor
Ġwhass at
ĠSof ia
ĠCrisp ies
Ġmering ue
HO U
Ġchandel ier
Ġbudd ies
Wonder land
Ġveterin arian
Ġhilar ious
ĠIch abod
ĠDyl an
ĠCove nt
ĠPav arotti
ĠGof er
Ġgribb et
ĠVase line
Ġmaca que
MS X
ĠInce y
Ġrand om
Ġknac kered
ĠBisc os
airyl ea
ĠHersh ey
ĠMaccles field
Ġetcet era
F ox
K angaroo
K ER
L ea
L am
L ocky
M other
M ean
M oppet
N ai
N oah
P en
P www
S id
S py
S weet
T ess
T ail
W illiam
W ooba
d an
d ust
d iddy
e c
f y
f ive
f isher
f airy
g re
h appy
h attan
k ad
m ation
m ala
m ickey
n k
o em
p et
p ut
p ss
r s
r ough
r ove
r iding
s www
t ling
u na
u ra
u ble
y uh
z oo
z ags
Ġt ss
Ġth irds
Ġw iv
Ġa et
Ġa eh
Ġy ickity
ou cester
Ġi l
Ġh ou
Ġh ips
Ġh hmm
Ġs oot
Ġs ips
Ġs atchel
Ġb ip
Ġb ady
Ġb ana
Ġb oof
Ġb oops
Ġg ape
Ġg em
Ġm ea
Ġm our
Ġwh irl
Ġn au
Ġn av
Ġn ation
Ġdo om
Ġdo os
Ġl air
Ġl eek
Ġl urch
ĠI da
Ġp koo
es an
oo ch
Ġhe dges
Ġto to
om mit
Ġwe eee
Ġu ht
Ġin ner
Ġin fect
as ers
id ee
Ġthis tles
ar rot
Ġr is
Ġr isk
Ġe val
Ġbe got
Ġbe any
Ġk sh
Ġare as
ch et
ch ristmas
ch ugga
ĠM addy
ĠM ah
ĠM ild
ĠM uffy
ĠM ighty
Ġst ye
ot ap
um ed
Ġre ed
Ġre edy
Ġj ist
Ġkn its
Ġba hm
Ġba ggie
Ġba bble
Ġpl ump
Ġknow ed
Ġall eg
Ġch am
op oly
ra it
itt ery
Ġout g
Ġbut tie
al ia
ĠD un
Ġthem self
and ed
Ġtw ine
Ġbo ast
ĠT affy
ick i
il ah
il izer
us sed
ĠS at
ĠS um
ĠS ol
ĠS af
ĠS utton
ĠS odor
Ġfr ow
Ġfr idges
ĠC oney
ĠC oop
ĠC rist
ĠC lin
ĠC enter
ĠC ici
ĠB ad
ĠB il
ĠB uba
ide l
ĠJ C
ĠJ oke
ĠJ ude
eed eed
ĠA str
ab ur
Ġbook let
Ġah oy
Ġdr ing
Ġdr un
Ġdr ugs
Ġthing ie
Ġtr icycles
Ġtr ophy
Ġsom es
Ġhad da
Ġsl op
Ġsl ush
ĠF ree
ĠF ant
ĠF ooba
ĠN othing
ĠL A
ĠL enny
ĠL oni
ĠL alas
ip h
ĠG agi
Ġcom ments
th ead
el a
Ġball on
Ġcat ap
Ġcat ty
ant u
Ġqu acked
ood oodoo
ang ular
ool a
be ha
ate mala
ĠCh icky
Ġle ans
oc ent
ĠR un
ĠR olley
ĠR ussell
ĠR angy
Ġse qu
Ġbed side
Ġsm oky
Ġpr ide
Ġpr une
Ġdog house
Ġv rum
Ġdi pper
Ġgr ating
Ġgr ammy
Ġtea bags
Ġdear s
Ġmean y
ama call
bb th
Ġyell s
ĠW i
Ġlea pt
Ġbear ds
ĠH ung
ĠH undred
ĠH az
Ġhur ric
Ġsho ving
ade h
Ġhair do
ĠGr ay
ĠGr ady
Ġdraw bridge
uff les
ĠK ra
Ġam used
arm esan
Ġsaw dust
Ġbefore hand
ew ee
Ġstand ed
Ġsix es
Ġear m
Ġleave d
Ġfix er
Ġact ress
Ġwhoop ie
Ġsk ys
cu st
Ġcry st
Ġbutter scotch
Ġfell as
oth ay
Ġtouch y
ub u
Ġchocol aty
Ġbad i
Ġun ited
Ġun ique
Ġte h
Ġte i
Ġsun light
Ġquick s
Ġro ver
Ġta i
Ġban ister
ĠO lly
amp s
amp y
Ġem m
Ġteet er
Ġhah ahaha
Ġbutton ing
Ġdress y
Ġfinger prints
Ġsheep y
Ġrecord ings
Ġboo bs
Ġboo boop
Ġbel ch
Ġdig ital
ĠBr idge
ĠBr ambles
anc ing
Ġlo xy
Ġroad block
Ġgrass y
Ġpat atas
ĠV eg
Ġpear l
Ġlad le
ĠSh ow
ĠSh elley
Ġbin men
ĠZ ebra
Ġmar aca
Ġbur ying
Ġexc ess
ĠSt ore
eb a
eb ag
Ġmeat s
umb under
ĠAnd ers
Ġpin ches
Pat el
Ġcroc us
uzz i
ĠMar ge
Ġmis beha
Ġmot ion
ĠMat tie
Ġpee you
Ġshort cake
ugg er
ĠEl ise
Ġtid al
Ġding le
Ġspr ings
ĠY o
ĠY vette
Ġfair ys
Ġmail truck
Ġmum s
Ġsquir m
ĠMic ros
Ġjam as
ĠBen ji
ĠPlay bus
ĠSc uttle
ĠMan hattan
Ġbelieve d
Ġad o
ĠFl air
Ġvide otape
ĠFire ball
Ġcraw lies
Ġind ent
ĠAb u
Ġbackpack s
Ġcal ories
ĠDip sey
ik o
Ch a
Ch oice
Ġsticker birds
Ġpeep ed
Ġpor po
Ġhook ing
ĠBrian na
Ġgrab by
Ġcoo ey
Ġssh h
Ġadd ition
Ġext inct
Ġund ies
Ġimag ining
Ġcab s
Ġbon ka
Ġnood ly
ĠPh illip
Ġabs or
Ġarr gh
Ġteapot s
ĠMon ty
Ġwild ebe
ĠTr ader
ĠCorn wall
Ġbeef burger
ĠBrook s
Ġder z
Ġspread er
Ġpract iced
ĠAll ulah
ĠGl oucester
Ġgen uine
Ġdep ress
ĠDoug ie
head s
Ġcord er
Ġsmash es
Ġhugg y
Ġmam am
Ġbeepbeep beep
Ġass uming
Ġcoun ters
Ġdw ink
Ġpath s
Ġfet ched
Ġtim iam
gi ant
Mar vel
Ġcabin ets
Ġbuff et
Ġsig ning
Ġscram ble
ĠXav ia
Fr ances
ĠGreat grandma
ĠPopp et
ĠRen ita
ĠSe c
Ġbrief ly
Ġeen y
Ġthump er
Ġbrrm brrm
Ġfer ocious
ĠSqu at
ĠGav vy
Ġstair way
ĠGu atemala
Ġraw ring
Ġdomin o
Ġcontin ued
Ġabra cadabra
buh buh
chan ic
Mc Gregor
Ġpostc ode
ĠTick ing
Bl ue
Ġeyel ids
Ġts air
Ġconst ant
Ġyee hah
Ġcw eam
iddly dum
Gre edy
Ġpi ya
Ġchir ping
Ġdibble y
ĠWinter time
Bus y
Ġwhing ebag
ĠWest on
Ġunpl easant
Par ty
ĠDot tie
ĠLex i
ĠSab ina
Ġoog a
Ġgrav ity
yp us
Ġaim ing
Ġzig zags
Ġport ion
Ġanem ones
Ġtun es
Ed die
Ġremove d
ĠCom m
ĠKr usty
Ġassist ance
Ġencou ra
Ġunc onscious
Ġmoist ur
Ġpish y
Ġpish ie
Ġpont oon
Ġmant is
Ġglow ing
Ġpure ed
Ġscall ops
Ġscrunch ed
Ġbos oms
ĠPip o
ĠRug rats
ĠWonder land
Ġara ffe
Ġunpack ing
Ġjac uzzi
ĠEs mere
ĠBack pack
AA A
pain ting
pain ts
ĠBudd ha
ĠCow boy
ĠIr ish
Ġfeature s
ĠProtocer otops
Ġdill o
Ġcoot chy
Ġshaw l
Ġcru ise
ĠShal om
spl ash
Ġcit rus
ĠPitts burgh
Ġvir us
Ġglor ious
Ġrefre sh
Bil bey
ĠCrunch ie
Ġtatt ly
Ġprecise ly
ĠBang or
Ġprofession al
Ge orge
Ġadi adi
Ġdumbb ell
Ġintellig ent
Ph il
Ġlyn x
Ġairk ane
Ġfluor ide
Ġaggress ive
bith othay
mid t
Ġvenom ous
Lam plady
oem aker
ĠAstr id
Ġmisbeha ving
Ġwildebe est
A lex
B ridge
G u
G oose
H MO
K ee
K itten
P ie
P olly
R unday
S ar
T ed
T ubby
U m
V ale
V ille
W ipsy
Y ears
b ak
b rown
b oots
b obbin
c andy
c ards
d eh
g reen
h ag
h oliday
i u
i en
i ara
l ah
m i
m ak
m oon
m ond
m iah
m unds
p ace
p ond
r ig
r unner
s ocks
s nail
t est
t ractor
v ar
y er
y ee
z al
Ġt is
Ġth ir
Ġth ud
Ġa wn
Ġy abb
re ens
Ġthe et
Ġs ookie
Ġd il
Ġd illy
Ġd ips
in ken
Ġb or
Ġb ally
Ġc wash
Ġc uffs
Ġc ormor
Ġg ink
Ġg ush
Ġg gr
Ġm ung
Ġm ains
Ġm guh
Ġwh acked
an us
Ġn ines
er r
er ved
Ġdo id
Ġdo zy
Ġdo dge
Ġl ark
Ġl oss
Ġl int
Ġp her
Ġp oon
Ġp urs
Ġp ku
Ġf iddles
Ġf idget
oo my
Ġwhat so
Ġwhat dya
is bury
Ġto ged
it sy
or ate
ow ing
Ġin a
Ġin cey
id ered
ar rels
Ġr akes
Ġr uti
ht uh
on ation
Ġbe ck
ome o
Ġdon na
Ġk al
st ory
ĠM ountain
Ġst unk
Ġst umble
Ġst abbed
ed o
Ġre in
Ġre ject
ic op
ic ill
Ġdid dy
Ġnot ep
Ġnot ices
Ġba f
Ġba les
im ate
Ġget cher
Ġpl ast
Ġan h
Ġmy umm
Ġsome ding
Ġju d
Ġall y
Ġall eys
Ġch acha
ra bb
Ġout line
ur ate
ur die
Ġbut ta
al ata
ore r
ĠD ug
ĠD over
uh m
and o
Ġbig s
Ġbig gie
ĠT ree
ĠT ai
ĠT essy
Ġher b
Ġbr itches
Ġbr ussel
Ġcar b
Ġcar ts
Ġal a
Ġal oud
Ġal tern
Ġal umin
ol ic
Ġbl ur
Ġbl amed
ĠS om
ĠS or
ĠS ian
ĠS nail
Ġsp ud
Ġsp ears
Ġsp erm
ĠB x
ĠB end
ĠB uff
ĠB ri
ĠB rist
ĠB uild
ĠB hag
ĠP ed
ĠP os
ĠP ickle
ĠA k
ĠA ld
Ġcl ump
Ġcl aim
qu a
Ġsl ash
Ġsl owed
Ġsl iver
me g
ĠF ed
ĠF ang
ĠF ield
ĠF lyn
ct uary
Ġthank ing
Ġthank ful
Ġbu zzz
Ġbu ggies
ĠN ed
ĠN eddy
ĠL ibby
ĠL yd
ĠG rett
Ġsw oosh
Ġcat tery
ul man
ul ation
ump ing
ich i
Ġwa fers
Ġqu eek
Ġcr it
Ġblue jay
ĠCh ance
oc on
ĠR atty
ist icated
Ġpie man
Ġsm ear
Ġke fir
Ġke ewee
Ġpr ickle
Ġsleep ed
Ġhi ves
Ġv ines
Ġv owel
Ġv icious
Ġdi z
Ġdi aled
Ġgr oom
Ġkind ly
Ġen th
ag ne
ag aga
Ġgu ava
Ġmin ie
Ġmin ty
ĠW oo
ĠW ren
Ġlea ped
Ġdrink er
ĠH ey
ĠH etti
ĠH att
Ġde ing
Ġfire wood
Ġex change
ĠGr iff
Ġnight y
Ġpen g
Ġpen ne
Ġdis m
Ġapp end
Ġapp eal
Ġkeep ed
Ġsn itch
Ġsn outs
Ġmon st
ĠK ee
ĠK iss
ĠK aw
Ġsqu ealed
Ġsna zzy
Ġtheir self
ac o
Ġfoot ie
Ġcheese burgers
Ġlight houses
Ġmat es
Ġgl ob
ĠDad di
Ġshoes hoes
ond o
pe es
ug u
Ġsk irting
Ġti kuh
Ġpar as
Ġeh uh
Ġtick y
Ġdre idel
ĠAn een
Ġpain s
Ġgra ze
Ġair craft
Ġtoy store
Ġsnow suit
Ġpol ishing
Ġro ly
oof oo
Ġbab ab
Ġblow y
Ġbi kin
Ġhah ahah
Ġtre ndy
Ġunt ies
Ġgi vin
Ġfinger paint
Ġfront wards
Ġgrand child
Ġboo gers
Ġbat ting
Ġbar ney
Ġrest ed
ubb le
Ġmoo dy
Ġper ch
ĠAd vent
Ġsea ane
Ġcon vert
ĠU ppy
ĠV alentines
ĠV illage
ĠSh red
ĠZ ig
ĠZ urg
ĠSt raw
ĠSt inky
Ġwake y
Ġboun ci
Ġpocket knife
amb ling
ĠAnd i
ĠAlex is
ning s
ĠAr iella
Ġbuck led
Ġmot el
Ġra aa
Ġpump ed
Ġstraight er
Ġstraight ened
Ġay ay
Ġran ned
gr ims
Ġding er
ĠBro ad
Ġpillow case
Ġhospital s
Ġdragon flies
Ġcoc o
ĠAl vin
Ġfireman s
Ġee uh
Ġsat ell
Ġclass ic
Ġbelong ing
Ġcomp are
ĠRach eal
Ġsquir my
Ġexcept ion
ĠIs adora
ĠHar ris
Ġstor ing
Ġgum balls
Ġsalt ed
ĠChrist ie
Ġcap es
Ġskin n
Ġskin ned
ĠAb bey
for ms
ĠPing us
Ġcal ip
ĠWh en
pr us
Ġplan ing
osh y
Ġboing a
Ġsof as
Ġcamp ers
men a
Ġtank ers
truck s
Ġzoom ed
Ġsle et
Ġstool s
Ġvacu ums
Ġsil very
Ġruff ruff
Ġant ique
Ġmacaron is
ĠCorn ey
bor o
ĠRy dan
Ġprom ises
ĠQu arrels
ĠCl own
Ġscra pes
Ġscra ps
ĠSal isbury
Ġpopp a
Ġpopp ys
gl ug
Ġcob bler
Ġscoo ting
ring ton
Ġswish swish
ĠCoc opops
Ġpres ume
Ġgolf er
ĠPr ingle
Ġluck a
Ġspo ils
Ġchoos es
aling aling
Ġpaw print
Ġsub mit
Ġcalend ars
Ġscri bbles
ĠPean us
Ġgrrr r
Ġmistake n
Ġdw ive
Ġped est
Ġpail s
ĠKing ston
Ġfa iled
Ġpant ry
Ġret arded
Ġins pe
Ġplat forms
Ġmall et
Ġcons idered
ĠKip ton
Ġdest ination
Ġgolden rod
Ġpap ups
Ġperiod s
ĠPopp les
dah dah
ĠPark in
tw inkle
Ġoper ate
Ġtack led
com b
Ġflush ed
Ġrack ets
Ġcatalog ues
Ġtelet ubbie
Ġpac ie
Ġwag s
And rew
ĠHuckle berry
ĠSl inky
Ġcarn iv
oodled oo
ĠTar get
ĠLi jah
ĠCle ment
Ġclunk am
ĠCor al
ĠJere miah
Mc Kee
ĠSouth port
Ġfeets ies
Ġcelebr ating
Br other
Ġling u
Ġresp onse
ĠBaloo ga
Ġdistract ing
Ġpla que
Ġcork s
ĠTan isha
ĠPee bee
Ġrelative ly
Ġtal ons
Ġexam ined
Ġcommercial s
Ġsem olina
ĠSch ulman
ĠKrist in
ĠInc red
Ġsizz ling
Ġvoc al
Ġanch ors
ĠMy ra
ĠJingle heimer
Ġcanoe ing
Ġic icle
ĠBry cie
Ġacrob ats
Ġinterrup ting
Ġopt ions
Ġclipp ity
ĠRo ch
Ġflood ed
Ġinf ants
ĠEli jah
ĠHer man
ĠDar rot
Ġstap les
Ġinn ocent
Ġmold y
Ġbic b
ĠPeek aboo
Ġdef ense
Ġsan ctuary
ĠMos osaurus
ĠCy prus
Ġpred ict
Ġchamp agne
Ġcarol s
Ġwou jou
Ġocc ur
Ġleafl ets
Ġrearr ange
Ġrearr anging
ĠPie pie
Ġng he
ĠRoll ie
rom at
ĠDes i
ĠBally mena
Ġlightbul bs
Ġporkch ops
Ġmorn it
ĠWin ne
Ġapproach ed
Ġgher kins
Ġsmar ty
record ing
Ġkook abur
Ġgh etti
Ġscold ing
ĠBright on
yai yai
ĠBudd ah
ĠOlymp ic
ĠPea body
ĠHoo bs
Ġhumid ity
Ġinstr uction
Ġbick ies
Ġgrandd aughter
Ġleot ard
Ġsnarl s
Ġmoc cas
Ġvouch er
ĠErn est
Ġaggrav ated
May berry
ĠSy mber
ĠZor ro
Ġflex ible
Ġoccup ied
Ġdescr iption
FI O
Ġchlor ine
Ġumh um
ĠRead ing
Put ty
Spen cers
Ġsoph isticated
ĠPir ate
ĠPets mart
ĠKnie vel
Dis ney
ĠSiam ese
ĠCay den
ĠJama ica
Ġafric an
nyum nyum
ubar b
Ġbarracu da
ĠStream vale
Ġearthqu ake
ĠHanuk kah
condition er
ĠCovent ry
ĠSum ara
ĠClin ton
ĠEsmere lda
Um brella
Ġtheet je
Ġcormor ant
Ġwhatso ever
icill in
Ġnotep ad
rabb its
ĠTai yo
Ġalumin um
ĠBhag ira
ĠFlyn n
ĠLyd ia
ĠDaddi ji
Ġbikin i
ĠQuarrels ome
McKee ver
Ġkookabur ra
B art
B ike
D er
D aw
F e
F ace
F ussy
F oster
G o
J ane
J ean
K enny
M u
M y
P ickles
T ab
T witch
W obble
W incey
b athing
b bey
c op
c ans
d it
d up
d www
e led
f it
f arm
g ines
g lo
h ippo
j oo
k itten
k ken
l oop
m ob
m eas
m ens
n at
o ing
o ids
p ta
p each
r im
r ose
s at
s uck
s nap
t icks
v i
v ation
w ab
w ool
w ist
w incey
z il
z ade
Ã ©
Ġt el
Ġt ugged
Ġt uffet
Ġw ap
Ġw eared
Ġa ugust
Ġy ol
Ġy iy
Ġy odel
Ġi ii
re ating
Ġh w
Ġthe rap
Ġs ie
at osaurus
Ġo on
Ġo int
Ġd d
Ġd ain
Ġd ers
Ġd ady
Ġd itter
Ġd ickey
in ery
Ġg am
Ġm ast
Ġn ude
Ġn ickle
Ġn yum
Ġn ational
Ġl y
Ġl ops
Ġl anes
ĠI ts
Ġp ookie
Ġp ups
Ġgo ob
Ġgo als
Ġno str
Ġf en
Ġf ra
Ġf ert
es is
es ty
ay o
Ġwhat ta
is elle
Ġto ppled
Ġto bac
Ġha u
ke h
ve ls
Ġu ck
Ġu buh
ee h
Ġin con
ut ian
Ġsh opper
Ġsh oppers
ar atus
Ġr ises
Ġr ided
Ġr aptor
en ic
Ġe con
Ġbe ret
Ġwan ds
ĠM is
ĠM ap
ĠM orning
ĠM ason
ĠM indy
ĠM oses
Ġst o
Ġst inger
ot es
ot ion
um as
Ġre els
ic ation
Ġj is
Ġj umbo
Ġba c
Ġba le
Ġpl uck
Ġan o
Ġan im
Ġgot chu
od els
Ġall ergy
Ġat h
Ġat s
Ġat en
itt a
ear don
un ci
Ġbut ty
ĠD unn
ĠD ent
ĠD em
ĠD ym
ĠD airylea
uh s
Ġtw erp
Ġbo f
Ġbo ke
Ġbo ar
Ġbo gey
ĠT un
ĠT ole
ĠT ater
ĠT uffy
ĠT ubbie
ind ers
il ot
il ities
Ġbr oad
Ġcar seat
Ġor an
Ġor chard
Ġwhy d
Ġal ter
Ġbl aming
Ġbl ablabl
ĠS ur
ĠS eam
ĠC op
ĠC ock
Ġsp ades
ĠB re
ĠB ik
ĠP oh
ĠP andy
ĠJ jay
Ġsa c
Ġsa ggy
Ġover d
Ġover t
ab ies
Ġbook shop
Ġwill o
me ichel
ĠF ae
ĠF oster
ĠF inding
oon oo
Ġbu ggie
ĠN elly
ĠL um
ĠL os
ĠL ike
ĠL iv
ĠL illip
ĠG oggins
ĠG adiga
of essor
Ġcom ple
th est
Ġsw ash
Ġfl opping
Ġfl ashed
old emor
Ġsit ing
ĠE iff
ĠE gypt
art ments
Ġshall ow
Ġcr out
Ġcr ater
Ġcr aters
Ġblue bells
Ġblue jeans
be at
Ġle h
iss ion
ĠR C
ĠR es
ĠR ad
ĠR eg
ĠR ocke
ĠR eardon
Ġse x
arl een
Ġsc uttle
Ġpr os
ph ib
Ġdog fish
Ġv rr
Ġv rap
Ġdi jou
Ġlove you
Ġhear ken
Ġen cl
bb et
bb ah
Ġhead aches
Ġwon ky
ĠW el
ĠW www
ĠW iz
man ce
ĠH ut
ĠH igg
ĠH ooey
Ġstop per
Ġhur dy
ft o
Ġnight dress
Ġpen ises
uff in
Ġdis ob
Ġdis ag
Ġapp aratus
est on
Ġsweet er
Ġcow girl
Ġsn iss
Ġbreak able
Ġorange y
ĠK ong
Ġam phib
Ġbird house
ri but
ipp ies
Ġstart led
Ġgl am
Ġgl ues
Ġgl ittery
Ġgl oomy
ug uh
Ġsk ated
Ġpar ag
Ġbea gle
Ġstr ang
Ġstr uct
ins ky
Ġair ing
Ġpart ly
Ġbow bow
Ġsun bathing
pl er
pl op
pl orer
Ġro ach
ĠO ak
ĠO pa
ĠO la
Ġbab oom
Ġbab abab
Ġstar ry
Ġsock y
Ġwet ting
Ġbrush a
Ġbrown ish
Ġtail or
Ġmiss ile
Ġfront s
Ġkitchen s
Ġboo ger
Ġbat cher
Ġbat tered
anc isco
Ġcater p
Ġlo aves
Ġquack ing
Ġlor dy
ĠJean nie
Ġuhuh uh
br ake
Ġcon cl
Ġcrack ling
Ġpat ted
Ġdel ious
Ġmus lin
ĠSp ock
ĠSp uds
ĠSp yro
ĠV er
ĠV el
ĠV oldemor
ĠBe es
ett one
Ġspl od
ĠSh ara
Ġcheck book
Ġwhee zing
Ġswing ed
Ġmar ries
Ġsick ness
ĠMich eal
ĠSt ret
ĠSt eady
igg s
Ġcur ds
Ġcur ling
Ġpin nie
Pat ch
Ġseat ed
Ġhipp y
ĠMar ilyn
Ġra ven
Ġpump y
Ġay ayay
Ġpet un
Ġmach inery
ĠJack o
Ġbeach es
Ġnut meg
Ġrub ies
Ġpay a
Ġstrong est
Ġcoc a
ĠY es
ĠY odels
bble man
Ġclass ical
Ġcomp artments
Ġsquir ter
Ġrac ers
Ġpan ettone
ĠSm iley
ĠEr li
Ġrow row
ĠLu co
ĠBl ake
Ġbaa a
Ġrh ubarb
Ġtu x
Ġcap able
Ġbuzz er
ĠHe ctor
Ġtrip les
Ġcock pit
no x
Ġcal ves
Ġcal ocks
Ġma iled
Ġsew age
Ġang ler
Ġreg ard
Ġreg ret
ĠGre if
Ġshove d
Ġtweet ing
Ġboing boing
oph ane
go ing
ĠMc C
Ġcre ak
Ġoce ans
ĠCon c
ĠMac Gregor
Ġreason able
ffic ient
Ġru ins
Ġste ers
ĠJim by
Ġwild life
ĠRich ie
ĠTr oy
Ġbash ful
ĠMay flower
Ġprom pt
ĠGl ig
ĠQu ick
Ġbulldo zers
Ġseed lings
Ġrep el
Ġscoo ch
ring les
Ġsniff y
Ġdist inct
Ġdeal ing
Ġtat os
walk er
ĠCol umbus
sk ip
Ġsting ed
Ġknot ted
Ġspark lers
Ġbill et
curr ant
Ġbrave ly
Ġfee ly
Ġblackcurr ants
umn umn
Ġsidewalk s
Ġjeep s
Ġsep t
ĠBee chy
Ġash ay
Ġwrist watch
Ġpos itions
Ġsss h
ĠDu kes
Ġprick les
Ġgarl and
ĠTy ke
Ġstud ied
ĠBlack ie
Fr ancisco
ĠSher ine
ĠSher man
Rob inson
Ġbul k
Ġpup ils
Ġbob cat
rod on
Ġbunk house
Ġinc ense
Ġartist s
Ġfac ed
Ġnan anan
Ġunscrew ing
Ġmmh hmmm
Ġbzz zz
Ġstitch ed
Ġastrona uts
Ġcell ophane
Ġelastic s
Ġwhack ing
Ġpolite ly
ĠTer r
ĠAust ria
Ġauber gines
Ġflu ore
Ġtrot ting
ĠAnt s
Ġfir ing
Ġdoc doc
Ġtrim ming
Ġmechan ical
Ġbald y
ĠTan ia
Ġincred ibly
Ġbree zy
ĠSch midt
Ġdar ning
Ġmoom oo
Ġarrange ments
Ġpars nip
Ġdor tion
Ġgaz a
Ġinvent ed
ĠChic on
ĠMin or
Ġhabit at
Ġopt ician
Ġpod s
Ġplow ing
Ġtort illas
ĠMorris on
bes que
ĠHer mit
ĠBeat les
ĠBed elia
ĠBean ice
Cr ocodile
ĠMoom oo
ĠReady brek
Ġnoo k
Ġinit iate
Ġinn keeper
enn ium
ĠFam ilia
ĠChew bac
ĠTigg ie
ĠBan ner
Ġelf s
ĠHipp o
Ġhoof s
Ġgat ta
Ġunc over
ĠLong port
Ġnovel ty
Ġlens es
Ġscree ching
Ġsnuff ily
Lou ie
Ġoffic ial
Ġorch id
Ġest ate
ĠPunch en
ĠBron wyn
Ġperfor mance
Ġara besque
Ġtwink ling
ĠRoll s
ĠFro ggie
Ġval ue
Ġspec ta
ĠSil ver
ĠSil vie
Ġmeg ablocks
ĠPac ific
Ġimpr o
Ġswoop ed
tur vy
Ġrev ol
Ġgaw age
Ġgree k
ĠSpir it
Ġinstr uctor
Ġdeser ves
Ġmack intosh
Ġwann u
Bean stalk
ĠGos pal
ĠEv ans
Ġclement ines
ĠLea p
ĠMus ic
Ġtarant ula
Ġweap on
ĠMach rauchenia
ĠGogg in
Ġunp acked
ĠJew ish
ĠLes ley
Ġmultip le
Ġdroo ly
Ġfreshen ers
ĠPuds y
Str ong
Ġkern els
Ġrus k
Ġhelip ad
ĠViv ian
Ġfres her
Ġhyacin ths
ĠDew ey
ĠJoh anna
Ġesk imo
Ġtamar ra
Ġmortg age
gre gor
ĠCrist opher
ĠFant asy
ĠGrett al
Ġseaane mone
Ġconvert ible
Ġsatell ite
Ġoint ment
Ġtobac co
Ġecon om
ĠDym et
ĠTole do
ĠSeam us
ĠLillip utian
ĠEiff el
ĠVoldemor te
ĠLuco zade
ĠChewbac ca
A MA
C ity
F y
F red
G er
G wen
H orse
K EI
M RS
P u
P oint
P ussy
P eng
R a
R ichard
T ower
T winkle
W ind
W ater
W orm
b www
c ies
c omp
c entre
d est
d ita
e k
e ge
f ace
h igh
h ors
j ory
j uba
l p
m eeny
n oodle
o z
o lyn
p ach
p ac
p itter
p urr
p oint
s akes
t um
t owels
u ht
w is
z ip
z os
É ©
Ġt ang
Ġw ren
Ġw iz
Ġw arth
Ġy ummers
ou w
Ġi k
re th
Ġh in
Ġthe ory
Ġs way
Ġo pa
Ġo ctop
Ġo bey
Ġd eedee
Ġb ucky
Ġb wah
Ġc ym
Ġc ogs
Ġc ivil
Ġg uts
Ġm r
Ġm as
Ġm up
Ġm aps
Ġm az
Ġm ammy
Ġwh i
Ġwh uh
Ġwh iffy
an th
Ġn nd
Ġn aught
Ġdo obee
Ġl ous
Ġl av
Ġl oopy
Ġl iner
Ġp ab
Ġp kk
Ġgo bbled
Ġgo ggle
Ġno s
Ġf raid
Ġf iles
Ġhe w
Ġhe hh
Ġto ler
om ite
om est
it zer
ke ley
or i
Ġin h
as is
as ion
Ġsh i
Ġsh ay
ar p
Ġr ic
Ġr ra
Ġr oping
Ġe guh
Ġbe ull
Ġli mb
Ġk am
Ġk rite
st ock
st ract
ad os
ch ess
ĠM ct
ĠM oh
ĠM ody
ĠM ala
Ġst off
Ġst ilts
Ġme es
ed ral
ot ta
Ġre er
Ġre char
Ġj ade
Ġj umble
im ing
Ġput ty
Ġget tin
Ġpl ip
am ame
Ġnow aday
au na
Ġsome um
od i
Ġch ut
op op
ra lt
Ġso iled
un ster
al con
ĠD om
ĠD und
ĠD iet
pp es
ta b
ta bly
Ġplay in
Ġbo c
ĠT ea
ĠT as
ĠT ish
ĠT ibby
ind ergarten
Ġor phan
Ġab rio
Ġab stract
ol ar
ol antern
Ġbl uh
Ġbl izz
ĠS oppy
ĠC ant
ĠC ool
ĠC ream
ĠC ami
Ġsp ed
Ġsp ons
Ġtoo ked
Ġtoo ken
ĠB ree
ĠB orn
ĠB rew
ĠB uttons
Ġhas h
ĠP em
ĠP ud
ĠP ots
ĠP ringles
ive ly
ĠA vis
Ġover l
ab ian
Ġne ow
Ġhm mm
Ġbook ing
Ġbook bag
Ġah ee
Ġdr o
Ġdr ull
Ġdr inken
Ġtell er
ue ger
ĠTh om
Ġtra ced
ĠF ar
ĠF airy
ĠF ifi
ĠF alcon
ĠF abian
Ġbu gga
ĠL ost
ĠL anc
ĠL illian
ĠL oret
ip ts
ĠG an
ĠG ita
ĠG antu
el o
el opes
Ġbit atin
Ġgre m
Ġfl or
te ous
ĠE vie
ich ael
Ġwa iled
Ġqu ad
Ġqu iver
Ġcr is
Ġcr inkle
Ġpu bs
Ġred uced
Ġar ched
ĠCh ap
ĠCh utes
Ġle i
Ġle le
Ġgone gone
ĠR am
ĠR aw
Ġse is
ah n
Ġsc reens
Ġche ery
ph a
Ġbox er
Ġhi re
Ġwr it
Ġv am
Ġdi agon
Ġgr annys
Ġen em
Ġgu d
Ġgu guh
Ġhead light
Ġmin us
ĠW iggle
ĠH op
ĠH ug
ĠH onk
ĠH ondo
Ġstop light
Ġex otic
Ġunder arm
Ġbus ses
Ġco kes
Ġour self
Ġdis pens
Ġapp ul
est ion
Ġsweet pea
Ġnew est
Ġegg ies
Ġsn ipped
ss h
Ġz ipp
aug h
sh it
Ġsna ky
Ġfoot race
Ġhar vester
Ġmat ure
Ġnum n
aw u
Ġsk oo
Ġbea rer
Ġstr oked
Ġdri ft
bo iled
ĠAn k
dd ings
Ġrun t
Ġun wind
Ġer up
Ġbottle d
Ġguess es
ort s
ĠO w
ĠO ce
ĠO bi
Ġsau ces
ull ab
Ġpurp ly
Ġbreakfast s
Ġhop ital
Ġring ed
Ġcorn ed
ĠMr pot
Ġbeep ed
Ġdad ad
Ġpizz er
oun cing
Ġboo gy
ling ton
ries t
Ġpo etry
Ġwall a
app le
ider m
cl ips
Ġcray fish
ĠCar olyn
Ġac qu
Ġwarm s
Ġwarm ly
cil ia
Ġgrass es
Ġcon k
Ġcon text
Ġdel ph
Ġdra pe
li k
Ġap rons
Ġap atosaurus
Ġpress es
ric tor
Ġspl atter
ĠSh ay
ĠSh ere
ĠSh ep
Ġcheck up
Ġmen ace
Ġbur dock
ĠSt op
Ġpin a
Ġpin ny
Pat s
Ġpers u
Ġcu ppy
ĠAr t
ĠAr chers
Ġmot ors
Ġfo als
Ġpee jays
Ġshort cut
gr and
gr uff
ĠJen nings
Ġim m
era i
ĠJack in
box es
ĠMichael a
ĠPl um
ĠPl atford
Ġding y
Ġtri os
Ġwhoo s
Ġdoo by
ĠY oyo
ĠAl but
Ġter iy
ĠTom a
Ġpan ty
stand ing
Ġdes p
Ġrow r
ĠPlay mob
ĠMickey mouse
ĠLu ci
ĠCr oc
ĠCr ocodile
Ġstor my
Ġliving room
Ġbull frog
Ġbull shit
Ġhoo ter
Ġfill ings
ĠFl ower
ĠFl upper
Ġrob it
Ġtrail s
Ġhum or
Ġhum ong
eth od
Ġrad ator
Ġheart beat
Ġbubble gum
for ce
Ġhu llo
ĠMax ine
ĠBer keley
mo i
Ġlose d
Ġfe athered
Ġpad ding
Ġext ras
Ġclear s
Ġjack olantern
Ġrail ings
Ġheh eh
Ġcre ate
Ġcre aking
Ġbumble bees
Ġbush el
Ġfuzz ies
Ġborn ed
ĠMac ken
Ġpunch es
Ġexpl ains
Ġshoo sh
Ġcop ilot
ode on
bar n
poo ed
Ġsur vey
ĠCorn flake
Ġlaund romat
Ġres ident
Ġchest s
Ġtee f
Ġroller coaster
gh ij
Ġtrans cr
ĠEeyore s
Ġunh ook
Ġjun ction
ĠAll i
ĠAll osaurus
ĠSean y
Ġcob s
ĠJam ar
Ġcor rid
Ġhonk ers
Ġwreck s
ĠPr ice
Ġplum erai
Ġed amame
Ġgall ery
ĠRoo s
Ġye ck
Ġfilm ed
Ġteen sie
ĠDeb by
ĠPu ddled
Ġequ ally
ĠJu an
LE E
Ġrel ations
Ġrel atives
keep ers
Ġdood oodoo
ĠEls a
ĠJe bba
Ġped iat
Ġporcup ines
Ġfa x
ĠKay low
Ġpss hhh
Ġble ch
Sh irley
Ġthread s
Ġdirect ing
Ġtrump ets
Ġjugg ler
Ġwrist s
bah bah
Ġmars up
Ġprick ers
Wh eels
ĠJust ine
Ġmod els
Ġsha ver
Ġconvers ations
Ġparticip ate
Ġgah b
Ġwuh s
Ġsugg esting
Cl own
Ġscoot ch
Ġconf ident
ĠMill enium
Ġorgan ic
Ġspacesh ips
Ġmug s
ĠMe ij
Ġscar ves
Red s
Ġbop bop
Ġprint ed
Ġphon ics
Ġmmh hm
bed s
Ġut ter
Ġoow oo
ĠGu in
Ġbooboo s
ĠWood stock
Ġlim es
Ġlim its
ĠBernard o
ĠTur kle
Ġheav iest
Ġconstr uct
ĠLi onel
nam es
Ġpriv acy
ĠCor inna
ĠCor vette
Ġhatch et
Mc C
Ġkaboom ps
Ġske w
we ppes
Ġparach utes
ĠDel ma
Ġconst rictor
ĠGlen n
Ġcockadoodled o
Ġwoofwoof woof
Ġsher bert
ĠJordan stown
Ġoog oo
ĠBrother s
An nie
Ġgaz pach
kk le
Ġthreat ening
Ġpron unci
Ġsuds y
Ġmart ian
Ġport rait
Ġinclud ed
ĠMer rily
ĠBed time
ĠJun ie
agag agag
Ġcour teous
Ġmak in
ĠCom o
ĠKr ueger
Ġhumming birds
Ġvulture s
Ġsusp ic
Kat z
Ġcaus es
ĠWild y
Ġunbutton ed
ĠBoun cy
Ġdev ice
ĠPter adactyl
Ġmeme m
ĠEur o
Ġrespons ible
jun iper
Ġtay berries
ĠRand i
Ġexplod es
ĠBeck ys
Ġagug uh
ĠWor cester
Ġinterf erence
Ġwhatch amacall
ĠSand iac
Ġconsist ent
Ġpier ced
Ġtipp iet
Ġgel atin
ĠScoo bie
Ġproduct s
Ġcloak room
Le ia
Ġintend ed
ĠHed die
ĠSpir o
leh em
onse nse
Ġgrandd addy
emor ial
Ġshrie k
Ġclement ine
Ġquat re
ĠRee ce
ĠRuss ia
Ġmock ing
Ġchur ns
ĠGrandp arents
ĠBlu et
Ar thur
Ġcomfor tably
Ġsuperher o
Ġdemand ing
Ġantibiot ic
Ġsyll ables
Ġdetect ive
Ġupp ity
ĠCrack er
ĠPorg ie
ĠRom per
Ġvict or
ĠGib ralt
epher d
Ġeleg ant
Ġaband oned
Ġsuff oc
ĠMoroc can
Ġreserv ation
Ġsubst it
Or ange
Ġsist uh
ĠDisp y
Ġbrid le
Ġclin ic
Ġsquel ch
ĠVol vo
William s
ĠMild red
Ġdrun ken
ĠWi bbly
ĠMicros pace
ĠBrist ol
ĠClement ine
meas ure
Ġyol ky
Ġditter wa
Ġlops ided
Ġpetun ias
Ġfluore scent
Ġgaza ggers
ĠMinor u
hors es
Ġwarth og
Ġcym bal
ĠMct ats
Ġnowaday s
ĠPem broke
ĠLoret ta
ĠRaw ley
Ġenem ies
ĠAlbut urkey
Ġteriy aki
ĠPlaymob il
ĠMacken zie
Ġpediat ric
Ġgazpach o
Ġpronunci ation
ĠSandiac re
ĠGibralt ar
A s
A mer
B s
B op
E www
F air
F unny
F ergus
G abr
K ats
K han
L incoln
L obster
M o
M ice
M ark
O wl
P a
P oo
P ink
P each
P aul
R ush
R ussian
S park
T ales
T ickle
V ER
W W
W at
Z ebra
b ock
b ike
b uild
c ard
c ott
d addy
d ob
d uper
d rum
d odger
f our
g ame
g urdy
h ot
h opper
h oven
j acket
m ast
m ia
n in
n ee
p u
p ard
r oe
s ac
t at
v as
v op
v ise
w eh
y eah
± o
Ã ±o
Ġt S
Ġt iggy
Ġt eepee
Ġw ak
Ġw art
Ġw ada
Ġw arf
Ġw aky
Ġa ent
Ġy adee
re ch
Ġh opp
Ġh wee
Ġh inge
Ġh obby
Ġs z
Ġs iding
Ġs iesta
at ro
Ġo m
Ġo ve
Ġo ar
Ġd dy
Ġd ind
Ġd ites
Ġd urn
in os
in ney
Ġb im
Ġb eed
Ġb ood
Ġb bb
Ġb izz
Ġc in
Ġc app
Ġc okey
Ġg urg
Ġm it
Ġm een
Ġm oshy
Ġm ethod
Ġwh it
Ġwh irling
Ġn I
Ġn ib
Ġn erve
Ġn igger
Ġl er
Ġp id
Ġp ry
Ġp als
Ġp its
Ġp ulp
Ġp ledge
Ġthat za
Ġgo ak
Ġgo bbles
Ġf em
Ġf iling
Ġf aker
Ġf erv
ea y
ay ing
Ġhe i
Ġto pping
Ġto ken
om en
et on
et am
et own
it ary
Ġha st
Ġha ves
Ġha lo
ke i
ve re
ee y
Ġin qu
Ġoh o
le ys
as aur
as ia
ut ed
ut side
Ġsh m
Ġsh uff
ar se
ar io
ar rr
en y
Ġcan na
ook lee
Ġe hm
on io
Ġbe gging
Ġli k
Ġli kkle
na pped
Ġk ap
Ġk ush
ad s
ad og
ch op
ch il
ĠM ul
ĠM ail
ĠM idge
ĠM eer
ĠM essy
ĠM enn
ĠM oppet
ir cus
Ġst u
Ġst ead
Ġst arling
Ġst yr
Ġme ga
ere e
ed ee
ed idi
Ġre mo
Ġre tr
Ġj apan
Ġkn o
Ġba uble
im en
im mer
Ġput er
yy y
Ġfor ced
Ġpl un
Ġpl onk
Ġpl eaded
Ġan ger
Ġan ne
am oo
am ford
Ġch ord
Ġch ica
Ġso ya
un s
ter ia
Ġbut thead
al aba
ĠD ump
ĠD ah
ĠD own
ĠD epot
uh l
Ġdown y
Ġum p
Ġum um
Ġtw y
Ġtw ee
Ġbo ll
Ġbo ister
ĠT ess
ĠT ale
ĠT inker
ĠT onto
Ġher on
ick er
ind eer
il ight
il ings
Ġbr i
Ġbr ides
Ġcar dy
ol ite
Ġbl anc
Ġbl inked
ĠS ty
ĠS iew
hm a
Ġfr ough
Ġfr illy
Ġfr isk
Ġfr othy
ĠC urt
ĠC era
ĠC inda
Ġsp a
ĠB J
ĠB un
ĠB rey
ĠB indergarten
ĠP ers
ĠP ep
ĠP ack
Ġoff ers
Ġoff ices
ĠA ir
Ġsa v
Ġsa vers
ab la
Ġne ater
Ġcl atter
ast on
ast rophe
Ġah choo
Ġthing amaj
Ġag ent
Ġmm b
Ġsl ink
Ġsl umber
Ġtra w
me l
ĠF e
ther n
Ġbu bye
ĠN oonoo
alk ing
ĠL at
ĠL as
ĠL ally
ĠL ub
ĠL ars
ĠL oddy
ĠL oyal
ip oo
ĠG oli
ĠG iselle
of stra
of oam
gg in
ting u
Ġgre es
Ġsw at
Ġsw ift
ard a
old ing
Ġcat astrophe
ĠE len
ĠE rik
Ġtime out
Ġqu iz
Ġcr ock
Ġcr ouch
Ġpu ke
Ġar c
Ġhand led
ĠCh ase
ĠCh ooklee
Ġle vels
ving ton
Ġse wn
ist ent
Ġwatch ers
Ġbre k
Ġsc ores
Ġsc anned
ent enn
oll ins
Ġke n
Ġpe es
ath a
Ġtalk er
thing s
Ġv v
Ġv ia
Ġgr asp
Ġgr unts
Ġbye baby
Ġen chil
ag ers
Ġmean est
Ġgu zzle
Ġwee oh
Ġwee wee
ĠW an
ĠW ob
ĠW ork
ĠW ein
Ġlea ked
ĠH ea
ĠH ooper
ĠH ospital
ĠH ofstra
Ġfire flies
Ġround er
Ġdin uh
Ġex ped
Ġdis tingu
Ġstick ies
Ġhot els
Ġnew er
Ġsn orting
Ġpig sty
ĠK el
ĠK ara
ĠK inder
ĠK arin
ĠK obi
Ġz o
Ġz uggle
Ġam orrow
ach er
Ġcut ty
Ġsqu eek
sh ake
sh ips
sh hh
ord ers
ri age
ri bbet
ac etam
av in
av ap
Ġlight ers
Ġmom a
Ġmom o
Ġgl oss
Ġpaper boy
Ġeyes ight
ren s
Ġaw e
Ġaw oo
Ġaw ard
room s
Ġcry baby
Ġsand ing
Ġbang y
abb age
ub urn
Ġseven s
Ġpart ial
Ġboat ing
Ġsun bur
Ġsun ken
Ġfly er
CO N
Ġta ct
Ġcorn meal
Ġunt angled
Ġdad um
Ġmo ver
Ġbowl er
oun cy
illi er
ans dale
Ġbar bell
Ġdere s
eak ley
oy le
Ġsweetie pie
Ġlo vable
ĠPet ers
Ġmoo o
Ġper m
Ġac ce
Ġtrack ing
int s
Ġoo zing
Ġdel ete
ĠU p
ĠU ba
ĠU ppity
ĠSp ic
ĠV ampire
ĠV eron
ĠBe eston
led oo
li f
ett les
Ġfull er
ĠSh ane
Ġbin bags
Ġscr ubby
Ġstra ining
ĠSt amford
act ory
Ġkick ball
Ġpour quo
Ġfat so
Ġfat ten
ĠPo e
Ġspot less
vis ed
Ġpa e
Ġnee ow
Ġkey ring
he ck
fl oss
Ġbeg un
ĠEl is
ĠEl ves
ĠPl eakley
Ġding o
Ġtap tap
Ġspr ang
sc ade
Ġvis or
lem ouse
Ġland rover
ĠY um
Ġmad i
ĠAl phab
Ġaah h
let cher
ĠEd ith
ĠEd wards
Ġmagic ally
Ġcirc ular
ĠRach e
ĠDe ath
Ġsquir ters
ĠEve l
Ġcrayon ed
Ġjam mie
Ġwra ppers
Ġrace cars
Ġenjoy able
ĠSc ary
Ġboard ing
cha e
Ġho ver
Ġfre scade
Ġrecogn ition
Ġrecogn izing
Ġtrail or
Ġcap tains
Ġbuzz buzz
Ġcock les
Ġfig s
Ġfe nder
ees h
Ġpor ter
Ġbright en
mm mm
Ġgrab bers
Ġlife boat
Ġrug by
Ġpeel er
ĠChris ty
Ġolder ly
ro x
Ġbun ting
ĠTony a
ĠUrs la
Ġob edient
Ġpad ded
Ġwah oo
ĠMc G
ĠMc gregor
Ġatta ching
Ġcre me
book s
Ġbon nie
Ġbon king
Ġchar ges
Ġdisapp ointment
band icoot
Ġexpl an
Ġmitt s
Ġsneak s
ĠPig s
Ġguit ars
Ġant elopes
Ġce ilings
Ġson ny
Ġsmoo thing
ĠMon a
ĠJan ine
Ġlow ered
Ġorder ing
Ġfil ming
Ġres ults
ĠLo xy
Ġtwist s
ĠFel ice
Ġpens ion
ĠAll ie
ĠGl obe
Ġboop boop
Ġscra bble
Ġprogram mes
Ġposs ibility
Ġrush es
Ġscoo ters
Ġcuc umbunder
Ġmask ing
Ġcalm ed
Ġtab s
Ġhonk honk
ĠPr im
ĠPr ofessor
Ġmist ress
Ġimp olite
Ġyawn s
Ġhugg ies
Ġpip ing
rest aur
ĠCol onel
ĠJu ice
Ġass ess
Ġrel ation
Ġdw id
keep ing
Ġdood ee
par cel
ĠSyl vester
Ġguard ing
ĠAlf red
ĠBeth lehem
Ġalley way
ĠRoy ce
Ġpss pss
ĠDon key
Ġplat ypus
Ġref erence
ĠBugs bunny
Ġlif es
Ġdiddle y
Ġjugg les
Ġpou ffe
Ġcheep s
ĠDu rac
ĠDu chess
Ġtend ency
Ġpatient ly
ĠGramp s
Ġprod uce
Ġfum ing
Fr iend
Ġcran ing
Ġconnect s
ĠNat ural
Ġgah ead
Ġpup il
Ġbing bing
Ġmah n
Ġbob os
Ġbarbe cu
Ġinc re
ĠJoan nie
Ġtramp led
Ġbock a
Ġstirr up
Ġstirr ups
Ġsnips nip
Ġsqueal s
Ġpurr purr
Ġcent imet
Ġver vop
Ġloc ated
ued o
ĠTer min
Ġcentre s
ĠRh onda
Ġsaving s
ĠKenn ipoo
Ġsweatshirt s
Ġfunn ies
ĠCra zy
Ġmarry ing
ĠMoo re
Ġoccas ions
ĠCor in
ĠCrash bandicoot
Ġintrod ucing
Ġstri pped
Ġtrim med
ĠMarc ia
Ġdevelop ing
ĠDig by
Ġexam ination
Ġassoci ates
Ġnoon oo
ĠAngel ica
milk s
Ġaa ah
Ġleap frog
Ġinvol ves
Ġgrad uation
Ġrever sed
Ġentertain ed
Pe bbleman
Ġsult ana
Ġteena gers
Se ven
ĠIng rid
Ġcreep mouse
Ġslid y
Ġprov iding
ĠSu ess
Bar ney
ĠMu ppet
ĠAli ah
ĠTricer atop
Ġner d
Ġahm uh
Ġahm ah
ĠWolf man
Ġdadadad adad
ĠNi Ã±o
Ġgrind ing
Ġadjust ed
Ġslurp ing
ĠBean stalk
ĠStr omb
Ġlumber jack
ĠFlint stone
Ed munds
Ġtwit woo
Ġir ish
ĠHawai ian
Ġbic entenn
Ġindepend ently
Ġzz zzz
Ġthigh s
arar arar
ĠHam mer
Ġnun s
Ġtweettweet tweet
bab ies
vinc etown
Ġeld est
Ġvr rm
ubub ubub
Ġpred ators
Ġvelvet een
Ġdeed eedee
Ġdev asion
Jac que
Ġfoss ils
ĠFriend s
Dr ake
Ġhab its
ĠAqu adog
kh kh
ĠPro vincetown
ĠGar reth
ĠBron x
Lady bird
ĠRand all
ĠSteg osaurus
Ġlilac s
Ġdododod o
Ġdododod odo
ĠGen ie
ĠSant as
Ġpout ing
ĠIce land
Ġog re
ĠMath ew
Ġgond olas
omm us
Ġcriss cross
Moo re
Ġpett ic
ĠDub ai
ĠFitt i
Ġcoordin ated
did um
Ġana ly
ĠRiver side
ĠHed da
Ġjigg ling
Ġcontroll ed
Ġhes it
Ġshak ers
ĠMun sty
Ġleot ards
ĠSha ggy
Ġware house
Ġdyn omite
ĠLin ette
ĠWord s
ĠHigh land
Ġpsych ology
Ġyuk ky
ĠGn ome
Ġcateg ories
Ġpunct ure
Ġthorough ly
Ġflowerpot s
Ġoverwhel med
Ġcoupl ing
Ġcompar ison
ĠBM X
ĠBeet hoven
Ġvom ited
ĠConcord e
ĠApt icar
ĠEy ore
Ġvav avap
Ġcoath anger
Ġyel p
Ġolymp ics
Ġmour ning
ĠSaf ari
ĠJC B
Ġhurric ane
ĠYo ko
Ġpontoon s
Gu ys
Ġfiddles ticks
Ġpeng ams
Ġbounci er
ĠBroad way
Ġskinn ier
Ġmoccas ins
Fe ather
Ġdain ty
Ġath let
Ġcomple x
Ġcrout ons
Ger tie
Ġlous y
Ġfraid y
Ġchut ney
Ġblizz ard
ĠBrew ster
Ġcris is
Ġdispens er
ullab aloo
Ġpina fore
Ġwhoos hing
Ġhumong ous
Ġcorrid or
Ġmarsup ials
ĠGuin ness
Gabr iel
Ġmoshy ko
Ġstyr ofoam
Ġjapan ese
Ġboister ous
Ġblanc m
ĠCurt is
ĠGoli ath
Ġenchil ada
acetam ol
ĠVeron ica
Ġpourquo i
ĠDurac ell
ĠStromb oli
Ġbicentenn ial
B ush
B uild
C s
C ats
C ummings
D ee
D addy
F C
F elt
F alls
G AR
G race
I rene
J et
L ucy
M eg
M ickey
N an
N www
N osey
N onsense
O ctopus
P IA
S ch
S illy
T o
T iggy
a arf
b om
b ra
b eet
b ute
b unk
b less
b eauty
c ot
c anes
d illy
d ler
f oo
f ra
f eet
f eller
f rey
f elts
g ay
g ler
g aga
h orn
i ving
j ee
j ak
j oes
j abber
l antic
n ose
o ap
p th
p ting
r an
r uh
r iderm
s i
s or
s nake
t ica
t reat
w u
w arf
x e
y on
y our
y pt
Ġt ougher
Ġth und
Ġth ongs
Ġw abbit
Ġw inkle
Ġa oo
Ġa ids
Ġy oy
Ġy ipes
Ġy wanna
ou red
Ġi ces
Ġh unch
Ġh uts
Ġh ulah
Ġh ogs
Ġh ickity
Ġs I
Ġs ked
Ġs ire
Ġs ided
Ġs yn
Ġo ct
Ġo th
Ġo ouh
Ġd s
Ġd uk
Ġd ickle
Ġd eedle
in ty
Ġb v
Ġb omp
Ġb umming
Ġc ept
Ġg id
Ġg up
Ġg ist
Ġg ills
Ġm ing
Ġm ik
Ġm erc
Ġm ount
Ġm uttering
Ġwh ir
Ġwh ish
Ġwh izzy
Ġn ack
Ġn ama
Ġn ets
Ġn ann
Ġn imble
Ġl ur
Ġl oom
Ġl ash
Ġp is
Ġp ell
Ġp ep
Ġp ipp
Ġp ester
Ġp osed
Ġp ista
Ġgo ll
Ġf rew
Ġf wow
Ġf wo
oo w
ea ra
Ġon a
Ġon y
ay er
Ġhe ff
is ley
Ġto x
et ed
Ġha a
Ġha k
Ġha z
ow ary
ig ly
ig os
ig ley
Ġu gu
Ġu dah
Ġu uu
ee pp
ut ing
Ġsh ou
Ġsh ah
ck ayla
ar ing
ar ians
Ġr k
Ġr it
Ġr ank
Ġr umbly
en en
ook a
Ġe ject
Ġe eah
Ġe hmm
on holiday
Ġbe gged
Ġli ma
Ġk ip
Ġk oosh
ad in
ad ub
ch uck
ch itis
ch rome
ĠM et
ĠM ut
ĠM and
ĠM ain
ĠM yr
ĠM uddy
ĠM ickie
ĠM ummies
ĠM inn
ĠM ckayla
ir ky
ld en
all a
all ic
Ġst ard
Ġst aw
Ġst ables
Ġme re
Ġme day
out her
ed ure
Ġre n
Ġre w
ic ans
ic als
Ġj ama
Ġnot ion
Ġkn icks
im m
im ps
Ġshe esh
ie i
Ġfor b
Ġpl ah
Ġpl aid
Ġan ci
Ġright y
Ġknow ledge
am om
au h
od ore
Ġju ic
Ġgon ta
Ġall s
Ġall ot
Ġch hh
op ean
itt rot
Ġso x
Ġso le
Ġout let
Ġout going
un un
un ter
al ayo
ĠD C
ĠD ol
ĠD ory
ĠD oe
ĠD odge
ĠD odo
ĠD edi
uh k
Ġuh oo
and ers
Ġum bah
ĠT ouch
ĠT iff
ĠT az
ĠT oyo
Ġhow led
il ion
Ġbr im
Ġbr ows
Ġbr ooom
SI R
Ġcar die
Ġcar ib
Ġab abab
Ġal bin
oug hing
ol os
ĠS ing
ĠS ock
ĠS ala
ĠS orting
Ġfr ol
ge ons
ĠC ould
ĠC abbage
Ġsp ook
Ġsp ool
Ġsp ied
Ġsp ines
Ġhim s
ĠB T
ĠB ank
ĠB os
ĠB ush
ĠB oman
ĠB ye
ĠB ibby
ĠB oofoo
ĠP ock
ĠP art
ĠP ri
ĠP alm
ive d
ĠJ af
ĠJ umping
ap es
ap el
ĠA z
ĠA isha
Ġsa vory
ty ard
Ġcl utch
Ġah aha
Ġread ed
Ġtr oublesome
Ġtr ittrot
Ġtell a
Ġmm pf
Ġhad dock
ock ing
Ġsl ant
Ġsl osh
Ġwill ow
Ġtra ction
me chanic
ĠF ig
ĠF allow
ĠF lik
ĠF letcher
Ġbu bal
Ġbu ggers
Ġman iac
ĠN ixon
ĠN ickel
ong er
ĠL ip
ĠG B
ĠG umm
ĠG ator
ĠG oes
th ere
Ġmu ppet
Ġpre y
Ġsw irls
Ġfl ops
Ġfl ung
Ġfl irt
Ġfl apped
Ġhapp iest
eet s
old s
ul er
ĠE ggo
ost rophe
Ġtur ban
are house
zz a
Ġshall n
ang s
Ġpu ree
Ġwater wheel
ĠCh is
oc rat
Ġmay or
ĠR at
ĠR ub
ĠR anger
ĠR ups
Ġlot to
Ġse ctions
ist ory
ist ics
Ġsc aff
Ġsc ald
Ġsc oots
ent ot
Ġsm other
Ġint ense
Ġint rig
Ġpe can
Ġpe ering
Ġhor iz
Ġv irt
Ġv ases
Ġgr uff
Ġen gr
Ġtea cups
Ġwee w
Ġdoor mat
Ġmin or
ĠW ar
ĠW ait
og y
ĠH uh
ĠH ab
ĠH amb
ĠH orse
ĠH ugh
ĠH artz
ĠH orner
Ġde cl
Ġfire fly
Ġaf t
Ġsu f
Ġhair bands
you s
Ġthr ill
Ġey ah
Ġpen icillin
Ġready brek
Ġco inc
Ġapp rove
Ġsweet est
Ġcow ard
Ġsn or
Ġpig pen
Ġpig tail
ĠK a
ĠK night
ĠK ean
ĠK rie
ĠK ira
ĠK iara
ĠK nox
ĠK FC
Ġtop sy
Ġfish ed
Ġam using
Ġam igos
Ġduck bill
Ġduck pond
Ġsqu at
Ġsqu ad
sh ot
sh oemaker
Ġones ie
Ġsna ppies
ri fied
ri bute
Ġcheese y
av ilion
Ġgl az
eas on
eas ants
aw awa
Ġprob ly
Ġcold y
Ġbuy er
Ġeh eheh
Ġstr ut
Ġstr addle
ĠMum y
ĠPur ina
ĠAn ita
Ġwheel ies
Ġgreat ly
Ġroll ie
eek o
Ġkiss er
Ġkiss ies
iz ers
iz ation
Ġgra zed
Ġbad der
Ġbad gers
Ġun icycle
Ġun stick
Ġbow ed
Ġcra fty
Ġer rr
Ġro am
Ġta iled
Ġda zzle
ĠO om
Ġbi k
ia i
Ġkid nap
amp as
Ġwet s
Ġwet ter
ĠMr big
Ġunt wist
Ġdad ee
urs ery
Ġset ter
Ġset tling
Ġgrand e
Ġpost men
Ġhole y
Ġhang nail
Ġzoo keeper
Ġbell ys
Ġcon kers
Ġcrack les
Ġpat rol
Ġcool est
ĠU tica
uit s
ĠSp uddy
ĠV era
ĠV ern
Ġap ostrophe
Ġspl itting
to ed
ĠSh ell
ĠSh are
Ġcard amom
ĠZ ay
ĠZ ug
Ġfootball er
ĠSt rum
eb el
Ġwake ned
Ġwin cey
Ġcur ler
Pat tie
ĠPo ly
Ġshh h
ĠMar i
ĠMar co
Ġmis under
Ġra i
ĠSam bo
Ġay ah
ĠPer dita
Ġve e
Ġph oebe
Ġph easants
Ġnut r
Ġmatch box
Ġvis ion
ween y
Ġdec is
Ġmark ings
Ġclass mates
Ġtip toed
Ġcirc ling
ĠDe cl
Ġsquir re
ib ber
ib ilities
Ġpan ting
mon key
ĠPlay school
ĠSc oh
ĠBl air
Ġups a
Ġstor ms
Ġstor med
Ġrais es
Ġes sent
Ġes tab
Ġacc omm
Ġacc urate
Ġad ds
Ġplastic s
Ġfif i
Ġwigg ie
Ġden y
Ġtu v
Ġtu pper
Ġrob es
ĠChrist ening
Ġchurch es
ĠGra bby
land o
Ġbuzz ed
ĠJul iet
ĠGod frey
Ġser pen
az a
Ġband it
Ġworld s
Ġspeak ers
Ġtor ches
Ġgas p
Ġgas ala
Ġgiant ess
Ġcal v
Ġbabys at
Ġbabys its
ĠTo var
ĠBer m
ĠBer tha
Ġsweep ie
Ġfore ign
Ġma j
Ġma ik
ĠNew ark
Ġang les
Ġmet allic
ĠWh ist
Ġrefriger ated
Ġgoose berry
Ġbroom ed
Doh s
ĠGre edy
Ġplan ter
ĠUr anus
ĠSw ish
ĠSw itzer
Ġsquish es
ĠTra ctor
ĠTra cey
Ġbeat en
Ġphot ocop
Ġboing ing
Ġpad dles
ann ers
ĠSn iffy
ĠFred onia
len ol
Ġyogh ourt
ami ah
ĠDor i
Ġchar iot
Ġsquash es
ĠBab ies
ĠMac key
Ġsle ds
ffic er
ĠBuzz y
Ġson nez
Ġki wis
ĠRober ts
ĠBarb atus
ĠTr ouble
ĠCli ff
Ġtad ay
ĠLo ch
Ġweather v
Ġspread s
Ġunh ooked
Ġtest icles
ĠMay zie
aid a
sey e
ĠGl eason
ĠQu ack
ĠQu igly
ĠLou li
Ġmer chant
ĠCl ause
ĠSal t
ĠDen ny
light year
Ġcob ras
Ġmeasure ments
ĠFrost ed
ĠDoug y
ĠLa La
head ed
Ġthunder ing
Ġbunn er
Ġdeli as
Ġerr k
Ġvill agers
ĠRa isin
Ġga ggle
Ġpoke mon
Ġrhinocer oses
Ġwi ah
Ġsub tle
Ġfant asy
Ġur ur
Ġdrain er
ĠLe igh
Ġfantastic o
Ġviol ins
Ġrel ate
ĠSummer time
Ġdood oo
bl ocks
ĠGinger bread
ĠMmm m
Ġblueberry s
Ġshr imps
Ġped aled
Ġchugg ed
Ġlangu ages
Ġdom est
Ġalley ways
Ġav o
Ġau ch
ĠKen ga
Ġseas ick
Ġins ane
ĠMad rid
Ġmem i
ĠTex aco
Ġdirect ed
Ġstream er
Ġmous y
Ġjugg ly
Ġsss hh
Ġtut tle
Ġtart ar
Ġcons on
ĠDu c
ĠTy lenol
Ġbarber s
gan o
Ġvol un
Ġsha ggy
Ġreport s
Ġill eg
Ġsol ved
ĠPopp adum
Ġconf ir
Ġorgan izing
Ġgrace fully
Ġsunday s
pol is
Ġlower ing
Ġscar iest
ĠGran pa
Ġps ht
ĠSqu irt
Ġcro quet
Ġih iy
Ġexpress ive
Ġflashlight s
Ġseason ing
Ġbust s
Ġcatalog s
Ġpaddle d
Ġver b
Ġbeanbag s
Ġlim ping
ĠNorth cott
win key
ĠRh ino
ĠKo jak
Ġfasc ination
ĠSpan ner
Ġtoss es
ĠMag oo
asag ne
Ġpresident s
Ġfort une
Ġskateboard s
eadow s
ĠShe vington
Ġchef s
Ġcooper ation
talk ies
Ġchem icals
Ġdod odo
Ġcass owary
Ġkee ma
ĠDel ight
ĠDel ilah
ĠColl ege
ĠGlen ford
Ġinteract ing
Ġmember s
ĠCount ry
ĠDig ger
Ġker choo
Ġhealth ier
Ġcw ack
Ġcw ying
Ġchrist ened
Ġgrin ning
Ġoposs ums
Ġpw ate
ĠBir dy
Ġsucc eed
ĠSch weppes
ĠBra in
Ġconcer n
Ġmee dy
ĠFuzzy felts
Ġpregn ancy
Ġgrad ers
Ġgrad ually
Ġunlo aded
ĠOl ie
Ġbund led
Ġpterod actyls
Ġadj usting
Ġmul k
Pe pper
Ġja zz
Ġproc edure
Ġrent ed
Ġflick ing
Ġbene fit
John son
Ġheight s
ĠRain a
Ġpoll ution
Ġswear ing
Ġrepl aced
Sp ice
Ġeeee ee
rac osaurus
ĠTramp y
Ġsard ine
ĠFur ry
Ġcoup led
Ġcour tyard
ĠAdd ress
rit is
Ġkw awu
Ġmaid en
ĠFer ia
Ġpose y
ĠGluck ie
eren ces
Ġmusk rat
Ġrefu sed
Ġelevent een
Ġpunk in
Ġtemp or
Bee hive
ĠCall ie
Ġcling y
ĠEast wood
Ġhail stones
ĠMam ie
ĠPussy cat
Ġdiv ide
Ġvag ue
Ġvag inas
Ġgn ashed
Ġdisgu ised
Ġtattoo ed
jun ior
Ġtwent ies
Ġtech n
Ġillustr ated
Ġdododod odod
Ġging ery
Ġrust ling
ĠLorn ey
Ġstroll ers
Ġdigest ive
Egg s
Ġmes se
ĠButter fly
Ġgram mar
Ġaccept ed
Ġtablespoon s
Ġsats umas
Ġreceive d
Ġcoordin ation
Ġdemonstr ation
Ġgnaw ing
ĠJer amiah
ĠKend all
Ġbillygoat s
lan ta
Ġskid der
Ġpoach ers
Ġaccessor izing
Ġdemol ished
Ġtarant ulas
Ġhypnot ize
Ġdoog in
sem ble
Ġeie i
ĠBox ing
Ġnam ommus
Ġchil is
ĠGn asher
Ġabcdef ghij
Ġgau dy
Ġster il
uro chrome
ĠDry bones
Ġcollaps ing
Ġcollaps es
Ġeduc ation
Ġminim um
Ġchooch oot
Ġchoochoochoo choo
Ġtechnic al
Ġfain ted
Ġros ies
Ġhibern ating
Ġartich okes
Den ise
Sn eeze
ĠYul i
Ġvacc ination
Ġinflu ence
Ġpomegran ate
Ġgover nor
ĠTing alayo
ĠBage ls
ĠHee haw
ĠKwanz aa
Ġzinn ias
Ġimagin ative
tag ons
Ġcath edral
ĠIsa ac
Ġreflect ing
ĠZeven ber
Pen guin
Ġeval u
Ġboast ed
ĠHaz el
Ġearm uffs
cust ard
Ġcryst als
Ġbrrmbrrm brrm
mak ers
Ġtoged er
Ġenth us
ĠKaw adee
Ġinspe ction
ĠIncred ible
glo ves
Ġtherap ist
Ġfert ilizer
Ġwhyd ally
ĠRes cue
ĠRad io
ĠReg ina
ĠRocke feller
Ġamphib ians
Ġglam osh
Ġparag raph
Ġregard less
juba juba
Ġhehh eh
ĠDund ee
ĠCant ona
Ġdro ving
Ġgrem lins
ĠOce an
ĠMrpot atohead
Ġpizzer oni
Ġdesp ite
ĠMeij er
Ġsubstit ute
Ġcin q
Ġcapp ucc
ĠDah id
ĠSty racosaurus
ĠBrey ne
ĠLub riderm
Ġsunbur ned
Ġtact ile
ĠTermin ator
Ġblancm ange
Tiggy winkle
fra is
Ġpista chio
Ġanci ent
ĠDol ce
Ġalbin o
ĠJaf ar
ĠNickel odeon
ĠLip ton
ĠRups je
Ġscaff olding
Ġengr ossed
ĠHartz ell
ĠKrie gler
Ġestab lished
Ġaccomm od
ĠSwitzer land
A l
A ll
B all
B and
B ob
B ugs
B rave
C ow
C ard
D arrot
E ng
F irst
F ire
F airy
H ome
I nt
J ersey
L oo
M at
M ur
M IA
N o
P S
P ea
P ost
R e
R at
R ay
R ose
S now
T oo
U p
V illa
W arehouse
Z ag
a oo
b as
b am
b unch
b ony
b wack
c ookie
c okey
c opes
c erer
c kered
d un
d ream
d ial
d eedle
g ung
g len
g raph
h ound
i boo
j j
k stown
l ag
l ocks
l aka
n ay
n el
p iel
p ipes
r oc
r ance
s it
s ab
s ies
s illy
s eal
s now
s aus
t imes
t oman
u ice
u arda
v ans
v ita
w ight
w ary
w ars
w akey
y eh
z on
Ê Į
Ġt umbles
Ġth irst
Ġth ieves
Ġw er
Ġw oll
Ġw uff
Ġa k
Ġa es
Ġa ow
Ġa ooh
Ġa eb
Ġa aa
Ġy ank
Ġy ang
Ġy oke
Ġy urs
ou can
Ġi p
re g
Ġh uit
Ġh nn
Ġh ousie
Ġthe judge
Ġs ut
Ġs opping
Ġs ipping
Ġo ah
Ġyou ch
Ġd aps
Ġd itty
Ġd angled
Ġd ummies
in ction
Ġb led
Ġc ee
Ġc ove
Ġc ack
Ġc ud
Ġc inc
Ġg een
Ġg ng
Ġg eg
Ġg igi
Ġg wah
Ġm ig
Ġm my
Ġm ime
Ġwh up
an ets
an isha
Ġn ar
Ġn il
Ġn ipping
Ġn ye
er ies
Ġdo y
Ġl ac
Ġl agoon
ĠI p
ĠI ron
ĠI vory
Ġp st
Ġp wo
Ġp bbth
Ġno ct
Ġno ggin
Ġf und
Ġf arts
es pard
oo ooo
ea ux
Ġon na
Ġhe t
Ġto ma
om etry
Ġwe et
Ġwe ndy
et o
it i
or ak
Ġu f
Ġu my
Ġin ja
le ine
as car
ut ation
id g
Ġthere s
Ġsh sh
Ġsh ocks
ar ies
Ġr im
Ġr abb
Ġr idge
Ġr ud
Ġr mm
Ġr aked
Ġr ickety
en os
Ġcan als
Ġe f
Ġe ch
on o
Ġbe ated
Ġwan k
Ġwan ders
Ġdon chou
na a
na ils
Ġk ra
Ġk utz
ch ur
ch ees
ĠM od
ĠM ose
all ed
Ġst i
Ġst ake
Ġst up
Ġst ern
ot ot
um yumyum
Ġre un
Ġre ass
Ġj i
Ġj an
Ġj ibber
Ġdid l
Ġnot ic
Ġget ch
Ġget ted
Ġfor med
Ġpl ung
Ġan x
Ġan orak
am m
au nt
au ffe
au qua
od es
od ont
Ġall body
Ġat mos
Ġch ol
Ġch ris
Ġch apped
Ġch ippies
Ġch auffe
ra ined
al ong
ry l
ĠD et
ĠD oll
ĠD ion
uh z
Ġthem ins
Ġuh g
Ġuh l
Ġum mm
Ġtw am
Ġtw irls
Ġtw ilight
Ġbo ils
ĠT ak
ĠT ang
ĠT rist
ĠT opher
ĠT icky
ĠT urn
ĠT opsy
Ġher mit
Ġbr okes
Ġbr iar
Ġbr ooch
Ġor ient
Ġab use
Ġal ga
ol ines
Ġbl an
Ġbl ug
Ġbl aster
Ġbl essed
ĠS es
ĠS eek
ĠS ci
ĠS ud
ĠS pecial
Ġfr iger
ĠC it
ĠC ave
Ġsp anners
ine y
ĠP b
ĠP up
ĠP ia
ĠP ork
ĠP olo
ĠP armesan
ive l
ĠJ eep
ĠA h
ĠA ly
ĠA ce
ĠA ls
ĠA pher
ĠA von
ĠA ston
Ġover s
ab ear
Ġne ut
Ġcl u
Ġbook mobile
ff le
Ġah l
ite ct
Ġsomet hin
ĠTh ayer
Ġsl it
Ġsl ider
Ġtra um
Ġtra uma
ĠF i
ĠF org
ĠF ern
ĠF unshine
ĠF udges
Ġman nie
ĠN od
ĠL ock
ĠL ang
ĠL aw
ĠL ife
ĠL esh
ĠL oli
ĠG I
ĠG ung
ĠG aston
ĠG espard
gg ling
th on
th ump
th ritis
el ves
Ġpre vent
ob ie
Ġfl up
Ġfl ier
Ġfl ushing
ard er
ul ting
os ure
ĠE T
ĠE arl
ost led
Ġfi bs
Ġhouse work
Ġel k
ess ive
are crow
zz ling
Ġcall erpillar
Ġwa gged
Ġqu al
Ġhel i
Ġhel icop
Ġcr k
Ġred dish
Ġtry in
Ġtry ina
Ġar ches
Ġar thritis
ĠCh ad
ĠCh itty
ĠCh uckle
ĠCh arming
Ġle vers
Ġle isure
ĠR as
ĠR oxy
Ġse vere
ist en
Ġwatch a
arl et
arl ow
Ġsc arlet
ĠFr iar
Ġgreen ish
Ġsm a
Ġsm ushing
Ġpr icks
Ġpr olly
ph ere
ful s
Ġwr inkle
Ġv ay
Ġv ice
Ġv ain
Ġv ole
Ġv ari
Ġdi ag
Ġgr ub
Ġgr ades
Ġgr ommit
ag net
Ġtea ms
Ġfirst ame
Ġhead stand
Ġmin ister
Ġmin ivan
ĠW ally
ĠW ise
ĠW atch
ĠW alend
Ġbear ing
ĠH ol
ĠH ave
ĠH otch
ĠH eller
ĠH ok
Ġyellow ish
Ġfin est
Ġfire mens
Ġround y
ass o
Ġdin t
Ġex ist
ft on
ĠGr annys
Ġafter s
ma che
Ġunder dog
Ġapp li
Ġapp oint
Ġkeep ers
ĠMama w
Ġsn ipper
Ġsn uffy
get y
Ġmon it
Ġmon ks
Ġjump rope
ĠK ilty
Ġam igo
ach ugg
Ġsqu iggles
sh k
sh ell
sh aw
opp ys
Ġlast s
Ġfoot sie
Ġfloor ing
Ġhar row
Ġwind ers
Ġbag i
Ġmat ines
Ġgl aze
Ġgl ocke
ĠDad as
ĠDad dies
umm iest
Ġow k
eas es
ole um
Ġhoney comb
aw ky
ond ie
Ġfix ated
ĠNin i
Ġsk it
Ġsk idd
itch it
Ġstr angle
Ġstr anded
ĠMum s
Ġbutter y
Ġdre ading
ĠMa lden
Ġoops a
Ġoops y
abb ing
ub l
Ġrec o
Ġrec over
Ġrec overed
oss ie
Ġgra ph
Ġgra ins
Ġten se
Ġer asers
Ġfun ction
Ġsnow storm
Ġda a
ĠO ri
ĠO nce
Ġstar ter
Ġbi bble
Ġarm band
ull a
Ġlunch ie
amp les
Ġgi b
Ġbeep y
Ġbee ch
ci um
Ġpeek s
Ġboo kend
Ġbel ieves
Ġfast ens
Ġfast ening
Ġown ers
Ġpresent ing
ĠBr ock
Ġduh kuh
eak er
Ġlo gging
Ġlo vie
ĠPet es
Ġmoo ed
Ġroad runner
ĠCar ly
ĠCar ole
ĠJean ne
Ġgar g
Ġac cu
Ġpoo ch
Ġgarden ers
br an
int erest
Ġcircle d
Ġcon v
Ġcon ver
Ġcon ce
Ġcon tains
Ġcrack ly
Ġoo k
Ġoo ah
Ġpat ri
Ġmus sels
Ġhea ve
ĠU nder
ĠV iley
Ġhol ster
Ġstre aking
Ġlad a
ĠSh aw
ĠSh eba
ĠSh arleen
ĠSh eara
gu ards
Ġwhee e
Ġwhee led
Ġswing y
Ġpast ing
ĠZ www
Ġflower ing
Ġmar riage
Ġbur g
Ġbur rit
ud ged
ud eaux
Ġri ot
Ġboom boom
ĠSt ea
igg ie
act ive
eez er
Ġcur d
Ġmeat loaf
Ġmusic ian
ues ome
da zzle
Ġcu atro
vis ions
ĠAr gos
Ġsoft ie
ĠMar gi
Ġlay ers
Ġpeanut butter
Ġay ey
Ġpet rified
dad a
clock s
Ġshort est
Ġforget ful
if ter
ĠJack y
ĠJack aroo
Ġve g
ĠPaul ie
Ġtid es
Ġpay ment
Ġfur na
Ġnin ny
ĠDomin o
irr or
Ġmad die
ĠAl www
Ġee oo
let ons
fr o
ĠTom atoes
ieve d
Ġcomp ete
Ġcomb ie
Ġdes ire
Ġpoop oop
ĠCr o
Ġunderstand able
Ġbra ided
Ġcutting s
Ġbull dog
Ġbelly ache
Ġad eh
Ġspin y
cc ano
Ġhoo ting
Ġdough y
ĠMatthew ey
ĠFl an
ĠFl oppys
Ġty ped
Ġbib by
Ġtu ft
Ġsnack ing
Ġna a
Ġna ar
Ġmeet ings
Ġtrick er
Ġtrick ort
Ġhon or
az am
az ine
ĠMary anne
Ġdream er
Ġshoot ed
ĠEric s
Ġcal amine
Ġcal cium
Ġhu pple
Ġbabys itted
Ġbabys itters
Ġpea ked
ĠNew glen
Ġang rily
Ġdirt ier
Ġmet als
Ch itty
Ch atty
ĠMel ody
work s
Ġfan atic
Ġfresh ener
Ġcoo coo
ro via
Ġtweet y
ĠTinky winky
Ġadd er
Ġwah wah
Ġund ers
ĠSn uffles
Ġjack al
go id
Ġwire less
Ġcamp s
Ġatta ches
ĠBoo dy
ĠBoo ths
ĠSnow ball
Ġtracks uit
ĠKat z
ĠMac Wh
Ġdisapp oin
Ġinv ites
Ġspring y
ĠLyn sey
ĠGold bug
ĠMon kstown
ĠMon rovia
Ġrip en
ĠTr uck
ĠTr ip
ĠTr isha
ĠCli ffy
str om
Ġthin ked
wi bble
Ġtrans for
Ġtrans ition
Ġpract ical
Ġpract ising
fer ing
Ġheal ing
Ġterri fied
ograph y
ĠCl ay
Ġhy gi
ount y
Ġdep ressed
ĠDer rick
Ġbuh mp
Ġcor ral
Ġdist ress
Ġthunder bird
nit ion
ned ge
Ġmanage ment
Ġteas es
Ġsnugg les
Ġerr and
Ġinter p
Ġinter mission
Ġinter fering
Ġvill ages
Ġdisc ip
Ġwheelbarrow s
ĠTes cos
cal ypt
Ġpip ed
Ġot toman
ĠWell s
ĠWell ie
ĠSim pson
Ġtemper am
dr ip
Ġwi ener
Ġye ch
Ġpattern ed
Ġscarecrow s
Ġsting y
ĠPu cile
ĠPu cilia
Ġscri bbly
Ġass ign
ĠStock child
Ġclub house
Ġnu na
Ġnu dder
Ġdood oodood
Ġdood ledoo
Ġshampoo ing
Ġpath way
Ġcluck cluck
Ġcluck cluckcluck
entr ation
Ġpsh w
Ġpsh oo
bl ah
Ġfee f
Ġfee ble
ns piel
Ġshr ubs
dum dum
Ġhopscotch s
Ġtuck s
ĠMor ty
Ġbas is
ĠMal t
Ġquit oes
Ġmi ouw
Ġins ert
ĠBee cer
Ġlif ter
Ġpos ing
ĠMoosh boosh
Ġform at
Ġform ation
Ġpatch y
Ġspeed boat
ĠTy ron
ĠCat ty
ĠBea udeaux
Ġlos er
Ġpap adum
Ġattack s
Fr og
Fr iday
Ġblink s
ĠSher a
ĠSher lock
ĠBlues clues
Ġmow s
Ġconnect ions
Ġbw ing
ĠPen g
Ġsol ids
ĠRen ida
Cl umsy
brum brum
ĠSe at
Ġconf usion
Ġemerg en
abee b
Ġgown s
Ġcast s
Ġinc ident
Ġinc orp
Ġlaw yer
Ġartist ic
Ġdove y
Ġfac ial
Ġtar amas
Ġfriday s
Ġtons il
ĠWil ber
Ġchart s
ĠQueen s
Ġdun t
Ġgoof ing
Ġcro aked
Pr im
ĠCur l
Ġram s
Ġram med
Ġigu anas
Ġcell phone
ester ol
ĠRay mond
Ġver a
Ġoow eedah
Ġmouthful s
Ġunfortun ate
ĠMarm o
Ġge nder
ĠWood cock
ific ation
Ġdunk ers
lor ry
Ġdub dub
cow s
ĠStan ford
Ġtrape goid
bal oo
ĠLady barn
Ġskateboard ing
Ġent ered
ĠAnt onio
Ġfunn ier
uggl uggl
ware house
Ġpriv ile
Ġunz ipped
Ġchem ical
Ġbod ys
Ġske letons
Ġengineer ing
Br ide
Ġmechan ism
Ġmeadow s
Ġsnaps nap
Ġdistract ions
Ġcubby hole
Ġmember ship
olog ist
Ġker chief
Ġsubmar ines
ĠNell ies
Ġges ture
Ġexam s
Ġchir ped
Ġwasher s
ĠTe nder
Ġdar ing
erm obile
ĠDiand ro
Ġkebob s
Ġwink ing
Ġarch itect
ĠOl inda
yah yah
Shop keeper
Ġwibble y
Ġcheerlead ing
Ġentertain ing
Ġoog h
Ġfart ed
ĠCher ry
Ġdor my
Ġflee cy
Ġnod dy
Ġmould y
Ġeea ye
ĠBry ce
ĠSun shine
Ġmoan ed
ĠPa isley
Ġcrump et
ĠHer b
Ġwis dom
Ġais les
Ġwhis key
Ġdawn ed
Ġtapere cord
ĠDar rel
ĠVolksw agon
ĠZoo b
Ed ward
Ġshred s
ĠCom mon
ĠAnge les
Ġprim roses
Ġsusp icious
Ġfirm ly
Ġdef end
ĠWind sor
Ġhamm ered
Ġtorture d
ĠDinosaur s
Ġneg atives
Ġbrummbrumm brumm
Ġpred ic
ĠArk ansas
ĠBooboon een
Ġdiv ine
Ġcommunic ating
Ġsym pt
Ġterr arium
Ġest im
Ġgn ome
ĠEur ope
Ġuns nap
Ġbarefoot ed
Ġphys ically
Ġrecycle d
Ġindic ate
Ġfrown ing
ĠRal phy
ĠBrand t
Ġadop ted
ĠMooshaboosh as
cra per
ĠCub eez
Ġmorn in
Ġweep ie
Ġknead ing
Ġgreet ing
Ġcharm s
Ġstabil izers
Ġgradu ated
Ġadm ire
Ġadm iring
ĠThunder birds
Ġslither ing
ĠMade leine
ĠBess ie
Ġdinos orter
Ġchimpanz ees
ĠClare nce
ĠAt lanta
Car olina
Ġpint s
Ġdeser ved
ĠProtocer atops
Ġfail ure
Ġig nition
Ġnois iest
ĠDalm ations
ĠTa j
Ġfizz ing
ĠChe f
mac donald
ĠKend ell
Ex plorer
Ġkink ing
eha ah
Ġsuhm pin
Ġdingdingding ding
Ġalcohol ic
ĠFour th
Ġpoach ed
Ġdoof ah
Ġeie io
Ġweap ons
ĠGill igan
Ġcateg ory
Ġsuperher oes
Ġantibiot ics
Ġabcdef g
Middle name
Ġcas ual
Ġeduc ational
Ġohh oh
Ġkuk abear
ĠTat anisha
Ġspi ked
Ġfactor ies
ĠIss y
Ġune ven
ĠBull seye
Ġgroo ve
Ġcamoufl aged
Ġyan kee
Ġpes ky
Ġfidd lers
Ġintern et
Ġstim ul
Ġboh s
ĠWheat ies
ĠKings way
Ġtempt ed
Ġhing es
Ġbish op
Ġeu calypt
ĠMi ami
Ġminib us
Ġphil os
Ġrooft ops
Ġnav ig
Ġinfect ed
Ġalleg iance
Ġcham ber
Ġskys craper
ĠVeg as
Ġencoura ged
Ġpurs es
Ġjud ging
ĠSom alia
ĠSor ry
ĠBuff alo
ĠBuild ing
ocon uts
ĠGriff ith
Ġappend ix
Ġgrandchild ren
Ġpedest rian
ĠPeebee bear
Ġbicb ic
Ġgam mon
ĠDunn es
Ġconcl usion
ĠStret ch
Ġtux edo
ĠConc entration
Ġnananan ana
ĠPunchen ella
Ġoctop i
Ġcivil ized
ĠPud sey
Ġflor ist
Ġdiagon ally
ĠHug o
Ġskoo bee
ĠRoos ky
ĠBluet ak
Ġpediatric ian
As paragus
ĠWein ermobile
ĠHea ven
Ġexped ition
lif ter
Ġtaptap tap
Ġcentimet res
ĠCorin ne
warf s
Ġhulah oop
Ġgoll iw
Ġstard ust
outher n
Ġallot ment
Ġsox er
ĠTiff any
ĠGator ade
ĠHamb ur
Ġcoinc idence
ĠVern on
ĠDecl an
Ġtupper ware
Ġserpen t
ĠBerm uda
ĠWhist ler
Ġweatherv ane
Ġchoochoot ank
Ġcappucc ino
Band icoot
saus age
Ġcinc o
Ġgng n
Ġatmos phere
Ġchol esterol
Ġalga e
ĠSci ence
ĠForg uarda
Ġglocke nspiel
Ġskidd ed
ĠMacWh inney
Ġdisappoin ting
Ġtaramas alata
Ġeucalypt us
B a
B er
B read
D iego
D epot
F eel
F oam
G iles
H en
H ill
J a
K e
K nak
L oom
L amp
L urkey
L ansdale
L asagne
M ichael
N u
N CH
N ess
N icks
P urdie
R ider
R osie
R oses
S A
S te
S alt
S oap
T ubbies
U T
W www
Y ear
a ways
a ire
a fto
b z
c age
c over
c uts
d ots
e ight
f ur
f air
g m
h is
i kin
i osaurus
j ar
j os
k ind
k ato
l ump
l ucky
l iddle
m ith
m un
m ats
n an
n om
n ies
n os
n utter
p ile
p ops
p sh
p era
p appy
r oo
r ami
s ing
s ar
t ops
t idge
u ger
u led
v itch
w ing
w ie
w uck
w easel
y g
y nth
Ġt et
Ġt as
Ġt ain
Ġt rench
Ġt ature
Ġt aker
Ġth re
Ġth ip
Ġw ittle
Ġw ice
Ġw ib
Ġa ea
Ġa ww
Ġa ds
Ġa jamas
Ġy h
Ġy at
Ġy oop
re ll
re ck
Ġh obble
Ġs es
Ġs id
Ġs ic
Ġs ipped
Ġs ooey
Ġs aint
Ġs itted
Ġs ummers
Ġs illier
at ics
Ġo iling
Ġd z
Ġd ak
Ġd ank
in x
in z
in et
in ee
in oni
Ġb th
Ġc um
Ġc of
Ġg illy
Ġg wee
Ġg utch
Ġg asket
Ġm ick
Ġm ob
Ġm ich
Ġm orrow
Ġm owed
Ġm ason
Ġm ami
Ġm ands
Ġwh u
Ġwh acha
an ium
Ġn ng
Ġn nn
Ġn esting
Ġn ettles
er ang
Ġdo by
Ġdo ppy
Ġl on
Ġl ul
Ġl ones
ĠI ori
ing dale
Ġp t
Ġp am
Ġp ease
Ġp iss
Ġp iling
Ġp oses
Ġp itty
Ġp avilion
nd a
Ġgo m
Ġgo bot
Ġgo oses
Ġno ing
Ġno oney
Ġf ank
Ġf iend
Ġf anny
Ġf ower
Ġf ading
Ġf aded
Ġf adder
oo sen
ea bles
ea polis
Ġhe ctic
Ġto ke
Ġto tem
om pl
Ġwe igher
et tie
it an
it zy
or o
or ation
ow ee
Ġu zz
Ġin come
Ġoh ohoh
le v
le le
Ġsh ea
Ġsh am
Ġsh ill
Ġsh ire
ar pen
ar sh
Ġr ur
Ġr ue
Ġr ussian
Ġr ouge
ht ee
Ġcan d
Ġcan isters
Ġcan did
Ġe es
Ġe ph
Ġe leph
Ġbe f
Ġwan cha
Ġdon chu
na u
Ġk on
Ġk ik
Ġk onk
ad d
ad abra
ad aga
ch uh
ĠM ed
ĠM art
ĠM ash
ĠM ara
ĠM ets
ĠM em
ĠM ered
ĠM ooky
ĠM unka
ĠM emorial
Ġme w
Ġlook at
ere sa
ed a
ed en
ed ra
ot tie
um or
um stein
Ġre h
Ġre group
ic or
Ġj r
Ġj ou
Ġj ut
Ġj al
Ġj amb
Ġj ockey
Ġnot ches
Ġba il
Ġba mm
Ġba mb
Ġba apo
Ġyes s
Ġshe er
Ġfor cing
Ġpl ur
Ġpl umb
Ġpl ural
Ġan i
am en
am ic
Ġmy rr
Ġju ven
Ġgon key
Ġall o
Ġat ed
Ġch an
Ġch is
Ġch ichi
Ġout ing
ill ers
ill ion
ur ky
ur nal
ter city
Ġbut ts
al i
ell i
ell ason
ĠD ur
ĠD ark
ĠD ance
ĠD uffy
ĠD olo
ĠD ixon
uh p
Ġthem s
Ġuh r
Ġuh dah
Ġdown wards
ce lon
Ġplay mate
Ġbo sh
ĠT V
ĠT ake
ĠT ap
ĠT og
ĠT ucky
ĠT ubbies
ĠT uppy
ĠT aki
ĠT upper
ĠT oucan
Ġher ons
Ġher oes
il ton
Ġbr ay
Ġbr ow
Ġbr unch
Ġbr ring
Ġab by
Ġbl ot
Ġbl urp
Ġbl agh
ĠS assy
Ġfr oth
ĠC ont
ĠC atter
ĠC ats
ĠC ancer
Ġsp osed
Ġsp uds
Ġtoo f
Ġtoo ee
ĠB u
ĠB op
ĠB ent
ĠB ark
ĠB anda
ĠB ryn
ĠB eren
ĠP B
ĠP S
ĠP ix
ĠP ony
ĠP ars
ĠP ogo
ĠP riest
ĠJ ar
eed oo
ĠA ww
ĠA BC
ab ox
Ġtake off
Ġcl amp
Ġcl ings
Ġcl icky
Ġbook ies
Ġbook sh
Ġah oo
Ġah uh
Ġdr aught
ish oo
Ġtr it
Ġtr ading
ue ls
Ġmm wah
Ġsl oup
Ġsl ugger
Ġtra pping
me h
ĠF ee
ĠF un
ĠF ry
ĠF ive
ĠF ort
Ġbu ht
Ġbu ah
Ġman ic
Ġman ys
ĠN ational
ĠL on
ĠL ew
ĠL ions
ĠL yle
ĠG F
ĠG a
ĠG or
ĠG ale
ĠG ander
Ġcom in
ĠThomas s
Ġsw ishing
Ġsw apping
Ġsw irling
ob oo
ob ot
Ġfl uttered
te er
ĠE ly
ĠE ya
Ġtur bo
Ġfi bbing
oh ipp
art i
art hing
Ġwa ggly
Ġqu eer
Ġcr utch
Ġcr itters
Ġar ctic
ĠCh arm
ĠCh eddy
ĠCh eez
ĠCh ubby
ĠCh rystal
ĠR ide
ĠR ep
ĠR ah
ĠR ider
ĠR ags
raw l
arl ess
Ġfind ed
Ġsc ient
ĠFr is
ent ive
Ġke bab
ion al
Ġpr r
Ġpic t
Ġche ckered
ph ony
Ġtalk ies
Ġhi j
Ġv at
Ġv eal
Ġv owels
Ġdi k
Ġgr otto
Ġgr uesome
Ġen cy
ag ah
Ġgu gu
Ġlea ks
man ship
og ers
ĠH al
ĠH av
ĠH anc
ĠH eart
ĠH ope
ĠH opper
ĠH oly
ĠH unka
Ġde fl
Ġex er
Ġey a
ma a
Ġnight shirt
Ġpen gy
Ġpen tagons
Ġpen manship
Ġdis in
ous ing
Ġsweet shop
ail or
ĠK al
ĠK em
ĠK urt
ĠK itten
ĠK ae
ĠK uf
ĠK han
ĠK nak
Ġz ee
Ġz am
Ġz up
ops ie
Ġsqu irty
Ġsqu igg
sh eet
sh ave
sh arpen
Ġsaw mill
Ġthought ful
ung o
Ġpush y
ĠGrand daddy
ctor s
ipp ity
Ġhar k
Ġsing ed
Ġsing ers
Ġgl ac
Ġpot tery
Ġow oo
Ġclean est
Ġear liest
Ġdogg one
aw i
Ġpaper clip
Ġhard ware
ane ously
Ġwash bas
Ġfing y
Ġfeet ball
Ġti ara
Ġaw l
Ġpar acetamol
Ġeh n
Ġstr ung
Ġdri bbly
Ġwhoops ies
Ġtom my
Ġflow ery
Ġbang bang
Ġside wards
eek er
wh ale
Ġoops ies
Ġlist ed
Ġate choo
Ġpage ant
Ġgra em
Ġlisten er
Ġun ivers
Ġnothing s
Ġend less
Ġquick est
Ġer k
Ġer hm
pl oy
Ġta e
ort ment
ball er
Ġstar ch
Ġteet aw
Ġcorn y
Ġcorn ered
Ġbump ty
Ġdad ah
Ġmo at
ipe y
oun tains
Ġpeek amoo
Ġlem mee
Ġmummy s
Ġshut ter
Ġbar bells
ling ling
Ġpo kie
anc ies
und un
app ie
Ġmic s
Ġmic ro
ĠPet re
Ġmoo ing
ĠSar abi
ĠCar ter
ĠCar wen
br im
well s
Ġbell ow
Ġsea horses
Ġdust b
Ġdust s
ire ct
ĠSp r
ĠSp ocket
ĠSp iky
Ġwoof ing
Ġdra pes
Ġnap nap
ĠBe c
eh uh
Ġwood chuck
ĠSh r
ĠSh ee
ĠSh en
ĠSh elby
ĠSh auna
gu y
Ġwhee zy
ĠZ en
ĠZ eek
Ġmar in
Ġele ment
ĠJeannine www
ĠPooh bie
Ġboom erang
Ġcross ings
Ġwake ning
Ġwin ners
Ġshake d
umb um
Ġcroc o
Ġbug le
Ġcu ppie
Ġcu ppa
Ġperson ally
Ġspot ting
Ġspaghetti o
Ġspaghetti os
ĠSan ty
vis or
ĠAr ound
ĠAr chie
Ġpa edidi
Ġpump er
Ġay gah
ĠMat u
Ġpee bee
Ġkey boards
ĠDavid s
ĠBar n
ĠBar celon
gr umpy
ugg aw
Ġve il
Ġtid ies
ĠPl at
Ġtooth s
Ġph easant
Ġtri al
Ġnin ini
Ġnin comp
ĠDomin ick
Ġpiggy back
let ter
Ġcarri ers
Ġlamb chops
fr ont
Ġmum ble
Ġtele graph
Ġtele visions
ĠThe odore
lew ood
ib i
ib al
Ġpan icking
ĠSm oky
Ġyuck s
ĠIs le
Ġnews letter
Ġbum s
ĠBl umstein
Ġcracker jacks
eg ie
Ġfree zes
Ġsuper vision
Ġsi ree
Ġes h
Ġhoo oo
Ġninet ieth
Ġfre re
Ġfre aky
ĠFl ossie
Ġtu pp
Ġsalt ines
Ġind ig
Ġfixed ed
Ġcot s
Ġcrunch ies
Ġhon ker
ĠPing o
no v
Ġbless ings
ĠMax ie
ĠNew town
Ġfift ies
Ġdirt ied
Ġmet ers
ĠWh eel
Ġmuff led
Ch arl
ees ha
Ġpeep s
ĠMel vin
[...]
