{
  "version": "1.0",
  "truncation": null,
  "padding": null,
  "added_tokens": [
    {
      "id": 0,
      "content": "<|endoftext|>",
      "single_word": false,
      "lstrip": false,
      "rstrip": false,
      "normalized": false,
      "special": true
    },
    {
      "id": 1,
      "content": "<UNK>",
      "single_word": false,
      "lstrip": false,
      "rstrip": false,
      "normalized": false,
      "special": true
    }
  ],
  "normalizer": null,
  "pre_tokenizer": {
    "type": "ByteLevel",
    "add_prefix_space": false,
    "trim_offsets": true,
    "use_regex": true
  },
  "post_processor": {
    "type": "ByteLevel",
    "add_prefix_space": true,
    "trim_offsets": false,
    "use_regex": true
  },
  "decoder": {
    "type": "ByteLevel",
    "add_prefix_space": true,
    "trim_offsets": true,
    "use_regex": true
  },
  "model": {
    "type": "BPE",
    "dropout": null,
    "unk_token": null,
    "continuing_subword_prefix": "",
    "end_of_word_suffix": "",
    "fuse_unk": false,
    "byte_fallback": false,
    "vocab": {
      "<|endoftext|>": 0,
      "<UNK>": 1,
      "!": 2,
      "\"": 3,
      "#": 4,
      "$": 5,
      "%": 6,
      "&": 7,
      "'": 8,
      "(": 9,
      ")": 10,
      "*": 11,
      "+": 12,
      ",": 13,
      "-": 14,
      ".": 15,
      "/": 16,
      "0": 17,
      "1": 18,
      "2": 19,
      "3": 20,
      "4": 21,
      "5": 22,
      "6": 23,
      "7": 24,
      "8": 25,
      "9": 26,
      ":": 27,
      ";": 28,
      "<": 29,
      "=": 30,
      ">": 31,
      "?": 32,
      "@": 33,
      "A": 34,
      "B": 35,
      "C": 36,
      "D": 37,
      "E": 38,
      "F": 39,
      "G": 40,
      "H": 41,
      "I": 42,
      "J": 43,
      "K": 44,
      "L": 45,
      "M": 46,
      "N": 47,
      "O": 48,
      "P": 49,
      "Q": 50,
      "R": 51,
      "S": 52,
      "T": 53,
      "U": 54,
      "V": 55,
      "W": 56,
      "X": 57,
      "Y": 58,
      "Z": 59,
      "[": 60,
      "\\": 61,
      "]": 62,
      "^": 63,
      "_": 64,
      "`": 65,
      "a": 66,
      "b": 67,
      "c": 68,
      "d": 69,
      "e": 70,
      "f": 71,
      "g": 72,
      "h": 73,
      "i": 74,
      "j": 75,
      "k": 76,
      "l": 77,
      "m": 78,
      "n": 79,
      "o": 80,
      "p": 81,
      "q": 82,
      "r": 83,
      "s": 84,
      "t": 85,
      "u": 86,
      "v": 87,
      "w": 88,
      "x": 89,
      "y": 90,
      "z": 91,
      "{": 92,
      "|": 93,
      "}": 94,
      "~": 95,
      "¡": 96,
      "¢": 97,
      "£": 98,
      "¤": 99,
      "¥": 100,
      "¦": 101,
      "§": 102,
      "¨": 103,
      "©": 104,
      "ª": 105,
      "«": 106,
      "¬": 107,
      "®": 108,
      "¯": 109,
      "°": 110,
      "±": 111,
      "²": 112,
      "³": 113,
      "´": 114,
      "µ": 115,
      "¶": 116,
      "·": 117,
      "¸": 118,
      "¹": 119,
      "º": 120,
      "»": 121,
      "¼": 122,
      "½": 123,
      "¾": 124,
      "¿": 125,
      "À": 126,
      "Á": 127,
      "Â": 128,
      "Ã": 129,
      "Ä": 130,
      "Å": 131,
      "Æ": 132,
      "Ç": 133,
      "È": 134,
      "É": 135,
      "Ê": 136,
      "Ë": 137,
      "Ì": 138,
      "Í": 139,
      "Î": 140,
      "Ï": 141,
      "Ð": 142,
      "Ñ": 143,
      "Ò": 144,
      "Ó": 145,
      "Ô": 146,
      "Õ": 147,
      "Ö": 148,
      "×": 149,
      "Ø": 150,
      "Ù": 151,
      "Ú": 152,
      "Û": 153,
      "Ü": 154,
      "Ý": 155,
      "Þ": 156,
      "ß": 157,
      "à": 158,
      "á": 159,
      "â": 160,
      "ã": 161,
      "ä": 162,
      "å": 163,
      "æ": 164,
      "ç": 165,
      "è": 166,
      "é": 167,
      "ê": 168,
      "ë": 169,
      "ì": 170,
      "í": 171,
      "î": 172,
      "ï": 173,
      "ð": 174,
      "ñ": 175,
      "ò": 176,
      "ó": 177,
      "ô": 178,
      "õ": 179,
      "ö": 180,
      "÷": 181,
      "ø": 182,
      "ù": 183,
      "ú": 184,
      "û": 185,
      "ü": 186,
      "ý": 187,
      "þ": 188,
      "ÿ": 189,
      "Ā": 190,
      "ā": 191,
      "Ă": 192,
      "ă": 193,
      "Ą": 194,
      "ą": 195,
      "Ć": 196,
      "ć": 197,
      "Ĉ": 198,
      "ĉ": 199,
      "Ċ": 200,
      "ċ": 201,
      "Č": 202,
      "č": 203,
      "Ď": 204,
      "ď": 205,
      "Đ": 206,
      "đ": 207,
      "Ē": 208,
      "ē": 209,
      "Ĕ": 210,
      "ĕ": 211,
      "Ė": 212,
      "ė": 213,
      "Ę": 214,
      "ę": 215,
      "Ě": 216,
      "ě": 217,
      "Ĝ": 218,
      "ĝ": 219,
      "Ğ": 220,
      "ğ": 221,
      "Ġ": 222,
      "ġ": 223,
      "Ģ": 224,
      "ģ": 225,
      "Ĥ": 226,
      "ĥ": 227,
      "Ħ": 228,
      "ħ": 229,
      "Ĩ": 230,
      "ĩ": 231,
      "Ī": 232,
      "ī": 233,
      "Ĭ": 234,
      "ĭ": 235,
      "Į": 236,
      "į": 237,
      "İ": 238,
      "ı": 239,
      "Ĳ": 240,
      "ĳ": 241,
      "Ĵ": 242,
      "ĵ": 243,
      "Ķ": 244,
      "ķ": 245,
      "ĸ": 246,
      "Ĺ": 247,
      "ĺ": 248,
      "Ļ": 249,
      "ļ": 250,
      "Ľ": 251,
      "ľ": 252,
      "Ŀ": 253,
      "ŀ": 254,
      "Ł": 255,
      "ł": 256,
      "Ń": 257,
      "**": 258,
      "**:": 259,
      "Ġ\\": 260,
      "Ġ**": 261,
      "Ġt": 262,
      "MO": 263,
      "MOT": 264,
      "CH": 265,
      "CHI": 266,
      "Ġth": 267,
      "Ġw": 268,
      "Ġa": 269,
      "Ġy": 270,
      "ou": 271,
      "Ġi": 272,
      "re": 273,
      "Ġh": 274,
      "Ġthe": 275,
      "Ġs": 276,
      "at": 277,
      "Ġo": 278,
      "Ġyou": 279,
      "Ġd": 280,
      "in": 281,
      "Ġb": 282,
      "Ġc": 283,
      "Ġg": 284,
      "'s": 285,
      "Ġm": 286,
      "Ġwh": 287,
      "an": 288,
      "Ġn": 289,
      "er": 290,
      "Ġit": 291,
      "Ġdo": 292,
      "Ġl": 293,
      "ĠI": 294,
      "ll": 295,
      "ing": 296,
      "Ġp": 297,
      "Ġthat": 298,
      "nd": 299,
      "Ġgo": 300,
      "Ġno": 301,
      "Ġf": 302,
      "es": 303,
      "oo": 304,
      "ea": 305,
      "Ġon": 306,
      "Ġ<": 307,
      "UN": 308,
      "UNK": 309,
      "ay": 310,
      "Ġhe": 311,
      "Ġwhat": 312,
      "Ġand": 313,
      "is": 314,
      "Ġto": 315,
      "om": 316,
      "'t": 317,
      "Ġwe": 318,
      "et": 319,
      "it": 320,
      "Ġha": 321,
      "ke": 322,
      "ve": 323,
      "or": 324,
      "se": 325,
      "ow": 326,
      "Ġis": 327,
      "ig": 328,
      "IN": 329,
      "Ġu": 330,
      "ee": 331,
      "INV": 332,
      "Ġin": 333,
      "Ġoh": 334,
      "AT": 335,
      "le": 336,
      "as": 337,
      "ut": 338,
      "Ġyea": 339,
      "id": 340,
      "Ġthere": 341,
      "Ġsh": 342,
      "Ġyeah": 343,
      "FAT": 344,
      "Ġthis": 345,
      "ck": 346,
      "ar": 347,
      "Ġr": 348,
      "ht": 349,
      "en": 350,
      "Ġcan": 351,
      "ook": 352,
      "Ġe": 353,
      "Ġone": 354,
      "ight": 355,
      "on": 356,
      "Ġbe": 357,
      "Ġwan": 358,
      "ome": 359,
      "Ġdon": 360,
      "Ġli": 361,
      "na": 362,
      "Ġk": 363,
      "st": 364,
      "Ġare": 365,
      "ad": 366,
      "Ġof": 367,
      "Ġyour": 368,
      "ch": 369,
      "ĠM": 370,
      "ir": 371,
      "ld": 372,
      "all": 373,
      "Ġst": 374,
      "Ġhave": 375,
      "Ġme": 376,
      "Ġlike": 377,
      "out": 378,
      "Ġlook": 379,
      "Ġhere": 380,
      "ere": 381,
      "ed": 382,
      "ver": 383,
      "ot": 384,
      "um": 385,
      "Ġsee": 386,
      "Ġre": 387,
      "kay": 388,
      "Ġthey": 389,
      "'re": 390,
      "ic": 391,
      "Ġokay": 392,
      "Ġj": 393,
      "Ġdid": 394,
      "Ġnot": 395,
      "Ġkn": 396,
      "Ġba": 397,
      "ink": 398,
      "Ġyes": 399,
      "im": 400,
      "Ġput": 401,
      "Ġshe": 402,
      "Ġget": 403,
      "yy": 404,
      "Ġyyy": 405,
      "my": 406,
      "ie": 407,
      "Ġfor": 408,
      "Ġpl": 409,
      "ith": 410,
      "Ġwas": 411,
      "Ġan": 412,
      "Ġwhere": 413,
      "Ġup": 414,
      "Ġright": 415,
      "Ġgot": 416,
      "Ġknow": 417,
      "am": 418,
      "Ġwith": 419,
      "Ġmy": 420,
      "Ġwant": 421,
      "ake": 422,
      "Ġnow": 423,
      "au": 424,
      "Ġsome": 425,
      "od": 426,
      "Ġju": 427,
      "Ġgon": 428,
      "Ġall": 429,
      "Ġat": 430,
      "Ġch": 431,
      "Ġthink": 432,
      "op": 433,
      "ra": 434,
      "itt": 435,
      "her": 436,
      "Ġso": 437,
      "ould": 438,
      "ear": 439,
      "Ġout": 440,
      "ill": 441,
      "Ġwanna": 442,
      "ur": 443,
      "un": 444,
      "'m": 445,
      "ter": 446,
      "Ġbut": 447,
      "Ġgoing": 448,
      "'ll": 449,
      "al": 450,
      "Ġjust": 451,
      "Ġlet": 452,
      "ore": 453,
      "Ġwell": 454,
      "ell": 455,
      "wn": 456,
      "Ġthen": 457,
      "Ġgonna": 458,
      "Ġdoes": 459,
      "ry": 460,
      "ĠD": 461,
      "Ġwho": 462,
      "uh": 463,
      "Ġthem": 464,
      "ly": 465,
      "Ġcome": 466,
      "pp": 467,
      "ittle": 468,
      "Ġuh": 469,
      "Ġlittle": 470,
      "and": 471,
      "ww": 472,
      "Ġdown": 473,
      "Ġgood": 474,
      "Ġsay": 475,
      "ause": 476,
      "dy": 477,
      "ta": 478,
      "Ġbec": 479,
      "ce": 480,
      "Ġum": 481,
      "Ġbecause": 482,
      "by": 483,
      "Ġplay": 484,
      "Ġtw": 485,
      "hing": 486,
      "ice": 487,
      "very": 488,
      "Ġbig": 489,
      "Ġbo": 490,
      "EX": 491,
      "ummy": 492,
      "ĠT": 493,
      "EXP": 494,
      "Ġher": 495,
      "Ġhow": 496,
      "ick": 497,
      "ind": 498,
      "il": 499,
      "Ġbr": 500,
      "Ġmore": 501,
      "SI": 502,
      "us": 503,
      "Ġeat": 504,
      "Ġcar": 505,
      "Ġor": 506,
      "Ġwhen": 507,
      "'ve": 508,
      "Ġtwo": 509,
      "Ġwhy": 510,
      "Ġab": 511,
      "Ġal": 512,
      "oug": 513,
      "ol": 514,
      "Ġbl": 515,
      "Ġif": 516,
      "Ġback": 517,
      "ĠS": 518,
      "hm": 519,
      "addy": 520,
      "ommy": 521,
      "ose": 522,
      "Ġfr": 523,
      "ge": 524,
      "Ġbaby": 525,
      "nt": 526,
      "ĠC": 527,
      "Ġsp": 528,
      "Ġtoo": 529,
      "ain": 530,
      "Ġhis": 531,
      "Ġhim": 532,
      "ĠB": 533,
      "uck": 534,
      "ound": 535,
      "Ġabout": 536,
      "AD": 537,
      "ine": 538,
      "ĠMummy": 539,
      "Ġhas": 540,
      "Ġmhm": 541,
      "ĠP": 542,
      "ide": 543,
      "ive": 544,
      "Ġoff": 545,
      "ĠJ": 546,
      "ap": 547,
      "eed": 548,
      "Ġvery": 549,
      "ĠA": 550,
      "Ġmake": 551,
      "Ġsa": 552,
      "ty": 553,
      "Ġover": 554,
      "Ġany": 555,
      "one": 556,
      "Ġwat": 557,
      "Ġdoing": 558,
      "ally": 559,
      "SIS": 560,
      "ak": 561,
      "other": 562,
      "ab": 563,
      "day": 564,
      "Ġwould": 565,
      "ank": 566,
      "ame": 567,
      "Ġtake": 568,
      "Ġne": 569,
      "Ġhm": 570,
      "Ġthese": 571,
      "Ġcl": 572,
      "ber": 573,
      "ast": 574,
      "Ġbook": 575,
      "qu": 576,
      "ff": 577,
      "our": 578,
      "Ġdidn": 579,
      "Ġah": 580,
      "RO": 581,
      "Ġhuh": 582,
      "Ġneed": 583,
      "Ġdr": 584,
      "ite": 585,
      "Ġisn": 586,
      "Ġread": 587,
      "ish": 588,
      "Ġas": 589,
      "Ġthing": 590,
      "eep": 591,
      "ree": 592,
      "Ġtr": 593,
      "Ġhaf": 594,
      "Ġhafta": 595,
      "Ġsom": 596,
      "ĠDaddy": 597,
      "Ġsomet": 598,
      "Ġtell": 599,
      "BRO": 600,
      "Ġag": 601,
      "Ġthose": 602,
      "ue": 603,
      "ĠTh": 604,
      "ies": 605,
      "ough": 606,
      "way": 607,
      "Ġmm": 608,
      "Ġhad": 609,
      "ers": 610,
      "ouse": 611,
      "ure": 612,
      "Ġnice": 613,
      "ock": 614,
      "Ġwere": 615,
      "Ġsl": 616,
      "Ġwill": 617,
      "Ġtra": 618,
      "ĠMommy": 619,
      "me": 620,
      "Ġboy": 621,
      "ĠF": 622,
      "ct": 623,
      "oon": 624,
      "Ġcould": 625,
      "ther": 626,
      "Ġagain": 627,
      "ime": 628,
      "Ġthank": 629,
      "Ġwww": 630,
      "Ġbu": 631,
      "Ġman": 632,
      "Ġother": 633,
      "ĠN": 634,
      "alk": 635,
      "ove": 636,
      "ong": 637,
      "ĠL": 638,
      "ip": 639,
      "ĠG": 640,
      "xt": 641,
      "Ġanother": 642,
      "of": 643,
      "Ġcom": 644,
      "omas": 645,
      "ĠThomas": 646,
      "ease": 647,
      "up": 648,
      "air": 649,
      "gg": 650,
      "Ġsomething": 651,
      "th": 652,
      "Ġmu": 653,
      "Ġplease": 654,
      "unn": 655,
      "el": 656,
      "Ġdoesn": 657,
      "Ġbit": 658,
      "ting": 659,
      "Ġgre": 660,
      "ep": 661,
      "Ġpre": 662,
      "Ġsw": 663,
      "ob": 664,
      "Ġball": 665,
      "Ġby": 666,
      "Ġfl": 667,
      "Ġwor": 668,
      "Ġhapp": 669,
      "eet": 670,
      "Ġsaid": 671,
      "te": 672,
      "ard": 673,
      "old": 674,
      "Ġcat": 675,
      "Ġsit": 676,
      "ul": 677,
      "os": 678,
      "ĠE": 679,
      "ost": 680,
      "Ġtur": 681,
      "right": 682,
      "Ġreally": 683,
      "Ġtime": 684,
      "Ġfi": 685,
      "Ġgir": 686,
      "TE": 687,
      "Ġhouse": 688,
      "oh": 689,
      "Ġel": 690,
      "Ġway": 691,
      "ess": 692,
      "een": 693,
      "Ġalright": 694,
      "ump": 695,
      "MCH": 696,
      "TEA": 697,
      "are": 698,
      "zz": 699,
      "ead": 700,
      "Ġgoes": 701,
      "Ġelse": 702,
      "Ġcall": 703,
      "ich": 704,
      "row": 705,
      "art": 706,
      "Ġwa": 707,
      "ant": 708,
      "Ġqu": 709,
      "Ġshall": 710,
      "ood": 711,
      "Ġthree": 712,
      "ack": 713,
      "oom": 714,
      "Ġgive": 715,
      "ang": 716,
      "Ġhel": 717,
      "LO": 718,
      "Ġcr": 719,
      "ys": 720,
      "Ġpu": 721,
      "Ġgirl": 722,
      "DAD": 723,
      "Ġturn": 724,
      "Ġfrom": 725,
      "Ġaway": 726,
      "Ġwater": 727,
      "ool": 728,
      "Ġblue": 729,
      "Ġred": 730,
      "Ġbet": 731,
      "Ġtry": 732,
      "ush": 733,
      "Ġar": 734,
      "Ġcol": 735,
      "be": 736,
      "ate": 737,
      "Ġuhh": 738,
      "Ġhey": 739,
      "Ġdone": 740,
      "Ġhand": 741,
      "ĠCh": 742,
      "pen": 743,
      "Ġle": 744,
      "Ġtrain": 745,
      "Ġwent": 746,
      "side": 747,
      "Ġgone": 748,
      "oc": 749,
      "Ġmay": 750,
      "Ġhelp": 751,
      "iss": 752,
      "ĠR": 753,
      "ving": 754,
      "Ġbir": 755,
      "Ġcolor": 756,
      "Ġlot": 757,
      "Ġse": 758,
      "Ġhappen": 759,
      "ist": 760,
      "Ġuhhuh": 761,
      "orn": 762,
      "ah": 763,
      "Ġwatch": 764,
      "Ġopen": 765,
      "irst": 766,
      "raw": 767,
      "www": 768,
      "arl": 769,
      "Ġbre": 770,
      "Ġfind": 771,
      "ven": 772,
      "LOI": 773,
      "Ġthings": 774,
      "GR": 775,
      "Ġbed": 776,
      "Ġsc": 777,
      "mber": 778,
      "unny": 779,
      "ĠFr": 780,
      "Ġpie": 781,
      "Ġgreen": 782,
      "ent": 783,
      "Ġsm": 784,
      "Ġint": 785,
      "Ġhome": 786,
      "oll": 787,
      "AR": 788,
      "Ġreme": 789,
      "Ġus": 790,
      "nder": 791,
      "ild": 792,
      "ody": 793,
      "Ġke": 794,
      "PAT": 795,
      "oor": 796,
      "Ġremember": 797,
      "Ġmommy": 798,
      "ion": 799,
      "Ġpr": 800,
      "Ġpic": 801,
      "Ġche": 802,
      "Ġshould": 803,
      "Ġpe": 804,
      "ace": 805,
      "Ġtoday": 806,
      "age": 807,
      "Ġevery": 808,
      "les": 809,
      "eel": 810,
      "ought": 811,
      "ph": 812,
      "Ġshow": 813,
      "ath": 814,
      "lean": 815,
      "ked": 816,
      "Ġmaybe": 817,
      "Ġfour": 818,
      "oney": 819,
      "Ġbot": 820,
      "Ġbetter": 821,
      "Ġhor": 822,
      "Ġtalk": 823,
      "Ġsleep": 824,
      "Ġbox": 825,
      "aking": 826,
      "Ġdog": 827,
      "Ġhi": 828,
      "llo": 829,
      "thing": 830,
      "ADU": 831,
      "end": 832,
      "Ġhello": 833,
      "ful": 834,
      "Ġwait": 835,
      "body": 836,
      "Ġwr": 837,
      "Ġday": 838,
      "'d": 839,
      "Ġv": 840,
      "Ġdi": 841,
      "Ġlove": 842,
      "Ġgr": 843,
      "Ġhold": 844,
      "Ġwork": 845,
      "Ġfall": 846,
      "Ġhear": 847,
      "Ġkind": 848,
      "Ġbye": 849,
      "ange": 850,
      "Ġen": 851,
      "ag": 852,
      "Ġtea": 853,
      "Ġcook": 854,
      "Ġdear": 855,
      "Ġmean": 856,
      "oke": 857,
      "Ġwhich": 858,
      "oot": 859,
      "FCH": 860,
      "ama": 861,
      "Ġgu": 862,
      "Ġwee": 863,
      "bb": 864,
      "Ġdoor": 865,
      "lf": 866,
      "Ġcalled": 867,
      "Ġyell": 868,
      "Ġfirst": 869,
      "Ġhead": 870,
      "Ġcoming": 871,
      "GRA": 872,
      "Ġdaddy": 873,
      "Ġmin": 874,
      "Ġmuch": 875,
      "Ġwon": 876,
      "ĠW": 877,
      "Ġtruck": 878,
      "aser": 879,
      "ady": 880,
      "Ġaren": 881,
      "Ġlea": 882,
      "ĠFraser": 883,
      "Ġbear": 884,
      "ilk": 885,
      "ark": 886,
      "man": 887,
      "Ġdrink": 888,
      "Ġlooks": 889,
      "og": 890,
      "Ġsays": 891,
      "text": 892,
      "|>": 893,
      "Ġ<|": 894,
      "oftext": 895,
      "endoftext": 896,
      "ĠH": 897,
      "Ġyellow": 898,
      "ture": 899,
      "ute": 900,
      "Ġname": 901,
      "Ġstop": 902,
      "oop": 903,
      "Ġmilk": 904,
      "Ġde": 905,
      "Ġinto": 906,
      "Ġfin": 907,
      "Ġchair": 908,
      "Ġfire": 909,
      "Ġaf": 910,
      "chool": 911,
      "Ġhaven": 912,
      "Ġsor": 913,
      "Ġpicture": 914,
      "Ġhur": 915,
      "Ġjuice": 916,
      "Ġsho": 917,
      "Ġbeen": 918,
      "Ġdoll": 919,
      "Ġcup": 920,
      "Ġstill": 921,
      "ix": 922,
      "ade": 923,
      "Ġsu": 924,
      "Ġround": 925,
      "Ġhair": 926,
      "Ġhat": 927,
      "Ġschool": 928,
      "ass": 929,
      "Ġfive": 930,
      "you": 931,
      "Ġdin": 932,
      "Ġfood": 933,
      "ile": 934,
      "Ġthr": 935,
      "Ġfinish": 936,
      "ise": 937,
      "Ġex": 938,
      "ft": 939,
      "CAR": 940,
      "Ġey": 941,
      "Ġaround": 942,
      "Ġnext": 943,
      "Ġsure": 944,
      "ĠGr": 945,
      "Ġpeop": 946,
      "Ġafter": 947,
      "Ġmight": 948,
      "leph": 949,
      "Ġtoys": 950,
      "ma": 951,
      "Ġnight": 952,
      "Ġpen": 953,
      "Ġunder": 954,
      "Ġpeople": 955,
      "Ġdraw": 956,
      "Ġready": 957,
      "Ġthrough": 958,
      "ream": 959,
      "Ġbus": 960,
      "Ġco": 961,
      "Ġour": 962,
      "uff": 963,
      "Ġdis": 964,
      "Ġonly": 965,
      "ash": 966,
      "imal": 967,
      "Ġapp": 968,
      "Ġstick": 969,
      "Ġgetting": 970,
      "est": 971,
      "Ġpick": 972,
      "able": 973,
      "arling": 974,
      "Ġanimal": 975,
      "illy": 976,
      "Ġlong": 977,
      "Ġfunny": 978,
      "ous": 979,
      "Ġmine": 980,
      "Ġdarling": 981,
      "Ġkeep": 982,
      "Ġhot": 983,
      "Ġuse": 984,
      "ese": 985,
      "Ġsweet": 986,
      "aper": 987,
      "Ġwow": 988,
      "Ġplaying": 989,
      "Ġnew": 990,
      "Ġcow": 991,
      "Ġhappened": 992,
      "Ġcare": 993,
      "ĠMama": 994,
      "Ġya": 995,
      "Ġegg": 996,
      "Ġsn": 997,
      "get": 998,
      "Ġbreak": 999,
      "Ġorange": 1000,
      "Ġwalk": 1001,
      "ail": 1002,
      "Ġpig": 1003,
      "Ġmon": 1004,
      "ss": 1005,
      "SIB": 1006,
      "Ġjump": 1007,
      "red": 1008,
      "ouch": 1009,
      "ĠK": 1010,
      "Ġbott": 1011,
      "ory": 1012,
      "Ġtop": 1013,
      "Ġfish": 1014,
      "Ġz": 1015,
      "Ġhurt": 1016,
      "ops": 1017,
      "aug": 1018,
      "Ġpret": 1019,
      "ger": 1020,
      "Ġam": 1021,
      "ach": 1022,
      "key": 1023,
      "Ġduck": 1024,
      "Ġcut": 1025,
      "ves": 1026,
      "JE": 1027,
      "Ġpiece": 1028,
      "outh": 1029,
      "Ġlooking": 1030,
      "Ġminute": 1031,
      "ne": 1032,
      "Ġsqu": 1033,
      "Ġmade": 1034,
      "Ġbroke": 1035,
      "Ġstay": 1036,
      "sh": 1037,
      "ually": 1038,
      "Ġpull": 1039,
      "opp": 1040,
      "Ġthrow": 1041,
      "Ġmaking": 1042,
      "Ġanything": 1043,
      "Ġcame": 1044,
      "Ġmouth": 1045,
      "Ġtable": 1046,
      "arm": 1047,
      "self": 1048,
      "Ġlast": 1049,
      "Ġones": 1050,
      "ape": 1051,
      "Ġoutside": 1052,
      "Ġdat": 1053,
      "Ġeating": 1054,
      "Ġbring": 1055,
      "Ġbird": 1056,
      "Ġsaw": 1057,
      "Ġthought": 1058,
      "ĠMom": 1059,
      "Ġnose": 1060,
      "Ġpretty": 1061,
      "Ġsna": 1062,
      "fore": 1063,
      "ung": 1064,
      "Ġpush": 1065,
      "ord": 1066,
      "Ġwasn": 1067,
      "Ġbefore": 1068,
      "Ġtheir": 1069,
      "ri": 1070,
      "akes": 1071,
      "airs": 1072,
      "thday": 1073,
      "ac": 1074,
      "Ġyep": 1075,
      "Ġmany": 1076,
      "Ġroom": 1077,
      "Ġice": 1078,
      "Ġfoot": 1079,
      "ew": 1080,
      "ĠGrand": 1081,
      "ctor": 1082,
      "Ġcheese": 1083,
      "ipp": 1084,
      "orning": 1085,
      "iend": 1086,
      "Ġstart": 1087,
      "Ġmorning": 1088,
      "Ġstand": 1089,
      "av": 1090,
      "Ġlots": 1091,
      "Ġfloor": 1092,
      "lephant": 1093,
      "Ġhar": 1094,
      "Ġbirthday": 1095,
      "Ġsilly": 1096,
      "Ġwind": 1097,
      "own": 1098,
      "Ġlady": 1099,
      "Ġlight": 1100,
      "Ġelephant": 1101,
      "Ġstuff": 1102,
      "Ġbag": 1103,
      "Ġdiff": 1104,
      "Ġstory": 1105,
      "Ġsing": 1106,
      "Ġsix": 1107,
      "Ġmom": 1108,
      "Ġmat": 1109,
      "Ġfriend": 1110,
      "Ġooh": 1111,
      "Ġgl": 1112,
      "Ġhaving": 1113,
      "unch": 1114,
      "EL": 1115,
      "Ġpot": 1116,
      "Ġnum": 1117,
      "Ġmove": 1118,
      "ĠDad": 1119,
      "umm": 1120,
      "Ġow": 1121,
      "irt": 1122,
      "eas": 1123,
      "Ġclean": 1124,
      "Ġapple": 1125,
      "kes": 1126,
      "Ġmust": 1127,
      "Ġear": 1128,
      "Ġanimals": 1129,
      "Ġfit": 1130,
      "Ġdogg": 1131,
      "Ġshoes": 1132,
      "Ġold": 1133,
      "Ġsorry": 1134,
      "Ġleave": 1135,
      "Ġballoon": 1136,
      "Ġhorse": 1137,
      "Ġbath": 1138,
      "Ġwants": 1139,
      "ole": 1140,
      "Ġcareful": 1141,
      "Ġyet": 1142,
      "Ġhoney": 1143,
      "aw": 1144,
      "Ġpaper": 1145,
      "ond": 1146,
      "Ġhard": 1147,
      "Ġpard": 1148,
      "Ġpardon": 1149,
      "Ġfix": 1150,
      "Ġspoon": 1151,
      "Ġwear": 1152,
      "Ġbuild": 1153,
      "Ġchoo": 1154,
      "Ġcake": 1155,
      "Ġwhite": 1156,
      "Ġleg": 1157,
      "Ġact": 1158,
      "ĠNin": 1159,
      "aught": 1160,
      "Ġtree": 1161,
      "ana": 1162,
      "ater": 1163,
      "die": 1164,
      "cle": 1165,
      "ble": 1166,
      "ane": 1167,
      "Ġletter": 1168,
      "Ġcomes": 1169,
      "Ġprob": 1170,
      "Ġwash": 1171,
      "Ġdiffere": 1172,
      "Ġkitt": 1173,
      "Ġwhoop": 1174,
      "Ġeyes": 1175,
      "pe": 1176,
      "Ġfing": 1177,
      "Ġfeel": 1178,
      "Ġnumber": 1179,
      "ungry": 1180,
      "Ġfound": 1181,
      "ister": 1182,
      "ug": 1183,
      "urp": 1184,
      "ĠChi": 1185,
      "Ġfeet": 1186,
      "Ġsk": 1187,
      "ren": 1188,
      "ĠJwww": 1189,
      "Ġti": 1190,
      "Ġcold": 1191,
      "Ġhands": 1192,
      "icke": 1193,
      "leanor": 1194,
      "Ġthough": 1195,
      "itting": 1196,
      "Ġuhoh": 1197,
      "Ġclose": 1198,
      "ĠEleanor": 1199,
      "itch": 1200,
      "cu": 1201,
      "Ġbuy": 1202,
      "Ġhungry": 1203,
      "Ġaw": 1204,
      "Ġpar": 1205,
      "irty": 1206,
      "Ġnoise": 1207,
      "Ġeh": 1208,
      "room": 1209,
      "Ġchoc": 1210,
      "Ġbooks": 1211,
      "Ġbea": 1212,
      "Ġdifferent": 1213,
      "Ġeven": 1214,
      "Ġtoget": 1215,
      "Ġcou": 1216,
      "Ġtogether": 1217,
      "Ġstr": 1218,
      "aur": 1219,
      "tend": 1220,
      "Ġnever": 1221,
      "Ġdri": 1222,
      "Ġfinished": 1223,
      "Ġwrite": 1224,
      "icken": 1225,
      "Ġtape": 1226,
      "hone": 1227,
      "Ġface": 1228,
      "Ġcry": 1229,
      "bo": 1230,
      "Ġpretend": 1231,
      "rist": 1232,
      "ner": 1233,
      "Ġeight": 1234,
      "stairs": 1235,
      "Ġactually": 1236,
      "Ġsand": 1237,
      "Ġstuck": 1238,
      "ĠMum": 1239,
      "Ġblack": 1240,
      "ins": 1241,
      "Ġtick": 1242,
      "Ġbutter": 1243,
      "RS": 1244,
      "Ġsame": 1245,
      "Ġwhoops": 1246,
      "Ġneedta": 1247,
      "URS": 1248,
      "Ġdre": 1249,
      "imes": 1250,
      "Ġtom": 1251,
      "Ġsaying": 1252,
      "Ġinside": 1253,
      "Ġhappy": 1254,
      "Ġflow": 1255,
      "ĠPur": 1256,
      "ĠMa": 1257,
      "Ġbang": 1258,
      "Ġfell": 1259,
      "ĠAn": 1260,
      "ton": 1261,
      "Ġside": 1262,
      "oth": 1263,
      "Ġmoney": 1264,
      "Ġsomebody": 1265,
      "Ġwheel": 1266,
      "Ġgreat": 1267,
      "Ġroll": 1268,
      "eek": 1269,
      "ds": 1270,
      "Ġtouch": 1271,
      "Ġtrying": 1272,
      "wh": 1273,
      "ĠPurdie": 1274,
      "Ġkiss": 1275,
      "Ġoops": 1276,
      "ny": 1277,
      "Ġchicken": 1278,
      "Ġpain": 1279,
      "abb": 1280,
      "eddy": 1281,
      "Ġreal": 1282,
      "Ġgotta": 1283,
      "Ġputting": 1284,
      "Ġpink": 1285,
      "dd": 1286,
      "Ġlist": 1287,
      "ub": 1288,
      "Ġrec": 1289,
      "Ġhors": 1290,
      "Ġate": 1291,
      "Ġthan": 1292,
      "Ġtow": 1293,
      "oss": 1294,
      "iger": 1295,
      "sed": 1296,
      "Ġmess": 1297,
      "Ġchocol": 1298,
      "Ġpage": 1299,
      "Ġrain": 1300,
      "Ġlikes": 1301,
      "Ġsitting": 1302,
      "iding": 1303,
      "Ġenough": 1304,
      "Ġwhile": 1305,
      "Ġsound": 1306,
      "Ġyours": 1307,
      "Ġtalking": 1308,
      "iz": 1309,
      "Ġask": 1310,
      "Ġseven": 1311,
      "ably": 1312,
      "Ġgra": 1313,
      "Ġbad": 1314,
      "Ġair": 1315,
      "igh": 1316,
      "Ġpart": 1317,
      "Ġsmall": 1318,
      "osaur": 1319,
      "Ġprobably": 1320,
      "Ġpoor": 1321,
      "Ġbroken": 1322,
      "Ġkitty": 1323,
      "Ġdinner": 1324,
      "Ġwindow": 1325,
      "Ġrun": 1326,
      "Ġseen": 1327,
      "abbit": 1328,
      "JEN": 1329,
      "ave": 1330,
      "Ġcookie": 1331,
      "Ġten": 1332,
      "Ġpop": 1333,
      "ust": 1334,
      "Ġlisten": 1335,
      "Ġlater": 1336,
      "ont": 1337,
      "Ġun": 1338,
      "OP": 1339,
      "Ġte": 1340,
      "Ġnothing": 1341,
      "Ġbow": 1342,
      "INT": 1343,
      "Nin": 1344,
      "ways": 1345,
      "Ġend": 1346,
      "Ġchocolate": 1347,
      "bye": 1348,
      "gine": 1349,
      "Ġblock": 1350,
      "Ġswim": 1351,
      "cy": 1352,
      "Ġcra": 1353,
      "Ġbread": 1354,
      "RE": 1355,
      "Ġboat": 1356,
      "Ġtoy": 1357,
      "Ġeverything": 1358,
      "Ġteddy": 1359,
      "Ġsun": 1360,
      "idge": 1361,
      "where": 1362,
      "RY": 1363,
      "RYA": 1364,
      "Ġtired": 1365,
      "Ġquick": 1366,
      "Ġer": 1367,
      "OPE": 1368,
      "ara": 1369,
      "Ġfun": 1370,
      "Ġfly": 1371,
      "Ġrock": 1372,
      "CO": 1373,
      "Ġlovely": 1374,
      "Ġsnow": 1375,
      "mas": 1376,
      "Ġbottle": 1377,
      "Ġride": 1378,
      "izz": 1379,
      "Ġcloth": 1380,
      "fe": 1381,
      "ces": 1382,
      "Ġrabbit": 1383,
      "Ġpol": 1384,
      "pl": 1385,
      "Ġlion": 1386,
      "ary": 1387,
      "Ġyup": 1388,
      "Ġro": 1389,
      "Ġguess": 1390,
      "Ġleft": 1391,
      "ather": 1392,
      "Ġta": 1393,
      "oof": 1394,
      "ĠBob": 1395,
      "Ġwo": 1396,
      "ristmas": 1397,
      "Ġdirty": 1398,
      "Ġban": 1399,
      "Ġda": 1400,
      "Ġalways": 1401,
      "ort": 1402,
      "Ġbite": 1403,
      "ball": 1404,
      "ĠO": 1405,
      "Ġnine": 1406,
      "Ġdinosaur": 1407,
      "ster": 1408,
      "Ġmatter": 1409,
      "Ġbeing": 1410,
      "Ġtold": 1411,
      "Ġbab": 1412,
      "sy": 1413,
      "Ġstraw": 1414,
      "Ġtook": 1415,
      "Ġquite": 1416,
      "Ġblow": 1417,
      "Ġcream": 1418,
      "Ġstar": 1419,
      "Ġwanted": 1420,
      "avor": 1421,
      "Ġweek": 1422,
      "ance": 1423,
      "Ġbi": 1424,
      "ia": 1425,
      "Ġsock": 1426,
      "Ġkid": 1427,
      "Ġdolly": 1428,
      "night": 1429,
      "aughty": 1430,
      "ĠAmy": 1431,
      "Ġbeh": 1432,
      "Ġmonkey": 1433,
      "Ġarm": 1434,
      "Ġever": 1435,
      "Ġshop": 1436,
      "Ġyester": 1437,
      "Ġyesterday": 1438,
      "Ġyum": 1439,
      "Ġnaughty": 1440,
      "Ġtiger": 1441,
      "Ġsau": 1442,
      "ohn": 1443,
      "ull": 1444,
      "fast": 1445,
      "Ġbunny": 1446,
      "Ġlunch": 1447,
      "Ġsometimes": 1448,
      "Ġhasn": 1449,
      "Ġpurp": 1450,
      "amp": 1451,
      "Ġem": 1452,
      "Ġcatch": 1453,
      "ants": 1454,
      "Ġteet": 1455,
      "Ġbreakfast": 1456,
      "Ġwet": 1457,
      "Ġpupp": 1458,
      "Ġgame": 1459,
      "ato": 1460,
      "ation": 1461,
      "orrow": 1462,
      "Ġcars": 1463,
      "ily": 1464,
      "Ġchild": 1465,
      "ean": 1466,
      "ets": 1467,
      "Ġfarm": 1468,
      "Ġhop": 1469,
      "Ġring": 1470,
      "ĠJohn": 1471,
      "Ġcir": 1472,
      "Ġfavor": 1473,
      "Ġwrong": 1474,
      "ready": 1475,
      "Ġhah": 1476,
      "Ġalready": 1477,
      "Ġteeth": 1478,
      "Ġhit": 1479,
      "Ġplate": 1480,
      "Ġbrush": 1481,
      "Ġtre": 1482,
      "ooh": 1483,
      "Ġwouldn": 1484,
      "Ġclothes": 1485,
      "Ġcorn": 1486,
      "Ġparty": 1487,
      "Ġbehind": 1488,
      "Ġpurple": 1489,
      "Ġlive": 1490,
      "ĠMr": 1491,
      "Ġfrog": 1492,
      "Ġcount": 1493,
      "RES": 1494,
      "Ġunt": 1495,
      "ffee": 1496,
      "Ġbrown": 1497,
      "isy": 1498,
      "Ġyourself": 1499,
      "ames": 1500,
      "ĠCarl": 1501,
      "Ġgi": 1502,
      "Ġbeep": 1503,
      "Ġtail": 1504,
      "imb": 1505,
      "FAD": 1506,
      "rew": 1507,
      "Ġcoffee": 1508,
      "Ġmoon": 1509,
      "IC": 1510,
      "eal": 1511,
      "AN": 1512,
      "Ġbump": 1513,
      "tie": 1514,
      "nie": 1515,
      "Ġjob": 1516,
      "Ġsong": 1517,
      "Ġcouldn": 1518,
      "Ġbutton": 1519,
      "rot": 1520,
      "Ġdad": 1521,
      "Ġhorsie": 1522,
      "Ġmo": 1523,
      "Ġmiss": 1524,
      "Ġnear": 1525,
      "ummie": 1526,
      "Ġpieces": 1527,
      "Ġtomorrow": 1528,
      "oup": 1529,
      "now": 1530,
      "Ġwonder": 1531,
      "Ġshoe": 1532,
      "CAT": 1533,
      "Ġboys": 1534,
      "Ġboth": 1535,
      "zzz": 1536,
      "Ġdress": 1537,
      "Ġfinger": 1538,
      "Ġbee": 1539,
      "urs": 1540,
      "Ġsort": 1541,
      "Ġpolice": 1542,
      "Ġfavorite": 1543,
      "Ġmother": 1544,
      "ci": 1545,
      "ĠLara": 1546,
      "ipe": 1547,
      "Ġsheep": 1548,
      "Ġset": 1549,
      "Ġpuzz": 1550,
      "ery": 1551,
      "Ġpizz": 1552,
      "Ġham": 1553,
      "Ġfront": 1554,
      "Ġgrand": 1555,
      "Ġdoggie": 1556,
      "Ġzzz": 1557,
      "Ġtaking": 1558,
      "Ġknock": 1559,
      "Ġstrawber": 1560,
      "Ġshirt": 1561,
      "Ġyear": 1562,
      "Ġclimb": 1563,
      "Ġdrive": 1564,
      "the": 1565,
      "Ġbowl": 1566,
      "Ġpaint": 1567,
      "Ġrunn": 1568,
      "Ġrecord": 1569,
      "Ġalm": 1570,
      "oun": 1571,
      "Ġplace": 1572,
      "Ġsnake": 1573,
      "Ġpeek": 1574,
      "Ġkitch": 1575,
      "illi": 1576,
      "Ġlem": 1577,
      "Ġkitchen": 1578,
      "Ġwhoa": 1579,
      "aura": 1580,
      "Ġengine": 1581,
      "name": 1582,
      "ask": 1583,
      "ird": 1584,
      "em": 1585,
      "Ġid": 1586,
      "Ġpizza": 1587,
      "Ġmag": 1588,
      "Ġpost": 1589,
      "Ġtin": 1590,
      "Ġboo": 1591,
      "ips": 1592,
      "Ġbyebye": 1593,
      "Ġuntil": 1594,
      "Ġbel": 1595,
      "MEL": 1596,
      "ans": 1597,
      "Ġsec": 1598,
      "Ġmakes": 1599,
      "Ġeye": 1600,
      "Ġbottom": 1601,
      "JES": 1602,
      "Ġmummy": 1603,
      "ng": 1604,
      "Ġhiding": 1605,
      "Ġcrying": 1606,
      "Ġbat": 1607,
      "Ġglass": 1608,
      "Ġwhole": 1609,
      "Ġgave": 1610,
      "ĠGrandma": 1611,
      "Ġeverybody": 1612,
      "Ġrunning": 1613,
      "ness": 1614,
      "Ġalmost": 1615,
      "Ġshut": 1616,
      "Ġdoctor": 1617,
      "sent": 1618,
      "Ġgets": 1619,
      "Ġeggs": 1620,
      "osta": 1621,
      "Ġguy": 1622,
      "Ġfast": 1623,
      "Ġlost": 1624,
      "Ġsposta": 1625,
      "Ġown": 1626,
      "Ġmind": 1627,
      "each": 1628,
      "Ġpus": 1629,
      "Ġtast": 1630,
      "Ġbar": 1631,
      "ĠChristmas": 1632,
      "ling": 1633,
      "lever": 1634,
      "cream": 1635,
      "Ġpictures": 1636,
      "ries": 1637,
      "Ġtoast": 1638,
      "Ġbigger": 1639,
      "illar": 1640,
      "wich": 1641,
      "Ġpresent": 1642,
      "Ġhole": 1643,
      "ey": 1644,
      "Ġflowers": 1645,
      "Ġhang": 1646,
      "Ġbubb": 1647,
      "Ġdig": 1648,
      "Ġupstairs": 1649,
      "Ġdere": 1650,
      "ons": 1651,
      "ĠLaura": 1652,
      "Ġsandwich": 1653,
      "ĠBr": 1654,
      "Ġloo": 1655,
      "Ġpo": 1656,
      "Ġbeaut": 1657,
      "Ġclever": 1658,
      "Ġbridge": 1659,
      "pillar": 1660,
      "Ġhigh": 1661,
      "Ġsleeping": 1662,
      "dle": 1663,
      "Ġduh": 1664,
      "Ġtractor": 1665,
      "Ġgrow": 1666,
      "opping": 1667,
      "eak": 1668,
      "ither": 1669,
      "more": 1670,
      "tle": 1671,
      "Ġsmell": 1672,
      "Ġphone": 1673,
      "Ġrest": 1674,
      "Ġsupp": 1675,
      "Ġanymore": 1676,
      "Ġchildren": 1677,
      "Ġtummy": 1678,
      "Ġyummy": 1679,
      "ĠDada": 1680,
      "Ġidea": 1681,
      "Ġbeauti": 1682,
      "icks": 1683,
      "Ġexcu": 1684,
      "Ġnope": 1685,
      "oy": 1686,
      "erest": 1687,
      "enty": 1688,
      "org": 1689,
      "Ġsister": 1690,
      "Ġtwenty": 1691,
      "Ġinterest": 1692,
      "anc": 1693,
      "Ġmouse": 1694,
      "Ġpark": 1695,
      "Ġbanana": 1696,
      "Ġbutterf": 1697,
      "ase": 1698,
      "Ġneeds": 1699,
      "und": 1700,
      "Ġteach": 1701,
      "Ġslide": 1702,
      "Ġbeautiful": 1703,
      "Ġfeed": 1704,
      "Ġsweetie": 1705,
      "pt": 1706,
      "Ġexcuse": 1707,
      "Ġits": 1708,
      "ied": 1709,
      "ming": 1710,
      "Ġwall": 1711,
      "app": 1712,
      "ubb": 1713,
      "Ġmic": 1714,
      "Ġcater": 1715,
      "Ġsoon": 1716,
      "Ġlo": 1717,
      "ĠAun": 1718,
      "ĠPet": 1719,
      "Ġsal": 1720,
      "opped": 1721,
      "der": 1722,
      "Ġpeas": 1723,
      "Ġscare": 1724,
      "Ġpants": 1725,
      "Ġcaterpillar": 1726,
      "Ġmoo": 1727,
      "know": 1728,
      "COL": 1729,
      "Ġpuzzle": 1730,
      "ator": 1731,
      "Ġstore": 1732,
      "Ġroad": 1733,
      "ider": 1734,
      "Ġhide": 1735,
      "Ġlegs": 1736,
      "Ġhaha": 1737,
      "Ġeither": 1738,
      "choo": 1739,
      "Ġquack": 1740,
      "Ġblocks": 1741,
      "iday": 1742,
      "cl": 1743,
      "Ġla": 1744,
      "Ġcray": 1745,
      "Ġtickle": 1746,
      "ĠSar": 1747,
      "rop": 1748,
      "unk": 1749,
      "Ġper": 1750,
      "ĠSarah": 1751,
      "Ġlor": 1752,
      "Ġzoo": 1753,
      "got": 1754,
      "Ġbask": 1755,
      "ĠCar": 1756,
      "ĠJean": 1757,
      "Ġbought": 1758,
      "ĠAd": 1759,
      "ward": 1760,
      "Ġgar": 1761,
      "Ġcookies": 1762,
      "Ġdoggy": 1763,
      "Ġsecond": 1764,
      "Ġlorry": 1765,
      "Ġblank": 1766,
      "ucky": 1767,
      "eta": 1768,
      "Ġcolors": 1769,
      "Ġswimming": 1770,
      "Ġac": 1771,
      "arden": 1772,
      "Ġforgot": 1773,
      "Ġwarm": 1774,
      "Ġcarry": 1775,
      "ĠJo": 1776,
      "Ġuhuh": 1777,
      "Ġcarrot": 1778,
      "aff": 1779,
      "Ġhadta": 1780,
      "Ġfew": 1781,
      "Ġmummie": 1782,
      "Ġuseta": 1783,
      "Ġbasket": 1784,
      "Ġpoo": 1785,
      "Ġgarden": 1786,
      "Ġbis": 1787,
      "Ġcrash": 1788,
      "cil": 1789,
      "Ġtrack": 1790,
      "Ġdriver": 1791,
      "Ġthanks": 1792,
      "aster": 1793,
      "Ġdark": 1794,
      "ls": 1795,
      "Ġletters": 1796,
      "cuit": 1797,
      "Ġsaus": 1798,
      "br": 1799,
      "well": 1800,
      "anda": 1801,
      "Ġkids": 1802,
      "Ġfine": 1803,
      "Ġwalking": 1804,
      "Ġbiscuit": 1805,
      "Ġbike": 1806,
      "int": 1807,
      "Ġbell": 1808,
      "gar": 1809,
      "Ġsea": 1810,
      "Ġcircle": 1811,
      "Ġgrass": 1812,
      "Ġcon": 1813,
      "Ġcrack": 1814,
      "Ġsocks": 1815,
      "Ġbutterfly": 1816,
      "olly": 1817,
      "Ġbrother": 1818,
      "Ġclock": 1819,
      "Ġdust": 1820,
      "Ġchange": 1821,
      "Ġfriends": 1822,
      "leep": 1823,
      "ale": 1824,
      "ire": 1825,
      "vy": 1826,
      "Ġoo": 1827,
      "Ġcause": 1828,
      "GA": 1829,
      "Ġpat": 1830,
      "Ġpencil": 1831,
      "Ġbabies": 1832,
      "tain": 1833,
      "Ġwheels": 1834,
      "Ġdry": 1835,
      "Ġdel": 1836,
      "Ġjig": 1837,
      "Ġmicrop": 1838,
      "ĠAdam": 1839,
      "Ġyay": 1840,
      "Ġcool": 1841,
      "KAR": 1842,
      "iet": 1843,
      "Ġmus": 1844,
      "Ġstep": 1845,
      "ELS": 1846,
      "Ġears": 1847,
      "RA": 1848,
      "ĠNic": 1849,
      "Ġhalf": 1850,
      "Ġmix": 1851,
      "aboo": 1852,
      "Ġhea": 1853,
      "Ġdownstairs": 1854,
      "ĠU": 1855,
      "uit": 1856,
      "ĠSp": 1857,
      "GAI": 1858,
      "Ġspe": 1859,
      "GLO": 1860,
      "saw": 1861,
      "ĠV": 1862,
      "Ġwoof": 1863,
      "Ġdra": 1864,
      "Ġnap": 1865,
      "Ġhol": 1866,
      "gon": 1867,
      "Ġeas": 1868,
      "ĠBe": 1869,
      "ious": 1870,
      "led": 1871,
      "Ġonce": 1872,
      "Ġtiny": 1873,
      "Ġtower": 1874,
      "ĠNa": 1875,
      "li": 1876,
      "eh": 1877,
      "lla": 1878,
      "ett": 1879,
      "Ġap": 1880,
      "Ġfingers": 1881,
      "Ġsomewhere": 1882,
      "Ġmicrophone": 1883,
      "Ġpress": 1884,
      "Ġpock": 1885,
      "Ġmama": 1886,
      "Ġwood": 1887,
      "Ġhappens": 1888,
      "Ġguys": 1889,
      "Ġjigsaw": 1890,
      "Ġairpl": 1891,
      "ric": 1892,
      "Ġspl": 1893,
      "Ġnurs": 1894,
      "Ġteleph": 1895,
      "Ġstre": 1896,
      "to": 1897,
      "Ġword": 1898,
      "ney": 1899,
      "oud": 1900,
      "iting": 1901,
      "ĠAnna": 1902,
      "Ġpear": 1903,
      "Ġpuppy": 1904,
      "Ġlad": 1905,
      "utes": 1906,
      "Ġmeow": 1907,
      "Ġtrees": 1908,
      "Ġpigg": 1909,
      "cial": 1910,
      "Ġfull": 1911,
      "Ġgiraff": 1912,
      "Ġtaste": 1913,
      "Ġwipe": 1914,
      "isp": 1915,
      "Ġheard": 1916,
      "Ġbuilding": 1917,
      "Ġfar": 1918,
      "Ġminutes": 1919,
      "Ġusually": 1920,
      "ĠSh": 1921,
      "Ġlooked": 1922,
      "Ġbin": 1923,
      "ima": 1924,
      "Ġcheck": 1925,
      "ĠCarol": 1926,
      "Ġstarted": 1927,
      "gu": 1928,
      "Ġquiet": 1929,
      "Ġsugar": 1930,
      "time": 1931,
      "Ġcard": 1932,
      "Ġweren": 1933,
      "Ġwhee": 1934,
      "Ġswing": 1935,
      "Ġpast": 1936,
      "ĠZ": 1937,
      "Ġshopping": 1938,
      "Ġflower": 1939,
      "Ġmar": 1940,
      "ĠPeter": 1941,
      "Ġgent": 1942,
      "Ġahead": 1943,
      "ĠNana": 1944,
      "Ġscr": 1945,
      "ever": 1946,
      "Ġcoat": 1947,
      "Ġmen": 1948,
      "Ġstra": 1949,
      "Ġbur": 1950,
      "Ġsomeone": 1951,
      "erry": 1952,
      "ud": 1953,
      "so": 1954,
      "Ġtelephone": 1955,
      "Ġri": 1956,
      "ĠNaima": 1957,
      "ian": 1958,
      "mer": 1959,
      "kin": 1960,
      "Ġkinda": 1961,
      "ages": 1962,
      "Ġwhose": 1963,
      "Ġinst": 1964,
      "Ġboot": 1965,
      "Ġpeekaboo": 1966,
      "Ġairplane": 1967,
      "Ġreach": 1968,
      "Ġbrought": 1969,
      "Ġfootball": 1970,
      "Ġsick": 1971,
      "Ġsoup": 1972,
      "Ġele": 1973,
      "nine": 1974,
      "Ġseem": 1975,
      "Ġspecial": 1976,
      "Ġexc": 1977,
      "ĠJeannine": 1978,
      "ony": 1979,
      "ĠPooh": 1980,
      "Ġsad": 1981,
      "ĠMich": 1982,
      "Ġboom": 1983,
      "ĠSt": 1984,
      "Ġcross": 1985,
      "ĠNicole": 1986,
      "eb": 1987,
      "Ġalso": 1988,
      "Ġwake": 1989,
      "igg": 1990,
      "ĠBa": 1991,
      "Ġgirls": 1992,
      "Ġwin": 1993,
      "act": 1994,
      "Ġsky": 1995,
      "Ġboun": 1996,
      "oman": 1997,
      "elly": 1998,
      "Ġneck": 1999,
      "Ġholding": 2000,
      "Ġwatching": 2001,
      "Ġspider": 2002,
      "Ġplayed": 2003,
      "Ġdriving": 2004,
      "Ġshake": 2005,
      "Ġbusy": 2006,
      "eez": 2007,
      "Ġanyway": 2008,
      "Ġlid": 2009,
      "Ġworking": 2010,
      "Ġpocket": 2011,
      "ĠFirst": 2012,
      "Ġwearing": 2013,
      "ĠCaroline": 2014,
      "ĠMiss": 2015,
      "ity": 2016,
      "ize": 2017,
      "ĠPost": 2018,
      "Ġbricks": 2019,
      "LA": 2020,
      "ĠFirstname": 2021,
      "lot": 2022,
      "Ġcur": 2023,
      "Ġalong": 2024,
      "ald": 2025,
      "illiam": 2026,
      "Ġmeans": 2027,
      "pes": 2028,
      "Ġlie": 2029,
      "Ġdrop": 2030,
      "Ġmeat": 2031,
      "Ġkick": 2032,
      "Ġsounds": 2033,
      "Ġchew": 2034,
      "Ġpussy": 2035,
      "ying": 2036,
      "agh": 2037,
      "Ġmusic": 2038,
      "hah": 2039,
      "ĠWilliam": 2040,
      "Ġscrew": 2041,
      "ones": 2042,
      "umb": 2043,
      "ĠPostman": 2044,
      "Ġgiraffe": 2045,
      "Ġhope": 2046,
      "etti": 2047,
      "ĠAle": 2048,
      "amb": 2049,
      "Ġscared": 2050,
      "Ġeach": 2051,
      "ues": 2052,
      "Ġblanket": 2053,
      "Ġable": 2054,
      "ĠAnd": 2055,
      "Ġdropped": 2056,
      "Ġbubbles": 2057,
      "Ġpour": 2058,
      "Ġchips": 2059,
      "Ġpin": 2060,
      "enry": 2061,
      "Pat": 2062,
      "aul": 2063,
      "Ġseat": 2064,
      "Ġpers": 2065,
      "Ġcroc": 2066,
      "Ġknee": 2067,
      "Ġfat": 2068,
      "Ġslipp": 2069,
      "Ġheavy": 2070,
      "cky": 2071,
      "ates": 2072,
      "Ġbest": 2073,
      "eart": 2074,
      "bin": 2075,
      "ten": 2076,
      "Ġpotato": 2077,
      "ĠPo": 2078,
      "Ġtrucks": 2079,
      "Ġtall": 2080,
      "heart": 2081,
      "Ġahhah": 2082,
      "Ġlemme": 2083,
      "Ġfalling": 2084,
      "Ġdrawing": 2085,
      "Ġgosh": 2086,
      "inky": 2087,
      "EV": 2088,
      "Ġbug": 2089,
      "Ġstrawberry": 2090,
      "AUN": 2091,
      "Ġmost": 2092,
      "Ġnobody": 2093,
      "sta": 2094,
      "ĠAlex": 2095,
      "ning": 2096,
      "aps": 2097,
      "unnel": 2098,
      "ssed": 2099,
      "Ġcrocod": 2100,
      "Ġlaug": 2101,
      "Ġhasta": 2102,
      "ital": 2103,
      "Ġfruit": 2104,
      "da": 2105,
      "ts": 2106,
      "ork": 2107,
      "ions": 2108,
      "aghetti": 2109,
      "ife": 2110,
      "ple": 2111,
      "Ġcu": 2112,
      "Ġwashing": 2113,
      "Ġdump": 2114,
      "atch": 2115,
      "Ġperson": 2116,
      "Ġsquare": 2117,
      "Ġgrapes": 2118,
      "Ġouch": 2119,
      "Ġvan": 2120,
      "Ġfork": 2121,
      "Ġspot": 2122,
      "Ġsweetheart": 2123,
      "anny": 2124,
      "Ġtonight": 2125,
      "Ġshh": 2126,
      "Ġreading": 2127,
      "Ġspaghetti": 2128,
      "Ġasleep": 2129,
      "iel": 2130,
      "ĠSan": 2131,
      "uzz": 2132,
      "Ġlift": 2133,
      "vis": 2134,
      "Ġwoo": 2135,
      "ĠBear": 2136,
      "iddle": 2137,
      "Ġhipp": 2138,
      "Ġowl": 2139,
      "Ġspell": 2140,
      "Ġknows": 2141,
      "board": 2142,
      "Ġclown": 2143,
      "gone": 2144,
      "ĠAr": 2145,
      "bre": 2146,
      "Ġtoes": 2147,
      "ĠHenry": 2148,
      "Ġstanding": 2149,
      "Ġsoft": 2150,
      "ĠMar": 2151,
      "Ġgiving": 2152,
      "ier": 2153,
      "Ġprop": 2154,
      "Ġmissing": 2155,
      "Ġtv": 2156,
      "Ġline": 2157,
      "Ġpengu": 2158,
      "Ġhug": 2159,
      "LY": 2160,
      "onald": 2161,
      "Ġspill": 2162,
      "LYN": 2163,
      "ris": 2164,
      "Ġteacher": 2165,
      "Ġcute": 2166,
      "ĠAnne": 2167,
      "ert": 2168,
      "Ġmis": 2169,
      "ael": 2170,
      "Ġmyself": 2171,
      "Ġpa": 2172,
      "Ġcover": 2173,
      "Ġlay": 2174,
      "ĠBecky": 2175,
      "Ġbuck": 2176,
      "anut": 2177,
      "Ġmot": 2178,
      "Ġpeanut": 2179,
      "Ġapart": 2180,
      "Ġcere": 2181,
      "Ġtunnel": 2182,
      "Ġra": 2183,
      "Ġwilln": 2184,
      "LAU": 2185,
      "ment": 2186,
      "Ġpump": 2187,
      "athy": 2188,
      "ocked": 2189,
      "Ġcereal": 2190,
      "Ġstraight": 2191,
      "Ġmonster": 2192,
      "bur": 2193,
      "ors": 2194,
      "Ġkeys": 2195,
      "Ġturtle": 2196,
      "avid": 2197,
      "Ġyog": 2198,
      "Ġlear": 2199,
      "innie": 2200,
      "ence": 2201,
      "Ġasked": 2202,
      "ĠSam": 2203,
      "MA": 2204,
      "Ġanybody": 2205,
      "Ġnearly": 2206,
      "Ġgrandma": 2207,
      "Ġay": 2208,
      "bear": 2209,
      "ĠMister": 2210,
      "ĠSanta": 2211,
      "Ġrecorder": 2212,
      "Ġtomato": 2213,
      "Ġfo": 2214,
      "Ġpoorly": 2215,
      "Ġbirds": 2216,
      "Ġpet": 2217,
      "dad": 2218,
      "Ġran": 2219,
      "Ġtelling": 2220,
      "ĠMat": 2221,
      "angle": 2222,
      "urse": 2223,
      "acket": 2224,
      "Ġraining": 2225,
      "Ġdanc": 2226,
      "ĠMrs": 2227,
      "Ġstairs": 2228,
      "clock": 2229,
      "Ġgarage": 2230,
      "Ġnee": 2231,
      "Ġpee": 2232,
      "ĠSue": 2233,
      "Ġtrains": 2234,
      "Ġhappening": 2235,
      "Ġinstead": 2236,
      "Ġshort": 2237,
      "Ġforget": 2238,
      "Ġjumping": 2239,
      "Ġmotor": 2240,
      "Ġkey": 2241,
      "wards": 2242,
      "ince": 2243,
      "KAT": 2244,
      "Ġmach": 2245,
      "Ġfight": 2246,
      "ĠAuntie": 2247,
      "nic": 2248,
      "icy": 2249,
      "Ġcrocodile": 2250,
      "Ġthinking": 2251,
      "Ġsausage": 2252,
      "Ġbeans": 2253,
      "Ġpas": 2254,
      "if": 2255,
      "ĠDavid": 2256,
      "ĠBar": 2257,
      "good": 2258,
      "Ġdance": 2259,
      "gr": 2260,
      "Ġproper": 2261,
      "Ġsticky": 2262,
      "Ġpill": 2263,
      "ect": 2264,
      "Ġstreet": 2265,
      "Ġlives": 2266,
      "goodness": 2267,
      "urt": 2268,
      "ourse": 2269,
      "ouble": 2270,
      "ĠJen": 2271,
      "Ġelephants": 2272,
      "Ġim": 2273,
      "Ġmov": 2274,
      "ines": 2275,
      "ugg": 2276,
      "RIC": 2277,
      "EN": 2278,
      "he": 2279,
      "ings": 2280,
      "Ġupside": 2281,
      "Ġstation": 2282,
      "Ġdogs": 2283,
      "Ġjelly": 2284,
      "uper": 2285,
      "pa": 2286,
      "Ġshar": 2287,
      "NIC": 2288,
      "Ġyeh": 2289,
      "Ġhammer": 2290,
      "omi": 2291,
      "fl": 2292,
      "Ġshape": 2293,
      "Ġcouple": 2294,
      "ield": 2295,
      "haps": 2296,
      "Ġcheek": 2297,
      "Ġtowel": 2298,
      "Ġperhaps": 2299,
      "Ġnursery": 2300,
      "come": 2301,
      "Ġtrous": 2302,
      "Ġcats": 2303,
      "era": 2304,
      "ĠPer": 2305,
      "ĠJack": 2306,
      "Ġbeach": 2307,
      "atur": 2308,
      "Ġducks": 2309,
      "Ġlights": 2310,
      "Ġve": 2311,
      "Ġbeg": 2312,
      "Ġwords": 2313,
      "ĠPaul": 2314,
      "astic": 2315,
      "box": 2316,
      "Ġpainting": 2317,
      "ĠMichael": 2318,
      "ĠEl": 2319,
      "Ġtwel": 2320,
      "ered": 2321,
      "Ġtid": 2322,
      "Ġdustbin": 2323,
      "Ġsuch": 2324,
      "Ġcam": 2325,
      "Ġliked": 2326,
      "Ġlate": 2327,
      "Ġmiddle": 2328,
      "Ġemp": 2329,
      "Ġwithout": 2330,
      "Ġloud": 2331,
      "ope": 2332,
      "ĠPl": 2333,
      "Ġtooth": 2334,
      "ĠBig": 2335,
      "Ġflying": 2336,
      "Ġoink": 2337,
      "Ġwaiting": 2338,
      "Ġdays": 2339,
      "Ġempty": 2340,
      "Ġpicnic": 2341,
      "Ġtrousers": 2342,
      "ĠJames": 2343,
      "Ġbears": 2344,
      "Ġdigger": 2345,
      "Ġph": 2346,
      "Ġmed": 2347,
      "Ġsuit": 2348,
      "ars": 2349,
      "Ġglasses": 2350,
      "unday": 2351,
      "Ġleaf": 2352,
      "Ġsuppose": 2353,
      "Bear": 2354,
      "Ġding": 2355,
      "Ġapples": 2356,
      "Ġcourse": 2357,
      "Ġtri": 2358,
      "Ġknife": 2359,
      "Ġcrayons": 2360,
      "Ġwhoo": 2361,
      "Ġfallen": 2362,
      "Ġdressed": 2363,
      "Ġhos": 2364,
      "Ġspace": 2365,
      "Ġmachine": 2366,
      "Ġsurp": 2367,
      "ĠSunday": 2368,
      "ĠBaby": 2369,
      "Ġsinging": 2370,
      "Ġtap": 2371,
      "Ġtwelve": 2372,
      "Ġpanda": 2373,
      "Ġcandy": 2374,
      "Ġnut": 2375,
      "ens": 2376,
      "ĠGranddad": 2377,
      "Ġsmart": 2378,
      "Ġspr": 2379,
      "Ġballs": 2380,
      "ĠEm": 2381,
      "ummer": 2382,
      "Ġug": 2383,
      "ĠPat": 2384,
      "Ġcaught": 2385,
      "unh": 2386,
      "aturday": 2387,
      "Ġcards": 2388,
      "Ġoop": 2389,
      "Ġclos": 2390,
      "Ġloves": 2391,
      "ike": 2392,
      "Ġrub": 2393,
      "Ġrubb": 2394,
      "COU": 2395,
      "Ġstrawberries": 2396,
      "jam": 2397,
      "Ġshare": 2398,
      "Ġwriting": 2399,
      "Ġmatch": 2400,
      "Ġdiaper": 2401,
      "Ġladyb": 2402,
      "port": 2403,
      "pital": 2404,
      "Ġpay": 2405,
      "ĠCathy": 2406,
      "Ġsnap": 2407,
      "sc": 2408,
      "Ġdoo": 2409,
      "Ġknew": 2410,
      "omin": 2411,
      "ebra": 2412,
      "ating": 2413,
      "ĠNomi": 2414,
      "Ġstrong": 2415,
      "ĠNina": 2416,
      "Ġeleven": 2417,
      "Ġthirty": 2418,
      "ides": 2419,
      "ĠBro": 2420,
      "io": 2421,
      "hh": 2422,
      "uild": 2423,
      "Ġpoint": 2424,
      "imit": 2425,
      "Ġarms": 2426,
      "Ġvis": 2427,
      "Ġinterested": 2428,
      "lem": 2429,
      "Ġquest": 2430,
      "Ġdish": 2431,
      "Ġfur": 2432,
      "ala": 2433,
      "athan": 2434,
      "Ġeasy": 2435,
      "Ġpillow": 2436,
      "Ġnin": 2437,
      "ggie": 2438,
      "aroo": 2439,
      "ilt": 2440,
      "Ġmissed": 2441,
      "Ġhospital": 2442,
      "ĠDomin": 2443,
      "ped": 2444,
      "Ġdragon": 2445,
      "Ġbatter": 2446,
      "Ġboots": 2447,
      "Ġnapp": 2448,
      "Ġplane": 2449,
      "Ġbaba": 2450,
      "ween": 2451,
      "Ġland": 2452,
      "Ġcoc": 2453,
      "Ġscratch": 2454,
      "Ġcooking": 2455,
      "ĠY": 2456,
      "ĠAbe": 2457,
      "ĠWinnie": 2458,
      "irr": 2459,
      "Ġdec": 2460,
      "Ġpiggy": 2461,
      "ĠDimit": 2462,
      "Ġalone": 2463,
      "rel": 2464,
      "angaroo": 2465,
      "Ġsees": 2466,
      "Ġeats": 2467,
      "Ġcamera": 2468,
      "ĠGe": 2469,
      "Ġtight": 2470,
      "ipped": 2471,
      "Ġtiss": 2472,
      "Ġzebra": 2473,
      "ĠDominic": 2474,
      "ĠDimitra": 2475,
      "XX": 2476,
      "Ġmad": 2477,
      "ĠAl": 2478,
      "Ġturned": 2479,
      "ĠGrandad": 2480,
      "Ġdrinking": 2481,
      "Ġpoliceman": 2482,
      "owed": 2483,
      "la": 2484,
      "Ġfam": 2485,
      "Ġcoll": 2486,
      "opter": 2487,
      "uilder": 2488,
      "Ġquickly": 2489,
      "Ġribb": 2490,
      "cept": 2491,
      "Ġwhatever": 2492,
      "Ġbits": 2493,
      "Ġlearn": 2494,
      "bble": 2495,
      "Ġtie": 2496,
      "Ġcows": 2497,
      "Ġmedic": 2498,
      "Ġdancing": 2499,
      "icopter": 2500,
      "Ġpotty": 2501,
      "Ġslow": 2502,
      "Ġago": 2503,
      "Ġfireman": 2504,
      "Ġmovie": 2505,
      "Ġkangaroo": 2506,
      "Ġpool": 2507,
      "Ġee": 2508,
      "Ġfair": 2509,
      "Ġgoodness": 2510,
      "ordon": 2511,
      "Ġsat": 2512,
      "Ġsplash": 2513,
      "arren": 2514,
      "Ġchang": 2515,
      "Ġter": 2516,
      "ashing": 2517,
      "Ġsupper": 2518,
      "Ġaah": 2519,
      "ĠGordon": 2520,
      "Ġonto": 2521,
      "let": 2522,
      "ign": 2523,
      "Ġtimes": 2524,
      "Ġmark": 2525,
      "Ġtried": 2526,
      "ĠTig": 2527,
      "Ġcarri": 2528,
      "Ġcorner": 2529,
      "Ġmail": 2530,
      "ĠSaturday": 2531,
      "Ġclass": 2532,
      "rm": 2533,
      "Ġmedicine": 2534,
      "ĠSte": 2535,
      "Ġground": 2536,
      "TO": 2537,
      "Ġtip": 2538,
      "uth": 2539,
      "Ġlamb": 2540,
      "Ġcrisp": 2541,
      "Ġbelong": 2542,
      "fr": 2543,
      "Ġwel": 2544,
      "ĠTom": 2545,
      "Ġscary": 2546,
      "ron": 2547,
      "Ġriding": 2548,
      "ĠEd": 2549,
      "Ġmoment": 2550,
      "ĠFriday": 2551,
      "boo": 2552,
      "Ġproblem": 2553,
      "Ġcarrots": 2554,
      "Ġaye": 2555,
      "Ġwelcome": 2556,
      "aces": 2557,
      "Ġain": 2558,
      "Ġgoat": 2559,
      "Ġpass": 2560,
      "Ġtrouble": 2561,
      "SS": 2562,
      "abel": 2563,
      "ieve": 2564,
      "Ġmagic": 2565,
      "Ġshouldn": 2566,
      "rible": 2567,
      "ddle": 2568,
      "ĠUn": 2569,
      "Ġmum": 2570,
      "Ġcirc": 2571,
      "Ġmoving": 2572,
      "Ġpenguin": 2573,
      "jamas": 2574,
      "Ġvisit": 2575,
      "Ġtele": 2576,
      "zy": 2577,
      "Ġfox": 2578,
      "Ġcomp": 2579,
      "umpty": 2580,
      "Ġfoll": 2581,
      "Ġtoil": 2582,
      "Ġholiday": 2583,
      "Ġpicked": 2584,
      "Ġleaves": 2585,
      "vision": 2586,
      "Ġhee": 2587,
      "onday": 2588,
      "ĠRach": 2589,
      "cake": 2590,
      "inger": 2591,
      "Ġwish": 2592,
      "Ġmud": 2593,
      "ĠDe": 2594,
      "Ġcone": 2595,
      "Ġsquir": 2596,
      "vent": 2597,
      "Ġeaten": 2598,
      "ĠThe": 2599,
      "ĠTigger": 2600,
      "Ġclosed": 2601,
      "ĠMic": 2602,
      "Ġthrowing": 2603,
      "Ġrac": 2604,
      "Ġpound": 2605,
      "lew": 2606,
      "ĠRob": 2607,
      "Ġhelicopter": 2608,
      "Ġladder": 2609,
      "ĠEve": 2610,
      "Ġhorses": 2611,
      "Ġproperly": 2612,
      "Ġdelic": 2613,
      "Ġmirr": 2614,
      "Ġnoisy": 2615,
      "Ġcrayon": 2616,
      "Ġworks": 2617,
      "Ġsteps": 2618,
      "ib": 2619,
      "Ġaer": 2620,
      "Ġjam": 2621,
      "Ġacr": 2622,
      "Ġtoilet": 2623,
      "Ġwra": 2624,
      "Ġmagn": 2625,
      "Ġenj": 2626,
      "Ġtriangle": 2627,
      "Ġfield": 2628,
      "Ġtelevision": 2629,
      "bow": 2630,
      "oe": 2631,
      "Ġhurts": 2632,
      "Ġcomb": 2633,
      "alked": 2634,
      "Ġdinosaurs": 2635,
      "Ġhimself": 2636,
      "Ġpan": 2637,
      "Ġexcept": 2638,
      "cat": 2639,
      "Ġrace": 2640,
      "Ġtong": 2641,
      "stand": 2642,
      "Ġstea": 2643,
      "bul": 2644,
      "ĠSm": 2645,
      "Ġsciss": 2646,
      "mon": 2647,
      "Ġdes": 2648,
      "Ġlying": 2649,
      "ĠWarren": 2650,
      "Ġyuck": 2651,
      "Ġshap": 2652,
      "Ġdey": 2653,
      "Ġpumpkin": 2654,
      "anas": 2655,
      "igator": 2656,
      "Ġshark": 2657,
      "ĠEr": 2658,
      "Ġsince": 2659,
      "ĠIs": 2660,
      "Ġnews": 2661,
      "ĠBen": 2662,
      "Ġused": 2663,
      "Ġrow": 2664,
      "ĠPlay": 2665,
      "ret": 2666,
      "icul": 2667,
      "astle": 2668,
      "Ġbiscuits": 2669,
      "ĠCharl": 2670,
      "Ġbum": 2671,
      "ĠMickey": 2672,
      "Ġballoons": 2673,
      "Ġyears": 2674,
      "ĠPercy": 2675,
      "Ġrubbish": 2676,
      "Ġneat": 2677,
      "Ġenjoy": 2678,
      "ĠLu": 2679,
      "oice": 2680,
      "Ġbuttons": 2681,
      "ĠSc": 2682,
      "Ġnappie": 2683,
      "ason": 2684,
      "Ġmonth": 2685,
      "ĠBl": 2686,
      "king": 2687,
      "Ġchim": 2688,
      "Ġchairs": 2689,
      "Ġdolls": 2690,
      "Ġmirror": 2691,
      "Ġhill": 2692,
      "Ġups": 2693,
      "icycle": 2694,
      "ĠEth": 2695,
      "Ġpulling": 2696,
      "Ġstring": 2697,
      "Ġyucky": 2698,
      "oat": 2699,
      "Ġroof": 2700,
      "Ġboard": 2701,
      "pack": 2702,
      "ĠUncle": 2703,
      "Ġscissors": 2704,
      "ĠSis": 2705,
      "Ġambul": 2706,
      "Ġfence": 2707,
      "Ġinteresting": 2708,
      "Ġshout": 2709,
      "neath": 2710,
      "Ġweeks": 2711,
      "Ġacross": 2712,
      "ĠEthan": 2713,
      "Ġloll": 2714,
      "anger": 2715,
      "ĠLily": 2716,
      "Ġunderneath": 2717,
      "Ġtissue": 2718,
      "Ġlemon": 2719,
      "Ġcracker": 2720,
      "Ġpoop": 2721,
      "iling": 2722,
      "Ġdelicious": 2723,
      "ress": 2724,
      "Ġumbre": 2725,
      "eg": 2726,
      "vel": 2727,
      "Ġbaa": 2728,
      "ĠHar": 2729,
      "Ġking": 2730,
      "ĠCr": 2731,
      "ĠJess": 2732,
      "Ġfits": 2733,
      "dge": 2734,
      "Ġunderstand": 2735,
      "Ġsleepy": 2736,
      "rr": 2737,
      "Ġfree": 2738,
      "Ġhour": 2739,
      "apa": 2740,
      "Ġsuper": 2741,
      "Ġearly": 2742,
      "ĠMonday": 2743,
      "Ġsummer": 2744,
      "Ġstopped": 2745,
      "Ġstor": 2746,
      "Ġsi": 2747,
      "ĠMan": 2748,
      "Ġpigs": 2749,
      "iff": 2750,
      "Ġworm": 2751,
      "Ġbase": 2752,
      "Ġwhale": 2753,
      "Ġclap": 2754,
      "Ġsave": 2755,
      "Ġbucket": 2756,
      "Ġambulance": 2757,
      "Ġtoe": 2758,
      "Ġsoap": 2759,
      "ooray": 2760,
      "Ġbelieve": 2761,
      "nes": 2762,
      "Ġhooray": 2763,
      "Ġbody": 2764,
      "ower": 2765,
      "Ġliving": 2766,
      "Ġoy": 2767,
      "Ġsweets": 2768,
      "RAC": 2769,
      "Ġslice": 2770,
      "Ġvroom": 2771,
      "Ġlick": 2772,
      "Ġusing": 2773,
      "Ġrais": 2774,
      "TOY": 2775,
      "Ġbra": 2776,
      "ully": 2777,
      "andy": 2778,
      "ggy": 2779,
      "Ġstars": 2780,
      "Ġspoons": 2781,
      "Ġrice": 2782,
      "Ġchip": 2783,
      "Ġbackwards": 2784,
      "Ġhurry": 2785,
      "Ġcutting": 2786,
      "asty": 2787,
      "cha": 2788,
      "Ġcheeky": 2789,
      "Ġbull": 2790,
      "pper": 2791,
      "Ġgoodbye": 2792,
      "Ġbags": 2793,
      "eeze": 2794,
      "sw": 2795,
      "Ġaftern": 2796,
      "Ġsign": 2797,
      "ĠRuth": 2798,
      "Ġafternoon": 2799,
      "Ġdead": 2800,
      "Ġtongue": 2801,
      "Ġho": 2802,
      "ina": 2803,
      "Ġumbrella": 2804,
      "The": 2805,
      "Ġes": 2806,
      "Ġbelly": 2807,
      "ĠRachel": 2808,
      "ums": 2809,
      "ogn": 2810,
      "Ġjumped": 2811,
      "Ġfarmer": 2812,
      "MAD": 2813,
      "Ġknocked": 2814,
      "Ġchimney": 2815,
      "Ġnumbers": 2816,
      "Ġacc": 2817,
      "Ġpajamas": 2818,
      "ishing": 2819,
      "Ġcups": 2820,
      "Ġcrab": 2821,
      "Ġad": 2822,
      "ROB": 2823,
      "Ġspin": 2824,
      "elt": 2825,
      "Ġflat": 2826,
      "Ġgentle": 2827,
      "Ġhippo": 2828,
      "ĠMatth": 2829,
      "Ġoven": 2830,
      "Ġeverywhere": 2831,
      "cc": 2832,
      "Ġhoo": 2833,
      "Ġdonkey": 2834,
      "Ġdough": 2835,
      "Ġnames": 2836,
      "Ġplastic": 2837,
      "Ġninet": 2838,
      "iver": 2839,
      "ĠAwww": 2840,
      "Ġanywhere": 2841,
      "RI": 2842,
      "Ġgate": 2843,
      "ba": 2844,
      "ler": 2845,
      "Ġtrunk": 2846,
      "Ġstamp": 2847,
      "case": 2848,
      "ĠRoman": 2849,
      "Builder": 2850,
      "any": 2851,
      "elet": 2852,
      "Ġbananas": 2853,
      "Ġbarn": 2854,
      "undred": 2855,
      "ĠMatthew": 2856,
      "pped": 2857,
      "ident": 2858,
      "ĠPipp": 2859,
      "Ġrolling": 2860,
      "Ġtakes": 2861,
      "Ġfre": 2862,
      "Ġfill": 2863,
      "Ġrh": 2864,
      "Ġsore": 2865,
      "eer": 2866,
      "urch": 2867,
      "ĠFl": 2868,
      "Ġorang": 2869,
      "ored": 2870,
      "Ġfeeling": 2871,
      "Ġholes": 2872,
      "Ġty": 2873,
      "Ġfif": 2874,
      "Ġsqueak": 2875,
      "Ġwave": 2876,
      "irsty": 2877,
      "Ġgently": 2878,
      "Ġrecogn": 2879,
      "Ġrat": 2880,
      "boy": 2881,
      "Ġhundred": 2882,
      "Ġgold": 2883,
      "Ġjacket": 2884,
      "Ġvide": 2885,
      "fin": 2886,
      "Ġnah": 2887,
      "Ġnail": 2888,
      "elle": 2889,
      "dding": 2890,
      "illiant": 2891,
      "Ġbrilliant": 2892,
      "ĠMaisy": 2893,
      "fish": 2894,
      "per": 2895,
      "Ġcastle": 2896,
      "Ġgim": 2897,
      "Ġglue": 2898,
      "Ġshin": 2899,
      "Ġpresents": 2900,
      "Ġwigg": 2901,
      "Ġbib": 2902,
      "Ġwaff": 2903,
      "ashed": 2904,
      "Ġsauce": 2905,
      "Ġden": 2906,
      "Ġclimbing": 2907,
      "Ġcoloring": 2908,
      "Ġcupboard": 2909,
      "ĠAndy": 2910,
      "Ġgum": 2911,
      "Ġtu": 2912,
      "ĠFire": 2913,
      "Ġsalt": 2914,
      "Ġugh": 2915,
      "ursday": 2916,
      "Ġworry": 2917,
      "keys": 2918,
      "une": 2919,
      "Ġhelm": 2920,
      "Ġrob": 2921,
      "ĠChrist": 2922,
      "Ġsnack": 2923,
      "uesday": 2924,
      "but": 2925,
      "Ġlap": 2926,
      "Ġna": 2927,
      "Ġpretending": 2928,
      "wise": 2929,
      "Ġtrail": 2930,
      "Ġlollip": 2931,
      "Ġfollow": 2932,
      "over": 2933,
      "ited": 2934,
      "Ġsharp": 2935,
      "Ġgimme": 2936,
      "Ġeveryone": 2937,
      "Ġlaughing": 2938,
      "Ġchurch": 2939,
      "Ġfro": 2940,
      "Ġkill": 2941,
      "Ġbedroom": 2942,
      "Ġboxes": 2943,
      "nesday": 2944,
      "ĠGra": 2945,
      "Ġthirsty": 2946,
      "wee": 2947,
      "Ġmeet": 2948,
      "Ġtrick": 2949,
      "Ġhum": 2950,
      "ĠSwww": 2951,
      "Ġcap": 2952,
      "land": 2953,
      "Ġtill": 2954,
      "Ġcraw": 2955,
      "eth": 2956,
      "Ġskin": 2957,
      "Ġyogurt": 2958,
      "Ġstom": 2959,
      "opl": 2960,
      "Ġgames": 2961,
      "GRM": 2962,
      "ula": 2963,
      "Ġrad": 2964,
      "Ġbuzz": 2965,
      "ether": 2966,
      "rown": 2967,
      "Ġplant": 2968,
      "inda": 2969,
      "ĠJul": 2970,
      "Ġsnowman": 2971,
      "GMA": 2972,
      "Ġind": 2973,
      "Ġtidy": 2974,
      "Ġoranges": 2975,
      "Ġfixed": 2976,
      "Ġgun": 2977,
      "inkle": 2978,
      "Ġotherwise": 2979,
      "Ġjo": 2980,
      "mean": 2981,
      "Ġcrisps": 2982,
      "Ġthrew": 2983,
      "Ġheart": 2984,
      "fully": 2985,
      "Ġpeach": 2986,
      "Ġaeropl": 2987,
      "allow": 2988,
      "unno": 2989,
      "Ġcot": 2990,
      "ĠChild": 2991,
      "Ġbubble": 2992,
      "Ġdunno": 2993,
      "ouses": 2994,
      "Ġcrunch": 2995,
      "ANN": 2996,
      "ĠGod": 2997,
      "Ġuhhum": 2998,
      "Ġstrip": 2999,
      "raid": 3000,
      "ĠAb": 3001,
      "Ġser": 3002,
      "Ġshops": 3003,
      "ated": 3004,
      "Ġbackpack": 3005,
      "Ġhorn": 3006,
      "Ġbicycle": 3007,
      "ache": 3008,
      "iol": 3009,
      "Ġhon": 3010,
      "Ġpears": 3011,
      "Ġshapes": 3012,
      "ĠMark": 3013,
      "ĠHe": 3014,
      "Ġexact": 3015,
      "Ġwoman": 3016,
      "ĠWed": 3017,
      "Ġveget": 3018,
      "Ġafraid": 3019,
      "corn": 3020,
      "lon": 3021,
      "ps": 3022,
      "az": 3023,
      "ĠFireman": 3024,
      "Ġband": 3025,
      "Ġmustn": 3026,
      "TRA": 3027,
      "for": 3028,
      "ĠNathan": 3029,
      "Ġpack": 3030,
      "ĠLiz": 3031,
      "Ġwashed": 3032,
      "ĠMary": 3033,
      "Ġchick": 3034,
      "Ġhelmet": 3035,
      "ĠPing": 3036,
      "Ġload": 3037,
      "Pooh": 3038,
      "Ġdanger": 3039,
      "Ġcouch": 3040,
      "Ġpotatoes": 3041,
      "MAT": 3042,
      "rench": 3043,
      "Ġginger": 3044,
      "Ġneigh": 3045,
      "Ġtown": 3046,
      "ils": 3047,
      "rian": 3048,
      "Ġgor": 3049,
      "ĠTuesday": 3050,
      "ĠWednesday": 3051,
      "Ġdream": 3052,
      "ĠTelet": 3053,
      "Ġvoice": 3054,
      "Ġdefin": 3055,
      "Ġspots": 3056,
      "ex": 3057,
      "olf": 3058,
      "Ġworld": 3059,
      "Ġspeak": 3060,
      "Ġrocket": 3061,
      "inc": 3062,
      "ĠBobby": 3063,
      "Ġlaugh": 3064,
      "Ġshoot": 3065,
      "Ġsalad": 3066,
      "bot": 3067,
      "Ġfamily": 3068,
      "Ġansw": 3069,
      "Ġpushing": 3070,
      "ym": 3071,
      "ĠMummie": 3072,
      "Ġtrip": 3073,
      "ĠThursday": 3074,
      "Ġslippers": 3075,
      "ubbies": 3076,
      "Ġmush": 3077,
      "Ġtor": 3078,
      "Ġfridge": 3079,
      "ĠEric": 3080,
      "Ġvideo": 3081,
      "Ġdefinite": 3082,
      "Ġdol": 3083,
      "Ġbirdie": 3084,
      "Ġcalling": 3085,
      "bie": 3086,
      "Ġgas": 3087,
      "ches": 3088,
      "flakes": 3089,
      "Ġswe": 3090,
      "Ġgarb": 3091,
      "Ġbounce": 3092,
      "Ġpasta": 3093,
      "ĠSmart": 3094,
      "ĠJose": 3095,
      "dough": 3096,
      "Ġtaken": 3097,
      "Ġdolph": 3098,
      "OB": 3099,
      "Ġfact": 3100,
      "ĠSally": 3101,
      "ction": 3102,
      "Ġoch": 3103,
      "Ġsend": 3104,
      "Ġroar": 3105,
      "Ġsausages": 3106,
      "Ġturning": 3107,
      "KEN": 3108,
      "Ġcock": 3109,
      "Ġgiant": 3110,
      "Ġgarbage": 3111,
      "Ġsafe": 3112,
      "no": 3113,
      "Ġfather": 3114,
      "Ġfelt": 3115,
      "Ġbud": 3116,
      "Ġdefinitely": 3117,
      "Ġlollipop": 3118,
      "Ġvac": 3119,
      "ĠSpot": 3120,
      "Ġcal": 3121,
      "ĠZorg": 3122,
      "Ġpicking": 3123,
      "cing": 3124,
      "Ġsink": 3125,
      "Ġbless": 3126,
      "Ġfright": 3127,
      "ents": 3128,
      "Sam": 3129,
      "Ġhu": 3130,
      "Ġhhh": 3131,
      "tu": 3132,
      "Ġbabys": 3133,
      "aron": 3134,
      "Ġmessy": 3135,
      "ĠBow": 3136,
      "Ġpow": 3137,
      "omer": 3138,
      "cup": 3139,
      "Ġturkey": 3140,
      "Ġchoose": 3141,
      "udy": 3142,
      "Ġplays": 3143,
      "Ġpepper": 3144,
      "Ġmomma": 3145,
      "Ġaccident": 3146,
      "Ġtrailer": 3147,
      "Ġopened": 3148,
      "Ġcupcake": 3149,
      "Ġcleaning": 3150,
      "Ġexactly": 3151,
      "ĠMax": 3152,
      "less": 3153,
      "ĠTo": 3154,
      "ĠBer": 3155,
      "Ġtire": 3156,
      "Ġwitch": 3157,
      "Ġx": 3158,
      "ĠDip": 3159,
      "NAN": 3160,
      "cked": 3161,
      "Bird": 3162,
      "GRF": 3163,
      "Ġkeeps": 3164,
      "ĠJoseph": 3165,
      "Ġrather": 3166,
      "Ġupset": 3167,
      "Ġsweep": 3168,
      "Ġstomach": 3169,
      "Ġaeroplane": 3170,
      "Ġfore": 3171,
      "Ġawful": 3172,
      "Ġlucky": 3173,
      "Ġstuffed": 3174,
      "Ġquestion": 3175,
      "Ġcost": 3176,
      "Ġket": 3177,
      "Ġpushed": 3178,
      "Ġiron": 3179,
      "Ġma": 3180,
      "Ġwhether": 3181,
      "Ġfig": 3182,
      "Ġforty": 3183,
      "ik": 3184,
      "Ġstir": 3185,
      "Ġallowed": 3186,
      "mo": 3187,
      "Ġnurse": 3188,
      "ĠPippin": 3189,
      "aus": 3190,
      "Ġstayed": 3191,
      "Ġpea": 3192,
      "Ġpages": 3193,
      "naw": 3194,
      "Ġfifty": 3195,
      "Ġhouses": 3196,
      "Ġcough": 3197,
      "Ġmend": 3198,
      "Ġsew": 3199,
      "ĠDo": 3200,
      "ĠNew": 3201,
      "Ġfift": 3202,
      "Ġlistening": 3203,
      "Ġfold": 3204,
      "Ġhelping": 3205,
      "oppy": 3206,
      "Ġang": 3207,
      "Ġalligator": 3208,
      "Ġkinds": 3209,
      "Ġcuddle": 3210,
      "ROG": 3211,
      "Ġladybird": 3212,
      "LL": 3213,
      "ables": 3214,
      "ding": 3215,
      "itter": 3216,
      "Ġsquirrel": 3217,
      "Ġdirt": 3218,
      "Ġhen": 3219,
      "Ġkept": 3220,
      "Ġcarp": 3221,
      "ker": 3222,
      "Ġach": 3223,
      "Ġmet": 3224,
      "ĠWh": 3225,
      "Ġcowboy": 3226,
      "Ġlose": 3227,
      "Ġcakes": 3228,
      "Ġfe": 3229,
      "huh": 3230,
      "ĠLinda": 3231,
      "Ġsmile": 3232,
      "Ġdoors": 3233,
      "Ġwalked": 3234,
      "Ġmuff": 3235,
      "rise": 3236,
      "ĠPapa": 3237,
      "Ġsevent": 3238,
      "Ġcherry": 3239,
      "lin": 3240,
      "Ġseal": 3241,
      "Ġseeds": 3242,
      "Ch": 3243,
      "ises": 3244,
      "Ġpulled": 3245,
      "river": 3246,
      "Ġbes": 3247,
      "ĠPingu": 3248,
      "ĠNathaniel": 3249,
      "Ġrefr": 3250,
      "Ġtrue": 3251,
      "Ġwhist": 3252,
      "illa": 3253,
      "als": 3254,
      "Ġrocks": 3255,
      "Ġblowing": 3256,
      "immy": 3257,
      "Ġbaseball": 3258,
      "Ġpanc": 3259,
      "Ġpurse": 3260,
      "Ġflew": 3261,
      "ĠLittle": 3262,
      "Ġfrighten": 3263,
      "Ġplates": 3264,
      "Ġsurprise": 3265,
      "Ġsticker": 3266,
      "Ġnorm": 3267,
      "chair": 3268,
      "Ġbrick": 3269,
      "Ġpuppet": 3270,
      "Ġrefriger": 3271,
      "driver": 3272,
      "Ġbegin": 3273,
      "Ġshell": 3274,
      "Ġdrum": 3275,
      "Ġbetween": 3276,
      "Ġleast": 3277,
      "Ġchanged": 3278,
      "ĠDan": 3279,
      "ctop": 3280,
      "Ġcollect": 3281,
      "nth": 3282,
      "opher": 3283,
      "ees": 3284,
      "Ġpeep": 3285,
      "ĠMel": 3286,
      "Ġsent": 3287,
      "Ġpor": 3288,
      "Ġnone": 3289,
      "Ġglad": 3290,
      "ĠJenny": 3291,
      "Ġhay": 3292,
      "Ġbead": 3293,
      "Ġfrogs": 3294,
      "ĠErnie": 3295,
      "Ġclou": 3296,
      "oller": 3297,
      "Ġpottie": 3298,
      "Ġfifteen": 3299,
      "ctopus": 3300,
      "Ġbright": 3301,
      "dles": 3302,
      "pr": 3303,
      "Ġpram": 3304,
      "Ġsticks": 3305,
      "ĠGrandpa": 3306,
      "Ġrefrigerator": 3307,
      "SAR": 3308,
      "Ġsize": 3309,
      "Ġpond": 3310,
      "Ġgoose": 3311,
      "Ġnewsp": 3312,
      "anna": 3313,
      "Ġhook": 3314,
      "Ġreg": 3315,
      "ĠBrian": 3316,
      "Ġshower": 3317,
      "Ġpostman": 3318,
      "Ġfigure": 3319,
      "ĠLala": 3320,
      "Ġmonkeys": 3321,
      "work": 3322,
      "Ġthirt": 3323,
      "Ġbroom": 3324,
      "Ġbumped": 3325,
      "Ġmonths": 3326,
      "yr": 3327,
      "sters": 3328,
      "Ġgrape": 3329,
      "ĠAran": 3330,
      "Ġgod": 3331,
      "Ġsticking": 3332,
      "Ġtear": 3333,
      "ĠGab": 3334,
      "Ġstickers": 3335,
      "Ġfishing": 3336,
      "Ġkite": 3337,
      "apers": 3338,
      "Ġparrot": 3339,
      "ya": 3340,
      "col": 3341,
      "mm": 3342,
      "Ġoctopus": 3343,
      "Ġoffice": 3344,
      "Doh": 3345,
      "Ġgrab": 3346,
      "Ġhambur": 3347,
      "ada": 3348,
      "ĠGre": 3349,
      "bbie": 3350,
      "Ġshot": 3351,
      "Ġcocoon": 3352,
      "Ġcont": 3353,
      "ĠDipsy": 3354,
      "Ġmagnet": 3355,
      "Ġbone": 3356,
      "Ġcarpet": 3357,
      "do": 3358,
      "Ġchin": 3359,
      "Ġnicely": 3360,
      "lo": 3361,
      "Ġtray": 3362,
      "Ġgrey": 3363,
      "Ġbunch": 3364,
      "Ġpenny": 3365,
      "Ġnapkin": 3366,
      "butter": 3367,
      "Ġfan": 3368,
      "Ġplan": 3369,
      "Ġchop": 3370,
      "Ġdese": 3371,
      "Ġlife": 3372,
      "ched": 3373,
      "ĠUr": 3374,
      "Ġracing": 3375,
      "Ġrem": 3376,
      "Ġsixt": 3377,
      "Ġbuilt": 3378,
      "Ġcrane": 3379,
      "Ġcer": 3380,
      "ĠElmo": 3381,
      "ĠDadda": 3382,
      "Ġwonderful": 3383,
      "ĠMissus": 3384,
      "Ġwip": 3385,
      "Ġfaster": 3386,
      "Ġbees": 3387,
      "brush": 3388,
      "Ġoat": 3389,
      "Tank": 3390,
      "Ġsell": 3391,
      "Ġlets": 3392,
      "CA": 3393,
      "Ġrug": 3394,
      "Ġbean": 3395,
      "Ġrainbow": 3396,
      "Ġthumb": 3397,
      "Ġpeel": 3398,
      "ĠMomma": 3399,
      "Ġsmaller": 3400,
      "eme": 3401,
      "iles": 3402,
      "astname": 3403,
      "Ġwagon": 3404,
      "Ġcertain": 3405,
      "nce": 3406,
      "Ġseesaw": 3407,
      "Ġdem": 3408,
      "Ġribbit": 3409,
      "ĠChris": 3410,
      "ĠSmarties": 3411,
      "oddy": 3412,
      "Ġdollars": 3413,
      "Ġcarrying": 3414,
      "Ġmice": 3415,
      "Ġstove": 3416,
      "Ġwindows": 3417,
      "Ġseems": 3418,
      "Ġlibr": 3419,
      "ĠCharlie": 3420,
      "LI": 3421,
      "laus": 3422,
      "ĠLwww": 3423,
      "Ġsweeties": 3424,
      "ola": 3425,
      "Ġasking": 3426,
      "ĠShem": 3427,
      "ON": 3428,
      "Ġlob": 3429,
      "Ġburn": 3430,
      "zer": 3431,
      "ĠDa": 3432,
      "Ġsqueeze": 3433,
      "Ġraisins": 3434,
      "Ġanswer": 3435,
      "onna": 3436,
      "ĠSw": 3437,
      "Ġsquish": 3438,
      "ĠAunty": 3439,
      "Ġrubber": 3440,
      "Ġcarriage": 3441,
      "ĠGraeme": 3442,
      "isha": 3443,
      "Ġstories": 3444,
      "Ġshove": 3445,
      "Ġcart": 3446,
      "Ġdee": 3447,
      "Ġlock": 3448,
      "ipper": 3449,
      "Ġyoung": 3450,
      "Ġbother": 3451,
      "Ġhadn": 3452,
      "Ġsmoke": 3453,
      "Ġolder": 3454,
      "ĠMaggie": 3455,
      "uring": 3456,
      "Ġcircus": 3457,
      "ĠTra": 3458,
      "Ġclip": 3459,
      "Ġwolf": 3460,
      "Ġcried": 3461,
      "Ġcase": 3462,
      "Ġplants": 3463,
      "Ġthinks": 3464,
      "osie": 3465,
      "Ġangry": 3466,
      "gest": 3467,
      "Ġcous": 3468,
      "berry": 3469,
      "amed": 3470,
      "Ġcrazy": 3471,
      "Ġfresh": 3472,
      "cer": 3473,
      "Ġbeat": 3474,
      "pple": 3475,
      "Ġscream": 3476,
      "Ġmotorcy": 3477,
      "lt": 3478,
      "Ġcoo": 3479,
      "Ġpile": 3480,
      "isa": 3481,
      "ried": 3482,
      "Ġfourt": 3483,
      "Ġsteady": 3484,
      "ro": 3485,
      "Ġwoke": 3486,
      "Ġzorg": 3487,
      "Ġsandwiches": 3488,
      "Ġssh": 3489,
      "Ġpony": 3490,
      "Ġthirteen": 3491,
      "Ġlibrary": 3492,
      "Ġmeas": 3493,
      "Ġclouds": 3494,
      "doo": 3495,
      "co": 3496,
      "Ġtweet": 3497,
      "ĠOli": 3498,
      "LIN": 3499,
      "ters": 3500,
      "XXX": 3501,
      "Ġbathroom": 3502,
      "Ġdolphin": 3503,
      "Ġmister": 3504,
      "Ġbun": 3505,
      "upid": 3506,
      "Ġruns": 3507,
      "Ġbrumm": 3508,
      "Ġbedtime": 3509,
      "Ġhanging": 3510,
      "orge": 3511,
      "Ġexcited": 3512,
      "Ġdishes": 3513,
      "ized": 3514,
      "Ġrocking": 3515,
      "Ġsurpris": 3516,
      "Ġquar": 3517,
      "Ġtub": 3518,
      "ĠTony": 3519,
      "shirt": 3520,
      "tains": 3521,
      "ĠHoney": 3522,
      "ipping": 3523,
      "ĠUrs": 3524,
      "dog": 3525,
      "Ġdada": 3526,
      "Ġexciting": 3527,
      "Ġsupposed": 3528,
      "Ġhate": 3529,
      "Ġwhats": 3530,
      "ided": 3531,
      "Ġdifficul": 3532,
      "Ġob": 3533,
      "Ġphot": 3534,
      "kend": 3535,
      "Ġdrawer": 3536,
      "Ġpickle": 3537,
      "Ġgrown": 3538,
      "ĠIn": 3539,
      "ĠFather": 3540,
      "zel": 3541,
      "ĠTinky": 3542,
      "ĠEaster": 3543,
      "Ġnuts": 3544,
      "Ġtrash": 3545,
      "Ġputs": 3546,
      "osh": 3547,
      "Ġcheer": 3548,
      "Ġrabbits": 3549,
      "Ġboing": 3550,
      "ĠTeletubbies": 3551,
      "Ġlettu": 3552,
      "ĠPil": 3553,
      "HA": 3554,
      "Ġroo": 3555,
      "ote": 3556,
      "Ġatt": 3557,
      "Ġrid": 3558,
      "icked": 3559,
      "Ġfeels": 3560,
      "ĠGeorg": 3561,
      "Ġadd": 3562,
      "Ġpad": 3563,
      "Ġweekend": 3564,
      "Ġwalks": 3565,
      "oring": 3566,
      "Ġjumper": 3567,
      "Ġdangerous": 3568,
      "Ġfourteen": 3569,
      "chard": 3570,
      "issa": 3571,
      "Ġgroup": 3572,
      "Ġlonger": 3573,
      "ĠChristopher": 3574,
      "Ġstarts": 3575,
      "Ġeasier": 3576,
      "ĠGeorge": 3577,
      "read": 3578,
      "Ġbark": 3579,
      "group": 3580,
      "Ġlettuce": 3581,
      "rol": 3582,
      "Ġwah": 3583,
      "uss": 3584,
      "ĠDebbie": 3585,
      "Ġdifficult": 3586,
      "ngine": 3587,
      "ĠHumpty": 3588,
      "Ġtastes": 3589,
      "Ġship": 3590,
      "ĠLisa": 3591,
      "aws": 3592,
      "house": 3593,
      "yl": 3594,
      "Ġchalk": 3595,
      "Ġstrange": 3596,
      "tr": 3597,
      "Ġhorrible": 3598,
      "Ġchickens": 3599,
      "Ġpopcorn": 3600,
      "Ġcrackers": 3601,
      "Ġmeant": 3602,
      "vers": 3603,
      "ĠUrsula": 3604,
      "pot": 3605,
      "via": 3606,
      "ann": 3607,
      "ushing": 3608,
      "Ġsnakes": 3609,
      "ĠJoe": 3610,
      "Ġnamed": 3611,
      "Ġpir": 3612,
      "Ġext": 3613,
      "Ġherself": 3614,
      "Ġhose": 3615,
      "Ġmoved": 3616,
      "Ġclear": 3617,
      "Ġea": 3618,
      "ĠRobin": 3619,
      "meal": 3620,
      "erc": 3621,
      "Ġcolored": 3622,
      "Ġmagaz": 3623,
      "ible": 3624,
      "uk": 3625,
      "sel": 3626,
      "Ġsof": 3627,
      "Ġgrandpa": 3628,
      "Donald": 3629,
      "asing": 3630,
      "erries": 3631,
      "ĠPilchard": 3632,
      "Ġund": 3633,
      "ract": 3634,
      "Ġknees": 3635,
      "dden": 3636,
      "oodle": 3637,
      "Ġmotorcycle": 3638,
      "Ġsail": 3639,
      "Ġnewspaper": 3640,
      "bee": 3641,
      "ober": 3642,
      "Ġbroc": 3643,
      "Ġdeliver": 3644,
      "Ġimag": 3645,
      "Ġhuge": 3646,
      "Ġhunh": 3647,
      "Ġcush": 3648,
      "ĠSleep": 3649,
      "Ġswitch": 3650,
      "ĠEmily": 3651,
      "Ġtwinkle": 3652,
      "Ġhats": 3653,
      "Ġbanging": 3654,
      "Ġbiggest": 3655,
      "Engine": 3656,
      "iv": 3657,
      "Ġpenn": 3658,
      "Ġpair": 3659,
      "Ġwaffle": 3660,
      "Ġshed": 3661,
      "Ġcandles": 3662,
      "Ġpounds": 3663,
      "ĠDoctor": 3664,
      "Ġpipe": 3665,
      "oph": 3666,
      "ĠCromer": 3667,
      "Ġhall": 3668,
      "Ġbah": 3669,
      "Ġterrible": 3670,
      "ellent": 3671,
      "Ġsnip": 3672,
      "ature": 3673,
      "ĠSn": 3674,
      "ocer": 3675,
      "coli": 3676,
      "Ġoatmeal": 3677,
      "Ġmeal": 3678,
      "Ġnest": 3679,
      "Ġjack": 3680,
      "Ġrail": 3681,
      "ĠKim": 3682,
      "TCA": 3683,
      "Ġcab": 3684,
      "ĠGail": 3685,
      "Ġoften": 3686,
      "Ġexcellent": 3687,
      "Ġbroccoli": 3688,
      "Ġdess": 3689,
      "ella": 3690,
      "berries": 3691,
      "Ġsudden": 3692,
      "Ġsnail": 3693,
      "go": 3694,
      "host": 3695,
      "Ġplums": 3696,
      "ards": 3697,
      "EVA": 3698,
      "Ġheh": 3699,
      "ĠMc": 3700,
      "Ġhurting": 3701,
      "Ġhunhunh": 3702,
      "ks": 3703,
      "Ġwings": 3704,
      "ĠRoss": 3705,
      "Ġbottles": 3706,
      "FA": 3707,
      "ĠJune": 3708,
      "Ġwaterme": 3709,
      "Ġrings": 3710,
      "ĠMorg": 3711,
      "ĠAm": 3712,
      "Ġhamburger": 3713,
      "Ġtasty": 3714,
      "Ġaun": 3715,
      "Ġqueen": 3716,
      "Ġkicking": 3717,
      "Ġwhistle": 3718,
      "Ġdu": 3719,
      "choc": 3720,
      "ground": 3721,
      "Ġwire": 3722,
      "Ġhun": 3723,
      "ĠDonald": 3724,
      "ĠBert": 3725,
      "Ġwinter": 3726,
      "Ġradio": 3727,
      "Ġunless": 3728,
      "yn": 3729,
      "edy": 3730,
      "ention": 3731,
      "Ġshowing": 3732,
      "Ġlego": 3733,
      "Ġcomput": 3734,
      "Ġsixteen": 3735,
      "Ġcamp": 3736,
      "table": 3737,
      "Ġtools": 3738,
      "uffy": 3739,
      "Ġnineteen": 3740,
      "Ġdessert": 3741,
      "Ġstupid": 3742,
      "Ġatta": 3743,
      "Ġchristmas": 3744,
      "Ġdeer": 3745,
      "Ġcre": 3746,
      "ĠFred": 3747,
      "Ġturns": 3748,
      "Ġbout": 3749,
      "len": 3750,
      "book": 3751,
      "Ġpuzzles": 3752,
      "Ġbumble": 3753,
      "Ġbeginning": 3754,
      "Ġanyone": 3755,
      "ĠJason": 3756,
      "Ġcrashed": 3757,
      "Ġneckl": 3758,
      "Ġyogh": 3759,
      "ENV": 3760,
      "uts": 3761,
      "Ġbattery": 3762,
      "Ġnormally": 3763,
      "men": 3764,
      "Ġtank": 3765,
      "ica": 3766,
      "Ġsir": 3767,
      "Ġbend": 3768,
      "Ġhandle": 3769,
      "ĠGrover": 3770,
      "REB": 3771,
      "ids": 3772,
      "ĠWend": 3773,
      "Ġbeads": 3774,
      "Ġwide": 3775,
      "Ġseeing": 3776,
      "Ġfalls": 3777,
      "ugs": 3778,
      "Ġwrap": 3779,
      "iolet": 3780,
      "ingo": 3781,
      "Ġbon": 3782,
      "Ġzip": 3783,
      "Ġbelongs": 3784,
      "Ġsweater": 3785,
      "Ġstones": 3786,
      "Ġbush": 3787,
      "ching": 3788,
      "ĠLucy": 3789,
      "Ġvegetables": 3790,
      "CLI": 3791,
      "Ġsurprised": 3792,
      "Ġbatteries": 3793,
      "Ġwatermelon": 3794,
      "Ġsim": 3795,
      "Ġoil": 3796,
      "Ġkisses": 3797,
      "Ġquestions": 3798,
      "ief": 3799,
      "arent": 3800,
      "Ġtax": 3801,
      "MAL": 3802,
      "ĠToby": 3803,
      "Ġstack": 3804,
      "Ġmoun": 3805,
      "Ġfuzz": 3806,
      "Ġfeeding": 3807,
      "Ġrecognize": 3808,
      "incess": 3809,
      "rick": 3810,
      "Ġborn": 3811,
      "that": 3812,
      "ots": 3813,
      "ami": 3814,
      "pping": 3815,
      "Ġfixing": 3816,
      "Ġbouncy": 3817,
      "Ġstarting": 3818,
      "Ġfighting": 3819,
      "Ġpopped": 3820,
      "Ġcha": 3821,
      "ĠBoo": 3822,
      "ĠAs": 3823,
      "ĠEwww": 3824,
      "Ġbuddy": 3825,
      "Ġdose": 3826,
      "ĠMot": 3827,
      "Ġkitten": 3828,
      "Ġpiggie": 3829,
      "cord": 3830,
      "Ġghost": 3831,
      "Ġwre": 3832,
      "Ġbringing": 3833,
      "Ġclimbed": 3834,
      "Ġchewing": 3835,
      "Ġlobster": 3836,
      "lent": 3837,
      "aren": 3838,
      "osaurus": 3839,
      "Ġfeather": 3840,
      "Ġoce": 3841,
      "Ġrope": 3842,
      "Ġspilled": 3843,
      "ĠWendy": 3844,
      "Ġmac": 3845,
      "iced": 3846,
      "Ġsofa": 3847,
      "Ġew": 3848,
      "Ġchasing": 3849,
      "eedee": 3850,
      "ippy": 3851,
      "Ġfrightened": 3852,
      "puzz": 3853,
      "ĠDor": 3854,
      "ĠSnow": 3855,
      "Ġneenaw": 3856,
      "ĠMelissa": 3857,
      "Ġ'": 3858,
      "Ġlions": 3859,
      "Ġcomputer": 3860,
      "ĠCon": 3861,
      "Ġscrewdriver": 3862,
      "Ġsod": 3863,
      "erg": 3864,
      "ĠTeddy": 3865,
      "ude": 3866,
      "Ġni": 3867,
      "Ġwhatcha": 3868,
      "Ġticket": 3869,
      "zing": 3870,
      "Ġnood": 3871,
      "gel": 3872,
      "ĠPh": 3873,
      "Ġbal": 3874,
      "Ġsmack": 3875,
      "ĠSteve": 3876,
      "Ġketch": 3877,
      "ĠTre": 3878,
      "Ġtreat": 3879,
      "Ġstret": 3880,
      "Ġchar": 3881,
      "ĠJoey": 3882,
      "isk": 3883,
      "Ġcloser": 3884,
      "Ġawake": 3885,
      "Ġbelt": 3886,
      "Ġbugs": 3887,
      "Ġshovel": 3888,
      "Ġketchup": 3889,
      "cially": 3890,
      "Ġtracks": 3891,
      "Ġsunny": 3892,
      "Ġrooster": 3893,
      "truck": 3894,
      "overed": 3895,
      "Ġocean": 3896,
      "ĠKat": 3897,
      "Ġsquash": 3898,
      "Ġeighteen": 3899,
      "US": 3900,
      "vor": 3901,
      "ĠGranny": 3902,
      "Ġpretzel": 3903,
      "Ġmerry": 3904,
      "tern": 3905,
      "ĠMother": 3906,
      "ĠKaren": 3907,
      "Ġzoom": 3908,
      "fect": 3909,
      "Ġgrowing": 3910,
      "Ġmagazine": 3911,
      "Ġca": 3912,
      "ĠBab": 3913,
      "Ġwatched": 3914,
      "Ġnails": 3915,
      "Christmas": 3916,
      "ĠMac": 3917,
      "Ġsle": 3918,
      "Ġreason": 3919,
      "Ġenvel": 3920,
      "ites": 3921,
      "ĠJill": 3922,
      "FRI": 3923,
      "Ġless": 3924,
      "Ġdied": 3925,
      "Ġbones": 3926,
      "Ġcmon": 3927,
      "Ġdisapp": 3928,
      "Ġriver": 3929,
      "Ġinv": 3930,
      "Ġstool": 3931,
      "ĠCind": 3932,
      "Ġtoot": 3933,
      "kins": 3934,
      "Ġbeds": 3935,
      "amus": 3936,
      "Ġpunch": 3937,
      "Ġslee": 3938,
      "ĠRosie": 3939,
      "Ġnecklace": 3940,
      "ĠCindere": 3941,
      "band": 3942,
      "arf": 3943,
      "Ġedge": 3944,
      "icket": 3945,
      "ffic": 3946,
      "ĠNoddy": 3947,
      "Ġpence": 3948,
      "Ġru": 3949,
      "Ġgiven": 3950,
      "Ġshelf": 3951,
      "Ġshowed": 3952,
      "ĠTrevor": 3953,
      "opot": 3954,
      "Ġmushroom": 3955,
      "Ġvacu": 3956,
      "Ġpasse": 3957,
      "Ġtent": 3958,
      "lenty": 3959,
      "Ġnuh": 3960,
      "ison": 3961,
      "Ġcandle": 3962,
      "Ġflag": 3963,
      "Ġduckie": 3964,
      "Ġparce": 3965,
      "Ġsuitcase": 3966,
      "ĠDeedee": 3967,
      "Ġdigg": 3968,
      "Ġcloset": 3969,
      "Ġwhe": 3970,
      "engine": 3971,
      "Ġexpl": 3972,
      "Ġpoin": 3973,
      "Ġhippopot": 3974,
      "Ġsits": 3975,
      "ĠCinderella": 3976,
      "lies": 3977,
      "Ġeng": 3978,
      "ĠEddie": 3979,
      "Ġshining": 3980,
      "down": 3981,
      "Ġsuck": 3982,
      "Ġnoises": 3983,
      "Ġstaying": 3984,
      "Ġmixed": 3985,
      "ĠIsab": 3986,
      "ĠMolly": 3987,
      "odd": 3988,
      "Ġscoop": 3989,
      "Ġlived": 3990,
      "Ġtype": 3991,
      "ĠDaisy": 3992,
      "ĠQ": 3993,
      "Ġmitt": 3994,
      "Ġplenty": 3995,
      "ĠKe": 3996,
      "Mabel": 3997,
      "Ġshoo": 3998,
      "Ġperfect": 3999,
      "Winky": 4000,
      "Ġsil": 4001,
      "Ġbank": 4002,
      "Ġpian": 4003,
      "Ġruff": 4004,
      "Ġstone": 4005,
      "Ġsold": 4006,
      "Ġsneak": 4007,
      "ĠJohnny": 4008,
      "Ġshorts": 4009,
      "ĠMeg": 4010,
      "ĠDwww": 4011,
      "Ġmixer": 4012,
      "Ġquarter": 4013,
      "ookie": 4014,
      "Ġcounting": 4015,
      "Ġcircles": 4016,
      "Ġvacuum": 4017,
      "Ġhippopotamus": 4018,
      "Ġabove": 4019,
      "Ġpenguins": 4020,
      "Ġtaxi": 4021,
      "Ġcop": 4022,
      "ĠPig": 4023,
      "Ġguit": 4024,
      "oopy": 4025,
      "Ġcamel": 4026,
      "Ġsongs": 4027,
      "Ġstripes": 4028,
      "ume": 4029,
      "ĠBuzz": 4030,
      "HH": 4031,
      "ita": 4032,
      "Ġant": 4033,
      "urr": 4034,
      "ubby": 4035,
      "Ġpiano": 4036,
      "Ġwhisp": 4037,
      "ĠLastname": 4038,
      "Ġyard": 4039,
      "iddy": 4040,
      "Ġcarefully": 4041,
      "Ġtraffic": 4042,
      "ĠViolet": 4043,
      "Ġcrawl": 4044,
      "Claus": 4045,
      "Ġste": 4046,
      "Ġbotbot": 4047,
      "Ġkissing": 4048,
      "Ġsorts": 4049,
      "Ġyoghurt": 4050,
      "MAR": 4051,
      "Ġce": 4052,
      "Ġjar": 4053,
      "Ġwiggle": 4054,
      "Ġlamp": 4055,
      "Ġabs": 4056,
      "Ġpinea": 4057,
      "oves": 4058,
      "ĠSoph": 4059,
      "fford": 4060,
      "Ġdrinks": 4061,
      "bread": 4062,
      "ĠSleepy": 4063,
      "ted": 4064,
      "Ġprincess": 4065,
      "aa": 4066,
      "ĠYork": 4067,
      "Ġson": 4068,
      "ingle": 4069,
      "Ġdecor": 4070,
      "Ġben": 4071,
      "Ġguitar": 4072,
      "Ġbake": 4073,
      "ular": 4074,
      "Ġdeep": 4075,
      "ley": 4076,
      "amma": 4077,
      "Ġairport": 4078,
      "Ġforgotten": 4079,
      "Ġcertainly": 4080,
      "mother": 4081,
      "CHR": 4082,
      "ĠMike": 4083,
      "Ġtouching": 4084,
      "Ġremind": 4085,
      "Ġcousin": 4086,
      "bs": 4087,
      "ette": 4088,
      "ĠCwww": 4089,
      "Ġspring": 4090,
      "Ġyah": 4091,
      "Ġbeer": 4092,
      "Ġki": 4093,
      "Ġchug": 4094,
      "Ġplayer": 4095,
      "ĠAf": 4096,
      "ĠSteven": 4097,
      "rum": 4098,
      "Ġlar": 4099,
      "Ġhers": 4100,
      "ĠBill": 4101,
      "ĠAnnie": 4102,
      "Ġsmells": 4103,
      "Ġcurtains": 4104,
      "ode": 4105,
      "Ġsquirt": 4106,
      "Ġawoh": 4107,
      "atherine": 4108,
      "Ġnoticed": 4109,
      "Ġothers": 4110,
      "Ġarr": 4111,
      "pecially": 4112,
      "SHA": 4113,
      "bar": 4114,
      "Ġdah": 4115,
      "Ġclay": 4116,
      "Ġdollar": 4117,
      "Ġkittens": 4118,
      "Ġcompl": 4119,
      "Ġpirate": 4120,
      "ium": 4121,
      "igher": 4122,
      "Ġskip": 4123,
      "Ġespecially": 4124,
      "Ġsmoo": 4125,
      "Ġrhin": 4126,
      "ĠSophie": 4127,
      "ĠTween": 4128,
      "Ġrecording": 4129,
      "Ġwhoosh": 4130,
      "ĠLyn": 4131,
      "Ġpudding": 4132,
      "ĠAmanda": 4133,
      "corder": 4134,
      "Ġlau": 4135,
      "Ġtroll": 4136,
      "Ġflies": 4137,
      "Ġmacaron": 4138,
      "Ġchase": 4139,
      "ĠJes": 4140,
      "ĠGold": 4141,
      "Ġgloves": 4142,
      "ders": 4143,
      "ĠDanny": 4144,
      "ĠJudy": 4145,
      "ĠMorgan": 4146,
      "UNC": 4147,
      "olute": 4148,
      "uela": 4149,
      "Ġteapot": 4150,
      "ĠSammy": 4151,
      "Ġcem": 4152,
      "orm": 4153,
      "Ġpancakes": 4154,
      "Ġabsolute": 4155,
      "ĠMon": 4156,
      "Ġbasketball": 4157,
      "Ġhigher": 4158,
      "Ġcage": 4159,
      "ĠJim": 4160,
      "puzzle": 4161,
      "Ġq": 4162,
      "Ġwild": 4163,
      "ĠRober": 4164,
      "Ġleaving": 4165,
      "ĠBarb": 4166,
      "Ġtool": 4167,
      "ĠFrank": 4168,
      "Ġpowder": 4169,
      "con": 4170,
      "ges": 4171,
      "Ġthird": 4172,
      "Ġtuna": 4173,
      "GRD": 4174,
      "EI": 4175,
      "Ġmkay": 4176,
      "Ġexerc": 4177,
      "EO": 4178,
      "bag": 4179,
      "Ġpinch": 4180,
      "fortable": 4181,
      "ĠCatherine": 4182,
      "entist": 4183,
      "Ġimagine": 4184,
      "GEO": 4185,
      "stick": 4186,
      "Ġtoothbrush": 4187,
      "ĠManuela": 4188,
      "ĠIsabelle": 4189,
      "cles": 4190,
      "Ġpops": 4191,
      "Ġgoo": 4192,
      "Ġgobble": 4193,
      "Ġballet": 4194,
      "Ġmacaroni": 4195,
      "ices": 4196,
      "RUS": 4197,
      "Ġrip": 4198,
      "ĠSuk": 4199,
      "ĠJan": 4200,
      "Ġcrumb": 4201,
      "ios": 4202,
      "Ġjung": 4203,
      "ales": 4204,
      "ili": 4205,
      "Ġpuff": 4206,
      "ĠAunt": 4207,
      "tles": 4208,
      "Ġrough": 4209,
      "ĠNor": 4210,
      "Ġsalami": 4211,
      "Ġwindy": 4212,
      "beep": 4213,
      "Ġicing": 4214,
      "Ġbak": 4215,
      "lyn": 4216,
      "daisy": 4217,
      "Ġgorge": 4218,
      "bles": 4219,
      "Ġcovered": 4220,
      "ĠPete": 4221,
      "Ġache": 4222,
      "Ġabsolutely": 4223,
      "hog": 4224,
      "ka": 4225,
      "poo": 4226,
      "ĠCookie": 4227,
      "Ġseemed": 4228,
      "reet": 4229,
      "Ġdum": 4230,
      "ĠInd": 4231,
      "ĠRich": 4232,
      "nthony": 4233,
      "ĠGabr": 4234,
      "Ġlow": 4235,
      "Ġcann": 4236,
      "Ġflour": 4237,
      "Ġcornflakes": 4238,
      "Ġribbon": 4239,
      "ual": 4240,
      "Ġlines": 4241,
      "Ġwooden": 4242,
      "Ġshiny": 4243,
      "Ġsoda": 4244,
      "GRO": 4245,
      "pie": 4246,
      "Ġsteam": 4247,
      "ĠRobert": 4248,
      "Ġgorgeous": 4249,
      "MOM": 4250,
      "Ġforest": 4251,
      "Ġpineapple": 4252,
      "Ġjungle": 4253,
      "Ġhedge": 4254,
      "ĠAnthony": 4255,
      "Ġage": 4256,
      "Ġmap": 4257,
      "ĠTr": 4258,
      "Ġbrushing": 4259,
      "Ġsur": 4260,
      "seum": 4261,
      "Ġorder": 4262,
      "ĠCorn": 4263,
      "ĠBird": 4264,
      "acked": 4265,
      "Ġlocked": 4266,
      "choos": 4267,
      "Ġwheat": 4268,
      "wood": 4269,
      "pect": 4270,
      "Ġuncle": 4271,
      "Ġgives": 4272,
      "ĠAbi": 4273,
      "Ġmuffin": 4274,
      "adow": 4275,
      "ĠOld": 4276,
      "Ġfuzzy": 4277,
      "ĠAfric": 4278,
      "Ġtig": 4279,
      "Ġfil": 4280,
      "GRN": 4281,
      "Ġburp": 4282,
      "Ġcust": 4283,
      "Ġnasty": 4284,
      "ĠOsc": 4285,
      "Ġextra": 4286,
      "Ġlaund": 4287,
      "ĠJon": 4288,
      "bly": 4289,
      "Ġsilver": 4290,
      "ping": 4291,
      "Ġpacket": 4292,
      "Ġlil": 4293,
      "umber": 4294,
      "ja": 4295,
      "Ġres": 4296,
      "Ġbeside": 4297,
      "selves": 4298,
      "Ġwob": 4299,
      "Ġbran": 4300,
      "Ġcrib": 4301,
      "ĠEdward": 4302,
      "ĠPiglet": 4303,
      "rels": 4304,
      "Ġfed": 4305,
      "ĠNan": 4306,
      "Ġdecided": 4307,
      "wow": 4308,
      "Ġpatty": 4309,
      "ky": 4310,
      "Ġjoin": 4311,
      "ocks": 4312,
      "ĠPatsy": 4313,
      "eese": 4314,
      "Ġboring": 4315,
      "ĠHallow": 4316,
      "ĠSukie": 4317,
      "see": 4318,
      "ĠPolly": 4319,
      "Ġtells": 4320,
      "tha": 4321,
      "Ġbeef": 4322,
      "Ġwhisk": 4323,
      "ĠTodd": 4324,
      "Ġspit": 4325,
      "Ġbiting": 4326,
      "Ġtigers": 4327,
      "ms": 4328,
      "Ġdie": 4329,
      "Ġlog": 4330,
      "Ġripped": 4331,
      "Ġlip": 4332,
      "lier": 4333,
      "ĠEmma": 4334,
      "ĠBlue": 4335,
      "ĠInv": 4336,
      "Ġlaundry": 4337,
      "gie": 4338,
      "ĠBet": 4339,
      "Ġbuying": 4340,
      "Ġboats": 4341,
      "ĠHalloween": 4342,
      "ĠCli": 4343,
      "ander": 4344,
      "ĠHarold": 4345,
      "Ġfancy": 4346,
      "nis": 4347,
      "Ġchest": 4348,
      "Ġshoulder": 4349,
      "okey": 4350,
      "ĠBrook": 4351,
      "ĠPatrick": 4352,
      "Ġdoughn": 4353,
      "Ġder": 4354,
      "Ġbash": 4355,
      "Ġgiddy": 4356,
      "umble": 4357,
      "icky": 4358,
      "ĠEll": 4359,
      "Ġwrote": 4360,
      "Ġlanded": 4361,
      "Ġslowly": 4362,
      "Ġcity": 4363,
      "Ġgym": 4364,
      "iders": 4365,
      "ĠSon": 4366,
      "Ġcloud": 4367,
      "Ġflip": 4368,
      "Ġtreas": 4369,
      "ID": 4370,
      "fight": 4371,
      "Ġought": 4372,
      "Ġtee": 4373,
      "zen": 4374,
      "Ġpots": 4375,
      "Ġcleaned": 4376,
      "Ġcooked": 4377,
      "Ġtad": 4378,
      "Ġras": 4379,
      "ĠLo": 4380,
      "Ġhelped": 4381,
      "Ġthroat": 4382,
      "Ġweather": 4383,
      "Ġtreasure": 4384,
      "JU": 4385,
      "under": 4386,
      "Ġfoods": 4387,
      "ousand": 4388,
      "ĠAnn": 4389,
      "recorder": 4390,
      "Ġspiders": 4391,
      "Ġdiam": 4392,
      "Ġdoggies": 4393,
      "Ġcushion": 4394,
      "Ġmountain": 4395,
      "Ġcement": 4396,
      "Ġplaces": 4397,
      "Ġmuseum": 4398,
      "Ġstays": 4399,
      "Ġearlier": 4400,
      "Ġroller": 4401,
      "Ġtomatoes": 4402,
      "Ġspray": 4403,
      "Ġhours": 4404,
      "Ġwhisper": 4405,
      "Ġlolly": 4406,
      "phab": 4407,
      "Ġslipper": 4408,
      "Ġattention": 4409,
      "ĠRichard": 4410,
      "Ġhitting": 4411,
      "str": 4412,
      "Ġsport": 4413,
      "oops": 4414,
      "appy": 4415,
      "Ġbells": 4416,
      "ĠJenn": 4417,
      "Ġdiamond": 4418,
      "ject": 4419,
      "Ġko": 4420,
      "ĠMandy": 4421,
      "ĠAlice": 4422,
      "Ġrect": 4423,
      "Ġnotice": 4424,
      "place": 4425,
      "MIC": 4426,
      "bor": 4427,
      "ero": 4428,
      "Ġfrench": 4429,
      "Ġenvelope": 4430,
      "Ġthousand": 4431,
      "raph": 4432,
      "bury": 4433,
      "Ġsuddenly": 4434,
      "gh": 4435,
      "Ġthin": 4436,
      "eyore": 4437,
      "ham": 4438,
      "wi": 4439,
      "Ġcave": 4440,
      "Ġsmiling": 4441,
      "Ġseventeen": 4442,
      "ze": 4443,
      "Ġchecking": 4444,
      "Ġninety": 4445,
      "Ġfollowing": 4446,
      "eared": 4447,
      "irthday": 4448,
      "alie": 4449,
      "Ġspread": 4450,
      "Ġtrans": 4451,
      "ĠEeyore": 4452,
      "Ġcountry": 4453,
      "cca": 4454,
      "Ġtwist": 4455,
      "Ġopening": 4456,
      "shine": 4457,
      "Ġduring": 4458,
      "Ġpract": 4459,
      "esame": 4460,
      "Ġart": 4461,
      "Ġours": 4462,
      "Ġunh": 4463,
      "Ġsharing": 4464,
      "fer": 4465,
      "Ġtest": 4466,
      "Ġalphab": 4467,
      "Ġbreaking": 4468,
      "Ġringing": 4469,
      "Ġladders": 4470,
      "ĠMarky": 4471,
      "ĠGeorgie": 4472,
      "Ġheal": 4473,
      "ĠJake": 4474,
      "Ġterri": 4475,
      "LLL": 4476,
      "ĠJennif": 4477,
      "ram": 4478,
      "ĠMay": 4479,
      "Ġprog": 4480,
      "ĠOscar": 4481,
      "mill": 4482,
      "Ġtalked": 4483,
      "about": 4484,
      "Ġrattle": 4485,
      "ĠDaniel": 4486,
      "ĠSnoopy": 4487,
      "Ġneeded": 4488,
      "ĠLond": 4489,
      "ĠJennifer": 4490,
      "Ġooo": 4491,
      "Ġagainst": 4492,
      "Ġskunk": 4493,
      "Ġdesk": 4494,
      "Ġgingerbread": 4495,
      "ĠJesus": 4496,
      "Ġawright": 4497,
      "ĠClifford": 4498,
      "ĠFel": 4499,
      "Ġheads": 4500,
      "Ġwoah": 4501,
      "ĠLondon": 4502,
      "ilar": 4503,
      "Ġwaving": 4504,
      "Ġdifference": 4505,
      "ĠKatie": 4506,
      "Ġdentist": 4507,
      "Ġblew": 4508,
      "anes": 4509,
      "Ġspilt": 4510,
      "thy": 4511,
      "ĠBritt": 4512,
      "Ġlawn": 4513,
      "iously": 4514,
      "Ġchanging": 4515,
      "RR": 4516,
      "oa": 4517,
      "otte": 4518,
      "illon": 4519,
      "Ġjumps": 4520,
      "Ġskirt": 4521,
      "GFA": 4522,
      "icle": 4523,
      "Ġjingle": 4524,
      "Ġbacon": 4525,
      "Ġplain": 4526,
      "ĠRy": 4527,
      "Ġengines": 4528,
      "roller": 4529,
      "icer": 4530,
      "zzy": 4531,
      "Ġpens": 4532,
      "JJ": 4533,
      "Ġmill": 4534,
      "ics": 4535,
      "Ġprom": 4536,
      "aid": 4537,
      "uary": 4538,
      "arn": 4539,
      "ĠMegan": 4540,
      "sey": 4541,
      "Ġrides": 4542,
      "Ġjun": 4543,
      "ĠAll": 4544,
      "Ġdaisy": 4545,
      "Ġcrumbs": 4546,
      "idd": 4547,
      "ĠDingo": 4548,
      "ĠGl": 4549,
      "ems": 4550,
      "Ġpetrol": 4551,
      "ĠBarbie": 4552,
      "ĠQu": 4553,
      "ĠBarbara": 4554,
      "Ġcents": 4555,
      "ense": 4556,
      "Ġbreath": 4557,
      "Ġbutterflies": 4558,
      "Ġworms": 4559,
      "Ġsmooth": 4560,
      "tee": 4561,
      "Ġcash": 4562,
      "Ġwedding": 4563,
      "Ġconc": 4564,
      "ĠIsabel": 4565,
      "Ġupon": 4566,
      "Ġumm": 4567,
      "ĠApr": 4568,
      "ograph": 4569,
      "Ġzero": 4570,
      "Ġimport": 4571,
      "Ġceiling": 4572,
      "ĠApril": 4573,
      "Ġwool": 4574,
      "Ġgen": 4575,
      "Ġfaces": 4576,
      "Ġcomfortable": 4577,
      "els": 4578,
      "pee": 4579,
      "tub": 4580,
      "Ġgee": 4581,
      "onge": 4582,
      "ĠTimmy": 4583,
      "Ġmonsters": 4584,
      "Ġcontain": 4585,
      "Ġbulldo": 4586,
      "Ġweird": 4587,
      "Ġseed": 4588,
      "oland": 4589,
      "Ġslip": 4590,
      "ĠLou": 4591,
      "Ġregular": 4592,
      "Ġbench": 4593,
      "Ġoughta": 4594,
      "Ġsides": 4595,
      "Ġboop": 4596,
      "ĠCare": 4597,
      "Ġclick": 4598,
      "Ġtowards": 4599,
      "Ġnoodles": 4600,
      "Ġmer": 4601,
      "ĠSus": 4602,
      "iled": 4603,
      "Ġtem": 4604,
      "Ġloads": 4605,
      "Ġimportant": 4606,
      "ete": 4607,
      "ĠCl": 4608,
      "Ġopens": 4609,
      "Ġscra": 4610,
      "Ġharder": 4611,
      "Ġwondering": 4612,
      "Ġstamps": 4613,
      "ĠBertie": 4614,
      "Ġsewing": 4615,
      "ians": 4616,
      "Ġama": 4617,
      "Ġwha": 4618,
      "Ġblood": 4619,
      "Ġdire": 4620,
      "Ġchocolates": 4621,
      "Ġkiwi": 4622,
      "JA": 4623,
      "cakes": 4624,
      "ĠSal": 4625,
      "Ġcrown": 4626,
      "alm": 4627,
      "ĠDuck": 4628,
      "ĠBilly": 4629,
      "Ġcricket": 4630,
      "Ġfroggie": 4631,
      "ĠJulia": 4632,
      "Ġpointing": 4633,
      "jou": 4634,
      "Ġsunshine": 4635,
      "ngers": 4636,
      "Ġbakery": 4637,
      "fu": 4638,
      "Ġdot": 4639,
      "risp": 4640,
      "Ġhy": 4641,
      "Ġonion": 4642,
      "Ġmarket": 4643,
      "Ġcapital": 4644,
      "Ġpassengers": 4645,
      "Ġpopp": 4646,
      "ĠSuper": 4647,
      "ĠHanna": 4648,
      "rett": 4649,
      "Ġlemonade": 4650,
      "Ġwaffles": 4651,
      "FRA": 4652,
      "iers": 4653,
      "itten": 4654,
      "Ġcoach": 4655,
      "Ġfriendly": 4656,
      "izes": 4657,
      "Ġrestaur": 4658,
      "Dumpty": 4659,
      "ĠSean": 4660,
      "ĠNo": 4661,
      "Ġpennies": 4662,
      "Ġdigging": 4663,
      "ĠTweenies": 4664,
      "Ġprogram": 4665,
      "ĠDen": 4666,
      "ared": 4667,
      "Ġindeed": 4668,
      "Ġhedgehog": 4669,
      "ĠSonia": 4670,
      "Ġop": 4671,
      "Ġposs": 4672,
      "Ġrush": 4673,
      "Ġcalls": 4674,
      "Ġexpect": 4675,
      "gl": 4676,
      "ount": 4677,
      "Ġdep": 4678,
      "ĠJane": 4679,
      "que": 4680,
      "Ġvest": 4681,
      "Ġfirstname": 4682,
      "ANT": 4683,
      "Ġpencils": 4684,
      "Ġelect": 4685,
      "ĠBern": 4686,
      "ĠOlivia": 4687,
      "Ġalphabet": 4688,
      "doodle": 4689,
      "antha": 4690,
      "LOR": 4691,
      "Ġwatering": 4692,
      "Ġscarf": 4693,
      "Ġfinally": 4694,
      "Ġparts": 4695,
      "ĠBrittany": 4696,
      "light": 4697,
      "Ġcob": 4698,
      "Ġspank": 4699,
      "uplo": 4700,
      "Ġtied": 4701,
      "ĠSamantha": 4702,
      "Ġmeasure": 4703,
      "donald": 4704,
      "ebr": 4705,
      "Ġrep": 4706,
      "Ġkneel": 4707,
      "Ġflash": 4708,
      "ĠAndrew": 4709,
      "Ġtrolley": 4710,
      "Ġcherries": 4711,
      "Ġborrow": 4712,
      "quack": 4713,
      "Ġscoo": 4714,
      "asses": 4715,
      "Ġtickling": 4716,
      "Ġmagnets": 4717,
      "Ġmarm": 4718,
      "otch": 4719,
      "ĠDer": 4720,
      "Ġsixty": 4721,
      "Ġdyou": 4722,
      "Ġbuh": 4723,
      "igi": 4724,
      "umpy": 4725,
      "Ġchoochoo": 4726,
      "Ġbeeba": 4727,
      "Ġloose": 4728,
      "ĠHarry": 4729,
      "Ġsimilar": 4730,
      "ĠRyan": 4731,
      "Ġbulldozer": 4732,
      "JO": 4733,
      "dies": 4734,
      "Ġresc": 4735,
      "Ġalive": 4736,
      "Ġlean": 4737,
      "Ġfirefight": 4738,
      "Ġwears": 4739,
      "ĠAriel": 4740,
      "Ġrescue": 4741,
      "vin": 4742,
      "indy": 4743,
      "Ġtodd": 4744,
      "ĠDillon": 4745,
      "ĠSpider": 4746,
      "ridge": 4747,
      "zo": 4748,
      "Ġreind": 4749,
      "ĠElla": 4750,
      "ĠZoe": 4751,
      "Ġcostume": 4752,
      "can": 4753,
      "Ġlips": 4754,
      "bbled": 4755,
      "ring": 4756,
      "Ġhic": 4757,
      "Ġmashed": 4758,
      "Ġplug": 4759,
      "Ġplaygroup": 4760,
      "Ġswish": 4761,
      "Ġfirework": 4762,
      "Ġsniff": 4763,
      "Ġwindmill": 4764,
      "Ġdried": 4765,
      "Ġparticul": 4766,
      "ĠMichelle": 4767,
      "Ġmittens": 4768,
      "Ġlou": 4769,
      "Ġsteer": 4770,
      "Ġspend": 4771,
      "Ġdrives": 4772,
      "Ġpuppies": 4773,
      "Ġsecret": 4774,
      "Ġburger": 4775,
      "Ġrobot": 4776,
      "Ġmetal": 4777,
      "ĠSweet": 4778,
      "Ġphotograph": 4779,
      "Ġparticular": 4780,
      "ox": 4781,
      "Ġbeard": 4782,
      "Ġsmelly": 4783,
      "ĠHelen": 4784,
      "ial": 4785,
      "Ġcleaner": 4786,
      "Ġladies": 4787,
      "ĠBrooklyn": 4788,
      "Ġwine": 4789,
      "ĠTwww": 4790,
      "ĠRoland": 4791,
      "ĠFrost": 4792,
      "Ġsneeze": 4793,
      "Ġtidying": 4794,
      "ĠHannah": 4795,
      "Ġpil": 4796,
      "oosh": 4797,
      "ĠDoug": 4798,
      "ĠCoc": 4799,
      "ĠLa": 4800,
      "Ġpainted": 4801,
      "Ġseaside": 4802,
      "Ġnana": 4803,
      "aked": 4804,
      "Ġpres": 4805,
      "Ġflap": 4806,
      "Ġhelps": 4807,
      "ĠFelix": 4808,
      "bell": 4809,
      "ĠJam": 4810,
      "alent": 4811,
      "ĠCharlotte": 4812,
      "Ġgorilla": 4813,
      "head": 4814,
      "Ġcor": 4815,
      "isie": 4816,
      "Ġbeet": 4817,
      "Ġtelly": 4818,
      "ĠStep": 4819,
      "ĠBaa": 4820,
      "Ġcuc": 4821,
      "SSS": 4822,
      "Ġwhiskers": 4823,
      "Ġdist": 4824,
      "ena": 4825,
      "Ġstudy": 4826,
      "Ġknick": 4827,
      "ĠGigi": 4828,
      "Ġsneez": 4829,
      "Ġcord": 4830,
      "Ġthunder": 4831,
      "Ġfinding": 4832,
      "ĠKalie": 4833,
      "Ġladybug": 4834,
      "ĠTravis": 4835,
      "ĠDora": 4836,
      "Ġdip": 4837,
      "Ġmask": 4838,
      "Ġforward": 4839,
      "Ġtennis": 4840,
      "Ġcalm": 4841,
      "ĠJonathan": 4842,
      "KEL": 4843,
      "Ġsung": 4844,
      "Ġpole": 4845,
      "Ġtock": 4846,
      "elf": 4847,
      "aret": 4848,
      "ĠMarie": 4849,
      "Ġtus": 4850,
      "Ġbunn": 4851,
      "Ġgolf": 4852,
      "Ġgrew": 4853,
      "Ġworked": 4854,
      "Ġelbow": 4855,
      "aughter": 4856,
      "Ġwoods": 4857,
      "Ġrectangle": 4858,
      "ji": 4859,
      "Ġtab": 4860,
      "Ġopp": 4861,
      "ĠPe": 4862,
      "ĠNoo": 4863,
      "Ġbites": 4864,
      "ĠKate": 4865,
      "Ġbrothers": 4866,
      "Ġger": 4867,
      "ĠMouse": 4868,
      "Ġstarfish": 4869,
      "ĠJoel": 4870,
      "Ġsmartie": 4871,
      "Ġrolled": 4872,
      "Ġsweeping": 4873,
      "NEI": 4874,
      "round": 4875,
      "Ġdam": 4876,
      "oody": 4877,
      "ĠTim": 4878,
      "estigator": 4879,
      "Ġknocking": 4880,
      "Ġblankie": 4881,
      "Ġswinging": 4882,
      "Ġmatches": 4883,
      "Ġhonest": 4884,
      "Ġlarge": 4885,
      "Ġrestaurant": 4886,
      "Mouse": 4887,
      "Ġmelt": 4888,
      "ĠDi": 4889,
      "thur": 4890,
      "ĠRwww": 4891,
      "cope": 4892,
      "Ġdots": 4893,
      "Ġshadow": 4894,
      "Ġants": 4895,
      "Ġhonk": 4896,
      "Ġummhm": 4897,
      "nit": 4898,
      "ned": 4899,
      "Ġstink": 4900,
      "Ġbaked": 4901,
      "ĠMaisie": 4902,
      "Ġcurtain": 4903,
      "Ġkilled": 4904,
      "ĠInvestigator": 4905,
      "iam": 4906,
      "though": 4907,
      "Ġblueberries": 4908,
      "Ġdressing": 4909,
      "Ġmostly": 4910,
      "Ġbegins": 4911,
      "iliar": 4912,
      "Gr": 4913,
      "St": 4914,
      "ĠRed": 4915,
      "Ġloved": 4916,
      "Ġbumpy": 4917,
      "Ġsack": 4918,
      "ĠRu": 4919,
      "Ġprince": 4920,
      "ault": 4921,
      "essed": 4922,
      "eah": 4923,
      "Ġmanage": 4924,
      "Ġzipper": 4925,
      "chester": 4926,
      "ĠCornflakes": 4927,
      "lish": 4928,
      "Ġtough": 4929,
      "Ġabc": 4930,
      "ĠCal": 4931,
      "ĠWill": 4932,
      "Ġafterwards": 4933,
      "ations": 4934,
      "Ġcrunchy": 4935,
      "Ġwreck": 4936,
      "ĠBetty": 4937,
      "fic": 4938,
      "Ġachoo": 4939,
      "eter": 4940,
      "Ġcupcakes": 4941,
      "Ġsquares": 4942,
      "Ġfairy": 4943,
      "ĠRobbie": 4944,
      "Ġobv": 4945,
      "gers": 4946,
      "Ġsponge": 4947,
      "Ġhmm": 4948,
      "Ġpolar": 4949,
      "Ġbatht": 4950,
      "form": 4951,
      "Ġrasp": 4952,
      "Ġalthough": 4953,
      "Ġteas": 4954,
      "Ġcutter": 4955,
      "Ġfamiliar": 4956,
      "ĠScoop": 4957,
      "iffy": 4958,
      "ĠSteph": 4959,
      "oking": 4960,
      "Ġdeal": 4961,
      "ĠBat": 4962,
      "Ġpleased": 4963,
      "Ġgift": 4964,
      "Ġtorto": 4965,
      "rispies": 4966,
      "oes": 4967,
      "Ġstood": 4968,
      "ĠPr": 4969,
      "Ġsword": 4970,
      "oses": 4971,
      "Ġeveryday": 4972,
      "Ġhiccup": 4973,
      "Ġmist": 4974,
      "Ġchance": 4975,
      "ĠBamb": 4976,
      "Ġimp": 4977,
      "Ġcalf": 4978,
      "Ġbesides": 4979,
      "Ġparcel": 4980,
      "barrow": 4981,
      "nger": 4982,
      "ĠCa": 4983,
      "Ġkeeping": 4984,
      "Ġyawn": 4985,
      "Ġmarried": 4986,
      "ĠArthur": 4987,
      "ĠManchester": 4988,
      "Ġspan": 4989,
      "Ġsometime": 4990,
      "Ġdeli": 4991,
      "Ġvanilla": 4992,
      "Ġbrace": 4993,
      "ĠIt": 4994,
      "ases": 4995,
      "Ġrin": 4996,
      "umbo": 4997,
      "Ġfloat": 4998,
      "Ġsmash": 4999,
      "Ġsnugg": 5000,
      "ĠKath": 5001,
      "Ġfreezer": 5002,
      "Ġporridge": 5003,
      "ĠAfrican": 5004,
      "BR": 5005,
      "Ġchicks": 5006,
      "Ġbeak": 5007,
      "Ġpuppets": 5008,
      "Ġlaying": 5009,
      "ĠScot": 5010,
      "Ġcannot": 5011,
      "niture": 5012,
      "obile": 5013,
      "Ġdrew": 5014,
      "Ġcurly": 5015,
      "Ġfurniture": 5016,
      "Ġamazing": 5017,
      "Ġscooter": 5018,
      "ERI": 5019,
      "Ġluck": 5020,
      "enny": 5021,
      "ĠBrown": 5022,
      "Ġduckling": 5023,
      "Ġerr": 5024,
      "Ġtadah": 5025,
      "Ġyer": 5026,
      "Ġhops": 5027,
      "boat": 5028,
      "Ġgrandad": 5029,
      "ĠBarney": 5030,
      "ĠLois": 5031,
      "Ġlouder": 5032,
      "FE": 5033,
      "Ġliz": 5034,
      "Ġplum": 5035,
      "ĠDuplo": 5036,
      "ĠBo": 5037,
      "Ġstroller": 5038,
      "Ġspinning": 5039,
      "Ġwaved": 5040,
      "dear": 5041,
      "woof": 5042,
      "Ġinter": 5043,
      "LOU": 5044,
      "Ġvill": 5045,
      "Ġraisin": 5046,
      "ĠSandy": 5047,
      "ĠBella": 5048,
      "ĠRa": 5049,
      "ĠMatty": 5050,
      "Ġmotorb": 5051,
      "ĠConor": 5052,
      "ced": 5053,
      "ient": 5054,
      "Ġtac": 5055,
      "Ġhugg": 5056,
      "ammy": 5057,
      "Ġswings": 5058,
      "Ġsmarties": 5059,
      "ĠMcDonald": 5060,
      "Ġstepped": 5061,
      "Ġtat": 5062,
      "Ġpitch": 5063,
      "Ġshy": 5064,
      "Ġdiapers": 5065,
      "Ġcocoa": 5066,
      "itty": 5067,
      "car": 5068,
      "mark": 5069,
      "ĠMore": 5070,
      "ĠAlexander": 5071,
      "Ġsleeve": 5072,
      "Ġwom": 5073,
      "Ġwaking": 5074,
      "Ġcrow": 5075,
      "Ġga": 5076,
      "ĠMia": 5077,
      "Ġsocc": 5078,
      "Ġdining": 5079,
      "Ġteachers": 5080,
      "Ġdrag": 5081,
      "Ġpilot": 5082,
      "lets": 5083,
      "Ġcub": 5084,
      "kee": 5085,
      "ida": 5086,
      "Ġplus": 5087,
      "Ġplaster": 5088,
      "ains": 5089,
      "iest": 5090,
      "Ġflavor": 5091,
      "ĠErin": 5092,
      "Ġenjoying": 5093,
      "Ġsoccer": 5094,
      "coon": 5095,
      "Ġcoug": 5096,
      "Ġcoke": 5097,
      "Ġweight": 5098,
      "Ġdisc": 5099,
      "Ġwheelbarrow": 5100,
      "Ġbouncing": 5101,
      "Ġshouting": 5102,
      "ĠDerwood": 5103,
      "Ġreindeer": 5104,
      "aby": 5105,
      "bird": 5106,
      "mb": 5107,
      "Ġyo": 5108,
      "Ġdouble": 5109,
      "Ġsteal": 5110,
      "ĠBrett": 5111,
      "Ġrolls": 5112,
      "Ġsisters": 5113,
      "ĠBecca": 5114,
      "Ġlicking": 5115,
      "Ġvacation": 5116,
      "Ġpancake": 5117,
      "Ġelectric": 5118,
      "ĠJamie": 5119,
      "ĠBambi": 5120,
      "KID": 5121,
      "ĠMwww": 5122,
      "Ġswallow": 5123,
      "opper": 5124,
      "Ġpocketbook": 5125,
      "Ġaunt": 5126,
      "Ġwal": 5127,
      "Ġpoke": 5128,
      "Ġclaws": 5129,
      "Ġoopsie": 5130,
      "Ġhorns": 5131,
      "Ġpapers": 5132,
      "omp": 5133,
      "ĠDonna": 5134,
      "Ġflashing": 5135,
      "Ġspells": 5136,
      "Ġraccoon": 5137,
      "Ġobviously": 5138,
      "crow": 5139,
      "Ġhus": 5140,
      "its": 5141,
      "alade": 5142,
      "andra": 5143,
      "ĠTes": 5144,
      "aker": 5145,
      "ĠLeg": 5146,
      "Ġgrr": 5147,
      "Ġgrabb": 5148,
      "Ġlearned": 5149,
      "Ġmuffins": 5150,
      "ĠOliver": 5151,
      "NN": 5152,
      "cut": 5153,
      "cal": 5154,
      "Ġdaughter": 5155,
      "Ġitself": 5156,
      "Ġpip": 5157,
      "Ġstock": 5158,
      "Ġsteering": 5159,
      "Ġcucumber": 5160,
      "La": 5161,
      "rest": 5162,
      "ition": 5163,
      "Ġed": 5164,
      "Ġtalks": 5165,
      "Ġsnowing": 5166,
      "Ġnursie": 5167,
      "Ġcontainer": 5168,
      "Ġtoddler": 5169,
      "ical": 5170,
      "elery": 5171,
      "anga": 5172,
      "Ġmoose": 5173,
      "Ġironing": 5174,
      "Ġregister": 5175,
      "Dad": 5176,
      "Ġet": 5177,
      "Ġtaught": 5178,
      "Ġgigg": 5179,
      "Ġstate": 5180,
      "tage": 5181,
      "Ġstroke": 5182,
      "Ġrealize": 5183,
      "Ġtusks": 5184,
      "Ġtortoise": 5185,
      "Ġworried": 5186,
      "Ġlegos": 5187,
      "Ġbanged": 5188,
      "ĠGreg": 5189,
      "Ġrhinocer": 5190,
      "Ġsungl": 5191,
      "Ġsled": 5192,
      "Ġot": 5193,
      "Ġsleeps": 5194,
      "Ġstretch": 5195,
      "Ġhealthy": 5196,
      "Ġmarmalade": 5197,
      "Ġgall": 5198,
      "Ġmam": 5199,
      "Ġitch": 5200,
      "Ġwhenever": 5201,
      "Ġspo": 5202,
      "Ġchoos": 5203,
      "Ġdoctors": 5204,
      "alend": 5205,
      "Ġtaping": 5206,
      "Ġthick": 5207,
      "Ġstinky": 5208,
      "ello": 5209,
      "Ġfrost": 5210,
      "Ġtellie": 5211,
      "Ġfishes": 5212,
      "dington": 5213,
      "Dadaw": 5214,
      "VI": 5215,
      "Ġnicke": 5216,
      "Ġsteak": 5217,
      "ral": 5218,
      "ĠEng": 5219,
      "Ġfalled": 5220,
      "Ġfilled": 5221,
      "ĠPad": 5222,
      "ĠGwww": 5223,
      "ĠWell": 5224,
      "Ġwalls": 5225,
      "Ġmixing": 5226,
      "Ġbarking": 5227,
      "Mon": 5228,
      "ray": 5229,
      "Ġsang": 5230,
      "Ġbanda": 5231,
      "Ġshaking": 5232,
      "ĠSim": 5233,
      "ĠCindy": 5234,
      "ocery": 5235,
      "Ġwhoopsie": 5236,
      "izzy": 5237,
      "Ġsaucer": 5238,
      "Ġquietly": 5239,
      "Ġtemper": 5240,
      "Ġvillage": 5241,
      "ĠTesco": 5242,
      "dr": 5243,
      "mies": 5244,
      "Ġpork": 5245,
      "Ġparent": 5246,
      "Ġrude": 5247,
      "Ġjail": 5248,
      "ĠRoo": 5249,
      "Ġearth": 5250,
      "idsbury": 5251,
      "ĠBatman": 5252,
      "Ġwi": 5253,
      "ances": 5254,
      "Ġpapa": 5255,
      "ĠMiffy": 5256,
      "aste": 5257,
      "ĠCheer": 5258,
      "Ġkneeling": 5259,
      "billy": 5260,
      "paste": 5261,
      "idi": 5262,
      "Ġmelon": 5263,
      "iella": 5264,
      "aling": 5265,
      "Ġenjoyed": 5266,
      "Ġgener": 5267,
      "Ġye": 5268,
      "Ġpouring": 5269,
      "ĠJulie": 5270,
      "Ġbuns": 5271,
      "Ġnibbled": 5272,
      "Ġfirefighter": 5273,
      "walk": 5274,
      "Ġitems": 5275,
      "eenth": 5276,
      "ĠRice": 5277,
      "Ġgrocery": 5278,
      "ĠKanga": 5279,
      "Ġrhy": 5280,
      "Ġvegetable": 5281,
      "ĠPaddington": 5282,
      "tock": 5283,
      "Ġbeepbeep": 5284,
      "Ġfilm": 5285,
      "ikes": 5286,
      "Ġteen": 5287,
      "Ġpaw": 5288,
      "arate": 5289,
      "ryn": 5290,
      "ĠDidsbury": 5291,
      "andma": 5292,
      "Ġpattern": 5293,
      "Ġdecide": 5294,
      "Ġslept": 5295,
      "Ġdoughnut": 5296,
      "Ġrinse": 5297,
      "Ġrhinoceros": 5298,
      "food": 5299,
      "Ġdrill": 5300,
      "Ġthrown": 5301,
      "Ġmoves": 5302,
      "Ġscarecrow": 5303,
      "JOA": 5304,
      "ĠTw": 5305,
      "Ġhomework": 5306,
      "aged": 5307,
      "Ġsub": 5308,
      "Ġscrews": 5309,
      "Ġarrive": 5310,
      "Ġmotorbike": 5311,
      "Ġhusband": 5312,
      "son": 5313,
      "uct": 5314,
      "tap": 5315,
      "obe": 5316,
      "Ġnuhhuh": 5317,
      "Ġdelivery": 5318,
      "va": 5319,
      "Ġsense": 5320,
      "iny": 5321,
      "Ġrake": 5322,
      "Ġbare": 5323,
      "ille": 5324,
      "ĠDeb": 5325,
      "ĠSep": 5326,
      "ĠCol": 5327,
      "Ġenne": 5328,
      "Ġstops": 5329,
      "emi": 5330,
      "Ġeee": 5331,
      "Ġcomplete": 5332,
      "builder": 5333,
      "sk": 5334,
      "Ġtuh": 5335,
      "Ġfant": 5336,
      "ighty": 5337,
      "Ġsting": 5338,
      "Ġunderw": 5339,
      "ĠKent": 5340,
      "Ġevening": 5341,
      "Ġtickets": 5342,
      "cht": 5343,
      "orter": 5344,
      "Ġur": 5345,
      "Ġknot": 5346,
      "ĠPu": 5347,
      "easel": 5348,
      "eader": 5349,
      "entre": 5350,
      "Ġuses": 5351,
      "Ġoooo": 5352,
      "ye": 5353,
      "iter": 5354,
      "ĠTommy": 5355,
      "Ġspark": 5356,
      "Ġdrain": 5357,
      "Ġmarch": 5358,
      "Ġmarbles": 5359,
      "Ġundo": 5360,
      "alentine": 5361,
      "Ġbracelet": 5362,
      "FEM": 5363,
      "Ġlookit": 5364,
      "Ġpeg": 5365,
      "Ġsounded": 5366,
      "market": 5367,
      "Ġtipped": 5368,
      "Ġink": 5369,
      "Ġequ": 5370,
      "ĠSesame": 5371,
      "Ġshoulders": 5372,
      "ĠEliz": 5373,
      "Ġfrozen": 5374,
      "Ġpeaches": 5375,
      "yrup": 5376,
      "Ġbunnies": 5377,
      "ĠKathryn": 5378,
      "gosh": 5379,
      "Ġgotten": 5380,
      "Ġfeathers": 5381,
      "Ġcalend": 5382,
      "Ġlake": 5383,
      "Ġbaker": 5384,
      "ĠJu": 5385,
      "tember": 5386,
      "Ġshows": 5387,
      "Ġdizzy": 5388,
      "Ġsettee": 5389,
      "Ġcones": 5390,
      "ĠNicola": 5391,
      "ĠSeptember": 5392,
      "de": 5393,
      "Ġdummy": 5394,
      "iness": 5395,
      "Ġbill": 5396,
      "Ġramp": 5397,
      "ĠMinnie": 5398,
      "Ġjoke": 5399,
      "Ġblah": 5400,
      "ĠJac": 5401,
      "Ġneedle": 5402,
      "ĠLe": 5403,
      "Ġcomf": 5404,
      "Ġfluffy": 5405,
      "Ġscri": 5406,
      "Ġbonk": 5407,
      "Ġwomen": 5408,
      "Ġsunglasses": 5409,
      "LE": 5410,
      "doll": 5411,
      "gle": 5412,
      "Ġheat": 5413,
      "ĠPean": 5414,
      "Ġass": 5415,
      "Ġtaller": 5416,
      "Ġcreature": 5417,
      "ga": 5418,
      "ju": 5419,
      "Ġwife": 5420,
      "Ġmobile": 5421,
      "Ġtoad": 5422,
      "auce": 5423,
      "Ġgrrr": 5424,
      "Ġtouched": 5425,
      "Ġdumper": 5426,
      "Ġtapes": 5427,
      "Ġwrapped": 5428,
      "Ġsupermarket": 5429,
      "Ġcopy": 5430,
      "Ġbathtub": 5431,
      "NON": 5432,
      "ĠX": 5433,
      "Ġwrench": 5434,
      "ickory": 5435,
      "Ġdollies": 5436,
      "udge": 5437,
      "ĠStock": 5438,
      "Ġeaster": 5439,
      "Ġfireworks": 5440,
      "Ġmistake": 5441,
      "Monster": 5442,
      "atter": 5443,
      "inker": 5444,
      "Ġbrr": 5445,
      "Ġclub": 5446,
      "xture": 5447,
      "Ġglove": 5448,
      "Ġcoun": 5449,
      "Ġcudd": 5450,
      "flower": 5451,
      "Ġsquirrels": 5452,
      "PA": 5453,
      "leen": 5454,
      "icles": 5455,
      "othy": 5456,
      "oebe": 5457,
      "Ġcrawling": 5458,
      "Ġsweat": 5459,
      "Ġkettle": 5460,
      "Ġkoala": 5461,
      "Ġoppos": 5462,
      "DAN": 5463,
      "Ġnet": 5464,
      "Ġproud": 5465,
      "ĠStreet": 5466,
      "Ġsiren": 5467,
      "Ġtricky": 5468,
      "Ġfantastic": 5469,
      "Ġae": 5470,
      "Ġsippy": 5471,
      "atos": 5472,
      "Ġnu": 5473,
      "Ġpaws": 5474,
      "Ġweigh": 5475,
      "ene": 5476,
      "Ġstew": 5477,
      "Ġthemselves": 5478,
      "Ġviol": 5479,
      "Ġhardly": 5480,
      "Ġhoover": 5481,
      "Ġtune": 5482,
      "Ġrel": 5483,
      "ĠTisha": 5484,
      "iesel": 5485,
      "ĠFizz": 5486,
      "Ġkidding": 5487,
      "cious": 5488,
      "Ġgiraffes": 5489,
      "ĠFloppy": 5490,
      "print": 5491,
      "ĠGabriella": 5492,
      "Ġdw": 5493,
      "Ġcelery": 5494,
      "keep": 5495,
      "Ġtwice": 5496,
      "oft": 5497,
      "Ġpaints": 5498,
      "Ġbarrel": 5499,
      "ĠJessica": 5500,
      "ĠFlor": 5501,
      "Ġtube": 5502,
      "inter": 5503,
      "ĠSummer": 5504,
      "Ġtries": 5505,
      "ĠNanny": 5506,
      "Ġbreakdown": 5507,
      "Ġerm": 5508,
      "Ġbowls": 5509,
      "ĠAsian": 5510,
      "Ġsurf": 5511,
      "ai": 5512,
      "Ġself": 5513,
      "Ġberries": 5514,
      "Ġbeets": 5515,
      "irds": 5516,
      "Ġann": 5517,
      "Ġpockets": 5518,
      "Ġugly": 5519,
      "Ġbandaid": 5520,
      "Ġgeese": 5521,
      "Ġdood": 5522,
      "Ġshush": 5523,
      "Ġrememb": 5524,
      "Ġpicks": 5525,
      "Ġroast": 5526,
      "Ġfollowed": 5527,
      "par": 5528,
      "erv": 5529,
      "ears": 5530,
      "ĠSyl": 5531,
      "Ġcooker": 5532,
      "cloth": 5533,
      "Ġlazy": 5534,
      "Ġlearning": 5535,
      "Ġveh": 5536,
      "Ġcartoon": 5537,
      "Ġmushrooms": 5538,
      "Ġbom": 5539,
      "Ġdong": 5540,
      "ately": 5541,
      "ĠRon": 5542,
      "Ġhotel": 5543,
      "Ġtrunks": 5544,
      "ĠBaaee": 5545,
      "Ġremembered": 5546,
      "Ġtot": 5547,
      "Ġshamp": 5548,
      "Ġcant": 5549,
      "Ġdrank": 5550,
      "ently": 5551,
      "Ġhiya": 5552,
      "Ġmilkman": 5553,
      "Ġtoothpaste": 5554,
      "Ġsneakers": 5555,
      "Ġcalendar": 5556,
      "Ġshampoo": 5557,
      "curr": 5558,
      "Ġpath": 5559,
      "Ġletting": 5560,
      "ĠDr": 5561,
      "ĠEls": 5562,
      "ĠRabbit": 5563,
      "Ġgrandmother": 5564,
      "Ġbegan": 5565,
      "af": 5566,
      "Ġlun": 5567,
      "orah": 5568,
      "otape": 5569,
      "ĠJe": 5570,
      "bbles": 5571,
      "Ġheadache": 5572,
      "Ġgravy": 5573,
      "Ġcompany": 5574,
      "Ġshaped": 5575,
      "Ġscreaming": 5576,
      "ington": 5577,
      "esl": 5578,
      "Ġbrum": 5579,
      "Ġcluck": 5580,
      "ĠGer": 5581,
      "Ġarrow": 5582,
      "entr": 5583,
      "Ġgross": 5584,
      "ĠSpain": 5585,
      "Ġclosing": 5586,
      "Ġcotton": 5587,
      "Ġpromise": 5588,
      "wah": 5589,
      "Ġpsh": 5590,
      "ĠDis": 5591,
      "ĠDumbo": 5592,
      "ĠBunny": 5593,
      "ĠFat": 5594,
      "Ġsquashed": 5595,
      "Ġwiping": 5596,
      "Ġsip": 5597,
      "Ġcabb": 5598,
      "Ġweed": 5599,
      "Ġchoke": 5600,
      "ĠPop": 5601,
      "Ġdrove": 5602,
      "ĠRemi": 5603,
      "Ġguard": 5604,
      "ĠPhoebe": 5605,
      "ĠGoldil": 5606,
      "Ġexercise": 5607,
      "Ġlizard": 5608,
      "bl": 5609,
      "Ġdate": 5610,
      "ined": 5611,
      "ĠNe": 5612,
      "ĠGinger": 5613,
      "ulp": 5614,
      "Ġcrashing": 5615,
      "bbit": 5616,
      "Ġjigsaws": 5617,
      "Ġinstrum": 5618,
      "Ġbrave": 5619,
      "OBS": 5620,
      "Ġtag": 5621,
      "Ġmood": 5622,
      "Ġtoaster": 5623,
      "ĠMmm": 5624,
      "abeth": 5625,
      "AND": 5626,
      "HHH": 5627,
      "ĠStockport": 5628,
      "Ġfee": 5629,
      "Ġblueberry": 5630,
      "Ġmovies": 5631,
      "Ġneighbor": 5632,
      "Ġcheerl": 5633,
      "Ġsailor": 5634,
      "Ġdisappeared": 5635,
      "ns": 5636,
      "Ġpacked": 5637,
      "Ġfet": 5638,
      "Ġoutta": 5639,
      "ourt": 5640,
      "Ġfishies": 5641,
      "Ġhorsies": 5642,
      "Ġwrapping": 5643,
      "ĠNancy": 5644,
      "Ġhonestly": 5645,
      "Noo": 5646,
      "wl": 5647,
      "Ġsyrup": 5648,
      "Ġnanny": 5649,
      "itam": 5650,
      "Ġshr": 5651,
      "Ġbleed": 5652,
      "ĠBost": 5653,
      "Ġbeaker": 5654,
      "Ġdae": 5655,
      "Ġmeasuring": 5656,
      "Ġpennys": 5657,
      "ners": 5658,
      "Ġaqu": 5659,
      "Ġdumb": 5660,
      "Ġped": 5661,
      "Ġpail": 5662,
      "Ġrul": 5663,
      "ict": 5664,
      "Ġchugg": 5665,
      "tail": 5666,
      "Ġvet": 5667,
      "Ġshirts": 5668,
      "Ġpostbox": 5669,
      "Ġsharks": 5670,
      "Ġmath": 5671,
      "ĠKathy": 5672,
      "ĠSaltie": 5673,
      "ĠGoldilocks": 5674,
      "Ġpies": 5675,
      "Ġsliding": 5676,
      "angu": 5677,
      "Ġawh": 5678,
      "Ġeasily": 5679,
      "Ġsprink": 5680,
      "ymes": 5681,
      "Ġjunk": 5682,
      "Ġhiccups": 5683,
      "Ġhopsc": 5684,
      "ĠBoston": 5685,
      "dum": 5686,
      "Ġss": 5687,
      "ative": 5688,
      "Ġweb": 5689,
      "Ġshame": 5690,
      "Ġbaking": 5691,
      "ĠTyr": 5692,
      "ĠJerry": 5693,
      "angles": 5694,
      "ĠKing": 5695,
      "Ġmessing": 5696,
      "Ġseventy": 5697,
      "Ġknickers": 5698,
      "ĠSylvia": 5699,
      "py": 5700,
      "Ġtim": 5701,
      "Ġlabel": 5702,
      "Ġstole": 5703,
      "Ġbol": 5704,
      "Ġalarm": 5705,
      "ups": 5706,
      "Ġturtles": 5707,
      "Ġprot": 5708,
      "Ġvitam": 5709,
      "Ġblackcurr": 5710,
      "illian": 5711,
      "Ġholidays": 5712,
      "ĠLuc": 5713,
      "Ġporcup": 5714,
      "how": 5715,
      "Ġlump": 5716,
      "Ġloft": 5717,
      "Ġlangu": 5718,
      "igan": 5719,
      "Ġwaste": 5720,
      "Ġspare": 5721,
      "ĠAlf": 5722,
      "ĠNem": 5723,
      "ĠNonna": 5724,
      "TEL": 5725,
      "Ġfurther": 5726,
      "Ġauntie": 5727,
      "Ġcamping": 5728,
      "Ġsoldier": 5729,
      "Ġlipstick": 5730,
      "ĠElizabeth": 5731,
      "Ġhopscotch": 5732,
      "bus": 5733,
      "din": 5734,
      "umn": 5735,
      "Ġforth": 5736,
      "ĠDizzy": 5737,
      "Ġcatching": 5738,
      "Ġdusting": 5739,
      "Ġpiggies": 5740,
      "ĠBernice": 5741,
      "ĠFlorida": 5742,
      "Ġawhile": 5743,
      "DON": 5744,
      "KK": 5745,
      "Ġseek": 5746,
      "ĠSpen": 5747,
      "ĠJimmy": 5748,
      "pens": 5749,
      "Ġsandbox": 5750,
      "Ġbalance": 5751,
      "ĠNorman": 5752,
      "anie": 5753,
      "lly": 5754,
      "issed": 5755,
      "Ġstable": 5756,
      "iew": 5757,
      "Ġdisg": 5758,
      "Ġbrings": 5759,
      "ĠLuke": 5760,
      "JUD": 5761,
      "Ġpitcher": 5762,
      "IAN": 5763,
      "TT": 5764,
      "Ġaut": 5765,
      "Ġfa": 5766,
      "ellotape": 5767,
      "ĠAction": 5768,
      "ggedy": 5769,
      "Ġgrocer": 5770,
      "Ġfiremen": 5771,
      "ĠKay": 5772,
      "Ġmustard": 5773,
      "Ġpeanuts": 5774,
      "DN": 5775,
      "EDN": 5776,
      "Ġyall": 5777,
      "utch": 5778,
      "anks": 5779,
      "Ġpro": 5780,
      "Ġteam": 5781,
      "usting": 5782,
      "ĠFranklin": 5783,
      "ĠDisney": 5784,
      "mit": 5785,
      "Ġstage": 5786,
      "ically": 5787,
      "ĠDave": 5788,
      "ĠBeth": 5789,
      "Ġbuilder": 5790,
      "Ġviolin": 5791,
      "birthday": 5792,
      "Ġboss": 5793,
      "Ġfries": 5794,
      "Ġsund": 5795,
      "Ġmuscles": 5796,
      "Ġsplashing": 5797,
      "Ġpussycat": 5798,
      "Ġcrocodiles": 5799,
      "Ġterrific": 5800,
      "Ġnickel": 5801,
      "ĠDeborah": 5802,
      "keeper": 5803,
      "ĠNemo": 5804,
      "ience": 5805,
      "med": 5806,
      "Ġtuck": 5807,
      "Ġguh": 5808,
      "Ġdom": 5809,
      "ĠMor": 5810,
      "Ġalley": 5811,
      "Ġspade": 5812,
      "Ġballer": 5813,
      "Ġbreaks": 5814,
      "Ġbadge": 5815,
      "ĠStu": 5816,
      "ĠWellington": 5817,
      "Ġwing": 5818,
      "Ġbored": 5819,
      "Ġkissed": 5820,
      "cher": 5821,
      "Ġtricks": 5822,
      "Ġprefer": 5823,
      "Ġhighchair": 5824,
      "Ġfactory": 5825,
      "OT": 5826,
      "brow": 5827,
      "Ġcree": 5828,
      "Ġmain": 5829,
      "Ġpant": 5830,
      "Ġrode": 5831,
      "ĠRoy": 5832,
      "Ġrealized": 5833,
      "Ġseconds": 5834,
      "Ġgoldfish": 5835,
      "Ġprotect": 5836,
      "CLA": 5837,
      "Ġangel": 5838,
      "ppy": 5839,
      "andel": 5840,
      "Ġbecome": 5841,
      "ĠAmer": 5842,
      "ilda": 5843,
      "Ġsidewalk": 5844,
      "Ġapric": 5845,
      "ĠEmmy": 5846,
      "ĠWhat": 5847,
      "Ġwires": 5848,
      "Ġparents": 5849,
      "OTH": 5850,
      "Brown": 5851,
      "Ġmash": 5852,
      "Ġpower": 5853,
      "Ġhaw": 5854,
      "Ġbagel": 5855,
      "Ġspout": 5856,
      "Ġworse": 5857,
      "ĠWoody": 5858,
      "Ġerase": 5859,
      "Ġeyebrow": 5860,
      "Ġlaughed": 5861,
      "Ġcontrol": 5862,
      "ĠPhil": 5863,
      "Ġrhyme": 5864,
      "Ġporcupine": 5865,
      "Ġlanguage": 5866,
      "HAR": 5867,
      "gi": 5868,
      "sie": 5869,
      "Ġbas": 5870,
      "anky": 5871,
      "ulu": 5872,
      "Ġprize": 5873,
      "Ġdollie": 5874,
      "Ġfishy": 5875,
      "Ġpumpkins": 5876,
      "Ġcarried": 5877,
      "rette": 5878,
      "Ġcounter": 5879,
      "Ġblackcurrant": 5880,
      "ĠStuart": 5881,
      "Ġav": 5882,
      "Ġpss": 5883,
      "Ġfool": 5884,
      "Ġdonut": 5885,
      "Ġjeep": 5886,
      "rabbit": 5887,
      "ĠRe": 5888,
      "Ġroundabout": 5889,
      "ĠKwww": 5890,
      "ĠAsher": 5891,
      "Ġexplain": 5892,
      "almat": 5893,
      "leenex": 5894,
      "ressed": 5895,
      "Ġsep": 5896,
      "Ġfry": 5897,
      "Ġkicked": 5898,
      "Ġstands": 5899,
      "apping": 5900,
      "Ġhugs": 5901,
      "Ġrecognizes": 5902,
      "Ġcottage": 5903,
      "ightyear": 5904,
      "chtime": 5905,
      "Ġlunchtime": 5906,
      "ĠJeff": 5907,
      "Ġcabbage": 5908,
      "Ġdime": 5909,
      "Ġfault": 5910,
      "Ġret": 5911,
      "Ġtwins": 5912,
      "Ġdrawn": 5913,
      "ĠAlad": 5914,
      "ĠNoah": 5915,
      "ĠRuby": 5916,
      "Ġteeny": 5917,
      "cock": 5918,
      "Ġmia": 5919,
      "Ġfuss": 5920,
      "Ġarea": 5921,
      "ĠMal": 5922,
      "Ġoutf": 5923,
      "ilo": 5924,
      "ĠGood": 5925,
      "oots": 5926,
      "ĠCheerios": 5927,
      "nn": 5928,
      "Ġau": 5929,
      "ĠCap": 5930,
      "Ġdropping": 5931,
      "angled": 5932,
      "Ġducky": 5933,
      "Ġbarrette": 5934,
      "ĠLego": 5935,
      "cie": 5936,
      "ives": 5937,
      "lers": 5938,
      "arium": 5939,
      "ĠKen": 5940,
      "ĠKevin": 5941,
      "Ġbranch": 5942,
      "Ġseas": 5943,
      "ining": 5944,
      "Ġblind": 5945,
      "ĠLucky": 5946,
      "Ġrhymes": 5947,
      "ĠJulian": 5948,
      "Ġshells": 5949,
      "ded": 5950,
      "Ġsush": 5951,
      "Ġanten": 5952,
      "ĠDon": 5953,
      "Ġquit": 5954,
      "Ġsings": 5955,
      "Ġpolish": 5956,
      "imba": 5957,
      "Ġpaid": 5958,
      "Ġradi": 5959,
      "Ġhunm": 5960,
      "Ġcoughing": 5961,
      "Ġcomfy": 5962,
      "Ġdisgusting": 5963,
      "HEL": 5964,
      "here": 5965,
      "Ġdare": 5966,
      "Ġdung": 5967,
      "Ġble": 5968,
      "ĠSimba": 5969,
      "Ġmarble": 5970,
      "iggy": 5971,
      "Ġcovers": 5972,
      "Ġsquishy": 5973,
      "Ġpractice": 5974,
      "Ġotter": 5975,
      "Mar": 5976,
      "Ġhip": 5977,
      "Ġmunch": 5978,
      "Ġonions": 5979,
      "Ġjuicy": 5980,
      "Ġbolt": 5981,
      "ickle": 5982,
      "Ġsingle": 5983,
      "Ġskate": 5984,
      "Ġsandals": 5985,
      "Ġserve": 5986,
      "ĠIndian": 5987,
      "juice": 5988,
      "Ġsushi": 5989,
      "set": 5990,
      "xx": 5991,
      "Ġdas": 5992,
      "Ġsoggy": 5993,
      "Ġhorr": 5994,
      "Ġtread": 5995,
      "Ġfroggy": 5996,
      "annel": 5997,
      "Lastname": 5998,
      "Ġmi": 5999,
      "Ġins": 6000,
      "ĠMad": 6001,
      "irl": 6002,
      "Ġtrapped": 6003,
      "nect": 6004,
      "eans": 6005,
      "Ġtails": 6006,
      "Ġpeepp": 6007,
      "ĠEllie": 6008,
      "Grandma": 6009,
      "Sh": 6010,
      "ior": 6011,
      "iana": 6012,
      "Ġweasel": 6013,
      "Ġmop": 6014,
      "Ġcans": 6015,
      "Ġjug": 6016,
      "Ġbutt": 6017,
      "uckle": 6018,
      "Ġwritten": 6019,
      "Ġsqueez": 6020,
      "balls": 6021,
      "Ġblankets": 6022,
      "Ġslipped": 6023,
      "Ġrailway": 6024,
      "Ġcharac": 6025,
      "Ġgrabbed": 6026,
      "kn": 6027,
      "ses": 6028,
      "Ġcig": 6029,
      "Ġmem": 6030,
      "Ġtickles": 6031,
      "Ġforks": 6032,
      "pensive": 6033,
      "Ġhood": 6034,
      "Ġplat": 6035,
      "Ġchose": 6036,
      "uel": 6037,
      "gging": 6038,
      "Ġvalentine": 6039,
      "Ġcoal": 6040,
      "Ġslippery": 6041,
      "Ġtissues": 6042,
      "ĠWhite": 6043,
      "ĠJuly": 6044,
      "Ġhush": 6045,
      "ety": 6046,
      "rah": 6047,
      "ĠTex": 6048,
      "Ġtricycle": 6049,
      "ĠOwl": 6050,
      "Ġfingerna": 6051,
      "Ġdesert": 6052,
      "Ġcoaches": 6053,
      "Cwww": 6054,
      "Ġpal": 6055,
      "Ġjour": 6056,
      "Ġpleas": 6057,
      "Ġeater": 6058,
      "olk": 6059,
      "ĠLulu": 6060,
      "Ġmarching": 6061,
      "Ġwiggly": 6062,
      "ĠSweetie": 6063,
      "rus": 6064,
      "rer": 6065,
      "Ġref": 6066,
      "Ġknit": 6067,
      "Ġchoice": 6068,
      "ĠClaus": 6069,
      "ĠBaura": 6070,
      "ĠBugs": 6071,
      "Ġcrad": 6072,
      "Ġkitties": 6073,
      "Ġbeaver": 6074,
      "Ġcube": 6075,
      "ments": 6076,
      "Ġskinny": 6077,
      "Ġsportsc": 6078,
      "aine": 6079,
      "Ġbusiness": 6080,
      "Ġpickles": 6081,
      "Ġcoats": 6082,
      "Ġcrossing": 6083,
      "Ġserv": 6084,
      "Ġpattycake": 6085,
      "VIS": 6086,
      "Ġchugga": 6087,
      "Ġballerina": 6088,
      "ae": 6089,
      "gn": 6090,
      "Ġwond": 6091,
      "Ġodd": 6092,
      "Ġnowhere": 6093,
      "Ġpeck": 6094,
      "Ġeighty": 6095,
      "Ġproblems": 6096,
      "Ġaddress": 6097,
      "Ġdelivering": 6098,
      "Ġwobbly": 6099,
      "idden": 6100,
      "ĠCaptain": 6101,
      "Ġradiator": 6102,
      "Ġhae": 6103,
      "alls": 6104,
      "Ġgots": 6105,
      "ĠBee": 6106,
      "Ġcrust": 6107,
      "Ġexpensive": 6108,
      "Ġscrub": 6109,
      "Ġesc": 6110,
      "oint": 6111,
      "woo": 6112,
      "Ġthread": 6113,
      "Ġlif": 6114,
      "ĠDin": 6115,
      "ĠTiger": 6116,
      "Ġswiss": 6117,
      "Ġowls": 6118,
      "Ġparked": 6119,
      "oyo": 6120,
      "Ġparking": 6121,
      "Ġconfu": 6122,
      "ĠMatt": 6123,
      "Ġpaying": 6124,
      "Ġsleeves": 6125,
      "ĠJacob": 6126,
      "Ġnaw": 6127,
      "Ġpah": 6128,
      "orse": 6129,
      "Ġdiddle": 6130,
      "Ġash": 6131,
      "Ġfluff": 6132,
      "Ġcheeks": 6133,
      "Ġlately": 6134,
      "Ġgoats": 6135,
      "Ġpadd": 6136,
      "Ġdirect": 6137,
      "Ġcompletely": 6138,
      "LEA": 6139,
      "pooh": 6140,
      "rings": 6141,
      "vet": 6142,
      "Ġstream": 6143,
      "Ġsale": 6144,
      "Ġtrump": 6145,
      "Ġbothered": 6146,
      "Ġpoison": 6147,
      "Ġgrows": 6148,
      "ĠBarry": 6149,
      "Ġshouted": 6150,
      "Ġcontroller": 6151,
      "Ġarrived": 6152,
      "Ġaquarium": 6153,
      "Ġmiaow": 6154,
      "dee": 6155,
      "ford": 6156,
      "jo": 6157,
      "munk": 6158,
      "pool": 6159,
      "yum": 6160,
      "Ġwakes": 6161,
      "Ġpliers": 6162,
      "Ġwaves": 6163,
      "Ġsmashed": 6164,
      "Ġexp": 6165,
      "ĠTheo": 6166,
      "Ġforever": 6167,
      "Ġmended": 6168,
      "Ġpretzels": 6169,
      "Ġwhispering": 6170,
      "ĠCait": 6171,
      "Ġtemperature": 6172,
      "oked": 6173,
      "yard": 6174,
      "Ġhumm": 6175,
      "Ġhidden": 6176,
      "ats": 6177,
      "Ġmos": 6178,
      "Ġmous": 6179,
      "Ġgreedy": 6180,
      "oolaid": 6181,
      "aterpillar": 6182,
      "Ġbehave": 6183,
      "Ġbats": 6184,
      "fruit": 6185,
      "ĠMacDonald": 6186,
      "Ġpopsicle": 6187,
      "Ġducklings": 6188,
      "Ġfetch": 6189,
      "Ġcradle": 6190,
      "Lwww": 6191,
      "Pl": 6192,
      "Ġmall": 6193,
      "Ġpets": 6194,
      "ken": 6195,
      "utta": 6196,
      "Ġrose": 6197,
      "Ġjew": 6198,
      "Ġbam": 6199,
      "Ġputtap": 6200,
      "Ġdrunk": 6201,
      "Ġfourth": 6202,
      "ĠHappy": 6203,
      "Ġparade": 6204,
      "ĠHeidi": 6205,
      "ĠTracy": 6206,
      "ĠFrosty": 6207,
      "Ġsnuggle": 6208,
      "Ġputtaputta": 6209,
      "Ġtins": 6210,
      "Ġax": 6211,
      "Ġmike": 6212,
      "Ġnor": 6213,
      "Ġjugg": 6214,
      "ĠSeth": 6215,
      "Ġthankyou": 6216,
      "Ġgran": 6217,
      "REN": 6218,
      "Ġserious": 6219,
      "Ġbothering": 6220,
      "Ġmid": 6221,
      "Ġjolly": 6222,
      "Ġwrist": 6223,
      "Ġseam": 6224,
      "Ġpeacock": 6225,
      "Ġcabin": 6226,
      "Ġlone": 6227,
      "Ġpy": 6228,
      "Ġpou": 6229,
      "Ġpit": 6230,
      "Ġfake": 6231,
      "chief": 6232,
      "rack": 6233,
      "Ġages": 6234,
      "ĠLee": 6235,
      "artin": 6236,
      "Ġbikes": 6237,
      "Ġcaterpillars": 6238,
      "uddy": 6239,
      "Ġelev": 6240,
      "Ġmailman": 6241,
      "Ġchipmunk": 6242,
      "Ġcushions": 6243,
      "ĠSusan": 6244,
      "val": 6245,
      "Ġpine": 6246,
      "Ġpos": 6247,
      "Ġcheep": 6248,
      "ĠJay": 6249,
      "ocky": 6250,
      "ĠLaur": 6251,
      "ĠHungry": 6252,
      "ustr": 6253,
      "oofy": 6254,
      "Ġaerob": 6255,
      "Ġspinach": 6256,
      "Ġpeace": 6257,
      "Ġchased": 6258,
      "Ġoutfit": 6259,
      "Ġsss": 6260,
      "Ġwhales": 6261,
      "Ġnat": 6262,
      "Ġliqu": 6263,
      "ĠPar": 6264,
      "iper": 6265,
      "arees": 6266,
      "Ġstopping": 6267,
      "Ġnighttime": 6268,
      "Ġamen": 6269,
      "Ġbrushed": 6270,
      "Ġpastry": 6271,
      "Ġfurry": 6272,
      "ĠKeisha": 6273,
      "Ġdungarees": 6274,
      "ĠTexas": 6275,
      "Ġtut": 6276,
      "Ġtart": 6277,
      "antern": 6278,
      "Ġpitter": 6279,
      "ences": 6280,
      "ĠMoosh": 6281,
      "Ġform": 6282,
      "Ġank": 6283,
      "Ġwillie": 6284,
      "Ġleop": 6285,
      "Ġvase": 6286,
      "assie": 6287,
      "Ġfishie": 6288,
      "aca": 6289,
      "Ġpatch": 6290,
      "Ġpoints": 6291,
      "Ġsaved": 6292,
      "Ġbreathe": 6293,
      "JON": 6294,
      "bah": 6295,
      "Ġcons": 6296,
      "Ġmou": 6297,
      "allowed": 6298,
      "ican": 6299,
      "ĠDu": 6300,
      "Ġbrand": 6301,
      "Ġgray": 6302,
      "ĠKip": 6303,
      "Ġmars": 6304,
      "Ġeagle": 6305,
      "Ġunhunh": 6306,
      "Ġaerobics": 6307,
      "Ġtangled": 6308,
      "Ġdest": 6309,
      "Ġwhad": 6310,
      "Ġwand": 6311,
      "ĠPot": 6312,
      "ĠJosh": 6313,
      "quit": 6314,
      "Ġlotion": 6315,
      "Ġtops": 6316,
      "Ġpurpose": 6317,
      "Ġwiped": 6318,
      "road": 6319,
      "Ġattached": 6320,
      "Ġparcels": 6321,
      "Ġcustard": 6322,
      "RRR": 6323,
      "yle": 6324,
      "Ġheld": 6325,
      "Ġspaces": 6326,
      "ADR": 6327,
      "oscope": 6328,
      "Ġpuddle": 6329,
      "Ġprick": 6330,
      "ĠCarle": 6331,
      "Ġnormal": 6332,
      "Ġjourney": 6333,
      "Wh": 6334,
      "reen": 6335,
      "Ġchain": 6336,
      "opes": 6337,
      "eller": 6338,
      "Ġdrops": 6339,
      "ĠNick": 6340,
      "ĠGary": 6341,
      "Ġswallowed": 6342,
      "Ġcutie": 6343,
      "Ġawfully": 6344,
      "Ġfavorites": 6345,
      "Ġdancer": 6346,
      "Ġjoking": 6347,
      "JJJ": 6348,
      "JAK": 6349,
      "ĠBozo": 6350,
      "Ġelevator": 6351,
      "ogg": 6352,
      "robe": 6353,
      "Ġnea": 6354,
      "ĠMir": 6355,
      "Ġsheet": 6356,
      "Ġspeed": 6357,
      "ĠJust": 6358,
      "ĠAna": 6359,
      "Ġways": 6360,
      "bled": 6361,
      "Ġrained": 6362,
      "Ġswims": 6363,
      "Ġpuss": 6364,
      "Ġgolden": 6365,
      "strich": 6366,
      "Ġconcentr": 6367,
      "ĠSpencer": 6368,
      "Ġcigaret": 6369,
      "cause": 6370,
      "pants": 6371,
      "Ġsake": 6372,
      "Ġgarl": 6373,
      "sect": 6374,
      "Ġjeans": 6375,
      "Ġbobble": 6376,
      "Ġpeoples": 6377,
      "friend": 6378,
      "Ġmeeting": 6379,
      "Ġdolphins": 6380,
      "ĠCarey": 6381,
      "ĠRaggedy": 6382,
      "Ġconfused": 6383,
      "Lightyear": 6384,
      "ko": 6385,
      "Ġostrich": 6386,
      "Ġmod": 6387,
      "Ġrod": 6388,
      "ĠTy": 6389,
      "ĠTed": 6390,
      "Ġamount": 6391,
      "wheel": 6392,
      "ivers": 6393,
      "Ġapricot": 6394,
      "ĠLaurie": 6395,
      "Th": 6396,
      "Ġhopping": 6397,
      "ĠMartin": 6398,
      "Ġnote": 6399,
      "Ġholds": 6400,
      "Ġrecently": 6401,
      "ĠDece": 6402,
      "ĠJanuary": 6403,
      "Ġwalrus": 6404,
      "Ġtend": 6405,
      "Ġwore": 6406,
      "asher": 6407,
      "Ġapplesauce": 6408,
      "Ġscratched": 6409,
      "Ġrobin": 6410,
      "Ġpreschool": 6411,
      "ĠCaitlin": 6412,
      "Ġmosquit": 6413,
      "boom": 6414,
      "doh": 6415,
      "pan": 6416,
      "pher": 6417,
      "Ġwif": 6418,
      "Ġmessed": 6419,
      "ĠMilo": 6420,
      "ĠCat": 6421,
      "ĠJilly": 6422,
      "Ġbuff": 6423,
      "ĠGoofy": 6424,
      "Ġfireplace": 6425,
      "Ġpige": 6426,
      "Ġburnt": 6427,
      "button": 6428,
      "Ġwondered": 6429,
      "ĠDecember": 6430,
      "Ġai": 6431,
      "inna": 6432,
      "Ġgoed": 6433,
      "stress": 6434,
      "ado": 6435,
      "Ġstat": 6436,
      "ota": 6437,
      "ĠCourt": 6438,
      "Ġclue": 6439,
      "Ġbirdies": 6440,
      "Ġnursies": 6441,
      "Ġdesign": 6442,
      "Ġrobber": 6443,
      "ĠTeletubby": 6444,
      "gull": 6445,
      "uz": 6446,
      "Ġsig": 6447,
      "ved": 6448,
      "Ġkoolaid": 6449,
      "Ġgotcha": 6450,
      "ĠBea": 6451,
      "ĠBon": 6452,
      "Ġswan": 6453,
      "ugust": 6454,
      "Ġperi": 6455,
      "Ġscram": 6456,
      "Ġpassed": 6457,
      "Ġspeaking": 6458,
      "ĠErica": 6459,
      "Ġcharge": 6460,
      "Ġfrosting": 6461,
      "ĠXav": 6462,
      "Ġseamstress": 6463,
      "coat": 6464,
      "hive": 6465,
      "ini": 6466,
      "Ġmel": 6467,
      "oneys": 6468,
      "Ġbuss": 6469,
      "Ġhotdog": 6470,
      "Ġbathing": 6471,
      "Ġmicrow": 6472,
      "Ġpatient": 6473,
      "Ġseats": 6474,
      "Ġtowels": 6475,
      "Ġvel": 6476,
      "ĠPippo": 6477,
      "Ġgiddyup": 6478,
      "Ġlonely": 6479,
      "Ġokey": 6480,
      "Ġcuck": 6481,
      "arth": 6482,
      "ores": 6483,
      "Ġdiet": 6484,
      "ĠGramp": 6485,
      "Ġbarber": 6486,
      "Ġseagull": 6487,
      "iggly": 6488,
      "Ġclowns": 6489,
      "xter": 6490,
      "Ġcaboo": 6491,
      "Ġgang": 6492,
      "Ġlos": 6493,
      "Ġei": 6494,
      "che": 6495,
      "Ġsalmon": 6496,
      "Ġapron": 6497,
      "ĠMarch": 6498,
      "Ġbuzzy": 6499,
      "Ġpeeping": 6500,
      "Ġcousins": 6501,
      "Ġbushes": 6502,
      "ĠGabriel": 6503,
      "Ġmicrowave": 6504,
      "van": 6505,
      "Ġsour": 6506,
      "Ġdit": 6507,
      "Ġdandel": 6508,
      "Ġstud": 6509,
      "icip": 6510,
      "Ġbru": 6511,
      "ĠSellotape": 6512,
      "Ġneither": 6513,
      "Ġprod": 6514,
      "Ġmessage": 6515,
      "Ġheaven": 6516,
      "ĠVery": 6517,
      "ĠBlack": 6518,
      "Ġcrabs": 6519,
      "Ġtorch": 6520,
      "FAY": 6521,
      "Ġplatform": 6522,
      "GIN": 6523,
      "Ġwhaddy": 6524,
      "Ġpap": 6525,
      "Ġfum": 6526,
      "UNI": 6527,
      "Ġrela": 6528,
      "ppers": 6529,
      "ĠBall": 6530,
      "ĠFrench": 6531,
      "ipment": 6532,
      "Ġgranny": 6533,
      "ĠJackie": 6534,
      "Ġbasement": 6535,
      "Ġattack": 6536,
      "Ġpyjamas": 6537,
      "Ġcuckoo": 6538,
      "Mwww": 6539,
      "gan": 6540,
      "ruct": 6541,
      "Ġyarn": 6542,
      "Ġdou": 6543,
      "utter": 6544,
      "Ġwhoever": 6545,
      "hmallow": 6546,
      "Ġowie": 6547,
      "Ġskating": 6548,
      "dder": 6549,
      "Ġairplanes": 6550,
      "Ġbuckle": 6551,
      "Ġscratching": 6552,
      "Ġshooting": 6553,
      "Ġcheerleader": 6554,
      "Ġrelax": 6555,
      "Ġvol": 6556,
      "Ġgrade": 6557,
      "Ġgrumpy": 6558,
      "Ġhamster": 6559,
      "Ġroads": 6560,
      "ĠSharon": 6561,
      "Ġrecognized": 6562,
      "Ġequipment": 6563,
      "ĠCourtney": 6564,
      "DE": 6565,
      "Ġsha": 6566,
      "ĠDiesel": 6567,
      "ĠFebr": 6568,
      "Ġconvers": 6569,
      "Ġnappies": 6570,
      "laire": 6571,
      "ibly": 6572,
      "Ġsqueaky": 6573,
      "Ġteasing": 6574,
      "ĠElsie": 6575,
      "Ġmarshmallow": 6576,
      "ĠFebruary": 6577,
      "Krispies": 6578,
      "dokey": 6579,
      "soon": 6580,
      "Ġmumm": 6581,
      "Ġnick": 6582,
      "esh": 6583,
      "Ġmini": 6584,
      "Ġacorn": 6585,
      "ĠAbby": 6586,
      "Ġopposite": 6587,
      "Ġwhaddya": 6588,
      "Fr": 6589,
      "Man": 6590,
      "ih": 6591,
      "Ġtables": 6592,
      "Ġhid": 6593,
      "Ġshave": 6594,
      "Ġrunny": 6595,
      "nal": 6596,
      "Ġwherever": 6597,
      "Ġblink": 6598,
      "Ġswam": 6599,
      "Ġflo": 6600,
      "Ġcran": 6601,
      "Ġmilksh": 6602,
      "Ġpiglet": 6603,
      "Ġgraham": 6604,
      "Ġbowling": 6605,
      "jamin": 6606,
      "Ġlanding": 6607,
      "Ġmuddy": 6608,
      "Ġtires": 6609,
      "Ġdepend": 6610,
      "Ġperiod": 6611,
      "horse": 6612,
      "atops": 6613,
      "Ġdive": 6614,
      "Ġnaked": 6615,
      "Ġshit": 6616,
      "ila": 6617,
      "ĠSher": 6618,
      "Ġframe": 6619,
      "ĠCaterpillar": 6620,
      "aka": 6621,
      "Ġslot": 6622,
      "ĠChant": 6623,
      "Ġchecked": 6624,
      "bbling": 6625,
      "Ġzebr": 6626,
      "Ġblows": 6627,
      "Ġbrushes": 6628,
      "Ġbars": 6629,
      "Ġcarriages": 6630,
      "Ġfifth": 6631,
      "Ġrailroad": 6632,
      "Ġzebras": 6633,
      "Ġheeh": 6634,
      "orld": 6635,
      "aky": 6636,
      "ult": 6637,
      "Ġdeck": 6638,
      "Ġpulls": 6639,
      "Ġlookee": 6640,
      "Ġcarrier": 6641,
      "ĠBlues": 6642,
      "Ġpackage": 6643,
      "Ġtotally": 6644,
      "mower": 6645,
      "Ġyoyo": 6646,
      "Ġmow": 6647,
      "Ġmoneys": 6648,
      "Ġlitt": 6649,
      "Ġpans": 6650,
      "uty": 6651,
      "outs": 6652,
      "Ġreport": 6653,
      "Ġchat": 6654,
      "ĠTiny": 6655,
      "ĠSains": 6656,
      "ĠRib": 6657,
      "Ġcheers": 6658,
      "Ġhearts": 6659,
      "Ġyelling": 6660,
      "Ġhits": 6661,
      "ĠStar": 6662,
      "Ġgarlic": 6663,
      "Ġcaboose": 6664,
      "ĠRibena": 6665,
      "Rob": 6666,
      "jama": 6667,
      "off": 6668,
      "wash": 6669,
      "Ġsess": 6670,
      "Ġmaster": 6671,
      "Ġroses": 6672,
      "ĠAugust": 6673,
      "Ġsaf": 6674,
      "Ġbuggy": 6675,
      "Ġcries": 6676,
      "ĠRolly": 6677,
      "aha": 6678,
      "Ġmustache": 6679,
      "Ġunif": 6680,
      "Ġconnect": 6681,
      "Ġpoured": 6682,
      "gum": 6683,
      "Ġbw": 6684,
      "Ġmention": 6685,
      "ency": 6686,
      "Ġwanting": 6687,
      "ĠBur": 6688,
      "ornia": 6689,
      "Ġparticip": 6690,
      "Ġburst": 6691,
      "ifornia": 6692,
      "Ġdreams": 6693,
      "ĠGreat": 6694,
      "ĠBaba": 6695,
      "Ġreminds": 6696,
      "ĠPeanuts": 6697,
      "door": 6698,
      "Ġward": 6699,
      "Ġbabe": 6700,
      "ĠClaire": 6701,
      "ĠBwww": 6702,
      "ĠThanks": 6703,
      "eles": 6704,
      "Ġcheating": 6705,
      "ĠKit": 6706,
      "ĠKipper": 6707,
      "ewis": 6708,
      "Ġsunflower": 6709,
      "Ġnapkins": 6710,
      "Ġpillows": 6711,
      "Ġlambs": 6712,
      "Ġstripy": 6713,
      "Ġtorn": 6714,
      "ĠTrina": 6715,
      "Ġcustomer": 6716,
      "ĠCalifornia": 6717,
      "Ġunderwear": 6718,
      "giving": 6719,
      "cers": 6720,
      "oink": 6721,
      "Ġeel": 6722,
      "Ġgulp": 6723,
      "aya": 6724,
      "Ġdrip": 6725,
      "Ġtrap": 6726,
      "ofty": 6727,
      "obbin": 6728,
      "Ġburned": 6729,
      "Ġhallow": 6730,
      "ĠLucille": 6731,
      "Ġlifting": 6732,
      "Ġpaddling": 6733,
      "ĠXavier": 6734,
      "DEB": 6735,
      "Ġuniform": 6736,
      "mouse": 6737,
      "Ġwar": 6738,
      "Ġlead": 6739,
      "ooey": 6740,
      "arry": 6741,
      "Ġjello": 6742,
      "olas": 6743,
      "ĠCan": 6744,
      "ĠLiam": 6745,
      "ĠFrance": 6746,
      "Ġtears": 6747,
      "ĠLynette": 6748,
      "Ġbeetle": 6749,
      "Ġstocking": 6750,
      "ĠThanksgiving": 6751,
      "Ġyikes": 6752,
      "Ġyounger": 6753,
      "isher": 6754,
      "Ġrrr": 6755,
      "ening": 6756,
      "Ġbabydoll": 6757,
      "Ġbul": 6758,
      "ĠNat": 6759,
      "Ġsmily": 6760,
      "Ġtractors": 6761,
      "ĠBenjamin": 6762,
      "Ġcollecting": 6763,
      "ĠAlfie": 6764,
      "Ġlosing": 6765,
      "ĠBalloon": 6766,
      "KEV": 6767,
      "rect": 6768,
      "Ġsens": 6769,
      "Ġgah": 6770,
      "Ġlat": 6771,
      "Ġtwin": 6772,
      "ĠPen": 6773,
      "Ġarmy": 6774,
      "ELL": 6775,
      "Ġawes": 6776,
      "ccas": 6777,
      "Ġwipes": 6778,
      "Ġinvite": 6779,
      "Ġitchy": 6780,
      "Ġhalloween": 6781,
      "Ġill": 6782,
      "Ġhung": 6783,
      "Ġdude": 6784,
      "Ġgag": 6785,
      "Ġpup": 6786,
      "Ġsol": 6787,
      "ussy": 6788,
      "Ġblouse": 6789,
      "ĠPopp": 6790,
      "Ġdrums": 6791,
      "ĠHilda": 6792,
      "Ġduckies": 6793,
      "ELI": 6794,
      "Ġdaff": 6795,
      "Ġfigured": 6796,
      "ĠMacdonald": 6797,
      "Ġannoy": 6798,
      "Marie": 6799,
      "Ġleopard": 6800,
      "ĠChantilly": 6801,
      "Henry": 6802,
      "Mac": 6803,
      "cess": 6804,
      "Ġwuh": 6805,
      "Ġast": 6806,
      "imp": 6807,
      "Ġchannel": 6808,
      "Ġtexture": 6809,
      "Ġends": 6810,
      "Ġsorted": 6811,
      "ĠJoanna": 6812,
      "Ġsplish": 6813,
      "ĠToad": 6814,
      "Ġstomachache": 6815,
      "Ġbleeding": 6816,
      "Ġeyebrows": 6817,
      "Ġseparate": 6818,
      "Ġdaffod": 6819,
      "BU": 6820,
      "yay": 6821,
      "Ġholly": 6822,
      "att": 6823,
      "Ġdalmat": 6824,
      "Ġbing": 6825,
      "isco": 6826,
      "ĠHwww": 6827,
      "Ġhaircut": 6828,
      "rily": 6829,
      "Ġmusical": 6830,
      "Ġpajama": 6831,
      "Ġmarks": 6832,
      "Ġstretched": 6833,
      "ĠSpiderman": 6834,
      "ĠWellingtons": 6835,
      "Ġgranola": 6836,
      "Ġconversation": 6837,
      "Ġfloating": 6838,
      "BUD": 6839,
      "ioc": 6840,
      "jor": 6841,
      "ua": 6842,
      "rex": 6843,
      "rend": 6844,
      "Ġbay": 6845,
      "Ġmass": 6846,
      "Ġloop": 6847,
      "Ġhehe": 6848,
      "uto": 6849,
      "icorn": 6850,
      "Ġwouldja": 6851,
      "ĠFarm": 6852,
      "ĠLau": 6853,
      "ĠLofty": 6854,
      "ĠRen": 6855,
      "Ġsugg": 6856,
      "Ġbumps": 6857,
      "ĠPerri": 6858,
      "Ġscratchy": 6859,
      "Ġguns": 6860,
      "Ġhens": 6861,
      "Ġtwisted": 6862,
      "ĠEngland": 6863,
      "Ġawesome": 6864,
      "Cl": 6865,
      "Duck": 6866,
      "Ġwicked": 6867,
      "Ġdice": 6868,
      "ooty": 6869,
      "Ġinsect": 6870,
      "Ġfrustr": 6871,
      "Ġclapping": 6872,
      "ulk": 6873,
      "Ġscoot": 6874,
      "Ġpray": 6875,
      "Ġunicorn": 6876,
      "Ġposting": 6877,
      "Ġlaid": 6878,
      "brum": 6879,
      "Ġstrawberrys": 6880,
      "Ġstorm": 6881,
      "Ġtacos": 6882,
      "Ġgallop": 6883,
      "ĠPuddle": 6884,
      "fly": 6885,
      "pit": 6886,
      "Ġmah": 6887,
      "igail": 6888,
      "ades": 6889,
      "adad": 6890,
      "adill": 6891,
      "Ġknob": 6892,
      "aming": 6893,
      "ĠDumpty": 6894,
      "ĠPatch": 6895,
      "ĠGum": 6896,
      "ockey": 6897,
      "Ġchees": 6898,
      "Ġhearing": 6899,
      "Ġteaching": 6900,
      "prints": 6901,
      "Ġhorrid": 6902,
      "lia": 6903,
      "pin": 6904,
      "Ġtil": 6905,
      "Ġyuh": 6906,
      "Ġll": 6907,
      "Ġloun": 6908,
      "Ġracket": 6909,
      "Ġsoil": 6910,
      "urn": 6911,
      "Ġbob": 6912,
      "ĠSe": 6913,
      "ĠSara": 6914,
      "hmm": 6915,
      "Ġbarri": 6916,
      "Ġadvent": 6917,
      "ĠAbigail": 6918,
      "Ġbranches": 6919,
      "Ġpoppet": 6920,
      "Ġmilkshake": 6921,
      "oices": 6922,
      "Ġoval": 6923,
      "Ġcoop": 6924,
      "Ġrot": 6925,
      "Ġbrief": 6926,
      "Ġbackyard": 6927,
      "ADA": 6928,
      "ĠNwww": 6929,
      "Ġalrighty": 6930,
      "Ġmines": 6931,
      "Ġcoins": 6932,
      "Ġdresses": 6933,
      "ounce": 6934,
      "Ġconf": 6935,
      "ĠVon": 6936,
      "ĠPluto": 6937,
      "Ġtriangles": 6938,
      "Ġtapioc": 6939,
      "Ġbatterys": 6940,
      "Ġsentence": 6941,
      "ĠDorothy": 6942,
      "Ġdecorate": 6943,
      "Ġtapioca": 6944,
      "SAN": 6945,
      "Ġeen": 6946,
      "Ġwhada": 6947,
      "Ġlal": 6948,
      "ĠIan": 6949,
      "Ġpopping": 6950,
      "Ġquilt": 6951,
      "ĠChicken": 6952,
      "Ġpeppers": 6953,
      "usty": 6954,
      "Ġemerg": 6955,
      "Ġcorrect": 6956,
      "Ġsneezing": 6957,
      "Ġraspberries": 6958,
      "Ġyawning": 6959,
      "Ġdoodle": 6960,
      "Ġscrambled": 6961,
      "care": 6962,
      "dah": 6963,
      "rod": 6964,
      "wa": 6965,
      "Ġbunk": 6966,
      "Ġpave": 6967,
      "Ġfunnel": 6968,
      "Ġstem": 6969,
      "oline": 6970,
      "Ġblond": 6971,
      "Ġmanaged": 6972,
      "Ġhelper": 6973,
      "Ġmommies": 6974,
      "ĠOh": 6975,
      "Ġstraps": 6976,
      "Ġmatching": 6977,
      "Ġcollar": 6978,
      "Ġtyp": 6979,
      "Ġdisappear": 6980,
      "Ġstepping": 6981,
      "Ġpossibly": 6982,
      "DO": 6983,
      "ele": 6984,
      "Ġthump": 6985,
      "rek": 6986,
      "Ġhoop": 6987,
      "ĠMill": 6988,
      "Ġboil": 6989,
      "Ġorgan": 6990,
      "aint": 6991,
      "abee": 6992,
      "Ġcrush": 6993,
      "Ġeverytime": 6994,
      "Ġfires": 6995,
      "Ġpotatos": 6996,
      "baa": 6997,
      "iki": 6998,
      "Ġlawnmower": 6999,
      "JAN": 7000,
      "fire": 7001,
      "Ġgown": 7002,
      "oria": 7003,
      "Ġrah": 7004,
      "Ġkah": 7005,
      "ader": 7006,
      "Ġbrrm": 7007,
      "ĠSooty": 7008,
      "Ġspent": 7009,
      "ĠLor": 7010,
      "ĠLen": 7011,
      "Ġhelpful": 7012,
      "Ġfellow": 7013,
      "Ġlifted": 7014,
      "Ġrubbing": 7015,
      "Ġcaptain": 7016,
      "Ġplanet": 7017,
      "Ġsleigh": 7018,
      "Ġraspberry": 7019,
      "Ġspacesh": 7020,
      "Ġlounge": 7021,
      "nse": 7022,
      "vil": 7023,
      "Ġditch": 7024,
      "esting": 7025,
      "alley": 7026,
      "Ġdripping": 7027,
      "ipt": 7028,
      "Ġarrest": 7029,
      "GRE": 7030,
      "Ġvine": 7031,
      "Ġdrawers": 7032,
      "Ġgrace": 7033,
      "Ġgrassh": 7034,
      "Ġladys": 7035,
      "Ġreached": 7036,
      "Ġsharpen": 7037,
      "Ġsigns": 7038,
      "Ġbandage": 7039,
      "ĠSuperman": 7040,
      "ĠItal": 7041,
      "Ġantenna": 7042,
      "bit": 7043,
      "gy": 7044,
      "Ġtinker": 7045,
      "Ġhula": 7046,
      "Ġcast": 7047,
      "Ġmole": 7048,
      "kerel": 7049,
      "Ġisland": 7050,
      "arrow": 7051,
      "Ġwasp": 7052,
      "Ġnecess": 7053,
      "Ġtripped": 7054,
      "Ġslug": 7055,
      "Ġslides": 7056,
      "ĠNove": 7057,
      "ĠGoo": 7058,
      "ĠRonald": 7059,
      "Ġgreens": 7060,
      "Ġsnort": 7061,
      "Ġbowwow": 7062,
      "oohoo": 7063,
      "Ġmargar": 7064,
      "Ġburning": 7065,
      "ĠMarg": 7066,
      "ĠStephen": 7067,
      "Ġmoust": 7068,
      "ĠJustin": 7069,
      "Ġshock": 7070,
      "ophone": 7071,
      "ĠJoy": 7072,
      "Ġmug": 7073,
      "Ġwax": 7074,
      "Ġcuts": 7075,
      "Ġroared": 7076,
      "ortun": 7077,
      "Ġstrap": 7078,
      "bears": 7079,
      "Ġbumblebee": 7080,
      "Ġlogs": 7081,
      "ĠSusie": 7082,
      "Ġpeeppeep": 7083,
      "White": 7084,
      "ĠNovember": 7085,
      "Ġmargarine": 7086,
      "IA": 7087,
      "MR": 7088,
      "Ġgates": 7089,
      "ities": 7090,
      "ĠToot": 7091,
      "ĠBal": 7092,
      "ĠPin": 7093,
      "Ġoffer": 7094,
      "Ġtrade": 7095,
      "Ġhurray": 7096,
      "Ġarmadill": 7097,
      "eye": 7098,
      "Ġgerb": 7099,
      "Ġhugging": 7100,
      "Ġmoustache": 7101,
      "MRX": 7102,
      "yc": 7103,
      "Ġtug": 7104,
      "Ġsite": 7105,
      "Ġcinna": 7106,
      "Ġshore": 7107,
      "Ġforwards": 7108,
      "ulah": 7109,
      "Ġbaths": 7110,
      "Ġlemons": 7111,
      "Ġbarbe": 7112,
      "Ġseash": 7113,
      "ĠLynn": 7114,
      "Ġpossible": 7115,
      "Ġparticipant": 7116,
      "ination": 7117,
      "Ġinc": 7118,
      "ĠMuck": 7119,
      "ĠDobbin": 7120,
      "ĠCam": 7121,
      "ĠAaron": 7122,
      "Ġreads": 7123,
      "Ġsnails": 7124,
      "boys": 7125,
      "Ġcracked": 7126,
      "ĠBobo": 7127,
      "Ġuntie": 7128,
      "Ġsetting": 7129,
      "Ġhippos": 7130,
      "ĠSmartie": 7131,
      "onnaise": 7132,
      "Ġcafe": 7133,
      "ĠSimon": 7134,
      "Ġautumn": 7135,
      "ĠBethany": 7136,
      "Ġsunday": 7137,
      "Ġmemory": 7138,
      "Ġsportscaster": 7139,
      "ĠLauren": 7140,
      "las": 7141,
      "mar": 7142,
      "nas": 7143,
      "Ġhockey": 7144,
      "Ġled": 7145,
      "Ġlaw": 7146,
      "Ġpins": 7147,
      "Ġknives": 7148,
      "ĠTerry": 7149,
      "Ġcarries": 7150,
      "Ġfloppy": 7151,
      "Ġcond": 7152,
      "Ġdaet": 7153,
      "Ġjobs": 7154,
      "Ġnursing": 7155,
      "ashington": 7156,
      "ĠPlaydoh": 7157,
      "ĠBabs": 7158,
      "Ġartist": 7159,
      "NNN": 7160,
      "ĠColin": 7161,
      "Ġsuggest": 7162,
      "In": 7163,
      "father": 7164,
      "pol": 7165,
      "Ġhoops": 7166,
      "Ġdove": 7167,
      "Ġlit": 7168,
      "Ġfac": 7169,
      "Ġcane": 7170,
      "stal": 7171,
      "adi": 7172,
      "ĠPwww": 7173,
      "ĠPark": 7174,
      "ĠAis": 7175,
      "Ġmayonnaise": 7176,
      "Ġsorting": 7177,
      "Ġacting": 7178,
      "Ġpuppys": 7179,
      "ĠJoan": 7180,
      "baby": 7181,
      "anya": 7182,
      "Ġplanes": 7183,
      "ĠMonster": 7184,
      "Ġterribly": 7185,
      "Ġscrape": 7186,
      "Ġdirection": 7187,
      "JAM": 7188,
      "Ġcinnamon": 7189,
      "castle": 7190,
      "iot": 7191,
      "mers": 7192,
      "tw": 7193,
      "Ġtar": 7194,
      "Ġoper": 7195,
      "Ġcred": 7196,
      "ised": 7197,
      "Ġshine": 7198,
      "Ġkuh": 7199,
      "ico": 7200,
      "Ġnotes": 7201,
      "Ġsomeplace": 7202,
      "Ġblues": 7203,
      "Ġfriday": 7204,
      "ĠPoppy": 7205,
      "Ġprice": 7206,
      "Ġunderpants": 7207,
      "Ġapparent": 7208,
      "Ġowe": 7209,
      "Ġtickly": 7210,
      "ĠOct": 7211,
      "toe": 7212,
      "Ġphoto": 7213,
      "Ġpirates": 7214,
      "Ġhosep": 7215,
      "Ġmountains": 7216,
      "Ġperfectly": 7217,
      "ĠStephanie": 7218,
      "ĠScott": 7219,
      "Ġgroceries": 7220,
      "uce": 7221,
      "Ġded": 7222,
      "Ġpoodle": 7223,
      "Ġtons": 7224,
      "ĠJillian": 7225,
      "Ġtramp": 7226,
      "Ġbirdy": 7227,
      "Ġgrill": 7228,
      "ĠWil": 7229,
      "Ġpatio": 7230,
      "Ġsplinter": 7231,
      "Ġwinner": 7232,
      "Ġcolle": 7233,
      "Ġhamburgers": 7234,
      "Ġnoodle": 7235,
      "ĠGregory": 7236,
      "Ġpavement": 7237,
      "Ġapparently": 7238,
      "lves": 7239,
      "Ġmuh": 7240,
      "Ġfer": 7241,
      "asc": 7242,
      "Ġknown": 7243,
      "Ġchopping": 7244,
      "Ġbock": 7245,
      "ĠTanya": 7246,
      "Ġworth": 7247,
      "Ġbirth": 7248,
      "ĠHan": 7249,
      "Ġfiretruck": 7250,
      "Ġskipped": 7251,
      "Ġunf": 7252,
      "Ġsettle": 7253,
      "Ġbarrels": 7254,
      "Ġdrying": 7255,
      "Ġemergency": 7256,
      "BE": 7257,
      "Moon": 7258,
      "den": 7259,
      "Ġtack": 7260,
      "Ġbong": 7261,
      "Ġmuck": 7262,
      "Ġlower": 7263,
      "Ġnoses": 7264,
      "Ġfab": 7265,
      "ened": 7266,
      "ĠMe": 7267,
      "Ġbae": 7268,
      "Ġchart": 7269,
      "ĠPuss": 7270,
      "Ġfinds": 7271,
      "asha": 7272,
      "Ġwalkie": 7273,
      "Ġthrowed": 7274,
      "ĠMariana": 7275,
      "Ġtidied": 7276,
      "ĠJessie": 7277,
      "ĠChristine": 7278,
      "Ġporch": 7279,
      "Ġtrumpet": 7280,
      "Ġhummus": 7281,
      "ĠOctober": 7282,
      "cr": 7283,
      "Ġigl": 7284,
      "Ġhut": 7285,
      "Ġmamma": 7286,
      "ising": 7287,
      "Ġeff": 7288,
      "Ġscar": 7289,
      "Ġscribble": 7290,
      "ĠAladar": 7291,
      "Ġservice": 7292,
      "Ġspaceship": 7293,
      "Ġigloo": 7294,
      "suit": 7295,
      "ĠIm": 7296,
      "ooked": 7297,
      "Ġkleenex": 7298,
      "erence": 7299,
      "ĠLeah": 7300,
      "ĠRose": 7301,
      "Ġicecream": 7302,
      "ANG": 7303,
      "Ġalmond": 7304,
      "Ġcardboard": 7305,
      "Ġlessons": 7306,
      "Ġpassenger": 7307,
      "ĠCoca": 7308,
      "Ġpipes": 7309,
      "Ġtimer": 7310,
      "Ġproject": 7311,
      "oggins": 7312,
      "poon": 7313,
      "weed": 7314,
      "Ġwise": 7315,
      "Ġheck": 7316,
      "chio": 7317,
      "ĠToddy": 7318,
      "Ġsling": 7319,
      "Ġcolesl": 7320,
      "Ġguin": 7321,
      "Ġcowboys": 7322,
      "Ġtowers": 7323,
      "Ġteat": 7324,
      "Ġsalty": 7325,
      "Ġlorrys": 7326,
      "Ġbuildings": 7327,
      "Ġmachines": 7328,
      "JUL": 7329,
      "Ġtaco": 7330,
      "ĠMcDonalds": 7331,
      "Ġdragons": 7332,
      "Ġcartoons": 7333,
      "Ġcoleslaw": 7334,
      "com": 7335,
      "Ġntu": 7336,
      "oni": 7337,
      "tagon": 7338,
      "ĠSandra": 7339,
      "gels": 7340,
      "arten": 7341,
      "ĠHor": 7342,
      "Ġsorta": 7343,
      "Ġpushchair": 7344,
      "screw": 7345,
      "Ġsnacks": 7346,
      "Ġsoldiers": 7347,
      "ĠQueen": 7348,
      "Ġbrumbrum": 7349,
      "Ġblonde": 7350,
      "Ġguinea": 7351,
      "Ġntuu": 7352,
      "AB": 7353,
      "IM": 7354,
      "Ġsaturday": 7355,
      "inal": 7356,
      "Ġberry": 7357,
      "erver": 7358,
      "Ġripe": 7359,
      "Ġsteth": 7360,
      "Ġbaw": 7361,
      "Ġsomeday": 7362,
      "alog": 7363,
      "Ġboiled": 7364,
      "ĠJJ": 7365,
      "ĠNicky": 7366,
      "Ġpressed": 7367,
      "Ġflush": 7368,
      "issy": 7369,
      "Ġwatches": 7370,
      "Ġhurrah": 7371,
      "Ġapartment": 7372,
      "Ġladybirds": 7373,
      "Ġtights": 7374,
      "Ġneighb": 7375,
      "Ġattach": 7376,
      "ergarten": 7377,
      "Ġdepends": 7378,
      "Robin": 7379,
      "Red": 7380,
      "cri": 7381,
      "uc": 7382,
      "res": 7383,
      "Ġpon": 7384,
      "icing": 7385,
      "Ġspicy": 7386,
      "Ġhoping": 7387,
      "Ġbelow": 7388,
      "Ġbottoms": 7389,
      "Ġjellyfish": 7390,
      "Ġpointed": 7391,
      "Ġfreezing": 7392,
      "ĠSwiss": 7393,
      "Ġdoughnuts": 7394,
      "Ġmerrily": 7395,
      "PAU": 7396,
      "BAB": 7397,
      "York": 7398,
      "Ġteles": 7399,
      "omes": 7400,
      "Ġrece": 7401,
      "Ġknitting": 7402,
      "Ġchea": 7403,
      "Ġhiss": 7404,
      "ĠBirthday": 7405,
      "airy": 7406,
      "Ġpref": 7407,
      "Ġquail": 7408,
      "Ġsideways": 7409,
      "Ġgracious": 7410,
      "umbling": 7411,
      "Ġspelling": 7412,
      "Ġcocon": 7413,
      "ĠEddy": 7414,
      "Ġsailboat": 7415,
      "Ġlesson": 7416,
      "Ġmelted": 7417,
      "Ġmamm": 7418,
      "Ġpanties": 7419,
      "ĠAmerica": 7420,
      "ĠParis": 7421,
      "ĠMargaret": 7422,
      "Ġcredit": 7423,
      "Ġneighbors": 7424,
      "uction": 7425,
      "Ġdun": 7426,
      "Ġbop": 7427,
      "Ġwed": 7428,
      "stalk": 7429,
      "Ġchee": 7430,
      "ĠSister": 7431,
      "ĠFranc": 7432,
      "Ġprint": 7433,
      "ĠGran": 7434,
      "Ġletterbox": 7435,
      "Ġtelephones": 7436,
      "Ġcurls": 7437,
      "Ġstronger": 7438,
      "Ġfilling": 7439,
      "Ġindian": 7440,
      "Ġselling": 7441,
      "Ġmillion": 7442,
      "Ġnan": 7443,
      "Ġkit": 7444,
      "Ġstirr": 7445,
      "Ġchoking": 7446,
      "akota": 7447,
      "Ġusual": 7448,
      "Ġdial": 7449,
      "Ġunscrew": 7450,
      "burys": 7451,
      "burger": 7452,
      "ĠDexter": 7453,
      "iculous": 7454,
      "Ġhunt": 7455,
      "ĠPhilip": 7456,
      "ged": 7457,
      "hood": 7458,
      "Ġol": 7459,
      "Ġlantern": 7460,
      "Ġps": 7461,
      "Ġshepher": 7462,
      "Ġplayground": 7463,
      "ĠSqu": 7464,
      "ĠLion": 7465,
      "artment": 7466,
      "Ġgrain": 7467,
      "ĠJohnathan": 7468,
      "Ġcheckers": 7469,
      "ĠZita": 7470,
      "Ġxyl": 7471,
      "ĠDenise": 7472,
      "ĠDouglas": 7473,
      "Ġvehicles": 7474,
      "ĠPopeye": 7475,
      "Ġcabinet": 7476,
      "Ġxylophone": 7477,
      "Ġign": 7478,
      "Ġsear": 7479,
      "Ġnicer": 7480,
      "Ġgoof": 7481,
      "ĠDakota": 7482,
      "ĠTab": 7483,
      "Ġcarav": 7484,
      "Ġspitting": 7485,
      "angers": 7486,
      "Ġcro": 7487,
      "ontroller": 7488,
      "Ġunus": 7489,
      "ĠOat": 7490,
      "ĠObs": 7491,
      "Ġcurious": 7492,
      "Ġspilling": 7493,
      "Ġphon": 7494,
      "Ġladybugs": 7495,
      "Ġquarters": 7496,
      "Ġexercises": 7497,
      "Ġrescu": 7498,
      "Ġelectricity": 7499,
      "Ġstatue": 7500,
      "Pr": 7501,
      "Ġbent": 7502,
      "Ġlane": 7503,
      "Ġrack": 7504,
      "Ġchops": 7505,
      "ĠCur": 7506,
      "Ġmmh": 7507,
      "ocket": 7508,
      "Ġmane": 7509,
      "Ġlevel": 7510,
      "ĠRos": 7511,
      "venue": 7512,
      "Ġgramma": 7513,
      "ĠWashington": 7514,
      "ĠHolly": 7515,
      "Ġsnips": 7516,
      "aurus": 7517,
      "Ġphones": 7518,
      "Ġninight": 7519,
      "rona": 7520,
      "Ġseals": 7521,
      "Ġnewspapers": 7522,
      "Ġridiculous": 7523,
      "Ġrhino": 7524,
      "Ġwobble": 7525,
      "ĠGloria": 7526,
      "Ġspanner": 7527,
      "Ġstethoscope": 7528,
      "ĠObserver": 7529,
      "Lewis": 7530,
      "bet": 7531,
      "dong": 7532,
      "mere": 7533,
      "washer": 7534,
      "rey": 7535,
      "Ġoli": 7536,
      "Ġdya": 7537,
      "Ġbzz": 7538,
      "onk": 7539,
      "Ġsomehow": 7540,
      "ĠDarling": 7541,
      "ĠTelly": 7542,
      "ĠPiggy": 7543,
      "male": 7544,
      "Ġsweetcorn": 7545,
      "Ġsqueal": 7546,
      "Ġskates": 7547,
      "Ġpressing": 7548,
      "Ġplanted": 7549,
      "Ġbabyschool": 7550,
      "Ġobs": 7551,
      "Ġwardrobe": 7552,
      "Ġunusual": 7553,
      "Ġolives": 7554,
      "bel": 7555,
      "cad": 7556,
      "fing": 7557,
      "Ġih": 7558,
      "Ġmoth": 7559,
      "Ġpurr": 7560,
      "Ġfoo": 7561,
      "enter": 7562,
      "Ġstitch": 7563,
      "Ġstiff": 7564,
      "Ġcomed": 7565,
      "Ġtruth": 7566,
      "ĠGav": 7567,
      "Ġscales": 7568,
      "Ġwaited": 7569,
      "ĠOkay": 7570,
      "ĠRachael": 7571,
      "Ġwitches": 7572,
      "Ġmillions": 7573,
      "Ġcreatures": 7574,
      "knock": 7575,
      "Ġfingernails": 7576,
      "Ġexpress": 7577,
      "Ġdestr": 7578,
      "Ġeensie": 7579,
      "tes": 7580,
      "Ġtumble": 7581,
      "Ġpra": 7582,
      "itted": 7583,
      "ĠDog": 7584,
      "Ġboiling": 7585,
      "akie": 7586,
      "ĠNich": 7587,
      "Ġwaist": 7588,
      "ĠFran": 7589,
      "Ġshoel": 7590,
      "iley": 7591,
      "riet": 7592,
      "Ġinstruct": 7593,
      "ugged": 7594,
      "ĠGabby": 7595,
      "ĠJanet": 7596,
      "ĠLouise": 7597,
      "Ġspanking": 7598,
      "Ġflashlight": 7599,
      "Ġsniffing": 7600,
      "Ġphotographs": 7601,
      "party": 7602,
      "Ġweeds": 7603,
      "ĠTyrann": 7604,
      "Ġseason": 7605,
      "Ġnearer": 7606,
      "Ġastrona": 7607,
      "Ġtelescope": 7608,
      "Goggins": 7609,
      "Hood": 7610,
      "bed": 7611,
      "belt": 7612,
      "duh": 7613,
      "ients": 7614,
      "town": 7615,
      "xy": 7616,
      "Ġwight": 7617,
      "Ġyipp": 7618,
      "Ġram": 7619,
      "imi": 7620,
      "ĠCity": 7621,
      "Ġdrown": 7622,
      "Ġthingy": 7623,
      "Ġcombin": 7624,
      "phss": 7625,
      "ĠHong": 7626,
      "Ġsnatch": 7627,
      "Ġthrows": 7628,
      "Ġpushes": 7629,
      "Ġski": 7630,
      "Ġended": 7631,
      "Ġideas": 7632,
      "ĠGeorgia": 7633,
      "ĠNicholas": 7634,
      "Cola": 7635,
      "ique": 7636,
      "Ġigu": 7637,
      "Ġcell": 7638,
      "Ġcent": 7639,
      "ester": 7640,
      "oms": 7641,
      "Ġrag": 7642,
      "Ġstair": 7643,
      "veral": 7644,
      "Ġsailing": 7645,
      "Ġbust": 7646,
      "Ġmans": 7647,
      "Ġcatalog": 7648,
      "Ġseveral": 7649,
      "Ġpenis": 7650,
      "ippers": 7651,
      "Ġglug": 7652,
      "Ġtasted": 7653,
      "Ġwinning": 7654,
      "Ġmarkers": 7655,
      "Ġhuman": 7656,
      "Ġfemale": 7657,
      "Ġgrownups": 7658,
      "Ġpaddle": 7659,
      "ivity": 7660,
      "ĠKimber": 7661,
      "Street": 7662,
      "Ġinstruments": 7663,
      "Ġsignal": 7664,
      "Ġcaravan": 7665,
      "Cat": 7666,
      "haw": 7667,
      "Ġsesame": 7668,
      "Ġshield": 7669,
      "Ġbutcher": 7670,
      "Ġcarwash": 7671,
      "aba": 7672,
      "Ġelastic": 7673,
      "arts": 7674,
      "ĠRud": 7675,
      "phones": 7676,
      "Ġkindergarten": 7677,
      "Ġexper": 7678,
      "Ġbangs": 7679,
      "Ġresting": 7680,
      "Ġtickled": 7681,
      "Ġchickie": 7682,
      "Ġundone": 7683,
      "ĠCoco": 7684,
      "ĠMorag": 7685,
      "ĠMiriam": 7686,
      "ĠBlackpool": 7687,
      "DIA": 7688,
      "bu": 7689,
      "Ġitsy": 7690,
      "owel": 7691,
      "Ġrushing": 7692,
      "Ġblown": 7693,
      "ĠJas": 7694,
      "Ġanyways": 7695,
      "bert": 7696,
      "essa": 7697,
      "maid": 7698,
      "Ġunl": 7699,
      "Ġurgh": 7700,
      "Ġpigeons": 7701,
      "paper": 7702,
      "uf": 7703,
      "Ġvers": 7704,
      "Ġpairs": 7705,
      "Ġpips": 7706,
      "Ġpomp": 7707,
      "Ġut": 7708,
      "Ġstung": 7709,
      "itha": 7710,
      "Ġgoody": 7711,
      "ĠTall": 7712,
      "Ġofficer": 7713,
      "Ġpub": 7714,
      "ocus": 7715,
      "ĠRay": 7716,
      "Ġcolorful": 7717,
      "ahah": 7718,
      "Ġdiving": 7719,
      "Ġmightn": 7720,
      "Ġhanger": 7721,
      "Ġseaweed": 7722,
      "Ġhopefully": 7723,
      "Ġbrain": 7724,
      "Ġinvited": 7725,
      "Ġvitamins": 7726,
      "Ġheehee": 7727,
      "Ġcollege": 7728,
      "Day": 7729,
      "Ġver": 7730,
      "Ġtelet": 7731,
      "Ġtsk": 7732,
      "atty": 7733,
      "Ġcy": 7734,
      "Ġnerv": 7735,
      "Ġpac": 7736,
      "eng": 7737,
      "Ġjet": 7738,
      "iell": 7739,
      "Ġplop": 7740,
      "ĠBoots": 7741,
      "ggies": 7742,
      "Ġyelled": 7743,
      "ĠWes": 7744,
      "Ġmater": 7745,
      "Ġdribble": 7746,
      "Ġdingaling": 7747,
      "ensie": 7748,
      "Ġcockerel": 7749,
      "ĠCranky": 7750,
      "Ġcockad": 7751,
      "ergy": 7752,
      "Ġdiggers": 7753,
      "BET": 7754,
      "Ġteatime": 7755,
      "Ġnervous": 7756,
      "back": 7757,
      "dress": 7758,
      "Ġhint": 7759,
      "Ġoow": 7760,
      "ersey": 7761,
      "Ġloc": 7762,
      "Ġweensie": 7763,
      "Ġchess": 7764,
      "Ġplayroom": 7765,
      "Ġblast": 7766,
      "Ġsomers": 7767,
      "ĠLarry": 7768,
      "Ġflute": 7769,
      "Ġturkeys": 7770,
      "ogna": 7771,
      "Ġfinishing": 7772,
      "Ġpicky": 7773,
      "Ġtoybox": 7774,
      "Ġdryer": 7775,
      "ĠNaomi": 7776,
      "ĠZo": 7777,
      "Ġchanges": 7778,
      "Ġbeanbag": 7779,
      "ĠMorgie": 7780,
      "Ġduvet": 7781,
      "Ġtablets": 7782,
      "Ġcrowded": 7783,
      "Ġedges": 7784,
      "Ġsledge": 7785,
      "Ġspoil": 7786,
      "Ġdoub": 7787,
      "Ġbriefcase": 7788,
      "Ġgerbil": 7789,
      "cue": 7790,
      "drop": 7791,
      "Ġtheater": 7792,
      "Ġdjou": 7793,
      "Ġcaca": 7794,
      "Ġwhack": 7795,
      "Ġpest": 7796,
      "Ġpiles": 7797,
      "Ġshade": 7798,
      "arr": 7799,
      "imble": 7800,
      "Ġsoak": 7801,
      "Ġbobb": 7802,
      "ucks": 7803,
      "Ġoveralls": 7804,
      "ĠGu": 7805,
      "Ġwag": 7806,
      "Ġview": 7807,
      "Ġnights": 7808,
      "Ġmouthful": 7809,
      "izard": 7810,
      "uster": 7811,
      "COS": 7812,
      "Ġpolite": 7813,
      "Ġrunned": 7814,
      "Ġsmelling": 7815,
      "clop": 7816,
      "ĠVan": 7817,
      "Ġburgl": 7818,
      "Ġmarker": 7819,
      "Ġforehead": 7820,
      "Ġflags": 7821,
      "ĠAllen": 7822,
      "Ġrepair": 7823,
      "Ġabcs": 7824,
      "ĠAislin": 7825,
      "Ġunfortun": 7826,
      "Ġdestroy": 7827,
      "And": 7828,
      "SOP": 7829,
      "ued": 7830,
      "von": 7831,
      "Ġnummy": 7832,
      "ern": 7833,
      "Ġinches": 7834,
      "Ġraw": 7835,
      "Ġlily": 7836,
      "ĠMarm": 7837,
      "Ġhowever": 7838,
      "Ġdripped": 7839,
      "Ġagh": 7840,
      "Ġslap": 7841,
      "ĠHuckle": 7842,
      "ĠGrammy": 7843,
      "Ġsmallest": 7844,
      "Ġbooboo": 7845,
      "Ġsplit": 7846,
      "Ġlids": 7847,
      "Ġpinched": 7848,
      "ĠHarriet": 7849,
      "Ġphotos": 7850,
      "Ġtransm": 7851,
      "Ġvehicle": 7852,
      "Ġinstrument": 7853,
      "Ġruler": 7854,
      "ĠKimberly": 7855,
      "Ġdoubt": 7856,
      "ĠAislinn": 7857,
      "cul": 7858,
      "crack": 7859,
      "nips": 7860,
      "school": 7861,
      "wind": 7862,
      "Ġyolk": 7863,
      "ata": 7864,
      "Ġge": 7865,
      "Ġlah": 7866,
      "Ġlord": 7867,
      "idges": 7868,
      "Ġsteep": 7869,
      "ĠDick": 7870,
      "Ġcomere": 7871,
      "ĠTer": 7872,
      "ĠAme": 7873,
      "Ġahphss": 7874,
      "Ġbitsy": 7875,
      "Ġsmashing": 7876,
      "ĠWood": 7877,
      "ĠHow": 7878,
      "Ġkeeper": 7879,
      "Ġuseful": 7880,
      "Ġsnoo": 7881,
      "Ġstoryt": 7882,
      "Ġrecords": 7883,
      "Ġmailbox": 7884,
      "Ġhooked": 7885,
      "ĠDaniell": 7886,
      "Ġponytail": 7887,
      "Ġsimple": 7888,
      "Ġenvelopes": 7889,
      "Ġavoc": 7890,
      "Ġnorth": 7891,
      "Ġdaffodils": 7892,
      "Ġcheesy": 7893,
      "Ġhosepipe": 7894,
      "Ġinstructions": 7895,
      "GG": 7896,
      "guh": 7897,
      "mare": 7898,
      "Ġtesting": 7899,
      "Ġtore": 7900,
      "uroy": 7901,
      "ĠBelle": 7902,
      "ĠFrog": 7903,
      "ixie": 7904,
      "Ġcoin": 7905,
      "Ġstraighten": 7906,
      "Ġdreaming": 7907,
      "Ġsafely": 7908,
      "Ġgrapefruit": 7909,
      "Ġwoken": 7910,
      "ĠAfrica": 7911,
      "KKK": 7912,
      "Ġdomin": 7913,
      "iversity": 7914,
      "Ġvinegar": 7915,
      "ein": 7916,
      "Ġsigh": 7917,
      "Ġpouch": 7918,
      "Ġrang": 7919,
      "Ġbeating": 7920,
      "Ġlim": 7921,
      "Ġordin": 7922,
      "ĠSl": 7923,
      "Ġspee": 7924,
      "aboom": 7925,
      "Ġguest": 7926,
      "ĠHead": 7927,
      "Ġhairs": 7928,
      "Ġourselves": 7929,
      "uffs": 7930,
      "ĠKelly": 7931,
      "Ġstrings": 7932,
      "Ġteething": 7933,
      "ĠDadaji": 7934,
      "Ġrattles": 7935,
      "Ġcrunching": 7936,
      "Ġanswered": 7937,
      "Ġcontin": 7938,
      "Ġchalkboard": 7939,
      "ĠSleeping": 7940,
      "ival": 7941,
      "ĠNorth": 7942,
      "ĠClar": 7943,
      "drops": 7944,
      "Ġrules": 7945,
      "TTT": 7946,
      "Ġarmadillo": 7947,
      "Ġyippee": 7948,
      "win": 7949,
      "Ġoof": 7950,
      "Ġcentre": 7951,
      "Ġmaker": 7952,
      "vey": 7953,
      "Ġshaky": 7954,
      "Ġkaka": 7955,
      "ĠDay": 7956,
      "ĠDarren": 7957,
      "ĠCord": 7958,
      "Ġworn": 7959,
      "ĠRh": 7960,
      "Ġmeaning": 7961,
      "Ġdoorbell": 7962,
      "ĠKo": 7963,
      "Ġrooms": 7964,
      "Ġskipping": 7965,
      "ĠMargie": 7966,
      "ific": 7967,
      "ickety": 7968,
      "ĠScotland": 7969,
      "ĠGerman": 7970,
      "Ġcigarette": 7971,
      "Ġfacing": 7972,
      "Ġiguana": 7973,
      "ĠAmelia": 7974,
      "UID": 7975,
      "course": 7976,
      "ired": 7977,
      "oard": 7978,
      "Ġsy": 7979,
      "Ġdunk": 7980,
      "Ġmale": 7981,
      "Ġnn": 7982,
      "Ġdodie": 7983,
      "Ġfasc": 7984,
      "Ġrout": 7985,
      "Ġrich": 7986,
      "otty": 7987,
      "ality": 7988,
      "Ġbleep": 7989,
      "Ġsaving": 7990,
      "Ġbookcase": 7991,
      "Ġmmm": 7992,
      "ĠEva": 7993,
      "umper": 7994,
      "Ġdeh": 7995,
      "Ġnightmare": 7996,
      "Ġsquashing": 7997,
      "shire": 7998,
      "Ġmouths": 7999,
      "ĠSpan": 8000,
      "ĠShrek": 8001,
      "ĠMonsters": 8002,
      "ĠDenver": 8003,
      "Ġbologna": 8004,
      "ĠJoyce": 8005,
      "Ġponies": 8006,
      "Ġcoconut": 8007,
      "Ġshepherd": 8008,
      "Ġastronaut": 8009,
      "ĠDanielle": 8010,
      "Ġavocado": 8011,
      "Ġordinary": 8012,
      "Park": 8013,
      "tree": 8014,
      "wo": 8015,
      "Ġbey": 8016,
      "Ġstalk": 8017,
      "Ġrepe": 8018,
      "Ġjeez": 8019,
      "Ġnoteb": 8020,
      "Ġabra": 8021,
      "ĠSully": 8022,
      "ĠAsh": 8023,
      "ROY": 8024,
      "Ġenter": 8025,
      "Ġbuses": 8026,
      "Ġcozy": 8027,
      "Ġhandsome": 8028,
      "Ġbangad": 8029,
      "Ġbanjo": 8030,
      "ĠAndre": 8031,
      "Ġphew": 8032,
      "Ġfields": 8033,
      "Ġcheerio": 8034,
      "Ġstacking": 8035,
      "ĠEllen": 8036,
      "Ġvitamin": 8037,
      "Ġvolcan": 8038,
      "Ġsession": 8039,
      "ĠFarmer": 8040,
      "Ġnotebook": 8041,
      "HEI": 8042,
      "tin": 8043,
      "Ġtipping": 8044,
      "inge": 8045,
      "Ġtoss": 8046,
      "Ġweh": 8047,
      "Ġante": 8048,
      "ĠToy": 8049,
      "Ġbacks": 8050,
      "Ġaguh": 8051,
      "Ġmanners": 8052,
      "Ġarf": 8053,
      "Ġsnoring": 8054,
      "Ġsquiggly": 8055,
      "Ġeraser": 8056,
      "Ġhahaha": 8057,
      "Ġhammering": 8058,
      "Ġsplashed": 8059,
      "ĠLiza": 8060,
      "Ġlobsters": 8061,
      "Ġrule": 8062,
      "Ġcubes": 8063,
      "Ġmousie": 8064,
      "ĠLenita": 8065,
      "ĠTabitha": 8066,
      "Ġbangadrum": 8067,
      "MSS": 8068,
      "hones": 8069,
      "lor": 8070,
      "Ġgather": 8071,
      "Ġping": 8072,
      "Ġroot": 8073,
      "Ġkarate": 8074,
      "ĠMag": 8075,
      "Ġdidjou": 8076,
      "Ġspy": 8077,
      "ĠAust": 8078,
      "Ġtricer": 8079,
      "ulars": 8080,
      "Ġquill": 8081,
      "Ġtraining": 8082,
      "Ġticklish": 8083,
      "Ġsnowy": 8084,
      "Ġcardigan": 8085,
      "Ġfruits": 8086,
      "Ġsoftly": 8087,
      "Ġtaped": 8088,
      "Ġlollies": 8089,
      "Ġremote": 8090,
      "Ġtanker": 8091,
      "Ġcopying": 8092,
      "ĠBernard": 8093,
      "Ġgeneral": 8094,
      "Ġauber": 8095,
      "Ġllama": 8096,
      "Price": 8097,
      "Ġcombination": 8098,
      "Ġbeyond": 8099,
      "Bunny": 8100,
      "awn": 8101,
      "line": 8102,
      "reat": 8103,
      "Ġdub": 8104,
      "inny": 8105,
      "Ġfudge": 8106,
      "asag": 8107,
      "Ġrash": 8108,
      "ldow": 8109,
      "Ġdidldow": 8110,
      "Ġchih": 8111,
      "ĠTur": 8112,
      "inder": 8113,
      "Ġcarn": 8114,
      "Ġfris": 8115,
      "Ġnect": 8116,
      "Ġslim": 8117,
      "ĠLilly": 8118,
      "Ġwaterf": 8119,
      "ĠHat": 8120,
      "Ġpiglets": 8121,
      "whoo": 8122,
      "ddles": 8123,
      "Ġrainy": 8124,
      "Ġstraws": 8125,
      "bridge": 8126,
      "Ġheav": 8127,
      "Ġsprinkle": 8128,
      "Ġpoopie": 8129,
      "Ġgasped": 8130,
      "Ġchinese": 8131,
      "Ġbasically": 8132,
      "Ġcharacter": 8133,
      "Ġmarshmallows": 8134,
      "ĠSainsburys": 8135,
      "Ġstirring": 8136,
      "ĠGavin": 8137,
      "Ġunfortunately": 8138,
      "Ġtriceratops": 8139,
      "Ġnectar": 8140,
      "Controller": 8141,
      "HAN": 8142,
      "cow": 8143,
      "oad": 8144,
      "ooby": 8145,
      "east": 8146,
      "Ġkay": 8147,
      "erek": 8148,
      "Ġwanta": 8149,
      "aun": 8150,
      "ĠDerek": 8151,
      "Ġtweez": 8152,
      "ĠTam": 8153,
      "ĠPenny": 8154,
      "ĠAri": 8155,
      "Ġslam": 8156,
      "Ġslices": 8157,
      "gged": 8158,
      "elicopter": 8159,
      "Ġflu": 8160,
      "oodled": 8161,
      "oculars": 8162,
      "Ġlotta": 8163,
      "Ġrains": 8164,
      "Ġdriven": 8165,
      "Ġdragonfly": 8166,
      "ĠScar": 8167,
      "Ġmagnetic": 8168,
      "LIA": 8169,
      "ĠIndians": 8170,
      "eslie": 8171,
      "Ġmodel": 8172,
      "Ġslingsh": 8173,
      "Ann": 8174,
      "too": 8175,
      "Ġhickory": 8176,
      "Ġcau": 8177,
      "naway": 8178,
      "ĠMo": 8179,
      "Ġcarton": 8180,
      "ĠLeslie": 8181,
      "Ġcrooked": 8182,
      "Ġhandy": 8183,
      "Ġlightning": 8184,
      "Ġasks": 8185,
      "Ġdrivers": 8186,
      "Ġseahorse": 8187,
      "Ġmicrophones": 8188,
      "Ġdumptruck": 8189,
      "Ġsqueaks": 8190,
      "Ġaeroplanes": 8191,
      "Ġpacking": 8192,
      "bottle": 8193,
      "Ġalligators": 8194,
      "Ġmitten": 8195,
      "Ġpuffed": 8196,
      "Ġpresident": 8197,
      "Ġcuddly": 8198,
      "Ġsprinkler": 8199,
      "Ġmaterial": 8200,
      "ĠCorduroy": 8201,
      "Awww": 8202,
      "THA": 8203,
      "tor": 8204,
      "Ġtha": 8205,
      "Ġpooh": 8206,
      "ari": 8207,
      "Ġevent": 8208,
      "Ġtravel": 8209,
      "Ġhairy": 8210,
      "Ġsnowball": 8211,
      "Ġfasten": 8212,
      "Ġfarmy": 8213,
      "ĠStan": 8214,
      "Ġlollipops": 8215,
      "Ġnibble": 8216,
      "Ġbaloney": 8217,
      "Ġruin": 8218,
      "ĠEnglish": 8219,
      "Ġlatte": 8220,
      "Ġbarbecue": 8221,
      "ĠTallulah": 8222,
      "buh": 8223,
      "cases": 8224,
      "gown": 8225,
      "ural": 8226,
      "Ġbitten": 8227,
      "Ġcenter": 8228,
      "chan": 8229,
      "Ġsteg": 8230,
      "Ġfort": 8231,
      "Ġwellies": 8232,
      "Ġbecame": 8233,
      "ĠTar": 8234,
      "Ġaboard": 8235,
      "olph": 8236,
      "Ġtrape": 8237,
      "ĠChin": 8238,
      "ĠRod": 8239,
      "Ġenergy": 8240,
      "Ġmince": 8241,
      "shop": 8242,
      "ELA": 8243,
      "Ġyoga": 8244,
      "ĠChrista": 8245,
      "Ġgrownup": 8246,
      "Ġattic": 8247,
      "Ġhunting": 8248,
      "Ġparticularly": 8249,
      "ĠPeggy": 8250,
      "Ġcranberry": 8251,
      "Ġprefers": 8252,
      "Ġtweezers": 8253,
      "bal": 8254,
      "gin": 8255,
      "ikey": 8256,
      "Ġsouth": 8257,
      "Ġmiles": 8258,
      "Ġnugg": 8259,
      "Ġpau": 8260,
      "Ġing": 8261,
      "Ġali": 8262,
      "ĠJones": 8263,
      "abra": 8264,
      "ĠThere": 8265,
      "ĠNate": 8266,
      "ĠLady": 8267,
      "Ġtoward": 8268,
      "ĠOwww": 8269,
      "Ġdaddies": 8270,
      "Ġpeeking": 8271,
      "ubbie": 8272,
      "Ġconstr": 8273,
      "ĠStella": 8274,
      "Ġslipping": 8275,
      "Ġdumped": 8276,
      "uzzy": 8277,
      "Ġcombing": 8278,
      "Ġparrots": 8279,
      "ĠSwiper": 8280,
      "ĠBooboo": 8281,
      "Ġwrest": 8282,
      "Ġdecorations": 8283,
      "ĠRonnie": 8284,
      "ĠKenn": 8285,
      "Ġskateboard": 8286,
      "Ġpleasant": 8287,
      "Ġescap": 8288,
      "Ġjewel": 8289,
      "ĠJoshua": 8290,
      "Ġgrasshopper": 8291,
      "Ġteletubbies": 8292,
      "Ġbangadrumtime": 8293,
      "Ġfarmyard": 8294,
      "Rod": 8295,
      "goo": 8296,
      "num": 8297,
      "ĠMamma": 8298,
      "Ġchute": 8299,
      "Ġchores": 8300,
      "Ġfried": 8301,
      "ĠJem": 8302,
      "eadow": 8303,
      "Ġscreen": 8304,
      "ashion": 8305,
      "Ġtablecloth": 8306,
      "Ġmothers": 8307,
      "Ġbinoculars": 8308,
      "Ġpaste": 8309,
      "Ġmadam": 8310,
      "Ġracecar": 8311,
      "Ġstriped": 8312,
      "ĠBabar": 8313,
      "Ġrunaway": 8314,
      "Ġmermaid": 8315,
      "ĠRenee": 8316,
      "Ġsnipsnips": 8317,
      "ĠMarmite": 8318,
      "Pot": 8319,
      "noo": 8320,
      "uation": 8321,
      "Ġwad": 8322,
      "oul": 8323,
      "Ġicky": 8324,
      "Ġsight": 8325,
      "Ġpun": 8326,
      "Ġfences": 8327,
      "orice": 8328,
      "arily": 8329,
      "Ġreck": 8330,
      "Ġshelves": 8331,
      "Ġchilly": 8332,
      "Ġoutdoor": 8333,
      "Ġhero": 8334,
      "Ġtrot": 8335,
      "Ġagg": 8336,
      "Ġbumpity": 8337,
      "Ġwallet": 8338,
      "ĠPoohbear": 8339,
      "CAM": 8340,
      "Ġsports": 8341,
      "Ġteaspoon": 8342,
      "ĠBeehive": 8343,
      "Ġprickly": 8344,
      "bob": 8345,
      "dered": 8346,
      "ki": 8347,
      "nor": 8348,
      "Ġtush": 8349,
      "Ġhopped": 8350,
      "Ġcine": 8351,
      "Ġcmere": 8352,
      "Ġnen": 8353,
      "nah": 8354,
      "Ġchili": 8355,
      "ĠSk": 8356,
      "ĠCoke": 8357,
      "Ġflaps": 8358,
      "ĠEarth": 8359,
      "gery": 8360,
      "Ġstripe": 8361,
      "Ġquicker": 8362,
      "Ġloaf": 8363,
      "Ġpooey": 8364,
      "Ġreaching": 8365,
      "ĠMaria": 8366,
      "Ġfairly": 8367,
      "ĠStef": 8368,
      "ĠBenny": 8369,
      "Ġstorys": 8370,
      "Ġbrakes": 8371,
      "Ġmending": 8372,
      "Ġsquished": 8373,
      "Ġduke": 8374,
      "ĠFreddy": 8375,
      "ĠLynne": 8376,
      "Ġconcert": 8377,
      "Ġspanish": 8378,
      "Ġchosen": 8379,
      "Ġrefle": 8380,
      "Ġliquid": 8381,
      "Ġbulb": 8382,
      "Clues": 8383,
      "Ġtrampoline": 8384,
      "ĠVanessa": 8385,
      "Ġfascin": 8386,
      "Ġfrisbee": 8387,
      "Ġstegosaurus": 8388,
      "ĠChinese": 8389,
      "Ġcinema": 8390,
      "done": 8391,
      "sa": 8392,
      "Ġent": 8393,
      "Ġsets": 8394,
      "Ġdet": 8395,
      "Ġmonday": 8396,
      "Ġudder": 8397,
      "nake": 8398,
      "adie": 8399,
      "Ġsheets": 8400,
      "Ġbroked": 8401,
      "ĠAnt": 8402,
      "Ġslugs": 8403,
      "ĠLi": 8404,
      "Ġcomm": 8405,
      "Ġmint": 8406,
      "Ġmornings": 8407,
      "Ġwheelie": 8408,
      "Ġsaucers": 8409,
      "Ġcatches": 8410,
      "Ġsheeps": 8411,
      "Ġdriveway": 8412,
      "ĠShe": 8413,
      "Ġtighten": 8414,
      "Ġsmiley": 8415,
      "Ġsucking": 8416,
      "Ġsweatshirt": 8417,
      "Ġdirections": 8418,
      "Ġankle": 8419,
      "Ġfrustrated": 8420,
      "Book": 8421,
      "ha": 8422,
      "ros": 8423,
      "Ġdamp": 8424,
      "Ġdock": 8425,
      "Ġfir": 8426,
      "Ġfuck": 8427,
      "Ġfunn": 8428,
      "Ġrewind": 8429,
      "ĠCle": 8430,
      "ababy": 8431,
      "Ġclop": 8432,
      "Ġclunk": 8433,
      "Ġhears": 8434,
      "Ġappre": 8435,
      "ĠOre": 8436,
      "Ġwarmer": 8437,
      "Ġmiser": 8438,
      "ĠJenell": 8439,
      "uggl": 8440,
      "Ġsprouts": 8441,
      "Ġpassing": 8442,
      "Ġfreight": 8443,
      "ĠGabe": 8444,
      "Ġsmoothie": 8445,
      "Ġexpecting": 8446,
      "Ġdistur": 8447,
      "Ġreturn": 8448,
      "Ġcharacters": 8449,
      "ycling": 8450,
      "AM": 8451,
      "ca": 8452,
      "net": 8453,
      "Ġsill": 8454,
      "athing": 8455,
      "Ġlasag": 8456,
      "Ġfiddle": 8457,
      "chu": 8458,
      "ĠCra": 8459,
      "uey": 8460,
      "ĠLassie": 8461,
      "Ġcomma": 8462,
      "Ġflakes": 8463,
      "isey": 8464,
      "Ġrolly": 8465,
      "Ġbeeb": 8466,
      "Ġmarry": 8467,
      "Ġchewed": 8468,
      "Ġspotted": 8469,
      "Ġgumdrops": 8470,
      "Ġbabysitter": 8471,
      "Ġpointy": 8472,
      "Ġcomplain": 8473,
      "ĠAllison": 8474,
      "ĠFrostie": 8475,
      "Ġmosquito": 8476,
      "Ġinsects": 8477,
      "ĠHorton": 8478,
      "Ġtransmitter": 8479,
      "dock": 8480,
      "use": 8481,
      "udd": 8482,
      "ware": 8483,
      "Ġiced": 8484,
      "Ġgoal": 8485,
      "Ġnom": 8486,
      "Ġka": 8487,
      "aup": 8488,
      "ittles": 8489,
      "osed": 8490,
      "Ġslight": 8491,
      "zzle": 8492,
      "Ġsnapped": 8493,
      "Ġbumping": 8494,
      "Ġdadada": 8495,
      "ountain": 8496,
      "Ġbuckets": 8497,
      "ifier": 8498,
      "Ġpills": 8499,
      "ĠAlan": 8500,
      "Ġkangaroos": 8501,
      "Ġhills": 8502,
      "Ġflatten": 8503,
      "Ġgentleman": 8504,
      "Ġtripod": 8505,
      "Ġimpressed": 8506,
      "Ġpegs": 8507,
      "ĠNeil": 8508,
      "Ġdandelion": 8509,
      "Ġbarrier": 8510,
      "Ġledge": 8511,
      "ĠWilbur": 8512,
      "Ġappreci": 8513,
      "rie": 8514,
      "Ġdoin": 8515,
      "nam": 8516,
      "ĠMoo": 8517,
      "ĠMaine": 8518,
      "Ġrevers": 8519,
      "Ġalt": 8520,
      "Ġswap": 8521,
      "Ġpuddles": 8522,
      "Ġpriv": 8523,
      "ogether": 8524,
      "ĠHaw": 8525,
      "Ġtomatos": 8526,
      "Ġtender": 8527,
      "Ġteddys": 8528,
      "Ġcounted": 8529,
      "Ġpox": 8530,
      "ĠShadow": 8531,
      "Ġseatbelt": 8532,
      "Ġfreeze": 8533,
      "Ġfolding": 8534,
      "Ġbeanstalk": 8535,
      "Ġwrecked": 8536,
      "Ġdepartment": 8537,
      "Ġsneezed": 8538,
      "ĠGerald": 8539,
      "Ġbolts": 8540,
      "Ġashes": 8541,
      "ĠGrampa": 8542,
      "Ġpsst": 8543,
      "Ġaubergine": 8544,
      "KRI": 8545,
      "du": 8546,
      "not": 8547,
      "Ġthursday": 8548,
      "Ġoccas": 8549,
      "Ġdying": 8550,
      "Ġnarrow": 8551,
      "erve": 8552,
      "orth": 8553,
      "asaurus": 8554,
      "alo": 8555,
      "ells": 8556,
      "Ġbrm": 8557,
      "ĠCor": 8558,
      "Ġclues": 8559,
      "ĠFox": 8560,
      "TER": 8561,
      "ĠRex": 8562,
      "Ġsmoking": 8563,
      "Ġvoices": 8564,
      "Ġexh": 8565,
      "Ġdrawed": 8566,
      "ungle": 8567,
      "Ġfootprints": 8568,
      "Ġspotty": 8569,
      "Ġpetals": 8570,
      "Ġsuitcases": 8571,
      "Ġrats": 8572,
      "Ġcheerios": 8573,
      "Ġbalanc": 8574,
      "Ġunhappy": 8575,
      "Ġleaning": 8576,
      "Ġgerms": 8577,
      "Ġdamn": 8578,
      "Ġgiggles": 8579,
      "Ġadventure": 8580,
      "Ġspeech": 8581,
      "Ġvolcano": 8582,
      "Ġreckon": 8583,
      "Ġmiserable": 8584,
      "Tim": 8585,
      "uw": 8586,
      "Ġome": 8587,
      "Ġnip": 8588,
      "isandy": 8589,
      "Ġshook": 8590,
      "Ġshorter": 8591,
      "stein": 8592,
      "Ġallow": 8593,
      "byes": 8594,
      "ĠTot": 8595,
      "ĠCyr": 8596,
      "ĠPower": 8597,
      "ĠJere": 8598,
      "Ġbreast": 8599,
      "Ġscale": 8600,
      "Ġchef": 8601,
      "Ġmatt": 8602,
      "ĠMaisey": 8603,
      "apped": 8604,
      "Ġmedium": 8605,
      "leton": 8606,
      "ĠSmith": 8607,
      "Ġwiggily": 8608,
      "ilson": 8609,
      "ĠMcdonald": 8610,
      "Ġmixture": 8611,
      "Ġsafety": 8612,
      "Ġseashore": 8613,
      "ĠSpanish": 8614,
      "amy": 8615,
      "moo": 8616,
      "Ġbins": 8617,
      "Ġmate": 8618,
      "Ġnere": 8619,
      "Ġgoin": 8620,
      "eady": 8621,
      "Ġforce": 8622,
      "Ġbok": 8623,
      "ĠApple": 8624,
      "Ġtrave": 8625,
      "Ġhappily": 8626,
      "osy": 8627,
      "ĠChuck": 8628,
      "Ġhatch": 8629,
      "ordan": 8630,
      "acty": 8631,
      "Ġunz": 8632,
      "Ġstores": 8633,
      "visible": 8634,
      "Ġribbons": 8635,
      "Ġmushy": 8636,
      "ĠKaty": 8637,
      "ĠDiane": 8638,
      "Ġdalmatian": 8639,
      "Ġcooper": 8640,
      "Mc": 8641,
      "bing": 8642,
      "talk": 8643,
      "Ġwig": 8644,
      "Ġdy": 8645,
      "Ġgap": 8646,
      "Ġlic": 8647,
      "Ġlicked": 8648,
      "Ġkaboom": 8649,
      "vert": 8650,
      "Ġchuck": 8651,
      "illou": 8652,
      "Ġspoke": 8653,
      "ĠPas": 8654,
      "Ġclam": 8655,
      "ĠGopher": 8656,
      "eetah": 8657,
      "ĠFrances": 8658,
      "Ġchem": 8659,
      "aga": 8660,
      "ĠKitty": 8661,
      "Ġguessing": 8662,
      "Ġbumper": 8663,
      "ĠVict": 8664,
      "Ġpropeller": 8665,
      "Ġcovering": 8666,
      "Ġphss": 8667,
      "ĠCrash": 8668,
      "Ġstamping": 8669,
      "Ġtypes": 8670,
      "Ġvideos": 8671,
      "Ġdreamed": 8672,
      "Ġsixth": 8673,
      "Ġimagination": 8674,
      "Ġswitched": 8675,
      "ĠItaly": 8676,
      "Ġpickyaup": 8677,
      "King": 8678,
      "Ther": 8679,
      "peep": 8680,
      "Ġbod": 8681,
      "Ġdod": 8682,
      "Ġpuh": 8683,
      "Ġinvisible": 8684,
      "arian": 8685,
      "ĠMass": 8686,
      "Ġplaydough": 8687,
      "ickie": 8688,
      "Ġblame": 8689,
      "Ġbloody": 8690,
      "ĠEvan": 8691,
      "Ġintrod": 8692,
      "Ġwrigg": 8693,
      "Ġdaytime": 8694,
      "ĠWay": 8695,
      "ĠHulk": 8696,
      "Ġschools": 8697,
      "ĠKirst": 8698,
      "Ġwashcloth": 8699,
      "uga": 8700,
      "Ġbeast": 8701,
      "Ġrecorded": 8702,
      "asket": 8703,
      "ika": 8704,
      "Ġcollected": 8705,
      "Ġpeeling": 8706,
      "Ġscreamed": 8707,
      "ĠCaillou": 8708,
      "Ġgenerally": 8709,
      "Ġescape": 8710,
      "ointment": 8711,
      "ĠMacDonalds": 8712,
      "ĠGumdrop": 8713,
      "Ġmmhhmm": 8714,
      "Ġwaterfall": 8715,
      "ĠCyril": 8716,
      "Wo": 8717,
      "hole": 8718,
      "vie": 8719,
      "Ġtan": 8720,
      "Ġske": 8721,
      "Ġcass": 8722,
      "Ġheel": 8723,
      "Ġinject": 8724,
      "lebr": 8725,
      "adger": 8726,
      "othing": 8727,
      "Ġchopped": 8728,
      "Ġbridges": 8729,
      "Ġorig": 8730,
      "ĠSouth": 8731,
      "ĠSadie": 8732,
      "ivered": 8733,
      "Ġbuys": 8734,
      "Ġmuah": 8735,
      "ossed": 8736,
      "ĠChatty": 8737,
      "ĠGriz": 8738,
      "Ġaction": 8739,
      "Ġfeets": 8740,
      "Ġclimbs": 8741,
      "Ġengineer": 8742,
      "Ġpostc": 8743,
      "Ġpatter": 8744,
      "Ġwoolly": 8745,
      "Ġraise": 8746,
      "Ġfolded": 8747,
      "idedown": 8748,
      "Ġmeals": 8749,
      "Ġexplore": 8750,
      "Ġcelebr": 8751,
      "Ġluckily": 8752,
      "Ġpedal": 8753,
      "ĠCanada": 8754,
      "DOU": 8755,
      "Ġcheap": 8756,
      "Ġaltogether": 8757,
      "Ġmattress": 8758,
      "Br": 8759,
      "kat": 8760,
      "pat": 8761,
      "Ġdoc": 8762,
      "Ġling": 8763,
      "Ġkings": 8764,
      "ĠMimi": 8765,
      "Ġstri": 8766,
      "ĠTay": 8767,
      "Ġalike": 8768,
      "Ġtrim": 8769,
      "ĠLand": 8770,
      "becca": 8771,
      "Ġhandbag": 8772,
      "Ġkee": 8773,
      "Ġdei": 8774,
      "Ġyai": 8775,
      "Ġlighter": 8776,
      "Ġnurses": 8777,
      "toes": 8778,
      "Ġburgers": 8779,
      "Ġupsidedown": 8780,
      "Ġresp": 8781,
      "Ġshrimp": 8782,
      "ĠRebecca": 8783,
      "Ġtutu": 8784,
      "Ġshaving": 8785,
      "Ġsensible": 8786,
      "AMY": 8787,
      "Ġreversing": 8788,
      "AL": 8789,
      "avers": 8790,
      "kie": 8791,
      "view": 8792,
      "we": 8793,
      "Ġsile": 8794,
      "Ġcases": 8795,
      "Ġrumm": 8796,
      "Ġjoy": 8797,
      "Ġsoaking": 8798,
      "ĠTick": 8799,
      "Ġwhyn": 8800,
      "ĠPan": 8801,
      "ĠAid": 8802,
      "Ġreds": 8803,
      "ĠRog": 8804,
      "Ġdaycare": 8805,
      "Ġvoom": 8806,
      "avy": 8807,
      "Ġharbor": 8808,
      "Ġparach": 8809,
      "Ġknocks": 8810,
      "Ġsplat": 8811,
      "Ġsodas": 8812,
      "Ġtransp": 8813,
      "Ġdamage": 8814,
      "ĠTimothy": 8815,
      "Ġunderwater": 8816,
      "Ġbomb": 8817,
      "ĠJoanne": 8818,
      "ĠTellyt": 8819,
      "Ġanteater": 8820,
      "Ġconstruction": 8821,
      "Bl": 8822,
      "Riding": 8823,
      "cro": 8824,
      "Ġtou": 8825,
      "Ġada": 8826,
      "Ġmie": 8827,
      "Ġwhew": 8828,
      "Ġnoone": 8829,
      "ayla": 8830,
      "asy": 8831,
      "iddles": 8832,
      "cho": 8833,
      "Ġmechan": 8834,
      "umes": 8835,
      "icated": 8836,
      "Ġjell": 8837,
      "Ġplugged": 8838,
      "rag": 8839,
      "ellow": 8840,
      "ĠDel": 8841,
      "olice": 8842,
      "abl": 8843,
      "ankie": 8844,
      "Ġneedles": 8845,
      "Ġagree": 8846,
      "obble": 8847,
      "Ġwont": 8848,
      "Ġdevel": 8849,
      "Ġdollys": 8850,
      "Ġeyel": 8851,
      "Ġlighthouse": 8852,
      "Ġgrandfather": 8853,
      "ĠZach": 8854,
      "Ġpersonality": 8855,
      "Ġwooly": 8856,
      "ĠMarc": 8857,
      "Ġcompost": 8858,
      "ymb": 8859,
      "Ġobject": 8860,
      "Ġmagazines": 8861,
      "Ġbonfire": 8862,
      "Ġghosts": 8863,
      "Ġpalace": 8864,
      "Ġrotten": 8865,
      "ĠBaloo": 8866,
      "tweet": 8867,
      "Night": 8868,
      "long": 8869,
      "Ġts": 8870,
      "rees": 8871,
      "Ġmeadow": 8872,
      "Ġruh": 8873,
      "Ġrosie": 8874,
      "ooky": 8875,
      "Ġdonkeys": 8876,
      "ĠMiles": 8877,
      "odod": 8878,
      "Ġchu": 8879,
      "illas": 8880,
      "uncan": 8881,
      "oln": 8882,
      "ĠFre": 8883,
      "eener": 8884,
      "ĠRocky": 8885,
      "Ġscene": 8886,
      "ĠWilly": 8887,
      "Ġticktock": 8888,
      "izzly": 8889,
      "Ġpolicemen": 8890,
      "Ġpaintbrush": 8891,
      "ĠVir": 8892,
      "guard": 8893,
      "Ġbounces": 8894,
      "Ġsnaps": 8895,
      "Ġterm": 8896,
      "Ġtyre": 8897,
      "Ġshoots": 8898,
      "ĠWhere": 8899,
      "Ġseventh": 8900,
      "ĠGreen": 8901,
      "Ġhydr": 8902,
      "Ġweights": 8903,
      "ĠSimple": 8904,
      "inkerbell": 8905,
      "ĠMillisandy": 8906,
      "Ġnecessarily": 8907,
      "ĠPinoc": 8908,
      "ĠTyrannosaurus": 8909,
      "Ġsomersault": 8910,
      "Ġmieow": 8911,
      "Pocket": 8912,
      "birds": 8913,
      "gor": 8914,
      "kong": 8915,
      "Ġbitty": 8916,
      "Ġfussy": 8917,
      "nack": 8918,
      "Ġjars": 8919,
      "Ġbrrr": 8920,
      "usse": 8921,
      "ĠColl": 8922,
      "ĠCric": 8923,
      "ĠCandy": 8924,
      "ounder": 8925,
      "ĠJungle": 8926,
      "Ġclips": 8927,
      "eps": 8928,
      "ulous": 8929,
      "Ġcranky": 8930,
      "Ġturntable": 8931,
      "Ġvi": 8932,
      "ĠKer": 8933,
      "ship": 8934,
      "Ġraincoat": 8935,
      "Ġpizzas": 8936,
      "Ġconst": 8937,
      "ĠUs": 8938,
      "Ġbouncie": 8939,
      "Ġdumping": 8940,
      "Ġpetal": 8941,
      "Ġjammies": 8942,
      "cadabra": 8943,
      "Ġjewelry": 8944,
      "ĠPinocchio": 8945,
      "BOB": 8946,
      "Rex": 8947,
      "bone": 8948,
      "dub": 8949,
      "hoo": 8950,
      "Ġtah": 8951,
      "Ġtoen": 8952,
      "ĠMex": 8953,
      "Ġcheetah": 8954,
      "ĠDean": 8955,
      "using": 8956,
      "Ġbloom": 8957,
      "ĠGus": 8958,
      "ĠGlen": 8959,
      "Ġcommer": 8960,
      "Ġbreathing": 8961,
      "Ġwrink": 8962,
      "Ġgrate": 8963,
      "rika": 8964,
      "Ġsandpit": 8965,
      "Ġfarmers": 8966,
      "Ġdresser": 8967,
      "Ġposter": 8968,
      "ĠMarty": 8969,
      "Ġpassion": 8970,
      "ĠGrace": 8971,
      "ĠMarks": 8972,
      "ĠPinga": 8973,
      "Ġloader": 8974,
      "incoln": 8975,
      "Ġcostumes": 8976,
      "Ġshots": 8977,
      "ĠConnor": 8978,
      "Ġdistract": 8979,
      "Ġinteract": 8980,
      "Ġbossy": 8981,
      "Ġsqueezing": 8982,
      "ĠDuke": 8983,
      "Ġmelting": 8984,
      "Ġcockadoodled": 8985,
      "Ġtoenail": 8986,
      "WO": 8987,
      "iy": 8988,
      "jack": 8989,
      "okes": 8990,
      "Ġthimble": 8991,
      "Ġhuff": 8992,
      "Ġsch": 8993,
      "Ġsus": 8994,
      "itive": 8995,
      "stem": 8996,
      "ading": 8997,
      "Ġjohn": 8998,
      "Ġpla": 8999,
      "ellers": 9000,
      "ĠTadi": 9001,
      "SIL": 9002,
      "ĠPizz": 9003,
      "ĠJup": 9004,
      "abix": 9005,
      "ĠLord": 9006,
      "Ġshown": 9007,
      "Ġwalker": 9008,
      "ubbard": 9009,
      "Ġvisited": 9010,
      "Ġbabysit": 9011,
      "Ġfrying": 9012,
      "Ġfabulous": 9013,
      "fingers": 9014,
      "Ġcarnival": 9015,
      "Ġoccasion": 9016,
      "Ġdevelop": 9017,
      "ĠCricter": 9018,
      "ĠJupiter": 9019,
      "Centre": 9020,
      "gue": 9021,
      "wen": 9022,
      "Ġwound": 9023,
      "Ġyee": 9024,
      "Ġbink": 9025,
      "Ġcubby": 9026,
      "Ġwhady": 9027,
      "Ġlaces": 9028,
      "Ġhav": 9029,
      "Ġships": 9030,
      "Ġray": 9031,
      "Ġmember": 9032,
      "Ġbald": 9033,
      "Ġwithin": 9034,
      "Ġchunk": 9035,
      "ĠCount": 9036,
      "ĠBoy": 9037,
      "Ġanyhow": 9038,
      "ĠRory": 9039,
      "Ġsmacked": 9040,
      "agu": 9041,
      "ĠWeener": 9042,
      "Ġamong": 9043,
      "Ġsawing": 9044,
      "Ġwinding": 9045,
      "Ġpeekababy": 9046,
      "Ġdarker": 9047,
      "Ġclocks": 9048,
      "Ġfootballs": 9049,
      "Ġcurl": 9050,
      "icycles": 9051,
      "Ġwhistles": 9052,
      "Ġcollection": 9053,
      "Ġtubby": 9054,
      "chocs": 9055,
      "ĠCalpol": 9056,
      "Ġopposites": 9057,
      "Ġnuis": 9058,
      "Ġlittler": 9059,
      "Ġstitches": 9060,
      "Bill": 9061,
      "KIM": 9062,
      "field": 9063,
      "gli": 9064,
      "Ġtep": 9065,
      "Ġbilly": 9066,
      "Ġcape": 9067,
      "Ġmucky": 9068,
      "Ġlugg": 9069,
      "Ġleader": 9070,
      "igade": 9071,
      "Ġrar": 9072,
      "Ġdont": 9073,
      "irly": 9074,
      "Ġjudge": 9075,
      "Ġchief": 9076,
      "ĠDig": 9077,
      "olog": 9078,
      "Ġblick": 9079,
      "ults": 9080,
      "ĠRock": 9081,
      "Ġscan": 9082,
      "Ġscore": 9083,
      "Ġsnotty": 9084,
      "Ġspoonful": 9085,
      "Ġrecycling": 9086,
      "Ġhammers": 9087,
      "Ġexcused": 9088,
      "Ġdelivered": 9089,
      "Ġcuz": 9090,
      "Ġninth": 9091,
      "Ġcollap": 9092,
      "Ġcompared": 9093,
      "Ġnae": 9094,
      "Ġsmiled": 9095,
      "Ġsells": 9096,
      "Ġrails": 9097,
      "puzzles": 9098,
      "ĠGoldie": 9099,
      "Ġspraying": 9100,
      "Ġneighborhood": 9101,
      "ĠAmerican": 9102,
      "Ġmentioned": 9103,
      "ĠMeike": 9104,
      "Ġrescued": 9105,
      "Ġoutdoors": 9106,
      "ĠPascal": 9107,
      "Ġnuisance": 9108,
      "Linda": 9109,
      "Rabbit": 9110,
      "STE": 9111,
      "Wow": 9112,
      "hee": 9113,
      "rk": 9114,
      "Ġwod": 9115,
      "Ġwarn": 9116,
      "atory": 9117,
      "Ġcork": 9118,
      "Ġfog": 9119,
      "Ġfountain": 9120,
      "seat": 9121,
      "Ġincl": 9122,
      "Ġker": 9123,
      "sticks": 9124,
      "Ġknight": 9125,
      "urf": 9126,
      "Ġgoods": 9127,
      "ĠTan": 9128,
      "ĠTank": 9129,
      "Ġgrouch": 9130,
      "Ġeggy": 9131,
      "ĠKleenex": 9132,
      "Ġuncom": 9133,
      "Ġbaskets": 9134,
      "Ġpatting": 9135,
      "ĠVas": 9136,
      "Ġsuits": 9137,
      "Ġeventually": 9138,
      "FR": 9139,
      "Pig": 9140,
      "don": 9141,
      "Ġyouse": 9142,
      "Ġdiesel": 9143,
      "Ġmower": 9144,
      "Ġwhining": 9145,
      "ĠIris": 9146,
      "ooo": 9147,
      "nap": 9148,
      "ĠMow": 9149,
      "amingo": 9150,
      "ĠTor": 9151,
      "ĠSta": 9152,
      "ĠPee": 9153,
      "Ġmaked": 9154,
      "Ġswamp": 9155,
      "Ġalrightie": 9156,
      "Ġappointment": 9157,
      "Ġbadger": 9158,
      "Ġbeauty": 9159,
      "unde": 9160,
      "ĠAlec": 9161,
      "Ġpooping": 9162,
      "Ġclearly": 9163,
      "Ġhallway": 9164,
      "Ġhealth": 9165,
      "abouts": 9166,
      "Ġpleasure": 9167,
      "ĠPotter": 9168,
      "Ġpacifier": 9169,
      "dresser": 9170,
      "Ġsystem": 9171,
      "ĠJeremy": 9172,
      "Baby": 9173,
      "Farm": 9174,
      "hill": 9175,
      "lee": 9176,
      "winky": 9177,
      "zed": 9178,
      "Ġbashed": 9179,
      "Ġcw": 9180,
      "Ġwhom": 9181,
      "Ġnips": 9182,
      "Ġloops": 9183,
      "ĠMerc": 9184,
      "ĠMikey": 9185,
      "Ġmyster": 9186,
      "Ġallerg": 9187,
      "Ġchrist": 9188,
      "ury": 9189,
      "urts": 9190,
      "ĠCupid": 9191,
      "ĠBrend": 9192,
      "ĠParent": 9193,
      "ĠGree": 9194,
      "Ġargh": 9195,
      "Ġtrained": 9196,
      "Ġscience": 9197,
      "Ġcheat": 9198,
      "ager": 9199,
      "Ġcooks": 9200,
      "Ġsnout": 9201,
      "izing": 9202,
      "Ġcracking": 9203,
      "Ġstepmother": 9204,
      "Ġburied": 9205,
      "ĠMichigan": 9206,
      "ĠMichele": 9207,
      "Ġmeatballs": 9208,
      "Ġlearnt": 9209,
      "Ġstorage": 9210,
      "Ġadult": 9211,
      "Ġsqueaking": 9212,
      "Ġbuzzing": 9213,
      "Ġbands": 9214,
      "Ġsending": 9215,
      "Ġbudgie": 9216,
      "Ġsucker": 9217,
      "Ġrascal": 9218,
      "iddly": 9219,
      "Ġsubmar": 9220,
      "Ġsparkly": 9221,
      "Ġrelative": 9222,
      "Ġsurfing": 9223,
      "Ġsprinkles": 9224,
      "Ġcreepy": 9225,
      "Ġvelcro": 9226,
      "Ġappreciate": 9227,
      "Ġomelet": 9228,
      "ĠMowgli": 9229,
      "Gre": 9230,
      "hop": 9231,
      "ville": 9232,
      "Ġtal": 9233,
      "Ġdang": 9234,
      "iner": 9235,
      "Ġgit": 9236,
      "Ġdozen": 9237,
      "Ġgoog": 9238,
      "Ġstab": 9239,
      "Ġwhereabouts": 9240,
      "odger": 9241,
      "ility": 9242,
      "Ġblub": 9243,
      "ĠSug": 9244,
      "geant": 9245,
      "ĠNell": 9246,
      "ĠRap": 9247,
      "Ġsurely": 9248,
      "Ġlongest": 9249,
      "ummies": 9250,
      "uba": 9251,
      "Ġrecipe": 9252,
      "play": 9253,
      "Ġdais": 9254,
      "Ġstaring": 9255,
      "Ġwallpaper": 9256,
      "Ġspeci": 9257,
      "Ġwoofwoof": 9258,
      "ehe": 9259,
      "ĠShaun": 9260,
      "Ġterms": 9261,
      "roach": 9262,
      "Ġattract": 9263,
      "Ġcougar": 9264,
      "Ġgrabbing": 9265,
      "Ġfooling": 9266,
      "Ġjuggle": 9267,
      "Ġconcentrating": 9268,
      "Ġincred": 9269,
      "Ġtransporter": 9270,
      "DEN": 9271,
      "rat": 9272,
      "Ġavenue": 9273,
      "Ġtherm": 9274,
      "Ġsieve": 9275,
      "Ġdea": 9276,
      "Ġdances": 9277,
      "Ġges": 9278,
      "Ġgop": 9279,
      "Ġfear": 9280,
      "Ġfisher": 9281,
      "itation": 9282,
      "Ġsher": 9283,
      "Ġshakes": 9284,
      "Ġev": 9285,
      "rap": 9286,
      "oulder": 9287,
      "tery": 9288,
      "alt": 9289,
      "rystal": 9290,
      "ĠTunde": 9291,
      "Ġbleach": 9292,
      "Ġdrool": 9293,
      "ggle": 9294,
      "Ġsituation": 9295,
      "umps": 9296,
      "oci": 9297,
      "phy": 9298,
      "Ġgrin": 9299,
      "Ġbyebyes": 9300,
      "agon": 9301,
      "ogs": 9302,
      "Ġexam": 9303,
      "Ġskittles": 9304,
      "Ġlistened": 9305,
      "Ġempt": 9306,
      "Ġbutterflys": 9307,
      "ĠYaya": 9308,
      "ĠCharles": 9309,
      "Ġcloudy": 9310,
      "Ġfingernail": 9311,
      "ĠMacdonalds": 9312,
      "ginia": 9313,
      "Ġingred": 9314,
      "ĠTaylor": 9315,
      "oliceman": 9316,
      "Ġcommercial": 9317,
      "Ġtepee": 9318,
      "Apple": 9319,
      "goat": 9320,
      "mine": 9321,
      "oid": 9322,
      "Ġsuh": 9323,
      "Ġsilk": 9324,
      "Ġdarn": 9325,
      "Ġbree": 9326,
      "Ġgw": 9327,
      "Ġmouses": 9328,
      "Ġhare": 9329,
      "ora": 9330,
      "Ġdonuts": 9331,
      "ĠTilly": 9332,
      "ĠBud": 9333,
      "Ġtaked": 9334,
      "Ġhandles": 9335,
      "Ġsem": 9336,
[...]
