{
  "version": "1.0",
  "truncation": null,
  "padding": null,
  "added_tokens": [
    {
      "id": 0,
      "content": "<s>",
      "single_word": false,
      "lstrip": false,
      "rstrip": false,
      "normalized": false,
      "special": true
    },
    {
      "id": 1,
      "content": "<pad>",
      "single_word": false,
      "lstrip": false,
      "rstrip": false,
      "normalized": false,
      "special": true
    },
    {
      "id": 2,
      "content": "</s>",
      "single_word": false,
      "lstrip": false,
      "rstrip": false,
      "normalized": false,
      "special": true
    },
    {
      "id": 3,
      "content": "<unk>",
      "single_word": false,
      "lstrip": false,
      "rstrip": false,
      "normalized": false,
      "special": true
    },
    {
      "id": 4,
      "content": "<|endoftext|>",
      "single_word": false,
      "lstrip": false,
      "rstrip": false,
      "normalized": false,
      "special": true
    },
    {
      "id": 5,
      "content": "<mask>",
      "single_word": false,
      "lstrip": true,
      "rstrip": false,
      "normalized": false,
      "special": true
    }
  ],
  "normalizer": null,
  "pre_tokenizer": {
    "type": "ByteLevel",
    "add_prefix_space": false,
    "trim_offsets": true,
    "use_regex": true
  },
  "post_processor": {
    "type": "RobertaProcessing",
    "sep": [
      "</s>",
      2
    ],
    "cls": [
      "<s>",
      0
    ],
    "trim_offsets": true,
    "add_prefix_space": false
  },
  "decoder": {
    "type": "ByteLevel",
    "add_prefix_space": true,
    "trim_offsets": true,
    "use_regex": true
  },
  "model": {
    "type": "BPE",
    "dropout": null,
    "unk_token": null,
    "continuing_subword_prefix": "",
    "end_of_word_suffix": "",
    "fuse_unk": false,
    "byte_fallback": false,
    "vocab": {
      "<s>": 0,
      "<pad>": 1,
      "</s>": 2,
      "<unk>": 3,
      "<|endoftext|>": 4,
      "<mask>": 5,
      "!": 6,
      "\"": 7,
      "#": 8,
      "$": 9,
      "%": 10,
      "&": 11,
      "'": 12,
      "(": 13,
      ")": 14,
      "*": 15,
      "+": 16,
      ",": 17,
      "-": 18,
      ".": 19,
      "/": 20,
      "0": 21,
      "1": 22,
      "2": 23,
      "3": 24,
      "4": 25,
      "5": 26,
      "6": 27,
      "7": 28,
      "8": 29,
      "9": 30,
      ":": 31,
      ";": 32,
      "<": 33,
      "=": 34,
      ">": 35,
      "?": 36,
      "@": 37,
      "A": 38,
      "B": 39,
      "C": 40,
      "D": 41,
      "E": 42,
      "F": 43,
      "G": 44,
      "H": 45,
      "I": 46,
      "J": 47,
      "K": 48,
      "L": 49,
      "M": 50,
      "N": 51,
      "O": 52,
      "P": 53,
      "Q": 54,
      "R": 55,
      "S": 56,
      "T": 57,
      "U": 58,
      "V": 59,
      "W": 60,
      "X": 61,
      "Y": 62,
      "Z": 63,
      "[": 64,
      "\\": 65,
      "]": 66,
      "^": 67,
      "_": 68,
      "`": 69,
      "a": 70,
      "b": 71,
      "c": 72,
      "d": 73,
      "e": 74,
      "f": 75,
      "g": 76,
      "h": 77,
      "i": 78,
      "j": 79,
      "k": 80,
      "l": 81,
      "m": 82,
      "n": 83,
      "o": 84,
      "p": 85,
      "q": 86,
      "r": 87,
      "s": 88,
      "t": 89,
      "u": 90,
      "v": 91,
      "w": 92,
      "x": 93,
      "y": 94,
      "z": 95,
      "{": 96,
      "|": 97,
      "}": 98,
      "~": 99,
      "¡": 100,
      "¢": 101,
      "£": 102,
      "¤": 103,
      "¥": 104,
      "¦": 105,
      "§": 106,
      "¨": 107,
      "©": 108,
      "ª": 109,
      "«": 110,
      "¬": 111,
      "®": 112,
      "¯": 113,
      "°": 114,
      "±": 115,
      "²": 116,
      "³": 117,
      "´": 118,
      "µ": 119,
      "¶": 120,
      "·": 121,
      "¸": 122,
      "¹": 123,
      "º": 124,
      "»": 125,
      "¼": 126,
      "½": 127,
      "¾": 128,
      "¿": 129,
      "À": 130,
      "Á": 131,
      "Â": 132,
      "Ã": 133,
      "Ä": 134,
      "Å": 135,
      "Æ": 136,
      "Ç": 137,
      "È": 138,
      "É": 139,
      "Ê": 140,
      "Ë": 141,
      "Ì": 142,
      "Í": 143,
      "Î": 144,
      "Ï": 145,
      "Ð": 146,
      "Ñ": 147,
      "Ò": 148,
      "Ó": 149,
      "Ô": 150,
      "Õ": 151,
      "Ö": 152,
      "×": 153,
      "Ø": 154,
      "Ù": 155,
      "Ú": 156,
      "Û": 157,
      "Ü": 158,
      "Ý": 159,
      "Þ": 160,
      "ß": 161,
      "à": 162,
      "á": 163,
      "â": 164,
      "ã": 165,
      "ä": 166,
      "å": 167,
      "æ": 168,
      "ç": 169,
      "è": 170,
      "é": 171,
      "ê": 172,
      "ë": 173,
      "ì": 174,
      "í": 175,
      "î": 176,
      "ï": 177,
      "ð": 178,
      "ñ": 179,
      "ò": 180,
      "ó": 181,
      "ô": 182,
      "õ": 183,
      "ö": 184,
      "÷": 185,
      "ø": 186,
      "ù": 187,
      "ú": 188,
      "û": 189,
      "ü": 190,
      "ý": 191,
      "þ": 192,
      "ÿ": 193,
      "Ā": 194,
      "ā": 195,
      "Ă": 196,
      "ă": 197,
      "Ą": 198,
      "ą": 199,
      "Ć": 200,
      "ć": 201,
      "Ĉ": 202,
      "ĉ": 203,
      "Ċ": 204,
      "ċ": 205,
      "Č": 206,
      "č": 207,
      "Ď": 208,
      "ď": 209,
      "Đ": 210,
      "đ": 211,
      "Ē": 212,
      "ē": 213,
      "Ĕ": 214,
      "ĕ": 215,
      "Ė": 216,
      "ė": 217,
      "Ę": 218,
      "ę": 219,
      "Ě": 220,
      "ě": 221,
      "Ĝ": 222,
      "ĝ": 223,
      "Ğ": 224,
      "ğ": 225,
      "Ġ": 226,
      "ġ": 227,
      "Ģ": 228,
      "ģ": 229,
      "Ĥ": 230,
      "ĥ": 231,
      "Ħ": 232,
      "ħ": 233,
      "Ĩ": 234,
      "ĩ": 235,
      "Ī": 236,
      "ī": 237,
      "Ĭ": 238,
      "ĭ": 239,
      "Į": 240,
      "į": 241,
      "İ": 242,
      "ı": 243,
      "Ĳ": 244,
      "ĳ": 245,
      "Ĵ": 246,
      "ĵ": 247,
      "Ķ": 248,
      "ķ": 249,
      "ĸ": 250,
      "Ĺ": 251,
      "ĺ": 252,
      "Ļ": 253,
      "ļ": 254,
      "Ľ": 255,
      "ľ": 256,
      "Ŀ": 257,
      "ŀ": 258,
      "Ł": 259,
      "ł": 260,
      "Ń": 261,
      "**": 262,
      "**:": 263,
      "Ġ\\": 264,
      "Ġ**": 265,
      "Ġt": 266,
      "MO": 267,
      "MOT": 268,
      "CH": 269,
      "CHI": 270,
      "Ġth": 271,
      "Ġw": 272,
      "Ġa": 273,
      "Ġy": 274,
      "ou": 275,
      "Ġi": 276,
      "re": 277,
      "Ġh": 278,
      "Ġthe": 279,
      "Ġs": 280,
      "at": 281,
      "Ġo": 282,
      "Ġyou": 283,
      "Ġd": 284,
      "in": 285,
      "Ġb": 286,
      "Ġc": 287,
      "Ġg": 288,
      "'s": 289,
      "Ġm": 290,
      "Ġwh": 291,
      "an": 292,
      "Ġn": 293,
      "er": 294,
      "Ġit": 295,
      "Ġdo": 296,
      "Ġl": 297,
      "ĠI": 298,
      "ll": 299,
      "ing": 300,
      "Ġp": 301,
      "Ġthat": 302,
      "nd": 303,
      "Ġgo": 304,
      "Ġno": 305,
      "Ġf": 306,
      "es": 307,
      "oo": 308,
      "ea": 309,
      "Ġon": 310,
      "Ġ<": 311,
      "UN": 312,
      "UNK": 313,
      "ay": 314,
      "Ġhe": 315,
      "Ġwhat": 316,
      "Ġand": 317,
      "is": 318,
      "Ġto": 319,
      "om": 320,
      "'t": 321,
      "Ġwe": 322,
      "et": 323,
      "it": 324,
      "Ġha": 325,
      "ke": 326,
      "ve": 327,
      "or": 328,
      "se": 329,
      "ow": 330,
      "Ġis": 331,
      "ig": 332,
      "IN": 333,
      "Ġu": 334,
      "ee": 335,
      "INV": 336,
      "Ġin": 337,
      "Ġoh": 338,
      "AT": 339,
      "le": 340,
      "as": 341,
      "ut": 342,
      "Ġyea": 343,
      "id": 344,
      "Ġthere": 345,
      "Ġsh": 346,
      "Ġyeah": 347,
      "FAT": 348,
      "Ġthis": 349,
      "ck": 350,
      "ar": 351,
      "Ġr": 352,
      "ht": 353,
      "en": 354,
      "Ġcan": 355,
      "ook": 356,
      "Ġe": 357,
      "Ġone": 358,
      "ight": 359,
      "on": 360,
      "Ġbe": 361,
      "Ġwan": 362,
      "ome": 363,
      "Ġdon": 364,
      "Ġli": 365,
      "na": 366,
      "Ġk": 367,
      "st": 368,
      "Ġare": 369,
      "ad": 370,
      "Ġof": 371,
      "Ġyour": 372,
      "ch": 373,
      "ĠM": 374,
      "ir": 375,
      "ld": 376,
      "all": 377,
      "Ġst": 378,
      "Ġhave": 379,
      "Ġme": 380,
      "Ġlike": 381,
      "out": 382,
      "Ġlook": 383,
      "Ġhere": 384,
      "ere": 385,
      "ed": 386,
      "ver": 387,
      "ot": 388,
      "um": 389,
      "Ġsee": 390,
      "Ġre": 391,
      "kay": 392,
      "Ġthey": 393,
      "'re": 394,
      "ic": 395,
      "Ġokay": 396,
      "Ġj": 397,
      "Ġdid": 398,
      "Ġnot": 399,
      "Ġkn": 400,
      "Ġba": 401,
      "ink": 402,
      "Ġyes": 403,
      "im": 404,
      "Ġput": 405,
      "Ġshe": 406,
      "Ġget": 407,
      "yy": 408,
      "Ġyyy": 409,
      "my": 410,
      "ie": 411,
      "Ġfor": 412,
      "Ġpl": 413,
      "ith": 414,
      "Ġwas": 415,
      "Ġan": 416,
      "Ġwhere": 417,
      "Ġup": 418,
      "Ġright": 419,
      "Ġgot": 420,
      "Ġknow": 421,
      "am": 422,
      "Ġwith": 423,
      "Ġmy": 424,
      "Ġwant": 425,
      "ake": 426,
      "Ġnow": 427,
      "au": 428,
      "Ġsome": 429,
      "od": 430,
      "Ġju": 431,
      "Ġgon": 432,
      "Ġall": 433,
      "Ġat": 434,
      "Ġch": 435,
      "Ġthink": 436,
      "op": 437,
      "ra": 438,
      "itt": 439,
      "her": 440,
      "Ġso": 441,
      "ould": 442,
      "ear": 443,
      "Ġout": 444,
      "ill": 445,
      "Ġwanna": 446,
      "ur": 447,
      "un": 448,
      "'m": 449,
      "ter": 450,
      "Ġbut": 451,
      "Ġgoing": 452,
      "'ll": 453,
      "al": 454,
      "Ġjust": 455,
      "Ġlet": 456,
      "ore": 457,
      "Ġwell": 458,
      "ell": 459,
      "wn": 460,
      "Ġthen": 461,
      "Ġgonna": 462,
      "Ġdoes": 463,
      "ry": 464,
      "ĠD": 465,
      "Ġwho": 466,
      "uh": 467,
      "Ġthem": 468,
      "ly": 469,
      "Ġcome": 470,
      "pp": 471,
      "ittle": 472,
      "Ġuh": 473,
      "Ġlittle": 474,
      "and": 475,
      "ww": 476,
      "Ġdown": 477,
      "Ġgood": 478,
      "Ġsay": 479,
      "ause": 480,
      "dy": 481,
      "ta": 482,
      "Ġbec": 483,
      "ce": 484,
      "Ġum": 485,
      "Ġbecause": 486,
      "by": 487,
      "Ġplay": 488,
      "Ġtw": 489,
      "hing": 490,
      "ice": 491,
      "very": 492,
      "Ġbig": 493,
      "Ġbo": 494,
      "EX": 495,
      "ummy": 496,
      "ĠT": 497,
      "EXP": 498,
      "Ġher": 499,
      "Ġhow": 500,
      "ick": 501,
      "ind": 502,
      "il": 503,
      "Ġbr": 504,
      "Ġmore": 505,
      "SI": 506,
      "us": 507,
      "Ġeat": 508,
      "Ġcar": 509,
      "Ġor": 510,
      "Ġwhen": 511,
      "'ve": 512,
      "Ġtwo": 513,
      "Ġwhy": 514,
      "Ġab": 515,
      "Ġal": 516,
      "oug": 517,
      "ol": 518,
      "Ġbl": 519,
      "Ġif": 520,
      "Ġback": 521,
      "ĠS": 522,
      "hm": 523,
      "addy": 524,
      "ommy": 525,
      "ose": 526,
      "Ġfr": 527,
      "ge": 528,
      "Ġbaby": 529,
      "nt": 530,
      "ĠC": 531,
      "Ġsp": 532,
      "Ġtoo": 533,
      "ain": 534,
      "Ġhis": 535,
      "Ġhim": 536,
      "ĠB": 537,
      "uck": 538,
      "ound": 539,
      "Ġabout": 540,
      "AD": 541,
      "ine": 542,
      "ĠMummy": 543,
      "Ġhas": 544,
      "Ġmhm": 545,
      "ĠP": 546,
      "ide": 547,
      "ive": 548,
      "Ġoff": 549,
      "ĠJ": 550,
      "ap": 551,
      "eed": 552,
      "Ġvery": 553,
      "ĠA": 554,
      "Ġmake": 555,
      "Ġsa": 556,
      "ty": 557,
      "Ġover": 558,
      "Ġany": 559,
      "one": 560,
      "Ġwat": 561,
      "Ġdoing": 562,
      "ally": 563,
      "SIS": 564,
      "ak": 565,
      "other": 566,
      "ab": 567,
      "day": 568,
      "Ġwould": 569,
      "ank": 570,
      "ame": 571,
      "Ġtake": 572,
      "Ġne": 573,
      "Ġhm": 574,
      "Ġthese": 575,
      "Ġcl": 576,
      "ber": 577,
      "ast": 578,
      "Ġbook": 579,
      "qu": 580,
      "ff": 581,
      "our": 582,
      "Ġdidn": 583,
      "Ġah": 584,
      "RO": 585,
      "Ġhuh": 586,
      "Ġneed": 587,
      "Ġdr": 588,
      "ite": 589,
      "Ġisn": 590,
      "Ġread": 591,
      "ish": 592,
      "Ġas": 593,
      "Ġthing": 594,
      "eep": 595,
      "ree": 596,
      "Ġtr": 597,
      "Ġhaf": 598,
      "Ġhafta": 599,
      "Ġsom": 600,
      "ĠDaddy": 601,
      "Ġsomet": 602,
      "Ġtell": 603,
      "BRO": 604,
      "Ġag": 605,
      "Ġthose": 606,
      "ue": 607,
      "ĠTh": 608,
      "ies": 609,
      "ough": 610,
      "way": 611,
      "Ġmm": 612,
      "Ġhad": 613,
      "ers": 614,
      "ouse": 615,
      "ure": 616,
      "Ġnice": 617,
      "ock": 618,
      "Ġwere": 619,
      "Ġsl": 620,
      "Ġwill": 621,
      "Ġtra": 622,
      "ĠMommy": 623,
      "me": 624,
      "Ġboy": 625,
      "ĠF": 626,
      "ct": 627,
      "oon": 628,
      "Ġcould": 629,
      "ther": 630,
      "Ġagain": 631,
      "ime": 632,
      "Ġthank": 633,
      "Ġwww": 634,
      "Ġbu": 635,
      "Ġman": 636,
      "Ġother": 637,
      "ĠN": 638,
      "alk": 639,
      "ove": 640,
      "ong": 641,
      "ĠL": 642,
      "ip": 643,
      "ĠG": 644,
      "xt": 645,
      "Ġanother": 646,
      "of": 647,
      "Ġcom": 648,
      "omas": 649,
      "ĠThomas": 650,
      "ease": 651,
      "up": 652,
      "air": 653,
      "gg": 654,
      "Ġsomething": 655,
      "th": 656,
      "Ġmu": 657,
      "Ġplease": 658,
      "unn": 659,
      "el": 660,
      "Ġdoesn": 661,
      "Ġbit": 662,
      "ting": 663,
      "Ġgre": 664,
      "ep": 665,
      "Ġpre": 666,
      "Ġsw": 667,
      "ob": 668,
      "Ġball": 669,
      "Ġby": 670,
      "Ġfl": 671,
      "Ġwor": 672,
      "Ġhapp": 673,
      "eet": 674,
      "Ġsaid": 675,
      "te": 676,
      "ard": 677,
      "old": 678,
      "Ġcat": 679,
      "Ġsit": 680,
      "ul": 681,
      "os": 682,
      "ĠE": 683,
      "ost": 684,
      "Ġtur": 685,
      "right": 686,
      "Ġreally": 687,
      "Ġtime": 688,
      "Ġfi": 689,
      "Ġgir": 690,
      "TE": 691,
      "Ġhouse": 692,
      "oh": 693,
      "Ġel": 694,
      "Ġway": 695,
      "ess": 696,
      "een": 697,
      "Ġalright": 698,
      "ump": 699,
      "MCH": 700,
      "TEA": 701,
      "are": 702,
      "zz": 703,
      "ead": 704,
      "Ġgoes": 705,
      "Ġelse": 706,
      "Ġcall": 707,
      "ich": 708,
      "row": 709,
      "art": 710,
      "Ġwa": 711,
      "ant": 712,
      "Ġqu": 713,
      "Ġshall": 714,
      "ood": 715,
      "Ġthree": 716,
      "ack": 717,
      "oom": 718,
      "Ġgive": 719,
      "ang": 720,
      "Ġhel": 721,
      "LO": 722,
      "Ġcr": 723,
      "ys": 724,
      "Ġpu": 725,
      "Ġgirl": 726,
      "DAD": 727,
      "Ġturn": 728,
      "Ġfrom": 729,
      "Ġaway": 730,
      "Ġwater": 731,
      "ool": 732,
      "Ġblue": 733,
      "Ġred": 734,
      "Ġbet": 735,
      "Ġtry": 736,
      "ush": 737,
      "Ġar": 738,
      "Ġcol": 739,
      "be": 740,
      "ate": 741,
      "Ġuhh": 742,
      "Ġhey": 743,
      "Ġdone": 744,
      "Ġhand": 745,
      "ĠCh": 746,
      "pen": 747,
      "Ġle": 748,
      "Ġtrain": 749,
      "Ġwent": 750,
      "side": 751,
      "Ġgone": 752,
      "oc": 753,
      "Ġmay": 754,
      "Ġhelp": 755,
      "iss": 756,
      "ĠR": 757,
      "ving": 758,
      "Ġbir": 759,
      "Ġcolor": 760,
      "Ġlot": 761,
      "Ġse": 762,
      "Ġhappen": 763,
      "ist": 764,
      "Ġuhhuh": 765,
      "orn": 766,
      "ah": 767,
      "Ġwatch": 768,
      "Ġopen": 769,
      "irst": 770,
      "raw": 771,
      "www": 772,
      "arl": 773,
      "Ġbre": 774,
      "Ġfind": 775,
      "ven": 776,
      "LOI": 777,
      "Ġthings": 778,
      "GR": 779,
      "Ġbed": 780,
      "Ġsc": 781,
      "mber": 782,
      "unny": 783,
      "ĠFr": 784,
      "Ġpie": 785,
      "Ġgreen": 786,
      "ent": 787,
      "Ġsm": 788,
      "Ġint": 789,
      "Ġhome": 790,
      "oll": 791,
      "AR": 792,
      "Ġreme": 793,
      "Ġus": 794,
      "nder": 795,
      "ild": 796,
      "ody": 797,
      "Ġke": 798,
      "PAT": 799,
      "oor": 800,
      "Ġremember": 801,
      "Ġmommy": 802,
      "ion": 803,
      "Ġpr": 804,
      "Ġpic": 805,
      "Ġche": 806,
      "Ġshould": 807,
      "Ġpe": 808,
      "ace": 809,
      "Ġtoday": 810,
      "age": 811,
      "Ġevery": 812,
      "les": 813,
      "eel": 814,
      "ought": 815,
      "ph": 816,
      "Ġshow": 817,
      "ath": 818,
      "lean": 819,
      "ked": 820,
      "Ġmaybe": 821,
      "Ġfour": 822,
      "oney": 823,
      "Ġbot": 824,
      "Ġbetter": 825,
      "Ġhor": 826,
      "Ġtalk": 827,
      "Ġsleep": 828,
      "Ġbox": 829,
      "aking": 830,
      "Ġdog": 831,
      "Ġhi": 832,
      "llo": 833,
      "thing": 834,
      "ADU": 835,
      "end": 836,
      "Ġhello": 837,
      "ful": 838,
      "Ġwait": 839,
      "body": 840,
      "Ġwr": 841,
      "Ġday": 842,
      "'d": 843,
      "Ġv": 844,
      "Ġdi": 845,
      "Ġlove": 846,
      "Ġgr": 847,
      "Ġhold": 848,
      "Ġwork": 849,
      "Ġfall": 850,
      "Ġhear": 851,
      "Ġkind": 852,
      "Ġbye": 853,
      "ange": 854,
      "Ġen": 855,
      "ag": 856,
      "Ġtea": 857,
      "Ġcook": 858,
      "Ġdear": 859,
      "Ġmean": 860,
      "oke": 861,
      "Ġwhich": 862,
      "oot": 863,
      "FCH": 864,
      "ama": 865,
      "Ġgu": 866,
      "Ġwee": 867,
      "bb": 868,
      "Ġdoor": 869,
      "lf": 870,
      "Ġcalled": 871,
      "Ġyell": 872,
      "Ġfirst": 873,
      "Ġhead": 874,
      "Ġcoming": 875,
      "GRA": 876,
      "Ġdaddy": 877,
      "Ġmin": 878,
      "Ġmuch": 879,
      "Ġwon": 880,
      "ĠW": 881,
      "Ġtruck": 882,
      "aser": 883,
      "ady": 884,
      "Ġaren": 885,
      "Ġlea": 886,
      "ĠFraser": 887,
      "Ġbear": 888,
      "ilk": 889,
      "ark": 890,
      "man": 891,
      "Ġdrink": 892,
      "Ġlooks": 893,
      "og": 894,
      "Ġsays": 895,
      "text": 896,
      "|>": 897,
      "Ġ<|": 898,
      "oftext": 899,
      "endoftext": 900,
      "ĠH": 901,
      "Ġyellow": 902,
      "ture": 903,
      "ute": 904,
      "Ġname": 905,
      "Ġstop": 906,
      "oop": 907,
      "Ġmilk": 908,
      "Ġde": 909,
      "Ġinto": 910,
      "Ġfin": 911,
      "Ġchair": 912,
      "Ġfire": 913,
      "Ġaf": 914,
      "chool": 915,
      "Ġhaven": 916,
      "Ġsor": 917,
      "Ġpicture": 918,
      "Ġhur": 919,
      "Ġjuice": 920,
      "Ġsho": 921,
      "Ġbeen": 922,
      "Ġdoll": 923,
      "Ġcup": 924,
      "Ġstill": 925,
      "ix": 926,
      "ade": 927,
      "Ġsu": 928,
      "Ġround": 929,
      "Ġhair": 930,
      "Ġhat": 931,
      "Ġschool": 932,
      "ass": 933,
      "Ġfive": 934,
      "you": 935,
      "Ġdin": 936,
      "Ġfood": 937,
      "ile": 938,
      "Ġthr": 939,
      "Ġfinish": 940,
      "ise": 941,
      "Ġex": 942,
      "ft": 943,
      "CAR": 944,
      "Ġey": 945,
      "Ġaround": 946,
      "Ġnext": 947,
      "Ġsure": 948,
      "ĠGr": 949,
      "Ġpeop": 950,
      "Ġafter": 951,
      "Ġmight": 952,
      "leph": 953,
      "Ġtoys": 954,
      "ma": 955,
      "Ġnight": 956,
      "Ġpen": 957,
      "Ġunder": 958,
      "Ġpeople": 959,
      "Ġdraw": 960,
      "Ġready": 961,
      "Ġthrough": 962,
      "ream": 963,
      "Ġbus": 964,
      "Ġco": 965,
      "Ġour": 966,
      "uff": 967,
      "Ġdis": 968,
      "Ġonly": 969,
      "ash": 970,
      "imal": 971,
      "Ġapp": 972,
      "Ġstick": 973,
      "Ġgetting": 974,
      "est": 975,
      "Ġpick": 976,
      "able": 977,
      "arling": 978,
      "Ġanimal": 979,
      "illy": 980,
      "Ġlong": 981,
      "Ġfunny": 982,
      "ous": 983,
      "Ġmine": 984,
      "Ġdarling": 985,
      "Ġkeep": 986,
      "Ġhot": 987,
      "Ġuse": 988,
      "ese": 989,
      "Ġsweet": 990,
      "aper": 991,
      "Ġwow": 992,
      "Ġplaying": 993,
      "Ġnew": 994,
      "Ġcow": 995,
      "Ġhappened": 996,
      "Ġcare": 997,
      "ĠMama": 998,
      "Ġya": 999,
      "Ġegg": 1000,
      "Ġsn": 1001,
      "get": 1002,
      "Ġbreak": 1003,
      "Ġorange": 1004,
      "Ġwalk": 1005,
      "ail": 1006,
      "Ġpig": 1007,
      "Ġmon": 1008,
      "ss": 1009,
      "SIB": 1010,
      "Ġjump": 1011,
      "red": 1012,
      "ouch": 1013,
      "ĠK": 1014,
      "Ġbott": 1015,
      "ory": 1016,
      "Ġtop": 1017,
      "Ġfish": 1018,
      "Ġz": 1019,
      "Ġhurt": 1020,
      "ops": 1021,
      "aug": 1022,
      "Ġpret": 1023,
      "ger": 1024,
      "Ġam": 1025,
      "ach": 1026,
      "key": 1027,
      "Ġduck": 1028,
      "Ġcut": 1029,
      "ves": 1030,
      "JE": 1031,
      "Ġpiece": 1032,
      "outh": 1033,
      "Ġlooking": 1034,
      "Ġminute": 1035,
      "ne": 1036,
      "Ġsqu": 1037,
      "Ġmade": 1038,
      "Ġbroke": 1039,
      "Ġstay": 1040,
      "sh": 1041,
      "ually": 1042,
      "Ġpull": 1043,
      "opp": 1044,
      "Ġthrow": 1045,
      "Ġmaking": 1046,
      "Ġanything": 1047,
      "Ġcame": 1048,
      "Ġmouth": 1049,
      "Ġtable": 1050,
      "arm": 1051,
      "self": 1052,
      "Ġlast": 1053,
      "Ġones": 1054,
      "ape": 1055,
      "Ġoutside": 1056,
      "Ġdat": 1057,
      "Ġeating": 1058,
      "Ġbring": 1059,
      "Ġbird": 1060,
      "Ġsaw": 1061,
      "Ġthought": 1062,
      "ĠMom": 1063,
      "Ġnose": 1064,
      "Ġpretty": 1065,
      "Ġsna": 1066,
      "fore": 1067,
      "ung": 1068,
      "Ġpush": 1069,
      "ord": 1070,
      "Ġwasn": 1071,
      "Ġbefore": 1072,
      "Ġtheir": 1073,
      "ri": 1074,
      "akes": 1075,
      "airs": 1076,
      "thday": 1077,
      "ac": 1078,
      "Ġyep": 1079,
      "Ġmany": 1080,
      "Ġroom": 1081,
      "Ġice": 1082,
      "Ġfoot": 1083,
      "ew": 1084,
      "ĠGrand": 1085,
      "ctor": 1086,
      "Ġcheese": 1087,
      "ipp": 1088,
      "orning": 1089,
      "iend": 1090,
      "Ġstart": 1091,
      "Ġmorning": 1092,
      "Ġstand": 1093,
      "av": 1094,
      "Ġlots": 1095,
      "Ġfloor": 1096,
      "lephant": 1097,
      "Ġhar": 1098,
      "Ġbirthday": 1099,
      "Ġsilly": 1100,
      "Ġwind": 1101,
      "own": 1102,
      "Ġlady": 1103,
      "Ġlight": 1104,
      "Ġelephant": 1105,
      "Ġstuff": 1106,
      "Ġbag": 1107,
      "Ġdiff": 1108,
      "Ġstory": 1109,
      "Ġsing": 1110,
      "Ġsix": 1111,
      "Ġmom": 1112,
      "Ġmat": 1113,
      "Ġfriend": 1114,
      "Ġooh": 1115,
      "Ġgl": 1116,
      "Ġhaving": 1117,
      "unch": 1118,
      "EL": 1119,
      "Ġpot": 1120,
      "Ġnum": 1121,
      "Ġmove": 1122,
      "ĠDad": 1123,
      "umm": 1124,
      "Ġow": 1125,
      "irt": 1126,
      "eas": 1127,
      "Ġclean": 1128,
      "Ġapple": 1129,
      "kes": 1130,
      "Ġmust": 1131,
      "Ġear": 1132,
      "Ġanimals": 1133,
      "Ġfit": 1134,
      "Ġdogg": 1135,
      "Ġshoes": 1136,
      "Ġold": 1137,
      "Ġsorry": 1138,
      "Ġleave": 1139,
      "Ġballoon": 1140,
      "Ġhorse": 1141,
      "Ġbath": 1142,
      "Ġwants": 1143,
      "ole": 1144,
      "Ġcareful": 1145,
      "Ġyet": 1146,
      "Ġhoney": 1147,
      "aw": 1148,
      "Ġpaper": 1149,
      "ond": 1150,
      "Ġhard": 1151,
      "Ġpard": 1152,
      "Ġpardon": 1153,
      "Ġfix": 1154,
      "Ġspoon": 1155,
      "Ġwear": 1156,
      "Ġbuild": 1157,
      "Ġchoo": 1158,
      "Ġcake": 1159,
      "Ġwhite": 1160,
      "Ġleg": 1161,
      "Ġact": 1162,
      "ĠNin": 1163,
      "aught": 1164,
      "Ġtree": 1165,
      "ana": 1166,
      "ater": 1167,
      "die": 1168,
      "cle": 1169,
      "ble": 1170,
      "ane": 1171,
      "Ġletter": 1172,
      "Ġcomes": 1173,
      "Ġprob": 1174,
      "Ġwash": 1175,
      "Ġdiffere": 1176,
      "Ġkitt": 1177,
      "Ġwhoop": 1178,
      "Ġeyes": 1179,
      "pe": 1180,
      "Ġfing": 1181,
      "Ġfeel": 1182,
      "Ġnumber": 1183,
      "ungry": 1184,
      "Ġfound": 1185,
      "ister": 1186,
      "ug": 1187,
      "urp": 1188,
      "ĠChi": 1189,
      "Ġfeet": 1190,
      "Ġsk": 1191,
      "ren": 1192,
      "ĠJwww": 1193,
      "Ġti": 1194,
      "Ġcold": 1195,
      "Ġhands": 1196,
      "icke": 1197,
      "leanor": 1198,
      "Ġthough": 1199,
      "itting": 1200,
      "Ġuhoh": 1201,
      "Ġclose": 1202,
      "ĠEleanor": 1203,
      "itch": 1204,
      "cu": 1205,
      "Ġbuy": 1206,
      "Ġhungry": 1207,
      "Ġaw": 1208,
      "Ġpar": 1209,
      "irty": 1210,
      "Ġnoise": 1211,
      "Ġeh": 1212,
      "room": 1213,
      "Ġchoc": 1214,
      "Ġbooks": 1215,
      "Ġbea": 1216,
      "Ġdifferent": 1217,
      "Ġeven": 1218,
      "Ġtoget": 1219,
      "Ġcou": 1220,
      "Ġtogether": 1221,
      "Ġstr": 1222,
      "aur": 1223,
      "tend": 1224,
      "Ġnever": 1225,
      "Ġdri": 1226,
      "Ġfinished": 1227,
      "Ġwrite": 1228,
      "icken": 1229,
      "Ġtape": 1230,
      "hone": 1231,
      "Ġface": 1232,
      "Ġcry": 1233,
      "bo": 1234,
      "Ġpretend": 1235,
      "rist": 1236,
      "ner": 1237,
      "Ġeight": 1238,
      "stairs": 1239,
      "Ġactually": 1240,
      "Ġsand": 1241,
      "Ġstuck": 1242,
      "ĠMum": 1243,
      "Ġblack": 1244,
      "ins": 1245,
      "Ġtick": 1246,
      "Ġbutter": 1247,
      "RS": 1248,
      "Ġsame": 1249,
      "Ġwhoops": 1250,
      "Ġneedta": 1251,
      "URS": 1252,
      "Ġdre": 1253,
      "imes": 1254,
      "Ġtom": 1255,
      "Ġsaying": 1256,
      "Ġinside": 1257,
      "Ġhappy": 1258,
      "Ġflow": 1259,
      "ĠPur": 1260,
      "ĠMa": 1261,
      "Ġbang": 1262,
      "Ġfell": 1263,
      "ĠAn": 1264,
      "ton": 1265,
      "Ġside": 1266,
      "oth": 1267,
      "Ġmoney": 1268,
      "Ġsomebody": 1269,
      "Ġwheel": 1270,
      "Ġgreat": 1271,
      "Ġroll": 1272,
      "eek": 1273,
      "ds": 1274,
      "Ġtouch": 1275,
      "Ġtrying": 1276,
      "wh": 1277,
      "ĠPurdie": 1278,
      "Ġkiss": 1279,
      "Ġoops": 1280,
      "ny": 1281,
      "Ġchicken": 1282,
      "Ġpain": 1283,
      "abb": 1284,
      "eddy": 1285,
      "Ġreal": 1286,
      "Ġgotta": 1287,
      "Ġputting": 1288,
      "Ġpink": 1289,
      "dd": 1290,
      "Ġlist": 1291,
      "ub": 1292,
      "Ġrec": 1293,
      "Ġhors": 1294,
      "Ġate": 1295,
      "Ġthan": 1296,
      "Ġtow": 1297,
      "oss": 1298,
      "iger": 1299,
      "sed": 1300,
      "Ġmess": 1301,
      "Ġchocol": 1302,
      "Ġpage": 1303,
      "Ġrain": 1304,
      "Ġlikes": 1305,
      "Ġsitting": 1306,
      "iding": 1307,
      "Ġenough": 1308,
      "Ġwhile": 1309,
      "Ġsound": 1310,
      "Ġyours": 1311,
      "Ġtalking": 1312,
      "iz": 1313,
      "Ġask": 1314,
      "Ġseven": 1315,
      "ably": 1316,
      "Ġgra": 1317,
      "Ġbad": 1318,
      "Ġair": 1319,
      "igh": 1320,
      "Ġpart": 1321,
      "Ġsmall": 1322,
      "osaur": 1323,
      "Ġprobably": 1324,
      "Ġpoor": 1325,
      "Ġbroken": 1326,
      "Ġkitty": 1327,
      "Ġdinner": 1328,
      "Ġwindow": 1329,
      "Ġrun": 1330,
      "Ġseen": 1331,
      "abbit": 1332,
      "JEN": 1333,
      "ave": 1334,
      "Ġcookie": 1335,
      "Ġten": 1336,
      "Ġpop": 1337,
      "ust": 1338,
      "Ġlisten": 1339,
      "Ġlater": 1340,
      "ont": 1341,
      "Ġun": 1342,
      "OP": 1343,
      "Ġte": 1344,
      "Ġnothing": 1345,
      "Ġbow": 1346,
      "INT": 1347,
      "Nin": 1348,
      "ways": 1349,
      "Ġend": 1350,
      "Ġchocolate": 1351,
      "bye": 1352,
      "gine": 1353,
      "Ġblock": 1354,
      "Ġswim": 1355,
      "cy": 1356,
      "Ġcra": 1357,
      "Ġbread": 1358,
      "RE": 1359,
      "Ġboat": 1360,
      "Ġtoy": 1361,
      "Ġeverything": 1362,
      "Ġteddy": 1363,
      "Ġsun": 1364,
      "idge": 1365,
      "where": 1366,
      "RY": 1367,
      "RYA": 1368,
      "Ġtired": 1369,
      "Ġquick": 1370,
      "Ġer": 1371,
      "OPE": 1372,
      "ara": 1373,
      "Ġfun": 1374,
      "Ġfly": 1375,
      "Ġrock": 1376,
      "CO": 1377,
      "Ġlovely": 1378,
      "Ġsnow": 1379,
      "mas": 1380,
      "Ġbottle": 1381,
      "Ġride": 1382,
      "izz": 1383,
      "Ġcloth": 1384,
      "fe": 1385,
      "ces": 1386,
      "Ġrabbit": 1387,
      "Ġpol": 1388,
      "pl": 1389,
      "Ġlion": 1390,
      "ary": 1391,
      "Ġyup": 1392,
      "Ġro": 1393,
      "Ġguess": 1394,
      "Ġleft": 1395,
      "ather": 1396,
      "Ġta": 1397,
      "oof": 1398,
      "ĠBob": 1399,
      "Ġwo": 1400,
      "ristmas": 1401,
      "Ġdirty": 1402,
      "Ġban": 1403,
      "Ġda": 1404,
      "Ġalways": 1405,
      "ort": 1406,
      "Ġbite": 1407,
      "ball": 1408,
      "ĠO": 1409,
      "Ġnine": 1410,
      "Ġdinosaur": 1411,
      "ster": 1412,
      "Ġmatter": 1413,
      "Ġbeing": 1414,
      "Ġtold": 1415,
      "Ġbab": 1416,
      "sy": 1417,
      "Ġstraw": 1418,
      "Ġtook": 1419,
      "Ġquite": 1420,
      "Ġblow": 1421,
      "Ġcream": 1422,
      "Ġstar": 1423,
      "Ġwanted": 1424,
      "avor": 1425,
      "Ġweek": 1426,
      "ance": 1427,
      "Ġbi": 1428,
      "ia": 1429,
      "Ġsock": 1430,
      "Ġkid": 1431,
      "Ġdolly": 1432,
      "night": 1433,
      "aughty": 1434,
      "ĠAmy": 1435,
      "Ġbeh": 1436,
      "Ġmonkey": 1437,
      "Ġarm": 1438,
      "Ġever": 1439,
      "Ġshop": 1440,
      "Ġyester": 1441,
      "Ġyesterday": 1442,
      "Ġyum": 1443,
      "Ġnaughty": 1444,
      "Ġtiger": 1445,
      "Ġsau": 1446,
      "ohn": 1447,
      "ull": 1448,
      "fast": 1449,
      "Ġbunny": 1450,
      "Ġlunch": 1451,
      "Ġsometimes": 1452,
      "Ġhasn": 1453,
      "Ġpurp": 1454,
      "amp": 1455,
      "Ġem": 1456,
      "Ġcatch": 1457,
      "ants": 1458,
      "Ġteet": 1459,
      "Ġbreakfast": 1460,
      "Ġwet": 1461,
      "Ġpupp": 1462,
      "Ġgame": 1463,
      "ato": 1464,
      "ation": 1465,
      "orrow": 1466,
      "Ġcars": 1467,
      "ily": 1468,
      "Ġchild": 1469,
      "ean": 1470,
      "ets": 1471,
      "Ġfarm": 1472,
      "Ġhop": 1473,
      "Ġring": 1474,
      "ĠJohn": 1475,
      "Ġcir": 1476,
      "Ġfavor": 1477,
      "Ġwrong": 1478,
      "ready": 1479,
      "Ġhah": 1480,
      "Ġalready": 1481,
      "Ġteeth": 1482,
      "Ġhit": 1483,
      "Ġplate": 1484,
      "Ġbrush": 1485,
      "Ġtre": 1486,
      "ooh": 1487,
      "Ġwouldn": 1488,
      "Ġclothes": 1489,
      "Ġcorn": 1490,
      "Ġparty": 1491,
      "Ġbehind": 1492,
      "Ġpurple": 1493,
      "Ġlive": 1494,
      "ĠMr": 1495,
      "Ġfrog": 1496,
      "Ġcount": 1497,
      "RES": 1498,
      "Ġunt": 1499,
      "ffee": 1500,
      "Ġbrown": 1501,
      "isy": 1502,
      "Ġyourself": 1503,
      "ames": 1504,
      "ĠCarl": 1505,
      "Ġgi": 1506,
      "Ġbeep": 1507,
      "Ġtail": 1508,
      "imb": 1509,
      "FAD": 1510,
      "rew": 1511,
      "Ġcoffee": 1512,
      "Ġmoon": 1513,
      "IC": 1514,
      "eal": 1515,
      "AN": 1516,
      "Ġbump": 1517,
      "tie": 1518,
      "nie": 1519,
      "Ġjob": 1520,
      "Ġsong": 1521,
      "Ġcouldn": 1522,
      "Ġbutton": 1523,
      "rot": 1524,
      "Ġdad": 1525,
      "Ġhorsie": 1526,
      "Ġmo": 1527,
      "Ġmiss": 1528,
      "Ġnear": 1529,
      "ummie": 1530,
      "Ġpieces": 1531,
      "Ġtomorrow": 1532,
      "oup": 1533,
      "now": 1534,
      "Ġwonder": 1535,
      "Ġshoe": 1536,
      "CAT": 1537,
      "Ġboys": 1538,
      "Ġboth": 1539,
      "zzz": 1540,
      "Ġdress": 1541,
      "Ġfinger": 1542,
      "Ġbee": 1543,
      "urs": 1544,
      "Ġsort": 1545,
      "Ġpolice": 1546,
      "Ġfavorite": 1547,
      "Ġmother": 1548,
      "ci": 1549,
      "ĠLara": 1550,
      "ipe": 1551,
      "Ġsheep": 1552,
      "Ġset": 1553,
      "Ġpuzz": 1554,
      "ery": 1555,
      "Ġpizz": 1556,
      "Ġham": 1557,
      "Ġfront": 1558,
      "Ġgrand": 1559,
      "Ġdoggie": 1560,
      "Ġzzz": 1561,
      "Ġtaking": 1562,
      "Ġknock": 1563,
      "Ġstrawber": 1564,
      "Ġshirt": 1565,
      "Ġyear": 1566,
      "Ġclimb": 1567,
      "Ġdrive": 1568,
      "the": 1569,
      "Ġbowl": 1570,
      "Ġpaint": 1571,
      "Ġrunn": 1572,
      "Ġrecord": 1573,
      "Ġalm": 1574,
      "oun": 1575,
      "Ġplace": 1576,
      "Ġsnake": 1577,
      "Ġpeek": 1578,
      "Ġkitch": 1579,
      "illi": 1580,
      "Ġlem": 1581,
      "Ġkitchen": 1582,
      "Ġwhoa": 1583,
      "aura": 1584,
      "Ġengine": 1585,
      "name": 1586,
      "ask": 1587,
      "ird": 1588,
      "em": 1589,
      "Ġid": 1590,
      "Ġpizza": 1591,
      "Ġmag": 1592,
      "Ġpost": 1593,
      "Ġtin": 1594,
      "Ġboo": 1595,
      "ips": 1596,
      "Ġbyebye": 1597,
      "Ġuntil": 1598,
      "Ġbel": 1599,
      "MEL": 1600,
      "ans": 1601,
      "Ġsec": 1602,
      "Ġmakes": 1603,
      "Ġeye": 1604,
      "Ġbottom": 1605,
      "JES": 1606,
      "Ġmummy": 1607,
      "ng": 1608,
      "Ġhiding": 1609,
      "Ġcrying": 1610,
      "Ġbat": 1611,
      "Ġglass": 1612,
      "Ġwhole": 1613,
      "Ġgave": 1614,
      "ĠGrandma": 1615,
      "Ġeverybody": 1616,
      "Ġrunning": 1617,
      "ness": 1618,
      "Ġalmost": 1619,
      "Ġshut": 1620,
      "Ġdoctor": 1621,
      "sent": 1622,
      "Ġgets": 1623,
      "Ġeggs": 1624,
      "osta": 1625,
      "Ġguy": 1626,
      "Ġfast": 1627,
      "Ġlost": 1628,
      "Ġsposta": 1629,
      "Ġown": 1630,
      "Ġmind": 1631,
      "each": 1632,
      "Ġpus": 1633,
      "Ġtast": 1634,
      "Ġbar": 1635,
      "ĠChristmas": 1636,
      "ling": 1637,
      "lever": 1638,
      "cream": 1639,
      "Ġpictures": 1640,
      "ries": 1641,
      "Ġtoast": 1642,
      "Ġbigger": 1643,
      "illar": 1644,
      "wich": 1645,
      "Ġpresent": 1646,
      "Ġhole": 1647,
      "ey": 1648,
      "Ġflowers": 1649,
      "Ġhang": 1650,
      "Ġbubb": 1651,
      "Ġdig": 1652,
      "Ġupstairs": 1653,
      "Ġdere": 1654,
      "ons": 1655,
      "ĠLaura": 1656,
      "Ġsandwich": 1657,
      "ĠBr": 1658,
      "Ġloo": 1659,
      "Ġpo": 1660,
      "Ġbeaut": 1661,
      "Ġclever": 1662,
      "Ġbridge": 1663,
      "pillar": 1664,
      "Ġhigh": 1665,
      "Ġsleeping": 1666,
      "dle": 1667,
      "Ġduh": 1668,
      "Ġtractor": 1669,
      "Ġgrow": 1670,
      "opping": 1671,
      "eak": 1672,
      "ither": 1673,
      "more": 1674,
      "tle": 1675,
      "Ġsmell": 1676,
      "Ġphone": 1677,
      "Ġrest": 1678,
      "Ġsupp": 1679,
      "Ġanymore": 1680,
      "Ġchildren": 1681,
      "Ġtummy": 1682,
      "Ġyummy": 1683,
      "ĠDada": 1684,
      "Ġidea": 1685,
      "Ġbeauti": 1686,
      "icks": 1687,
      "Ġexcu": 1688,
      "Ġnope": 1689,
      "oy": 1690,
      "erest": 1691,
      "enty": 1692,
      "org": 1693,
      "Ġsister": 1694,
      "Ġtwenty": 1695,
      "Ġinterest": 1696,
      "anc": 1697,
      "Ġmouse": 1698,
      "Ġpark": 1699,
      "Ġbanana": 1700,
      "Ġbutterf": 1701,
      "ase": 1702,
      "Ġneeds": 1703,
      "und": 1704,
      "Ġteach": 1705,
      "Ġslide": 1706,
      "Ġbeautiful": 1707,
      "Ġfeed": 1708,
      "Ġsweetie": 1709,
      "pt": 1710,
      "Ġexcuse": 1711,
      "Ġits": 1712,
      "ied": 1713,
      "ming": 1714,
      "Ġwall": 1715,
      "app": 1716,
      "ubb": 1717,
      "Ġmic": 1718,
      "Ġcater": 1719,
      "Ġsoon": 1720,
      "Ġlo": 1721,
      "ĠAun": 1722,
      "ĠPet": 1723,
      "Ġsal": 1724,
      "opped": 1725,
      "der": 1726,
      "Ġpeas": 1727,
      "Ġscare": 1728,
      "Ġpants": 1729,
      "Ġcaterpillar": 1730,
      "Ġmoo": 1731,
      "know": 1732,
      "COL": 1733,
      "Ġpuzzle": 1734,
      "ator": 1735,
      "Ġstore": 1736,
      "Ġroad": 1737,
      "ider": 1738,
      "Ġhide": 1739,
      "Ġlegs": 1740,
      "Ġhaha": 1741,
      "Ġeither": 1742,
      "choo": 1743,
      "Ġquack": 1744,
      "Ġblocks": 1745,
      "iday": 1746,
      "cl": 1747,
      "Ġla": 1748,
      "Ġcray": 1749,
      "Ġtickle": 1750,
      "ĠSar": 1751,
      "rop": 1752,
      "unk": 1753,
      "Ġper": 1754,
      "ĠSarah": 1755,
      "Ġlor": 1756,
      "Ġzoo": 1757,
      "got": 1758,
      "Ġbask": 1759,
      "ĠCar": 1760,
      "ĠJean": 1761,
      "Ġbought": 1762,
      "ĠAd": 1763,
      "ward": 1764,
      "Ġgar": 1765,
      "Ġcookies": 1766,
      "Ġdoggy": 1767,
      "Ġsecond": 1768,
      "Ġlorry": 1769,
      "Ġblank": 1770,
      "ucky": 1771,
      "eta": 1772,
      "Ġcolors": 1773,
      "Ġswimming": 1774,
      "Ġac": 1775,
      "arden": 1776,
      "Ġforgot": 1777,
      "Ġwarm": 1778,
      "Ġcarry": 1779,
      "ĠJo": 1780,
      "Ġuhuh": 1781,
      "Ġcarrot": 1782,
      "aff": 1783,
      "Ġhadta": 1784,
      "Ġfew": 1785,
      "Ġmummie": 1786,
      "Ġuseta": 1787,
      "Ġbasket": 1788,
      "Ġpoo": 1789,
      "Ġgarden": 1790,
      "Ġbis": 1791,
      "Ġcrash": 1792,
      "cil": 1793,
      "Ġtrack": 1794,
      "Ġdriver": 1795,
      "Ġthanks": 1796,
      "aster": 1797,
      "Ġdark": 1798,
      "ls": 1799,
      "Ġletters": 1800,
      "cuit": 1801,
      "Ġsaus": 1802,
      "br": 1803,
      "well": 1804,
      "anda": 1805,
      "Ġkids": 1806,
      "Ġfine": 1807,
      "Ġwalking": 1808,
      "Ġbiscuit": 1809,
      "Ġbike": 1810,
      "int": 1811,
      "Ġbell": 1812,
      "gar": 1813,
      "Ġsea": 1814,
      "Ġcircle": 1815,
      "Ġgrass": 1816,
      "Ġcon": 1817,
      "Ġcrack": 1818,
      "Ġsocks": 1819,
      "Ġbutterfly": 1820,
      "olly": 1821,
      "Ġbrother": 1822,
      "Ġclock": 1823,
      "Ġdust": 1824,
      "Ġchange": 1825,
      "Ġfriends": 1826,
      "leep": 1827,
      "ale": 1828,
      "ire": 1829,
      "vy": 1830,
      "Ġoo": 1831,
      "Ġcause": 1832,
      "GA": 1833,
      "Ġpat": 1834,
      "Ġpencil": 1835,
      "Ġbabies": 1836,
      "tain": 1837,
      "Ġwheels": 1838,
      "Ġdry": 1839,
      "Ġdel": 1840,
      "Ġjig": 1841,
      "Ġmicrop": 1842,
      "ĠAdam": 1843,
      "Ġyay": 1844,
      "Ġcool": 1845,
      "KAR": 1846,
      "iet": 1847,
      "Ġmus": 1848,
      "Ġstep": 1849,
      "ELS": 1850,
      "Ġears": 1851,
      "RA": 1852,
      "ĠNic": 1853,
      "Ġhalf": 1854,
      "Ġmix": 1855,
      "aboo": 1856,
      "Ġhea": 1857,
      "Ġdownstairs": 1858,
      "ĠU": 1859,
      "uit": 1860,
      "ĠSp": 1861,
      "GAI": 1862,
      "Ġspe": 1863,
      "GLO": 1864,
      "saw": 1865,
      "ĠV": 1866,
      "Ġwoof": 1867,
      "Ġdra": 1868,
      "Ġnap": 1869,
      "Ġhol": 1870,
      "gon": 1871,
      "Ġeas": 1872,
      "ĠBe": 1873,
      "ious": 1874,
      "led": 1875,
      "Ġonce": 1876,
      "Ġtiny": 1877,
      "Ġtower": 1878,
      "ĠNa": 1879,
      "li": 1880,
      "eh": 1881,
      "lla": 1882,
      "ett": 1883,
      "Ġap": 1884,
      "Ġfingers": 1885,
      "Ġsomewhere": 1886,
      "Ġmicrophone": 1887,
      "Ġpress": 1888,
      "Ġpock": 1889,
      "Ġmama": 1890,
      "Ġwood": 1891,
      "Ġhappens": 1892,
      "Ġguys": 1893,
      "Ġjigsaw": 1894,
      "Ġairpl": 1895,
      "ric": 1896,
      "Ġspl": 1897,
      "Ġnurs": 1898,
      "Ġteleph": 1899,
      "Ġstre": 1900,
      "to": 1901,
      "Ġword": 1902,
      "ney": 1903,
      "oud": 1904,
      "iting": 1905,
      "ĠAnna": 1906,
      "Ġpear": 1907,
      "Ġpuppy": 1908,
      "Ġlad": 1909,
      "utes": 1910,
      "Ġmeow": 1911,
      "Ġtrees": 1912,
      "Ġpigg": 1913,
      "cial": 1914,
      "Ġfull": 1915,
      "Ġgiraff": 1916,
      "Ġtaste": 1917,
      "Ġwipe": 1918,
      "isp": 1919,
      "Ġheard": 1920,
      "Ġbuilding": 1921,
      "Ġfar": 1922,
      "Ġminutes": 1923,
      "Ġusually": 1924,
      "ĠSh": 1925,
      "Ġlooked": 1926,
      "Ġbin": 1927,
      "ima": 1928,
      "Ġcheck": 1929,
      "ĠCarol": 1930,
      "Ġstarted": 1931,
      "gu": 1932,
      "Ġquiet": 1933,
      "Ġsugar": 1934,
      "time": 1935,
      "Ġcard": 1936,
      "Ġweren": 1937,
      "Ġwhee": 1938,
      "Ġswing": 1939,
      "Ġpast": 1940,
      "ĠZ": 1941,
      "Ġshopping": 1942,
      "Ġflower": 1943,
      "Ġmar": 1944,
      "ĠPeter": 1945,
      "Ġgent": 1946,
      "Ġahead": 1947,
      "ĠNana": 1948,
      "Ġscr": 1949,
      "ever": 1950,
      "Ġcoat": 1951,
      "Ġmen": 1952,
      "Ġstra": 1953,
      "Ġbur": 1954,
      "Ġsomeone": 1955,
      "erry": 1956,
      "ud": 1957,
      "so": 1958,
      "Ġtelephone": 1959,
      "Ġri": 1960,
      "ĠNaima": 1961,
      "ian": 1962,
      "mer": 1963,
      "kin": 1964,
      "Ġkinda": 1965,
      "ages": 1966,
      "Ġwhose": 1967,
      "Ġinst": 1968,
      "Ġboot": 1969,
      "Ġpeekaboo": 1970,
      "Ġairplane": 1971,
      "Ġreach": 1972,
      "Ġbrought": 1973,
      "Ġfootball": 1974,
      "Ġsick": 1975,
      "Ġsoup": 1976,
      "Ġele": 1977,
      "nine": 1978,
      "Ġseem": 1979,
      "Ġspecial": 1980,
      "Ġexc": 1981,
      "ĠJeannine": 1982,
      "ony": 1983,
      "ĠPooh": 1984,
      "Ġsad": 1985,
      "ĠMich": 1986,
      "Ġboom": 1987,
      "ĠSt": 1988,
      "Ġcross": 1989,
      "ĠNicole": 1990,
      "eb": 1991,
      "Ġalso": 1992,
      "Ġwake": 1993,
      "igg": 1994,
      "ĠBa": 1995,
      "Ġgirls": 1996,
      "Ġwin": 1997,
      "act": 1998,
      "Ġsky": 1999,
      "Ġboun": 2000,
      "oman": 2001,
      "elly": 2002,
      "Ġneck": 2003,
      "Ġholding": 2004,
      "Ġwatching": 2005,
      "Ġspider": 2006,
      "Ġplayed": 2007,
      "Ġdriving": 2008,
      "Ġshake": 2009,
      "Ġbusy": 2010,
      "eez": 2011,
      "Ġanyway": 2012,
      "Ġlid": 2013,
      "Ġworking": 2014,
      "Ġpocket": 2015,
      "ĠFirst": 2016,
      "Ġwearing": 2017,
      "ĠCaroline": 2018,
      "ĠMiss": 2019,
      "ity": 2020,
      "ize": 2021,
      "ĠPost": 2022,
      "Ġbricks": 2023,
      "LA": 2024,
      "ĠFirstname": 2025,
      "lot": 2026,
      "Ġcur": 2027,
      "Ġalong": 2028,
      "ald": 2029,
      "illiam": 2030,
      "Ġmeans": 2031,
      "pes": 2032,
      "Ġlie": 2033,
      "Ġdrop": 2034,
      "Ġmeat": 2035,
      "Ġkick": 2036,
      "Ġsounds": 2037,
      "Ġchew": 2038,
      "Ġpussy": 2039,
      "ying": 2040,
      "agh": 2041,
      "Ġmusic": 2042,
      "hah": 2043,
      "ĠWilliam": 2044,
      "Ġscrew": 2045,
      "ones": 2046,
      "umb": 2047,
      "ĠPostman": 2048,
      "Ġgiraffe": 2049,
      "Ġhope": 2050,
      "etti": 2051,
      "ĠAle": 2052,
      "amb": 2053,
      "Ġscared": 2054,
      "Ġeach": 2055,
      "ues": 2056,
      "Ġblanket": 2057,
      "Ġable": 2058,
      "ĠAnd": 2059,
      "Ġdropped": 2060,
      "Ġbubbles": 2061,
      "Ġpour": 2062,
      "Ġchips": 2063,
      "Ġpin": 2064,
      "enry": 2065,
      "Pat": 2066,
      "aul": 2067,
      "Ġseat": 2068,
      "Ġpers": 2069,
      "Ġcroc": 2070,
      "Ġknee": 2071,
      "Ġfat": 2072,
      "Ġslipp": 2073,
      "Ġheavy": 2074,
      "cky": 2075,
      "ates": 2076,
      "Ġbest": 2077,
      "eart": 2078,
      "bin": 2079,
      "ten": 2080,
      "Ġpotato": 2081,
      "ĠPo": 2082,
      "Ġtrucks": 2083,
      "Ġtall": 2084,
      "heart": 2085,
      "Ġahhah": 2086,
      "Ġlemme": 2087,
      "Ġfalling": 2088,
      "Ġdrawing": 2089,
      "Ġgosh": 2090,
      "inky": 2091,
      "EV": 2092,
      "Ġbug": 2093,
      "Ġstrawberry": 2094,
      "AUN": 2095,
      "Ġmost": 2096,
      "Ġnobody": 2097,
      "sta": 2098,
      "ĠAlex": 2099,
      "ning": 2100,
      "aps": 2101,
      "unnel": 2102,
      "ssed": 2103,
      "Ġcrocod": 2104,
      "Ġlaug": 2105,
      "Ġhasta": 2106,
      "ital": 2107,
      "Ġfruit": 2108,
      "da": 2109,
      "ts": 2110,
      "ork": 2111,
      "ions": 2112,
      "aghetti": 2113,
      "ife": 2114,
      "ple": 2115,
      "Ġcu": 2116,
      "Ġwashing": 2117,
      "Ġdump": 2118,
      "atch": 2119,
      "Ġperson": 2120,
      "Ġsquare": 2121,
      "Ġgrapes": 2122,
      "Ġouch": 2123,
      "Ġvan": 2124,
      "Ġfork": 2125,
      "Ġspot": 2126,
      "Ġsweetheart": 2127,
      "anny": 2128,
      "Ġtonight": 2129,
      "Ġshh": 2130,
      "Ġreading": 2131,
      "Ġspaghetti": 2132,
      "Ġasleep": 2133,
      "iel": 2134,
      "ĠSan": 2135,
      "uzz": 2136,
      "Ġlift": 2137,
      "vis": 2138,
      "Ġwoo": 2139,
      "ĠBear": 2140,
      "iddle": 2141,
      "Ġhipp": 2142,
      "Ġowl": 2143,
      "Ġspell": 2144,
      "Ġknows": 2145,
      "board": 2146,
      "Ġclown": 2147,
      "gone": 2148,
      "ĠAr": 2149,
      "bre": 2150,
      "Ġtoes": 2151,
      "ĠHenry": 2152,
      "Ġstanding": 2153,
      "Ġsoft": 2154,
      "ĠMar": 2155,
      "Ġgiving": 2156,
      "ier": 2157,
      "Ġprop": 2158,
      "Ġmissing": 2159,
      "Ġtv": 2160,
      "Ġline": 2161,
      "Ġpengu": 2162,
      "Ġhug": 2163,
      "LY": 2164,
      "onald": 2165,
      "Ġspill": 2166,
      "LYN": 2167,
      "ris": 2168,
      "Ġteacher": 2169,
      "Ġcute": 2170,
      "ĠAnne": 2171,
      "ert": 2172,
      "Ġmis": 2173,
      "ael": 2174,
      "Ġmyself": 2175,
      "Ġpa": 2176,
      "Ġcover": 2177,
      "Ġlay": 2178,
      "ĠBecky": 2179,
      "Ġbuck": 2180,
      "anut": 2181,
      "Ġmot": 2182,
      "Ġpeanut": 2183,
      "Ġapart": 2184,
      "Ġcere": 2185,
      "Ġtunnel": 2186,
      "Ġra": 2187,
      "Ġwilln": 2188,
      "LAU": 2189,
      "ment": 2190,
      "Ġpump": 2191,
      "athy": 2192,
      "ocked": 2193,
      "Ġcereal": 2194,
      "Ġstraight": 2195,
      "Ġmonster": 2196,
      "bur": 2197,
      "ors": 2198,
      "Ġkeys": 2199,
      "Ġturtle": 2200,
      "avid": 2201,
      "Ġyog": 2202,
      "Ġlear": 2203,
      "innie": 2204,
      "ence": 2205,
      "Ġasked": 2206,
      "ĠSam": 2207,
      "MA": 2208,
      "Ġanybody": 2209,
      "Ġnearly": 2210,
      "Ġgrandma": 2211,
      "Ġay": 2212,
      "bear": 2213,
      "ĠMister": 2214,
      "ĠSanta": 2215,
      "Ġrecorder": 2216,
      "Ġtomato": 2217,
      "Ġfo": 2218,
      "Ġpoorly": 2219,
      "Ġbirds": 2220,
      "Ġpet": 2221,
      "dad": 2222,
      "Ġran": 2223,
      "Ġtelling": 2224,
      "ĠMat": 2225,
      "angle": 2226,
      "urse": 2227,
      "acket": 2228,
      "Ġraining": 2229,
      "Ġdanc": 2230,
      "ĠMrs": 2231,
      "Ġstairs": 2232,
      "clock": 2233,
      "Ġgarage": 2234,
      "Ġnee": 2235,
      "Ġpee": 2236,
      "ĠSue": 2237,
      "Ġtrains": 2238,
      "Ġhappening": 2239,
      "Ġinstead": 2240,
      "Ġshort": 2241,
      "Ġforget": 2242,
      "Ġjumping": 2243,
      "Ġmotor": 2244,
      "Ġkey": 2245,
      "wards": 2246,
      "ince": 2247,
      "KAT": 2248,
      "Ġmach": 2249,
      "Ġfight": 2250,
      "ĠAuntie": 2251,
      "nic": 2252,
      "icy": 2253,
      "Ġcrocodile": 2254,
      "Ġthinking": 2255,
      "Ġsausage": 2256,
      "Ġbeans": 2257,
      "Ġpas": 2258,
      "if": 2259,
      "ĠDavid": 2260,
      "ĠBar": 2261,
      "good": 2262,
      "Ġdance": 2263,
      "gr": 2264,
      "Ġproper": 2265,
      "Ġsticky": 2266,
      "Ġpill": 2267,
      "ect": 2268,
      "Ġstreet": 2269,
      "Ġlives": 2270,
      "goodness": 2271,
      "urt": 2272,
      "ourse": 2273,
      "ouble": 2274,
      "ĠJen": 2275,
      "Ġelephants": 2276,
      "Ġim": 2277,
      "Ġmov": 2278,
      "ines": 2279,
      "ugg": 2280,
      "RIC": 2281,
      "EN": 2282,
      "he": 2283,
      "ings": 2284,
      "Ġupside": 2285,
      "Ġstation": 2286,
      "Ġdogs": 2287,
      "Ġjelly": 2288,
      "uper": 2289,
      "pa": 2290,
      "Ġshar": 2291,
      "NIC": 2292,
      "Ġyeh": 2293,
      "Ġhammer": 2294,
      "omi": 2295,
      "fl": 2296,
      "Ġshape": 2297,
      "Ġcouple": 2298,
      "ield": 2299,
      "haps": 2300,
      "Ġcheek": 2301,
      "Ġtowel": 2302,
      "Ġperhaps": 2303,
      "Ġnursery": 2304,
      "come": 2305,
      "Ġtrous": 2306,
      "Ġcats": 2307,
      "era": 2308,
      "ĠPer": 2309,
      "ĠJack": 2310,
      "Ġbeach": 2311,
      "atur": 2312,
      "Ġducks": 2313,
      "Ġlights": 2314,
      "Ġve": 2315,
      "Ġbeg": 2316,
      "Ġwords": 2317,
      "ĠPaul": 2318,
      "astic": 2319,
      "box": 2320,
      "Ġpainting": 2321,
      "ĠMichael": 2322,
      "ĠEl": 2323,
      "Ġtwel": 2324,
      "ered": 2325,
      "Ġtid": 2326,
      "Ġdustbin": 2327,
      "Ġsuch": 2328,
      "Ġcam": 2329,
      "Ġliked": 2330,
      "Ġlate": 2331,
      "Ġmiddle": 2332,
      "Ġemp": 2333,
      "Ġwithout": 2334,
      "Ġloud": 2335,
      "ope": 2336,
      "ĠPl": 2337,
      "Ġtooth": 2338,
      "ĠBig": 2339,
      "Ġflying": 2340,
      "Ġoink": 2341,
      "Ġwaiting": 2342,
      "Ġdays": 2343,
      "Ġempty": 2344,
      "Ġpicnic": 2345,
      "Ġtrousers": 2346,
      "ĠJames": 2347,
      "Ġbears": 2348,
      "Ġdigger": 2349,
      "Ġph": 2350,
      "Ġmed": 2351,
      "Ġsuit": 2352,
      "ars": 2353,
      "Ġglasses": 2354,
      "unday": 2355,
      "Ġleaf": 2356,
      "Ġsuppose": 2357,
      "Bear": 2358,
      "Ġding": 2359,
      "Ġapples": 2360,
      "Ġcourse": 2361,
      "Ġtri": 2362,
      "Ġknife": 2363,
      "Ġcrayons": 2364,
      "Ġwhoo": 2365,
      "Ġfallen": 2366,
      "Ġdressed": 2367,
      "Ġhos": 2368,
      "Ġspace": 2369,
      "Ġmachine": 2370,
      "Ġsurp": 2371,
      "ĠSunday": 2372,
      "ĠBaby": 2373,
      "Ġsinging": 2374,
      "Ġtap": 2375,
      "Ġtwelve": 2376,
      "Ġpanda": 2377,
      "Ġcandy": 2378,
      "Ġnut": 2379,
      "ens": 2380,
      "ĠGranddad": 2381,
      "Ġsmart": 2382,
      "Ġspr": 2383,
      "Ġballs": 2384,
      "ĠEm": 2385,
      "ummer": 2386,
      "Ġug": 2387,
      "ĠPat": 2388,
      "Ġcaught": 2389,
      "unh": 2390,
      "aturday": 2391,
      "Ġcards": 2392,
      "Ġoop": 2393,
      "Ġclos": 2394,
      "Ġloves": 2395,
      "ike": 2396,
      "Ġrub": 2397,
      "Ġrubb": 2398,
      "COU": 2399,
      "Ġstrawberries": 2400,
      "jam": 2401,
      "Ġshare": 2402,
      "Ġwriting": 2403,
      "Ġmatch": 2404,
      "Ġdiaper": 2405,
      "Ġladyb": 2406,
      "port": 2407,
      "pital": 2408,
      "Ġpay": 2409,
      "ĠCathy": 2410,
      "Ġsnap": 2411,
      "sc": 2412,
      "Ġdoo": 2413,
      "Ġknew": 2414,
      "omin": 2415,
      "ebra": 2416,
      "ating": 2417,
      "ĠNomi": 2418,
      "Ġstrong": 2419,
      "ĠNina": 2420,
      "Ġeleven": 2421,
      "Ġthirty": 2422,
      "ides": 2423,
      "ĠBro": 2424,
      "io": 2425,
      "hh": 2426,
      "uild": 2427,
      "Ġpoint": 2428,
      "imit": 2429,
      "Ġarms": 2430,
      "Ġvis": 2431,
      "Ġinterested": 2432,
      "lem": 2433,
      "Ġquest": 2434,
      "Ġdish": 2435,
      "Ġfur": 2436,
      "ala": 2437,
      "athan": 2438,
      "Ġeasy": 2439,
      "Ġpillow": 2440,
      "Ġnin": 2441,
      "ggie": 2442,
      "aroo": 2443,
      "ilt": 2444,
      "Ġmissed": 2445,
      "Ġhospital": 2446,
      "ĠDomin": 2447,
      "ped": 2448,
      "Ġdragon": 2449,
      "Ġbatter": 2450,
      "Ġboots": 2451,
      "Ġnapp": 2452,
      "Ġplane": 2453,
      "Ġbaba": 2454,
      "ween": 2455,
      "Ġland": 2456,
      "Ġcoc": 2457,
      "Ġscratch": 2458,
      "Ġcooking": 2459,
      "ĠY": 2460,
      "ĠAbe": 2461,
      "ĠWinnie": 2462,
      "irr": 2463,
      "Ġdec": 2464,
      "Ġpiggy": 2465,
      "ĠDimit": 2466,
      "Ġalone": 2467,
      "rel": 2468,
      "angaroo": 2469,
      "Ġsees": 2470,
      "Ġeats": 2471,
      "Ġcamera": 2472,
      "ĠGe": 2473,
      "Ġtight": 2474,
      "ipped": 2475,
      "Ġtiss": 2476,
      "Ġzebra": 2477,
      "ĠDominic": 2478,
      "ĠDimitra": 2479,
      "XX": 2480,
      "Ġmad": 2481,
      "ĠAl": 2482,
      "Ġturned": 2483,
      "ĠGrandad": 2484,
      "Ġdrinking": 2485,
      "Ġpoliceman": 2486,
      "owed": 2487,
      "la": 2488,
      "Ġfam": 2489,
      "Ġcoll": 2490,
      "opter": 2491,
      "uilder": 2492,
      "Ġquickly": 2493,
      "Ġribb": 2494,
      "cept": 2495,
      "Ġwhatever": 2496,
      "Ġbits": 2497,
      "Ġlearn": 2498,
      "bble": 2499,
      "Ġtie": 2500,
      "Ġcows": 2501,
      "Ġmedic": 2502,
      "Ġdancing": 2503,
      "icopter": 2504,
      "Ġpotty": 2505,
      "Ġslow": 2506,
      "Ġago": 2507,
      "Ġfireman": 2508,
      "Ġmovie": 2509,
      "Ġkangaroo": 2510,
      "Ġpool": 2511,
      "Ġee": 2512,
      "Ġfair": 2513,
      "Ġgoodness": 2514,
      "ordon": 2515,
      "Ġsat": 2516,
      "Ġsplash": 2517,
      "arren": 2518,
      "Ġchang": 2519,
      "Ġter": 2520,
      "ashing": 2521,
      "Ġsupper": 2522,
      "Ġaah": 2523,
      "ĠGordon": 2524,
      "Ġonto": 2525,
      "let": 2526,
      "ign": 2527,
      "Ġtimes": 2528,
      "Ġmark": 2529,
      "Ġtried": 2530,
      "ĠTig": 2531,
      "Ġcarri": 2532,
      "Ġcorner": 2533,
      "Ġmail": 2534,
      "ĠSaturday": 2535,
      "Ġclass": 2536,
      "rm": 2537,
      "Ġmedicine": 2538,
      "ĠSte": 2539,
      "Ġground": 2540,
      "TO": 2541,
      "Ġtip": 2542,
      "uth": 2543,
      "Ġlamb": 2544,
      "Ġcrisp": 2545,
      "Ġbelong": 2546,
      "fr": 2547,
      "Ġwel": 2548,
      "ĠTom": 2549,
      "Ġscary": 2550,
      "ron": 2551,
      "Ġriding": 2552,
      "ĠEd": 2553,
      "Ġmoment": 2554,
      "ĠFriday": 2555,
      "boo": 2556,
      "Ġproblem": 2557,
      "Ġcarrots": 2558,
      "Ġaye": 2559,
      "Ġwelcome": 2560,
      "aces": 2561,
      "Ġain": 2562,
      "Ġgoat": 2563,
      "Ġpass": 2564,
      "Ġtrouble": 2565,
      "SS": 2566,
      "abel": 2567,
      "ieve": 2568,
      "Ġmagic": 2569,
      "Ġshouldn": 2570,
      "rible": 2571,
      "ddle": 2572,
      "ĠUn": 2573,
      "Ġmum": 2574,
      "Ġcirc": 2575,
      "Ġmoving": 2576,
      "Ġpenguin": 2577,
      "jamas": 2578,
      "Ġvisit": 2579,
      "Ġtele": 2580,
      "zy": 2581,
      "Ġfox": 2582,
      "Ġcomp": 2583,
      "umpty": 2584,
      "Ġfoll": 2585,
      "Ġtoil": 2586,
      "Ġholiday": 2587,
      "Ġpicked": 2588,
      "Ġleaves": 2589,
      "vision": 2590,
      "Ġhee": 2591,
      "onday": 2592,
      "ĠRach": 2593,
      "cake": 2594,
      "inger": 2595,
      "Ġwish": 2596,
      "Ġmud": 2597,
      "ĠDe": 2598,
      "Ġcone": 2599,
      "Ġsquir": 2600,
      "vent": 2601,
      "Ġeaten": 2602,
      "ĠThe": 2603,
      "ĠTigger": 2604,
      "Ġclosed": 2605,
      "ĠMic": 2606,
      "Ġthrowing": 2607,
      "Ġrac": 2608,
      "Ġpound": 2609,
      "lew": 2610,
      "ĠRob": 2611,
      "Ġhelicopter": 2612,
      "Ġladder": 2613,
      "ĠEve": 2614,
      "Ġhorses": 2615,
      "Ġproperly": 2616,
      "Ġdelic": 2617,
      "Ġmirr": 2618,
      "Ġnoisy": 2619,
      "Ġcrayon": 2620,
      "Ġworks": 2621,
      "Ġsteps": 2622,
      "ib": 2623,
      "Ġaer": 2624,
      "Ġjam": 2625,
      "Ġacr": 2626,
      "Ġtoilet": 2627,
      "Ġwra": 2628,
      "Ġmagn": 2629,
      "Ġenj": 2630,
      "Ġtriangle": 2631,
      "Ġfield": 2632,
      "Ġtelevision": 2633,
      "bow": 2634,
      "oe": 2635,
      "Ġhurts": 2636,
      "Ġcomb": 2637,
      "alked": 2638,
      "Ġdinosaurs": 2639,
      "Ġhimself": 2640,
      "Ġpan": 2641,
      "Ġexcept": 2642,
      "cat": 2643,
      "Ġrace": 2644,
      "Ġtong": 2645,
      "stand": 2646,
      "Ġstea": 2647,
      "bul": 2648,
      "ĠSm": 2649,
      "Ġsciss": 2650,
      "mon": 2651,
      "Ġdes": 2652,
      "Ġlying": 2653,
      "ĠWarren": 2654,
      "Ġyuck": 2655,
      "Ġshap": 2656,
      "Ġdey": 2657,
      "Ġpumpkin": 2658,
      "anas": 2659,
      "igator": 2660,
      "Ġshark": 2661,
      "ĠEr": 2662,
      "Ġsince": 2663,
      "ĠIs": 2664,
      "Ġnews": 2665,
      "ĠBen": 2666,
      "Ġused": 2667,
      "Ġrow": 2668,
      "ĠPlay": 2669,
      "ret": 2670,
      "icul": 2671,
      "astle": 2672,
      "Ġbiscuits": 2673,
      "ĠCharl": 2674,
      "Ġbum": 2675,
      "ĠMickey": 2676,
      "Ġballoons": 2677,
      "Ġyears": 2678,
      "ĠPercy": 2679,
      "Ġrubbish": 2680,
      "Ġneat": 2681,
      "Ġenjoy": 2682,
      "ĠLu": 2683,
      "oice": 2684,
      "Ġbuttons": 2685,
      "ĠSc": 2686,
      "Ġnappie": 2687,
      "ason": 2688,
      "Ġmonth": 2689,
      "ĠBl": 2690,
      "king": 2691,
      "Ġchim": 2692,
      "Ġchairs": 2693,
      "Ġdolls": 2694,
      "Ġmirror": 2695,
      "Ġhill": 2696,
      "Ġups": 2697,
      "icycle": 2698,
      "ĠEth": 2699,
      "Ġpulling": 2700,
      "Ġstring": 2701,
      "Ġyucky": 2702,
      "oat": 2703,
      "Ġroof": 2704,
      "Ġboard": 2705,
      "pack": 2706,
      "ĠUncle": 2707,
      "Ġscissors": 2708,
      "ĠSis": 2709,
      "Ġambul": 2710,
      "Ġfence": 2711,
      "Ġinteresting": 2712,
      "Ġshout": 2713,
      "neath": 2714,
      "Ġweeks": 2715,
      "Ġacross": 2716,
      "ĠEthan": 2717,
      "Ġloll": 2718,
      "anger": 2719,
      "ĠLily": 2720,
      "Ġunderneath": 2721,
      "Ġtissue": 2722,
      "Ġlemon": 2723,
      "Ġcracker": 2724,
      "Ġpoop": 2725,
      "iling": 2726,
      "Ġdelicious": 2727,
      "ress": 2728,
      "Ġumbre": 2729,
      "eg": 2730,
      "vel": 2731,
      "Ġbaa": 2732,
      "ĠHar": 2733,
      "Ġking": 2734,
      "ĠCr": 2735,
      "ĠJess": 2736,
      "Ġfits": 2737,
      "dge": 2738,
      "Ġunderstand": 2739,
      "Ġsleepy": 2740,
      "rr": 2741,
      "Ġfree": 2742,
      "Ġhour": 2743,
      "apa": 2744,
      "Ġsuper": 2745,
      "Ġearly": 2746,
      "ĠMonday": 2747,
      "Ġsummer": 2748,
      "Ġstopped": 2749,
      "Ġstor": 2750,
      "Ġsi": 2751,
      "ĠMan": 2752,
      "Ġpigs": 2753,
      "iff": 2754,
      "Ġworm": 2755,
      "Ġbase": 2756,
      "Ġwhale": 2757,
      "Ġclap": 2758,
      "Ġsave": 2759,
      "Ġbucket": 2760,
      "Ġambulance": 2761,
      "Ġtoe": 2762,
      "Ġsoap": 2763,
      "ooray": 2764,
      "Ġbelieve": 2765,
      "nes": 2766,
      "Ġhooray": 2767,
      "Ġbody": 2768,
      "ower": 2769,
      "Ġliving": 2770,
      "Ġoy": 2771,
      "Ġsweets": 2772,
      "RAC": 2773,
      "Ġslice": 2774,
      "Ġvroom": 2775,
      "Ġlick": 2776,
      "Ġusing": 2777,
      "Ġrais": 2778,
      "TOY": 2779,
      "Ġbra": 2780,
      "ully": 2781,
      "andy": 2782,
      "ggy": 2783,
      "Ġstars": 2784,
      "Ġspoons": 2785,
      "Ġrice": 2786,
      "Ġchip": 2787,
      "Ġbackwards": 2788,
      "Ġhurry": 2789,
      "Ġcutting": 2790,
      "asty": 2791,
      "cha": 2792,
      "Ġcheeky": 2793,
      "Ġbull": 2794,
      "pper": 2795,
      "Ġgoodbye": 2796,
      "Ġbags": 2797,
      "eeze": 2798,
      "sw": 2799,
      "Ġaftern": 2800,
      "Ġsign": 2801,
      "ĠRuth": 2802,
      "Ġafternoon": 2803,
      "Ġdead": 2804,
      "Ġtongue": 2805,
      "Ġho": 2806,
      "ina": 2807,
      "Ġumbrella": 2808,
      "The": 2809,
      "Ġes": 2810,
      "Ġbelly": 2811,
      "ĠRachel": 2812,
      "ums": 2813,
      "ogn": 2814,
      "Ġjumped": 2815,
      "Ġfarmer": 2816,
      "MAD": 2817,
      "Ġknocked": 2818,
      "Ġchimney": 2819,
      "Ġnumbers": 2820,
      "Ġacc": 2821,
      "Ġpajamas": 2822,
      "ishing": 2823,
      "Ġcups": 2824,
      "Ġcrab": 2825,
      "Ġad": 2826,
      "ROB": 2827,
      "Ġspin": 2828,
      "elt": 2829,
      "Ġflat": 2830,
      "Ġgentle": 2831,
      "Ġhippo": 2832,
      "ĠMatth": 2833,
      "Ġoven": 2834,
      "Ġeverywhere": 2835,
      "cc": 2836,
      "Ġhoo": 2837,
      "Ġdonkey": 2838,
      "Ġdough": 2839,
      "Ġnames": 2840,
      "Ġplastic": 2841,
      "Ġninet": 2842,
      "iver": 2843,
      "ĠAwww": 2844,
      "Ġanywhere": 2845,
      "RI": 2846,
      "Ġgate": 2847,
      "ba": 2848,
      "ler": 2849,
      "Ġtrunk": 2850,
      "Ġstamp": 2851,
      "case": 2852,
      "ĠRoman": 2853,
      "Builder": 2854,
      "any": 2855,
      "elet": 2856,
      "Ġbananas": 2857,
      "Ġbarn": 2858,
      "undred": 2859,
      "ĠMatthew": 2860,
      "pped": 2861,
      "ident": 2862,
      "ĠPipp": 2863,
      "Ġrolling": 2864,
      "Ġtakes": 2865,
      "Ġfre": 2866,
      "Ġfill": 2867,
      "Ġrh": 2868,
      "Ġsore": 2869,
      "eer": 2870,
      "urch": 2871,
      "ĠFl": 2872,
      "Ġorang": 2873,
      "ored": 2874,
      "Ġfeeling": 2875,
      "Ġholes": 2876,
      "Ġty": 2877,
      "Ġfif": 2878,
      "Ġsqueak": 2879,
      "Ġwave": 2880,
      "irsty": 2881,
      "Ġgently": 2882,
      "Ġrecogn": 2883,
      "Ġrat": 2884,
      "boy": 2885,
      "Ġhundred": 2886,
      "Ġgold": 2887,
      "Ġjacket": 2888,
      "Ġvide": 2889,
      "fin": 2890,
      "Ġnah": 2891,
      "Ġnail": 2892,
      "elle": 2893,
      "dding": 2894,
      "illiant": 2895,
      "Ġbrilliant": 2896,
      "ĠMaisy": 2897,
      "fish": 2898,
      "per": 2899,
      "Ġcastle": 2900,
      "Ġgim": 2901,
      "Ġglue": 2902,
      "Ġshin": 2903,
      "Ġpresents": 2904,
      "Ġwigg": 2905,
      "Ġbib": 2906,
      "Ġwaff": 2907,
      "ashed": 2908,
      "Ġsauce": 2909,
      "Ġden": 2910,
      "Ġclimbing": 2911,
      "Ġcoloring": 2912,
      "Ġcupboard": 2913,
      "ĠAndy": 2914,
      "Ġgum": 2915,
      "Ġtu": 2916,
      "ĠFire": 2917,
      "Ġsalt": 2918,
      "Ġugh": 2919,
      "ursday": 2920,
      "Ġworry": 2921,
      "keys": 2922,
      "une": 2923,
      "Ġhelm": 2924,
      "Ġrob": 2925,
      "ĠChrist": 2926,
      "Ġsnack": 2927,
      "uesday": 2928,
      "but": 2929,
      "Ġlap": 2930,
      "Ġna": 2931,
      "Ġpretending": 2932,
      "wise": 2933,
      "Ġtrail": 2934,
      "Ġlollip": 2935,
      "Ġfollow": 2936,
      "over": 2937,
      "ited": 2938,
      "Ġsharp": 2939,
      "Ġgimme": 2940,
      "Ġeveryone": 2941,
      "Ġlaughing": 2942,
      "Ġchurch": 2943,
      "Ġfro": 2944,
      "Ġkill": 2945,
      "Ġbedroom": 2946,
      "Ġboxes": 2947,
      "nesday": 2948,
      "ĠGra": 2949,
      "Ġthirsty": 2950,
      "wee": 2951,
      "Ġmeet": 2952,
      "Ġtrick": 2953,
      "Ġhum": 2954,
      "ĠSwww": 2955,
      "Ġcap": 2956,
      "land": 2957,
      "Ġtill": 2958,
      "Ġcraw": 2959,
      "eth": 2960,
      "Ġskin": 2961,
      "Ġyogurt": 2962,
      "Ġstom": 2963,
      "opl": 2964,
      "Ġgames": 2965,
      "GRM": 2966,
      "ula": 2967,
      "Ġrad": 2968,
      "Ġbuzz": 2969,
      "ether": 2970,
      "rown": 2971,
      "Ġplant": 2972,
      "inda": 2973,
      "ĠJul": 2974,
      "Ġsnowman": 2975,
      "GMA": 2976,
      "Ġind": 2977,
      "Ġtidy": 2978,
      "Ġoranges": 2979,
      "Ġfixed": 2980,
      "Ġgun": 2981,
      "inkle": 2982,
      "Ġotherwise": 2983,
      "Ġjo": 2984,
      "mean": 2985,
      "Ġcrisps": 2986,
      "Ġthrew": 2987,
      "Ġheart": 2988,
      "fully": 2989,
      "Ġpeach": 2990,
      "Ġaeropl": 2991,
      "allow": 2992,
      "unno": 2993,
      "Ġcot": 2994,
      "ĠChild": 2995,
      "Ġbubble": 2996,
      "Ġdunno": 2997,
      "ouses": 2998,
      "Ġcrunch": 2999,
      "ANN": 3000,
      "ĠGod": 3001,
      "Ġuhhum": 3002,
      "Ġstrip": 3003,
      "raid": 3004,
      "ĠAb": 3005,
      "Ġser": 3006,
      "Ġshops": 3007,
      "ated": 3008,
      "Ġbackpack": 3009,
      "Ġhorn": 3010,
      "Ġbicycle": 3011,
      "ache": 3012,
      "iol": 3013,
      "Ġhon": 3014,
      "Ġpears": 3015,
      "Ġshapes": 3016,
      "ĠMark": 3017,
      "ĠHe": 3018,
      "Ġexact": 3019,
      "Ġwoman": 3020,
      "ĠWed": 3021,
      "Ġveget": 3022,
      "Ġafraid": 3023,
      "corn": 3024,
      "lon": 3025,
      "ps": 3026,
      "az": 3027,
      "ĠFireman": 3028,
      "Ġband": 3029,
      "Ġmustn": 3030,
      "TRA": 3031,
      "for": 3032,
      "ĠNathan": 3033,
      "Ġpack": 3034,
      "ĠLiz": 3035,
      "Ġwashed": 3036,
      "ĠMary": 3037,
      "Ġchick": 3038,
      "Ġhelmet": 3039,
      "ĠPing": 3040,
      "Ġload": 3041,
      "Pooh": 3042,
      "Ġdanger": 3043,
      "Ġcouch": 3044,
      "Ġpotatoes": 3045,
      "MAT": 3046,
      "rench": 3047,
      "Ġginger": 3048,
      "Ġneigh": 3049,
      "Ġtown": 3050,
      "ils": 3051,
      "rian": 3052,
      "Ġgor": 3053,
      "ĠTuesday": 3054,
      "ĠWednesday": 3055,
      "Ġdream": 3056,
      "ĠTelet": 3057,
      "Ġvoice": 3058,
      "Ġdefin": 3059,
      "Ġspots": 3060,
      "ex": 3061,
      "olf": 3062,
      "Ġworld": 3063,
      "Ġspeak": 3064,
      "Ġrocket": 3065,
      "inc": 3066,
      "ĠBobby": 3067,
      "Ġlaugh": 3068,
      "Ġshoot": 3069,
      "Ġsalad": 3070,
      "bot": 3071,
      "Ġfamily": 3072,
      "Ġansw": 3073,
      "Ġpushing": 3074,
      "ym": 3075,
      "ĠMummie": 3076,
      "Ġtrip": 3077,
      "ĠThursday": 3078,
      "Ġslippers": 3079,
      "ubbies": 3080,
      "Ġmush": 3081,
      "Ġtor": 3082,
      "Ġfridge": 3083,
      "ĠEric": 3084,
      "Ġvideo": 3085,
      "Ġdefinite": 3086,
      "Ġdol": 3087,
      "Ġbirdie": 3088,
      "Ġcalling": 3089,
      "bie": 3090,
      "Ġgas": 3091,
      "ches": 3092,
      "flakes": 3093,
      "Ġswe": 3094,
      "Ġgarb": 3095,
      "Ġbounce": 3096,
      "Ġpasta": 3097,
      "ĠSmart": 3098,
      "ĠJose": 3099,
      "dough": 3100,
      "Ġtaken": 3101,
      "Ġdolph": 3102,
      "OB": 3103,
      "Ġfact": 3104,
      "ĠSally": 3105,
      "ction": 3106,
      "Ġoch": 3107,
      "Ġsend": 3108,
      "Ġroar": 3109,
      "Ġsausages": 3110,
      "Ġturning": 3111,
      "KEN": 3112,
      "Ġcock": 3113,
      "Ġgiant": 3114,
      "Ġgarbage": 3115,
      "Ġsafe": 3116,
      "no": 3117,
      "Ġfather": 3118,
      "Ġfelt": 3119,
      "Ġbud": 3120,
      "Ġdefinitely": 3121,
      "Ġlollipop": 3122,
      "Ġvac": 3123,
      "ĠSpot": 3124,
      "Ġcal": 3125,
      "ĠZorg": 3126,
      "Ġpicking": 3127,
      "cing": 3128,
      "Ġsink": 3129,
      "Ġbless": 3130,
      "Ġfright": 3131,
      "ents": 3132,
      "Sam": 3133,
      "Ġhu": 3134,
      "Ġhhh": 3135,
      "tu": 3136,
      "Ġbabys": 3137,
      "aron": 3138,
      "Ġmessy": 3139,
      "ĠBow": 3140,
      "Ġpow": 3141,
      "omer": 3142,
      "cup": 3143,
      "Ġturkey": 3144,
      "Ġchoose": 3145,
      "udy": 3146,
      "Ġplays": 3147,
      "Ġpepper": 3148,
      "Ġmomma": 3149,
      "Ġaccident": 3150,
      "Ġtrailer": 3151,
      "Ġopened": 3152,
      "Ġcupcake": 3153,
      "Ġcleaning": 3154,
      "Ġexactly": 3155,
      "ĠMax": 3156,
      "less": 3157,
      "ĠTo": 3158,
      "ĠBer": 3159,
      "Ġtire": 3160,
      "Ġwitch": 3161,
      "Ġx": 3162,
      "ĠDip": 3163,
      "NAN": 3164,
      "cked": 3165,
      "Bird": 3166,
      "GRF": 3167,
      "Ġkeeps": 3168,
      "ĠJoseph": 3169,
      "Ġrather": 3170,
      "Ġupset": 3171,
      "Ġsweep": 3172,
      "Ġstomach": 3173,
      "Ġaeroplane": 3174,
      "Ġfore": 3175,
      "Ġawful": 3176,
      "Ġlucky": 3177,
      "Ġstuffed": 3178,
      "Ġquestion": 3179,
      "Ġcost": 3180,
      "Ġket": 3181,
      "Ġpushed": 3182,
      "Ġiron": 3183,
      "Ġma": 3184,
      "Ġwhether": 3185,
      "Ġfig": 3186,
      "Ġforty": 3187,
      "ik": 3188,
      "Ġstir": 3189,
      "Ġallowed": 3190,
      "mo": 3191,
      "Ġnurse": 3192,
      "ĠPippin": 3193,
      "aus": 3194,
      "Ġstayed": 3195,
      "Ġpea": 3196,
      "Ġpages": 3197,
      "naw": 3198,
      "Ġfifty": 3199,
      "Ġhouses": 3200,
      "Ġcough": 3201,
      "Ġmend": 3202,
      "Ġsew": 3203,
      "ĠDo": 3204,
      "ĠNew": 3205,
      "Ġfift": 3206,
      "Ġlistening": 3207,
      "Ġfold": 3208,
      "Ġhelping": 3209,
      "oppy": 3210,
      "Ġang": 3211,
      "Ġalligator": 3212,
      "Ġkinds": 3213,
      "Ġcuddle": 3214,
      "ROG": 3215,
      "Ġladybird": 3216,
      "LL": 3217,
      "ables": 3218,
      "ding": 3219,
      "itter": 3220,
      "Ġsquirrel": 3221,
      "Ġdirt": 3222,
      "Ġhen": 3223,
      "Ġkept": 3224,
      "Ġcarp": 3225,
      "ker": 3226,
      "Ġach": 3227,
      "Ġmet": 3228,
      "ĠWh": 3229,
      "Ġcowboy": 3230,
      "Ġlose": 3231,
      "Ġcakes": 3232,
      "Ġfe": 3233,
      "huh": 3234,
      "ĠLinda": 3235,
      "Ġsmile": 3236,
      "Ġdoors": 3237,
      "Ġwalked": 3238,
      "Ġmuff": 3239,
      "rise": 3240,
      "ĠPapa": 3241,
      "Ġsevent": 3242,
      "Ġcherry": 3243,
      "lin": 3244,
      "Ġseal": 3245,
      "Ġseeds": 3246,
      "Ch": 3247,
      "ises": 3248,
      "Ġpulled": 3249,
      "river": 3250,
      "Ġbes": 3251,
      "ĠPingu": 3252,
      "ĠNathaniel": 3253,
      "Ġrefr": 3254,
      "Ġtrue": 3255,
      "Ġwhist": 3256,
      "illa": 3257,
      "als": 3258,
      "Ġrocks": 3259,
      "Ġblowing": 3260,
      "immy": 3261,
      "Ġbaseball": 3262,
      "Ġpanc": 3263,
      "Ġpurse": 3264,
      "Ġflew": 3265,
      "ĠLittle": 3266,
      "Ġfrighten": 3267,
      "Ġplates": 3268,
      "Ġsurprise": 3269,
      "Ġsticker": 3270,
      "Ġnorm": 3271,
      "chair": 3272,
      "Ġbrick": 3273,
      "Ġpuppet": 3274,
      "Ġrefriger": 3275,
      "driver": 3276,
      "Ġbegin": 3277,
      "Ġshell": 3278,
      "Ġdrum": 3279,
      "Ġbetween": 3280,
      "Ġleast": 3281,
      "Ġchanged": 3282,
      "ĠDan": 3283,
      "ctop": 3284,
      "Ġcollect": 3285,
      "nth": 3286,
      "opher": 3287,
      "ees": 3288,
      "Ġpeep": 3289,
      "ĠMel": 3290,
      "Ġsent": 3291,
      "Ġpor": 3292,
      "Ġnone": 3293,
      "Ġglad": 3294,
      "ĠJenny": 3295,
      "Ġhay": 3296,
      "Ġbead": 3297,
      "Ġfrogs": 3298,
      "ĠErnie": 3299,
      "Ġclou": 3300,
      "oller": 3301,
      "Ġpottie": 3302,
      "Ġfifteen": 3303,
      "ctopus": 3304,
      "Ġbright": 3305,
      "dles": 3306,
      "pr": 3307,
      "Ġpram": 3308,
      "Ġsticks": 3309,
      "ĠGrandpa": 3310,
      "Ġrefrigerator": 3311,
      "SAR": 3312,
      "Ġsize": 3313,
      "Ġpond": 3314,
      "Ġgoose": 3315,
      "Ġnewsp": 3316,
      "anna": 3317,
      "Ġhook": 3318,
      "Ġreg": 3319,
      "ĠBrian": 3320,
      "Ġshower": 3321,
      "Ġpostman": 3322,
      "Ġfigure": 3323,
      "ĠLala": 3324,
      "Ġmonkeys": 3325,
      "work": 3326,
      "Ġthirt": 3327,
      "Ġbroom": 3328,
      "Ġbumped": 3329,
      "Ġmonths": 3330,
      "yr": 3331,
      "sters": 3332,
      "Ġgrape": 3333,
      "ĠAran": 3334,
      "Ġgod": 3335,
      "Ġsticking": 3336,
      "Ġtear": 3337,
      "ĠGab": 3338,
      "Ġstickers": 3339,
      "Ġfishing": 3340,
      "Ġkite": 3341,
      "apers": 3342,
      "Ġparrot": 3343,
      "ya": 3344,
      "col": 3345,
      "mm": 3346,
      "Ġoctopus": 3347,
      "Ġoffice": 3348,
      "Doh": 3349,
      "Ġgrab": 3350,
      "Ġhambur": 3351,
      "ada": 3352,
      "ĠGre": 3353,
      "bbie": 3354,
      "Ġshot": 3355,
      "Ġcocoon": 3356,
      "Ġcont": 3357,
      "ĠDipsy": 3358,
      "Ġmagnet": 3359,
      "Ġbone": 3360,
      "Ġcarpet": 3361,
      "do": 3362,
      "Ġchin": 3363,
      "Ġnicely": 3364,
      "lo": 3365,
      "Ġtray": 3366,
      "Ġgrey": 3367,
      "Ġbunch": 3368,
      "Ġpenny": 3369,
      "Ġnapkin": 3370,
      "butter": 3371,
      "Ġfan": 3372,
      "Ġplan": 3373,
      "Ġchop": 3374,
      "Ġdese": 3375,
      "Ġlife": 3376,
      "ched": 3377,
      "ĠUr": 3378,
      "Ġracing": 3379,
      "Ġrem": 3380,
      "Ġsixt": 3381,
      "Ġbuilt": 3382,
      "Ġcrane": 3383,
      "Ġcer": 3384,
      "ĠElmo": 3385,
      "ĠDadda": 3386,
      "Ġwonderful": 3387,
      "ĠMissus": 3388,
      "Ġwip": 3389,
      "Ġfaster": 3390,
      "Ġbees": 3391,
      "brush": 3392,
      "Ġoat": 3393,
      "Tank": 3394,
      "Ġsell": 3395,
      "Ġlets": 3396,
      "CA": 3397,
      "Ġrug": 3398,
      "Ġbean": 3399,
      "Ġrainbow": 3400,
      "Ġthumb": 3401,
      "Ġpeel": 3402,
      "ĠMomma": 3403,
      "Ġsmaller": 3404,
      "eme": 3405,
      "iles": 3406,
      "astname": 3407,
      "Ġwagon": 3408,
      "Ġcertain": 3409,
      "nce": 3410,
      "Ġseesaw": 3411,
      "Ġdem": 3412,
      "Ġribbit": 3413,
      "ĠChris": 3414,
      "ĠSmarties": 3415,
      "oddy": 3416,
      "Ġdollars": 3417,
      "Ġcarrying": 3418,
      "Ġmice": 3419,
      "Ġstove": 3420,
      "Ġwindows": 3421,
      "Ġseems": 3422,
      "Ġlibr": 3423,
      "ĠCharlie": 3424,
      "LI": 3425,
      "laus": 3426,
      "ĠLwww": 3427,
      "Ġsweeties": 3428,
      "ola": 3429,
      "Ġasking": 3430,
      "ĠShem": 3431,
      "ON": 3432,
      "Ġlob": 3433,
      "Ġburn": 3434,
      "zer": 3435,
      "ĠDa": 3436,
      "Ġsqueeze": 3437,
      "Ġraisins": 3438,
      "Ġanswer": 3439,
      "onna": 3440,
      "ĠSw": 3441,
      "Ġsquish": 3442,
      "ĠAunty": 3443,
      "Ġrubber": 3444,
      "Ġcarriage": 3445,
      "ĠGraeme": 3446,
      "isha": 3447,
      "Ġstories": 3448,
      "Ġshove": 3449,
      "Ġcart": 3450,
      "Ġdee": 3451,
      "Ġlock": 3452,
      "ipper": 3453,
      "Ġyoung": 3454,
      "Ġbother": 3455,
      "Ġhadn": 3456,
      "Ġsmoke": 3457,
      "Ġolder": 3458,
      "ĠMaggie": 3459,
      "uring": 3460,
      "Ġcircus": 3461,
      "ĠTra": 3462,
      "Ġclip": 3463,
      "Ġwolf": 3464,
      "Ġcried": 3465,
      "Ġcase": 3466,
      "Ġplants": 3467,
      "Ġthinks": 3468,
      "osie": 3469,
      "Ġangry": 3470,
      "gest": 3471,
      "Ġcous": 3472,
      "berry": 3473,
      "amed": 3474,
      "Ġcrazy": 3475,
      "Ġfresh": 3476,
      "cer": 3477,
      "Ġbeat": 3478,
      "pple": 3479,
      "Ġscream": 3480,
      "Ġmotorcy": 3481,
      "lt": 3482,
      "Ġcoo": 3483,
      "Ġpile": 3484,
      "isa": 3485,
      "ried": 3486,
      "Ġfourt": 3487,
      "Ġsteady": 3488,
      "ro": 3489,
      "Ġwoke": 3490,
      "Ġzorg": 3491,
      "Ġsandwiches": 3492,
      "Ġssh": 3493,
      "Ġpony": 3494,
      "Ġthirteen": 3495,
      "Ġlibrary": 3496,
      "Ġmeas": 3497,
      "Ġclouds": 3498,
      "doo": 3499,
      "co": 3500,
      "Ġtweet": 3501,
      "ĠOli": 3502,
      "LIN": 3503,
      "ters": 3504,
      "XXX": 3505,
      "Ġbathroom": 3506,
      "Ġdolphin": 3507,
      "Ġmister": 3508,
      "Ġbun": 3509,
      "upid": 3510,
      "Ġruns": 3511,
      "Ġbrumm": 3512,
      "Ġbedtime": 3513,
      "Ġhanging": 3514,
      "orge": 3515,
      "Ġexcited": 3516,
      "Ġdishes": 3517,
      "ized": 3518,
      "Ġrocking": 3519,
      "Ġsurpris": 3520,
      "Ġquar": 3521,
      "Ġtub": 3522,
      "ĠTony": 3523,
      "shirt": 3524,
      "tains": 3525,
      "ĠHoney": 3526,
      "ipping": 3527,
      "ĠUrs": 3528,
      "dog": 3529,
      "Ġdada": 3530,
      "Ġexciting": 3531,
      "Ġsupposed": 3532,
      "Ġhate": 3533,
      "Ġwhats": 3534,
      "ided": 3535,
      "Ġdifficul": 3536,
      "Ġob": 3537,
      "Ġphot": 3538,
      "kend": 3539,
      "Ġdrawer": 3540,
      "Ġpickle": 3541,
      "Ġgrown": 3542,
      "ĠIn": 3543,
      "ĠFather": 3544,
      "zel": 3545,
      "ĠTinky": 3546,
      "ĠEaster": 3547,
      "Ġnuts": 3548,
      "Ġtrash": 3549,
      "Ġputs": 3550,
      "osh": 3551,
      "Ġcheer": 3552,
      "Ġrabbits": 3553,
      "Ġboing": 3554,
      "ĠTeletubbies": 3555,
      "Ġlettu": 3556,
      "ĠPil": 3557,
      "HA": 3558,
      "Ġroo": 3559,
      "ote": 3560,
      "Ġatt": 3561,
      "Ġrid": 3562,
      "icked": 3563,
      "Ġfeels": 3564,
      "ĠGeorg": 3565,
      "Ġadd": 3566,
      "Ġpad": 3567,
      "Ġweekend": 3568,
      "Ġwalks": 3569,
      "oring": 3570,
      "Ġjumper": 3571,
      "Ġdangerous": 3572,
      "Ġfourteen": 3573,
      "chard": 3574,
      "issa": 3575,
      "Ġgroup": 3576,
      "Ġlonger": 3577,
      "ĠChristopher": 3578,
      "Ġstarts": 3579,
      "Ġeasier": 3580,
      "ĠGeorge": 3581,
      "read": 3582,
      "Ġbark": 3583,
      "group": 3584,
      "Ġlettuce": 3585,
      "rol": 3586,
      "Ġwah": 3587,
      "uss": 3588,
      "ĠDebbie": 3589,
      "Ġdifficult": 3590,
      "ngine": 3591,
      "ĠHumpty": 3592,
      "Ġtastes": 3593,
      "Ġship": 3594,
      "ĠLisa": 3595,
      "aws": 3596,
      "house": 3597,
      "yl": 3598,
      "Ġchalk": 3599,
      "Ġstrange": 3600,
      "tr": 3601,
      "Ġhorrible": 3602,
      "Ġchickens": 3603,
      "Ġpopcorn": 3604,
      "Ġcrackers": 3605,
      "Ġmeant": 3606,
      "vers": 3607,
      "ĠUrsula": 3608,
      "pot": 3609,
      "via": 3610,
      "ann": 3611,
      "ushing": 3612,
      "Ġsnakes": 3613,
      "ĠJoe": 3614,
      "Ġnamed": 3615,
      "Ġpir": 3616,
      "Ġext": 3617,
      "Ġherself": 3618,
      "Ġhose": 3619,
      "Ġmoved": 3620,
      "Ġclear": 3621,
      "Ġea": 3622,
      "ĠRobin": 3623,
      "meal": 3624,
      "erc": 3625,
      "Ġcolored": 3626,
      "Ġmagaz": 3627,
      "ible": 3628,
      "uk": 3629,
      "sel": 3630,
      "Ġsof": 3631,
      "Ġgrandpa": 3632,
      "Donald": 3633,
      "asing": 3634,
      "erries": 3635,
      "ĠPilchard": 3636,
      "Ġund": 3637,
      "ract": 3638,
      "Ġknees": 3639,
      "dden": 3640,
      "oodle": 3641,
      "Ġmotorcycle": 3642,
      "Ġsail": 3643,
      "Ġnewspaper": 3644,
      "bee": 3645,
      "ober": 3646,
      "Ġbroc": 3647,
      "Ġdeliver": 3648,
      "Ġimag": 3649,
      "Ġhuge": 3650,
      "Ġhunh": 3651,
      "Ġcush": 3652,
      "ĠSleep": 3653,
      "Ġswitch": 3654,
      "ĠEmily": 3655,
      "Ġtwinkle": 3656,
      "Ġhats": 3657,
      "Ġbanging": 3658,
      "Ġbiggest": 3659,
      "Engine": 3660,
      "iv": 3661,
      "Ġpenn": 3662,
      "Ġpair": 3663,
      "Ġwaffle": 3664,
      "Ġshed": 3665,
      "Ġcandles": 3666,
      "Ġpounds": 3667,
      "ĠDoctor": 3668,
      "Ġpipe": 3669,
      "oph": 3670,
      "ĠCromer": 3671,
      "Ġhall": 3672,
      "Ġbah": 3673,
      "Ġterrible": 3674,
      "ellent": 3675,
      "Ġsnip": 3676,
      "ature": 3677,
      "ĠSn": 3678,
      "ocer": 3679,
      "coli": 3680,
      "Ġoatmeal": 3681,
      "Ġmeal": 3682,
      "Ġnest": 3683,
      "Ġjack": 3684,
      "Ġrail": 3685,
      "ĠKim": 3686,
      "TCA": 3687,
      "Ġcab": 3688,
      "ĠGail": 3689,
      "Ġoften": 3690,
      "Ġexcellent": 3691,
      "Ġbroccoli": 3692,
      "Ġdess": 3693,
      "ella": 3694,
      "berries": 3695,
      "Ġsudden": 3696,
      "Ġsnail": 3697,
      "go": 3698,
      "host": 3699,
      "Ġplums": 3700,
      "ards": 3701,
      "EVA": 3702,
      "Ġheh": 3703,
      "ĠMc": 3704,
      "Ġhurting": 3705,
      "Ġhunhunh": 3706,
      "ks": 3707,
      "Ġwings": 3708,
      "ĠRoss": 3709,
      "Ġbottles": 3710,
      "FA": 3711,
      "ĠJune": 3712,
      "Ġwaterme": 3713,
      "Ġrings": 3714,
      "ĠMorg": 3715,
      "ĠAm": 3716,
      "Ġhamburger": 3717,
      "Ġtasty": 3718,
      "Ġaun": 3719,
      "Ġqueen": 3720,
      "Ġkicking": 3721,
      "Ġwhistle": 3722,
      "Ġdu": 3723,
      "choc": 3724,
      "ground": 3725,
      "Ġwire": 3726,
      "Ġhun": 3727,
      "ĠDonald": 3728,
      "ĠBert": 3729,
      "Ġwinter": 3730,
      "Ġradio": 3731,
      "Ġunless": 3732,
      "yn": 3733,
      "edy": 3734,
      "ention": 3735,
      "Ġshowing": 3736,
      "Ġlego": 3737,
      "Ġcomput": 3738,
      "Ġsixteen": 3739,
      "Ġcamp": 3740,
      "table": 3741,
      "Ġtools": 3742,
      "uffy": 3743,
      "Ġnineteen": 3744,
      "Ġdessert": 3745,
      "Ġstupid": 3746,
      "Ġatta": 3747,
      "Ġchristmas": 3748,
      "Ġdeer": 3749,
      "Ġcre": 3750,
      "ĠFred": 3751,
      "Ġturns": 3752,
      "Ġbout": 3753,
      "len": 3754,
      "book": 3755,
      "Ġpuzzles": 3756,
      "Ġbumble": 3757,
      "Ġbeginning": 3758,
      "Ġanyone": 3759,
      "ĠJason": 3760,
      "Ġcrashed": 3761,
      "Ġneckl": 3762,
      "Ġyogh": 3763,
      "ENV": 3764,
      "uts": 3765,
      "Ġbattery": 3766,
      "Ġnormally": 3767,
      "men": 3768,
      "Ġtank": 3769,
      "ica": 3770,
      "Ġsir": 3771,
      "Ġbend": 3772,
      "Ġhandle": 3773,
      "ĠGrover": 3774,
      "REB": 3775,
      "ids": 3776,
      "ĠWend": 3777,
      "Ġbeads": 3778,
      "Ġwide": 3779,
      "Ġseeing": 3780,
      "Ġfalls": 3781,
      "ugs": 3782,
      "Ġwrap": 3783,
      "iolet": 3784,
      "ingo": 3785,
      "Ġbon": 3786,
      "Ġzip": 3787,
      "Ġbelongs": 3788,
      "Ġsweater": 3789,
      "Ġstones": 3790,
      "Ġbush": 3791,
      "ching": 3792,
      "ĠLucy": 3793,
      "Ġvegetables": 3794,
      "CLI": 3795,
      "Ġsurprised": 3796,
      "Ġbatteries": 3797,
      "Ġwatermelon": 3798,
      "Ġsim": 3799,
      "Ġoil": 3800,
      "Ġkisses": 3801,
      "Ġquestions": 3802,
      "ief": 3803,
      "arent": 3804,
      "Ġtax": 3805,
      "MAL": 3806,
      "ĠToby": 3807,
      "Ġstack": 3808,
      "Ġmoun": 3809,
      "Ġfuzz": 3810,
      "Ġfeeding": 3811,
      "Ġrecognize": 3812,
      "incess": 3813,
      "rick": 3814,
      "Ġborn": 3815,
      "that": 3816,
      "ots": 3817,
      "ami": 3818,
      "pping": 3819,
      "Ġfixing": 3820,
      "Ġbouncy": 3821,
      "Ġstarting": 3822,
      "Ġfighting": 3823,
      "Ġpopped": 3824,
      "Ġcha": 3825,
      "ĠBoo": 3826,
      "ĠAs": 3827,
      "ĠEwww": 3828,
      "Ġbuddy": 3829,
      "Ġdose": 3830,
      "ĠMot": 3831,
      "Ġkitten": 3832,
      "Ġpiggie": 3833,
      "cord": 3834,
      "Ġghost": 3835,
      "Ġwre": 3836,
      "Ġbringing": 3837,
      "Ġclimbed": 3838,
      "Ġchewing": 3839,
      "Ġlobster": 3840,
      "lent": 3841,
      "aren": 3842,
      "osaurus": 3843,
      "Ġfeather": 3844,
      "Ġoce": 3845,
      "Ġrope": 3846,
      "Ġspilled": 3847,
      "ĠWendy": 3848,
      "Ġmac": 3849,
      "iced": 3850,
      "Ġsofa": 3851,
      "Ġew": 3852,
      "Ġchasing": 3853,
      "eedee": 3854,
      "ippy": 3855,
      "Ġfrightened": 3856,
      "puzz": 3857,
      "ĠDor": 3858,
      "ĠSnow": 3859,
      "Ġneenaw": 3860,
      "ĠMelissa": 3861,
      "Ġ'": 3862,
      "Ġlions": 3863,
      "Ġcomputer": 3864,
      "ĠCon": 3865,
      "Ġscrewdriver": 3866,
      "Ġsod": 3867,
      "erg": 3868,
      "ĠTeddy": 3869,
      "ude": 3870,
      "Ġni": 3871,
      "Ġwhatcha": 3872,
      "Ġticket": 3873,
      "zing": 3874,
      "Ġnood": 3875,
      "gel": 3876,
      "ĠPh": 3877,
      "Ġbal": 3878,
      "Ġsmack": 3879,
      "ĠSteve": 3880,
      "Ġketch": 3881,
      "ĠTre": 3882,
      "Ġtreat": 3883,
      "Ġstret": 3884,
      "Ġchar": 3885,
      "ĠJoey": 3886,
      "isk": 3887,
      "Ġcloser": 3888,
      "Ġawake": 3889,
      "Ġbelt": 3890,
      "Ġbugs": 3891,
      "Ġshovel": 3892,
      "Ġketchup": 3893,
      "cially": 3894,
      "Ġtracks": 3895,
      "Ġsunny": 3896,
      "Ġrooster": 3897,
      "truck": 3898,
      "overed": 3899,
      "Ġocean": 3900,
      "ĠKat": 3901,
      "Ġsquash": 3902,
      "Ġeighteen": 3903,
      "US": 3904,
      "vor": 3905,
      "ĠGranny": 3906,
      "Ġpretzel": 3907,
      "Ġmerry": 3908,
      "tern": 3909,
      "ĠMother": 3910,
      "ĠKaren": 3911,
      "Ġzoom": 3912,
      "fect": 3913,
      "Ġgrowing": 3914,
      "Ġmagazine": 3915,
      "Ġca": 3916,
      "ĠBab": 3917,
      "Ġwatched": 3918,
      "Ġnails": 3919,
      "Christmas": 3920,
      "ĠMac": 3921,
      "Ġsle": 3922,
      "Ġreason": 3923,
      "Ġenvel": 3924,
      "ites": 3925,
      "ĠJill": 3926,
      "FRI": 3927,
      "Ġless": 3928,
      "Ġdied": 3929,
      "Ġbones": 3930,
      "Ġcmon": 3931,
      "Ġdisapp": 3932,
      "Ġriver": 3933,
      "Ġinv": 3934,
      "Ġstool": 3935,
      "ĠCind": 3936,
      "Ġtoot": 3937,
      "kins": 3938,
      "Ġbeds": 3939,
      "amus": 3940,
      "Ġpunch": 3941,
      "Ġslee": 3942,
      "ĠRosie": 3943,
      "Ġnecklace": 3944,
      "ĠCindere": 3945,
      "band": 3946,
      "arf": 3947,
      "Ġedge": 3948,
      "icket": 3949,
      "ffic": 3950,
      "ĠNoddy": 3951,
      "Ġpence": 3952,
      "Ġru": 3953,
      "Ġgiven": 3954,
      "Ġshelf": 3955,
      "Ġshowed": 3956,
      "ĠTrevor": 3957,
      "opot": 3958,
      "Ġmushroom": 3959,
      "Ġvacu": 3960,
      "Ġpasse": 3961,
      "Ġtent": 3962,
      "lenty": 3963,
      "Ġnuh": 3964,
      "ison": 3965,
      "Ġcandle": 3966,
      "Ġflag": 3967,
      "Ġduckie": 3968,
      "Ġparce": 3969,
      "Ġsuitcase": 3970,
      "ĠDeedee": 3971,
      "Ġdigg": 3972,
      "Ġcloset": 3973,
      "Ġwhe": 3974,
      "engine": 3975,
      "Ġexpl": 3976,
      "Ġpoin": 3977,
      "Ġhippopot": 3978,
      "Ġsits": 3979,
      "ĠCinderella": 3980,
      "lies": 3981,
      "Ġeng": 3982,
      "ĠEddie": 3983,
      "Ġshining": 3984,
      "down": 3985,
      "Ġsuck": 3986,
      "Ġnoises": 3987,
      "Ġstaying": 3988,
      "Ġmixed": 3989,
      "ĠIsab": 3990,
      "ĠMolly": 3991,
      "odd": 3992,
      "Ġscoop": 3993,
      "Ġlived": 3994,
      "Ġtype": 3995,
      "ĠDaisy": 3996,
      "ĠQ": 3997,
      "Ġmitt": 3998,
      "Ġplenty": 3999,
      "ĠKe": 4000,
      "Mabel": 4001,
      "Ġshoo": 4002,
      "Ġperfect": 4003,
      "Winky": 4004,
      "Ġsil": 4005,
      "Ġbank": 4006,
      "Ġpian": 4007,
      "Ġruff": 4008,
      "Ġstone": 4009,
      "Ġsold": 4010,
      "Ġsneak": 4011,
      "ĠJohnny": 4012,
      "Ġshorts": 4013,
      "ĠMeg": 4014,
      "ĠDwww": 4015,
      "Ġmixer": 4016,
      "Ġquarter": 4017,
      "ookie": 4018,
      "Ġcounting": 4019,
      "Ġcircles": 4020,
      "Ġvacuum": 4021,
      "Ġhippopotamus": 4022,
      "Ġabove": 4023,
      "Ġpenguins": 4024,
      "Ġtaxi": 4025,
      "Ġcop": 4026,
      "ĠPig": 4027,
      "Ġguit": 4028,
      "oopy": 4029,
      "Ġcamel": 4030,
      "Ġsongs": 4031,
      "Ġstripes": 4032,
      "ume": 4033,
      "ĠBuzz": 4034,
      "HH": 4035,
      "ita": 4036,
      "Ġant": 4037,
      "urr": 4038,
      "ubby": 4039,
      "Ġpiano": 4040,
      "Ġwhisp": 4041,
      "ĠLastname": 4042,
      "Ġyard": 4043,
      "iddy": 4044,
      "Ġcarefully": 4045,
      "Ġtraffic": 4046,
      "ĠViolet": 4047,
      "Ġcrawl": 4048,
      "Claus": 4049,
      "Ġste": 4050,
      "Ġbotbot": 4051,
      "Ġkissing": 4052,
      "Ġsorts": 4053,
      "Ġyoghurt": 4054,
      "MAR": 4055,
      "Ġce": 4056,
      "Ġjar": 4057,
      "Ġwiggle": 4058,
      "Ġlamp": 4059,
      "Ġabs": 4060,
      "Ġpinea": 4061,
      "oves": 4062,
      "ĠSoph": 4063,
      "fford": 4064,
      "Ġdrinks": 4065,
      "bread": 4066,
      "ĠSleepy": 4067,
      "ted": 4068,
      "Ġprincess": 4069,
      "aa": 4070,
      "ĠYork": 4071,
      "Ġson": 4072,
      "ingle": 4073,
      "Ġdecor": 4074,
      "Ġben": 4075,
      "Ġguitar": 4076,
      "Ġbake": 4077,
      "ular": 4078,
      "Ġdeep": 4079,
      "ley": 4080,
      "amma": 4081,
      "Ġairport": 4082,
      "Ġforgotten": 4083,
      "Ġcertainly": 4084,
      "mother": 4085,
      "CHR": 4086,
      "ĠMike": 4087,
      "Ġtouching": 4088,
      "Ġremind": 4089,
      "Ġcousin": 4090,
      "bs": 4091,
      "ette": 4092,
      "ĠCwww": 4093,
      "Ġspring": 4094,
      "Ġyah": 4095,
      "Ġbeer": 4096,
      "Ġki": 4097,
      "Ġchug": 4098,
      "Ġplayer": 4099,
      "ĠAf": 4100,
      "ĠSteven": 4101,
      "rum": 4102,
      "Ġlar": 4103,
      "Ġhers": 4104,
      "ĠBill": 4105,
      "ĠAnnie": 4106,
      "Ġsmells": 4107,
      "Ġcurtains": 4108,
      "ode": 4109,
      "Ġsquirt": 4110,
      "Ġawoh": 4111,
      "atherine": 4112,
      "Ġnoticed": 4113,
      "Ġothers": 4114,
      "Ġarr": 4115,
      "pecially": 4116,
      "SHA": 4117,
      "bar": 4118,
      "Ġdah": 4119,
      "Ġclay": 4120,
      "Ġdollar": 4121,
      "Ġkittens": 4122,
      "Ġcompl": 4123,
      "Ġpirate": 4124,
      "ium": 4125,
      "igher": 4126,
      "Ġskip": 4127,
      "Ġespecially": 4128,
      "Ġsmoo": 4129,
      "Ġrhin": 4130,
      "ĠSophie": 4131,
      "ĠTween": 4132,
      "Ġrecording": 4133,
      "Ġwhoosh": 4134,
      "ĠLyn": 4135,
      "Ġpudding": 4136,
      "ĠAmanda": 4137,
      "corder": 4138,
      "Ġlau": 4139,
      "Ġtroll": 4140,
      "Ġflies": 4141,
      "Ġmacaron": 4142,
      "Ġchase": 4143,
      "ĠJes": 4144,
      "ĠGold": 4145,
      "Ġgloves": 4146,
      "ders": 4147,
      "ĠDanny": 4148,
      "ĠJudy": 4149,
      "ĠMorgan": 4150,
      "UNC": 4151,
      "olute": 4152,
      "uela": 4153,
      "Ġteapot": 4154,
      "ĠSammy": 4155,
      "Ġcem": 4156,
      "orm": 4157,
      "Ġpancakes": 4158,
      "Ġabsolute": 4159,
      "ĠMon": 4160,
      "Ġbasketball": 4161,
      "Ġhigher": 4162,
      "Ġcage": 4163,
      "ĠJim": 4164,
      "puzzle": 4165,
      "Ġq": 4166,
      "Ġwild": 4167,
      "ĠRober": 4168,
      "Ġleaving": 4169,
      "ĠBarb": 4170,
      "Ġtool": 4171,
      "ĠFrank": 4172,
      "Ġpowder": 4173,
      "con": 4174,
      "ges": 4175,
      "Ġthird": 4176,
      "Ġtuna": 4177,
      "GRD": 4178,
      "EI": 4179,
      "Ġmkay": 4180,
      "Ġexerc": 4181,
      "EO": 4182,
      "bag": 4183,
      "Ġpinch": 4184,
      "fortable": 4185,
      "ĠCatherine": 4186,
      "entist": 4187,
      "Ġimagine": 4188,
      "GEO": 4189,
      "stick": 4190,
      "Ġtoothbrush": 4191,
      "ĠManuela": 4192,
      "ĠIsabelle": 4193,
      "cles": 4194,
      "Ġpops": 4195,
      "Ġgoo": 4196,
      "Ġgobble": 4197,
      "Ġballet": 4198,
      "Ġmacaroni": 4199,
      "ices": 4200,
      "RUS": 4201,
      "Ġrip": 4202,
      "ĠSuk": 4203,
      "ĠJan": 4204,
      "Ġcrumb": 4205,
      "ios": 4206,
      "Ġjung": 4207,
      "ales": 4208,
      "ili": 4209,
      "Ġpuff": 4210,
      "ĠAunt": 4211,
      "tles": 4212,
      "Ġrough": 4213,
      "ĠNor": 4214,
      "Ġsalami": 4215,
      "Ġwindy": 4216,
      "beep": 4217,
      "Ġicing": 4218,
      "Ġbak": 4219,
      "lyn": 4220,
      "daisy": 4221,
      "Ġgorge": 4222,
      "bles": 4223,
      "Ġcovered": 4224,
      "ĠPete": 4225,
      "Ġache": 4226,
      "Ġabsolutely": 4227,
      "hog": 4228,
      "ka": 4229,
      "poo": 4230,
      "ĠCookie": 4231,
      "Ġseemed": 4232,
      "reet": 4233,
      "Ġdum": 4234,
      "ĠInd": 4235,
      "ĠRich": 4236,
      "nthony": 4237,
      "ĠGabr": 4238,
      "Ġlow": 4239,
      "Ġcann": 4240,
      "Ġflour": 4241,
      "Ġcornflakes": 4242,
      "Ġribbon": 4243,
      "ual": 4244,
      "Ġlines": 4245,
      "Ġwooden": 4246,
      "Ġshiny": 4247,
      "Ġsoda": 4248,
      "GRO": 4249,
      "pie": 4250,
      "Ġsteam": 4251,
      "ĠRobert": 4252,
      "Ġgorgeous": 4253,
      "MOM": 4254,
      "Ġforest": 4255,
      "Ġpineapple": 4256,
      "Ġjungle": 4257,
      "Ġhedge": 4258,
      "ĠAnthony": 4259,
      "Ġage": 4260,
      "Ġmap": 4261,
      "ĠTr": 4262,
      "Ġbrushing": 4263,
      "Ġsur": 4264,
      "seum": 4265,
      "Ġorder": 4266,
      "ĠCorn": 4267,
      "ĠBird": 4268,
      "acked": 4269,
      "Ġlocked": 4270,
      "choos": 4271,
      "Ġwheat": 4272,
      "wood": 4273,
      "pect": 4274,
      "Ġuncle": 4275,
      "Ġgives": 4276,
      "ĠAbi": 4277,
      "Ġmuffin": 4278,
      "adow": 4279,
      "ĠOld": 4280,
      "Ġfuzzy": 4281,
      "ĠAfric": 4282,
      "Ġtig": 4283,
      "Ġfil": 4284,
      "GRN": 4285,
      "Ġburp": 4286,
      "Ġcust": 4287,
      "Ġnasty": 4288,
      "ĠOsc": 4289,
      "Ġextra": 4290,
      "Ġlaund": 4291,
      "ĠJon": 4292,
      "bly": 4293,
      "Ġsilver": 4294,
      "ping": 4295,
      "Ġpacket": 4296,
      "Ġlil": 4297,
      "umber": 4298,
      "ja": 4299,
      "Ġres": 4300,
      "Ġbeside": 4301,
      "selves": 4302,
      "Ġwob": 4303,
      "Ġbran": 4304,
      "Ġcrib": 4305,
      "ĠEdward": 4306,
      "ĠPiglet": 4307,
      "rels": 4308,
      "Ġfed": 4309,
      "ĠNan": 4310,
      "Ġdecided": 4311,
      "wow": 4312,
      "Ġpatty": 4313,
      "ky": 4314,
      "Ġjoin": 4315,
      "ocks": 4316,
      "ĠPatsy": 4317,
      "eese": 4318,
      "Ġboring": 4319,
      "ĠHallow": 4320,
      "ĠSukie": 4321,
      "see": 4322,
      "ĠPolly": 4323,
      "Ġtells": 4324,
      "tha": 4325,
      "Ġbeef": 4326,
      "Ġwhisk": 4327,
      "ĠTodd": 4328,
      "Ġspit": 4329,
      "Ġbiting": 4330,
      "Ġtigers": 4331,
      "ms": 4332,
      "Ġdie": 4333,
      "Ġlog": 4334,
      "Ġripped": 4335,
      "Ġlip": 4336,
      "lier": 4337,
      "ĠEmma": 4338,
      "ĠBlue": 4339,
      "ĠInv": 4340,
      "Ġlaundry": 4341,
      "gie": 4342,
      "ĠBet": 4343,
      "Ġbuying": 4344,
      "Ġboats": 4345,
      "ĠHalloween": 4346,
      "ĠCli": 4347,
      "ander": 4348,
      "ĠHarold": 4349,
      "Ġfancy": 4350,
      "nis": 4351,
      "Ġchest": 4352,
      "Ġshoulder": 4353,
      "okey": 4354,
      "ĠBrook": 4355,
      "ĠPatrick": 4356,
      "Ġdoughn": 4357,
      "Ġder": 4358,
      "Ġbash": 4359,
      "Ġgiddy": 4360,
      "umble": 4361,
      "icky": 4362,
      "ĠEll": 4363,
      "Ġwrote": 4364,
      "Ġlanded": 4365,
      "Ġslowly": 4366,
      "Ġcity": 4367,
      "Ġgym": 4368,
      "iders": 4369,
      "ĠSon": 4370,
      "Ġcloud": 4371,
      "Ġflip": 4372,
      "Ġtreas": 4373,
      "ID": 4374,
      "fight": 4375,
      "Ġought": 4376,
      "Ġtee": 4377,
      "zen": 4378,
      "Ġpots": 4379,
      "Ġcleaned": 4380,
      "Ġcooked": 4381,
      "Ġtad": 4382,
      "Ġras": 4383,
      "ĠLo": 4384,
      "Ġhelped": 4385,
      "Ġthroat": 4386,
      "Ġweather": 4387,
      "Ġtreasure": 4388,
      "JU": 4389,
      "under": 4390,
      "Ġfoods": 4391,
      "ousand": 4392,
      "ĠAnn": 4393,
      "recorder": 4394,
      "Ġspiders": 4395,
      "Ġdiam": 4396,
      "Ġdoggies": 4397,
      "Ġcushion": 4398,
      "Ġmountain": 4399,
      "Ġcement": 4400,
      "Ġplaces": 4401,
      "Ġmuseum": 4402,
      "Ġstays": 4403,
      "Ġearlier": 4404,
      "Ġroller": 4405,
      "Ġtomatoes": 4406,
      "Ġspray": 4407,
      "Ġhours": 4408,
      "Ġwhisper": 4409,
      "Ġlolly": 4410,
      "phab": 4411,
      "Ġslipper": 4412,
      "Ġattention": 4413,
      "ĠRichard": 4414,
      "Ġhitting": 4415,
      "str": 4416,
      "Ġsport": 4417,
      "oops": 4418,
      "appy": 4419,
      "Ġbells": 4420,
      "ĠJenn": 4421,
      "Ġdiamond": 4422,
      "ject": 4423,
      "Ġko": 4424,
      "ĠMandy": 4425,
      "ĠAlice": 4426,
      "Ġrect": 4427,
      "Ġnotice": 4428,
      "place": 4429,
      "MIC": 4430,
      "bor": 4431,
      "ero": 4432,
      "Ġfrench": 4433,
      "Ġenvelope": 4434,
      "Ġthousand": 4435,
      "raph": 4436,
      "bury": 4437,
      "Ġsuddenly": 4438,
      "gh": 4439,
      "Ġthin": 4440,
      "eyore": 4441,
      "ham": 4442,
      "wi": 4443,
      "Ġcave": 4444,
      "Ġsmiling": 4445,
      "Ġseventeen": 4446,
      "ze": 4447,
      "Ġchecking": 4448,
      "Ġninety": 4449,
      "Ġfollowing": 4450,
      "eared": 4451,
      "irthday": 4452,
      "alie": 4453,
      "Ġspread": 4454,
      "Ġtrans": 4455,
      "ĠEeyore": 4456,
      "Ġcountry": 4457,
      "cca": 4458,
      "Ġtwist": 4459,
      "Ġopening": 4460,
      "shine": 4461,
      "Ġduring": 4462,
      "Ġpract": 4463,
      "esame": 4464,
      "Ġart": 4465,
      "Ġours": 4466,
      "Ġunh": 4467,
      "Ġsharing": 4468,
      "fer": 4469,
      "Ġtest": 4470,
      "Ġalphab": 4471,
      "Ġbreaking": 4472,
      "Ġringing": 4473,
      "Ġladders": 4474,
      "ĠMarky": 4475,
      "ĠGeorgie": 4476,
      "Ġheal": 4477,
      "ĠJake": 4478,
      "Ġterri": 4479,
      "LLL": 4480,
      "ĠJennif": 4481,
      "ram": 4482,
      "ĠMay": 4483,
      "Ġprog": 4484,
      "ĠOscar": 4485,
      "mill": 4486,
      "Ġtalked": 4487,
      "about": 4488,
      "Ġrattle": 4489,
      "ĠDaniel": 4490,
      "ĠSnoopy": 4491,
      "Ġneeded": 4492,
      "ĠLond": 4493,
      "ĠJennifer": 4494,
      "Ġooo": 4495,
      "Ġagainst": 4496,
      "Ġskunk": 4497,
      "Ġdesk": 4498,
      "Ġgingerbread": 4499,
      "ĠJesus": 4500,
      "Ġawright": 4501,
      "ĠClifford": 4502,
      "ĠFel": 4503,
      "Ġheads": 4504,
      "Ġwoah": 4505,
      "ĠLondon": 4506,
      "ilar": 4507,
      "Ġwaving": 4508,
      "Ġdifference": 4509,
      "ĠKatie": 4510,
      "Ġdentist": 4511,
      "Ġblew": 4512,
      "anes": 4513,
      "Ġspilt": 4514,
      "thy": 4515,
      "ĠBritt": 4516,
      "Ġlawn": 4517,
      "iously": 4518,
      "Ġchanging": 4519,
      "RR": 4520,
      "oa": 4521,
      "otte": 4522,
      "illon": 4523,
      "Ġjumps": 4524,
      "Ġskirt": 4525,
      "GFA": 4526,
      "icle": 4527,
      "Ġjingle": 4528,
      "Ġbacon": 4529,
      "Ġplain": 4530,
      "ĠRy": 4531,
      "Ġengines": 4532,
      "roller": 4533,
      "icer": 4534,
      "zzy": 4535,
      "Ġpens": 4536,
      "JJ": 4537,
      "Ġmill": 4538,
      "ics": 4539,
      "Ġprom": 4540,
      "aid": 4541,
      "uary": 4542,
      "arn": 4543,
      "ĠMegan": 4544,
      "sey": 4545,
      "Ġrides": 4546,
      "Ġjun": 4547,
      "ĠAll": 4548,
      "Ġdaisy": 4549,
      "Ġcrumbs": 4550,
      "idd": 4551,
      "ĠDingo": 4552,
      "ĠGl": 4553,
      "ems": 4554,
      "Ġpetrol": 4555,
      "ĠBarbie": 4556,
      "ĠQu": 4557,
      "ĠBarbara": 4558,
      "Ġcents": 4559,
      "ense": 4560,
      "Ġbreath": 4561,
      "Ġbutterflies": 4562,
      "Ġworms": 4563,
      "Ġsmooth": 4564,
      "tee": 4565,
      "Ġcash": 4566,
      "Ġwedding": 4567,
      "Ġconc": 4568,
      "ĠIsabel": 4569,
      "Ġupon": 4570,
      "Ġumm": 4571,
      "ĠApr": 4572,
      "ograph": 4573,
      "Ġzero": 4574,
      "Ġimport": 4575,
      "Ġceiling": 4576,
      "ĠApril": 4577,
      "Ġwool": 4578,
      "Ġgen": 4579,
      "Ġfaces": 4580,
      "Ġcomfortable": 4581,
      "els": 4582,
      "pee": 4583,
      "tub": 4584,
      "Ġgee": 4585,
      "onge": 4586,
      "ĠTimmy": 4587,
      "Ġmonsters": 4588,
      "Ġcontain": 4589,
      "Ġbulldo": 4590,
      "Ġweird": 4591,
      "Ġseed": 4592,
      "oland": 4593,
      "Ġslip": 4594,
      "ĠLou": 4595,
      "Ġregular": 4596,
      "Ġbench": 4597,
      "Ġoughta": 4598,
      "Ġsides": 4599,
      "Ġboop": 4600,
      "ĠCare": 4601,
      "Ġclick": 4602,
      "Ġtowards": 4603,
      "Ġnoodles": 4604,
      "Ġmer": 4605,
      "ĠSus": 4606,
      "iled": 4607,
      "Ġtem": 4608,
      "Ġloads": 4609,
      "Ġimportant": 4610,
      "ete": 4611,
      "ĠCl": 4612,
      "Ġopens": 4613,
      "Ġscra": 4614,
      "Ġharder": 4615,
      "Ġwondering": 4616,
      "Ġstamps": 4617,
      "ĠBertie": 4618,
      "Ġsewing": 4619,
      "ians": 4620,
      "Ġama": 4621,
      "Ġwha": 4622,
      "Ġblood": 4623,
      "Ġdire": 4624,
      "Ġchocolates": 4625,
      "Ġkiwi": 4626,
      "JA": 4627,
      "cakes": 4628,
      "ĠSal": 4629,
      "Ġcrown": 4630,
      "alm": 4631,
      "ĠDuck": 4632,
      "ĠBilly": 4633,
      "Ġcricket": 4634,
      "Ġfroggie": 4635,
      "ĠJulia": 4636,
      "Ġpointing": 4637,
      "jou": 4638,
      "Ġsunshine": 4639,
      "ngers": 4640,
      "Ġbakery": 4641,
      "fu": 4642,
      "Ġdot": 4643,
      "risp": 4644,
      "Ġhy": 4645,
      "Ġonion": 4646,
      "Ġmarket": 4647,
      "Ġcapital": 4648,
      "Ġpassengers": 4649,
      "Ġpopp": 4650,
      "ĠSuper": 4651,
      "ĠHanna": 4652,
      "rett": 4653,
      "Ġlemonade": 4654,
      "Ġwaffles": 4655,
      "FRA": 4656,
      "iers": 4657,
      "itten": 4658,
      "Ġcoach": 4659,
      "Ġfriendly": 4660,
      "izes": 4661,
      "Ġrestaur": 4662,
      "Dumpty": 4663,
      "ĠSean": 4664,
      "ĠNo": 4665,
      "Ġpennies": 4666,
      "Ġdigging": 4667,
      "ĠTweenies": 4668,
      "Ġprogram": 4669,
      "ĠDen": 4670,
      "ared": 4671,
      "Ġindeed": 4672,
      "Ġhedgehog": 4673,
      "ĠSonia": 4674,
      "Ġop": 4675,
      "Ġposs": 4676,
      "Ġrush": 4677,
      "Ġcalls": 4678,
      "Ġexpect": 4679,
      "gl": 4680,
      "ount": 4681,
      "Ġdep": 4682,
      "ĠJane": 4683,
      "que": 4684,
      "Ġvest": 4685,
      "Ġfirstname": 4686,
      "ANT": 4687,
      "Ġpencils": 4688,
      "Ġelect": 4689,
      "ĠBern": 4690,
      "ĠOlivia": 4691,
      "Ġalphabet": 4692,
      "doodle": 4693,
      "antha": 4694,
      "LOR": 4695,
      "Ġwatering": 4696,
      "Ġscarf": 4697,
      "Ġfinally": 4698,
      "Ġparts": 4699,
      "ĠBrittany": 4700,
      "light": 4701,
      "Ġcob": 4702,
      "Ġspank": 4703,
      "uplo": 4704,
      "Ġtied": 4705,
      "ĠSamantha": 4706,
      "Ġmeasure": 4707,
      "donald": 4708,
      "ebr": 4709,
      "Ġrep": 4710,
      "Ġkneel": 4711,
      "Ġflash": 4712,
      "ĠAndrew": 4713,
      "Ġtrolley": 4714,
      "Ġcherries": 4715,
      "Ġborrow": 4716,
      "quack": 4717,
      "Ġscoo": 4718,
      "asses": 4719,
      "Ġtickling": 4720,
      "Ġmagnets": 4721,
      "Ġmarm": 4722,
      "otch": 4723,
      "ĠDer": 4724,
      "Ġsixty": 4725,
      "Ġdyou": 4726,
      "Ġbuh": 4727,
      "igi": 4728,
      "umpy": 4729,
      "Ġchoochoo": 4730,
      "Ġbeeba": 4731,
      "Ġloose": 4732,
      "ĠHarry": 4733,
      "Ġsimilar": 4734,
      "ĠRyan": 4735,
      "Ġbulldozer": 4736,
      "JO": 4737,
      "dies": 4738,
      "Ġresc": 4739,
      "Ġalive": 4740,
      "Ġlean": 4741,
      "Ġfirefight": 4742,
      "Ġwears": 4743,
      "ĠAriel": 4744,
      "Ġrescue": 4745,
      "vin": 4746,
      "indy": 4747,
      "Ġtodd": 4748,
      "ĠDillon": 4749,
      "ĠSpider": 4750,
      "ridge": 4751,
      "zo": 4752,
      "Ġreind": 4753,
      "ĠElla": 4754,
      "ĠZoe": 4755,
      "Ġcostume": 4756,
      "can": 4757,
      "Ġlips": 4758,
      "bbled": 4759,
      "ring": 4760,
      "Ġhic": 4761,
      "Ġmashed": 4762,
      "Ġplug": 4763,
      "Ġplaygroup": 4764,
      "Ġswish": 4765,
      "Ġfirework": 4766,
      "Ġsniff": 4767,
      "Ġwindmill": 4768,
      "Ġdried": 4769,
      "Ġparticul": 4770,
      "ĠMichelle": 4771,
      "Ġmittens": 4772,
      "Ġlou": 4773,
      "Ġsteer": 4774,
      "Ġspend": 4775,
      "Ġdrives": 4776,
      "Ġpuppies": 4777,
      "Ġsecret": 4778,
      "Ġburger": 4779,
      "Ġrobot": 4780,
      "Ġmetal": 4781,
      "ĠSweet": 4782,
      "Ġphotograph": 4783,
      "Ġparticular": 4784,
      "ox": 4785,
      "Ġbeard": 4786,
      "Ġsmelly": 4787,
      "ĠHelen": 4788,
      "ial": 4789,
      "Ġcleaner": 4790,
      "Ġladies": 4791,
      "ĠBrooklyn": 4792,
      "Ġwine": 4793,
      "ĠTwww": 4794,
      "ĠRoland": 4795,
      "ĠFrost": 4796,
      "Ġsneeze": 4797,
      "Ġtidying": 4798,
      "ĠHannah": 4799,
      "Ġpil": 4800,
      "oosh": 4801,
      "ĠDoug": 4802,
      "ĠCoc": 4803,
      "ĠLa": 4804,
      "Ġpainted": 4805,
      "Ġseaside": 4806,
      "Ġnana": 4807,
      "aked": 4808,
      "Ġpres": 4809,
      "Ġflap": 4810,
      "Ġhelps": 4811,
      "ĠFelix": 4812,
      "bell": 4813,
      "ĠJam": 4814,
      "alent": 4815,
      "ĠCharlotte": 4816,
      "Ġgorilla": 4817,
      "head": 4818,
      "Ġcor": 4819,
      "isie": 4820,
      "Ġbeet": 4821,
      "Ġtelly": 4822,
      "ĠStep": 4823,
      "ĠBaa": 4824,
      "Ġcuc": 4825,
      "SSS": 4826,
      "Ġwhiskers": 4827,
      "Ġdist": 4828,
      "ena": 4829,
      "Ġstudy": 4830,
      "Ġknick": 4831,
      "ĠGigi": 4832,
      "Ġsneez": 4833,
      "Ġcord": 4834,
      "Ġthunder": 4835,
      "Ġfinding": 4836,
      "ĠKalie": 4837,
      "Ġladybug": 4838,
      "ĠTravis": 4839,
      "ĠDora": 4840,
      "Ġdip": 4841,
      "Ġmask": 4842,
      "Ġforward": 4843,
      "Ġtennis": 4844,
      "Ġcalm": 4845,
      "ĠJonathan": 4846,
      "KEL": 4847,
      "Ġsung": 4848,
      "Ġpole": 4849,
      "Ġtock": 4850,
      "elf": 4851,
      "aret": 4852,
      "ĠMarie": 4853,
      "Ġtus": 4854,
      "Ġbunn": 4855,
      "Ġgolf": 4856,
      "Ġgrew": 4857,
      "Ġworked": 4858,
      "Ġelbow": 4859,
      "aughter": 4860,
      "Ġwoods": 4861,
      "Ġrectangle": 4862,
      "ji": 4863,
      "Ġtab": 4864,
      "Ġopp": 4865,
      "ĠPe": 4866,
      "ĠNoo": 4867,
      "Ġbites": 4868,
      "ĠKate": 4869,
      "Ġbrothers": 4870,
      "Ġger": 4871,
      "ĠMouse": 4872,
      "Ġstarfish": 4873,
      "ĠJoel": 4874,
      "Ġsmartie": 4875,
      "Ġrolled": 4876,
      "Ġsweeping": 4877,
      "NEI": 4878,
      "round": 4879,
      "Ġdam": 4880,
      "oody": 4881,
      "ĠTim": 4882,
      "estigator": 4883,
      "Ġknocking": 4884,
      "Ġblankie": 4885,
      "Ġswinging": 4886,
      "Ġmatches": 4887,
      "Ġhonest": 4888,
      "Ġlarge": 4889,
      "Ġrestaurant": 4890,
      "Mouse": 4891,
      "Ġmelt": 4892,
      "ĠDi": 4893,
      "thur": 4894,
      "ĠRwww": 4895,
      "cope": 4896,
      "Ġdots": 4897,
      "Ġshadow": 4898,
      "Ġants": 4899,
      "Ġhonk": 4900,
      "Ġummhm": 4901,
      "nit": 4902,
      "ned": 4903,
      "Ġstink": 4904,
      "Ġbaked": 4905,
      "ĠMaisie": 4906,
      "Ġcurtain": 4907,
      "Ġkilled": 4908,
      "ĠInvestigator": 4909,
      "iam": 4910,
      "though": 4911,
      "Ġblueberries": 4912,
      "Ġdressing": 4913,
      "Ġmostly": 4914,
      "Ġbegins": 4915,
      "iliar": 4916,
      "Gr": 4917,
      "St": 4918,
      "ĠRed": 4919,
      "Ġloved": 4920,
      "Ġbumpy": 4921,
      "Ġsack": 4922,
      "ĠRu": 4923,
      "Ġprince": 4924,
      "ault": 4925,
      "essed": 4926,
      "eah": 4927,
      "Ġmanage": 4928,
      "Ġzipper": 4929,
      "chester": 4930,
      "ĠCornflakes": 4931,
      "lish": 4932,
      "Ġtough": 4933,
      "Ġabc": 4934,
      "ĠCal": 4935,
      "ĠWill": 4936,
      "Ġafterwards": 4937,
      "ations": 4938,
      "Ġcrunchy": 4939,
      "Ġwreck": 4940,
      "ĠBetty": 4941,
      "fic": 4942,
      "Ġachoo": 4943,
      "eter": 4944,
      "Ġcupcakes": 4945,
      "Ġsquares": 4946,
      "Ġfairy": 4947,
      "ĠRobbie": 4948,
      "Ġobv": 4949,
      "gers": 4950,
      "Ġsponge": 4951,
      "Ġhmm": 4952,
      "Ġpolar": 4953,
      "Ġbatht": 4954,
      "form": 4955,
      "Ġrasp": 4956,
      "Ġalthough": 4957,
      "Ġteas": 4958,
      "Ġcutter": 4959,
      "Ġfamiliar": 4960,
      "ĠScoop": 4961,
      "iffy": 4962,
      "ĠSteph": 4963,
      "oking": 4964,
      "Ġdeal": 4965,
      "ĠBat": 4966,
      "Ġpleased": 4967,
      "Ġgift": 4968,
      "Ġtorto": 4969,
      "rispies": 4970,
      "oes": 4971,
      "Ġstood": 4972,
      "ĠPr": 4973,
      "Ġsword": 4974,
      "oses": 4975,
      "Ġeveryday": 4976,
      "Ġhiccup": 4977,
      "Ġmist": 4978,
      "Ġchance": 4979,
      "ĠBamb": 4980,
      "Ġimp": 4981,
      "Ġcalf": 4982,
      "Ġbesides": 4983,
      "Ġparcel": 4984,
      "barrow": 4985,
      "nger": 4986,
      "ĠCa": 4987,
      "Ġkeeping": 4988,
      "Ġyawn": 4989,
      "Ġmarried": 4990,
      "ĠArthur": 4991,
      "ĠManchester": 4992,
      "Ġspan": 4993,
      "Ġsometime": 4994,
      "Ġdeli": 4995,
      "Ġvanilla": 4996,
      "Ġbrace": 4997,
      "ĠIt": 4998,
      "ases": 4999,
      "Ġrin": 5000,
      "umbo": 5001,
      "Ġfloat": 5002,
      "Ġsmash": 5003,
      "Ġsnugg": 5004,
      "ĠKath": 5005,
      "Ġfreezer": 5006,
      "Ġporridge": 5007,
      "ĠAfrican": 5008,
      "BR": 5009,
      "Ġchicks": 5010,
      "Ġbeak": 5011,
      "Ġpuppets": 5012,
      "Ġlaying": 5013,
      "ĠScot": 5014,
      "Ġcannot": 5015,
      "niture": 5016,
      "obile": 5017,
      "Ġdrew": 5018,
      "Ġcurly": 5019,
      "Ġfurniture": 5020,
      "Ġamazing": 5021,
      "Ġscooter": 5022,
      "ERI": 5023,
      "Ġluck": 5024,
      "enny": 5025,
      "ĠBrown": 5026,
      "Ġduckling": 5027,
      "Ġerr": 5028,
      "Ġtadah": 5029,
      "Ġyer": 5030,
      "Ġhops": 5031,
      "boat": 5032,
      "Ġgrandad": 5033,
      "ĠBarney": 5034,
      "ĠLois": 5035,
      "Ġlouder": 5036,
      "FE": 5037,
      "Ġliz": 5038,
      "Ġplum": 5039,
      "ĠDuplo": 5040,
      "ĠBo": 5041,
      "Ġstroller": 5042,
      "Ġspinning": 5043,
      "Ġwaved": 5044,
      "dear": 5045,
      "woof": 5046,
      "Ġinter": 5047,
      "LOU": 5048,
      "Ġvill": 5049,
      "Ġraisin": 5050,
      "ĠSandy": 5051,
      "ĠBella": 5052,
      "ĠRa": 5053,
      "ĠMatty": 5054,
      "Ġmotorb": 5055,
      "ĠConor": 5056,
      "ced": 5057,
      "ient": 5058,
      "Ġtac": 5059,
      "Ġhugg": 5060,
      "ammy": 5061,
      "Ġswings": 5062,
      "Ġsmarties": 5063,
      "ĠMcDonald": 5064,
      "Ġstepped": 5065,
      "Ġtat": 5066,
      "Ġpitch": 5067,
      "Ġshy": 5068,
      "Ġdiapers": 5069,
      "Ġcocoa": 5070,
      "itty": 5071,
      "car": 5072,
      "mark": 5073,
      "ĠMore": 5074,
      "ĠAlexander": 5075,
      "Ġsleeve": 5076,
      "Ġwom": 5077,
      "Ġwaking": 5078,
      "Ġcrow": 5079,
      "Ġga": 5080,
      "ĠMia": 5081,
      "Ġsocc": 5082,
      "Ġdining": 5083,
      "Ġteachers": 5084,
      "Ġdrag": 5085,
      "Ġpilot": 5086,
      "lets": 5087,
      "Ġcub": 5088,
      "kee": 5089,
      "ida": 5090,
      "Ġplus": 5091,
      "Ġplaster": 5092,
      "ains": 5093,
      "iest": 5094,
      "Ġflavor": 5095,
      "ĠErin": 5096,
      "Ġenjoying": 5097,
      "Ġsoccer": 5098,
      "coon": 5099,
      "Ġcoug": 5100,
      "Ġcoke": 5101,
      "Ġweight": 5102,
      "Ġdisc": 5103,
      "Ġwheelbarrow": 5104,
      "Ġbouncing": 5105,
      "Ġshouting": 5106,
      "ĠDerwood": 5107,
      "Ġreindeer": 5108,
      "aby": 5109,
      "bird": 5110,
      "mb": 5111,
      "Ġyo": 5112,
      "Ġdouble": 5113,
      "Ġsteal": 5114,
      "ĠBrett": 5115,
      "Ġrolls": 5116,
      "Ġsisters": 5117,
      "ĠBecca": 5118,
      "Ġlicking": 5119,
      "Ġvacation": 5120,
      "Ġpancake": 5121,
      "Ġelectric": 5122,
      "ĠJamie": 5123,
      "ĠBambi": 5124,
      "KID": 5125,
      "ĠMwww": 5126,
      "Ġswallow": 5127,
      "opper": 5128,
      "Ġpocketbook": 5129,
      "Ġaunt": 5130,
      "Ġwal": 5131,
      "Ġpoke": 5132,
      "Ġclaws": 5133,
      "Ġoopsie": 5134,
      "Ġhorns": 5135,
      "Ġpapers": 5136,
      "omp": 5137,
      "ĠDonna": 5138,
      "Ġflashing": 5139,
      "Ġspells": 5140,
      "Ġraccoon": 5141,
      "Ġobviously": 5142,
      "crow": 5143,
      "Ġhus": 5144,
      "its": 5145,
      "alade": 5146,
      "andra": 5147,
      "ĠTes": 5148,
      "aker": 5149,
      "ĠLeg": 5150,
      "Ġgrr": 5151,
      "Ġgrabb": 5152,
      "Ġlearned": 5153,
      "Ġmuffins": 5154,
      "ĠOliver": 5155,
      "NN": 5156,
      "cut": 5157,
      "cal": 5158,
      "Ġdaughter": 5159,
      "Ġitself": 5160,
      "Ġpip": 5161,
      "Ġstock": 5162,
      "Ġsteering": 5163,
      "Ġcucumber": 5164,
      "La": 5165,
      "rest": 5166,
      "ition": 5167,
      "Ġed": 5168,
      "Ġtalks": 5169,
      "Ġsnowing": 5170,
      "Ġnursie": 5171,
      "Ġcontainer": 5172,
      "Ġtoddler": 5173,
      "ical": 5174,
      "elery": 5175,
      "anga": 5176,
      "Ġmoose": 5177,
      "Ġironing": 5178,
      "Ġregister": 5179,
      "Dad": 5180,
      "Ġet": 5181,
      "Ġtaught": 5182,
      "Ġgigg": 5183,
      "Ġstate": 5184,
      "tage": 5185,
      "Ġstroke": 5186,
      "Ġrealize": 5187,
      "Ġtusks": 5188,
      "Ġtortoise": 5189,
      "Ġworried": 5190,
      "Ġlegos": 5191,
      "Ġbanged": 5192,
      "ĠGreg": 5193,
      "Ġrhinocer": 5194,
      "Ġsungl": 5195,
      "Ġsled": 5196,
      "Ġot": 5197,
      "Ġsleeps": 5198,
      "Ġstretch": 5199,
      "Ġhealthy": 5200,
      "Ġmarmalade": 5201,
      "Ġgall": 5202,
      "Ġmam": 5203,
      "Ġitch": 5204,
      "Ġwhenever": 5205,
      "Ġspo": 5206,
      "Ġchoos": 5207,
      "Ġdoctors": 5208,
      "alend": 5209,
      "Ġtaping": 5210,
      "Ġthick": 5211,
      "Ġstinky": 5212,
      "ello": 5213,
      "Ġfrost": 5214,
      "Ġtellie": 5215,
      "Ġfishes": 5216,
      "dington": 5217,
      "Dadaw": 5218,
      "VI": 5219,
      "Ġnicke": 5220,
      "Ġsteak": 5221,
      "ral": 5222,
      "ĠEng": 5223,
      "Ġfalled": 5224,
      "Ġfilled": 5225,
      "ĠPad": 5226,
      "ĠGwww": 5227,
      "ĠWell": 5228,
      "Ġwalls": 5229,
      "Ġmixing": 5230,
      "Ġbarking": 5231,
      "Mon": 5232,
      "ray": 5233,
      "Ġsang": 5234,
      "Ġbanda": 5235,
      "Ġshaking": 5236,
      "ĠSim": 5237,
      "ĠCindy": 5238,
      "ocery": 5239,
      "Ġwhoopsie": 5240,
      "izzy": 5241,
      "Ġsaucer": 5242,
      "Ġquietly": 5243,
      "Ġtemper": 5244,
      "Ġvillage": 5245,
      "ĠTesco": 5246,
      "dr": 5247,
      "mies": 5248,
      "Ġpork": 5249,
      "Ġparent": 5250,
      "Ġrude": 5251,
      "Ġjail": 5252,
      "ĠRoo": 5253,
      "Ġearth": 5254,
      "idsbury": 5255,
      "ĠBatman": 5256,
      "Ġwi": 5257,
      "ances": 5258,
      "Ġpapa": 5259,
      "ĠMiffy": 5260,
      "aste": 5261,
      "ĠCheer": 5262,
      "Ġkneeling": 5263,
      "billy": 5264,
      "paste": 5265,
      "idi": 5266,
      "Ġmelon": 5267,
      "iella": 5268,
      "aling": 5269,
      "Ġenjoyed": 5270,
      "Ġgener": 5271,
      "Ġye": 5272,
      "Ġpouring": 5273,
      "ĠJulie": 5274,
      "Ġbuns": 5275,
      "Ġnibbled": 5276,
      "Ġfirefighter": 5277,
      "walk": 5278,
      "Ġitems": 5279,
      "eenth": 5280,
      "ĠRice": 5281,
      "Ġgrocery": 5282,
      "ĠKanga": 5283,
      "Ġrhy": 5284,
      "Ġvegetable": 5285,
      "ĠPaddington": 5286,
      "tock": 5287,
      "Ġbeepbeep": 5288,
      "Ġfilm": 5289,
      "ikes": 5290,
      "Ġteen": 5291,
      "Ġpaw": 5292,
      "arate": 5293,
      "ryn": 5294,
      "ĠDidsbury": 5295,
      "andma": 5296,
      "Ġpattern": 5297,
      "Ġdecide": 5298,
      "Ġslept": 5299,
      "Ġdoughnut": 5300,
      "Ġrinse": 5301,
      "Ġrhinoceros": 5302,
      "food": 5303,
      "Ġdrill": 5304,
      "Ġthrown": 5305,
      "Ġmoves": 5306,
      "Ġscarecrow": 5307,
      "JOA": 5308,
      "ĠTw": 5309,
      "Ġhomework": 5310,
      "aged": 5311,
      "Ġsub": 5312,
      "Ġscrews": 5313,
      "Ġarrive": 5314,
      "Ġmotorbike": 5315,
      "Ġhusband": 5316,
      "son": 5317,
      "uct": 5318,
      "tap": 5319,
      "obe": 5320,
      "Ġnuhhuh": 5321,
      "Ġdelivery": 5322,
      "va": 5323,
      "Ġsense": 5324,
      "iny": 5325,
      "Ġrake": 5326,
      "Ġbare": 5327,
      "ille": 5328,
      "ĠDeb": 5329,
      "ĠSep": 5330,
      "ĠCol": 5331,
      "Ġenne": 5332,
      "Ġstops": 5333,
      "emi": 5334,
      "Ġeee": 5335,
      "Ġcomplete": 5336,
      "builder": 5337,
      "sk": 5338,
      "Ġtuh": 5339,
      "Ġfant": 5340,
      "ighty": 5341,
      "Ġsting": 5342,
      "Ġunderw": 5343,
      "ĠKent": 5344,
      "Ġevening": 5345,
      "Ġtickets": 5346,
      "cht": 5347,
      "orter": 5348,
      "Ġur": 5349,
      "Ġknot": 5350,
      "ĠPu": 5351,
      "easel": 5352,
      "eader": 5353,
      "entre": 5354,
      "Ġuses": 5355,
      "Ġoooo": 5356,
      "ye": 5357,
      "iter": 5358,
      "ĠTommy": 5359,
      "Ġspark": 5360,
      "Ġdrain": 5361,
      "Ġmarch": 5362,
      "Ġmarbles": 5363,
      "Ġundo": 5364,
      "alentine": 5365,
      "Ġbracelet": 5366,
      "FEM": 5367,
      "Ġlookit": 5368,
      "Ġpeg": 5369,
      "Ġsounded": 5370,
      "market": 5371,
      "Ġtipped": 5372,
      "Ġink": 5373,
      "Ġequ": 5374,
      "ĠSesame": 5375,
      "Ġshoulders": 5376,
      "ĠEliz": 5377,
      "Ġfrozen": 5378,
      "Ġpeaches": 5379,
      "yrup": 5380,
      "Ġbunnies": 5381,
      "ĠKathryn": 5382,
      "gosh": 5383,
      "Ġgotten": 5384,
      "Ġfeathers": 5385,
      "Ġcalend": 5386,
      "Ġlake": 5387,
      "Ġbaker": 5388,
      "ĠJu": 5389,
      "tember": 5390,
      "Ġshows": 5391,
      "Ġdizzy": 5392,
      "Ġsettee": 5393,
      "Ġcones": 5394,
      "ĠNicola": 5395,
      "ĠSeptember": 5396,
      "de": 5397,
      "Ġdummy": 5398,
      "iness": 5399,
      "Ġbill": 5400,
      "Ġramp": 5401,
      "ĠMinnie": 5402,
      "Ġjoke": 5403,
      "Ġblah": 5404,
      "ĠJac": 5405,
      "Ġneedle": 5406,
      "ĠLe": 5407,
      "Ġcomf": 5408,
      "Ġfluffy": 5409,
      "Ġscri": 5410,
      "Ġbonk": 5411,
      "Ġwomen": 5412,
      "Ġsunglasses": 5413,
      "LE": 5414,
      "doll": 5415,
      "gle": 5416,
      "Ġheat": 5417,
      "ĠPean": 5418,
      "Ġass": 5419,
      "Ġtaller": 5420,
      "Ġcreature": 5421,
      "ga": 5422,
      "ju": 5423,
      "Ġwife": 5424,
      "Ġmobile": 5425,
      "Ġtoad": 5426,
      "auce": 5427,
      "Ġgrrr": 5428,
      "Ġtouched": 5429,
      "Ġdumper": 5430,
      "Ġtapes": 5431,
      "Ġwrapped": 5432,
      "Ġsupermarket": 5433,
      "Ġcopy": 5434,
      "Ġbathtub": 5435,
      "NON": 5436,
      "ĠX": 5437,
      "Ġwrench": 5438,
      "ickory": 5439,
      "Ġdollies": 5440,
      "udge": 5441,
      "ĠStock": 5442,
      "Ġeaster": 5443,
      "Ġfireworks": 5444,
      "Ġmistake": 5445,
      "Monster": 5446,
      "atter": 5447,
      "inker": 5448,
      "Ġbrr": 5449,
      "Ġclub": 5450,
      "xture": 5451,
      "Ġglove": 5452,
      "Ġcoun": 5453,
      "Ġcudd": 5454,
      "flower": 5455,
      "Ġsquirrels": 5456,
      "PA": 5457,
      "leen": 5458,
      "icles": 5459,
      "othy": 5460,
      "oebe": 5461,
      "Ġcrawling": 5462,
      "Ġsweat": 5463,
      "Ġkettle": 5464,
      "Ġkoala": 5465,
      "Ġoppos": 5466,
      "DAN": 5467,
      "Ġnet": 5468,
      "Ġproud": 5469,
      "ĠStreet": 5470,
      "Ġsiren": 5471,
      "Ġtricky": 5472,
      "Ġfantastic": 5473,
      "Ġae": 5474,
      "Ġsippy": 5475,
      "atos": 5476,
      "Ġnu": 5477,
      "Ġpaws": 5478,
      "Ġweigh": 5479,
      "ene": 5480,
      "Ġstew": 5481,
      "Ġthemselves": 5482,
      "Ġviol": 5483,
      "Ġhardly": 5484,
      "Ġhoover": 5485,
      "Ġtune": 5486,
      "Ġrel": 5487,
      "ĠTisha": 5488,
      "iesel": 5489,
      "ĠFizz": 5490,
      "Ġkidding": 5491,
      "cious": 5492,
      "Ġgiraffes": 5493,
      "ĠFloppy": 5494,
      "print": 5495,
      "ĠGabriella": 5496,
      "Ġdw": 5497,
      "Ġcelery": 5498,
      "keep": 5499,
      "Ġtwice": 5500,
      "oft": 5501,
      "Ġpaints": 5502,
      "Ġbarrel": 5503,
      "ĠJessica": 5504,
      "ĠFlor": 5505,
      "Ġtube": 5506,
      "inter": 5507,
      "ĠSummer": 5508,
      "Ġtries": 5509,
      "ĠNanny": 5510,
      "Ġbreakdown": 5511,
      "Ġerm": 5512,
      "Ġbowls": 5513,
      "ĠAsian": 5514,
      "Ġsurf": 5515,
      "ai": 5516,
      "Ġself": 5517,
      "Ġberries": 5518,
      "Ġbeets": 5519,
      "irds": 5520,
      "Ġann": 5521,
      "Ġpockets": 5522,
      "Ġugly": 5523,
      "Ġbandaid": 5524,
      "Ġgeese": 5525,
      "Ġdood": 5526,
      "Ġshush": 5527,
      "Ġrememb": 5528,
      "Ġpicks": 5529,
      "Ġroast": 5530,
      "Ġfollowed": 5531,
      "par": 5532,
      "erv": 5533,
      "ears": 5534,
      "ĠSyl": 5535,
      "Ġcooker": 5536,
      "cloth": 5537,
      "Ġlazy": 5538,
      "Ġlearning": 5539,
      "Ġveh": 5540,
      "Ġcartoon": 5541,
      "Ġmushrooms": 5542,
      "Ġbom": 5543,
      "Ġdong": 5544,
      "ately": 5545,
      "ĠRon": 5546,
      "Ġhotel": 5547,
      "Ġtrunks": 5548,
      "ĠBaaee": 5549,
      "Ġremembered": 5550,
      "Ġtot": 5551,
      "Ġshamp": 5552,
      "Ġcant": 5553,
      "Ġdrank": 5554,
      "ently": 5555,
      "Ġhiya": 5556,
      "Ġmilkman": 5557,
      "Ġtoothpaste": 5558,
      "Ġsneakers": 5559,
      "Ġcalendar": 5560,
      "Ġshampoo": 5561,
      "curr": 5562,
      "Ġpath": 5563,
      "Ġletting": 5564,
      "ĠDr": 5565,
      "ĠEls": 5566,
      "ĠRabbit": 5567,
      "Ġgrandmother": 5568,
      "Ġbegan": 5569,
      "af": 5570,
      "Ġlun": 5571,
      "orah": 5572,
      "otape": 5573,
      "ĠJe": 5574,
      "bbles": 5575,
      "Ġheadache": 5576,
      "Ġgravy": 5577,
      "Ġcompany": 5578,
      "Ġshaped": 5579,
      "Ġscreaming": 5580,
      "ington": 5581,
      "esl": 5582,
      "Ġbrum": 5583,
      "Ġcluck": 5584,
      "ĠGer": 5585,
      "Ġarrow": 5586,
      "entr": 5587,
      "Ġgross": 5588,
      "ĠSpain": 5589,
      "Ġclosing": 5590,
      "Ġcotton": 5591,
      "Ġpromise": 5592,
      "wah": 5593,
      "Ġpsh": 5594,
      "ĠDis": 5595,
      "ĠDumbo": 5596,
      "ĠBunny": 5597,
      "ĠFat": 5598,
      "Ġsquashed": 5599,
      "Ġwiping": 5600,
      "Ġsip": 5601,
      "Ġcabb": 5602,
      "Ġweed": 5603,
      "Ġchoke": 5604,
      "ĠPop": 5605,
      "Ġdrove": 5606,
      "ĠRemi": 5607,
      "Ġguard": 5608,
      "ĠPhoebe": 5609,
      "ĠGoldil": 5610,
      "Ġexercise": 5611,
      "Ġlizard": 5612,
      "bl": 5613,
      "Ġdate": 5614,
      "ined": 5615,
      "ĠNe": 5616,
      "ĠGinger": 5617,
      "ulp": 5618,
      "Ġcrashing": 5619,
      "bbit": 5620,
      "Ġjigsaws": 5621,
      "Ġinstrum": 5622,
      "Ġbrave": 5623,
      "OBS": 5624,
      "Ġtag": 5625,
      "Ġmood": 5626,
      "Ġtoaster": 5627,
      "ĠMmm": 5628,
      "abeth": 5629,
      "AND": 5630,
      "HHH": 5631,
      "ĠStockport": 5632,
      "Ġfee": 5633,
      "Ġblueberry": 5634,
      "Ġmovies": 5635,
      "Ġneighbor": 5636,
      "Ġcheerl": 5637,
      "Ġsailor": 5638,
      "Ġdisappeared": 5639,
      "ns": 5640,
      "Ġpacked": 5641,
      "Ġfet": 5642,
      "Ġoutta": 5643,
      "ourt": 5644,
      "Ġfishies": 5645,
      "Ġhorsies": 5646,
      "Ġwrapping": 5647,
      "ĠNancy": 5648,
      "Ġhonestly": 5649,
      "Noo": 5650,
      "wl": 5651,
      "Ġsyrup": 5652,
      "Ġnanny": 5653,
      "itam": 5654,
      "Ġshr": 5655,
      "Ġbleed": 5656,
      "ĠBost": 5657,
      "Ġbeaker": 5658,
      "Ġdae": 5659,
      "Ġmeasuring": 5660,
      "Ġpennys": 5661,
      "ners": 5662,
      "Ġaqu": 5663,
      "Ġdumb": 5664,
      "Ġped": 5665,
      "Ġpail": 5666,
      "Ġrul": 5667,
      "ict": 5668,
      "Ġchugg": 5669,
      "tail": 5670,
      "Ġvet": 5671,
      "Ġshirts": 5672,
      "Ġpostbox": 5673,
      "Ġsharks": 5674,
      "Ġmath": 5675,
      "ĠKathy": 5676,
      "ĠSaltie": 5677,
      "ĠGoldilocks": 5678,
      "Ġpies": 5679,
      "Ġsliding": 5680,
      "angu": 5681,
      "Ġawh": 5682,
      "Ġeasily": 5683,
      "Ġsprink": 5684,
      "ymes": 5685,
      "Ġjunk": 5686,
      "Ġhiccups": 5687,
      "Ġhopsc": 5688,
      "ĠBoston": 5689,
      "dum": 5690,
      "Ġss": 5691,
      "ative": 5692,
      "Ġweb": 5693,
      "Ġshame": 5694,
      "Ġbaking": 5695,
      "ĠTyr": 5696,
      "ĠJerry": 5697,
      "angles": 5698,
      "ĠKing": 5699,
      "Ġmessing": 5700,
      "Ġseventy": 5701,
      "Ġknickers": 5702,
      "ĠSylvia": 5703,
      "py": 5704,
      "Ġtim": 5705,
      "Ġlabel": 5706,
      "Ġstole": 5707,
      "Ġbol": 5708,
      "Ġalarm": 5709,
      "ups": 5710,
      "Ġturtles": 5711,
      "Ġprot": 5712,
      "Ġvitam": 5713,
      "Ġblackcurr": 5714,
      "illian": 5715,
      "Ġholidays": 5716,
      "ĠLuc": 5717,
      "Ġporcup": 5718,
      "how": 5719,
      "Ġlump": 5720,
      "Ġloft": 5721,
      "Ġlangu": 5722,
      "igan": 5723,
      "Ġwaste": 5724,
      "Ġspare": 5725,
      "ĠAlf": 5726,
      "ĠNem": 5727,
      "ĠNonna": 5728,
      "TEL": 5729,
      "Ġfurther": 5730,
      "Ġauntie": 5731,
      "Ġcamping": 5732,
      "Ġsoldier": 5733,
      "Ġlipstick": 5734,
      "ĠElizabeth": 5735,
      "Ġhopscotch": 5736,
      "bus": 5737,
      "din": 5738,
      "umn": 5739,
      "Ġforth": 5740,
      "ĠDizzy": 5741,
      "Ġcatching": 5742,
      "Ġdusting": 5743,
      "Ġpiggies": 5744,
      "ĠBernice": 5745,
      "ĠFlorida": 5746,
      "Ġawhile": 5747,
      "DON": 5748,
      "KK": 5749,
      "Ġseek": 5750,
      "ĠSpen": 5751,
      "ĠJimmy": 5752,
      "pens": 5753,
      "Ġsandbox": 5754,
      "Ġbalance": 5755,
      "ĠNorman": 5756,
      "anie": 5757,
      "lly": 5758,
      "issed": 5759,
      "Ġstable": 5760,
      "iew": 5761,
      "Ġdisg": 5762,
      "Ġbrings": 5763,
      "ĠLuke": 5764,
      "JUD": 5765,
      "Ġpitcher": 5766,
      "IAN": 5767,
      "TT": 5768,
      "Ġaut": 5769,
      "Ġfa": 5770,
      "ellotape": 5771,
      "ĠAction": 5772,
      "ggedy": 5773,
      "Ġgrocer": 5774,
      "Ġfiremen": 5775,
      "ĠKay": 5776,
      "Ġmustard": 5777,
      "Ġpeanuts": 5778,
      "DN": 5779,
      "EDN": 5780,
      "Ġyall": 5781,
      "utch": 5782,
      "anks": 5783,
      "Ġpro": 5784,
      "Ġteam": 5785,
      "usting": 5786,
      "ĠFranklin": 5787,
      "ĠDisney": 5788,
      "mit": 5789,
      "Ġstage": 5790,
      "ically": 5791,
      "ĠDave": 5792,
      "ĠBeth": 5793,
      "Ġbuilder": 5794,
      "Ġviolin": 5795,
      "birthday": 5796,
      "Ġboss": 5797,
      "Ġfries": 5798,
      "Ġsund": 5799,
      "Ġmuscles": 5800,
      "Ġsplashing": 5801,
      "Ġpussycat": 5802,
      "Ġcrocodiles": 5803,
      "Ġterrific": 5804,
      "Ġnickel": 5805,
      "ĠDeborah": 5806,
      "keeper": 5807,
      "ĠNemo": 5808,
      "ience": 5809,
      "med": 5810,
      "Ġtuck": 5811,
      "Ġguh": 5812,
      "Ġdom": 5813,
      "ĠMor": 5814,
      "Ġalley": 5815,
      "Ġspade": 5816,
      "Ġballer": 5817,
      "Ġbreaks": 5818,
      "Ġbadge": 5819,
      "ĠStu": 5820,
      "ĠWellington": 5821,
      "Ġwing": 5822,
      "Ġbored": 5823,
      "Ġkissed": 5824,
      "cher": 5825,
      "Ġtricks": 5826,
      "Ġprefer": 5827,
      "Ġhighchair": 5828,
      "Ġfactory": 5829,
      "OT": 5830,
      "brow": 5831,
      "Ġcree": 5832,
      "Ġmain": 5833,
      "Ġpant": 5834,
      "Ġrode": 5835,
      "ĠRoy": 5836,
      "Ġrealized": 5837,
      "Ġseconds": 5838,
      "Ġgoldfish": 5839,
      "Ġprotect": 5840,
      "CLA": 5841,
      "Ġangel": 5842,
      "ppy": 5843,
      "andel": 5844,
      "Ġbecome": 5845,
      "ĠAmer": 5846,
      "ilda": 5847,
      "Ġsidewalk": 5848,
      "Ġapric": 5849,
      "ĠEmmy": 5850,
      "ĠWhat": 5851,
      "Ġwires": 5852,
      "Ġparents": 5853,
      "OTH": 5854,
      "Brown": 5855,
      "Ġmash": 5856,
      "Ġpower": 5857,
      "Ġhaw": 5858,
      "Ġbagel": 5859,
      "Ġspout": 5860,
      "Ġworse": 5861,
      "ĠWoody": 5862,
      "Ġerase": 5863,
      "Ġeyebrow": 5864,
      "Ġlaughed": 5865,
      "Ġcontrol": 5866,
      "ĠPhil": 5867,
      "Ġrhyme": 5868,
      "Ġporcupine": 5869,
      "Ġlanguage": 5870,
      "HAR": 5871,
      "gi": 5872,
      "sie": 5873,
      "Ġbas": 5874,
      "anky": 5875,
      "ulu": 5876,
      "Ġprize": 5877,
      "Ġdollie": 5878,
      "Ġfishy": 5879,
      "Ġpumpkins": 5880,
      "Ġcarried": 5881,
      "rette": 5882,
      "Ġcounter": 5883,
      "Ġblackcurrant": 5884,
      "ĠStuart": 5885,
      "Ġav": 5886,
      "Ġpss": 5887,
      "Ġfool": 5888,
      "Ġdonut": 5889,
      "Ġjeep": 5890,
      "rabbit": 5891,
      "ĠRe": 5892,
      "Ġroundabout": 5893,
      "ĠKwww": 5894,
      "ĠAsher": 5895,
      "Ġexplain": 5896,
      "almat": 5897,
      "leenex": 5898,
      "ressed": 5899,
      "Ġsep": 5900,
      "Ġfry": 5901,
      "Ġkicked": 5902,
      "Ġstands": 5903,
      "apping": 5904,
      "Ġhugs": 5905,
      "Ġrecognizes": 5906,
      "Ġcottage": 5907,
      "ightyear": 5908,
      "chtime": 5909,
      "Ġlunchtime": 5910,
      "ĠJeff": 5911,
      "Ġcabbage": 5912,
      "Ġdime": 5913,
      "Ġfault": 5914,
      "Ġret": 5915,
      "Ġtwins": 5916,
      "Ġdrawn": 5917,
      "ĠAlad": 5918,
      "ĠNoah": 5919,
      "ĠRuby": 5920,
      "Ġteeny": 5921,
      "cock": 5922,
      "Ġmia": 5923,
      "Ġfuss": 5924,
      "Ġarea": 5925,
      "ĠMal": 5926,
      "Ġoutf": 5927,
      "ilo": 5928,
      "ĠGood": 5929,
      "oots": 5930,
      "ĠCheerios": 5931,
      "nn": 5932,
      "Ġau": 5933,
      "ĠCap": 5934,
      "Ġdropping": 5935,
      "angled": 5936,
      "Ġducky": 5937,
      "Ġbarrette": 5938,
      "ĠLego": 5939,
      "cie": 5940,
      "ives": 5941,
      "lers": 5942,
      "arium": 5943,
      "ĠKen": 5944,
      "ĠKevin": 5945,
      "Ġbranch": 5946,
      "Ġseas": 5947,
      "ining": 5948,
      "Ġblind": 5949,
      "ĠLucky": 5950,
      "Ġrhymes": 5951,
      "ĠJulian": 5952,
      "Ġshells": 5953,
      "ded": 5954,
      "Ġsush": 5955,
      "Ġanten": 5956,
      "ĠDon": 5957,
      "Ġquit": 5958,
      "Ġsings": 5959,
      "Ġpolish": 5960,
      "imba": 5961,
      "Ġpaid": 5962,
      "Ġradi": 5963,
      "Ġhunm": 5964,
      "Ġcoughing": 5965,
      "Ġcomfy": 5966,
      "Ġdisgusting": 5967,
      "HEL": 5968,
      "here": 5969,
      "Ġdare": 5970,
      "Ġdung": 5971,
      "Ġble": 5972,
      "ĠSimba": 5973,
      "Ġmarble": 5974,
      "iggy": 5975,
      "Ġcovers": 5976,
      "Ġsquishy": 5977,
      "Ġpractice": 5978,
      "Ġotter": 5979,
      "Mar": 5980,
      "Ġhip": 5981,
      "Ġmunch": 5982,
      "Ġonions": 5983,
      "Ġjuicy": 5984,
      "Ġbolt": 5985,
      "ickle": 5986,
      "Ġsingle": 5987,
      "Ġskate": 5988,
      "Ġsandals": 5989,
      "Ġserve": 5990,
      "ĠIndian": 5991,
      "juice": 5992,
      "Ġsushi": 5993,
      "set": 5994,
      "xx": 5995,
      "Ġdas": 5996,
      "Ġsoggy": 5997,
      "Ġhorr": 5998,
      "Ġtread": 5999,
      "Ġfroggy": 6000,
      "annel": 6001,
      "Lastname": 6002,
      "Ġmi": 6003,
      "Ġins": 6004,
      "ĠMad": 6005,
      "irl": 6006,
      "Ġtrapped": 6007,
      "nect": 6008,
      "eans": 6009,
      "Ġtails": 6010,
      "Ġpeepp": 6011,
      "ĠEllie": 6012,
      "Grandma": 6013,
      "Sh": 6014,
      "ior": 6015,
      "iana": 6016,
      "Ġweasel": 6017,
      "Ġmop": 6018,
      "Ġcans": 6019,
      "Ġjug": 6020,
      "Ġbutt": 6021,
      "uckle": 6022,
      "Ġwritten": 6023,
      "Ġsqueez": 6024,
      "balls": 6025,
      "Ġblankets": 6026,
      "Ġslipped": 6027,
      "Ġrailway": 6028,
      "Ġcharac": 6029,
      "Ġgrabbed": 6030,
      "kn": 6031,
      "ses": 6032,
      "Ġcig": 6033,
      "Ġmem": 6034,
      "Ġtickles": 6035,
      "Ġforks": 6036,
      "pensive": 6037,
      "Ġhood": 6038,
      "Ġplat": 6039,
      "Ġchose": 6040,
      "uel": 6041,
      "gging": 6042,
      "Ġvalentine": 6043,
      "Ġcoal": 6044,
      "Ġslippery": 6045,
      "Ġtissues": 6046,
      "ĠWhite": 6047,
      "ĠJuly": 6048,
      "Ġhush": 6049,
      "ety": 6050,
      "rah": 6051,
      "ĠTex": 6052,
      "Ġtricycle": 6053,
      "ĠOwl": 6054,
      "Ġfingerna": 6055,
      "Ġdesert": 6056,
      "Ġcoaches": 6057,
      "Cwww": 6058,
      "Ġpal": 6059,
      "Ġjour": 6060,
      "Ġpleas": 6061,
      "Ġeater": 6062,
      "olk": 6063,
      "ĠLulu": 6064,
      "Ġmarching": 6065,
      "Ġwiggly": 6066,
      "ĠSweetie": 6067,
      "rus": 6068,
      "rer": 6069,
      "Ġref": 6070,
      "Ġknit": 6071,
      "Ġchoice": 6072,
      "ĠClaus": 6073,
      "ĠBaura": 6074,
      "ĠBugs": 6075,
      "Ġcrad": 6076,
      "Ġkitties": 6077,
      "Ġbeaver": 6078,
      "Ġcube": 6079,
      "ments": 6080,
      "Ġskinny": 6081,
      "Ġsportsc": 6082,
      "aine": 6083,
      "Ġbusiness": 6084,
      "Ġpickles": 6085,
      "Ġcoats": 6086,
      "Ġcrossing": 6087,
      "Ġserv": 6088,
      "Ġpattycake": 6089,
      "VIS": 6090,
      "Ġchugga": 6091,
      "Ġballerina": 6092,
      "ae": 6093,
      "gn": 6094,
      "Ġwond": 6095,
      "Ġodd": 6096,
      "Ġnowhere": 6097,
      "Ġpeck": 6098,
      "Ġeighty": 6099,
      "Ġproblems": 6100,
      "Ġaddress": 6101,
      "Ġdelivering": 6102,
      "Ġwobbly": 6103,
      "idden": 6104,
      "ĠCaptain": 6105,
      "Ġradiator": 6106,
      "Ġhae": 6107,
      "alls": 6108,
      "Ġgots": 6109,
      "ĠBee": 6110,
      "Ġcrust": 6111,
      "Ġexpensive": 6112,
      "Ġscrub": 6113,
      "Ġesc": 6114,
      "oint": 6115,
      "woo": 6116,
      "Ġthread": 6117,
      "Ġlif": 6118,
      "ĠDin": 6119,
      "ĠTiger": 6120,
      "Ġswiss": 6121,
      "Ġowls": 6122,
      "Ġparked": 6123,
      "oyo": 6124,
      "Ġparking": 6125,
      "Ġconfu": 6126,
      "ĠMatt": 6127,
      "Ġpaying": 6128,
      "Ġsleeves": 6129,
      "ĠJacob": 6130,
      "Ġnaw": 6131,
      "Ġpah": 6132,
      "orse": 6133,
      "Ġdiddle": 6134,
      "Ġash": 6135,
      "Ġfluff": 6136,
      "Ġcheeks": 6137,
      "Ġlately": 6138,
      "Ġgoats": 6139,
      "Ġpadd": 6140,
      "Ġdirect": 6141,
      "Ġcompletely": 6142,
      "LEA": 6143,
      "pooh": 6144,
      "rings": 6145,
      "vet": 6146,
      "Ġstream": 6147,
      "Ġsale": 6148,
      "Ġtrump": 6149,
      "Ġbothered": 6150,
      "Ġpoison": 6151,
      "Ġgrows": 6152,
      "ĠBarry": 6153,
      "Ġshouted": 6154,
      "Ġcontroller": 6155,
      "Ġarrived": 6156,
      "Ġaquarium": 6157,
      "Ġmiaow": 6158,
      "dee": 6159,
      "ford": 6160,
      "jo": 6161,
      "munk": 6162,
      "pool": 6163,
      "yum": 6164,
      "Ġwakes": 6165,
      "Ġpliers": 6166,
      "Ġwaves": 6167,
      "Ġsmashed": 6168,
      "Ġexp": 6169,
      "ĠTheo": 6170,
      "Ġforever": 6171,
      "Ġmended": 6172,
      "Ġpretzels": 6173,
      "Ġwhispering": 6174,
      "ĠCait": 6175,
      "Ġtemperature": 6176,
      "oked": 6177,
      "yard": 6178,
      "Ġhumm": 6179,
      "Ġhidden": 6180,
      "ats": 6181,
      "Ġmos": 6182,
      "Ġmous": 6183,
      "Ġgreedy": 6184,
      "oolaid": 6185,
      "aterpillar": 6186,
      "Ġbehave": 6187,
      "Ġbats": 6188,
      "fruit": 6189,
      "ĠMacDonald": 6190,
      "Ġpopsicle": 6191,
      "Ġducklings": 6192,
      "Ġfetch": 6193,
      "Ġcradle": 6194,
      "Lwww": 6195,
      "Pl": 6196,
      "Ġmall": 6197,
      "Ġpets": 6198,
      "ken": 6199,
      "utta": 6200,
      "Ġrose": 6201,
      "Ġjew": 6202,
      "Ġbam": 6203,
      "Ġputtap": 6204,
      "Ġdrunk": 6205,
      "Ġfourth": 6206,
      "ĠHappy": 6207,
      "Ġparade": 6208,
      "ĠHeidi": 6209,
      "ĠTracy": 6210,
      "ĠFrosty": 6211,
      "Ġsnuggle": 6212,
      "Ġputtaputta": 6213,
      "Ġtins": 6214,
      "Ġax": 6215,
      "Ġmike": 6216,
      "Ġnor": 6217,
      "Ġjugg": 6218,
      "ĠSeth": 6219,
      "Ġthankyou": 6220,
      "Ġgran": 6221,
      "REN": 6222,
      "Ġserious": 6223,
      "Ġbothering": 6224,
      "Ġmid": 6225,
      "Ġjolly": 6226,
      "Ġwrist": 6227,
      "Ġseam": 6228,
      "Ġpeacock": 6229,
      "Ġcabin": 6230,
      "Ġlone": 6231,
      "Ġpy": 6232,
      "Ġpou": 6233,
      "Ġpit": 6234,
      "Ġfake": 6235,
      "chief": 6236,
      "rack": 6237,
      "Ġages": 6238,
      "ĠLee": 6239,
      "artin": 6240,
      "Ġbikes": 6241,
      "Ġcaterpillars": 6242,
      "uddy": 6243,
      "Ġelev": 6244,
      "Ġmailman": 6245,
      "Ġchipmunk": 6246,
      "Ġcushions": 6247,
      "ĠSusan": 6248,
      "val": 6249,
      "Ġpine": 6250,
      "Ġpos": 6251,
      "Ġcheep": 6252,
      "ĠJay": 6253,
      "ocky": 6254,
      "ĠLaur": 6255,
      "ĠHungry": 6256,
      "ustr": 6257,
      "oofy": 6258,
      "Ġaerob": 6259,
      "Ġspinach": 6260,
      "Ġpeace": 6261,
      "Ġchased": 6262,
      "Ġoutfit": 6263,
      "Ġsss": 6264,
      "Ġwhales": 6265,
      "Ġnat": 6266,
      "Ġliqu": 6267,
      "ĠPar": 6268,
      "iper": 6269,
      "arees": 6270,
      "Ġstopping": 6271,
      "Ġnighttime": 6272,
      "Ġamen": 6273,
      "Ġbrushed": 6274,
      "Ġpastry": 6275,
      "Ġfurry": 6276,
      "ĠKeisha": 6277,
      "Ġdungarees": 6278,
      "ĠTexas": 6279,
      "Ġtut": 6280,
      "Ġtart": 6281,
      "antern": 6282,
      "Ġpitter": 6283,
      "ences": 6284,
      "ĠMoosh": 6285,
      "Ġform": 6286,
      "Ġank": 6287,
      "Ġwillie": 6288,
      "Ġleop": 6289,
      "Ġvase": 6290,
      "assie": 6291,
      "Ġfishie": 6292,
      "aca": 6293,
      "Ġpatch": 6294,
      "Ġpoints": 6295,
      "Ġsaved": 6296,
      "Ġbreathe": 6297,
      "JON": 6298,
      "bah": 6299,
      "Ġcons": 6300,
      "Ġmou": 6301,
      "allowed": 6302,
      "ican": 6303,
      "ĠDu": 6304,
      "Ġbrand": 6305,
      "Ġgray": 6306,
      "ĠKip": 6307,
      "Ġmars": 6308,
      "Ġeagle": 6309,
      "Ġunhunh": 6310,
      "Ġaerobics": 6311,
      "Ġtangled": 6312,
      "Ġdest": 6313,
      "Ġwhad": 6314,
      "Ġwand": 6315,
      "ĠPot": 6316,
      "ĠJosh": 6317,
      "quit": 6318,
      "Ġlotion": 6319,
      "Ġtops": 6320,
      "Ġpurpose": 6321,
      "Ġwiped": 6322,
      "road": 6323,
      "Ġattached": 6324,
      "Ġparcels": 6325,
      "Ġcustard": 6326,
      "RRR": 6327,
      "yle": 6328,
      "Ġheld": 6329,
      "Ġspaces": 6330,
      "ADR": 6331,
      "oscope": 6332,
      "Ġpuddle": 6333,
      "Ġprick": 6334,
      "ĠCarle": 6335,
      "Ġnormal": 6336,
      "Ġjourney": 6337,
      "Wh": 6338,
      "reen": 6339,
      "Ġchain": 6340,
      "opes": 6341,
      "eller": 6342,
      "Ġdrops": 6343,
      "ĠNick": 6344,
      "ĠGary": 6345,
      "Ġswallowed": 6346,
      "Ġcutie": 6347,
      "Ġawfully": 6348,
      "Ġfavorites": 6349,
      "Ġdancer": 6350,
      "Ġjoking": 6351,
      "JJJ": 6352,
      "JAK": 6353,
      "ĠBozo": 6354,
      "Ġelevator": 6355,
      "ogg": 6356,
      "robe": 6357,
      "Ġnea": 6358,
      "ĠMir": 6359,
      "Ġsheet": 6360,
      "Ġspeed": 6361,
      "ĠJust": 6362,
      "ĠAna": 6363,
      "Ġways": 6364,
      "bled": 6365,
      "Ġrained": 6366,
      "Ġswims": 6367,
      "Ġpuss": 6368,
      "Ġgolden": 6369,
      "strich": 6370,
      "Ġconcentr": 6371,
      "ĠSpencer": 6372,
      "Ġcigaret": 6373,
      "cause": 6374,
      "pants": 6375,
      "Ġsake": 6376,
      "Ġgarl": 6377,
      "sect": 6378,
      "Ġjeans": 6379,
      "Ġbobble": 6380,
      "Ġpeoples": 6381,
      "friend": 6382,
      "Ġmeeting": 6383,
      "Ġdolphins": 6384,
      "ĠCarey": 6385,
      "ĠRaggedy": 6386,
      "Ġconfused": 6387,
      "Lightyear": 6388,
      "ko": 6389,
      "Ġostrich": 6390,
      "Ġmod": 6391,
      "Ġrod": 6392,
      "ĠTy": 6393,
      "ĠTed": 6394,
      "Ġamount": 6395,
      "wheel": 6396,
      "ivers": 6397,
      "Ġapricot": 6398,
      "ĠLaurie": 6399,
      "Th": 6400,
      "Ġhopping": 6401,
      "ĠMartin": 6402,
      "Ġnote": 6403,
      "Ġholds": 6404,
      "Ġrecently": 6405,
      "ĠDece": 6406,
      "ĠJanuary": 6407,
      "Ġwalrus": 6408,
      "Ġtend": 6409,
      "Ġwore": 6410,
      "asher": 6411,
      "Ġapplesauce": 6412,
      "Ġscratched": 6413,
      "Ġrobin": 6414,
      "Ġpreschool": 6415,
      "ĠCaitlin": 6416,
      "Ġmosquit": 6417,
      "boom": 6418,
      "doh": 6419,
      "pan": 6420,
      "pher": 6421,
      "Ġwif": 6422,
      "Ġmessed": 6423,
      "ĠMilo": 6424,
      "ĠCat": 6425,
      "ĠJilly": 6426,
      "Ġbuff": 6427,
      "ĠGoofy": 6428,
      "Ġfireplace": 6429,
      "Ġpige": 6430,
      "Ġburnt": 6431,
      "button": 6432,
      "Ġwondered": 6433,
      "ĠDecember": 6434,
      "Ġai": 6435,
      "inna": 6436,
      "Ġgoed": 6437,
      "stress": 6438,
      "ado": 6439,
      "Ġstat": 6440,
      "ota": 6441,
      "ĠCourt": 6442,
      "Ġclue": 6443,
      "Ġbirdies": 6444,
      "Ġnursies": 6445,
      "Ġdesign": 6446,
      "Ġrobber": 6447,
      "ĠTeletubby": 6448,
      "gull": 6449,
      "uz": 6450,
      "Ġsig": 6451,
      "ved": 6452,
      "Ġkoolaid": 6453,
      "Ġgotcha": 6454,
      "ĠBea": 6455,
      "ĠBon": 6456,
      "Ġswan": 6457,
      "ugust": 6458,
      "Ġperi": 6459,
      "Ġscram": 6460,
      "Ġpassed": 6461,
      "Ġspeaking": 6462,
      "ĠErica": 6463,
      "Ġcharge": 6464,
      "Ġfrosting": 6465,
      "ĠXav": 6466,
      "Ġseamstress": 6467,
      "coat": 6468,
      "hive": 6469,
      "ini": 6470,
      "Ġmel": 6471,
      "oneys": 6472,
      "Ġbuss": 6473,
      "Ġhotdog": 6474,
      "Ġbathing": 6475,
      "Ġmicrow": 6476,
      "Ġpatient": 6477,
      "Ġseats": 6478,
      "Ġtowels": 6479,
      "Ġvel": 6480,
      "ĠPippo": 6481,
      "Ġgiddyup": 6482,
      "Ġlonely": 6483,
      "Ġokey": 6484,
      "Ġcuck": 6485,
      "arth": 6486,
      "ores": 6487,
      "Ġdiet": 6488,
      "ĠGramp": 6489,
      "Ġbarber": 6490,
      "Ġseagull": 6491,
      "iggly": 6492,
      "Ġclowns": 6493,
      "xter": 6494,
      "Ġcaboo": 6495,
      "Ġgang": 6496,
      "Ġlos": 6497,
      "Ġei": 6498,
      "che": 6499,
      "Ġsalmon": 6500,
      "Ġapron": 6501,
      "ĠMarch": 6502,
      "Ġbuzzy": 6503,
      "Ġpeeping": 6504,
      "Ġcousins": 6505,
      "Ġbushes": 6506,
      "ĠGabriel": 6507,
      "Ġmicrowave": 6508,
      "van": 6509,
      "Ġsour": 6510,
      "Ġdit": 6511,
      "Ġdandel": 6512,
      "Ġstud": 6513,
      "icip": 6514,
      "Ġbru": 6515,
      "ĠSellotape": 6516,
      "Ġneither": 6517,
      "Ġprod": 6518,
      "Ġmessage": 6519,
      "Ġheaven": 6520,
      "ĠVery": 6521,
      "ĠBlack": 6522,
      "Ġcrabs": 6523,
      "Ġtorch": 6524,
      "FAY": 6525,
      "Ġplatform": 6526,
      "GIN": 6527,
      "Ġwhaddy": 6528,
      "Ġpap": 6529,
      "Ġfum": 6530,
      "UNI": 6531,
      "Ġrela": 6532,
      "ppers": 6533,
      "ĠBall": 6534,
      "ĠFrench": 6535,
      "ipment": 6536,
      "Ġgranny": 6537,
      "ĠJackie": 6538,
      "Ġbasement": 6539,
      "Ġattack": 6540,
      "Ġpyjamas": 6541,
      "Ġcuckoo": 6542,
      "Mwww": 6543,
      "gan": 6544,
      "ruct": 6545,
      "Ġyarn": 6546,
      "Ġdou": 6547,
      "utter": 6548,
      "Ġwhoever": 6549,
      "hmallow": 6550,
      "Ġowie": 6551,
      "Ġskating": 6552,
      "dder": 6553,
      "Ġairplanes": 6554,
      "Ġbuckle": 6555,
      "Ġscratching": 6556,
      "Ġshooting": 6557,
      "Ġcheerleader": 6558,
      "Ġrelax": 6559,
      "Ġvol": 6560,
      "Ġgrade": 6561,
      "Ġgrumpy": 6562,
      "Ġhamster": 6563,
      "Ġroads": 6564,
      "ĠSharon": 6565,
      "Ġrecognized": 6566,
      "Ġequipment": 6567,
      "ĠCourtney": 6568,
      "DE": 6569,
      "Ġsha": 6570,
      "ĠDiesel": 6571,
      "ĠFebr": 6572,
      "Ġconvers": 6573,
      "Ġnappies": 6574,
      "laire": 6575,
      "ibly": 6576,
      "Ġsqueaky": 6577,
      "Ġteasing": 6578,
      "ĠElsie": 6579,
      "Ġmarshmallow": 6580,
      "ĠFebruary": 6581,
      "Krispies": 6582,
      "dokey": 6583,
      "soon": 6584,
      "Ġmumm": 6585,
      "Ġnick": 6586,
      "esh": 6587,
      "Ġmini": 6588,
      "Ġacorn": 6589,
      "ĠAbby": 6590,
      "Ġopposite": 6591,
      "Ġwhaddya": 6592,
      "Fr": 6593,
      "Man": 6594,
      "ih": 6595,
      "Ġtables": 6596,
      "Ġhid": 6597,
      "Ġshave": 6598,
      "Ġrunny": 6599,
      "nal": 6600,
      "Ġwherever": 6601,
      "Ġblink": 6602,
      "Ġswam": 6603,
      "Ġflo": 6604,
      "Ġcran": 6605,
      "Ġmilksh": 6606,
      "Ġpiglet": 6607,
      "Ġgraham": 6608,
      "Ġbowling": 6609,
      "jamin": 6610,
      "Ġlanding": 6611,
      "Ġmuddy": 6612,
      "Ġtires": 6613,
      "Ġdepend": 6614,
      "Ġperiod": 6615,
      "horse": 6616,
      "atops": 6617,
      "Ġdive": 6618,
      "Ġnaked": 6619,
      "Ġshit": 6620,
      "ila": 6621,
      "ĠSher": 6622,
      "Ġframe": 6623,
      "ĠCaterpillar": 6624,
      "aka": 6625,
      "Ġslot": 6626,
      "ĠChant": 6627,
      "Ġchecked": 6628,
      "bbling": 6629,
      "Ġzebr": 6630,
      "Ġblows": 6631,
      "Ġbrushes": 6632,
      "Ġbars": 6633,
      "Ġcarriages": 6634,
      "Ġfifth": 6635,
      "Ġrailroad": 6636,
      "Ġzebras": 6637,
      "Ġheeh": 6638,
      "orld": 6639,
      "aky": 6640,
      "ult": 6641,
      "Ġdeck": 6642,
      "Ġpulls": 6643,
      "Ġlookee": 6644,
      "Ġcarrier": 6645,
      "ĠBlues": 6646,
      "Ġpackage": 6647,
      "Ġtotally": 6648,
      "mower": 6649,
      "Ġyoyo": 6650,
      "Ġmow": 6651,
      "Ġmoneys": 6652,
      "Ġlitt": 6653,
      "Ġpans": 6654,
      "uty": 6655,
      "outs": 6656,
      "Ġreport": 6657,
      "Ġchat": 6658,
      "ĠTiny": 6659,
      "ĠSains": 6660,
      "ĠRib": 6661,
      "Ġcheers": 6662,
      "Ġhearts": 6663,
      "Ġyelling": 6664,
      "Ġhits": 6665,
      "ĠStar": 6666,
      "Ġgarlic": 6667,
      "Ġcaboose": 6668,
      "ĠRibena": 6669,
      "Rob": 6670,
      "jama": 6671,
      "off": 6672,
      "wash": 6673,
      "Ġsess": 6674,
      "Ġmaster": 6675,
      "Ġroses": 6676,
      "ĠAugust": 6677,
      "Ġsaf": 6678,
      "Ġbuggy": 6679,
      "Ġcries": 6680,
      "ĠRolly": 6681,
      "aha": 6682,
      "Ġmustache": 6683,
      "Ġunif": 6684,
      "Ġconnect": 6685,
      "Ġpoured": 6686,
      "gum": 6687,
      "Ġbw": 6688,
      "Ġmention": 6689,
      "ency": 6690,
      "Ġwanting": 6691,
      "ĠBur": 6692,
      "ornia": 6693,
      "Ġparticip": 6694,
      "Ġburst": 6695,
      "ifornia": 6696,
      "Ġdreams": 6697,
      "ĠGreat": 6698,
      "ĠBaba": 6699,
      "Ġreminds": 6700,
      "ĠPeanuts": 6701,
      "door": 6702,
      "Ġward": 6703,
      "Ġbabe": 6704,
      "ĠClaire": 6705,
      "ĠBwww": 6706,
      "ĠThanks": 6707,
      "eles": 6708,
      "Ġcheating": 6709,
      "ĠKit": 6710,
      "ĠKipper": 6711,
      "ewis": 6712,
      "Ġsunflower": 6713,
      "Ġnapkins": 6714,
      "Ġpillows": 6715,
      "Ġlambs": 6716,
      "Ġstripy": 6717,
      "Ġtorn": 6718,
      "ĠTrina": 6719,
      "Ġcustomer": 6720,
      "ĠCalifornia": 6721,
      "Ġunderwear": 6722,
      "giving": 6723,
      "cers": 6724,
      "oink": 6725,
      "Ġeel": 6726,
      "Ġgulp": 6727,
      "aya": 6728,
      "Ġdrip": 6729,
      "Ġtrap": 6730,
      "ofty": 6731,
      "obbin": 6732,
      "Ġburned": 6733,
      "Ġhallow": 6734,
      "ĠLucille": 6735,
      "Ġlifting": 6736,
      "Ġpaddling": 6737,
      "ĠXavier": 6738,
      "DEB": 6739,
      "Ġuniform": 6740,
      "mouse": 6741,
      "Ġwar": 6742,
      "Ġlead": 6743,
      "ooey": 6744,
      "arry": 6745,
      "Ġjello": 6746,
      "olas": 6747,
      "ĠCan": 6748,
      "ĠLiam": 6749,
      "ĠFrance": 6750,
      "Ġtears": 6751,
      "ĠLynette": 6752,
      "Ġbeetle": 6753,
      "Ġstocking": 6754,
      "ĠThanksgiving": 6755,
      "Ġyikes": 6756,
      "Ġyounger": 6757,
      "isher": 6758,
      "Ġrrr": 6759,
      "ening": 6760,
      "Ġbabydoll": 6761,
      "Ġbul": 6762,
      "ĠNat": 6763,
      "Ġsmily": 6764,
      "Ġtractors": 6765,
      "ĠBenjamin": 6766,
      "Ġcollecting": 6767,
      "ĠAlfie": 6768,
      "Ġlosing": 6769,
      "ĠBalloon": 6770,
      "KEV": 6771,
      "rect": 6772,
      "Ġsens": 6773,
      "Ġgah": 6774,
      "Ġlat": 6775,
      "Ġtwin": 6776,
      "ĠPen": 6777,
      "Ġarmy": 6778,
      "ELL": 6779,
      "Ġawes": 6780,
      "ccas": 6781,
      "Ġwipes": 6782,
      "Ġinvite": 6783,
      "Ġitchy": 6784,
      "Ġhalloween": 6785,
      "Ġill": 6786,
      "Ġhung": 6787,
      "Ġdude": 6788,
      "Ġgag": 6789,
      "Ġpup": 6790,
      "Ġsol": 6791,
      "ussy": 6792,
      "Ġblouse": 6793,
      "ĠPopp": 6794,
      "Ġdrums": 6795,
      "ĠHilda": 6796,
      "Ġduckies": 6797,
      "ELI": 6798,
      "Ġdaff": 6799,
      "Ġfigured": 6800,
      "ĠMacdonald": 6801,
      "Ġannoy": 6802,
      "Marie": 6803,
      "Ġleopard": 6804,
      "ĠChantilly": 6805,
      "Henry": 6806,
      "Mac": 6807,
      "cess": 6808,
      "Ġwuh": 6809,
      "Ġast": 6810,
      "imp": 6811,
      "Ġchannel": 6812,
      "Ġtexture": 6813,
      "Ġends": 6814,
      "Ġsorted": 6815,
      "ĠJoanna": 6816,
      "Ġsplish": 6817,
      "ĠToad": 6818,
      "Ġstomachache": 6819,
      "Ġbleeding": 6820,
      "Ġeyebrows": 6821,
      "Ġseparate": 6822,
      "Ġdaffod": 6823,
      "BU": 6824,
      "yay": 6825,
      "Ġholly": 6826,
      "att": 6827,
      "Ġdalmat": 6828,
      "Ġbing": 6829,
      "isco": 6830,
      "ĠHwww": 6831,
      "Ġhaircut": 6832,
      "rily": 6833,
      "Ġmusical": 6834,
      "Ġpajama": 6835,
      "Ġmarks": 6836,
      "Ġstretched": 6837,
      "ĠSpiderman": 6838,
      "ĠWellingtons": 6839,
      "Ġgranola": 6840,
      "Ġconversation": 6841,
      "Ġfloating": 6842,
      "BUD": 6843,
      "ioc": 6844,
      "jor": 6845,
      "ua": 6846,
      "rex": 6847,
      "rend": 6848,
      "Ġbay": 6849,
      "Ġmass": 6850,
      "Ġloop": 6851,
      "Ġhehe": 6852,
      "uto": 6853,
      "icorn": 6854,
      "Ġwouldja": 6855,
      "ĠFarm": 6856,
      "ĠLau": 6857,
      "ĠLofty": 6858,
      "ĠRen": 6859,
      "Ġsugg": 6860,
      "Ġbumps": 6861,
      "ĠPerri": 6862,
      "Ġscratchy": 6863,
      "Ġguns": 6864,
      "Ġhens": 6865,
      "Ġtwisted": 6866,
      "ĠEngland": 6867,
      "Ġawesome": 6868,
      "Cl": 6869,
      "Duck": 6870,
      "Ġwicked": 6871,
      "Ġdice": 6872,
      "ooty": 6873,
      "Ġinsect": 6874,
      "Ġfrustr": 6875,
      "Ġclapping": 6876,
      "ulk": 6877,
      "Ġscoot": 6878,
      "Ġpray": 6879,
      "Ġunicorn": 6880,
      "Ġposting": 6881,
      "Ġlaid": 6882,
      "brum": 6883,
      "Ġstrawberrys": 6884,
      "Ġstorm": 6885,
      "Ġtacos": 6886,
      "Ġgallop": 6887,
      "ĠPuddle": 6888,
      "fly": 6889,
      "pit": 6890,
      "Ġmah": 6891,
      "igail": 6892,
      "ades": 6893,
      "adad": 6894,
      "adill": 6895,
      "Ġknob": 6896,
      "aming": 6897,
      "ĠDumpty": 6898,
      "ĠPatch": 6899,
      "ĠGum": 6900,
      "ockey": 6901,
      "Ġchees": 6902,
      "Ġhearing": 6903,
      "Ġteaching": 6904,
      "prints": 6905,
      "Ġhorrid": 6906,
      "lia": 6907,
      "pin": 6908,
      "Ġtil": 6909,
      "Ġyuh": 6910,
      "Ġll": 6911,
      "Ġloun": 6912,
      "Ġracket": 6913,
      "Ġsoil": 6914,
      "urn": 6915,
      "Ġbob": 6916,
      "ĠSe": 6917,
      "ĠSara": 6918,
      "hmm": 6919,
      "Ġbarri": 6920,
      "Ġadvent": 6921,
      "ĠAbigail": 6922,
      "Ġbranches": 6923,
      "Ġpoppet": 6924,
      "Ġmilkshake": 6925,
      "oices": 6926,
      "Ġoval": 6927,
      "Ġcoop": 6928,
      "Ġrot": 6929,
      "Ġbrief": 6930,
      "Ġbackyard": 6931,
      "ADA": 6932,
      "ĠNwww": 6933,
      "Ġalrighty": 6934,
      "Ġmines": 6935,
      "Ġcoins": 6936,
      "Ġdresses": 6937,
      "ounce": 6938,
      "Ġconf": 6939,
      "ĠVon": 6940,
      "ĠPluto": 6941,
      "Ġtriangles": 6942,
      "Ġtapioc": 6943,
      "Ġbatterys": 6944,
      "Ġsentence": 6945,
      "ĠDorothy": 6946,
      "Ġdecorate": 6947,
      "Ġtapioca": 6948,
      "SAN": 6949,
      "Ġeen": 6950,
      "Ġwhada": 6951,
      "Ġlal": 6952,
      "ĠIan": 6953,
      "Ġpopping": 6954,
      "Ġquilt": 6955,
      "ĠChicken": 6956,
      "Ġpeppers": 6957,
      "usty": 6958,
      "Ġemerg": 6959,
      "Ġcorrect": 6960,
      "Ġsneezing": 6961,
      "Ġraspberries": 6962,
      "Ġyawning": 6963,
      "Ġdoodle": 6964,
      "Ġscrambled": 6965,
      "care": 6966,
      "dah": 6967,
      "rod": 6968,
      "wa": 6969,
      "Ġbunk": 6970,
      "Ġpave": 6971,
      "Ġfunnel": 6972,
      "Ġstem": 6973,
      "oline": 6974,
      "Ġblond": 6975,
      "Ġmanaged": 6976,
      "Ġhelper": 6977,
      "Ġmommies": 6978,
      "ĠOh": 6979,
      "Ġstraps": 6980,
      "Ġmatching": 6981,
      "Ġcollar": 6982,
      "Ġtyp": 6983,
      "Ġdisappear": 6984,
      "Ġstepping": 6985,
      "Ġpossibly": 6986,
      "DO": 6987,
      "ele": 6988,
      "Ġthump": 6989,
      "rek": 6990,
      "Ġhoop": 6991,
      "ĠMill": 6992,
      "Ġboil": 6993,
      "Ġorgan": 6994,
      "aint": 6995,
      "abee": 6996,
      "Ġcrush": 6997,
      "Ġeverytime": 6998,
      "Ġfires": 6999,
      "Ġpotatos": 7000,
      "baa": 7001,
      "iki": 7002,
      "Ġlawnmower": 7003,
      "JAN": 7004,
      "fire": 7005,
      "Ġgown": 7006,
      "oria": 7007,
      "Ġrah": 7008,
      "Ġkah": 7009,
      "ader": 7010,
      "Ġbrrm": 7011,
      "ĠSooty": 7012,
      "Ġspent": 7013,
      "ĠLor": 7014,
      "ĠLen": 7015,
      "Ġhelpful": 7016,
      "Ġfellow": 7017,
      "Ġlifted": 7018,
      "Ġrubbing": 7019,
      "Ġcaptain": 7020,
      "Ġplanet": 7021,
      "Ġsleigh": 7022,
      "Ġraspberry": 7023,
      "Ġspacesh": 7024,
      "Ġlounge": 7025,
      "nse": 7026,
      "vil": 7027,
      "Ġditch": 7028,
      "esting": 7029,
      "alley": 7030,
      "Ġdripping": 7031,
      "ipt": 7032,
      "Ġarrest": 7033,
      "GRE": 7034,
      "Ġvine": 7035,
      "Ġdrawers": 7036,
      "Ġgrace": 7037,
      "Ġgrassh": 7038,
      "Ġladys": 7039,
      "Ġreached": 7040,
      "Ġsharpen": 7041,
      "Ġsigns": 7042,
      "Ġbandage": 7043,
      "ĠSuperman": 7044,
      "ĠItal": 7045,
      "Ġantenna": 7046,
      "bit": 7047,
      "gy": 7048,
      "Ġtinker": 7049,
      "Ġhula": 7050,
      "Ġcast": 7051,
      "Ġmole": 7052,
      "kerel": 7053,
      "Ġisland": 7054,
      "arrow": 7055,
      "Ġwasp": 7056,
      "Ġnecess": 7057,
      "Ġtripped": 7058,
      "Ġslug": 7059,
      "Ġslides": 7060,
      "ĠNove": 7061,
      "ĠGoo": 7062,
      "ĠRonald": 7063,
      "Ġgreens": 7064,
      "Ġsnort": 7065,
      "Ġbowwow": 7066,
      "oohoo": 7067,
      "Ġmargar": 7068,
      "Ġburning": 7069,
      "ĠMarg": 7070,
      "ĠStephen": 7071,
      "Ġmoust": 7072,
      "ĠJustin": 7073,
      "Ġshock": 7074,
      "ophone": 7075,
      "ĠJoy": 7076,
      "Ġmug": 7077,
      "Ġwax": 7078,
      "Ġcuts": 7079,
      "Ġroared": 7080,
      "ortun": 7081,
      "Ġstrap": 7082,
      "bears": 7083,
      "Ġbumblebee": 7084,
      "Ġlogs": 7085,
      "ĠSusie": 7086,
      "Ġpeeppeep": 7087,
      "White": 7088,
      "ĠNovember": 7089,
      "Ġmargarine": 7090,
      "IA": 7091,
      "MR": 7092,
      "Ġgates": 7093,
      "ities": 7094,
      "ĠToot": 7095,
      "ĠBal": 7096,
      "ĠPin": 7097,
      "Ġoffer": 7098,
      "Ġtrade": 7099,
      "Ġhurray": 7100,
      "Ġarmadill": 7101,
      "eye": 7102,
      "Ġgerb": 7103,
      "Ġhugging": 7104,
      "Ġmoustache": 7105,
      "MRX": 7106,
      "yc": 7107,
      "Ġtug": 7108,
      "Ġsite": 7109,
      "Ġcinna": 7110,
      "Ġshore": 7111,
      "Ġforwards": 7112,
      "ulah": 7113,
      "Ġbaths": 7114,
      "Ġlemons": 7115,
      "Ġbarbe": 7116,
      "Ġseash": 7117,
      "ĠLynn": 7118,
      "Ġpossible": 7119,
      "Ġparticipant": 7120,
      "ination": 7121,
      "Ġinc": 7122,
      "ĠMuck": 7123,
      "ĠDobbin": 7124,
      "ĠCam": 7125,
      "ĠAaron": 7126,
      "Ġreads": 7127,
      "Ġsnails": 7128,
      "boys": 7129,
      "Ġcracked": 7130,
      "ĠBobo": 7131,
      "Ġuntie": 7132,
      "Ġsetting": 7133,
      "Ġhippos": 7134,
      "ĠSmartie": 7135,
      "onnaise": 7136,
      "Ġcafe": 7137,
      "ĠSimon": 7138,
      "Ġautumn": 7139,
      "ĠBethany": 7140,
      "Ġsunday": 7141,
      "Ġmemory": 7142,
      "Ġsportscaster": 7143,
      "ĠLauren": 7144,
      "las": 7145,
      "mar": 7146,
      "nas": 7147,
      "Ġhockey": 7148,
      "Ġled": 7149,
      "Ġlaw": 7150,
      "Ġpins": 7151,
      "Ġknives": 7152,
      "ĠTerry": 7153,
      "Ġcarries": 7154,
      "Ġfloppy": 7155,
      "Ġcond": 7156,
      "Ġdaet": 7157,
      "Ġjobs": 7158,
      "Ġnursing": 7159,
      "ashington": 7160,
      "ĠPlaydoh": 7161,
      "ĠBabs": 7162,
      "Ġartist": 7163,
      "NNN": 7164,
      "ĠColin": 7165,
      "Ġsuggest": 7166,
      "In": 7167,
      "father": 7168,
      "pol": 7169,
      "Ġhoops": 7170,
      "Ġdove": 7171,
      "Ġlit": 7172,
      "Ġfac": 7173,
      "Ġcane": 7174,
      "stal": 7175,
      "adi": 7176,
      "ĠPwww": 7177,
      "ĠPark": 7178,
      "ĠAis": 7179,
      "Ġmayonnaise": 7180,
      "Ġsorting": 7181,
      "Ġacting": 7182,
      "Ġpuppys": 7183,
      "ĠJoan": 7184,
      "baby": 7185,
      "anya": 7186,
      "Ġplanes": 7187,
      "ĠMonster": 7188,
      "Ġterribly": 7189,
      "Ġscrape": 7190,
      "Ġdirection": 7191,
      "JAM": 7192,
      "Ġcinnamon": 7193,
      "castle": 7194,
      "iot": 7195,
      "mers": 7196,
      "tw": 7197,
      "Ġtar": 7198,
      "Ġoper": 7199,
      "Ġcred": 7200,
      "ised": 7201,
      "Ġshine": 7202,
      "Ġkuh": 7203,
      "ico": 7204,
      "Ġnotes": 7205,
      "Ġsomeplace": 7206,
      "Ġblues": 7207,
      "Ġfriday": 7208,
      "ĠPoppy": 7209,
      "Ġprice": 7210,
      "Ġunderpants": 7211,
      "Ġapparent": 7212,
      "Ġowe": 7213,
      "Ġtickly": 7214,
      "ĠOct": 7215,
      "toe": 7216,
      "Ġphoto": 7217,
      "Ġpirates": 7218,
      "Ġhosep": 7219,
      "Ġmountains": 7220,
      "Ġperfectly": 7221,
      "ĠStephanie": 7222,
      "ĠScott": 7223,
      "Ġgroceries": 7224,
      "uce": 7225,
      "Ġded": 7226,
      "Ġpoodle": 7227,
      "Ġtons": 7228,
      "ĠJillian": 7229,
      "Ġtramp": 7230,
      "Ġbirdy": 7231,
      "Ġgrill": 7232,
      "ĠWil": 7233,
      "Ġpatio": 7234,
      "Ġsplinter": 7235,
      "Ġwinner": 7236,
      "Ġcolle": 7237,
      "Ġhamburgers": 7238,
      "Ġnoodle": 7239,
      "ĠGregory": 7240,
      "Ġpavement": 7241,
      "Ġapparently": 7242,
      "lves": 7243,
      "Ġmuh": 7244,
      "Ġfer": 7245,
      "asc": 7246,
      "Ġknown": 7247,
      "Ġchopping": 7248,
      "Ġbock": 7249,
      "ĠTanya": 7250,
      "Ġworth": 7251,
      "Ġbirth": 7252,
      "ĠHan": 7253,
      "Ġfiretruck": 7254,
      "Ġskipped": 7255,
      "Ġunf": 7256,
      "Ġsettle": 7257,
      "Ġbarrels": 7258,
      "Ġdrying": 7259,
      "Ġemergency": 7260,
      "BE": 7261,
      "Moon": 7262,
      "den": 7263,
      "Ġtack": 7264,
      "Ġbong": 7265,
      "Ġmuck": 7266,
      "Ġlower": 7267,
      "Ġnoses": 7268,
      "Ġfab": 7269,
      "ened": 7270,
      "ĠMe": 7271,
      "Ġbae": 7272,
      "Ġchart": 7273,
      "ĠPuss": 7274,
      "Ġfinds": 7275,
      "asha": 7276,
      "Ġwalkie": 7277,
      "Ġthrowed": 7278,
      "ĠMariana": 7279,
      "Ġtidied": 7280,
      "ĠJessie": 7281,
      "ĠChristine": 7282,
      "Ġporch": 7283,
      "Ġtrumpet": 7284,
      "Ġhummus": 7285,
      "ĠOctober": 7286,
      "cr": 7287,
      "Ġigl": 7288,
      "Ġhut": 7289,
      "Ġmamma": 7290,
      "ising": 7291,
      "Ġeff": 7292,
      "Ġscar": 7293,
      "Ġscribble": 7294,
      "ĠAladar": 7295,
      "Ġservice": 7296,
      "Ġspaceship": 7297,
      "Ġigloo": 7298,
      "suit": 7299,
      "ĠIm": 7300,
      "ooked": 7301,
      "Ġkleenex": 7302,
      "erence": 7303,
      "ĠLeah": 7304,
      "ĠRose": 7305,
      "Ġicecream": 7306,
      "ANG": 7307,
      "Ġalmond": 7308,
      "Ġcardboard": 7309,
      "Ġlessons": 7310,
      "Ġpassenger": 7311,
      "ĠCoca": 7312,
      "Ġpipes": 7313,
      "Ġtimer": 7314,
      "Ġproject": 7315,
      "oggins": 7316,
      "poon": 7317,
      "weed": 7318,
      "Ġwise": 7319,
      "Ġheck": 7320,
      "chio": 7321,
      "ĠToddy": 7322,
      "Ġsling": 7323,
      "Ġcolesl": 7324,
      "Ġguin": 7325,
      "Ġcowboys": 7326,
      "Ġtowers": 7327,
      "Ġteat": 7328,
      "Ġsalty": 7329,
      "Ġlorrys": 7330,
      "Ġbuildings": 7331,
      "Ġmachines": 7332,
      "JUL": 7333,
      "Ġtaco": 7334,
      "ĠMcDonalds": 7335,
      "Ġdragons": 7336,
      "Ġcartoons": 7337,
      "Ġcoleslaw": 7338,
      "com": 7339,
      "Ġntu": 7340,
      "oni": 7341,
      "tagon": 7342,
      "ĠSandra": 7343,
      "gels": 7344,
      "arten": 7345,
      "ĠHor": 7346,
      "Ġsorta": 7347,
      "Ġpushchair": 7348,
      "screw": 7349,
      "Ġsnacks": 7350,
      "Ġsoldiers": 7351,
      "ĠQueen": 7352,
      "Ġbrumbrum": 7353,
      "Ġblonde": 7354,
      "Ġguinea": 7355,
      "Ġntuu": 7356,
      "AB": 7357,
      "IM": 7358,
      "Ġsaturday": 7359,
      "inal": 7360,
      "Ġberry": 7361,
      "erver": 7362,
      "Ġripe": 7363,
      "Ġsteth": 7364,
      "Ġbaw": 7365,
      "Ġsomeday": 7366,
      "alog": 7367,
      "Ġboiled": 7368,
      "ĠJJ": 7369,
      "ĠNicky": 7370,
      "Ġpressed": 7371,
      "Ġflush": 7372,
      "issy": 7373,
      "Ġwatches": 7374,
      "Ġhurrah": 7375,
      "Ġapartment": 7376,
      "Ġladybirds": 7377,
      "Ġtights": 7378,
      "Ġneighb": 7379,
      "Ġattach": 7380,
      "ergarten": 7381,
      "Ġdepends": 7382,
      "Robin": 7383,
      "Red": 7384,
      "cri": 7385,
      "uc": 7386,
      "res": 7387,
      "Ġpon": 7388,
      "icing": 7389,
      "Ġspicy": 7390,
      "Ġhoping": 7391,
      "Ġbelow": 7392,
      "Ġbottoms": 7393,
      "Ġjellyfish": 7394,
      "Ġpointed": 7395,
      "Ġfreezing": 7396,
      "ĠSwiss": 7397,
      "Ġdoughnuts": 7398,
      "Ġmerrily": 7399,
      "PAU": 7400,
      "BAB": 7401,
      "York": 7402,
      "Ġteles": 7403,
      "omes": 7404,
      "Ġrece": 7405,
      "Ġknitting": 7406,
      "Ġchea": 7407,
      "Ġhiss": 7408,
      "ĠBirthday": 7409,
      "airy": 7410,
      "Ġpref": 7411,
      "Ġquail": 7412,
      "Ġsideways": 7413,
      "Ġgracious": 7414,
      "umbling": 7415,
      "Ġspelling": 7416,
      "Ġcocon": 7417,
      "ĠEddy": 7418,
      "Ġsailboat": 7419,
      "Ġlesson": 7420,
      "Ġmelted": 7421,
      "Ġmamm": 7422,
      "Ġpanties": 7423,
      "ĠAmerica": 7424,
      "ĠParis": 7425,
      "ĠMargaret": 7426,
      "Ġcredit": 7427,
      "Ġneighbors": 7428,
      "uction": 7429,
      "Ġdun": 7430,
      "Ġbop": 7431,
      "Ġwed": 7432,
      "stalk": 7433,
      "Ġchee": 7434,
      "ĠSister": 7435,
      "ĠFranc": 7436,
      "Ġprint": 7437,
      "ĠGran": 7438,
      "Ġletterbox": 7439,
      "Ġtelephones": 7440,
      "Ġcurls": 7441,
      "Ġstronger": 7442,
      "Ġfilling": 7443,
      "Ġindian": 7444,
      "Ġselling": 7445,
      "Ġmillion": 7446,
      "Ġnan": 7447,
      "Ġkit": 7448,
      "Ġstirr": 7449,
      "Ġchoking": 7450,
      "akota": 7451,
      "Ġusual": 7452,
      "Ġdial": 7453,
      "Ġunscrew": 7454,
      "burys": 7455,
      "burger": 7456,
      "ĠDexter": 7457,
      "iculous": 7458,
      "Ġhunt": 7459,
      "ĠPhilip": 7460,
      "ged": 7461,
      "hood": 7462,
      "Ġol": 7463,
      "Ġlantern": 7464,
      "Ġps": 7465,
      "Ġshepher": 7466,
      "Ġplayground": 7467,
      "ĠSqu": 7468,
      "ĠLion": 7469,
      "artment": 7470,
      "Ġgrain": 7471,
      "ĠJohnathan": 7472,
      "Ġcheckers": 7473,
      "ĠZita": 7474,
      "Ġxyl": 7475,
      "ĠDenise": 7476,
      "ĠDouglas": 7477,
      "Ġvehicles": 7478,
      "ĠPopeye": 7479,
      "Ġcabinet": 7480,
      "Ġxylophone": 7481,
      "Ġign": 7482,
      "Ġsear": 7483,
      "Ġnicer": 7484,
      "Ġgoof": 7485,
      "ĠDakota": 7486,
      "ĠTab": 7487,
      "Ġcarav": 7488,
      "Ġspitting": 7489,
      "angers": 7490,
      "Ġcro": 7491,
      "ontroller": 7492,
      "Ġunus": 7493,
      "ĠOat": 7494,
      "ĠObs": 7495,
      "Ġcurious": 7496,
      "Ġspilling": 7497,
      "Ġphon": 7498,
      "Ġladybugs": 7499,
      "Ġquarters": 7500,
      "Ġexercises": 7501,
      "Ġrescu": 7502,
      "Ġelectricity": 7503,
      "Ġstatue": 7504,
      "Pr": 7505,
      "Ġbent": 7506,
      "Ġlane": 7507,
      "Ġrack": 7508,
      "Ġchops": 7509,
      "ĠCur": 7510,
      "Ġmmh": 7511,
      "ocket": 7512,
      "Ġmane": 7513,
      "Ġlevel": 7514,
      "ĠRos": 7515,
      "venue": 7516,
      "Ġgramma": 7517,
      "ĠWashington": 7518,
      "ĠHolly": 7519,
      "Ġsnips": 7520,
      "aurus": 7521,
      "Ġphones": 7522,
      "Ġninight": 7523,
      "rona": 7524,
      "Ġseals": 7525,
      "Ġnewspapers": 7526,
      "Ġridiculous": 7527,
      "Ġrhino": 7528,
      "Ġwobble": 7529,
      "ĠGloria": 7530,
      "Ġspanner": 7531,
      "Ġstethoscope": 7532,
      "ĠObserver": 7533,
      "Lewis": 7534,
      "bet": 7535,
      "dong": 7536,
      "mere": 7537,
      "washer": 7538,
      "rey": 7539,
      "Ġoli": 7540,
      "Ġdya": 7541,
      "Ġbzz": 7542,
      "onk": 7543,
      "Ġsomehow": 7544,
      "ĠDarling": 7545,
      "ĠTelly": 7546,
      "ĠPiggy": 7547,
      "male": 7548,
      "Ġsweetcorn": 7549,
      "Ġsqueal": 7550,
      "Ġskates": 7551,
      "Ġpressing": 7552,
      "Ġplanted": 7553,
      "Ġbabyschool": 7554,
      "Ġobs": 7555,
      "Ġwardrobe": 7556,
      "Ġunusual": 7557,
      "Ġolives": 7558,
      "bel": 7559,
      "cad": 7560,
      "fing": 7561,
      "Ġih": 7562,
      "Ġmoth": 7563,
      "Ġpurr": 7564,
      "Ġfoo": 7565,
      "enter": 7566,
      "Ġstitch": 7567,
      "Ġstiff": 7568,
      "Ġcomed": 7569,
      "Ġtruth": 7570,
      "ĠGav": 7571,
      "Ġscales": 7572,
      "Ġwaited": 7573,
      "ĠOkay": 7574,
      "ĠRachael": 7575,
      "Ġwitches": 7576,
      "Ġmillions": 7577,
      "Ġcreatures": 7578,
      "knock": 7579,
      "Ġfingernails": 7580,
      "Ġexpress": 7581,
      "Ġdestr": 7582,
      "Ġeensie": 7583,
      "tes": 7584,
      "Ġtumble": 7585,
      "Ġpra": 7586,
      "itted": 7587,
      "ĠDog": 7588,
      "Ġboiling": 7589,
      "akie": 7590,
      "ĠNich": 7591,
      "Ġwaist": 7592,
      "ĠFran": 7593,
      "Ġshoel": 7594,
      "iley": 7595,
      "riet": 7596,
      "Ġinstruct": 7597,
      "ugged": 7598,
      "ĠGabby": 7599,
      "ĠJanet": 7600,
      "ĠLouise": 7601,
      "Ġspanking": 7602,
      "Ġflashlight": 7603,
      "Ġsniffing": 7604,
      "Ġphotographs": 7605,
      "party": 7606,
      "Ġweeds": 7607,
      "ĠTyrann": 7608,
      "Ġseason": 7609,
      "Ġnearer": 7610,
      "Ġastrona": 7611,
      "Ġtelescope": 7612,
      "Goggins": 7613,
      "Hood": 7614,
      "bed": 7615,
      "belt": 7616,
      "duh": 7617,
      "ients": 7618,
      "town": 7619,
      "xy": 7620,
      "Ġwight": 7621,
      "Ġyipp": 7622,
      "Ġram": 7623,
      "imi": 7624,
      "ĠCity": 7625,
      "Ġdrown": 7626,
      "Ġthingy": 7627,
      "Ġcombin": 7628,
      "phss": 7629,
      "ĠHong": 7630,
      "Ġsnatch": 7631,
      "Ġthrows": 7632,
      "Ġpushes": 7633,
      "Ġski": 7634,
      "Ġended": 7635,
      "Ġideas": 7636,
      "ĠGeorgia": 7637,
      "ĠNicholas": 7638,
      "Cola": 7639,
      "ique": 7640,
      "Ġigu": 7641,
      "Ġcell": 7642,
      "Ġcent": 7643,
      "ester": 7644,
      "oms": 7645,
      "Ġrag": 7646,
      "Ġstair": 7647,
      "veral": 7648,
      "Ġsailing": 7649,
      "Ġbust": 7650,
      "Ġmans": 7651,
      "Ġcatalog": 7652,
      "Ġseveral": 7653,
      "Ġpenis": 7654,
      "ippers": 7655,
      "Ġglug": 7656,
      "Ġtasted": 7657,
      "Ġwinning": 7658,
      "Ġmarkers": 7659,
      "Ġhuman": 7660,
      "Ġfemale": 7661,
      "Ġgrownups": 7662,
      "Ġpaddle": 7663,
      "ivity": 7664,
      "ĠKimber": 7665,
      "Street": 7666,
      "Ġinstruments": 7667,
      "Ġsignal": 7668,
      "Ġcaravan": 7669,
      "Cat": 7670,
      "haw": 7671,
      "Ġsesame": 7672,
      "Ġshield": 7673,
      "Ġbutcher": 7674,
      "Ġcarwash": 7675,
      "aba": 7676,
      "Ġelastic": 7677,
      "arts": 7678,
      "ĠRud": 7679,
      "phones": 7680,
      "Ġkindergarten": 7681,
      "Ġexper": 7682,
      "Ġbangs": 7683,
      "Ġresting": 7684,
      "Ġtickled": 7685,
      "Ġchickie": 7686,
      "Ġundone": 7687,
      "ĠCoco": 7688,
      "ĠMorag": 7689,
      "ĠMiriam": 7690,
      "ĠBlackpool": 7691,
      "DIA": 7692,
      "bu": 7693,
      "Ġitsy": 7694,
      "owel": 7695,
      "Ġrushing": 7696,
      "Ġblown": 7697,
      "ĠJas": 7698,
      "Ġanyways": 7699,
      "bert": 7700,
      "essa": 7701,
      "maid": 7702,
      "Ġunl": 7703,
      "Ġurgh": 7704,
      "Ġpigeons": 7705,
      "paper": 7706,
      "uf": 7707,
      "Ġvers": 7708,
      "Ġpairs": 7709,
      "Ġpips": 7710,
      "Ġpomp": 7711,
      "Ġut": 7712,
      "Ġstung": 7713,
      "itha": 7714,
      "Ġgoody": 7715,
      "ĠTall": 7716,
      "Ġofficer": 7717,
      "Ġpub": 7718,
      "ocus": 7719,
      "ĠRay": 7720,
      "Ġcolorful": 7721,
      "ahah": 7722,
      "Ġdiving": 7723,
      "Ġmightn": 7724,
      "Ġhanger": 7725,
      "Ġseaweed": 7726,
      "Ġhopefully": 7727,
      "Ġbrain": 7728,
      "Ġinvited": 7729,
      "Ġvitamins": 7730,
      "Ġheehee": 7731,
      "Ġcollege": 7732,
      "Day": 7733,
      "Ġver": 7734,
      "Ġtelet": 7735,
      "Ġtsk": 7736,
      "atty": 7737,
      "Ġcy": 7738,
      "Ġnerv": 7739,
      "Ġpac": 7740,
      "eng": 7741,
      "Ġjet": 7742,
      "iell": 7743,
      "Ġplop": 7744,
      "ĠBoots": 7745,
      "ggies": 7746,
      "Ġyelled": 7747,
      "ĠWes": 7748,
      "Ġmater": 7749,
      "Ġdribble": 7750,
      "Ġdingaling": 7751,
      "ensie": 7752,
      "Ġcockerel": 7753,
      "ĠCranky": 7754,
      "Ġcockad": 7755,
      "ergy": 7756,
      "Ġdiggers": 7757,
      "BET": 7758,
      "Ġteatime": 7759,
      "Ġnervous": 7760,
      "back": 7761,
      "dress": 7762,
      "Ġhint": 7763,
      "Ġoow": 7764,
      "ersey": 7765,
      "Ġloc": 7766,
      "Ġweensie": 7767,
      "Ġchess": 7768,
      "Ġplayroom": 7769,
      "Ġblast": 7770,
      "Ġsomers": 7771,
      "ĠLarry": 7772,
      "Ġflute": 7773,
      "Ġturkeys": 7774,
      "ogna": 7775,
      "Ġfinishing": 7776,
      "Ġpicky": 7777,
      "Ġtoybox": 7778,
      "Ġdryer": 7779,
      "ĠNaomi": 7780,
      "ĠZo": 7781,
      "Ġchanges": 7782,
      "Ġbeanbag": 7783,
      "ĠMorgie": 7784,
      "Ġduvet": 7785,
      "Ġtablets": 7786,
      "Ġcrowded": 7787,
      "Ġedges": 7788,
      "Ġsledge": 7789,
      "Ġspoil": 7790,
      "Ġdoub": 7791,
      "Ġbriefcase": 7792,
      "Ġgerbil": 7793,
      "cue": 7794,
      "drop": 7795,
      "Ġtheater": 7796,
      "Ġdjou": 7797,
      "Ġcaca": 7798,
      "Ġwhack": 7799,
      "Ġpest": 7800,
      "Ġpiles": 7801,
      "Ġshade": 7802,
      "arr": 7803,
      "imble": 7804,
      "Ġsoak": 7805,
      "Ġbobb": 7806,
      "ucks": 7807,
      "Ġoveralls": 7808,
      "ĠGu": 7809,
      "Ġwag": 7810,
      "Ġview": 7811,
      "Ġnights": 7812,
      "Ġmouthful": 7813,
      "izard": 7814,
      "uster": 7815,
      "COS": 7816,
      "Ġpolite": 7817,
      "Ġrunned": 7818,
      "Ġsmelling": 7819,
      "clop": 7820,
      "ĠVan": 7821,
      "Ġburgl": 7822,
      "Ġmarker": 7823,
      "Ġforehead": 7824,
      "Ġflags": 7825,
      "ĠAllen": 7826,
      "Ġrepair": 7827,
      "Ġabcs": 7828,
      "ĠAislin": 7829,
      "Ġunfortun": 7830,
      "Ġdestroy": 7831,
      "And": 7832,
      "SOP": 7833,
      "ued": 7834,
      "von": 7835,
      "Ġnummy": 7836,
      "ern": 7837,
      "Ġinches": 7838,
      "Ġraw": 7839,
      "Ġlily": 7840,
      "ĠMarm": 7841,
      "Ġhowever": 7842,
      "Ġdripped": 7843,
      "Ġagh": 7844,
      "Ġslap": 7845,
      "ĠHuckle": 7846,
      "ĠGrammy": 7847,
      "Ġsmallest": 7848,
      "Ġbooboo": 7849,
      "Ġsplit": 7850,
      "Ġlids": 7851,
      "Ġpinched": 7852,
      "ĠHarriet": 7853,
      "Ġphotos": 7854,
      "Ġtransm": 7855,
      "Ġvehicle": 7856,
      "Ġinstrument": 7857,
      "Ġruler": 7858,
      "ĠKimberly": 7859,
      "Ġdoubt": 7860,
      "ĠAislinn": 7861,
      "cul": 7862,
      "crack": 7863,
      "nips": 7864,
      "school": 7865,
      "wind": 7866,
      "Ġyolk": 7867,
      "ata": 7868,
      "Ġge": 7869,
      "Ġlah": 7870,
      "Ġlord": 7871,
      "idges": 7872,
      "Ġsteep": 7873,
      "ĠDick": 7874,
      "Ġcomere": 7875,
      "ĠTer": 7876,
      "ĠAme": 7877,
      "Ġahphss": 7878,
      "Ġbitsy": 7879,
      "Ġsmashing": 7880,
      "ĠWood": 7881,
      "ĠHow": 7882,
      "Ġkeeper": 7883,
      "Ġuseful": 7884,
      "Ġsnoo": 7885,
      "Ġstoryt": 7886,
      "Ġrecords": 7887,
      "Ġmailbox": 7888,
      "Ġhooked": 7889,
      "ĠDaniell": 7890,
      "Ġponytail": 7891,
      "Ġsimple": 7892,
      "Ġenvelopes": 7893,
      "Ġavoc": 7894,
      "Ġnorth": 7895,
      "Ġdaffodils": 7896,
      "Ġcheesy": 7897,
      "Ġhosepipe": 7898,
      "Ġinstructions": 7899,
      "GG": 7900,
      "guh": 7901,
      "mare": 7902,
      "Ġtesting": 7903,
      "Ġtore": 7904,
      "uroy": 7905,
      "ĠBelle": 7906,
      "ĠFrog": 7907,
      "ixie": 7908,
      "Ġcoin": 7909,
      "Ġstraighten": 7910,
      "Ġdreaming": 7911,
      "Ġsafely": 7912,
      "Ġgrapefruit": 7913,
      "Ġwoken": 7914,
      "ĠAfrica": 7915,
      "KKK": 7916,
      "Ġdomin": 7917,
      "iversity": 7918,
      "Ġvinegar": 7919,
      "ein": 7920,
      "Ġsigh": 7921,
      "Ġpouch": 7922,
      "Ġrang": 7923,
      "Ġbeating": 7924,
      "Ġlim": 7925,
      "Ġordin": 7926,
      "ĠSl": 7927,
      "Ġspee": 7928,
      "aboom": 7929,
      "Ġguest": 7930,
      "ĠHead": 7931,
      "Ġhairs": 7932,
      "Ġourselves": 7933,
      "uffs": 7934,
      "ĠKelly": 7935,
      "Ġstrings": 7936,
      "Ġteething": 7937,
      "ĠDadaji": 7938,
      "Ġrattles": 7939,
      "Ġcrunching": 7940,
      "Ġanswered": 7941,
      "Ġcontin": 7942,
      "Ġchalkboard": 7943,
      "ĠSleeping": 7944,
      "ival": 7945,
      "ĠNorth": 7946,
      "ĠClar": 7947,
      "drops": 7948,
      "Ġrules": 7949,
      "TTT": 7950,
      "Ġarmadillo": 7951,
      "Ġyippee": 7952,
      "win": 7953,
      "Ġoof": 7954,
      "Ġcentre": 7955,
      "Ġmaker": 7956,
      "vey": 7957,
      "Ġshaky": 7958,
      "Ġkaka": 7959,
      "ĠDay": 7960,
      "ĠDarren": 7961,
      "ĠCord": 7962,
      "Ġworn": 7963,
      "ĠRh": 7964,
      "Ġmeaning": 7965,
      "Ġdoorbell": 7966,
      "ĠKo": 7967,
      "Ġrooms": 7968,
      "Ġskipping": 7969,
      "ĠMargie": 7970,
      "ific": 7971,
      "ickety": 7972,
      "ĠScotland": 7973,
      "ĠGerman": 7974,
      "Ġcigarette": 7975,
      "Ġfacing": 7976,
      "Ġiguana": 7977,
      "ĠAmelia": 7978,
      "UID": 7979,
      "course": 7980,
      "ired": 7981,
      "oard": 7982,
      "Ġsy": 7983,
      "Ġdunk": 7984,
      "Ġmale": 7985,
      "Ġnn": 7986,
      "Ġdodie": 7987,
      "Ġfasc": 7988,
      "Ġrout": 7989,
      "Ġrich": 7990,
      "otty": 7991,
      "ality": 7992,
      "Ġbleep": 7993,
      "Ġsaving": 7994,
      "Ġbookcase": 7995,
      "Ġmmm": 7996,
      "ĠEva": 7997,
      "umper": 7998,
      "Ġdeh": 7999,
      "Ġnightmare": 8000,
      "Ġsquashing": 8001,
      "shire": 8002,
      "Ġmouths": 8003,
      "ĠSpan": 8004,
      "ĠShrek": 8005,
      "ĠMonsters": 8006,
      "ĠDenver": 8007,
      "Ġbologna": 8008,
      "ĠJoyce": 8009,
      "Ġponies": 8010,
      "Ġcoconut": 8011,
      "Ġshepherd": 8012,
      "Ġastronaut": 8013,
      "ĠDanielle": 8014,
      "Ġavocado": 8015,
      "Ġordinary": 8016,
      "Park": 8017,
      "tree": 8018,
      "wo": 8019,
      "Ġbey": 8020,
      "Ġstalk": 8021,
      "Ġrepe": 8022,
      "Ġjeez": 8023,
      "Ġnoteb": 8024,
      "Ġabra": 8025,
      "ĠSully": 8026,
      "ĠAsh": 8027,
      "ROY": 8028,
      "Ġenter": 8029,
      "Ġbuses": 8030,
      "Ġcozy": 8031,
      "Ġhandsome": 8032,
      "Ġbangad": 8033,
      "Ġbanjo": 8034,
      "ĠAndre": 8035,
      "Ġphew": 8036,
      "Ġfields": 8037,
      "Ġcheerio": 8038,
      "Ġstacking": 8039,
      "ĠEllen": 8040,
      "Ġvitamin": 8041,
      "Ġvolcan": 8042,
      "Ġsession": 8043,
      "ĠFarmer": 8044,
      "Ġnotebook": 8045,
      "HEI": 8046,
      "tin": 8047,
      "Ġtipping": 8048,
      "inge": 8049,
      "Ġtoss": 8050,
      "Ġweh": 8051,
      "Ġante": 8052,
      "ĠToy": 8053,
      "Ġbacks": 8054,
      "Ġaguh": 8055,
      "Ġmanners": 8056,
      "Ġarf": 8057,
      "Ġsnoring": 8058,
      "Ġsquiggly": 8059,
      "Ġeraser": 8060,
      "Ġhahaha": 8061,
      "Ġhammering": 8062,
      "Ġsplashed": 8063,
      "ĠLiza": 8064,
      "Ġlobsters": 8065,
      "Ġrule": 8066,
      "Ġcubes": 8067,
      "Ġmousie": 8068,
      "ĠLenita": 8069,
      "ĠTabitha": 8070,
      "Ġbangadrum": 8071,
      "MSS": 8072,
      "hones": 8073,
      "lor": 8074,
      "Ġgather": 8075,
      "Ġping": 8076,
      "Ġroot": 8077,
      "Ġkarate": 8078,
      "ĠMag": 8079,
      "Ġdidjou": 8080,
      "Ġspy": 8081,
      "ĠAust": 8082,
      "Ġtricer": 8083,
      "ulars": 8084,
      "Ġquill": 8085,
      "Ġtraining": 8086,
      "Ġticklish": 8087,
      "Ġsnowy": 8088,
      "Ġcardigan": 8089,
      "Ġfruits": 8090,
      "Ġsoftly": 8091,
      "Ġtaped": 8092,
      "Ġlollies": 8093,
      "Ġremote": 8094,
      "Ġtanker": 8095,
      "Ġcopying": 8096,
      "ĠBernard": 8097,
      "Ġgeneral": 8098,
      "Ġauber": 8099,
      "Ġllama": 8100,
      "Price": 8101,
      "Ġcombination": 8102,
      "Ġbeyond": 8103,
      "Bunny": 8104,
      "awn": 8105,
      "line": 8106,
      "reat": 8107,
      "Ġdub": 8108,
      "inny": 8109,
      "Ġfudge": 8110,
      "asag": 8111,
      "Ġrash": 8112,
      "ldow": 8113,
      "Ġdidldow": 8114,
      "Ġchih": 8115,
      "ĠTur": 8116,
      "inder": 8117,
      "Ġcarn": 8118,
      "Ġfris": 8119,
      "Ġnect": 8120,
      "Ġslim": 8121,
      "ĠLilly": 8122,
      "Ġwaterf": 8123,
      "ĠHat": 8124,
      "Ġpiglets": 8125,
      "whoo": 8126,
      "ddles": 8127,
      "Ġrainy": 8128,
      "Ġstraws": 8129,
      "bridge": 8130,
      "Ġheav": 8131,
      "Ġsprinkle": 8132,
      "Ġpoopie": 8133,
      "Ġgasped": 8134,
      "Ġchinese": 8135,
      "Ġbasically": 8136,
      "Ġcharacter": 8137,
      "Ġmarshmallows": 8138,
      "ĠSainsburys": 8139,
      "Ġstirring": 8140,
      "ĠGavin": 8141,
      "Ġunfortunately": 8142,
      "Ġtriceratops": 8143,
      "Ġnectar": 8144,
      "Controller": 8145,
      "HAN": 8146,
      "cow": 8147,
      "oad": 8148,
      "ooby": 8149,
      "east": 8150,
      "Ġkay": 8151,
      "erek": 8152,
      "Ġwanta": 8153,
      "aun": 8154,
      "ĠDerek": 8155,
      "Ġtweez": 8156,
      "ĠTam": 8157,
      "ĠPenny": 8158,
      "ĠAri": 8159,
      "Ġslam": 8160,
      "Ġslices": 8161,
      "gged": 8162,
      "elicopter": 8163,
      "Ġflu": 8164,
      "oodled": 8165,
      "oculars": 8166,
      "Ġlotta": 8167,
      "Ġrains": 8168,
      "Ġdriven": 8169,
      "Ġdragonfly": 8170,
      "ĠScar": 8171,
      "Ġmagnetic": 8172,
      "LIA": 8173,
      "ĠIndians": 8174,
      "eslie": 8175,
      "Ġmodel": 8176,
      "Ġslingsh": 8177,
      "Ann": 8178,
      "too": 8179,
      "Ġhickory": 8180,
      "Ġcau": 8181,
      "naway": 8182,
      "ĠMo": 8183,
      "Ġcarton": 8184,
      "ĠLeslie": 8185,
      "Ġcrooked": 8186,
      "Ġhandy": 8187,
      "Ġlightning": 8188,
      "Ġasks": 8189,
      "Ġdrivers": 8190,
      "Ġseahorse": 8191,
      "Ġmicrophones": 8192,
      "Ġdumptruck": 8193,
      "Ġsqueaks": 8194,
      "Ġaeroplanes": 8195,
      "Ġpacking": 8196,
      "bottle": 8197,
      "Ġalligators": 8198,
      "Ġmitten": 8199,
      "Ġpuffed": 8200,
      "Ġpresident": 8201,
      "Ġcuddly": 8202,
      "Ġsprinkler": 8203,
      "Ġmaterial": 8204,
      "ĠCorduroy": 8205,
      "Awww": 8206,
      "THA": 8207,
      "tor": 8208,
      "Ġtha": 8209,
      "Ġpooh": 8210,
      "ari": 8211,
      "Ġevent": 8212,
      "Ġtravel": 8213,
      "Ġhairy": 8214,
      "Ġsnowball": 8215,
      "Ġfasten": 8216,
      "Ġfarmy": 8217,
      "ĠStan": 8218,
      "Ġlollipops": 8219,
      "Ġnibble": 8220,
      "Ġbaloney": 8221,
      "Ġruin": 8222,
      "ĠEnglish": 8223,
      "Ġlatte": 8224,
      "Ġbarbecue": 8225,
      "ĠTallulah": 8226,
      "buh": 8227,
      "cases": 8228,
      "gown": 8229,
      "ural": 8230,
      "Ġbitten": 8231,
      "Ġcenter": 8232,
      "chan": 8233,
      "Ġsteg": 8234,
      "Ġfort": 8235,
      "Ġwellies": 8236,
      "Ġbecame": 8237,
      "ĠTar": 8238,
      "Ġaboard": 8239,
      "olph": 8240,
      "Ġtrape": 8241,
      "ĠChin": 8242,
      "ĠRod": 8243,
      "Ġenergy": 8244,
      "Ġmince": 8245,
      "shop": 8246,
      "ELA": 8247,
      "Ġyoga": 8248,
      "ĠChrista": 8249,
      "Ġgrownup": 8250,
      "Ġattic": 8251,
      "Ġhunting": 8252,
      "Ġparticularly": 8253,
      "ĠPeggy": 8254,
      "Ġcranberry": 8255,
      "Ġprefers": 8256,
      "Ġtweezers": 8257,
      "bal": 8258,
      "gin": 8259,
      "ikey": 8260,
      "Ġsouth": 8261,
      "Ġmiles": 8262,
      "Ġnugg": 8263,
      "Ġpau": 8264,
      "Ġing": 8265,
      "Ġali": 8266,
      "ĠJones": 8267,
      "abra": 8268,
      "ĠThere": 8269,
      "ĠNate": 8270,
      "ĠLady": 8271,
      "Ġtoward": 8272,
      "ĠOwww": 8273,
      "Ġdaddies": 8274,
      "Ġpeeking": 8275,
      "ubbie": 8276,
      "Ġconstr": 8277,
      "ĠStella": 8278,
      "Ġslipping": 8279,
      "Ġdumped": 8280,
      "uzzy": 8281,
      "Ġcombing": 8282,
      "Ġparrots": 8283,
      "ĠSwiper": 8284,
      "ĠBooboo": 8285,
      "Ġwrest": 8286,
      "Ġdecorations": 8287,
      "ĠRonnie": 8288,
      "ĠKenn": 8289,
      "Ġskateboard": 8290,
      "Ġpleasant": 8291,
      "Ġescap": 8292,
      "Ġjewel": 8293,
      "ĠJoshua": 8294,
      "Ġgrasshopper": 8295,
      "Ġteletubbies": 8296,
      "Ġbangadrumtime": 8297,
      "Ġfarmyard": 8298,
      "Rod": 8299,
      "goo": 8300,
      "num": 8301,
      "ĠMamma": 8302,
      "Ġchute": 8303,
      "Ġchores": 8304,
      "Ġfried": 8305,
      "ĠJem": 8306,
      "eadow": 8307,
      "Ġscreen": 8308,
      "ashion": 8309,
      "Ġtablecloth": 8310,
      "Ġmothers": 8311,
      "Ġbinoculars": 8312,
      "Ġpaste": 8313,
      "Ġmadam": 8314,
      "Ġracecar": 8315,
      "Ġstriped": 8316,
      "ĠBabar": 8317,
      "Ġrunaway": 8318,
      "Ġmermaid": 8319,
      "ĠRenee": 8320,
      "Ġsnipsnips": 8321,
      "ĠMarmite": 8322,
      "Pot": 8323,
      "noo": 8324,
      "uation": 8325,
      "Ġwad": 8326,
      "oul": 8327,
      "Ġicky": 8328,
      "Ġsight": 8329,
      "Ġpun": 8330,
      "Ġfences": 8331,
      "orice": 8332,
      "arily": 8333,
      "Ġreck": 8334,
      "Ġshelves": 8335,
      "Ġchilly": 8336,
      "Ġoutdoor": 8337,
      "Ġhero": 8338,
      "Ġtrot": 8339,
      "Ġagg": 8340,
      "Ġbumpity": 8341,
      "Ġwallet": 8342,
      "ĠPoohbear": 8343,
      "CAM": 8344,
      "Ġsports": 8345,
      "Ġteaspoon": 8346,
      "ĠBeehive": 8347,
      "Ġprickly": 8348,
      "bob": 8349,
      "dered": 8350,
      "ki": 8351,
      "nor": 8352,
      "Ġtush": 8353,
      "Ġhopped": 8354,
      "Ġcine": 8355,
      "Ġcmere": 8356,
      "Ġnen": 8357,
      "nah": 8358,
      "Ġchili": 8359,
      "ĠSk": 8360,
      "ĠCoke": 8361,
      "Ġflaps": 8362,
      "ĠEarth": 8363,
      "gery": 8364,
      "Ġstripe": 8365,
      "Ġquicker": 8366,
      "Ġloaf": 8367,
      "Ġpooey": 8368,
      "Ġreaching": 8369,
      "ĠMaria": 8370,
      "Ġfairly": 8371,
      "ĠStef": 8372,
      "ĠBenny": 8373,
      "Ġstorys": 8374,
      "Ġbrakes": 8375,
      "Ġmending": 8376,
      "Ġsquished": 8377,
      "Ġduke": 8378,
      "ĠFreddy": 8379,
      "ĠLynne": 8380,
      "Ġconcert": 8381,
      "Ġspanish": 8382,
      "Ġchosen": 8383,
      "Ġrefle": 8384,
      "Ġliquid": 8385,
      "Ġbulb": 8386,
      "Clues": 8387,
      "Ġtrampoline": 8388,
      "ĠVanessa": 8389,
      "Ġfascin": 8390,
      "Ġfrisbee": 8391,
      "Ġstegosaurus": 8392,
      "ĠChinese": 8393,
      "Ġcinema": 8394,
      "done": 8395,
      "sa": 8396,
      "Ġent": 8397,
      "Ġsets": 8398,
      "Ġdet": 8399,
      "Ġmonday": 8400,
      "Ġudder": 8401,
      "nake": 8402,
      "adie": 8403,
      "Ġsheets": 8404,
      "Ġbroked": 8405,
      "ĠAnt": 8406,
      "Ġslugs": 8407,
      "ĠLi": 8408,
      "Ġcomm": 8409,
      "Ġmint": 8410,
      "Ġmornings": 8411,
      "Ġwheelie": 8412,
      "Ġsaucers": 8413,
      "Ġcatches": 8414,
      "Ġsheeps": 8415,
      "Ġdriveway": 8416,
      "ĠShe": 8417,
      "Ġtighten": 8418,
      "Ġsmiley": 8419,
      "Ġsucking": 8420,
      "Ġsweatshirt": 8421,
      "Ġdirections": 8422,
      "Ġankle": 8423,
      "Ġfrustrated": 8424,
      "Book": 8425,
      "ha": 8426,
      "ros": 8427,
      "Ġdamp": 8428,
      "Ġdock": 8429,
      "Ġfir": 8430,
      "Ġfuck": 8431,
      "Ġfunn": 8432,
      "Ġrewind": 8433,
      "ĠCle": 8434,
      "ababy": 8435,
      "Ġclop": 8436,
      "Ġclunk": 8437,
      "Ġhears": 8438,
      "Ġappre": 8439,
      "ĠOre": 8440,
      "Ġwarmer": 8441,
      "Ġmiser": 8442,
      "ĠJenell": 8443,
      "uggl": 8444,
      "Ġsprouts": 8445,
      "Ġpassing": 8446,
      "Ġfreight": 8447,
      "ĠGabe": 8448,
      "Ġsmoothie": 8449,
      "Ġexpecting": 8450,
      "Ġdistur": 8451,
      "Ġreturn": 8452,
      "Ġcharacters": 8453,
      "ycling": 8454,
      "AM": 8455,
      "ca": 8456,
      "net": 8457,
      "Ġsill": 8458,
      "athing": 8459,
      "Ġlasag": 8460,
      "Ġfiddle": 8461,
      "chu": 8462,
      "ĠCra": 8463,
      "uey": 8464,
      "ĠLassie": 8465,
      "Ġcomma": 8466,
      "Ġflakes": 8467,
      "isey": 8468,
      "Ġrolly": 8469,
      "Ġbeeb": 8470,
      "Ġmarry": 8471,
      "Ġchewed": 8472,
      "Ġspotted": 8473,
      "Ġgumdrops": 8474,
      "Ġbabysitter": 8475,
      "Ġpointy": 8476,
      "Ġcomplain": 8477,
      "ĠAllison": 8478,
      "ĠFrostie": 8479,
      "Ġmosquito": 8480,
      "Ġinsects": 8481,
      "ĠHorton": 8482,
      "Ġtransmitter": 8483,
      "dock": 8484,
      "use": 8485,
      "udd": 8486,
      "ware": 8487,
      "Ġiced": 8488,
      "Ġgoal": 8489,
      "Ġnom": 8490,
      "Ġka": 8491,
      "aup": 8492,
      "ittles": 8493,
      "osed": 8494,
      "Ġslight": 8495,
      "zzle": 8496,
      "Ġsnapped": 8497,
      "Ġbumping": 8498,
      "Ġdadada": 8499,
      "ountain": 8500,
      "Ġbuckets": 8501,
      "ifier": 8502,
      "Ġpills": 8503,
      "ĠAlan": 8504,
      "Ġkangaroos": 8505,
      "Ġhills": 8506,
      "Ġflatten": 8507,
      "Ġgentleman": 8508,
      "Ġtripod": 8509,
      "Ġimpressed": 8510,
      "Ġpegs": 8511,
      "ĠNeil": 8512,
      "Ġdandelion": 8513,
      "Ġbarrier": 8514,
      "Ġledge": 8515,
      "ĠWilbur": 8516,
      "Ġappreci": 8517,
      "rie": 8518,
      "Ġdoin": 8519,
      "nam": 8520,
      "ĠMoo": 8521,
      "ĠMaine": 8522,
      "Ġrevers": 8523,
      "Ġalt": 8524,
      "Ġswap": 8525,
      "Ġpuddles": 8526,
      "Ġpriv": 8527,
      "ogether": 8528,
      "ĠHaw": 8529,
      "Ġtomatos": 8530,
      "Ġtender": 8531,
      "Ġteddys": 8532,
      "Ġcounted": 8533,
      "Ġpox": 8534,
      "ĠShadow": 8535,
      "Ġseatbelt": 8536,
      "Ġfreeze": 8537,
      "Ġfolding": 8538,
      "Ġbeanstalk": 8539,
      "Ġwrecked": 8540,
      "Ġdepartment": 8541,
      "Ġsneezed": 8542,
      "ĠGerald": 8543,
      "Ġbolts": 8544,
      "Ġashes": 8545,
      "ĠGrampa": 8546,
      "Ġpsst": 8547,
      "Ġaubergine": 8548,
      "KRI": 8549,
      "du": 8550,
      "not": 8551,
      "Ġthursday": 8552,
      "Ġoccas": 8553,
      "Ġdying": 8554,
      "Ġnarrow": 8555,
      "erve": 8556,
      "orth": 8557,
      "asaurus": 8558,
      "alo": 8559,
      "ells": 8560,
      "Ġbrm": 8561,
      "ĠCor": 8562,
      "Ġclues": 8563,
      "ĠFox": 8564,
      "TER": 8565,
      "ĠRex": 8566,
      "Ġsmoking": 8567,
      "Ġvoices": 8568,
      "Ġexh": 8569,
      "Ġdrawed": 8570,
      "ungle": 8571,
      "Ġfootprints": 8572,
      "Ġspotty": 8573,
      "Ġpetals": 8574,
      "Ġsuitcases": 8575,
      "Ġrats": 8576,
      "Ġcheerios": 8577,
      "Ġbalanc": 8578,
      "Ġunhappy": 8579,
      "Ġleaning": 8580,
      "Ġgerms": 8581,
      "Ġdamn": 8582,
      "Ġgiggles": 8583,
      "Ġadventure": 8584,
      "Ġspeech": 8585,
      "Ġvolcano": 8586,
      "Ġreckon": 8587,
      "Ġmiserable": 8588,
      "Tim": 8589,
      "uw": 8590,
      "Ġome": 8591,
      "Ġnip": 8592,
      "isandy": 8593,
      "Ġshook": 8594,
      "Ġshorter": 8595,
      "stein": 8596,
      "Ġallow": 8597,
      "byes": 8598,
      "ĠTot": 8599,
      "ĠCyr": 8600,
      "ĠPower": 8601,
      "ĠJere": 8602,
      "Ġbreast": 8603,
      "Ġscale": 8604,
      "Ġchef": 8605,
      "Ġmatt": 8606,
      "ĠMaisey": 8607,
      "apped": 8608,
      "Ġmedium": 8609,
      "leton": 8610,
      "ĠSmith": 8611,
      "Ġwiggily": 8612,
      "ilson": 8613,
      "ĠMcdonald": 8614,
      "Ġmixture": 8615,
      "Ġsafety": 8616,
      "Ġseashore": 8617,
      "ĠSpanish": 8618,
      "amy": 8619,
      "moo": 8620,
      "Ġbins": 8621,
      "Ġmate": 8622,
      "Ġnere": 8623,
      "Ġgoin": 8624,
      "eady": 8625,
      "Ġforce": 8626,
      "Ġbok": 8627,
      "ĠApple": 8628,
      "Ġtrave": 8629,
      "Ġhappily": 8630,
      "osy": 8631,
      "ĠChuck": 8632,
      "Ġhatch": 8633,
      "ordan": 8634,
      "acty": 8635,
      "Ġunz": 8636,
      "Ġstores": 8637,
      "visible": 8638,
      "Ġribbons": 8639,
      "Ġmushy": 8640,
      "ĠKaty": 8641,
      "ĠDiane": 8642,
      "Ġdalmatian": 8643,
      "Ġcooper": 8644,
      "Mc": 8645,
      "bing": 8646,
      "talk": 8647,
      "Ġwig": 8648,
      "Ġdy": 8649,
      "Ġgap": 8650,
      "Ġlic": 8651,
      "Ġlicked": 8652,
      "Ġkaboom": 8653,
      "vert": 8654,
      "Ġchuck": 8655,
      "illou": 8656,
      "Ġspoke": 8657,
      "ĠPas": 8658,
      "Ġclam": 8659,
      "ĠGopher": 8660,
      "eetah": 8661,
      "ĠFrances": 8662,
      "Ġchem": 8663,
      "aga": 8664,
      "ĠKitty": 8665,
      "Ġguessing": 8666,
      "Ġbumper": 8667,
      "ĠVict": 8668,
      "Ġpropeller": 8669,
      "Ġcovering": 8670,
      "Ġphss": 8671,
      "ĠCrash": 8672,
      "Ġstamping": 8673,
      "Ġtypes": 8674,
      "Ġvideos": 8675,
      "Ġdreamed": 8676,
      "Ġsixth": 8677,
      "Ġimagination": 8678,
      "Ġswitched": 8679,
      "ĠItaly": 8680,
      "Ġpickyaup": 8681,
      "King": 8682,
      "Ther": 8683,
      "peep": 8684,
      "Ġbod": 8685,
      "Ġdod": 8686,
      "Ġpuh": 8687,
      "Ġinvisible": 8688,
      "arian": 8689,
      "ĠMass": 8690,
      "Ġplaydough": 8691,
      "ickie": 8692,
      "Ġblame": 8693,
      "Ġbloody": 8694,
      "ĠEvan": 8695,
      "Ġintrod": 8696,
      "Ġwrigg": 8697,
      "Ġdaytime": 8698,
      "ĠWay": 8699,
      "ĠHulk": 8700,
      "Ġschools": 8701,
      "ĠKirst": 8702,
      "Ġwashcloth": 8703,
      "uga": 8704,
      "Ġbeast": 8705,
      "Ġrecorded": 8706,
      "asket": 8707,
      "ika": 8708,
      "Ġcollected": 8709,
      "Ġpeeling": 8710,
      "Ġscreamed": 8711,
      "ĠCaillou": 8712,
      "Ġgenerally": 8713,
      "Ġescape": 8714,
      "ointment": 8715,
      "ĠMacDonalds": 8716,
      "ĠGumdrop": 8717,
      "Ġmmhhmm": 8718,
      "Ġwaterfall": 8719,
      "ĠCyril": 8720,
      "Wo": 8721,
      "hole": 8722,
      "vie": 8723,
      "Ġtan": 8724,
      "Ġske": 8725,
      "Ġcass": 8726,
      "Ġheel": 8727,
      "Ġinject": 8728,
      "lebr": 8729,
      "adger": 8730,
      "othing": 8731,
      "Ġchopped": 8732,
      "Ġbridges": 8733,
      "Ġorig": 8734,
      "ĠSouth": 8735,
      "ĠSadie": 8736,
      "ivered": 8737,
      "Ġbuys": 8738,
      "Ġmuah": 8739,
      "ossed": 8740,
      "ĠChatty": 8741,
      "ĠGriz": 8742,
      "Ġaction": 8743,
      "Ġfeets": 8744,
      "Ġclimbs": 8745,
      "Ġengineer": 8746,
      "Ġpostc": 8747,
      "Ġpatter": 8748,
      "Ġwoolly": 8749,
      "Ġraise": 8750,
      "Ġfolded": 8751,
      "idedown": 8752,
      "Ġmeals": 8753,
      "Ġexplore": 8754,
      "Ġcelebr": 8755,
      "Ġluckily": 8756,
      "Ġpedal": 8757,
      "ĠCanada": 8758,
      "DOU": 8759,
      "Ġcheap": 8760,
      "Ġaltogether": 8761,
      "Ġmattress": 8762,
      "Br": 8763,
      "kat": 8764,
      "pat": 8765,
      "Ġdoc": 8766,
      "Ġling": 8767,
      "Ġkings": 8768,
      "ĠMimi": 8769,
      "Ġstri": 8770,
      "ĠTay": 8771,
      "Ġalike": 8772,
      "Ġtrim": 8773,
      "ĠLand": 8774,
      "becca": 8775,
      "Ġhandbag": 8776,
      "Ġkee": 8777,
      "Ġdei": 8778,
      "Ġyai": 8779,
      "Ġlighter": 8780,
      "Ġnurses": 8781,
      "toes": 8782,
      "Ġburgers": 8783,
      "Ġupsidedown": 8784,
      "Ġresp": 8785,
      "Ġshrimp": 8786,
      "ĠRebecca": 8787,
      "Ġtutu": 8788,
      "Ġshaving": 8789,
      "Ġsensible": 8790,
      "AMY": 8791,
      "Ġreversing": 8792,
      "AL": 8793,
      "avers": 8794,
      "kie": 8795,
      "view": 8796,
      "we": 8797,
      "Ġsile": 8798,
      "Ġcases": 8799,
      "Ġrumm": 8800,
      "Ġjoy": 8801,
      "Ġsoaking": 8802,
      "ĠTick": 8803,
      "Ġwhyn": 8804,
      "ĠPan": 8805,
      "ĠAid": 8806,
      "Ġreds": 8807,
      "ĠRog": 8808,
      "Ġdaycare": 8809,
      "Ġvoom": 8810,
      "avy": 8811,
      "Ġharbor": 8812,
      "Ġparach": 8813,
      "Ġknocks": 8814,
      "Ġsplat": 8815,
      "Ġsodas": 8816,
      "Ġtransp": 8817,
      "Ġdamage": 8818,
      "ĠTimothy": 8819,
      "Ġunderwater": 8820,
      "Ġbomb": 8821,
      "ĠJoanne": 8822,
      "ĠTellyt": 8823,
      "Ġanteater": 8824,
      "Ġconstruction": 8825,
      "Bl": 8826,
      "Riding": 8827,
      "cro": 8828,
      "Ġtou": 8829,
      "Ġada": 8830,
      "Ġmie": 8831,
      "Ġwhew": 8832,
      "Ġnoone": 8833,
      "ayla": 8834,
      "asy": 8835,
      "iddles": 8836,
      "cho": 8837,
      "Ġmechan": 8838,
      "umes": 8839,
      "icated": 8840,
      "Ġjell": 8841,
      "Ġplugged": 8842,
      "rag": 8843,
      "ellow": 8844,
      "ĠDel": 8845,
      "olice": 8846,
      "abl": 8847,
      "ankie": 8848,
      "Ġneedles": 8849,
      "Ġagree": 8850,
      "obble": 8851,
      "Ġwont": 8852,
      "Ġdevel": 8853,
      "Ġdollys": 8854,
      "Ġeyel": 8855,
      "Ġlighthouse": 8856,
      "Ġgrandfather": 8857,
      "ĠZach": 8858,
      "Ġpersonality": 8859,
      "Ġwooly": 8860,
      "ĠMarc": 8861,
      "Ġcompost": 8862,
      "ymb": 8863,
      "Ġobject": 8864,
      "Ġmagazines": 8865,
      "Ġbonfire": 8866,
      "Ġghosts": 8867,
      "Ġpalace": 8868,
      "Ġrotten": 8869,
      "ĠBaloo": 8870,
      "tweet": 8871,
      "Night": 8872,
      "long": 8873,
      "Ġts": 8874,
      "rees": 8875,
      "Ġmeadow": 8876,
      "Ġruh": 8877,
      "Ġrosie": 8878,
      "ooky": 8879,
      "Ġdonkeys": 8880,
      "ĠMiles": 8881,
      "odod": 8882,
      "Ġchu": 8883,
      "illas": 8884,
      "uncan": 8885,
      "oln": 8886,
      "ĠFre": 8887,
      "eener": 8888,
      "ĠRocky": 8889,
      "Ġscene": 8890,
      "ĠWilly": 8891,
      "Ġticktock": 8892,
      "izzly": 8893,
      "Ġpolicemen": 8894,
      "Ġpaintbrush": 8895,
      "ĠVir": 8896,
      "guard": 8897,
      "Ġbounces": 8898,
      "Ġsnaps": 8899,
      "Ġterm": 8900,
      "Ġtyre": 8901,
      "Ġshoots": 8902,
      "ĠWhere": 8903,
      "Ġseventh": 8904,
      "ĠGreen": 8905,
      "Ġhydr": 8906,
      "Ġweights": 8907,
      "ĠSimple": 8908,
      "inkerbell": 8909,
      "ĠMillisandy": 8910,
      "Ġnecessarily": 8911,
      "ĠPinoc": 8912,
      "ĠTyrannosaurus": 8913,
      "Ġsomersault": 8914,
      "Ġmieow": 8915,
      "Pocket": 8916,
      "birds": 8917,
      "gor": 8918,
      "kong": 8919,
      "Ġbitty": 8920,
      "Ġfussy": 8921,
      "nack": 8922,
      "Ġjars": 8923,
      "Ġbrrr": 8924,
      "usse": 8925,
      "ĠColl": 8926,
      "ĠCric": 8927,
      "ĠCandy": 8928,
      "ounder": 8929,
      "ĠJungle": 8930,
      "Ġclips": 8931,
      "eps": 8932,
      "ulous": 8933,
      "Ġcranky": 8934,
      "Ġturntable": 8935,
      "Ġvi": 8936,
      "ĠKer": 8937,
      "ship": 8938,
      "Ġraincoat": 8939,
      "Ġpizzas": 8940,
      "Ġconst": 8941,
      "ĠUs": 8942,
      "Ġbouncie": 8943,
      "Ġdumping": 8944,
      "Ġpetal": 8945,
      "Ġjammies": 8946,
      "cadabra": 8947,
      "Ġjewelry": 8948,
      "ĠPinocchio": 8949,
      "BOB": 8950,
      "Rex": 8951,
      "bone": 8952,
      "dub": 8953,
      "hoo": 8954,
      "Ġtah": 8955,
      "Ġtoen": 8956,
      "ĠMex": 8957,
      "Ġcheetah": 8958,
      "ĠDean": 8959,
      "using": 8960,
      "Ġbloom": 8961,
      "ĠGus": 8962,
      "ĠGlen": 8963,
      "Ġcommer": 8964,
      "Ġbreathing": 8965,
      "Ġwrink": 8966,
      "Ġgrate": 8967,
      "rika": 8968,
      "Ġsandpit": 8969,
      "Ġfarmers": 8970,
      "Ġdresser": 8971,
      "Ġposter": 8972,
      "ĠMarty": 8973,
      "Ġpassion": 8974,
      "ĠGrace": 8975,
      "ĠMarks": 8976,
      "ĠPinga": 8977,
      "Ġloader": 8978,
      "incoln": 8979,
      "Ġcostumes": 8980,
      "Ġshots": 8981,
      "ĠConnor": 8982,
      "Ġdistract": 8983,
      "Ġinteract": 8984,
      "Ġbossy": 8985,
      "Ġsqueezing": 8986,
      "ĠDuke": 8987,
      "Ġmelting": 8988,
      "Ġcockadoodled": 8989,
      "Ġtoenail": 8990,
      "WO": 8991,
      "iy": 8992,
      "jack": 8993,
      "okes": 8994,
      "Ġthimble": 8995,
      "Ġhuff": 8996,
      "Ġsch": 8997,
      "Ġsus": 8998,
      "itive": 8999,
      "stem": 9000,
      "ading": 9001,
      "Ġjohn": 9002,
      "Ġpla": 9003,
      "ellers": 9004,
      "ĠTadi": 9005,
      "SIL": 9006,
      "ĠPizz": 9007,
      "ĠJup": 9008,
      "abix": 9009,
      "ĠLord": 9010,
      "Ġshown": 9011,
      "Ġwalker": 9012,
      "ubbard": 9013,
      "Ġvisited": 9014,
      "Ġbabysit": 9015,
      "Ġfrying": 9016,
      "Ġfabulous": 9017,
      "fingers": 9018,
      "Ġcarnival": 9019,
      "Ġoccasion": 9020,
      "Ġdevelop": 9021,
      "ĠCricter": 9022,
      "ĠJupiter": 9023,
      "Centre": 9024,
      "gue": 9025,
      "wen": 9026,
      "Ġwound": 9027,
      "Ġyee": 9028,
      "Ġbink": 9029,
      "Ġcubby": 9030,
      "Ġwhady": 9031,
      "Ġlaces": 9032,
      "Ġhav": 9033,
      "Ġships": 9034,
      "Ġray": 9035,
      "Ġmember": 9036,
      "Ġbald": 9037,
      "Ġwithin": 9038,
      "Ġchunk": 9039,
      "ĠCount": 9040,
      "ĠBoy": 9041,
      "Ġanyhow": 9042,
      "ĠRory": 9043,
      "Ġsmacked": 9044,
      "agu": 9045,
      "ĠWeener": 9046,
      "Ġamong": 9047,
      "Ġsawing": 9048,
      "Ġwinding": 9049,
      "Ġpeekababy": 9050,
      "Ġdarker": 9051,
      "Ġclocks": 9052,
      "Ġfootballs": 9053,
      "Ġcurl": 9054,
      "icycles": 9055,
      "Ġwhistles": 9056,
      "Ġcollection": 9057,
      "Ġtubby": 9058,
      "chocs": 9059,
      "ĠCalpol": 9060,
      "Ġopposites": 9061,
      "Ġnuis": 9062,
      "Ġlittler": 9063,
      "Ġstitches": 9064,
      "Bill": 9065,
      "KIM": 9066,
      "field": 9067,
      "gli": 9068,
      "Ġtep": 9069,
      "Ġbilly": 9070,
      "Ġcape": 9071,
      "Ġmucky": 9072,
      "Ġlugg": 9073,
      "Ġleader": 9074,
      "igade": 9075,
      "Ġrar": 9076,
      "Ġdont": 9077,
      "irly": 9078,
      "Ġjudge": 9079,
      "Ġchief": 9080,
      "ĠDig": 9081,
      "olog": 9082,
      "Ġblick": 9083,
      "ults": 9084,
      "ĠRock": 9085,
      "Ġscan": 9086,
      "Ġscore": 9087,
      "Ġsnotty": 9088,
      "Ġspoonful": 9089,
      "Ġrecycling": 9090,
      "Ġhammers": 9091,
      "Ġexcused": 9092,
      "Ġdelivered": 9093,
      "Ġcuz": 9094,
      "Ġninth": 9095,
      "Ġcollap": 9096,
      "Ġcompared": 9097,
      "Ġnae": 9098,
      "Ġsmiled": 9099,
      "Ġsells": 9100,
      "Ġrails": 9101,
      "puzzles": 9102,
      "ĠGoldie": 9103,
      "Ġspraying": 9104,
      "Ġneighborhood": 9105,
      "ĠAmerican": 9106,
      "Ġmentioned": 9107,
      "ĠMeike": 9108,
      "Ġrescued": 9109,
      "Ġoutdoors": 9110,
      "ĠPascal": 9111,
      "Ġnuisance": 9112,
      "Linda": 9113,
      "Rabbit": 9114,
      "STE": 9115,
      "Wow": 9116,
      "hee": 9117,
      "rk": 9118,
      "Ġwod": 9119,
      "Ġwarn": 9120,
      "atory": 9121,
      "Ġcork": 9122,
      "Ġfog": 9123,
      "Ġfountain": 9124,
      "seat": 9125,
      "Ġincl": 9126,
      "Ġker": 9127,
      "sticks": 9128,
      "Ġknight": 9129,
      "urf": 9130,
      "Ġgoods": 9131,
      "ĠTan": 9132,
      "ĠTank": 9133,
      "Ġgrouch": 9134,
      "Ġeggy": 9135,
      "ĠKleenex": 9136,
      "Ġuncom": 9137,
      "Ġbaskets": 9138,
      "Ġpatting": 9139,
      "ĠVas": 9140,
      "Ġsuits": 9141,
      "Ġeventually": 9142,
      "FR": 9143,
      "Pig": 9144,
      "don": 9145,
      "Ġyouse": 9146,
      "Ġdiesel": 9147,
      "Ġmower": 9148,
      "Ġwhining": 9149,
      "ĠIris": 9150,
      "ooo": 9151,
      "nap": 9152,
      "ĠMow": 9153,
      "amingo": 9154,
      "ĠTor": 9155,
      "ĠSta": 9156,
      "ĠPee": 9157,
      "Ġmaked": 9158,
      "Ġswamp": 9159,
      "Ġalrightie": 9160,
      "Ġappointment": 9161,
      "Ġbadger": 9162,
      "Ġbeauty": 9163,
      "unde": 9164,
      "ĠAlec": 9165,
      "Ġpooping": 9166,
      "Ġclearly": 9167,
      "Ġhallway": 9168,
      "Ġhealth": 9169,
      "abouts": 9170,
      "Ġpleasure": 9171,
      "ĠPotter": 9172,
      "Ġpacifier": 9173,
      "dresser": 9174,
      "Ġsystem": 9175,
      "ĠJeremy": 9176,
      "Baby": 9177,
      "Farm": 9178,
      "hill": 9179,
      "lee": 9180,
      "winky": 9181,
      "zed": 9182,
      "Ġbashed": 9183,
      "Ġcw": 9184,
      "Ġwhom": 9185,
      "Ġnips": 9186,
      "Ġloops": 9187,
      "ĠMerc": 9188,
      "ĠMikey": 9189,
      "Ġmyster": 9190,
      "Ġallerg": 9191,
      "Ġchrist": 9192,
      "ury": 9193,
      "urts": 9194,
      "ĠCupid": 9195,
      "ĠBrend": 9196,
      "ĠParent": 9197,
      "ĠGree": 9198,
      "Ġargh": 9199,
      "Ġtrained": 9200,
      "Ġscience": 9201,
      "Ġcheat": 9202,
      "ager": 9203,
      "Ġcooks": 9204,
      "Ġsnout": 9205,
      "izing": 9206,
      "Ġcracking": 9207,
      "Ġstepmother": 9208,
      "Ġburied": 9209,
      "ĠMichigan": 9210,
      "ĠMichele": 9211,
      "Ġmeatballs": 9212,
      "Ġlearnt": 9213,
      "Ġstorage": 9214,
      "Ġadult": 9215,
      "Ġsqueaking": 9216,
      "Ġbuzzing": 9217,
      "Ġbands": 9218,
      "Ġsending": 9219,
      "Ġbudgie": 9220,
      "Ġsucker": 9221,
      "Ġrascal": 9222,
      "iddly": 9223,
      "Ġsubmar": 9224,
      "Ġsparkly": 9225,
      "Ġrelative": 9226,
      "Ġsurfing": 9227,
      "Ġsprinkles": 9228,
      "Ġcreepy": 9229,
      "Ġvelcro": 9230,
      "Ġappreciate": 9231,
      "Ġomelet": 9232,
      "ĠMowgli": 9233,
      "Gre": 9234,
      "hop": 9235,
      "ville": 9236,
      "Ġtal": 9237,
      "Ġdang": 9238,
      "iner": 9239,
      "Ġgit": 9240,
      "Ġdozen": 9241,
      "Ġgoog": 9242,
      "Ġstab": 9243,
      "Ġwhereabouts": 9244,
      "odger": 9245,
      "ility": 9246,
      "Ġblub": 9247,
      "ĠSug": 9248,
      "geant": 9249,
      "ĠNell": 9250,
      "ĠRap": 9251,
      "Ġsurely": 9252,
      "Ġlongest": 9253,
      "ummies": 9254,
      "uba": 9255,
      "Ġrecipe": 9256,
      "play": 9257,
      "Ġdais": 9258,
      "Ġstaring": 9259,
      "Ġwallpaper": 9260,
      "Ġspeci": 9261,
      "Ġwoofwoof": 9262,
      "ehe": 9263,
      "ĠShaun": 9264,
      "Ġterms": 9265,
      "roach": 9266,
      "Ġattract": 9267,
      "Ġcougar": 9268,
      "Ġgrabbing": 9269,
      "Ġfooling": 9270,
      "Ġjuggle": 9271,
      "Ġconcentrating": 9272,
      "Ġincred": 9273,
      "Ġtransporter": 9274,
      "DEN": 9275,
      "rat": 9276,
      "Ġavenue": 9277,
      "Ġtherm": 9278,
      "Ġsieve": 9279,
      "Ġdea": 9280,
      "Ġdances": 9281,
      "Ġges": 9282,
      "Ġgop": 9283,
      "Ġfear": 9284,
      "Ġfisher": 9285,
      "itation": 9286,
      "Ġsher": 9287,
      "Ġshakes": 9288,
      "Ġev": 9289,
      "rap": 9290,
      "oulder": 9291,
      "tery": 9292,
      "alt": 9293,
      "rystal": 9294,
      "ĠTunde": 9295,
      "Ġbleach": 9296,
      "Ġdrool": 9297,
      "ggle": 9298,
      "Ġsituation": 9299,
      "umps": 9300,
      "oci": 9301,
[...]
