{
  "version": "1.0",
  "truncation": null,
  "padding": null,
  "added_tokens": [
    {
      "id": 0,
      "content": "<s>",
      "single_word": false,
      "lstrip": false,
      "rstrip": false,
      "normalized": false,
      "special": true
    },
    {
      "id": 1,
      "content": "<pad>",
      "single_word": false,
      "lstrip": false,
      "rstrip": false,
      "normalized": false,
      "special": true
    },
    {
      "id": 2,
      "content": "</s>",
      "single_word": false,
      "lstrip": false,
      "rstrip": false,
      "normalized": false,
      "special": true
    },
    {
      "id": 3,
      "content": "<unk>",
      "single_word": false,
      "lstrip": false,
      "rstrip": false,
      "normalized": false,
      "special": true
    },
    {
      "id": 4,
      "content": "<|endoftext|>",
      "single_word": false,
      "lstrip": false,
      "rstrip": false,
      "normalized": false,
      "special": true
    },
    {
      "id": 5,
      "content": "<mask>",
      "single_word": false,
      "lstrip": true,
      "rstrip": false,
      "normalized": false,
      "special": true
    }
  ],
  "normalizer": null,
  "pre_tokenizer": {
    "type": "ByteLevel",
    "add_prefix_space": false,
    "trim_offsets": true,
    "use_regex": true
  },
  "post_processor": {
    "type": "RobertaProcessing",
    "sep": [
      "</s>",
      2
    ],
    "cls": [
      "<s>",
      0
    ],
    "trim_offsets": true,
    "add_prefix_space": false
  },
  "decoder": {
    "type": "ByteLevel",
    "add_prefix_space": true,
    "trim_offsets": true,
    "use_regex": true
  },
  "model": {
    "type": "BPE",
    "dropout": null,
    "unk_token": null,
    "continuing_subword_prefix": "",
    "end_of_word_suffix": "",
    "fuse_unk": false,
    "byte_fallback": false,
    "vocab": {
      "<s>": 0,
      "<pad>": 1,
      "</s>": 2,
      "<unk>": 3,
      "<|endoftext|>": 4,
      "<mask>": 5,
      "!": 6,
      "\"": 7,
      "#": 8,
      "$": 9,
      "%": 10,
      "&": 11,
      "'": 12,
      "(": 13,
      ")": 14,
      "*": 15,
      "+": 16,
      ",": 17,
      "-": 18,
      ".": 19,
      "/": 20,
      "0": 21,
      "1": 22,
      "2": 23,
      "3": 24,
      "4": 25,
      "5": 26,
      "6": 27,
      "7": 28,
      "8": 29,
      "9": 30,
      ":": 31,
      ";": 32,
      "<": 33,
      "=": 34,
      ">": 35,
      "?": 36,
      "@": 37,
      "A": 38,
      "B": 39,
      "C": 40,
      "D": 41,
      "E": 42,
      "F": 43,
      "G": 44,
      "H": 45,
      "I": 46,
      "J": 47,
      "K": 48,
      "L": 49,
      "M": 50,
      "N": 51,
      "O": 52,
      "P": 53,
      "Q": 54,
      "R": 55,
      "S": 56,
      "T": 57,
      "U": 58,
      "V": 59,
      "W": 60,
      "X": 61,
      "Y": 62,
      "Z": 63,
      "[": 64,
      "\\": 65,
      "]": 66,
      "^": 67,
      "_": 68,
      "`": 69,
      "a": 70,
      "b": 71,
      "c": 72,
      "d": 73,
      "e": 74,
      "f": 75,
      "g": 76,
      "h": 77,
      "i": 78,
      "j": 79,
      "k": 80,
      "l": 81,
      "m": 82,
      "n": 83,
      "o": 84,
      "p": 85,
      "q": 86,
      "r": 87,
      "s": 88,
      "t": 89,
      "u": 90,
      "v": 91,
      "w": 92,
      "x": 93,
      "y": 94,
      "z": 95,
      "{": 96,
      "|": 97,
      "}": 98,
      "~": 99,
      "¡": 100,
      "¢": 101,
      "£": 102,
      "¤": 103,
      "¥": 104,
      "¦": 105,
      "§": 106,
      "¨": 107,
      "©": 108,
      "ª": 109,
      "«": 110,
      "¬": 111,
      "®": 112,
      "¯": 113,
      "°": 114,
      "±": 115,
      "²": 116,
      "³": 117,
      "´": 118,
      "µ": 119,
      "¶": 120,
      "·": 121,
      "¸": 122,
      "¹": 123,
      "º": 124,
      "»": 125,
      "¼": 126,
      "½": 127,
      "¾": 128,
      "¿": 129,
      "À": 130,
      "Á": 131,
      "Â": 132,
      "Ã": 133,
      "Ä": 134,
      "Å": 135,
      "Æ": 136,
      "Ç": 137,
      "È": 138,
      "É": 139,
      "Ê": 140,
      "Ë": 141,
      "Ì": 142,
      "Í": 143,
      "Î": 144,
      "Ï": 145,
      "Ð": 146,
      "Ñ": 147,
      "Ò": 148,
      "Ó": 149,
      "Ô": 150,
      "Õ": 151,
      "Ö": 152,
      "×": 153,
      "Ø": 154,
      "Ù": 155,
      "Ú": 156,
      "Û": 157,
      "Ü": 158,
      "Ý": 159,
      "Þ": 160,
      "ß": 161,
      "à": 162,
      "á": 163,
      "â": 164,
      "ã": 165,
      "ä": 166,
      "å": 167,
      "æ": 168,
      "ç": 169,
      "è": 170,
      "é": 171,
      "ê": 172,
      "ë": 173,
      "ì": 174,
      "í": 175,
      "î": 176,
      "ï": 177,
      "ð": 178,
      "ñ": 179,
      "ò": 180,
      "ó": 181,
      "ô": 182,
      "õ": 183,
      "ö": 184,
      "÷": 185,
      "ø": 186,
      "ù": 187,
      "ú": 188,
      "û": 189,
      "ü": 190,
      "ý": 191,
      "þ": 192,
      "ÿ": 193,
      "Ā": 194,
      "ā": 195,
      "Ă": 196,
      "ă": 197,
      "Ą": 198,
      "ą": 199,
      "Ć": 200,
      "ć": 201,
      "Ĉ": 202,
      "ĉ": 203,
      "Ċ": 204,
      "ċ": 205,
      "Č": 206,
      "č": 207,
      "Ď": 208,
      "ď": 209,
      "Đ": 210,
      "đ": 211,
      "Ē": 212,
      "ē": 213,
      "Ĕ": 214,
      "ĕ": 215,
      "Ė": 216,
      "ė": 217,
      "Ę": 218,
      "ę": 219,
      "Ě": 220,
      "ě": 221,
      "Ĝ": 222,
      "ĝ": 223,
      "Ğ": 224,
      "ğ": 225,
      "Ġ": 226,
      "ġ": 227,
      "Ģ": 228,
      "ģ": 229,
      "Ĥ": 230,
      "ĥ": 231,
      "Ħ": 232,
      "ħ": 233,
      "Ĩ": 234,
      "ĩ": 235,
      "Ī": 236,
      "ī": 237,
      "Ĭ": 238,
      "ĭ": 239,
      "Į": 240,
      "į": 241,
      "İ": 242,
      "ı": 243,
      "Ĳ": 244,
      "ĳ": 245,
      "Ĵ": 246,
      "ĵ": 247,
      "Ķ": 248,
      "ķ": 249,
      "ĸ": 250,
      "Ĺ": 251,
      "ĺ": 252,
      "Ļ": 253,
      "ļ": 254,
      "Ľ": 255,
      "ľ": 256,
      "Ŀ": 257,
      "ŀ": 258,
      "Ł": 259,
      "ł": 260,
      "Ń": 261,
      "Ġt": 262,
      "he": 263,
      "Ġa": 264,
      "in": 265,
      "Ġthe": 266,
      "re": 267,
      "Ġw": 268,
      "ou": 269,
      "Ġs": 270,
      "on": 271,
      "er": 272,
      "at": 273,
      "nd": 274,
      "is": 275,
      "it": 276,
      "Ġb": 277,
      "Ġo": 278,
      "Ġc": 279,
      "Ġm": 280,
      "an": 281,
      "Ġf": 282,
      "ing": 283,
      "or": 284,
      "Ġh": 285,
      "ed": 286,
      "en": 287,
      "ll": 288,
      "Ġd": 289,
      "Ġto": 290,
      "es": 291,
      "Ġth": 292,
      "ar": 293,
      "Ġp": 294,
      "Ġy": 295,
      "Ġof": 296,
      "as": 297,
      "Ġin": 298,
      "Ġand": 299,
      "Ġyou": 300,
      "Ġl": 301,
      "Ġg": 302,
      "om": 303,
      "ĠĊ": 304,
      "Ġn": 305,
      "ĠI": 306,
      "ic": 307,
      "al": 308,
      "ow": 309,
      "ve": 310,
      "le": 311,
      "ot": 312,
      "Ġhe": 313,
      "et": 314,
      "'s": 315,
      "us": 316,
      "ay": 317,
      "Ġit": 318,
      "Ġis": 319,
      "Ġbe": 320,
      "Ġthat": 321,
      "Ġon": 322,
      "ion": 323,
      "id": 324,
      "ad": 325,
      "Ġe": 326,
      "Ġwas": 327,
      "gh": 328,
      "ent": 329,
      "ld": 330,
      "ut": 331,
      "im": 332,
      "Ġre": 333,
      "am": 334,
      "ac": 335,
      "Ġwe": 336,
      "ver": 337,
      "ĠS": 338,
      "The": 339,
      "Ġwh": 340,
      "Ġfor": 341,
      "..": 342,
      "ri": 343,
      "ro": 344,
      "ly": 345,
      "st": 346,
      "ir": 347,
      "se": 348,
      "ĠA": 349,
      "Ġ.": 350,
      "ke": 351,
      "oo": 352,
      "Ġst": 353,
      "ĠC": 354,
      "Ġha": 355,
      "ght": 356,
      "'t": 357,
      "out": 358,
      "ith": 359,
      "ĠM": 360,
      "all": 361,
      "Ġme": 362,
      "Ġk": 363,
      "Ġu": 364,
      "Ġan": 365,
      "Ġwith": 366,
      "ch": 367,
      "ur": 368,
      "Ġas": 369,
      "ct": 370,
      "ĠH": 371,
      "her": 372,
      "ill": 373,
      "Ġdo": 374,
      "ce": 375,
      "Ġ1": 376,
      "ter": 377,
      "ĠB": 378,
      "if": 379,
      "Ġse": 380,
      "ome": 381,
      "hat": 382,
      "Ġat": 383,
      "il": 384,
      "and": 385,
      "Ġnot": 386,
      "Ġhave": 387,
      "Ġthis": 388,
      "ust": 389,
      "Ġare": 390,
      "ĠT": 391,
      "ĠP": 392,
      "ant": 393,
      "ould": 394,
      "Ġgo": 395,
      "You": 396,
      "ation": 397,
      "Ġkn": 398,
      "ea": 399,
      "ain": 400,
      "op": 401,
      "Ġli": 402,
      "ĠW": 403,
      "un": 404,
      "Ġ2": 405,
      "ol": 406,
      "Ġhis": 407,
      "Ġ\"": 408,
      "th": 409,
      "ge": 410,
      "ĠD": 411,
      "rom": 412,
      "Ġ,": 413,
      "Ġsh": 414,
      "ul": 415,
      "...": 416,
      "Ġknow": 417,
      "Ġj": 418,
      "ell": 419,
      "ore": 420,
      "our": 421,
      "Ġne": 422,
      "ĠG": 423,
      "Ġr": 424,
      "Ġde": 425,
      "pp": 426,
      "um": 427,
      "ist": 428,
      "ĠĠ": 429,
      "Ġcan": 430,
      "ĠL": 431,
      "ĠR": 432,
      "ie": 433,
      "Ġthey": 434,
      "Ġyour": 435,
      "ĠF": 436,
      "Ġso": 437,
      "art": 438,
      "Ġmy": 439,
      "ĠN": 440,
      "Ġ?": 441,
      "est": 442,
      "Ġall": 443,
      "Ġby": 444,
      "ĠThe": 445,
      "ab": 446,
      "Ġfrom": 447,
      "el": 448,
      "Ġal": 449,
      "Ġab": 450,
      "ers": 451,
      "ess": 452,
      "nt": 453,
      "Ġwhat": 454,
      "ĠJ": 455,
      "os": 456,
      "ig": 457,
      "em": 458,
      "Ġone": 459,
      "Ġwhe": 460,
      "red": 461,
      "ard": 462,
      "'re": 463,
      "ight": 464,
      "Ġher": 465,
      "Ġup": 466,
      "one": 467,
      "âĢ": 468,
      "Ġthere": 469,
      "Ġ(": 470,
      "ack": 471,
      "Ġhim": 472,
      "Ġcon": 473,
      "Ġch": 474,
      "ry": 475,
      "Ġhad": 476,
      "ate": 477,
      "Ġcom": 478,
      "qu": 479,
      "ally": 480,
      "Ġ20": 481,
      "Ġsu": 482,
      "res": 483,
      "ap": 484,
      "Ġor": 485,
      "Ġout": 486,
      "Ġ19": 487,
      "Ġbut": 488,
      "ook": 489,
      "ood": 490,
      "ive": 491,
      "very": 492,
      "ake": 493,
      "'m": 494,
      "Ġwor": 495,
      "ame": 496,
      "ck": 497,
      "Ġpl": 498,
      "Ġshe": 499,
      "ĠO": 500,
      "Ġlike": 501,
      "ĠE": 502,
      "ong": 503,
      "ast": 504,
      "od": 505,
      "Ġsa": 506,
      "Ġpro": 507,
      "It": 508,
      "Ġus": 509,
      "ber": 510,
      "ink": 511,
      "Ġget": 512,
      "ort": 513,
      "Ġwere": 514,
      "Ġabout": 515,
      "ind": 516,
      "Ġv": 517,
      "ich": 518,
      "ound": 519,
      "Ġex": 520,
      "ity": 521,
      "ra": 522,
      "And": 523,
      "Ġdon": 524,
      "Ġjust": 525,
      "right": 526,
      "He": 527,
      "ear": 528,
      "ak": 529,
      "eah": 530,
      "ep": 531,
      "Ġwho": 532,
      "Ġsp": 533,
      "ies": 534,
      "Ġno": 535,
      "Ġhere": 536,
      "ĠK": 537,
      "Ġthem": 538,
      "ime": 539,
      "ĠHe": 540,
      "Ġdid": 541,
      "ud": 542,
      "Ġwant": 543,
      "ine": 544,
      "'ll": 545,
      "ag": 546,
      "ect": 547,
      "Ġman": 548,
      "Ġwill": 549,
      "ven": 550,
      "own": 551,
      "Ġint": 552,
      "Ġif": 553,
      "ment": 554,
      "What": 555,
      "Ġwould": 556,
      "ice": 557,
      "itt": 558,
      "Ġthink": 559,
      "hing": 560,
      "ous": 561,
      "Ġsome": 562,
      "ost": 563,
      "Ġgot": 564,
      "Ġright": 565,
      "Ġsee": 566,
      "ide": 567,
      "ian": 568,
      "Ġany": 569,
      "Ġhas": 570,
      "ĠU": 571,
      "ough": 572,
      "ia": 573,
      "are": 574,
      "Ġtr": 575,
      "ther": 576,
      "Ġag": 577,
      "ure": 578,
      "Ġwhich": 579,
      "use": 580,
      "Ġwhen": 581,
      "ip": 582,
      "We": 583,
      "Ġsay": 584,
      "ĠIt": 585,
      "ove": 586,
      "Ġar": 587,
      "Ġtw": 588,
      "Ġsaid": 589,
      "end": 590,
      "iv": 591,
      "Ġ'": 592,
      "'ve": 593,
      "way": 594,
      "Ġtime": 595,
      "Ġbeen": 596,
      "ace": 597,
      "ff": 598,
      "Ġpe": 599,
      "ick": 600,
      "Th": 601,
      "na": 602,
      "ary": 603,
      "so": 604,
      "ish": 605,
      "Ġbec": 606,
      "Ġcl": 607,
      "Ġnow": 608,
      "ose": 609,
      "Ġle": 610,
      "ount": 611,
      "Yeah": 612,
      "reat": 613,
      "ree": 614,
      "orn": 615,
      "ĠSt": 616,
      "ople": 617,
      "ond": 618,
      "Ġ201": 619,
      "other": 620,
      "Ġlook": 621,
      "So": 622,
      "Ġtheir": 623,
      "Ġmore": 624,
      "Ġoff": 625,
      "age": 626,
      "ci": 627,
      "ang": 628,
      "Ġback": 629,
      "Ġgoing": 630,
      "Ġcould": 631,
      "ause": 632,
      "Ġthen": 633,
      "No": 634,
      "ue": 635,
      "irst": 636,
      "ew": 637,
      "ank": 638,
      "But": 639,
      "ĠCh": 640,
      "Ġro": 641,
      "ite": 642,
      "Ġother": 643,
      "Ġover": 644,
      "Ġqu": 645,
      "ire": 646,
      "Ġgr": 647,
      "Ġpeople": 648,
      "That": 649,
      "ass": 650,
      "ov": 651,
      "Ġbr": 652,
      "ble": 653,
      "Ġtwo": 654,
      "amp": 655,
      "here": 656,
      "fter": 657,
      "act": 658,
      "ase": 659,
      "Ġwork": 660,
      "sel": 661,
      "ord": 662,
      "mer": 663,
      "Ġtoo": 664,
      "Ġvery": 665,
      "Oh": 666,
      "ings": 667,
      "og": 668,
      "ated": 669,
      "Ġinto": 670,
      "Ġgood": 671,
      "pt": 672,
      "erm": 673,
      "ans": 674,
      "ub": 675,
      "Ġcomp": 676,
      "Ġfirst": 677,
      "00": 678,
      "Ġdown": 679,
      "hed": 680,
      "ittle": 681,
      "oll": 682,
      "ance": 683,
      "we": 684,
      "per": 685,
      "Ġpr": 686,
      "oy": 687,
      "ions": 688,
      "alk": 689,
      "Ġen": 690,
      "omet": 691,
      "kay": 692,
      "ĠĠĠĠ": 693,
      "ade": 694,
      "ĠV": 695,
      "--": 696,
      "Ġhow": 697,
      "Ġpart": 698,
      "ere": 699,
      "Ġam": 700,
      "Ġun": 701,
      "Ġour": 702,
      "Ġ=": 703,
      "Ġway": 704,
      "hy": 705,
      "ĠIn": 706,
      "Ġyear": 707,
      "ach": 708,
      "iz": 709,
      "ought": 710,
      "Ġagain": 711,
      "Ġalso": 712,
      "Ġlittle": 713,
      "cc": 714,
      "Ġcome": 715,
      "av": 716,
      "ife": 717,
      "ĠY": 718,
      "ater": 719,
      "oh": 720,
      "Ġbl": 721,
      "ild": 722,
      "wn": 723,
      "ne": 724,
      "ru": 725,
      "Ġwhere": 726,
      "urn": 727,
      "Ġonly": 728,
      "nder": 729,
      "oc": 730,
      "Ġevery": 731,
      "Ġim": 732,
      "Ġcall": 733,
      "Ġact": 734,
      "Ġte": 735,
      "Ġplay": 736,
      "Ġad": 737,
      "Well": 738,
      ".\"": 739,
      "Ġday": 740,
      "Ġneed": 741,
      "ark": 742,
      "uck": 743,
      "iss": 744,
      "Ġbet": 745,
      "ied": 746,
      "ress": 747,
      "pl": 748,
      "the": 749,
      "self": 750,
      "cl": 751,
      "ty": 752,
      "fore": 753,
      "In": 754,
      "Ġsomet": 755,
      "Ġtake": 756,
      "uch": 757,
      "ence": 758,
      "ec": 759,
      "Ġafter": 760,
      "ĠâĢ": 761,
      "ict": 762,
      "Ġfe": 763,
      "Ġwell": 764,
      "ile": 765,
      "ign": 766,
      "Ġgu": 767,
      "au": 768,
      "ens": 769,
      "Ġsc": 770,
      "ng": 771,
      "Ġmake": 772,
      "able": 773,
      "int": 774,
      "ory": 775,
      "Ġcont": 776,
      "les": 777,
      "thing": 778,
      "Ġlet": 779,
      "Ġreally": 780,
      "Ġthr": 781,
      "Ġpre": 782,
      "Ġshould": 783,
      "Ġthan": 784,
      "Ġapp": 785,
      "Ġwr": 786,
      "ical": 787,
      "ob": 788,
      "old": 789,
      "ull": 790,
      "ĠUn": 791,
      "onna": 792,
      "ather": 793,
      "Ġbecause": 794,
      "Ġhapp": 795,
      "Ġdis": 796,
      "ft": 797,
      "This": 798,
      "sh": 799,
      "orm": 800,
      "ult": 801,
      "Ġunder": 802,
      "Ġtell": 803,
      "Ġser": 804,
      "Ġpo": 805,
      "hen": 806,
      "They": 807,
      "Ġthese": 808,
      "Ġput": 809,
      "ates": 810,
      "Ġ!": 811,
      "Ġmuch": 812,
      "Ġres": 813,
      "ved": 814,
      "Ġgonna": 815,
      "ath": 816,
      "be": 817,
      "Ġsomething": 818,
      "Ġper": 819,
      "Ġfl": 820,
      "ody": 821,
      "ool": 822,
      "'d": 823,
      "Ġmean": 824,
      "ĠTh": 825,
      "Ġdoes": 826,
      "ons": 827,
      "Ġnew": 828,
      "Ġlong": 829,
      "ah": 830,
      "Ġmade": 831,
      "Ġbefore": 832,
      "du": 833,
      "ock": 834,
      "you": 835,
      "land": 836,
      "Yes": 837,
      "te": 838,
      "Ġcar": 839,
      "ited": 840,
      "aw": 841,
      "ave": 842,
      "Ġtalk": 843,
      "ail": 844,
      "iff": 845,
      "Ġer": 846,
      "Ġmay": 847,
      "Ġeven": 848,
      "ving": 849,
      "She": 850,
      "vers": 851,
      "âĢĿ": 852,
      "air": 853,
      "ward": 854,
      "Ġnever": 855,
      "ince": 856,
      "Ġ3": 857,
      "port": 858,
      "ady": 859,
      "ise": 860,
      "Ġits": 861,
      "ee": 862,
      "Ġdidn": 863,
      "Ġsec": 864,
      "ried": 865,
      "ouse": 866,
      "Ġrec": 867,
      "ren": 868,
      "There": 869,
      "ition": 870,
      "Ġcomm": 871,
      "ily": 872,
      "ting": 873,
      "ix": 874,
      "Ġbu": 875,
      "Ġke": 876,
      "Ġthrough": 877,
      "ious": 878,
      "ho": 879,
      "ial": 880,
      "If": 881,
      "Ġrem": 882,
      "Ġ200": 883,
      "ually": 884,
      "ican": 885,
      "Ġhand": 886,
      "lp": 887,
      "Ġgreat": 888,
      "ors": 889,
      "anc": 890,
      "Ġyears": 891,
      "Ġcr": 892,
      "pe": 893,
      "Ġthree": 894,
      "get": 895,
      "ations": 896,
      "Ġthing": 897,
      "igh": 898,
      "vel": 899,
      "Ġold": 900,
      "ĠYou": 901,
      "Ġstart": 902,
      "Ġsm": 903,
      "Ġwent": 904,
      "ident": 905,
      "day": 906,
      "ful": 907,
      "Ġfind": 908,
      "Ġask": 909,
      "How": 910,
      "Ġlife": 911,
      "Ġaway": 912,
      "ction": 913,
      "up": 914,
      "Ġcount": 915,
      "Ġmov": 916,
      "ĠShe": 917,
      "Ġmust": 918,
      "Ġcame": 919,
      "Ġmost": 920,
      "Ġfound": 921,
      "Ġlove": 922,
      "Ġstill": 923,
      "Ġthought": 924,
      "ug": 925,
      "ational": 926,
      "tain": 927,
      "Ġlast": 928,
      "mber": 929,
      "Ġbel": 930,
      "Ġhelp": 931,
      "ves": 932,
      "Ġthose": 933,
      "ever": 934,
      "Ġdes": 935,
      "Ġhome": 936,
      "Ġdiff": 937,
      "Ġco": 938,
      "Ġmany": 939,
      "what": 940,
      "irl": 941,
      "oss": 942,
      "oth": 943,
      "Ġdoing": 944,
      "riend": 945,
      "li": 946,
      "\".": 947,
      "Ġgive": 948,
      "Ġpol": 949,
      "Ġthings": 950,
      "Ġlea": 951,
      "ĠAmer": 952,
      "Ġown": 953,
      "ont": 954,
      "Ġshow": 955,
      "xt": 956,
      "ened": 957,
      "man": 958,
      "my": 959,
      "Ġwon": 960,
      "hes": 961,
      "gan": 962,
      "ĠMar": 963,
      "lease": 964,
      "Ġcour": 965,
      "Ġend": 966,
      "Ġatt": 967,
      "imes": 968,
      "oney": 969,
      "Ġmin": 970,
      "Ġi": 971,
      "br": 972,
      "tern": 973,
      "gin": 974,
      "atch": 975,
      "ange": 976,
      "Ġear": 977,
      "Ġbeing": 978,
      "ny": 979,
      "Now": 980,
      "Ġname": 981,
      "ning": 982,
      "IN": 983,
      "ait": 984,
      "oot": 985,
      "Ġsame": 986,
      "HE": 987,
      "body": 988,
      "ents": 989,
      "Do": 990,
      "any": 991,
      "Ġwom": 992,
      "Ġ18": 993,
      "Ġhead": 994,
      "io": 995,
      "ember": 996,
      "ĠBr": 997,
      "Ġused": 998,
      "ased": 999,
      "Ġchild": 1000,
      "aking": 1001,
      "Ġnight": 1002,
      "als": 1003,
      "oup": 1004,
      "ubl": 1005,
      "Ġcare": 1006,
      "Ġtry": 1007,
      "\",": 1008,
      "ways": 1009,
      "ced": 1010,
      "uh": 1011,
      "Ġplace": 1012,
      "Ġworld": 1013,
      "Ġsupp": 1014,
      "ĠAnd": 1015,
      "Why": 1016,
      "Ġkind": 1017,
      "Ġsuch": 1018,
      "Ġbig": 1019,
      "Ġfeel": 1020,
      "Ġwhy": 1021,
      "Ġlot": 1022,
      "ĠAr": 1023,
      "Ġnum": 1024,
      "gr": 1025,
      "Ġcalled": 1026,
      "Ġ199": 1027,
      "Let": 1028,
      "side": 1029,
      "chool": 1030,
      "Ġfam": 1031,
      "outh": 1032,
      "OU": 1033,
      "form": 1034,
      "Ġop": 1035,
      "uring": 1036,
      "orry": 1037,
      "Ġfin": 1038,
      "Ġkill": 1039,
      ").": 1040,
      "Ġ4": 1041,
      "Ġmar": 1042,
      ",\"": 1043,
      "erson": 1044,
      "ute": 1045,
      "ork": 1046,
      "und": 1047,
      "ower": 1048,
      "Don": 1049,
      "Ġele": 1050,
      "az": 1051,
      "Ġacc": 1052,
      "Ġanother": 1053,
      "Ġfriend": 1054,
      "Ġknown": 1055,
      "that": 1056,
      "),": 1057,
      "ating": 1058,
      "Ġpres": 1059,
      "ĠNew": 1060,
      "ib": 1061,
      "Ġsl": 1062,
      "Ġaround": 1063,
      "Ġturn": 1064,
      "ph": 1065,
      "Ġmight": 1066,
      "Ġgirl": 1067,
      "Ġset": 1068,
      "ird": 1069,
      "Ġreg": 1070,
      "Ġind": 1071,
      "Ġfour": 1072,
      "St": 1073,
      "Come": 1074,
      "Ġdist": 1075,
      "ener": 1076,
      "ĠFr": 1077,
      "aught": 1078,
      "ĠUnited": 1079,
      "pect": 1080,
      "Ġdiffere": 1081,
      "Ġleft": 1082,
      "ss": 1083,
      "Ġuse": 1084,
      "ween": 1085,
      "20": 1086,
      "ek": 1087,
      "gg": 1088,
      "Ġstr": 1089,
      "vent": 1090,
      "clud": 1091,
      "Ġsecond": 1092,
      "cial": 1093,
      "Ġmon": 1094,
      "ts": 1095,
      "Ġ5": 1096,
      "All": 1097,
      "Ġdone": 1098,
      "Ġche": 1099,
      "Ġbit": 1100,
      "âĢĻ": 1101,
      "ys": 1102,
      "Ġanything": 1103,
      "Ġsure": 1104,
      "Ġbetter": 1105,
      "My": 1106,
      "ished": 1107,
      "Ġhouse": 1108,
      "Ġalways": 1109,
      "ĠDe": 1110,
      "ĠAl": 1111,
      "ered": 1112,
      "Ġsur": 1113,
      "Ġboy": 1114,
      "ics": 1115,
      "Ġrun": 1116,
      "ER": 1117,
      "ible": 1118,
      "ĠâĢľ": 1119,
      "Ġac": 1120,
      "but": 1121,
      "Ġrel": 1122,
      "Ġdied": 1123,
      "Ġtold": 1124,
      "ĠAmerican": 1125,
      "ollow": 1126,
      "ces": 1127,
      "ness": 1128,
      "ton": 1129,
      "Ġmom": 1130,
      "ĠMr": 1131,
      "Okay": 1132,
      "led": 1133,
      "Ġel": 1134,
      "Ġent": 1135,
      "arm": 1136,
      "ason": 1137,
      "Ġdr": 1138,
      "Ġbetween": 1139,
      "ister": 1140,
      "ual": 1141,
      "Ġunt": 1142,
      "Ġret": 1143,
      "ner": 1144,
      "Ġstud": 1145,
      "mb": 1146,
      "Ġkeep": 1147,
      "Ġtook": 1148,
      "une": 1149,
      "ular": 1150,
      "aj": 1151,
      "ret": 1152,
      "Ġreal": 1153,
      "oun": 1154,
      "âĻ": 1155,
      "der": 1156,
      "Ġbelie": 1157,
      "Ġsy": 1158,
      "Ġbo": 1159,
      "ott": 1160,
      "ohn": 1161,
      "Is": 1162,
      "AN": 1163,
      "cess": 1164,
      "ĠSh": 1165,
      "19": 1166,
      "ye": 1167,
      "Ġbook": 1168,
      "Ġph": 1169,
      "yes": 1170,
      "row": 1171,
      "ale": 1172,
      "Ġob": 1173,
      "Ġmat": 1174,
      "ars": 1175,
      "irect": 1176,
      "ĠWhat": 1177,
      "When": 1178,
      "Ġinv": 1179,
      "Hey": 1180,
      "Ġform": 1181,
      "Ġerm": 1182,
      "vern": 1183,
      "Ġmoney": 1184,
      "Thank": 1185,
      "ject": 1186,
      "Ġever": 1187,
      "Ġwhile": 1188,
      "Ġsub": 1189,
      "Ġdec": 1190,
      "Ġborn": 1191,
      "ĠStates": 1192,
      "Ġ-": 1193,
      "Ġinclud": 1194,
      "Ġbus": 1195,
      "where": 1196,
      "ision": 1197,
      "ĠThey": 1198,
      "Ġuh": 1199,
      "Ġ198": 1200,
      "akes": 1201,
      "Ġpoint": 1202,
      "Not": 1203,
      "ling": 1204,
      "Ġokay": 1205,
      "son": 1206,
      "Ġsaw": 1207,
      "orth": 1208,
      "Ġnothing": 1209,
      "Ġuntil": 1210,
      "âĻª": 1211,
      "Ġfather": 1212,
      "Ġword": 1213,
      "ative": 1214,
      "rew": 1215,
      "no": 1216,
      "Ġdep": 1217,
      "olog": 1218,
      "Ġass": 1219,
      "ivers": 1220,
      "Ġnext": 1221,
      "Ġcons": 1222,
      "ier": 1223,
      "Ġsw": 1224,
      "Ġsing": 1225,
      "Ġbest": 1226,
      "Ġperson": 1227,
      "ash": 1228,
      "Ġgl": 1229,
      "Ġboth": 1230,
      "Ġmen": 1231,
      "ired": 1232,
      "to": 1233,
      "Ġeach": 1234,
      "ĠCount": 1235,
      "Ġcourse": 1236,
      "Ġdifferent": 1237,
      "Ġmet": 1238,
      "stand": 1239,
      "let": 1240,
      "Ġstop": 1241,
      "Ġlater": 1242,
      "Ġschool": 1243,
      "its": 1244,
      "Ġfollow": 1245,
      "On": 1246,
      "ax": 1247,
      "Ġpass": 1248,
      "Ġnumber": 1249,
      "Ġlist": 1250,
      "ames": 1251,
      "Ġinst": 1252,
      "ĠAs": 1253,
      "eak": 1254,
      "Ġactually": 1255,
      "Ġmus": 1256,
      "Ġwater": 1257,
      "ĠThis": 1258,
      "ures": 1259,
      "ok": 1260,
      "Ġcle": 1261,
      "cept": 1262,
      "Ġprodu": 1263,
      "aid": 1264,
      "ĠâĢĵ": 1265,
      "ex": 1266,
      "ĠPr": 1267,
      "eg": 1268,
      "Ġdef": 1269,
      "Ġcent": 1270,
      "ĠGod": 1271,
      "cer": 1272,
      "omm": 1273,
      "ĠAn": 1274,
      "ities": 1275,
      "ĠNo": 1276,
      "blem": 1277,
      "anna": 1278,
      "Ġcity": 1279,
      "Ġfun": 1280,
      "Ġpop": 1281,
      "Ġyeah": 1282,
      "Then": 1283,
      "Ġmother": 1284,
      "Ã©": 1285,
      "AT": 1286,
      "Ġ197": 1287,
      "Ġfr": 1288,
      "Ġ6": 1289,
      "ung": 1290,
      "ters": 1291,
      "Ġchar": 1292,
      "Ġseem": 1293,
      "ĠInd": 1294,
      "Ġbre": 1295,
      "uth": 1296,
      "Ġ8": 1297,
      "Ġinc": 1298,
      "Ġteam": 1299,
      "Ġyoung": 1300,
      "Just": 1301,
      "osed": 1302,
      "ream": 1303,
      "Ġ7": 1304,
      "Ġrep": 1305,
      "Ġ;": 1306,
      "Ġdirect": 1307,
      "Ġdoesn": 1308,
      "Ġcap": 1309,
      "ĠCounty": 1310,
      "att": 1311,
      "iness": 1312,
      "Ġagainst": 1313,
      "Ġproblem": 1314,
      "Ġimp": 1315,
      "Ġonce": 1316,
      "Ġhard": 1317,
      "Ġhear": 1318,
      "ĠKing": 1319,
      "rist": 1320,
      "ross": 1321,
      "Ġson": 1322,
      "Ġlar": 1323,
      "ĠJan": 1324,
      "Ġsorry": 1325,
      "alf": 1326,
      "aby": 1327,
      "of": 1328,
      "Ġseen": 1329,
      "Ġenough": 1330,
      "ope": 1331,
      "iet": 1332,
      "Ġpubl": 1333,
      "ina": 1334,
      "Ġtoget": 1335,
      "RE": 1336,
      "app": 1337,
      "Ġtogether": 1338,
      "ote": 1339,
      "Ġhigh": 1340,
      "Ġbecame": 1341,
      "Ġelse": 1342,
      "âĢľ": 1343,
      "ik": 1344,
      "Ġtown": 1345,
      "Ġeverything": 1346,
      "ING": 1347,
      "Ġwanted": 1348,
      "Ġem": 1349,
      "Ġwithout": 1350,
      "ger": 1351,
      "Ġfact": 1352,
      "Who": 1353,
      "Ġfamily": 1354,
      "Right": 1355,
      "ific": 1356,
      "Where": 1357,
      "Ġfive": 1358,
      "enn": 1359,
      "ĠBut": 1360,
      "Ġwait": 1361,
      "ober": 1362,
      "rop": 1363,
      "Ġref": 1364,
      "ĠEng": 1365,
      "aut": 1366,
      "ared": 1367,
      "ield": 1368,
      "Ġleave": 1369,
      "Ġcoming": 1370,
      "Ġstand": 1371,
      "ital": 1372,
      "Ġlead": 1373,
      "Ġstate": 1374,
      "Ġplan": 1375,
      "ably": 1376,
      "uc": 1377,
      "ey": 1378,
      "uss": 1379,
      "Ġloc": 1380,
      "ilm": 1381,
      "Ġquite": 1382,
      "Ġrest": 1383,
      "Ġyes": 1384,
      "ĠSp": 1385,
      "ĠJohn": 1386,
      "Ġ196": 1387,
      "ĠZ": 1388,
      "Ġduring": 1389,
      "Ġsix": 1390,
      "ets": 1391,
      "Look": 1392,
      "orning": 1393,
      "ines": 1394,
      "Ġsince": 1395,
      "Ġfew": 1396,
      "ral": 1397,
      "Ġbad": 1398,
      "Ġsign": 1399,
      "Ġcoll": 1400,
      "Ġsk": 1401,
      "ON": 1402,
      "Ġid": 1403,
      "Ġadd": 1404,
      "Ġmovie": 1405,
      "Ġstay": 1406,
      "ury": 1407,
      "Ġsmall": 1408,
      "Ġtri": 1409,
      "Ġweek": 1410,
      "yeah": 1411,
      "ric": 1412,
      "Ġroom": 1413,
      "Ġ9": 1414,
      "Ġunderstand": 1415,
      "Ġheart": 1416,
      "Ġwoman": 1417,
      "ump": 1418,
      "Ġhimself": 1419,
      "Are": 1420,
      "Ġopen": 1421,
      "eb": 1422,
      "Ġread": 1423,
      "Ġsit": 1424,
      "uff": 1425,
      "idd": 1426,
      "ĠĠĠ": 1427,
      "arr": 1428,
      "less": 1429,
      "ants": 1430,
      "ised": 1431,
      "Ġlight": 1432,
      "Ġbelieve": 1433,
      "ball": 1434,
      "Ġmind": 1435,
      "ĠIs": 1436,
      "Ġfar": 1437,
      "iew": 1438,
      "Ġsays": 1439,
      "ĠCl": 1440,
      "ins": 1441,
      "âĢĵ": 1442,
      "Ġlooking": 1443,
      "Ġ`": 1444,
      "Sh": 1445,
      "Ġhappened": 1446,
      "Ġtimes": 1447,
      "Ġdisc": 1448,
      "Ch": 1449,
      "ense": 1450,
      "Ġlive": 1451,
      "ĠMay": 1452,
      "ĠĠĠĠĠĠĠĠ": 1453,
      "Ġheard": 1454,
      "Ġev": 1455,
      "Ġchildren": 1456,
      "Ġpret": 1457,
      "Ġside": 1458,
      "Ġdays": 1459,
      "Ġmove": 1460,
      "ments": 1461,
      "Ġart": 1462,
      "me": 1463,
      "Ġed": 1464,
      "?\"": 1465,
      "erest": 1466,
      "Uh": 1467,
      "Ġhum": 1468,
      "Ġtrans": 1469,
      "Ġnear": 1470,
      "As": 1471,
      "Ġwhole": 1472,
      "ike": 1473,
      "Ġans": 1474,
      "Ġsim": 1475,
      "Ġconf": 1476,
      "Ġquest": 1477,
      "For": 1478,
      "Ġtoday": 1479,
      "aster": 1480,
      "Ġplease": 1481,
      "ready": 1482,
      "Ġdri": 1483,
      "Ġmed": 1484,
      "Ġbeh": 1485,
      "stem": 1486,
      "ists": 1487,
      "iversity": 1488,
      "cy": 1489,
      "Ġbrother": 1490,
      "uary": 1491,
      "Ġri": 1492,
      "Ġmeet": 1493,
      "Ġinter": 1494,
      "Ġpolit": 1495,
      "Ġsort": 1496,
      "ism": 1497,
      "ecause": 1498,
      "Ġimport": 1499,
      ".âĢĿ": 1500,
      "sy": 1501,
      "Ġdeath": 1502,
      "Ġisn": 1503,
      "Ġwife": 1504,
      "ĠQ": 1505,
      "gt": 1506,
      "ai": 1507,
      "ither": 1508,
      "ned": 1509,
      "ertain": 1510,
      "Ġmorning": 1511,
      "000": 1512,
      "Ġgetting": 1513,
      "rap": 1514,
      "LL": 1515,
      "ene": 1516,
      "leep": 1517,
      "ship": 1518,
      "Ġnice": 1519,
      "Ġ10": 1520,
      "ined": 1521,
      "ta": 1522,
      "ĠWe": 1523,
      "AR": 1524,
      "dy": 1525,
      "Mm": 1526,
      "Ġwar": 1527,
      "Ġexp": 1528,
      "Ġage": 1529,
      "Ġhour": 1530,
      "Ġwalk": 1531,
      "Ġgroup": 1532,
      "Ġgener": 1533,
      "Âł": 1534,
      "Ġext": 1535,
      "Good": 1536,
      "Ġcol": 1537,
      "Ġposs": 1538,
      "ution": 1539,
      "Ġbro": 1540,
      "Ġtra": 1541,
      "ows": 1542,
      "by": 1543,
      "Ġsaying": 1544,
      "ery": 1545,
      "Ġstarted": 1546,
      "Ġsoon": 1547,
      "Ġfuck": 1548,
      "amed": 1549,
      "ives": 1550,
      "Ġrecord": 1551,
      "Ġgave": 1552,
      "Ġland": 1553,
      "ĠTHE": 1554,
      "Ġthough": 1555,
      "ched": 1556,
      "Er": 1557,
      "Ġgi": 1558,
      "Ġdead": 1559,
      "Ġasked": 1560,
      "aughter": 1561,
      "Ġreturn": 1562,
      "ues": 1563,
      "ĠGr": 1564,
      "Ġdoor": 1565,
      "Ġinterest": 1566,
      "Ġjob": 1567,
      "Ġsong": 1568,
      "ized": 1569,
      "Ġpay": 1570,
      "Ġhold": 1571,
      "Ġ''": 1572,
      "hm": 1573,
      "Ġlaw": 1574,
      "Ġeyes": 1575,
      "Ġair": 1576,
      "Ġdra": 1577,
      "Ġeas": 1578,
      "Ġupon": 1579,
      "Ġyet": 1580,
      "ten": 1581,
      "rict": 1582,
      "do": 1583,
      "Ġshall": 1584,
      "Ġhaving": 1585,
      "Ġwanna": 1586,
      "Ġwrong": 1587,
      "Ġbaby": 1588,
      "Can": 1589,
      "born": 1590,
      "ama": 1591,
      "Ġmod": 1592,
      "Ġhalf": 1593,
      "ĠSo": 1594,
      "Ġgovern": 1595,
      "Ġ195": 1596,
      "ĠJanuary": 1597,
      "Ġtalking": 1598,
      "ison": 1599,
      "Ġcase": 1600,
      "ages": 1601,
      "Ġknew": 1602,
      "Al": 1603,
      "Ġmonth": 1604,
      "ize": 1605,
      "Go": 1606,
      "ĠSc": 1607,
      "uly": 1608,
      "Ġmusic": 1609,
      "Did": 1610,
      "Ġpower": 1611,
      "ĠOh": 1612,
      "Ġprom": 1613,
      "ĠAp": 1614,
      "ony": 1615,
      "Ġface": 1616,
      "ries": 1617,
      "Ġalready": 1618,
      "Ġalong": 1619,
      "Ġ$": 1620,
      "Ġbuild": 1621,
      "ains": 1622,
      "Ġwin": 1623,
      "Ġking": 1624,
      "OR": 1625,
      "wards": 1626,
      "Ġbegan": 1627,
      "Ġsystem": 1628,
      "Ġcur": 1629,
      "Ġround": 1630,
      "Ġserv": 1631,
      "aps": 1632,
      "reen": 1633,
      "Ġfore": 1634,
      "dd": 1635,
      "Ġkid": 1636,
      "ats": 1637,
      "Ġfilm": 1638,
      "ĠGerm": 1639,
      "now": 1640,
      "ature": 1641,
      "ering": 1642,
      "most": 1643,
      "ugust": 1644,
      "okay": 1645,
      "Ġsir": 1646,
      "Ġmil": 1647,
      "Ġplayed": 1648,
      "Ġidea": 1649,
      "ril": 1650,
      "Ġremember": 1651,
      "Ġcountry": 1652,
      "ĠCan": 1653,
      "ided": 1654,
      "ying": 1655,
      "ĠYOU": 1656,
      "Get": 1657,
      "Ġcreat": 1658,
      "Ġprov": 1659,
      "Ġoffic": 1660,
      "Ġfull": 1661,
      "Ġbring": 1662,
      "ctor": 1663,
      "Ġmiss": 1664,
      "ple": 1665,
      "Ġmain": 1666,
      "Ġprob": 1667,
      "ted": 1668,
      "Ġtop": 1669,
      "Ġimportant": 1670,
      "Ġmatter": 1671,
      "ush": 1672,
      "not": 1673,
      "Ġgame": 1674,
      "Ġspe": 1675,
      "Ġtrying": 1676,
      "ffect": 1677,
      "Ġsound": 1678,
      "Ġbeaut": 1679,
      "Ġsent": 1680,
      "Ġbusiness": 1681,
      "Ġgone": 1682,
      "Ġfell": 1683,
      "Ġ[": 1684,
      "ask": 1685,
      "ster": 1686,
      "ility": 1687,
      "ĠChrist": 1688,
      "ional": 1689,
      "lish": 1690,
      "Ġfoot": 1691,
      "ĠHow": 1692,
      "leased": 1693,
      "come": 1694,
      "ĠBl": 1695,
      "Your": 1696,
      "Ġable": 1697,
      "ĠCar": 1698,
      "Ġins": 1699,
      "Ġarea": 1700,
      "Ġjo": 1701,
      "Ġeat": 1702,
      "iter": 1703,
      "ality": 1704,
      "ately": 1705,
      "Ġ194": 1706,
      "ane": 1707,
      "oice": 1708,
      "artment": 1709,
      "velop": 1710,
      "uro": 1711,
      "arent": 1712,
      "ĠOn": 1713,
      "ĠRe": 1714,
      "arch": 1715,
      "ator": 1716,
      "there": 1717,
      "orld": 1718,
      "Ġexpl": 1719,
      "Ġpretty": 1720,
      "ape": 1721,
      "ĠThere": 1722,
      "Ġprof": 1723,
      "At": 1724,
      "Ġmill": 1725,
      "ically": 1726,
      "Ġgoes": 1727,
      "Ġthank": 1728,
      "Ġguy": 1729,
      "can": 1730,
      "aken": 1731,
      "Ġhur": 1732,
      "pr": 1733,
      "erv": 1734,
      "Ġlost": 1735,
      "Ġmeans": 1736,
      "ĠAt": 1737,
      "orrow": 1738,
      "Ġ17": 1739,
      "Ġwind": 1740,
      "Ġspeak": 1741,
      "Ġ202": 1742,
      "ured": 1743,
      "Ġequ": 1744,
      "Ġmoment": 1745,
      "ĠAugust": 1746,
      "ept": 1747,
      "!\"": 1748,
      "May": 1749,
      "Ġleg": 1750,
      "ern": 1751,
      "Ġ15": 1752,
      "Ġpartic": 1753,
      "Ġhappen": 1754,
      "Ġcontin": 1755,
      "Ġwomen": 1756,
      "Ġinf": 1757,
      "ĠBrit": 1758,
      "ulation": 1759,
      "ained": 1760,
      "ĠAll": 1761,
      "Ġcertain": 1762,
      "Ġhands": 1763,
      "Ġ193": 1764,
      "Ġlear": 1765,
      "One": 1766,
      "Ġchang": 1767,
      "Ġwatch": 1768,
      "Ġdet": 1769,
      "Ġwasn": 1770,
      "ĠCon": 1771,
      "Ġball": 1772,
      "Ġpri": 1773,
      "ole": 1774,
      "urch": 1775,
      "cle": 1776,
      "ead": 1777,
      "Here": 1778,
      "ĠUniversity": 1779,
      "An": 1780,
      "ĠMarch": 1781,
      "Ġfire": 1782,
      "Ġyourself": 1783,
      "ĠHis": 1784,
      "Ġhor": 1785,
      "hip": 1786,
      "ĠYork": 1787,
      "cri": 1788,
      "ĠThat": 1789,
      "pped": 1790,
      "ief": 1791,
      "Ġhist": 1792,
      "To": 1793,
      "ural": 1794,
      "Ġchange": 1795,
      "eth": 1796,
      "Ġ&": 1797,
      "used": 1798,
      "Ġelect": 1799,
      "ĠApril": 1800,
      "Ġsomeone": 1801,
      "unic": 1802,
      "ES": 1803,
      "Ġseries": 1804,
      "Ġmaking": 1805,
      "iver": 1806,
      "Ġbody": 1807,
      "mm": 1808,
      "Ġfine": 1809,
      "iam": 1810,
      "gy": 1811,
      "umb": 1812,
      "Ġter": 1813,
      "Ġrece": 1814,
      "Ġpos": 1815,
      "ello": 1816,
      "ĠFor": 1817,
      "Ġclose": 1818,
      "ann": 1819,
      "ica": 1820,
      "ived": 1821,
      "Ġcomes": 1822,
      "iful": 1823,
      "Ġbed": 1824,
      "eng": 1825,
      "ĠWar": 1826,
      "Ġmark": 1827,
      "resent": 1828,
      "oon": 1829,
      "Ġless": 1830,
      "ĠPar": 1831,
      "Ġty": 1832,
      "Ġshort": 1833,
      "Ġwond": 1834,
      "ĠPro": 1835,
      "wer": 1836,
      "Ġcut": 1837,
      "Ġline": 1838,
      "Ġguys": 1839,
      "Ġpat": 1840,
      "alth": 1841,
      "Ġblack": 1842,
      "ices": 1843,
      "ley": 1844,
      "Ġtrue": 1845,
      "Ġpain": 1846,
      "ĠJuly": 1847,
      "Ġfall": 1848,
      "ze": 1849,
      "Ġstory": 1850,
      "ovember": 1851,
      "Because": 1852,
      "Ġexper": 1853,
      "ract": 1854,
      "ician": 1855,
      "Ġprobably": 1856,
      "ides": 1857,
      "inc": 1858,
      "Ġclass": 1859,
      "Ġpar": 1860,
      "Ġhaven": 1861,
      "gram": 1862,
      "Ġorder": 1863,
      "undred": 1864,
      "ention": 1865,
      "rigin": 1866,
      "ajor": 1867,
      "ety": 1868,
      "lev": 1869,
      "Ġprot": 1870,
      "ctober": 1871,
      "med": 1872,
      "Ġbecome": 1873,
      "aper": 1874,
      "ĠTr": 1875,
      "ald": 1876,
      "Ġsleep": 1877,
      "Ġ...": 1878,
      "utes": 1879,
      "ĠWorld": 1880,
      "Ġfight": 1881,
      "Ġeight": 1882,
      "Ġearly": 1883,
      "gue": 1884,
      "Ġwouldn": 1885,
      "nce": 1886,
      "EN": 1887,
      "enty": 1888,
      "wh": 1889,
      "Ġterm": 1890,
      "oe": 1891,
      ",âĢĿ": 1892,
      "angu": 1893,
      "Ġlooked": 1894,
      "Ġcompany": 1895,
      "ĠYes": 1896,
      "mp": 1897,
      "omp": 1898,
      "ĠJune": 1899,
      "els": 1900,
      "eor": 1901,
      "ney": 1902,
      "Ġlarge": 1903,
      "Ġmember": 1904,
      "Ġgiven": 1905,
      "Ġpresent": 1906,
      "Ġdad": 1907,
      "Ġdevelop": 1908,
      "Ġdaughter": 1909,
      "ĠMin": 1910,
      "con": 1911,
      "Ġswe": 1912,
      "ient": 1913,
      "Ġadv": 1914,
      "Ġworking": 1915,
      "Ġcomple": 1916,
      "cember": 1917,
      "rest": 1918,
      "Re": 1919,
      "Ġpick": 1920,
      "look": 1921,
      "ox": 1922,
      "ones": 1923,
      "Ġbegin": 1924,
      "ilt": 1925,
      "Ġvis": 1926,
      "aces": 1927,
      "Ġbrought": 1928,
      "ouble": 1929,
      "Ġgovernment": 1930,
      "eptember": 1931,
      "Ġ2010": 1932,
      "reet": 1933,
      "Ġes": 1934,
      "oke": 1935,
      "ĠAust": 1936,
      "elt": 1937,
      "osp": 1938,
      "resident": 1939,
      "Ġleast": 1940,
      "ĠSouth": 1941,
      "Â´": 1942,
      "eter": 1943,
      "vious": 1944,
      "Ġfree": 1945,
      "ps": 1946,
      "raz": 1947,
      "Ġ12": 1948,
      "Wh": 1949,
      "Ġpie": 1950,
      "Ġkilled": 1951,
      "Ġhell": 1952,
      "Ġmag": 1953,
      "Ġbreak": 1954,
      "Ġca": 1955,
      "Ġbehind": 1956,
      "Ġquestion": 1957,
      "Ġready": 1958,
      "Ġhundred": 1959,
      "Ġmyself": 1960,
      "ards": 1961,
      "Ġdeal": 1962,
      "ebru": 1963,
      "ude": 1964,
      "ebruary": 1965,
      "ĠBe": 1966,
      "Ġlived": 1967,
      "ĠNovember": 1968,
      "Ġalone": 1969,
      "Ġlate": 1970,
      "Ġocc": 1971,
      "bum": 1972,
      "van": 1973,
      "Ġcor": 1974,
      "Ġpublic": 1975,
      "Ġann": 1976,
      "Ġreleased": 1977,
      "ĠComm": 1978,
      "Ġdog": 1979,
      "Ġmarried": 1980,
      "rol": 1981,
      "fe": 1982,
      "huh": 1983,
      "Ġhope": 1984,
      "selves": 1985,
      "ĠOctober": 1986,
      "Ġorgan": 1987,
      "Ġaw": 1988,
      "Ġnews": 1989,
      "Ġten": 1990,
      "de": 1991,
      "Ġwhite": 1992,
      "Ġago": 1993,
      "Ġmaybe": 1994,
      "ha": 1995,
      "Ġalmost": 1996,
      "amb": 1997,
      "well": 1998,
      "Ġfriends": 1999,
      "IS": 2000,
      "Ġdiv": 2001,
      "for": 2002,
      "ĠNational": 2003,
      "IT": 2004,
      "aim": 2005,
      "Ġest": 2006,
      "ograp": 2007,
      "Ġoften": 2008,
      "ccess": 2009,
      "rent": 2010,
      "Ġhon": 2011,
      "Ġopp": 2012,
      "Every": 2013,
      "Ġdrink": 2014,
      "ĠYeah": 2015,
      "lt": 2016,
      "oint": 2017,
      "Ġhappy": 2018,
      "Ġ16": 2019,
      "ron": 2020,
      "Ġspec": 2021,
      "band": 2022,
      "Ġoper": 2023,
      "co": 2024,
      "iting": 2025,
      "ĠEuro": 2026,
      "cent": 2027,
      "Ġreason": 2028,
      "Ġsever": 2029,
      "Ġorigin": 2030,
      "Ġgold": 2031,
      "rench": 2032,
      "head": 2033,
      "Ġeng": 2034,
      "Ġbeautiful": 2035,
      "ĠDecember": 2036,
      "ĠGo": 2037,
      "Ġguess": 2038,
      "min": 2039,
      "Ġsqu": 2040,
      "Ġrepl": 2041,
      "Ġoh": 2042,
      "Ġnamed": 2043,
      "atic": 2044,
      "ology": 2045,
      "Ġtre": 2046,
      "Ġsol": 2047,
      "Ġexamp": 2048,
      "Ġfront": 2049,
      "ĠSeptember": 2050,
      "ĠWill": 2051,
      "oud": 2052,
      "Ġsupport": 2053,
      "Ġsat": 2054,
      "ged": 2055,
      "Ġcounty": 2056,
      "bed": 2057,
      "ĠFebruary": 2058,
      "Ġwords": 2059,
      "ully": 2060,
      "Ġ|": 2061,
      "ese": 2062,
      "Ġvar": 2063,
      "Ġtaken": 2064,
      "ĠEnglish": 2065,
      "ĠTH": 2066,
      "Ġtaking": 2067,
      "ert": 2068,
      "Be": 2069,
      "Please": 2070,
      "Ġconst": 2071,
      "ĠFrance": 2072,
      "Ġ2020": 2073,
      "Ġhuman": 2074,
      "Ġ--": 2075,
      "ler": 2076,
      "Ġarm": 2077,
      "Ġseveral": 2078,
      "hern": 2079,
      "Ġste": 2080,
      "ots": 2081,
      "ĠLe": 2082,
      "Ġprogram": 2083,
      "bs": 2084,
      "ior": 2085,
      "ode": 2086,
      "Ġdem": 2087,
      "aced": 2088,
      "Ġparty": 2089,
      "Ġclear": 2090,
      "ĠRep": 2091,
      "Ġanim": 2092,
      "Ġ]": 2093,
      "ring": 2094,
      "Ġattack": 2095,
      "Ġblood": 2096,
      "Ġalbum": 2097,
      "Ġreport": 2098,
      "ĠBritish": 2099,
      "ĠâĻª": 2100,
      "Ġred": 2101,
      "ĠPh": 2102,
      "oor": 2103,
      "Ġsold": 2104,
      "Ġstuff": 2105,
      "ĠTO": 2106,
      "ency": 2107,
      "ĠCol": 2108,
      "Ġminutes": 2109,
      "Ġtou": 2110,
      "Ġthird": 2111,
      "ĠNorth": 2112,
      "haps": 2113,
      "Ġresp": 2114,
      "Ġpast": 2115,
      "Ġdel": 2116,
      "ium": 2117,
      "ances": 2118,
      "Ġfig": 2119,
      "che": 2120,
      "urs": 2121,
      "Ġmakes": 2122,
      "AS": 2123,
      "Ġtem": 2124,
      "arl": 2125,
      "Ġ2019": 2126,
      "wo": 2127,
      "work": 2128,
      "Ġlisten": 2129,
      "key": 2130,
      "Ġlangu": 2131,
      "ana": 2132,
      "ament": 2133,
      "Some": 2134,
      "unk": 2135,
      "men": 2136,
      "aul": 2137,
      "Ġsister": 2138,
      "ĠPresident": 2139,
      "Ġheld": 2140,
      "ĠSw": 2141,
      "ĠAd": 2142,
      "cient": 2143,
      "Ġ11": 2144,
      "een": 2145,
      "Ġstrong": 2146,
      "Ġhot": 2147,
      "ider": 2148,
      "Ġcharac": 2149,
      "Ġquick": 2150,
      "Ġperform": 2151,
      "augh": 2152,
      "ĠEurope": 2153,
      "ipp": 2154,
      "Mr": 2155,
      "Ġcouldn": 2156,
      "Ġprofess": 2157,
      "Ġwithin": 2158,
      "Ġ2018": 2159,
      "over": 2160,
      "ience": 2161,
      "Ġallow": 2162,
      "Ġthinking": 2163,
      "Ġothers": 2164,
      "Ġtrain": 2165,
      "usband": 2166,
      "unity": 2167,
      "ruct": 2168,
      "ĠWh": 2169,
      "Ġmillion": 2170,
      "Ġmess": 2171,
      "Ġdesign": 2172,
      "Ex": 2173,
      "Ġfood": 2174,
      "itten": 2175,
      "itting": 2176,
      "Ġinform": 2177,
      "Ġcompet": 2178,
      "Ġbar": 2179,
      "Ġpict": 2180,
      "Ġnational": 2181,
      "ĠCity": 2182,
      "``": 2183,
      "anger": 2184,
      "Ġeither": 2185,
      "ousand": 2186,
      "Ġval": 2187,
      "Ġap": 2188,
      "ĠCal": 2189,
      "iving": 2190,
      "Ġ2014": 2191,
      "Ġinside": 2192,
      "ada": 2193,
      "Ġwants": 2194,
      "levision": 2195,
      "Ġbas": 2196,
      "Ġincluding": 2197,
      "Ġresult": 2198,
      "Or": 2199,
      "Ġsuccess": 2200,
      "Maybe": 2201,
      "go": 2202,
      "Ġseason": 2203,
      "actly": 2204,
      "ĠMiss": 2205,
      "chn": 2206,
      "ternational": 2207,
      "Ġsil": 2208,
      "Ġsingle": 2209,
      "ches": 2210,
      "ached": 2211,
      "Ġ14": 2212,
      "ued": 2213,
      "ently": 2214,
      "Ġ2017": 2215,
      "Ġworked": 2216,
      "Ġbox": 2217,
      "After": 2218,
      "ales": 2219,
      "Ġroad": 2220,
      "Ġdie": 2221,
      "ĠPl": 2222,
      "ped": 2223,
      "oman": 2224,
      "eared": 2225,
      "omin": 2226,
      "Ġturned": 2227,
      "Ġappear": 2228,
      "itch": 2229,
      "Ġpolice": 2230,
      "ĠBar": 2231,
      "ĠFrench": 2232,
      "Ġformer": 2233,
      "airs": 2234,
      "ĠWhen": 2235,
      "Ġ13": 2236,
      "ĠOr": 2237,
      "Ġrather": 2238,
      "Ġrock": 2239,
      "Ġdistrict": 2240,
      "Hello": 2241,
      "ians": 2242,
      "Ġbird": 2243,
      "ĠDo": 2244,
      "Ġpopulation": 2245,
      "aring": 2246,
      "Ġlooks": 2247,
      "Ġ_": 2248,
      "Ġparent": 2249,
      "Ġtill": 2250,
      "Have": 2251,
      "oub": 2252,
      "Ġhusband": 2253,
      "oad": 2254,
      "Ah": 2255,
      "ended": 2256,
      "ĠGeor": 2257,
      "Ġexample": 2258,
      "Ġfollowing": 2259,
      "uthor": 2260,
      "Ġseven": 2261,
      "Ġcamp": 2262,
      "aly": 2263,
      "ection": 2264,
      "ĠThen": 2265,
      "arty": 2266,
      "ored": 2267,
      "Ġpoor": 2268,
      "Ġwonder": 2269,
      "Ġve": 2270,
      "Ġla": 2271,
      "view": 2272,
      "ĠAf": 2273,
      "ege": 2274,
      "With": 2275,
      "ories": 2276,
      "Ġmonths": 2277,
      "fully": 2278,
      "OM": 2279,
      "Ġband": 2280,
      "Ġill": 2281,
      "idge": 2282,
      "Ġplaying": 2283,
      "lect": 2284,
      "Ġgrow": 2285,
      "attle": 2286,
      "Ġground": 2287,
      "ET": 2288,
      "rog": 2289,
      "unch": 2290,
      "Ġvill": 2291,
      "reed": 2292,
      "que": 2293,
      "Ġ192": 2294,
      "Ġminute": 2295,
      "Ġwish": 2296,
      "Ġgotta": 2297,
      "ĠX": 2298,
      "Ġspecial": 2299,
      "Ġexpect": 2300,
      "ĠHer": 2301,
      "ĠFl": 2302,
      "Ġliving": 2303,
      "Ġsum": 2304,
      "ement": 2305,
      "Ġthousand": 2306,
      "ĠMan": 2307,
      "Ġacross": 2308,
      "Ġtot": 2309,
      "ino": 2310,
      "ara": 2311,
      "Ġoutside": 2312,
      "ĠAb": 2313,
      "Ġcost": 2314,
      "rodu": 2315,
      "Ġtest": 2316,
      "fort": 2317,
      "Ġmajor": 2318,
      "Ġ:": 2319,
      "Ġship": 2320,
      "ĠGu": 2321,
      "OW": 2322,
      "Ġbased": 2323,
      "room": 2324,
      "Ġhair": 2325,
      "Ġoffice": 2326,
      "Ġhours": 2327,
      "Ġsweet": 2328,
      "overed": 2329,
      "ĠDon": 2330,
      "Ġlives": 2331,
      "Ġhit": 2332,
      "Ġdark": 2333,
      "Ġeffect": 2334,
      "por": 2335,
      "Ġappro": 2336,
      "Any": 2337,
      "Ġgun": 2338,
      "morrow": 2339,
      "Ġfelt": 2340,
      "Ġdream": 2341,
      "Ġra": 2342,
      "ases": 2343,
      "sc": 2344,
      "Ġcheck": 2345,
      "ribut": 2346,
      "ĠEd": 2347,
      "fect": 2348,
      "Ġstra": 2349,
      "Ġaf": 2350,
      "iddle": 2351,
      "read": 2352,
      "apan": 2353,
      "incess": 2354,
      "Ġpossible": 2355,
      "Ġnorth": 2356,
      "oul": 2357,
      "Ġcop": 2358,
      "dom": 2359,
      "Ġfield": 2360,
      "ille": 2361,
      "Ġfucking": 2362,
      "Ġav": 2363,
      "Ġrequ": 2364,
      "Ġforg": 2365,
      "Ġpress": 2366,
      "Ġtried": 2367,
      "Ġlay": 2368,
      "Ġamong": 2369,
      "rie": 2370,
      "Ġ30": 2371,
      "ĠCent": 2372,
      "Ġlevel": 2373,
      "Ġstation": 2374,
      "ED": 2375,
      "II": 2376,
      "Ġsun": 2377,
      "Ġcir": 2378,
      "Ġtelevision": 2379,
      "Ġpull": 2380,
      "ounc": 2381,
      "bo": 2382,
      "com": 2383,
      "irth": 2384,
      "ĠĠĊ": 2385,
      "unt": 2386,
      "Ġanyone": 2387,
      "lf": 2388,
      "Ġ2015": 2389,
      "Ġfif": 2390,
      "who": 2391,
      "Ġpolitician": 2392,
      "more": 2393,
      "oved": 2394,
      "though": 2395,
      "ĠPenn": 2396,
      "Ġrad": 2397,
      "Ġran": 2398,
      "Ġdam": 2399,
      "lvan": 2400,
      "Ġfa": 2401,
      "Ġcre": 2402,
      "Ġusing": 2403,
      "Ġord": 2404,
      "gest": 2405,
      "ma": 2406,
      "ocr": 2407,
      "Ġdepartment": 2408,
      "raid": 2409,
      "Ġcomplete": 2410,
      "Ġparticular": 2411,
      "Ġanswer": 2412,
      "eder": 2413,
      "Ġz": 2414,
      "Ġsend": 2415,
      "Ġtreat": 2416,
      "Ġhistory": 2417,
      "ondon": 2418,
      "lvania": 2419,
      "urg": 2420,
      "Ġwhether": 2421,
      "ensus": 2422,
      "Ġ#": 2423,
      "Ġrepresent": 2424,
      "ham": 2425,
      "soci": 2426,
      "itions": 2427,
      "eed": 2428,
      "Erm": 2429,
      "Ġdear": 2430,
      "Ġcoup": 2431,
      "yn": 2432,
      "ĠWest": 2433,
      "Of": 2434,
      "Ġworks": 2435,
      "Ġfav": 2436,
      "Ġevent": 2437,
      "Ġstat": 2438,
      "OT": 2439,
      "Ġphone": 2440,
      "Ġgrand": 2441,
      "ffic": 2442,
      "Ġwritten": 2443,
      "unicip": 2444,
      "Ġvoice": 2445,
      "sylvania": 2446,
      "aged": 2447,
      "18": 2448,
      "Ġdest": 2449,
      "mbers": 2450,
      "like": 2451,
      "Ġmount": 2452,
      "irty": 2453,
      "Ġpresident": 2454,
      "Ġseat": 2455,
      "Ġeveryone": 2456,
      "Ġmoved": 2457,
      "Ġpost": 2458,
      "Ġwall": 2459,
      "Ġstep": 2460,
      "ourn": 2461,
      "Ġtree": 2462,
      "ission": 2463,
      "idence": 2464,
      "ĠMc": 2465,
      "Ġmembers": 2466,
      "Ġfeet": 2467,
      "Ġmur": 2468,
      "Ġcat": 2469,
      "Ġfast": 2470,
      "rit": 2471,
      "Ã¡": 2472,
      "ĠPennsylvania": 2473,
      "Ġreceived": 2474,
      "ien": 2475,
      "Ġtable": 2476,
      "hys": 2477,
      "aff": 2478,
      "Ġproper": 2479,
      "Ġgets": 2480,
      "Ġ2016": 2481,
      "Ġcreated": 2482,
      "aint": 2483,
      "Ġprop": 2484,
      "Ġbuilt": 2485,
      "Ġiss": 2486,
      "ising": 2487,
      "Ġfur": 2488,
      "Ġinvol": 2489,
      "Ġknows": 2490,
      "uk": 2491,
      "she": 2492,
      "lex": 2493,
      "Ġworry": 2494,
      "par": 2495,
      "iding": 2496,
      "Ġteac": 2497,
      "Ġexc": 2498,
      "Ġcannot": 2499,
      "LE": 2500,
      "how": 2501,
      "Ġview": 2502,
      "Ġfair": 2503,
      "Ġmine": 2504,
      "Take": 2505,
      "iod": 2506,
      "ĠJapan": 2507,
      "Ġ25": 2508,
      "Ġsn": 2509,
      "ified": 2510,
      "Ġafraid": 2511,
      "Ġwood": 2512,
      "Ġvide": 2513,
      "omb": 2514,
      "ording": 2515,
      "Ġdraw": 2516,
      "Ġsometimes": 2517,
      "Ġcond": 2518,
      "Ġconcer": 2519,
      "eal": 2520,
      "Ġcommon": 2521,
      "ev": 2522,
      "Ġhorse": 2523,
      "Ġcurrent": 2524,
      "ressed": 2525,
      "onight": 2526,
      "ÃŃ": 2527,
      "Ġcast": 2528,
      "Ġtwenty": 2529,
      "Ġcareer": 2530,
      "Ġabs": 2531,
      "ounds": 2532,
      "la": 2533,
      "Ġauthor": 2534,
      "Ġbuilding": 2535,
      "Ġchance": 2536,
      "Ġsense": 2537,
      "Ġ2022": 2538,
      "Ġhuh": 2539,
      "Ġwrote": 2540,
      "ĠAfter": 2541,
      "uri": 2542,
      "US": 2543,
      "Ġregion": 2544,
      "ĠAm": 2545,
      "ospital": 2546,
      "ks": 2547,
      "ampions": 2548,
      "asure": 2549,
      "ata": 2550,
      "Ġseems": 2551,
      "Ġlocal": 2552,
      "OK": 2553,
      "Ġclub": 2554,
      "Ġcry": 2555,
      "ĠLondon": 2556,
      "itive": 2557,
      "ĠTe": 2558,
      "ael": 2559,
      "Ġdiffic": 2560,
      "Ġeasy": 2561,
      "Ġbuy": 2562,
      "ĠIf": 2563,
      "See": 2564,
      "Ġones": 2565,
      "10": 2566,
      "Ġprocess": 2567,
      "Ġcontrol": 2568,
      "Ġgeneral": 2569,
      "ror": 2570,
      "Ġeduc": 2571,
      "Ġexactly": 2572,
      "Ġdescri": 2573,
      "ization": 2574,
      "ĠHar": 2575,
      "Ġshot": 2576,
      "alt": 2577,
      "ĠRuss": 2578,
      "lic": 2579,
      "Ġcold": 2580,
      "ĠDr": 2581,
      "Ġcouple": 2582,
      "oose": 2583,
      "Ġlonger": 2584,
      "Ġincre": 2585,
      "ument": 2586,
      "Ġcal": 2587,
      "ogn": 2588,
      "Ġdin": 2589,
      "uture": 2590,
      "ays": 2591,
      "Ġmer": 2592,
      "Ġservice": 2593,
      "ule": 2594,
      "Ġluck": 2595,
      "Ġrunning": 2596,
      "ift": 2597,
      "ĠPol": 2598,
      "Ġmot": 2599,
      "lin": 2600,
      "ett": 2601,
      "Sorry": 2602,
      "Ġtomorrow": 2603,
      "ĠOne": 2604,
      "His": 2605,
      "Ġsea": 2606,
      "Ġshit": 2607,
      "Ġdev": 2608,
      "Ġinvest": 2609,
      "Ġbott": 2610,
      "Ġparents": 2611,
      "rug": 2612,
      "avid": 2613,
      "ls": 2614,
      "Ġfail": 2615,
      "ĠJack": 2616,
      "Ġpal": 2617,
      "ĠWell": 2618,
      "emy": 2619,
      "Wait": 2620,
      "acy": 2621,
      "Ġdirected": 2622,
      "Ġtruth": 2623,
      "uation": 2624,
      "Ġchanged": 2625,
      "ĠState": 2626,
      "Ġinformation": 2627,
      "Ġdeep": 2628,
      "irt": 2629,
      "Ġserved": 2630,
      "Ġstar": 2631,
      "cience": 2632,
      "Ġpaper": 2633,
      "ills": 2634,
      "Ġtouch": 2635,
      "ges": 2636,
      "Ġsomebody": 2637,
      "Ġcharacter": 2638,
      "Ġhig": 2639,
      "Ġpract": 2640,
      "ĠLea": 2641,
      "Ġhowever": 2642,
      "illy": 2643,
      "ĠParty": 2644,
      "Ġled": 2645,
      "iol": 2646,
      "ration": 2647,
      "Ġtit": 2648,
      "Ġbirth": 2649,
      "avy": 2650,
      "ean": 2651,
      "stit": 2652,
      "Ġcarry": 2653,
      "Ġtechn": 2654,
      "ĠGerman": 2655,
      "ĠAustral": 2656,
      "Thanks": 2657,
      "Ġdi": 2658,
      "ĠHouse": 2659,
      "Ġthemselves": 2660,
      "wered": 2661,
      "Ġsupposed": 2662,
      "Ġfly": 2663,
      "Ġfootball": 2664,
      "ĠEx": 2665,
      "Ġarri": 2666,
      "ĠLord": 2667,
      "Ġrese": 2668,
      "ĠOF": 2669,
      "Ġ24": 2670,
      "Ġsouth": 2671,
      "ĠTom": 2672,
      "Ġcourt": 2673,
      "Ġlanguage": 2674,
      "Like": 2675,
      "Ġperiod": 2676,
      "Ġblue": 2677,
      "eneral": 2678,
      "Ġlab": 2679,
      "Ġboys": 2680,
      "entle": 2681,
      "itz": 2682,
      "Ġkids": 2683,
      "Ġaff": 2684,
      "Ġlow": 2685,
      "Ġwaiting": 2686,
      "with": 2687,
      "ĠCap": 2688,
      "15": 2689,
      "Ġsex": 2690,
      "ĠUS": 2691,
      "Ġlady": 2692,
      "Ġcentury": 2693,
      "ĠMich": 2694,
      "Ġshoot": 2695,
      "CH": 2696,
      "ption": 2697,
      "ĠEngland": 2698,
      "ĠQue": 2699,
      "Ġfuture": 2700,
      "Ġposition": 2701,
      "Ġmunicip": 2702,
      "Ġneeds": 2703,
      "Ġwhatever": 2704,
      "ĠIndian": 2705,
      "Ġ*": 2706,
      "oes": 2707,
      "ĠMy": 2708,
      "VE": 2709,
      "17": 2710,
      "Will": 2711,
      "uz": 2712,
      "Ar": 2713,
      "iron": 2714,
      "isten": 2715,
      "Ġriver": 2716,
      "Ġpur": 2717,
      "off": 2718,
      "ouncil": 2719,
      "Ġtrouble": 2720,
      "bers": 2721,
      "Ġmouth": 2722,
      "ivil": 2723,
      "Ġconn": 2724,
      "cially": 2725,
      "Ġcross": 2726,
      "Ġvers": 2727,
      "fer": 2728,
      "vol": 2729,
      "Ġtonight": 2730,
      "roll": 2731,
      "Ġsecret": 2732,
      "ilar": 2733,
      "Ġserious": 2734,
      "Hi": 2735,
      "ially": 2736,
      "Ġthrow": 2737,
      "Ġbank": 2738,
      "Ġwrite": 2739,
      "ND": 2740,
      "Ġlik": 2741,
      "Mar": 2742,
      "Ġhurt": 2743,
      "eople": 2744,
      "GH": 2745,
      "irm": 2746,
      "ĠRepubl": 2747,
      "Ġabove": 2748,
      "Tell": 2749,
      "Ġrul": 2750,
      "AY": 2751,
      "itor": 2752,
      "Ġaccept": 2753,
      "conom": 2754,
      "Ġhang": 2755,
      "this": 2756,
      "ĠSec": 2757,
      "see": 2758,
      "amer": 2759,
      "Ġ0": 2760,
      "Ġpot": 2761,
      "Ġsuper": 2762,
      "Ġrespect": 2763,
      "Ġentire": 2764,
      "Un": 2765,
      "aur": 2766,
      "Ġgen": 2767,
      "Ġstraight": 2768,
      "Ġanswered": 2769,
      "Ġpassed": 2770,
      "Ġtrad": 2771,
      "inal": 2772,
      "Ġclean": 2773,
      "Ġcapital": 2774,
      "ager": 2775,
      "Ġengine": 2776,
      "Ġsell": 2777,
      "ploy": 2778,
      "Ġsurpr": 2779,
      "viously": 2780,
      "iforn": 2781,
      "they": 2782,
      "itary": 2783,
      "hel": 2784,
      "ray": 2785,
      "Ġhy": 2786,
      "ele": 2787,
      "Ġforget": 2788,
      "Ġ)": 2789,
      "ford": 2790,
      "sp": 2791,
      "Ġpiece": 2792,
      "Ġstri": 2793,
      "ampionship": 2794,
      "Ġpriv": 2795,
      "Ġeverybody": 2796,
      "Ġep": 2797,
      "Ġda": 2798,
      "Ġperhaps": 2799,
      "ĠGermany": 2800,
      "Ġcensus": 2801,
      "ashing": 2802,
      "ĠNot": 2803,
      "owers": 2804,
      "ifornia": 2805,
      "Ġvillage": 2806,
      "Ġkept": 2807,
      "Ġcried": 2808,
      "Ġproblems": 2809,
      "Ġusually": 2810,
      "Ġrole": 2811,
      "Ġsocial": 2812,
      "ping": 2813,
      "Ġevening": 2814,
      "ĠAmerica": 2815,
      "Ġ2013": 2816,
      "Ġpicture": 2817,
      "uel": 2818,
      "ĠEl": 2819,
      "EA": 2820,
      "Ġbear": 2821,
      "ĠTo": 2822,
      "Ġlim": 2823,
      "dden": 2824,
      "Ġcover": 2825,
      "ĠSchool": 2826,
      "epend": 2827,
      "?âĢĿ": 2828,
      "Ġstood": 2829,
      "Ġfinal": 2830,
      "Ġproject": 2831,
      "ination": 2832,
      "Ġnat": 2833,
      "ander": 2834,
      "Ġinstead": 2835,
      "Ġmist": 2836,
      "Ġfinished": 2837,
      "Fr": 2838,
      "ĠPark": 2839,
      "Ġseemed": 2840,
      "Ġdue": 2841,
      "Ġrecogn": 2842,
      "Ġesc": 2843,
      "Ġplayer": 2844,
      "Ġannoun": 2845,
      "Ġgirls": 2846,
      "ID": 2847,
      "Ġple": 2848,
      "ĠGovern": 2849,
      "Ġcos": 2850,
      "Stop": 2851,
      "Ġprison": 2852,
      "line": 2853,
      "aha": 2854,
      "ĠColl": 2855,
      "atter": 2856,
      "Ġfurther": 2857,
      "iers": 2858,
      "Ġchair": 2859,
      "af": 2860,
      "Ġmem": 2861,
      "Ġtakes": 2862,
      "Ġtrack": 2863,
      "Ġfunny": 2864,
      "Ġimag": 2865,
      "Ġvict": 2866,
      "teen": 2867,
      "Ġcrit": 2868,
      "ky": 2869,
      "reg": 2870,
      "Ġitself": 2871,
      "Ġdecided": 2872,
      "Ġsudden": 2873,
      "Ġworth": 2874,
      "Ġvideo": 2875,
      "ĠCalifornia": 2876,
      "Ġgreen": 2877,
      "Ġspace": 2878,
      "rill": 2879,
      "razy": 2880,
      "estern": 2881,
      "Ġhealth": 2882,
      "Ġdro": 2883,
      "Ġphys": 2884,
      "ĠDem": 2885,
      "Ġvol": 2886,
      "16": 2887,
      "Ġkiss": 2888,
      "Ġreturned": 2889,
      "hi": 2890,
      "val": 2891,
      "Ġdifficult": 2892,
      "Ġtrust": 2893,
      "put": 2894,
      "olute": 2895,
      "Ġcomput": 2896,
      "ellow": 2897,
      "ula": 2898,
      "Ġhappens": 2899,
      "These": 2900,
      "Ġsuff": 2901,
      "Ġsugg": 2902,
      "Ġsuggest": 2903,
      "Ġport": 2904,
      "ris": 2905,
      "lands": 2906,
      "Ġang": 2907,
      "Ġearth": 2908,
      "Ġinclude": 2909,
      "ending": 2910,
      "Ġlocated": 2911,
      "lu": 2912,
      "ĠHigh": 2913,
      "roy": 2914,
      "ops": 2915,
      "Ġherself": 2916,
      "Ġadm": 2917,
      "Ġopened": 2918,
      "Ġactiv": 2919,
      "joy": 2920,
      "Ġreached": 2921,
      "Ġbooks": 2922,
      "Ġdoub": 2923,
      "ĠMe": 2924,
      "Ġpolitical": 2925,
      "riage": 2926,
      "Ġstre": 2927,
      "Ġ100": 2928,
      "Ġexist": 2929,
      "Ġring": 2930,
      "Ġcult": 2931,
      "ciety": 2932,
      "ari": 2933,
      "Ġnine": 2934,
      "time": 2935,
      "empt": 2936,
      "Ġwhom": 2937,
      "Ġaren": 2938,
      "14": 2939,
      "12": 2940,
      "Ġappeared": 2941,
      "Ġterri": 2942,
      "ĠGeorge": 2943,
      "AM": 2944,
      "Ġsave": 2945,
      "Ġdanger": 2946,
      "Ġpen": 2947,
      "Ġperfect": 2948,
      "Ġpublished": 2949,
      "Ġweeks": 2950,
      "Ġmommy": 2951,
      "Ġlad": 2952,
      "ĠPhil": 2953,
      "Ġhospital": 2954,
      "Ġ()": 2955,
      "Ġsafe": 2956,
      "bor": 2957,
      "ivid": 2958,
      "ico": 2959,
      "Ġjud": 2960,
      "ĠLeague": 2961,
      "Ġclot": 2962,
      "Ġrace": 2963,
      "Ġfeeling": 2964,
      "Ġcook": 2965,
      "ceed": 2966,
      "ival": 2967,
      "ken": 2968,
      "Ġain": 2969,
      "Ġshut": 2970,
      "ears": 2971,
      "Cl": 2972,
      "Ġcell": 2973,
      "Ġ<": 2974,
      "rey": 2975,
      "IC": 2976,
      "Ġestab": 2977,
      "ding": 2978,
      "night": 2979,
      "Ġmiddle": 2980,
      "Ġaged": 2981,
      "ĠIndia": 2982,
      "Ġanyway": 2983,
      "ĠSm": 2984,
      "Ġfigure": 2985,
      "ĠMinister": 2986,
      "Ġeye": 2987,
      "raft": 2988,
      "Ġpopular": 2989,
      "Ġlaugh": 2990,
      "ĠDan": 2991,
      "ĠPer": 2992,
      "ĠPaul": 2993,
      "itted": 2994,
      "Ġsus": 2995,
      "Ġhung": 2996,
      "\")": 2997,
      "ae": 2998,
      "Ġobject": 2999,
      "Ġlearn": 3000,
      "Ġtype": 3001,
      "bit": 3002,
      "reme": 3003,
      "ĠSy": 3004,
      "ades": 3005,
      "ili": 3006,
      "omen": 3007,
      "ĠMrs": 3008,
      "Ġ(\"": 3009,
      "Ġnorm": 3010,
      "Ġjump": 3011,
      "ĠLou": 3012,
      "Ġfix": 3013,
      "Ġneg": 3014,
      "ĠNe": 3015,
      "Ġnin": 3016,
      "bl": 3017,
      "Ġclim": 3018,
      "Ġhop": 3019,
      "ĠRiver": 3020,
      "Ġprotect": 3021,
      "Ġ21": 3022,
      "Ġfill": 3023,
      "Ġphot": 3024,
      "Ġ22": 3025,
      "Give": 3026,
      "ĠWhy": 3027,
      "Ġ``": 3028,
      "UT": 3029,
      "cher": 3030,
      "yle": 3031,
      "ĠIN": 3032,
      "Ġgod": 3033,
      "ume": 3034,
      "Ġdoctor": 3035,
      "Ġclaim": 3036,
      "Ġfre": 3037,
      "Ġfish": 3038,
      "Ġstage": 3039,
      "Ġtelling": 3040,
      "Ġsitting": 3041,
      "Ġfloor": 3042,
      "ĠGood": 3043,
      "ĠJust": 3044,
      "Ġelection": 3045,
      "Ġbeat": 3046,
      "erve": 3047,
      "Ġmid": 3048,
      "ĠPeter": 3049,
      "Ġcorn": 3050,
      "Ġmult": 3051,
      "Ġviol": 3052,
      "field": 3053,
      "Ã¼": 3054,
      "uty": 3055,
      "ĠMad": 3056,
      "Ġsoft": 3057,
      "Ġmis": 3058,
      "From": 3059,
      "omes": 3060,
      "Ġletter": 3061,
      "Ġdrug": 3062,
      "ĠSen": 3063,
      "Ġslow": 3064,
      "Ġahead": 3065,
      "rain": 3066,
      "Ġsett": 3067,
      "upp": 3068,
      "Ġgentle": 3069,
      "ĠWilliam": 3070,
      "ression": 3071,
      "Ġmeeting": 3072,
      "Ġ2011": 3073,
      "Ġtotal": 3074,
      "Ġcrazy": 3075,
      "erence": 3076,
      "ran": 3077,
      "Ġspir": 3078,
      "ishing": 3079,
      "Ġdeg": 3080,
      "esus": 3081,
      "Ġdrive": 3082,
      "Ġ2012": 3083,
      "Ġmaster": 3084,
      "Ġaut": 3085,
      "Ġeconom": 3086,
      "Ġglad": 3087,
      "ĠPrince": 3088,
      "Ġbeginning": 3089,
      "Ġ23": 3090,
      "ĠSe": 3091,
      "Ġintrodu": 3092,
      "Ġoriginal": 3093,
      "arth": 3094,
      "pecially": 3095,
      "Ġmad": 3096,
      "ĠJames": 3097,
      "Ġself": 3098,
      "Ġsad": 3099,
      "ago": 3100,
      "Ġmeant": 3101,
      "AC": 3102,
      "Bl": 3103,
      "Really": 3104,
      "THE": 3105,
      "amm": 3106,
      "ocked": 3107,
      "Ġstudents": 3108,
      "Ġinn": 3109,
      "Ġsick": 3110,
      "was": 3111,
      "ĠIT": 3112,
      "oly": 3113,
      "oyal": 3114,
      "Ġforward": 3115,
      "HAT": 3116,
      "Ġroll": 3117,
      "God": 3118,
      "Ġforce": 3119,
      "Ġthou": 3120,
      "Ġsubject": 3121,
      "Ġrespons": 3122,
      "Ġbag": 3123,
      "Ġdisapp": 3124,
      "Ġcatch": 3125,
      "oming": 3126,
      "Ġstick": 3127,
      "Ġfeat": 3128,
      "Ġgiving": 3129,
      "Ġkey": 3130,
      "Ġbull": 3131,
      "Ġdoll": 3132,
      "hem": 3133,
      "Ġaccount": 3134,
      "inger": 3135,
      "Ġstars": 3136,
      "ires": 3137,
      "Ġmention": 3138,
      "Ġmunicipality": 3139,
      "Ġnon": 3140,
      "Ġpolic": 3141,
      "Ġleaving": 3142,
      "Ġant": 3143,
      "ĠHowever": 3144,
      "ĠMor": 3145,
      "Ġcirc": 3146,
      "Somet": 3147,
      "Ġforest": 3148,
      "Ġexcept": 3149,
      "Ġmarket": 3150,
      "iled": 3151,
      "Ġcause": 3152,
      "road": 3153,
      "olly": 3154,
      "bye": 3155,
      "Ġhoney": 3156,
      "Ġfrog": 3157,
      "Ġrelig": 3158,
      "Ġcertainly": 3159,
      "Ġmatch": 3160,
      "Ġlose": 3161,
      "ĠMon": 3162,
      "ĠMus": 3163,
      "Ġclos": 3164,
      "Ġquickly": 3165,
      "13": 3166,
      "ĠMed": 3167,
      "Ġrelation": 3168,
      "medi": 3169,
      "Ġsimilar": 3170,
      "Ġalive": 3171,
      "ĠEast": 3172,
      "rave": 3173,
      "iment": 3174,
      "Ġburn": 3175,
      "Ġneigh": 3176,
      "By": 3177,
      "light": 3178,
      "het": 3179,
      "Ġum": 3180,
      "udd": 3181,
      "ĠFrank": 3182,
      "AND": 3183,
      "Ġbill": 3184,
      "Ġcool": 3185,
      "ya": 3186,
      "anch": 3187,
      "upid": 3188,
      "Ġdinner": 3189,
      "De": 3190,
      "Listen": 3191,
      "obert": 3192,
      "Ġspecies": 3193,
      "ĠSer": 3194,
      "Ġstru": 3195,
      "aven": 3196,
      "Ġcommunity": 3197,
      "Ġwindow": 3198,
      "Ġident": 3199,
      "Ġgrad": 3200,
      "Ġcomb": 3201,
      "ĠSch": 3202,
      "Ġchurch": 3203,
      "urity": 3204,
      "Ġquiet": 3205,
      "friend": 3206,
      "Ġobs": 3207,
      "AL": 3208,
      "Ġtowards": 3209,
      "ĠTown": 3210,
      "Ġprofessional": 3211,
      "Ġmater": 3212,
      "Ġnet": 3213,
      "Ġnecess": 3214,
      "Ġproduct": 3215,
      "Ġbelong": 3216,
      "Man": 3217,
      "Ġener": 3218,
      "Ġ2021": 3219,
      "iced": 3220,
      "ĠTex": 3221,
      "Ġprince": 3222,
      "Ġfollowed": 3223,
      "Ġx": 3224,
      "ĠSan": 3225,
      "Ġyours": 3226,
      "just": 3227,
      "ises": 3228,
      "ville": 3229,
      "bert": 3230,
      "cast": 3231,
      "aining": 3232,
      "ĠEn": 3233,
      "Ġmass": 3234,
      "Ġfac": 3235,
      "rian": 3236,
      "Ġprep": 3237,
      "Ne": 3238,
      "berg": 3239,
      "ĠRoman": 3240,
      "Nothing": 3241,
      "Ġfund": 3242,
      "Ġ26": 3243,
      "ĠCour": 3244,
      "ĠCor": 3245,
      "50": 3246,
      "str": 3247,
      "wood": 3248,
      "rican": 3249,
      "ius": 3250,
      "ĠGeneral": 3251,
      "ĠDemocr": 3252,
      "Ġtravel": 3253,
      "Ġbene": 3254,
      "ĠRich": 3255,
      "Ġcaught": 3256,
      "Ġfem": 3257,
      "Ġwhose": 3258,
      "Ġinteresting": 3259,
      "Ġstanding": 3260,
      "isc": 3261,
      "Ġcommune": 3262,
      "Ġquestions": 3263,
      "Ġtyp": 3264,
      "uge": 3265,
      "Ġenjoy": 3266,
      "Ġsepar": 3267,
      "ĠTV": 3268,
      "Ġactor": 3269,
      "Ġfear": 3270,
      "Even": 3271,
      "ĠEuropean": 3272,
      "Ġhost": 3273,
      "ams": 3274,
      "Ġdecl": 3275,
      "Ġfamous": 3276,
      "Sp": 3277,
      "Ġdirector": 3278,
      "Ġaction": 3279,
      "Ġbreat": 3280,
      "Me": 3281,
      "hood": 3282,
      "Ġindivid": 3283,
      "ĠDavid": 3284,
      "TER": 3285,
      "Ġanymore": 3286,
      "Ã¶": 3287,
      "Ġmoving": 3288,
      "Ġinvolved": 3289,
      "Ġpark": 3290,
      "orthern": 3291,
      "ĠNow": 3292,
      "Ġlie": 3293,
      "Ġproduced": 3294,
      "cuse": 3295,
      "gress": 3296,
      "ĠWho": 3297,
      "orts": 3298,
      "Ġide": 3299,
      "arden": 3300,
      "gar": 3301,
      "Ġcand": 3302,
      "Ġexperience": 3303,
      "ocks": 3304,
      "rect": 3305,
      "Ġ28": 3306,
      "John": 3307,
      "ply": 3308,
      "cell": 3309,
      "ĠCo": 3310,
      "Ġwide": 3311,
      "outhern": 3312,
      "Ġ27": 3313,
      "200": 3314,
      "Ġteacher": 3315,
      "Ġdaddy": 3316,
      "ĠTexas": 3317,
      "ĠDep": 3318,
      "Tr": 3319,
      "Ġgames": 3320,
      "Ġdance": 3321,
      "Ġ2008": 3322,
      "erry": 3323,
      "Ġfle": 3324,
      "Ġhat": 3325,
      "Ġdate": 3326,
      "Ġplaces": 3327,
      "minist": 3328,
      "hic": 3329,
      "Ġconsider": 3330,
      "Ġbroad": 3331,
      "nes": 3332,
      "Ġwriting": 3333,
      "Ġpeace": 3334,
      "omas": 3335,
      "cious": 3336,
      "Ġrid": 3337,
      "Ġcolor": 3338,
      "ĠGl": 3339,
      "ĠII": 3340,
      "Ġearli": 3341,
      "Ġstrange": 3342,
      "don": 3343,
      "FF": 3344,
      "ining": 3345,
      "ĠThese": 3346,
      "ength": 3347,
      "Ġallowed": 3348,
      "ĠLa": 3349,
      "Br": 3350,
      "Ġsituation": 3351,
      "ography": 3352,
      "Ġpaid": 3353,
      "ming": 3354,
      "Ġfinally": 3355,
      "Ġsimple": 3356,
      "Ab": 3357,
      "Ġmiles": 3358,
      "Ġsurv": 3359,
      "Ġeast": 3360,
      "Ġstopped": 3361,
      "Ġequal": 3362,
      "Ġprim": 3363,
      "ashington": 3364,
      "Ġannounced": 3365,
      "Ġmach": 3366,
      "ĠCanada": 3367,
      "Ġgrew": 3368,
      "oseph": 3369,
      "ĠĠĠĠĠĠĠĠĠĠĠĠĠĠĠĠ": 3370,
      "Ġterms": 3371,
      "AP": 3372,
      "Ġtax": 3373,
      "ounded": 3374,
      "Ġindust": 3375,
      "ĠMex": 3376,
      "ĠAre": 3377,
      "Ġparts": 3378,
      "Ġshows": 3379,
      "Ġsuppose": 3380,
      "ĠSam": 3381,
      "Ġalright": 3382,
      "Pl": 3383,
      "ĠOK": 3384,
      "fl": 3385,
      "iction": 3386,
      "Ġappoint": 3387,
      "ĠBE": 3388,
      "ĠPal": 3389,
      "mas": 3390,
      "resh": 3391,
      "Ġ2009": 3392,
      "olic": 3393,
      "ĠBy": 3394,
      "ĠHey": 3395,
      "bour": 3396,
      "Ġimmedi": 3397,
      "30": 3398,
      "iny": 3399,
      "Ġemploy": 3400,
      "ĠAnge": 3401,
      "Ġneeded": 3402,
      "ging": 3403,
      "Our": 3404,
      "uses": 3405,
      "Ġmilitary": 3406,
      "Ġamount": 3407,
      "Ġasking": 3408,
      "Ġcard": 3409,
      "isse": 3410,
      "Ġbud": 3411,
      "ĠHen": 3412,
      "Ġplays": 3413,
      "Ġpack": 3414,
      "ĠWith": 3415,
      "Ġcommand": 3416,
      "Ġspent": 3417,
      "Ġlargest": 3418,
      "ĠMark": 3419,
      "Ġaward": 3420,
      "inite": 3421,
      "Ġarch": 3422,
      "Ġperm": 3423,
      "burg": 3424,
      "Ġseeing": 3425,
      "Ġeducation": 3426,
      "ĠReg": 3427,
      "ĠSte": 3428,
      "Ġresearch": 3429,
      "ĠQueen": 3430,
      "Ġ2006": 3431,
      "ĠGreat": 3432,
      "Ġfounded": 3433,
      "!âĢĿ": 3434,
      "Ġfavor": 3435,
      "istic": 3436,
      "Ġver": 3437,
      "ĠCr": 3438,
      "ĠLet": 3439,
      "Ġanybody": 3440,
      "Ġways": 3441,
      "Ġconnect": 3442,
      "ns": 3443,
      "Ġbase": 3444,
      "ences": 3445,
      "oph": 3446,
      "irgin": 3447,
      "Ġstudy": 3448,
      "ĠQu": 3449,
      "Ġofficial": 3450,
      "Ġradio": 3451,
      "inary": 3452,
      "ĠChar": 3453,
      "Ġclothes": 3454,
      "Ġstreet": 3455,
      "ĠMary": 3456,
      "rem": 3457,
      "gu": 3458,
      "ĠBlack": 3459,
      "Ġdress": 3460,
      "Ġcoff": 3461,
      "rel": 3462,
      "Ġenergy": 3463,
      "Ġmaterial": 3464,
      "ners": 3465,
      "ero": 3466,
      "Ġdig": 3467,
      "alian": 3468,
      "aker": 3469,
      "Ġvisit": 3470,
      "olutely": 3471,
      "ites": 3472,
      "olf": 3473,
      "ruction": 3474,
      "ston": 3475,
      "reek": 3476,
      "ĠChampionship": 3477,
      "ĠWhere": 3478,
      "Ġstore": 3479,
      "asons": 3480,
      ".'": 3481,
      "ki": 3482,
      "ĠThank": 3483,
      "atives": 3484,
      "Ġnatural": 3485,
      "Ġmarry": 3486,
      "edy": 3487,
      "Ġconv": 3488,
      "Ġnovel": 3489,
      "ential": 3490,
      "istrict": 3491,
      "âĢĶ": 3492,
      "itional": 3493,
      "Ġfort": 3494,
      "ĠAir": 3495,
      "ĠBen": 3496,
      "istory": 3497,
      "Ġrefer": 3498,
      "Ġarrest": 3499,
      "Ġaccident": 3500,
      "cul": 3501,
      "play": 3502,
      "Ġreplied": 3503,
      "ensive": 3504,
      "Ġbroke": 3505,
      "Ġattempt": 3506,
      "ibility": 3507,
      "Ġhate": 3508,
      "ĠEm": 3509,
      "Ġdistribut": 3510,
      "Which": 3511,
      "ka": 3512,
      "ĠChurch": 3513,
      "Ġcompan": 3514,
      "ala": 3515,
      "ĠAc": 3516,
      "Ġincluded": 3517,
      "ĠMart": 3518,
      "Ġenc": 3519,
      "Ġcountries": 3520,
      "Ġfoc": 3521,
      "Qu": 3522,
      "ĠON": 3523,
      "sych": 3524,
      "Ġwed": 3525,
      "Ġscient": 3526,
      "ĠDad": 3527,
      "IM": 3528,
      "itude": 3529,
      "Ġmodel": 3530,
      "Ġcivil": 3531,
      "Ġvarious": 3532,
      "AD": 3533,
      "ĠInternational": 3534,
      "Ġsour": 3535,
      "Ġbought": 3536,
      "ether": 3537,
      "ĠRed": 3538,
      "ĠâĢĺ": 3539,
      "Ġstupid": 3540,
      "Ġlo": 3541,
      ".,": 3542,
      "Ġaud": 3543,
      "Ġfarm": 3544,
      "Ġloved": 3545,
      "Gr": 3546,
      "Ġ50": 3547,
      "Ġdiscuss": 3548,
      "ĠBo": 3549,
      "Ġpoints": 3550,
      "ĠUnion": 3551,
      "back": 3552,
      "Ġcaused": 3553,
      "rav": 3554,
      "Ġnumbers": 3555,
      "ĠME": 3556,
      "rica": 3557,
      "Ġsight": 3558,
      "ani": 3559,
      "Ġtitle": 3560,
      "Ġprivate": 3561,
      "LD": 3562,
      "Two": 3563,
      "Ġindeed": 3564,
      "Ġsearch": 3565,
      "Ġvalue": 3566,
      "kn": 3567,
      "pper": 3568,
      "Ġrob": 3569,
      "Ġtick": 3570,
      "ify": 3571,
      "Ġjoined": 3572,
      "Ġarr": 3573,
      "Ġscience": 3574,
      "Ġboard": 3575,
      "ĠSome": 3576,
      "ĠWashington": 3577,
      "Pro": 3578,
      "Ġcomputer": 3579,
      "YOU": 3580,
      "ĠIts": 3581,
      "iles": 3582,
      "Ġglass": 3583,
      "ux": 3584,
      "Ġplant": 3585,
      "oid": 3586,
      "Her": 3587,
      "onel": 3588,
      "Ġarmy": 3589,
      "Ġpers": 3590,
      "Ġcarried": 3591,
      "gent": 3592,
      "Ġdrop": 3593,
      "Ġblow": 3594,
      "year": 3595,
      "Ġheavy": 3596,
      "Ġquar": 3597,
      "board": 3598,
      "mon": 3599,
      "Ġbattle": 3600,
      "Ġfool": 3601,
      "bing": 3602,
      "Ġ2007": 3603,
      "eep": 3604,
      "OS": 3605,
      "Ġwear": 3606,
      "Ġcompletely": 3607,
      "Ġavail": 3608,
      "Ġpalace": 3609,
      "ĠMichael": 3610,
      "ĠBer": 3611,
      "Would": 3612,
      "Ġwild": 3613,
      "Ġinternational": 3614,
      "Ġpromise": 3615,
      "Ġcontract": 3616,
      "aign": 3617,
      "sociation": 3618,
      "Ġpersonal": 3619,
      "Ġdestroy": 3620,
      "Ġrelationship": 3621,
      "inct": 3622,
      "ĠLi": 3623,
      "Ġarms": 3624,
      "ournal": 3625,
      "Ġshop": 3626,
      "Ġegg": 3627,
      "Ġdoc": 3628,
      "ĠKh": 3629,
      "ida": 3630,
      "Ġleader": 3631,
      "Ġaffect": 3632,
      "incip": 3633,
      "11": 3634,
      "Ġtired": 3635,
      "sec": 3636,
      "Ġanimals": 3637,
      "Ġinj": 3638,
      "Ġlength": 3639,
      "Ġstruct": 3640,
      "Ġdevelopment": 3641,
      "anish": 3642,
      "ability": 3643,
      "Ã³": 3644,
      "Ġevidence": 3645,
      "Ġcontinued": 3646,
      "Ġpercent": 3647,
      "ground": 3648,
      "face": 3649,
      "good": 3650,
      "duct": 3651,
      "Ġwel": 3652,
      "ĠAward": 3653,
      "Ġ29": 3654,
      "asket": 3655,
      "ĠCome": 3656,
      "ota": 3657,
      "did": 3658,
      "ĠNor": 3659,
      "Ġtail": 3660,
      "Ġnature": 3661,
      "Ġisland": 3662,
      "Ġconside": 3663,
      "ittee": 3664,
      "urt": 3665,
      "Ġalthough": 3666,
      "Ġconsidered": 3667,
      "Very": 3668,
      "Ġinflu": 3669,
      "ĠParis": 3670,
      "Ġwest": 3671,
      "wise": 3672,
      "Ġsoul": 3673,
      "Ġthreat": 3674,
      "aves": 3675,
      "ĠYour": 3676,
      "ĠComp": 3677,
      "ĠAnt": 3678,
      "ĠStreet": 3679,
      "ension": 3680,
      "asc": 3681,
      "anced": 3682,
      "hest": 3683,
      "Ġmix": 3684,
      "Ġindepend": 3685,
      "Ġcollect": 3686,
      "ĠBel": 3687,
      "antly": 3688,
      "Ġet": 3689,
      "iling": 3690,
      "ELL": 3691,
      "Ġwarm": 3692,
      "ĠĠĠĠĠĠ": 3693,
      "Ġthanks": 3694,
      "Ġbow": 3695,
      "ĠPort": 3696,
      "Ġshowed": 3697,
      "Ġinvestig": 3698,
      "Ġhistor": 3699,
      "chen": 3700,
      "isk": 3701,
      "asing": 3702,
      "ĠCup": 3703,
      "Ġwonderful": 3704,
      "ustom": 3705,
      "Ġplus": 3706,
      "Ġmarriage": 3707,
      "Ġcollege": 3708,
      "ĠÂ": 3709,
      "Ġdoubt": 3710,
      "Ġespecially": 3711,
      "ĠSu": 3712,
      "Ġvot": 3713,
      "rig": 3714,
      "Ġice": 3715,
      "Ġgives": 3716,
      "Ġboat": 3717,
      "Ġtrees": 3718,
      "ĠPrincess": 3719,
      "lo": 3720,
      "alley": 3721,
      "wr": 3722,
      "Ġversion": 3723,
      "Ġinit": 3724,
      "Ġestabl": 3725,
      "Ġwatching": 3726,
      "Sure": 3727,
      "Ġshare": 3728,
      "which": 3729,
      "ĠCourt": 3730,
      "ively": 3731,
      "ĠChristian": 3732,
      "Ġmountain": 3733,
      "KE": 3734,
      "Ġcup": 3735,
      "Ġrich": 3736,
      "raw": 3737,
      "terday": 3738,
      "Ġrail": 3739,
      "Ġthirty": 3740,
      "ria": 3741,
      "Ġchoice": 3742,
      "Ġmodern": 3743,
      "ĠHall": 3744,
      "Ġshouldn": 3745,
      "house": 3746,
      "ushed": 3747,
      "ĠAlex": 3748,
      "Ġareas": 3749,
      "Ġliter": 3750,
      "amn": 3751,
      "ĠRussian": 3752,
      "inn": 3753,
      "sey": 3754,
      "Ġrain": 3755,
      "Does": 3756,
      "Ġepis": 3757,
      "Ġtour": 3758,
      "ils": 3759,
      "Ġpurp": 3760,
      "Ġsal": 3761,
      "ĠJew": 3762,
      "ĠEarth": 3763,
      "ĠOkay": 3764,
      "Ġdeterm": 3765,
      "Ġexec": 3766,
      "Ġcharge": 3767,
      "Ġneck": 3768,
      "ĠCong": 3769,
      "acing": 3770,
      "Per": 3771,
      "ĠItalian": 3772,
      "ĠCouncil": 3773,
      "ĠSov": 3774,
      "Ġpray": 3775,
      "Ġfunction": 3776,
      "ĠMont": 3777,
      "Ġnobody": 3778,
      "Ġclosed": 3779,
      "Ġdifference": 3780,
      "ique": 3781,
      "rief": 3782,
      "ederal": 3783,
      "set": 3784,
      "Ġattention": 3785,
      "Ġimpro": 3786,
      "Ġreach": 3787,
      "Ġhelped": 3788,
      "Ġsinger": 3789,
      "Sir": 3790,
      "action": 3791,
      "ledge": 3792,
      "Ġnearly": 3793,
      "Ġ2000": 3794,
      "azing": 3795,
      "Ġelected": 3796,
      "lim": 3797,
      "ĠSoviet": 3798,
      ";&": 3799,
      "astic": 3800,
      "ological": 3801,
      "Ġfellow": 3802,
      "Ġwat": 3803,
      "Ġnose": 3804,
      "Sc": 3805,
      "aries": 3806,
      "Ġ190": 3807,
      "Ġsuddenly": 3808,
      "elve": 3809,
      "Ġsomewhere": 3810,
      "annel": 3811,
      "Ġ2004": 3812,
      "Ġbur": 3813,
      "Ġspirit": 3814,
      "Ġ2005": 3815,
      "ĠSir": 3816,
      "Excuse": 3817,
      "Ġyouth": 3818,
      "elebr": 3819,
      "ĠCollege": 3820,
      "ette": 3821,
      "adian": 3822,
      "Ġsounds": 3823,
      "ancy": 3824,
      "antic": 3825,
      "osing": 3826,
      "useum": 3827,
      "Ġtemper": 3828,
      "ĠJapanese": 3829,
      "Ġgas": 3830,
      "Ġspend": 3831,
      "Ġhappening": 3832,
      "Ġcab": 3833,
      "Ġrights": 3834,
      "cing": 3835,
      "Ġsens": 3836,
      "Ġredu": 3837,
      "ĠBill": 3838,
      "Ġavailable": 3839,
      "Um": 3840,
      "pro": 3841,
      "noon": 3842,
      "Ġemb": 3843,
      "Ġtalked": 3844,
      "ĠRob": 3845,
      "ords": 3846,
      "ura": 3847,
      "EL": 3848,
      "osition": 3849,
      "apers": 3850,
      "Ġbottom": 3851,
      "ĠAustralia": 3852,
      "ĠLouis": 3853,
      "ĠPet": 3854,
      "Ġcancer": 3855,
      "/&": 3856,
      "Ġhigher": 3857,
      "Ġtraining": 3858,
      "Ġbirthday": 3859,
      "ij": 3860,
      "Ġcow": 3861,
      "ĠAND": 3862,
      "Ġlying": 3863,
      "inese": 3864,
      "ĠFrom": 3865,
      "Ġsimply": 3866,
      "ĠST": 3867,
      "Ġ40": 3868,
      "Am": 3869,
      "apt": 3870,
      "under": 3871,
      "ators": 3872,
      "Ġcy": 3873,
      "Ġbrain": 3874,
      "Ġcases": 3875,
      "Ġhors": 3876,
      "Ġinterested": 3877,
      "ĠPat": 3878,
      "Ġmanage": 3879,
      "ĠTHAT": 3880,
      "ees": 3881,
      "king": 3882,
      "uke": 3883,
      "hod": 3884,
      "Ġdetail": 3885,
      "ansas": 3886,
      "ĠMa": 3887,
      "pen": 3888,
      "Ġbes": 3889,
      "Ġnor": 3890,
      "Ġbelow": 3891,
      "Ġformed": 3892,
      "Ġearlier": 3893,
      "Ġenv": 3894,
      "uts": 3895,
      "volution": 3896,
      "Ġfat": 3897,
      "ondisse": 3898,
      "ĠChe": 3899,
      "Ġnames": 3900,
      "Ġmovies": 3901,
      "bon": 3902,
      "ita": 3903,
      "ĠSim": 3904,
      "isted": 3905,
      "ously": 3906,
      "Ġdefe": 3907,
      "Ġyellow": 3908,
      "Ġeff": 3909,
      "ĠAfrica": 3910,
      "Ġcoffee": 3911,
      "ccording": 3912,
      "Ġtend": 3913,
      "chie": 3914,
      "Ġofficer": 3915,
      "Ġentered": 3916,
      "Ġspeed": 3917,
      "Ġmeaning": 3918,
      "Ġdecision": 3919,
      "shire": 3920,
      "Ġtea": 3921,
      "ests": 3922,
      "ĠCaptain": 3923,
      "asion": 3924,
      "ibly": 3925,
      "Ġopport": 3926,
      "Ġcrime": 3927,
      "Ġadded": 3928,
      "ĠFranc": 3929,
      "icago": 3930,
      "ĠScott": 3931,
      "Ġprincess": 3932,
      "Ġmessage": 3933,
      "ession": 3934,
      "Ġlovely": 3935,
      "Ġexplain": 3936,
      "People": 3937,
      "iday": 3938,
      "oring": 3939,
      "Ġsummer": 3940,
      "Ġstates": 3941,
      "Ġpoet": 3942,
      "Ġcapt": 3943,
      "esty": 3944,
      "Ġcalling": 3945,
      "Ġsize": 3946,
      "Ġputting": 3947,
      "Ġended": 3948,
      "kin": 3949,
      "ilities": 3950,
      "oop": 3951,
      "ali": 3952,
      "Ġsuit": 3953,
      "Ġmurder": 3954,
      "aste": 3955,
      "ademy": 3956,
      "ĠRobert": 3957,
      "ĠOly": 3958,
      "Ġdise": 3959,
      "Ġpig": 3960,
      "Ġfaith": 3961,
      "Ġhall": 3962,
      "ĠDistrict": 3963,
      "Ġprice": 3964,
      "Ġmultip": 3965,
      "his": 3966,
      "Ġextra": 3967,
      "Ġweap": 3968,
      "Ġweren": 3969,
      "tered": 3970,
      "Ġnomin": 3971,
      "Ġbye": 3972,
      "Ġchief": 3973,
      "iana": 3974,
      "Ġbrothers": 3975,
      "Ġimmediately": 3976,
      "order": 3977,
      "Ġbroken": 3978,
      "Ġspoke": 3979,
      "Ġschools": 3980,
      "Ġhous": 3981,
      "ĠGrand": 3982,
      "Ġdemand": 3983,
      "Ġcampaign": 3984,
      "Ġkick": 3985,
      "TH": 3986,
      "ification": 3987,
      "ĠCarol": 3988,
      "Ġfit": 3989,
      "Ġhar": 3990,
      "Ġ1990": 3991,
      "phone": 3992,
      "ĠChina": 3993,
      "utch": 3994,
      "Ġur": 3995,
      "ĠSum": 3996,
      "Ġarrived": 3997,
      "Ġnormal": 3998,
      "Ġnone": 3999,
      "uzz": 4000,
      "Ġoffer": 4001,
      "sequ": 4002,
      "ĠAct": 4003,
      "ĠMil": 4004,
      "Ġaver": 4005,
      "Ġcelebr": 4006,
      "Ġestablished": 4007,
      "Ġservices": 4008,
      "ĠRepublic": 4009,
      "Ġlower": 4010,
      "Ġgroups": 4011,
      "Ġstone": 4012,
      "ights": 4013,
      "Ġworse": 4014,
      "tt": 4015,
      "Ġride": 4016,
      "Ġreview": 4017,
      "Ġproduction": 4018,
      "Ġlawy": 4019,
      "ossible": 4020,
      "ĠMag": 4021,
      "BC": 4022,
      "inter": 4023,
      "Ġbell": 4024,
      "ĠGold": 4025,
      "Dr": 4026,
      "Ġsnow": 4027,
      "Ġcreate": 4028,
      "hold": 4029,
      "Ġden": 4030,
      "ĠTur": 4031,
      "craft": 4032,
      "semb": 4033,
      "Ġfourth": 4034,
      "ĠPri": 4035,
      "ems": 4036,
      "Ġhun": 4037,
      "ĠOf": 4038,
      "Was": 4039,
      "ĠEr": 4040,
      "Ġtext": 4041,
      "Ġ186": 4042,
      "atory": 4043,
      "ids": 4044,
      "ĠJer": 4045,
      "Ġimm": 4046,
      "Ġcareful": 4047,
      "Dad": 4048,
      "Ġbi": 4049,
      "ena": 4050,
      "Ġwedding": 4051,
      "Ġscene": 4052,
      "otten": 4053,
      "199": 4054,
      "andy": 4055,
      "Ġskin": 4056,
      "Ġmovement": 4057,
      "Ġsite": 4058,
      "arily": 4059,
      "ĠMal": 4060,
      "ĠVirgin": 4061,
      "ĠIS": 4062,
      "ĠItaly": 4063,
      "ĠArmy": 4064,
      "Ġregular": 4065,
      "Ġafternoon": 4066,
      "ste": 4067,
      "Ġfinish": 4068,
      "Ġstudio": 4069,
      "Ġhero": 4070,
      "ĠJim": 4071,
      "ini": 4072,
      "Ġoccur": 4073,
      "Ġjoin": 4074,
      "Ġdata": 4075,
      "Ġagree": 4076,
      "erc": 4077,
      "Ġadminist": 4078,
      "Only": 4079,
      "Ġund": 4080,
      "Ġstarting": 4081,
      "ĠChristmas": 4082,
      "osh": 4083,
      "Ġcontact": 4084,
      "Ġdeli": 4085,
      "Ġwriter": 4086,
      "Ġchanges": 4087,
      "pping": 4088,
      "ĠRes": 4089,
      "Ġnetwork": 4090,
      "tr": 4091,
      "GHT": 4092,
      "fast": 4093,
      "aped": 4094,
      "ancing": 4095,
      "ĠHenry": 4096,
      "rag": 4097,
      "lor": 4098,
      "chan": 4099,
      "Ġcastle": 4100,
      "ĠOlymp": 4101,
      "Ġwalked": 4102,
      "Ġparticip": 4103,
      "arling": 4104,
      "Ġdeveloped": 4105,
      "liament": 4106,
      "Ġgarden": 4107,
      "isf": 4108,
      "Ġpath": 4109,
      "ĠIll": 4110,
      "Ġpieces": 4111,
      "oma": 4112,
      "usion": 4113,
      "oves": 4114,
      "ables": 4115,
      "Ġpsych": 4116,
      "yond": 4117,
      "Mhm": 4118,
      "Ġwit": 4119,
      "Ġsociety": 4120,
      "Ġdeb": 4121,
      "Ġlikely": 4122,
      "Ġwa": 4123,
      "ĠBob": 4124,
      "ubb": 4125,
      "VER": 4126,
      "za": 4127,
      "ĠÃ": 4128,
      "Ġthee": 4129,
      "Ġwelcome": 4130,
      "imate": 4131,
      "First": 4132,
      "appy": 4133,
      "Ġemer": 4134,
      "ĠDO": 4135,
      "Ġchick": 4136,
      "Ġpun": 4137,
      "Ġregard": 4138,
      "Ġlif": 4139,
      "Ġpage": 4140,
      "Ġbright": 4141,
      "Ġdistance": 4142,
      "Ġ1980": 4143,
      "oles": 4144,
      "icro": 4145,
      "lement": 4146,
      "Ġspread": 4147,
      "Ġtruck": 4148,
      "Ġtherefore": 4149,
      "Ġ189": 4150,
      "Ġlearned": 4151,
      "Ġprincip": 4152,
      "Ġraised": 4153,
      "Ġlines": 4154,
      "Ġsilver": 4155,
      "Ġhuge": 4156,
      "Ġevents": 4157,
      "NA": 4158,
      "Ġcred": 4159,
      "Ġfeed": 4160,
      "ĠSmith": 4161,
      "Ġlog": 4162,
      "Ġfault": 4163,
      "iant": 4164,
      "yr": 4165,
      "Ġfifty": 4166,
      "Ġmaid": 4167,
      "razil": 4168,
      "Ġ2002": 4169,
      "Ġstreng": 4170,
      "Ġcomfort": 4171,
      "ĠProv": 4172,
      "Ġcamer": 4173,
      "Ġactress": 4174,
      "nie": 4175,
      "ĠCanadian": 4176,
      "Ġterrible": 4177,
      "ĠGO": 4178,
      "Ġcenter": 4179,
      "hab": 4180,
      "uit": 4181,
      "itation": 4182,
      "Ġstudent": 4183,
      "Ġsmell": 4184,
      "Ġhide": 4185,
      "ĠSpanish": 4186,
      "Ġcorner": 4187,
      "Fuck": 4188,
      "ST": 4189,
      "iot": 4190,
      "Ġyesterday": 4191,
      "Ġspl": 4192,
      "initely": 4193,
      "Ġcoach": 4194,
      "Ġsevent": 4195,
      "ĠTownship": 4196,
      "RO": 4197,
      "Ġspecific": 4198,
      "Ġgoal": 4199,
      "ĠDel": 4200,
      "Ġcrow": 4201,
      "ĠRoyal": 4202,
      "Ġintell": 4203,
      "using": 4204,
      "Ġassist": 4205,
      "Ġcoun": 4206,
      "Ġder": 4207,
      "Ġlegs": 4208,
      "Ġimagine": 4209,
      "down": 4210,
      "ona": 4211,
      "ĠChinese": 4212,
      "ĠSal": 4213,
      "ips": 4214,
      "Ġharm": 4215,
      "Ġ2003": 4216,
      "ours": 4217,
      "ĠKingdom": 4218,
      "ĠChicago": 4219,
      "ĠScot": 4220,
      "Ġreve": 4221,
      "Ġmoon": 4222,
      "Ġduck": 4223,
      "Ġbeyond": 4224,
      "urb": 4225,
      "iel": 4226,
      "ĠJesus": 4227,
      "Ġsigned": 4228,
      "Ġdouble": 4229,
      "Ġhorses": 4230,
      "erved": 4231,
      "Ġscared": 4232,
      "Hel": 4233,
      "gl": 4234,
      "Ġbusy": 4235,
      "Ġpositive": 4236,
      "anta": 4237,
      "Ġbath": 4238,
      "ĠDuring": 4239,
      "ĠWhite": 4240,
      "Ġboss": 4241,
      "Ġrelease": 4242,
      "Ġfemale": 4243,
      "Ġsoldiers": 4244,
      "à¸": 4245,
      "Ġeating": 4246,
      "aph": 4247,
      "Ġcustom": 4248,
      "Ġaccess": 4249,
      "lear": 4250,
      "ental": 4251,
      "Ġrule": 4252,
      "Ġchall": 4253,
      "vert": 4254,
      "Ġshoes": 4255,
      "Ġru": 4256,
      "ĠCharl": 4257,
      "Ġmor": 4258,
      "Ġrate": 4259,
      "Ġnewsp": 4260,
      "ĠDemocratic": 4261,
      "25": 4262,
      "Gu": 4263,
      "Ġdiscovered": 4264,
      "anda": 4265,
      "oday": 4266,
      "ĠAcademy": 4267,
      "Ġpred": 4268,
      "Ġess": 4269,
      "Ġcovered": 4270,
      "Ġconvers": 4271,
      "Ġpressure": 4272,
      "Ġmilk": 4273,
      "Ġpounds": 4274,
      "Ġvote": 4275,
      "Che": 4276,
      "Ã¤": 4277,
      "Ġtall": 4278,
      "Ad": 4279,
      "Ã¨": 4280,
      "Ġ2001": 4281,
      "oken": 4282,
      "Ġwalking": 4283,
      "Ġthy": 4284,
      "Ġremained": 4285,
      "ĠMac": 4286,
      "Ġacqu": 4287,
      "Ġhonor": 4288,
      "isions": 4289,
      "Ġplaced": 4290,
      "Ġcontinue": 4291,
      "vey": 4292,
      "ĠAfrican": 4293,
      "Ġmagaz": 4294,
      "Bye": 4295,
      "Le": 4296,
      "yl": 4297,
      "Ġstaff": 4298,
      "Ġsongs": 4299,
      "ients": 4300,
      "Ġfirm": 4301,
      "Ġdebut": 4302,
      "Put": 4303,
      "Ġtwelve": 4304,
      "Ġdepend": 4305,
      "Ġsle": 4306,
      "aching": 4307,
      "ishop": 4308,
      "Ġstories": 4309,
      "aine": 4310,
      "Ġsecurity": 4311,
      "Ġaddress": 4312,
      "Ġforces": 4313,
      "ĠBrazil": 4314,
      "rupt": 4315,
      "Ġleaves": 4316,
      "ĠCharles": 4317,
      "known": 4318,
      "ALL": 4319,
      "Ġfol": 4320,
      "Ġ188": 4321,
      "ironment": 4322,
      "Ġpolicy": 4323,
      "Ġhey": 4324,
      "ĠAg": 4325,
      "Ġpractice": 4326,
      "ĠCath": 4327,
      "Ġdegree": 4328,
      "would": 4329,
      "west": 4330,
      "enth": 4331,
      "ĠSun": 4332,
      "ĠSecret": 4333,
      "Ġrose": 4334,
      "Amer": 4335,
      "Ġloss": 4336,
      "Ġmethod": 4337,
      "ĠBro": 4338,
      "idden": 4339,
      "lam": 4340,
      "ĠIsland": 4341,
      "IR": 4342,
      "vere": 4343,
      "oom": 4344,
      "enny": 4345,
      "Ġanimal": 4346,
      "anche": 4347,
      "UN": 4348,
      "Ġleading": 4349,
      "ĠMat": 4350,
      "Ġdrama": 4351,
      "ĠKore": 4352,
      "Ġissue": 4353,
      "Could": 4354,
      "win": 4355,
      "asant": 4356,
      "Ġrout": 4357,
      "Ġtrick": 4358,
      "Ġkit": 4359,
      "----": 4360,
      "Ġholding": 4361,
      "Ġdescribed": 4362,
      "itan": 4363,
      "eless": 4364,
      "hib": 4365,
      "Ġthroughout": 4366,
      "Ġsquare": 4367,
      "Ġdangerous": 4368,
      "Ġbenef": 4369,
      "gged": 4370,
      "History": 4371,
      "UR": 4372,
      "ĠCom": 4373,
      "Ġreading": 4374,
      "Ġflowers": 4375,
      "Ġremain": 4376,
      "rees": 4377,
      "Ġtheory": 4378,
      "Ġcentral": 4379,
      "Ġsky": 4380,
      "Ġgiant": 4381,
      "ĠFin": 4382,
      "Ġnecessary": 4383,
      "abor": 4384,
      "Ġvan": 4385,
      "Ġartic": 4386,
      "Ġhonest": 4387,
      "ĠCongress": 4388,
      "irection": 4389,
      "ĠBur": 4390,
      "Ġ1970": 4391,
      "va": 4392,
      "Ġtwice": 4393,
      "ware": 4394,
      "ictor": 4395,
      "ĠArt": 4396,
      "ourney": 4397,
      "Ġattract": 4398,
      "Ġcru": 4399,
      "Ġmir": 4400,
      "Ġarg": 4401,
      "Ġrecorded": 4402,
      "Ġcompetition": 4403,
      "Ġ(;": 4404,
      "Ġdriving": 4405,
      "eff": 4406,
      "Ġought": 4407,
      "Pr": 4408,
      "uments": 4409,
      "ga": 4410,
      "Ġrepe": 4411,
      "ĠSwed": 4412,
      "Ġdesp": 4413,
      "Ġapart": 4414,
      "hand": 4415,
      "ado": 4416,
      "stairs": 4417,
      "Ġshown": 4418,
      "Ġminus": 4419,
      "Ġbelieved": 4420,
      "Ġjournal": 4421,
      "Ġliked": 4422,
      "Ġangry": 4423,
      "ĠMexico": 4424,
      "Ġbasket": 4425,
      "ĠSat": 4426,
      "igned": 4427,
      "Ġsuccessful": 4428,
      "Ġtar": 4429,
      "Ġtrade": 4430,
      "itar": 4431,
      "ulf": 4432,
      "Ġnotice": 4433,
      "ateg": 4434,
      "ipe": 4435,
      "Ġpock": 4436,
      "ĠRichard": 4437,
      "Ġlaid": 4438,
      "Ġphil": 4439,
      "Ġtro": 4440,
      "Ġcommunic": 4441,
      "Ġrank": 4442,
      "Ġintern": 4443,
      "Ġmedical": 4444,
      "ĠGovernor": 4445,
      "Ġindividual": 4446,
      "comm": 4447,
      "pir": 4448,
      "Ġswim": 4449,
      "Ġaverage": 4450,
      "EC": 4451,
      "Ġcorrect": 4452,
      "Ġble": 4453,
      "Ġblock": 4454,
      "Ġ31": 4455,
      "Ġ187": 4456,
      "ols": 4457,
      "rat": 4458,
      "Ġoil": 4459,
      "Ġgar": 4460,
      "New": 4461,
      "fess": 4462,
      "Ġbound": 4463,
      "Everything": 4464,
      "Ġpurpose": 4465,
      "Ġsand": 4466,
      "Ġachie": 4467,
      "Ġsen": 4468,
      "Ġproperty": 4469,
      "Ġcompl": 4470,
      "Ġlaws": 4471,
      "da": 4472,
      "aled": 4473,
      "Ġmachine": 4474,
      "istan": 4475,
      "Ġaccording": 4476,
      "stitute": 4477,
      "ĠMet": 4478,
      "ĠFirst": 4479,
      "Ġagreed": 4480,
      "Ġobviously": 4481,
      "ograph": 4482,
      "Ġcondition": 4483,
      "Got": 4484,
      "Ġforced": 4485,
      "Ġcandid": 4486,
      "En": 4487,
      "Ġscreen": 4488,
      "Ġbab": 4489,
      "Keep": 4490,
      "mark": 4491,
      "uf": 4492,
      "alled": 4493,
      "Ġren": 4494,
      "Ġspot": 4495,
      "Ġmostly": 4496,
      "war": 4497,
      "Ġpush": 4498,
      "Ġload": 4499,
      "tained": 4500,
      "den": 4501,
      "asy": 4502,
      "Ġknowledge": 4503,
      "22": 4504,
      "Ġfright": 4505,
      "gen": 4506,
      "Ġstorm": 4507,
      "Ġrange": 4508,
      "pty": 4509,
      "Great": 4510,
      "Ġstyle": 4511,
      "ilies": 4512,
      "Ġmm": 4513,
      "Ġcode": 4514,
      "ommy": 4515,
      "40": 4516,
      "Ġut": 4517,
      "vell": 4518,
      "eech": 4519,
      "Ġdry": 4520,
      "Never": 4521,
      "Ġforth": 4522,
      "Ġmedia": 4523,
      "Ġeasily": 4524,
      "Ġdamn": 4525,
      "Rem": 4526,
      "Ġtape": 4527,
      "aug": 4528,
      "isl": 4529,
      "ĠPe": 4530,
      "Ġgradu": 4531,
      "cause": 4532,
      "ora": 4533,
      "ĠMount": 4534,
      "unes": 4535,
      "ĠJoe": 4536,
      "Ġproud": 4537,
      "Ġcars": 4538,
      "Ġbread": 4539,
      "Ġordered": 4540,
      "Ġsac": 4541,
      "arry": 4542,
      "Ġreb": 4543,
      "Ġopening": 4544,
      "Ġlucky": 4545,
      "Ġamb": 4546,
      "izing": 4547,
      "hell": 4548,
      "Ġya": 4549,
      "ĠMartin": 4550,
      "Ġvictim": 4551,
      "ĠLat": 4552,
      "Ġextreme": 4553,
      "Ġlink": 4554,
      "ĠDes": 4555,
      "Ġspring": 4556,
      "Ġslight": 4557,
      "Ġcalls": 4558,
      "Ġ1999": 4559,
      "Ġmagn": 4560,
      "Ġreported": 4561,
      "Con": 4562,
      "Ġqual": 4563,
      "Ġ1960": 4564,
      "asm": 4565,
      "Ġartist": 4566,
      "Ġmissing": 4567,
      "LY": 4568,
      "Since": 4569,
      "thank": 4570,
      "Ġhole": 4571,
      "astern": 4572,
      "....": 4573,
      "ĠJul": 4574,
      "Ġhighest": 4575,
      "Ġfresh": 4576,
      "Ġdisease": 4577,
      "odes": 4578,
      "Ġcoast": 4579,
      "Ġmission": 4580,
      "Ġappointed": 4581,
      "Hold": 4582,
      "Ġbirds": 4583,
      "Ġprint": 4584,
      "Ġuniversity": 4585,
      "etic": 4586,
      "ĠMaj": 4587,
      "ĠLaw": 4588,
      "Ġthus": 4589,
      "utive": 4590,
      "ĠCentral": 4591,
      "Ġabsolutely": 4592,
      "ĠHill": 4593,
      "rael": 4594,
      "Ġstudied": 4595,
      "Ġlawyer": 4596,
      "Ġir": 4597,
      "ĠRec": 4598,
      "Ġfighting": 4599,
      "Ġfrequ": 4600,
      "Ġthrew": 4601,
      "Ġheat": 4602,
      "ores": 4603,
      "Ġescape": 4604,
      "Ġeld": 4605,
      "ĠSund": 4606,
      "Ġflight": 4607,
      "ĠLos": 4608,
      "aving": 4609,
      "rif": 4610,
      "Ġstuck": 4611,
      "198": 4612,
      "Ġmanager": 4613,
      "Something": 4614,
      "Ġopin": 4615,
      "Ġplane": 4616,
      "ĠDay": 4617,
      "itiz": 4618,
      "ĠRoad": 4619,
      "Se": 4620,
      "Ġcant": 4621,
      "Ġpatient": 4622,
      "Ġrules": 4623,
      "Ġnoise": 4624,
      "Ġwee": 4625,
      "rial": 4626,
      "Ġjoy": 4627,
      "Ġruns": 4628,
      "ĠHol": 4629,
      "reedom": 4630,
      "Ġforgot": 4631,
      "zen": 4632,
      "Ġthinks": 4633,
      "ĠChief": 4634,
      "ĠConf": 4635,
      "lected": 4636,
      "Ġjudge": 4637,
      "Ġfinger": 4638,
      "ĠWomen": 4639,
      "ulations": 4640,
      "Ġincludes": 4641,
      "Ġeventually": 4642,
      "Ġdropped": 4643,
      "had": 4644,
      "Ġdirection": 4645,
      "Ġsystems": 4646,
      "Ġmedic": 4647,
      "Ġsatisf": 4648,
      "Ġtaught": 4649,
      "Ġideas": 4650,
      "Ġmistake": 4651,
      "ano": 4652,
      "Ġforty": 4653,
      "Ġtransl": 4654,
      "Ġhungry": 4655,
      "abb": 4656,
      "Ġinterview": 4657,
      "icious": 4658,
      "Ġbridge": 4659,
      "Ġwearing": 4660,
      "Ġmurd": 4661,
      "will": 4662,
      "ĠSing": 4663,
      "elle": 4664,
      "law": 4665,
      "EE": 4666,
      "Huh": 4667,
      "said": 4668,
      "Ġjourney": 4669,
      "Ġchoose": 4670,
      "Ġsurprise": 4671,
      "Ġspeaking": 4672,
      "Ġge": 4673,
      "Ġgrass": 4674,
      "OH": 4675,
      "Ġasleep": 4676,
      "ola": 4677,
      "ruit": 4678,
      "Ġleaders": 4679,
      "Ġtrip": 4680,
      "Ġparticularly": 4681,
      "Ġexam": 4682,
      "Ġprovide": 4683,
      "iety": 4684,
      "iverse": 4685,
      "Ġconstit": 4686,
      "itzer": 4687,
      "Act": 4688,
      "icated": 4689,
      "Ġplans": 4690,
      "Ġunless": 4691,
      "Ġolder": 4692,
      "ĠArab": 4693,
      "Ġpet": 4694,
      "ĠSar": 4695,
      "Ġgreatest": 4696,
      "Ġqueen": 4697,
      "Ġlots": 4698,
      "Ġimpossible": 4699,
      "Ġsignific": 4700,
      "Ġresults": 4701,
      "ĠBay": 4702,
      "gn": 4703,
      "Ġsurr": 4704,
      "Ġpromised": 4705,
      "Ġpicked": 4706,
      "Ġcrew": 4707,
      "ucky": 4708,
      "Ġteams": 4709,
      "ĠLee": 4710,
      "Ġhasn": 4711,
      "Ind": 4712,
      "Ġsaved": 4713,
      "Those": 4714,
      "rish": 4715,
      "sm": 4716,
      "Alright": 4717,
      "Ġenemy": 4718,
      "arrow": 4719,
      "bes": 4720,
      "ĠGreen": 4721,
      "Wow": 4722,
      "Ġma": 4723,
      "Ġtoward": 4724,
      "gel": 4725,
      "igan": 4726,
      "itect": 4727,
      "Ġworried": 4728,
      "Ġpictures": 4729,
      "ondissement": 4730,
      "aked": 4731,
      "Ġ1992": 4732,
      "Ġenter": 4733,
      "ĠFrancis": 4734,
      "ĠSl": 4735,
      "Ġcurrently": 4736,
      "rs": 4737,
      "oses": 4738,
      "agn": 4739,
      "Ġanywhere": 4740,
      "Ġseconds": 4741,
      "ishes": 4742,
      "asty": 4743,
      "Ġtele": 4744,
      "ulous": 4745,
      "ĠHere": 4746,
      "ĠCat": 4747,
      "Ġ1996": 4748,
      "otion": 4749,
      "Ġmentioned": 4750,
      "Ġbomb": 4751,
      "ĠAssociation": 4752,
      "arly": 4753,
      "Ġbigger": 4754,
      "Ġevil": 4755,
      "ashion": 4756,
      "gypt": 4757,
      "have": 4758,
      "mes": 4759,
      "Ġheaven": 4760,
      "Ġtells": 4761,
      "Ġstrugg": 4762,
      "arp": 4763,
      "arring": 4764,
      "Ġcritic": 4765,
      "Ġopportunity": 4766,
      "ima": 4767,
      "claim": 4768,
      "Ġexpected": 4769,
      "mit": 4770,
      "rough": 4771,
      "ĠServ": 4772,
      "Ġrisk": 4773,
      "ĠLittle": 4774,
      "Ġbrief": 4775,
      "Ġpan": 4776,
      "ĠCont": 4777,
      "oms": 4778,
      "ĠThomas": 4779,
      "umber": 4780,
      "Ġperformed": 4781,
      "Ġkingdom": 4782,
      "yan": 4783,
      "ĠDid": 4784,
      "oops": 4785,
      "ĠFOR": 4786,
      "Ġamazing": 4787,
      "Ġaddition": 4788,
      "Ġvehic": 4789,
      "leg": 4790,
      "Ġprevent": 4791,
      "ĠJohnson": 4792,
      "ashed": 4793,
      "LA": 4794,
      "iro": 4795,
      "Ġguard": 4796,
      "01": 4797,
      "Ġ..": 4798,
      "change": 4799,
      "Ġprovince": 4800,
      "ĠCatholic": 4801,
      "ĠBest": 4802,
      "estival": 4803,
      "Ġstrength": 4804,
      "Ġweight": 4805,
      "Ġlanguages": 4806,
      "ms": 4807,
      "ĠRock": 4808,
      "âĢĺ": 4809,
      "Ġcompanies": 4810,
      "Ġwitness": 4811,
      "Ġcere": 4812,
      "Ġappre": 4813,
      "OD": 4814,
      "arts": 4815,
      "Ġprem": 4816,
      "Ġmemory": 4817,
      "pre": 4818,
      "Ġchem": 4819,
      "Ġ1998": 4820,
      "Ġbecomes": 4821,
      "Ġtrial": 4822,
      "Ġperformance": 4823,
      "Ġsusp": 4824,
      "IGHT": 4825,
      "ĠDou": 4826,
      "ĠBrown": 4827,
      "sembly": 4828,
      "Ġlegal": 4829,
      "Ġgolden": 4830,
      "IF": 4831,
      "Ġstructure": 4832,
      "Say": 4833,
      "Ġspoken": 4834,
      "ancial": 4835,
      "Ġcomplex": 4836,
      "Ġplat": 4837,
      "Miss": 4838,
      "ses": 4839,
      "Ġroles": 4840,
      "Ġbitch": 4841,
      "ening": 4842,
      "Ġrelated": 4843,
      "Ġgrowing": 4844,
      "Ġincrease": 4845,
      "ĠAngeles": 4846,
      "isher": 4847,
      "Ġban": 4848,
      "brary": 4849,
      "zz": 4850,
      "Ġplanet": 4851,
      "NOW": 4852,
      "roat": 4853,
      "Ġdrew": 4854,
      "Ġweird": 4855,
      "Ġkitchen": 4856,
      "Ġeth": 4857,
      "owed": 4858,
      "ĠVirginia": 4859,
      "eds": 4860,
      "icans": 4861,
      "Ġblind": 4862,
      "Ġnation": 4863,
      "Ġaware": 4864,
      "Ġdocument": 4865,
      "ĠHA": 4866,
      "OME": 4867,
      "Ġthick": 4868,
      "ube": 4869,
      "Ġletters": 4870,
      "host": 4871,
      "ummy": 4872,
      "Ġforeign": 4873,
      "Ġorders": 4874,
      "ĠHon": 4875,
      "Ġstarts": 4876,
      "ĠDepartment": 4877,
      "Ġboo": 4878,
      "add": 4879,
      "Ġweak": 4880,
      "Ġlearning": 4881,
      "inois": 4882,
      "Ġsides": 4883,
      "ĠRepublican": 4884,
      "Ġconcept": 4885,
      "while": 4886,
      "Ġorganization": 4887,
      "lig": 4888,
      "Ġcrim": 4889,
      "Ġcomedy": 4890,
      "Ġgreater": 4891,
      "Ġhill": 4892,
      "istry": 4893,
      "ĠGovernment": 4894,
      "Ġdollars": 4895,
      "Ġassoci": 4896,
      "Ġcomplet": 4897,
      "Ġdesigned": 4898,
      "ĠFlor": 4899,
      "Ġoccup": 4900,
      "hey": 4901,
      "Before": 4902,
      "Ġbeg": 4903,
      "Ġnegative": 4904,
      "ĠDutch": 4905,
      "Three": 4906,
      "ĠAustralian": 4907,
      "ador": 4908,
      "Ġissues": 4909,
      "Ġpleasure": 4910,
      "Ġfilled": 4911,
      "ĠSand": 4912,
      "Ġsuc": 4913,
      "Ġprec": 4914,
      "ĠSecretary": 4915,
      "Ġsch": 4916,
      "Ġmut": 4917,
      "amber": 4918,
      "ĠWil": 4919,
      "agon": 4920,
      "Ġacting": 4921,
      "Ġheads": 4922,
      "Ġretired": 4923,
      "Ġsmaller": 4924,
      "vis": 4925,
      "21": 4926,
      "iger": 4927,
      "ault": 4928,
      "krain": 4929,
      "mar": 4930,
      "unn": 4931,
      "Ġteach": 4932,
      "ĠâĢĶ": 4933,
      "Ġ1993": 4934,
      "ban": 4935,
      "Ġstream": 4936,
      "ĠSpain": 4937,
      "ĠGroup": 4938,
      "Ġdivided": 4939,
      "Ġlikes": 4940,
      "Ġwilling": 4941,
      "father": 4942,
      "iring": 4943,
      "ĠEmp": 4944,
      "Ġbehav": 4945,
      "ION": 4946,
      "Ġneither": 4947,
      "ighs": 4948,
      "Ġlarger": 4949,
      "Lea": 4950,
      "ĠMer": 4951,
      "cend": 4952,
      "ĠPeople": 4953,
      "Ph": 4954,
      "Ġlunch": 4955,
      "stood": 4956,
      "illa": 4957,
      "Ġrap": 4958,
      "arn": 4959,
      "Ġinvent": 4960,
      "Ġplayers": 4961,
      "24": 4962,
      "anted": 4963,
      "azz": 4964,
      "Ġspr": 4965,
      "Ġbecoming": 4966,
      "Ġpair": 4967,
      "Ġshape": 4968,
      "ĠBu": 4969,
      "Ġconduct": 4970,
      "Ġbrown": 4971,
      "Ġ1994": 4972,
      "Ġfamilies": 4973,
      "Ġdemon": 4974,
      "Ġsuspect": 4975,
      "Ġsucceed": 4976,
      "Ġcaptain": 4977,
      "Ġpulled": 4978,
      "km": 4979,
      "Ġadult": 4980,
      "Ġloud": 4981,
      "Ġchamp": 4982,
      "Ġourselves": 4983,
      "idding": 4984,
      "Ġgenerally": 4985,
      "ares": 4986,
      "Ġhardly": 4987,
      "Ġbreakfast": 4988,
      "ĠBet": 4989,
      "ĠFox": 4990,
      "Ġtotally": 4991,
      "Ġenvironment": 4992,
      "odies": 4993,
      "ques": 4994,
      "Ha": 4995,
      "Ġancient": 4996,
      "ĠTwo": 4997,
      "osite": 4998,
      "Ġoffered": 4999,
      "Ġscream": 5000,
      "ĠDis": 5001,
      "Ġladies": 5002,
      "Ġflew": 5003,
      "Ġhurry": 5004,
      "Ġindustry": 5005,
      "ĠGet": 5006,
      "Ġofficers": 5007,
      "Ġcrowd": 5008,
      "ĠCast": 5009,
      "ĠBoy": 5010,
      "Ġlock": 5011,
      "Ġlies": 5012,
      "Ġquality": 5013,
      "197": 5014,
      "ĠTrans": 5015,
      "Ġconditions": 5016,
      "rick": 5017,
      "your": 5018,
      "Ġsection": 5019,
      "ĠFred": 5020,
      "Ġuncle": 5021,
      "Ġtransfer": 5022,
      "gie": 5023,
      "Ġ1995": 5024,
      "Ġkilling": 5025,
      "oted": 5026,
      "Ġturns": 5027,
      "Ġepisode": 5028,
      "ker": 5029,
      "ĠIre": 5030,
      "Ġvac": 5031,
      "ĠFore": 5032,
      "ĠCO": 5033,
      "uman": 5034,
      "ĠRos": 5035,
      "Ġpowerful": 5036,
      "ĠScotland": 5037,
      "ja": 5038,
      "ĠEgypt": 5039,
      "olution": 5040,
      "Ġslowly": 5041,
      "say": 5042,
      "inet": 5043,
      "enge": 5044,
      "Ġsequ": 5045,
      "Ġnote": 5046,
      "Ġlistening": 5047,
      "Ġhotel": 5048,
      "'.": 5049,
      "aud": 5050,
      "bre": 5051,
      "Ġopt": 5052,
      "Ġsaf": 5053,
      "Ġsurface": 5054,
      "Ġiron": 5055,
      "Ġsinging": 5056,
      "Ġsilly": 5057,
      "Ġbuck": 5058,
      "ctions": 5059,
      "Ġnorthern": 5060,
      "ĠOs": 5061,
      "Ġprevious": 5062,
      "Ġdefinitely": 5063,
      "ĠIsrael": 5064,
      "mother": 5065,
      "ardon": 5066,
      "Ġdisp": 5067,
      "ĠPrime": 5068,
      "Ġcamera": 5069,
      "Ġturning": 5070,
      "unny": 5071,
      "Ġserve": 5072,
      "him": 5073,
      "Ġrom": 5074,
      "cean": 5075,
      "Ġtarget": 5076,
      "rid": 5077,
      "ua": 5078,
      "Ġshout": 5079,
      "Ġoriginally": 5080,
      "uan": 5081,
      "ĠMur": 5082,
      "Ġempty": 5083,
      "Ġ1991": 5084,
      "Ġtechnology": 5085,
      "Ġneighbor": 5086,
      "Nice": 5087,
      "imately": 5088,
      "Ġuses": 5089,
      "Ġactive": 5090,
      "Once": 5091,
      "Ġcharacters": 5092,
      "UST": 5093,
      "Ġbal": 5094,
      "Ġrealize": 5095,
      "Ġhouses": 5096,
      "uries": 5097,
      "aches": 5098,
      "ĠDen": 5099,
      "umn": 5100,
      "Ġdecide": 5101,
      "Ġgentlemen": 5102,
      "Ġphysical": 5103,
      "hered": 5104,
      "ANT": 5105,
      "ih": 5106,
      "Ġspeech": 5107,
      "ĠStud": 5108,
      "Ġfavour": 5109,
      "book": 5110,
      "icide": 5111,
      "ĠFather": 5112,
      "boy": 5113,
      "Ġrough": 5114,
      "ĠOld": 5115,
      "bered": 5116,
      "Isn": 5117,
      "Ġweather": 5118,
      "Ġminister": 5119,
      "ram": 5120,
      "Ġprove": 5121,
      "Ġdefend": 5122,
      "Ġterrit": 5123,
      "stein": 5124,
      "CK": 5125,
      "Ġunit": 5126,
      "ĠVictor": 5127,
      "fortun": 5128,
      "Ġculture": 5129,
      "Ġsource": 5130,
      "Ġcomplic": 5131,
      "Ġfailed": 5132,
      "itzerland": 5133,
      "ĠAtl": 5134,
      "Ġowned": 5135,
      "iation": 5136,
      "ĠIllinois": 5137,
      "from": 5138,
      "ato": 5139,
      "Ġcities": 5140,
      "erman": 5141,
      "Ġremark": 5142,
      "Ġdirectly": 5143,
      "Ġmere": 5144,
      "olar": 5145,
      "Ġspell": 5146,
      "Ġroof": 5147,
      "Ġ1997": 5148,
      "Ġflat": 5149,
      "Ġstandard": 5150,
      "Ġflying": 5151,
      "ĠOk": 5152,
      "aron": 5153,
      "usic": 5154,
      "Ġbeauty": 5155,
      "Ġbasically": 5156,
      "ulty": 5157,
      "ĠLove": 5158,
      "Ġsmart": 5159,
      "ENT": 5160,
      "Ġninet": 5161,
      "Tom": 5162,
      "Ġwine": 5163,
      "ĠMel": 5164,
      "ella": 5165,
      "23": 5166,
      "Ġreasons": 5167,
      "Ġcentre": 5168,
      "Ġrepresented": 5169,
      "ouch": 5170,
      "Ġbother": 5171,
      "aded": 5172,
      "eek": 5173,
      "American": 5174,
      "\"?": 5175,
      "IE": 5176,
      "ĠAN": 5177,
      "anged": 5178,
      "Ġeverywhere": 5179,
      "ĠProvince": 5180,
      "heart": 5181,
      "Ġkinds": 5182,
      "bel": 5183,
      "Ġlord": 5184,
      "ĠJud": 5185,
      "Bet": 5186,
      "Ġmagazine": 5187,
      "ĠCompany": 5188,
      "heast": 5189,
      "Ġcart": 5190,
      "Ġcitiz": 5191,
      "amil": 5192,
      "Ġchap": 5193,
      "ĠZeal": 5194,
      "Ġquarter": 5195,
      "ios": 5196,
      "aging": 5197,
      "Ġcontribut": 5198,
      "Ġhandle": 5199,
      "Ġforms": 5200,
      "Ġreplaced": 5201,
      "Next": 5202,
      "Fine": 5203,
      "Ġfeatures": 5204,
      "Ġbreath": 5205,
      "mond": 5206,
      "rated": 5207,
      "Ġwaste": 5208,
      "Ġmanaged": 5209,
      "Ġmagic": 5210,
      "Ġreligious": 5211,
      "ca": 5212,
      "ĠLuc": 5213,
      "Ġappl": 5214,
      "Ġmissed": 5215,
      "ois": 5216,
      "Ġdelight": 5217,
      "WE": 5218,
      "rier": 5219,
      "ĠMajor": 5220,
      "ĠHi": 5221,
      "then": 5222,
      "Ġapplic": 5223,
      "Ġwinning": 5224,
      "Te": 5225,
      "ĠBig": 5226,
      "Ġroy": 5227,
      "aria": 5228,
      "Ġintroduced": 5229,
      "bur": 5230,
      "Ġpil": 5231,
      "ĠMass": 5232,
      "ĠStan": 5233,
      "Ġears": 5234,
      "Ġmedal": 5235,
      "Ġconcerned": 5236,
      "Ġresponsible": 5237,
      "60": 5238,
      "Ġmale": 5239,
      "Ġcommer": 5240,
      "ĠUkrain": 5241,
      "Ġhearing": 5242,
      "Ġtight": 5243,
      "Ġlack": 5244,
      "Ġprepared": 5245,
      "ĠZealand": 5246,
      "ĠWood": 5247,
      "eping": 5248,
      "Ġinstit": 5249,
      "urry": 5250,
      "Ġmechan": 5251,
      "CE": 5252,
      "ript": 5253,
      "Ġrare": 5254,
      "Ġah": 5255,
      "aling": 5256,
      "Help": 5257,
      "ĠFlorida": 5258,
      "ĠRussia": 5259,
      "ĠCarolina": 5260,
      "ĠCH": 5261,
      "ĠDiv": 5262,
      "arently": 5263,
      "ĠSenate": 5264,
      "osop": 5265,
      "Ġknock": 5266,
      "Ġcalm": 5267,
      "when": 5268,
      "Ġgay": 5269,
      "ĠSwitzerland": 5270,
      "stitution": 5271,
      "jo": 5272,
      "Ġonto": 5273,
      "Ġseparate": 5274,
      "apa": 5275,
      "Ġcrying": 5276,
      "About": 5277,
      "Remember": 5278,
      "rib": 5279,
      "ros": 5280,
      "Ġawarded": 5281,
      "Ġpaint": 5282,
      "elcome": 5283,
      "Ġassum": 5284,
      "28": 5285,
      "Ġduty": 5286,
      "Ġrub": 5287,
      "Ġtemperature": 5288,
      "fessor": 5289,
      "ushing": 5290,
      "Ġmeasure": 5291,
      "ĠLook": 5292,
      "Ġvo": 5293,
      "ĠArch": 5294,
      "Ġcrack": 5295,
      "ĠLake": 5296,
      "Ġpocket": 5297,
      "27": 5298,
      "orter": 5299,
      "Ġsymb": 5300,
      "Ooh": 5301,
      "ĠMom": 5302,
      "ario": 5303,
      "ingers": 5304,
      "ĠKansas": 5305,
      "iance": 5306,
      "Nobody": 5307,
      "Ġtransport": 5308,
      "Ġtask": 5309,
      "resp": 5310,
      "icked": 5311,
      "urious": 5312,
      "ko": 5313,
      "clock": 5314,
      "Ġsword": 5315,
      "Ġproducer": 5316,
      "Ġstayed": 5317,
      "Ġadop": 5318,
      "Ġappreci": 5319,
      "ĠApp": 5320,
      "abad": 5321,
      "ĠPak": 5322,
      "ockey": 5323,
      "ĠRay": 5324,
      "ĠVal": 5325,
      "However": 5326,
      "enc": 5327,
      "ĠHa": 5328,
      "Ġcontent": 5329,
      "Ġdrunk": 5330,
      "Ġsurprised": 5331,
      "Over": 5332,
      "ĠGeorg": 5333,
      "Perhaps": 5334,
      "ĠMajesty": 5335,
      "Ġdying": 5336,
      "Ġcoat": 5337,
      "Ġdetect": 5338,
      "Ġdeclared": 5339,
      "apes": 5340,
      "Ġswear": 5341,
      "Ġloves": 5342,
      "ĠWind": 5343,
      "Ġactual": 5344,
      "Ġleague": 5345,
      "Ġindependent": 5346,
      "Ġsouthern": 5347,
      "atre": 5348,
      "oof": 5349,
      "ĠGirl": 5350,
      "Ġstret": 5351,
      "ĠYOUR": 5352,
      "Ġwalls": 5353,
      "Ġcouncil": 5354,
      "Ġknowing": 5355,
      "Ġcopy": 5356,
      "Ġdistributed": 5357,
      "ĠIreland": 5358,
      "ĠHER": 5359,
      "ĠJoseph": 5360,
      "Ġprofessor": 5361,
      "Ġdrag": 5362,
      "Ġterror": 5363,
      "ĠAh": 5364,
      "Ġeditor": 5365,
      "Ġmotor": 5366,
      "Ġsake": 5367,
      "lyn": 5368,
      "ĠTim": 5369,
      "oned": 5370,
      "emic": 5371,
      "Ġfederal": 5372,
      "icate": 5373,
      "ĠJo": 5374,
      "uten": 5375,
      "ĠSaint": 5376,
      "ennis": 5377,
      "MAN": 5378,
      "RI": 5379,
      "ĠWal": 5380,
      "ĠEdward": 5381,
      "Ġopinion": 5382,
      "onse": 5383,
      "stant": 5384,
      "Ġdriver": 5385,
      "Ġmel": 5386,
      "Ġprimary": 5387,
      "ĠMaster": 5388,
      "ĠTheir": 5389,
      "Ġarchitect": 5390,
      "ĠTor": 5391,
      "ĠFilm": 5392,
      "Ġbiggest": 5393,
      "Ġpartner": 5394,
      "Ġexperien": 5395,
      "Ġdrugs": 5396,
      "Ġbroadcast": 5397,
      "Ġpit": 5398,
      "Ġsports": 5399,
      "Other": 5400,
      "enced": 5401,
      "peror": 5402,
      "Ġprovided": 5403,
      "ĠJackson": 5404,
      "Mom": 5405,
      "cons": 5406,
      "Ġmate": 5407,
      "ĠRome": 5408,
      "Ġfought": 5409,
      "Ġfinancial": 5410,
      "Ġclearly": 5411,
      "vin": 5412,
      "Make": 5413,
      "gain": 5414,
      "Äģ": 5415,
      "Ġdressed": 5416,
      "ĠBank": 5417,
      "ĠSuper": 5418,
      "isa": 5419,
      "Ġchannel": 5420,
      "Ġsleeping": 5421,
      "During": 5422,
      "Ġgall": 5423,
      "Ġfinding": 5424,
      "Ġdogs": 5425,
      "ĠCenter": 5426,
      "Ġzero": 5427,
      "Ġcomment": 5428,
      "Ġproduce": 5429,
      "two": 5430,
      "ĠSil": 5431,
      "Stay": 5432,
      "Ġ1989": 5433,
      "Ġadvant": 5434,
      "Ġwhis": 5435,
      "urance": 5436,
      "Ġteeth": 5437,
      "Ġbillion": 5438,
      "place": 5439,
      "fficient": 5440,
      "Ġign": 5441,
      "Ġhadn": 5442,
      "Ġaircraft": 5443,
      "ronic": 5444,
      "ji": 5445,
      "ĠCons": 5446,
      "ĠHel": 5447,
      "Ġcontr": 5448,
      "Ġbottle": 5449,
      "ĠSunday": 5450,
      "Â¶": 5451,
      "Ġtaste": 5452,
      "ĠGreek": 5453,
      "ĠĠĠĠĠĠĠ": 5454,
      "Actually": 5455,
      "ĠMY": 5456,
      "iano": 5457,
      "Ġyounger": 5458,
      "och": 5459,
      "Ġscore": 5460,
      "Ġremind": 5461,
      "Ġfilms": 5462,
      "mi": 5463,
      "Ġreligion": 5464,
      "owing": 5465,
      "Cause": 5466,
      "RB": 5467,
      "urday": 5468,
      "Ġsheep": 5469,
      "Ġce": 5470,
      "orough": 5471,
      "Ġjack": 5472,
      "Ġbloody": 5473,
      "Ġfocus": 5474,
      "ooh": 5475,
      "tering": 5476,
      "quar": 5477,
      "Ġpattern": 5478,
      "ĠHE": 5479,
      "Ġjobs": 5480,
      "Ġpapers": 5481,
      "ĠWestern": 5482,
      "Ġforever": 5483,
      "Ġintellig": 5484,
      "El": 5485,
      "ĠClub": 5486,
      "Ġpossibly": 5487,
      "Ġbang": 5488,
      "essed": 5489,
      "ĠUK": 5490,
      "Ġlights": 5491,
      "imum": 5492,
      "ĠChair": 5493,
      "Ġborder": 5494,
      "ingu": 5495,
      "Ġdepart": 5496,
      "Shut": 5497,
      "Ġrat": 5498,
      "Ġstruck": 5499,
      "Ġnoticed": 5500,
      "wing": 5501,
      "oking": 5502,
      "lict": 5503,
      "rate": 5504,
      "some": 5505,
      "oured": 5506,
      "icket": 5507,
      "aval": 5508,
      "Ġwake": 5509,
      "ĠGames": 5510,
      "ITH": 5511,
      "achel": 5512,
      "ooper": 5513,
      "gor": 5514,
      "ĠSup": 5515,
      "Ġedge": 5516,
      "NG": 5517,
      "Out": 5518,
      "Ġlosing": 5519,
      "Ġroyal": 5520,
      "Ġdare": 5521,
      "Cos": 5522,
      "Ġimage": 5523,
      "Ġ1950": 5524,
      "ĠRepresent": 5525,
      "Damn": 5526,
      "Ġmicro": 5527,
      "ĠMany": 5528,
      "icky": 5529,
      "Ġkeeping": 5530,
      "Ġvictory": 5531,
      "cellent": 5532,
      "Com": 5533,
      "Ġpound": 5534,
      "ĠFort": 5535,
      "ĠJones": 5536,
      "ĠĠĠĠĠ": 5537,
      "Ġburied": 5538,
      "ĠSummer": 5539,
      "ĠEmpire": 5540,
      "Ġeasier": 5541,
      "sell": 5542,
      "Ġcircum": 5543,
      "Ġeggs": 5544,
      "Ġded": 5545,
      "urd": 5546,
      "Ġinstr": 5547,
      "ĠCommittee": 5548,
      "ĠRad": 5549,
      "itty": 5550,
      "Ġrecords": 5551,
      "ĠBritain": 5552,
      "Ġteaching": 5553,
      "Ġremem": 5554,
      "Ġlaughing": 5555,
      "Ġwet": 5556,
      "ao": 5557,
      "mhm": 5558,
      "Ġanal": 5559,
      "Ġplanning": 5560,
      "ĠColonel": 5561,
      "because": 5562,
      "Ġwinter": 5563,
      "Ġrequest": 5564,
      "col": 5565,
      "Ġstock": 5566,
      "Ġraise": 5567,
      "Ġfixed": 5568,
      "...?": 5569,
      "Ġwheel": 5570,
      "Ġappearance": 5571,
      "han": 5572,
      "Ġrecently": 5573,
      "Today": 5574,
      "ĠNOT": 5575,
      "Ġsteps": 5576,
      "hemat": 5577,
      "ĠGar": 5578,
      "Ġshowing": 5579,
      "ception": 5580,
      "26": 5581,
      "arian": 5582,
      "Ġmeat": 5583,
      "cel": 5584,
      "Ġresour": 5585,
      "Ġ1988": 5586,
      "ĠTw": 5587,
      "water": 5588,
      "Ġpurs": 5589,
      "aret": 5590,
      "Ġcollection": 5591,
      "Ġrequired": 5592,
      "Ġforgotten": 5593,
      "opp": 5594,
      "Ok": 5595,
      "urse": 5596,
      "osen": 5597,
      "adow": 5598,
      "icks": 5599,
      "ĠJane": 5600,
      "ĠParliament": 5601,
      "lying": 5602,
      "Leave": 5603,
      "ĠLab": 5604,
      "Ge": 5605,
      "rer": 5606,
      "Ġdoct": 5607,
      "unities": 5608,
      "Ġpresence": 5609,
      "Ġsweetie": 5610,
      "wanna": 5611,
      "Ġfal": 5612,
      "Ġrise": 5613,
      "Ġplants": 5614,
      "Ġquant": 5615,
      "Ġgate": 5616,
      "Ġworst": 5617,
      "ĠSociety": 5618,
      "Ġsplit": 5619,
      "Ġsafety": 5620,
      "Ġgift": 5621,
      "ĠOff": 5622,
      "ĠInstitute": 5623,
      "ĠClint": 5624,
      "Ġdivision": 5625,
      "uals": 5626,
      "ads": 5627,
      "rible": 5628,
      "Ġgrown": 5629,
      "nces": 5630,
      "Ġsons": 5631,
      "kend": 5632,
      "ĠLand": 5633,
      "Ġfalling": 5634,
      "Ġdreams": 5635,
      "Ġast": 5636,
      "Ġmusical": 5637,
      "Ġtypes": 5638,
      "Sm": 5639,
      "Ġstudies": 5640,
      "Ġoperation": 5641,
      "Ġends": 5642,
      "Anyway": 5643,
      "ILL": 5644,
      "Ġcash": 5645,
      "Ġdirty": 5646,
      "Ġappears": 5647,
      "Ġnewspaper": 5648,
      "ĠMo": 5649,
      "imp": 5650,
      "Ġsmoke": 5651,
      "Ġfavorite": 5652,
      "Ġdestroyed": 5653,
      "ĠSocial": 5654,
      "Ġelectric": 5655,
      "Ġarrested": 5656,
      "kes": 5657,
      "onds": 5658,
      "Ġconversation": 5659,
      "Ġexerc": 5660,
      "Ġresist": 5661,
      "ĠYoung": 5662,
      "Ġreceive": 5663,
      "ĠFair": 5664,
      "Ġfailure": 5665,
      "egr": 5666,
      "Ġfashion": 5667,
      "ĠBa": 5668,
      "duc": 5669,
      "Move": 5670,
      "Ġpure": 5671,
      "Ġalt": 5672,
      "Ġscar": 5673,
      "Ġsmile": 5674,
      "Ġsli": 5675,
      "ĠSouthern": 5676,
      "eau": 5677,
      "Ġ1987": 5678,
      "Sometimes": 5679,
      "rd": 5680,
      "ĠRight": 5681,
      "Ġadvent": 5682,
      "SE": 5683,
      "abeth": 5684,
      "Ġscript": 5685,
      "Ġautom": 5686,
      "writer": 5687,
      "des": 5688,
      "hin": 5689,
      "ĠEvery": 5690,
      "Ġinfluence": 5691,
      "OP": 5692,
      "ez": 5693,
      "ipped": 5694,
      "Ġwestern": 5695,
      "Ġthousands": 5696,
      "Ġchest": 5697,
      "ĠCarl": 5698,
      "More": 5699,
      "su": 5700,
      "ĠGer": 5701,
      "Car": 5702,
      "ichael": 5703,
      "ublic": 5704,
      "Ġdamage": 5705,
      "Ġshooting": 5706,
      "Ġbrand": 5707,
      "Ġanti": 5708,
      "Ġcompleted": 5709,
      "bury": 5710,
      "ĠAng": 5711,
      "Ġmanner": 5712,
      "Ġoccasion": 5713,
      ".]": 5714,
      "ogether": 5715,
      "Ġauthority": 5716,
      "dad": 5717,
      "Ġodd": 5718,
      "Ġdu": 5719,
      "ĠMost": 5720,
      "Ed": 5721,
      "Ġ1986": 5722,
      "While": 5723,
      "Most": 5724,
      "Ġmeas": 5725,
      "Ġopposite": 5726,
      "Ġvari": 5727,
      "TV": 5728,
      "ĠPan": 5729,
      "Ġfeels": 5730,
      "Ġmainly": 5731,
      "ĠMuslim": 5732,
      "why": 5733,
      "Ġbringing": 5734,
      "Ġmajority": 5735,
      "Ġbodies": 5736,
      "Ġexcuse": 5737,
      "Cap": 5738,
      "Care": 5739,
      "Ġju": 5740,
      "Ġprogress": 5741,
      "cles": 5742,
      "Ġminor": 5743,
      "Ġimprove": 5744,
      ".âĢĻ": 5745,
      "iac": 5746,
      "Ġbuildings": 5747,
      "Ġformula": 5748,
      "Ġguns": 5749,
      "RY": 5750,
      "Ġpleased": 5751,
      "ĠCommission": 5752,
      "utions": 5753,
      "Ġcloud": 5754,
      "Ġunits": 5755,
      "Shit": 5756,
      "Ġeconomic": 5757,
      "atherine": 5758,
      "ba": 5759,
      "Ġtiny": 5760,
      "Ġfingers": 5761,
      "orial": 5762,
      "Ġhi": 5763,
      "ĠMill": 5764,
      "iley": 5765,
      "Ġtemple": 5766,
      "UL": 5767,
      "ĠWE": 5768,
      "ishment": 5769,
      "Ġhello": 5770,
      "Everyone": 5771,
      "Ġfifth": 5772,
      "Ġreality": 5773,
      "Ġ60": 5774,
      "Ġstatus": 5775,
      "NO": 5776,
      "pret": 5777,
      "Ġresponse": 5778,
      "ĠPlay": 5779,
      "OULD": 5780,
      "Ġcro": 5781,
      "ilty": 5782,
      "Ġninety": 5783,
      "eh": 5784,
      "aning": 5785,
      "Ġlect": 5786,
      "ĠBang": 5787,
      "ĠBecause": 5788,
      "elly": 5789,
      "Ġusual": 5790,
      "Ġattend": 5791,
      "Should": 5792,
      ",'": 5793,
      "Ġdiam": 5794,
      "Ġworkers": 5795,
      "Ġrestaur": 5796,
      "Ġcrown": 5797,
      "fall": 5798,
      "owa": 5799,
      "Ġability": 5800,
      "Ġexpress": 5801,
      "Ġadvice": 5802,
      "iest": 5803,
      "Ġdesire": 5804,
      "ĠAmericans": 5805,
      "Ġwatched": 5806,
      "hello": 5807,
      "ĠCam": 5808,
      "Ġhol": 5809,
      "ĠMuseum": 5810,
      "ĠArgent": 5811,
      "Ġfreedom": 5812,
      "Ġbutter": 5813,
      "Ġsignal": 5814,
      "aughed": 5815,
      "ĠJac": 5816,
      "Ġbride": 5817,
      "vention": 5818,
      "eman": 5819,
      "Ġflag": 5820,
      "Ġremains": 5821,
      "ONE": 5822,
      "Another": 5823,
      "Ġtong": 5824,
      "Ġdom": 5825,
      "oving": 5826,
      "Ġbranch": 5827,
      "Everybody": 5828,
      "ĠWhile": 5829,
      "Ġinhab": 5830,
      "riff": 5831,
      "ĠTre": 5832,
      "Ġhelping": 5833,
      "Ġgro": 5834,
      "oger": 5835,
      "Ġmetal": 5836,
      "ova": 5837,
      "Ġinnoc": 5838,
      "Ġbast": 5839,
      "Ġfruit": 5840,
      "ĠWAS": 5841,
      "Ġapproach": 5842,
      "Ġtroops": 5843,
      "ĠHaw": 5844,
      "ĠVer": 5845,
      "_,": 5846,
      "ties": 5847,
      "want": 5848,
      "Think": 5849,
      "196": 5850,
      "ĠDoctor": 5851,
      "stead": 5852,
      "ĠJeff": 5853,
      "Ġbeside": 5854,
      "Ġmatters": 5855,
      "ĠJersey": 5856,
      "wers": 5857,
      "Ġresident": 5858,
      "ĠTHIS": 5859,
      "Ġeffects": 5860,
      "utenant": 5861,
      "yay": 5862,
      "Ġ1985": 5863,
      "Ġrequire": 5864,
      "ati": 5865,
      "Ġ1981": 5866,
      "Ġlocation": 5867,
      "Ġpotential": 5868,
      "Ġbudget": 5869,
      "35": 5870,
      "ais": 5871,
      "ĠHu": 5872,
      "onder": 5873,
      "Ġ1972": 5874,
      "Ġconstruction": 5875,
      "Ġapartment": 5876,
      "Ġfan": 5877,
      "Ġwealth": 5878,
      "ĠFoot": 5879,
      "Ġspin": 5880,
      "Ġ1983": 5881,
      "Ġmountains": 5882,
      "Sam": 5883,
      "stances": 5884,
      "ĠNorthern": 5885,
      "Ġscored": 5886,
      "gery": 5887,
      "imin": 5888,
      "nam": 5889,
      "oos": 5890,
      "Ġprefer": 5891,
      "Ġboot": 5892,
      "abama": 5893,
      "Didn": 5894,
      "AB": 5895,
      "Ġtal": 5896,
      "ĠSqu": 5897,
      "Ġdancing": 5898,
      "ĠMax": 5899,
      "Ġash": 5900,
      "ousin": 5901,
      "Ġstrike": 5902,
      "lla": 5903,
      "ĠCamp": 5904,
      "ĠDirect": 5905,
      "Ġrode": 5906,
      "Ġnineteen": 5907,
      "AG": 5908,
      "load": 5909,
      "ĠDar": 5910,
      "Christ": 5911,
      "Ġcarrying": 5912,
      "Ġtower": 5913,
      "Tw": 5914,
      "kins": 5915,
      "ĠSur": 5916,
      "ologist": 5917,
      "ĠWales": 5918,
      "Ġcosts": 5919,
      "Ġeffort": 5920,
      "ĠLady": 5921,
      "Ġupset": 5922,
      "Ġprior": 5923,
      "claimed": 5924,
      "uted": 5925,
      "Ġcarefully": 5926,
      "Ġcompeted": 5927,
      "ĠHAVE": 5928,
      "Ġcells": 5929,
      "ĠMos": 5930,
      "Ġfully": 5931,
      "Someone": 5932,
      "Ġmotion": 5933,
      "HO": 5934,
      "Ġhast": 5935,
      "etch": 5936,
      "pet": 5937,
      "Ġnominated": 5938,
      "Call": 5939,
      "Ġfant": 5940,
      "Ġfired": 5941,
      "ĠTy": 5942,
      "Ġflo": 5943,
      "Col": 5944,
      "Ġkidding": 5945,
      "ĠFar": 5946,
      "Ġscr": 5947,
      "roke": 5948,
      "Ġanx": 5949,
      "Ġtim": 5950,
      "ache": 5951,
      "acher": 5952,
      "Ġunion": 5953,
      "Ġnumer": 5954,
      "elling": 5955,
      "Ġgirlfriend": 5956,
      "ournament": 5957,
      "Ġconnected": 5958,
      "Ġhiding": 5959,
      "Ġgrab": 5960,
      "Ġ185": 5961,
      "Ġkeeps": 5962,
      "Ġtears": 5963,
      "Ġawful": 5964,
      "ĠSea": 5965,
      "Ġtreatment": 5966,
      "vest": 5967,
      "Ġagre": 5968,
      "Ġprograms": 5969,
      "Ġbasis": 5970,
      "Ġencour": 5971,
      "Ġlaughed": 5972,
      "ĠAwards": 5973,
      "ĠOther": 5974,
      "adium": 5975,
      "ĠSince": 5976,
      "porary": 5977,
      "ĠOlympics": 5978,
      "may": 5979,
      "Ġfigures": 5980,
      "Ġaltern": 5981,
      "Ġapple": 5982,
      "Ġrelative": 5983,
      "ĠAnn": 5984,
      "gency": 5985,
      "Ġhm": 5986,
      "ĠMore": 5987,
      "ĠStep": 5988,
      "Ġaccepted": 5989,
      "Ġaudience": 5990,
      "80": 5991,
      "Love": 5992,
      "SB": 5993,
      "Ġdarling": 5994,
      "Ġstatement": 5995,
      "Ġtraditional": 5996,
      "heim": 5997,
      "ĠKNOW": 5998,
      "Ġresc": 5999,
      "ysis": 6000,
      "Ġhorn": 6001,
      "cks": 6002,
      "weet": 6003,
      "Ġsched": 6004,
      "Ġsignificant": 6005,
      "inson": 6006,
      "Ġfro": 6007,
      "ĠJun": 6008,
      "ĠKat": 6009,
      "Ġrecomm": 6010,
      "Ġphilosop": 6011,
      "ufact": 6012,
      "iven": 6013,
      "ouri": 6014,
      "ĠRaj": 6015,
      "Ġproceed": 6016,
      "about": 6017,
      "ĠLiber": 6018,
      "onia": 6019,
      "Ġnative": 6020,
      "Ġinvited": 6021,
      "Ġlic": 6022,
      "ĠIm": 6023,
      "ented": 6024,
      "uls": 6025,
      "venue": 6026,
      "ĠValley": 6027,
      "Ġaim": 6028,
      "acle": 6029,
      "Ġflower": 6030,
      "45": 6031,
      "Ġproof": 6032,
      "orpor": 6033,
      "ĠIran": 6034,
      "ĠFer": 6035,
      "Ġchosen": 6036,
      "them": 6037,
      "ĠAlabama": 6038,
      "Jack": 6039,
      "Ġbare": 6040,
      "unched": 6041,
      "Ġfeelings": 6042,
      "Ġentertain": 6043,
      "eer": 6044,
      "Ġplain": 6045,
      "Ġweekend": 6046,
      "spect": 6047,
      "Ġsail": 6048,
      "Ġpaying": 6049,
      "ĠCharlie": 6050,
      "Ġwebs": 6051,
      "Mrs": 6052,
      "ĠPortug": 6053,
      "29": 6054,
      "ĠHot": 6055,
      "should": 6056,
      "App": 6057,
      "OL": 6058,
      "ĠHello": 6059,
      "Ġscrew": 6060,
      "Ġuseful": 6061,
      "Ġhanging": 6062,
      "Ã±": 6063,
      "Ġmob": 6064,
      "yo": 6065,
      "Ġwave": 6066,
      "Ġlake": 6067,
      "ulated": 6068,
      "Ã¦": 6069,
      "Ġate": 6070,
      "icted": 6071,
      "Ġsupply": 6072,
      "Ġexpand": 6073,
      "ym": 6074,
      "Ġsales": 6075,
      "Ġnuc": 6076,
      "ĠHans": 6077,
      "ĠNE": 6078,
      "Ġconsum": 6079,
      "Ġ80": 6080,
      "Ġincreased": 6081,
      "ĠJewish": 6082,
      "Ġox": 6083,
      "ĠKent": 6084,
      "Ġotherwise": 6085,
      "arrondissement": 6086,
      "ĠColumb": 6087,
      "ocal": 6088,
      "Ġguilty": 6089,
      "Ġrecent": 6090,
      "Ġjail": 6091,
      "ĠLu": 6092,
      "Whoa": 6093,
      "Ġsoldier": 6094,
      "Back": 6095,
      "wide": 6096,
      "Ġmort": 6097,
      "Ġeh": 6098,
      "keep": 6099,
      "ĠMichigan": 6100,
      "omer": 6101,
      "Ġrev": 6102,
      "Ġ1979": 6103,
      "La": 6104,
      "Ġchanging": 6105,
      "Ġdrinking": 6106,
      "Ġdetermined": 6107,
      "Ġtied": 6108,
      "Ġwished": 6109,
      "Ġliber": 6110,
      "ĠStar": 6111,
      "Ġgovernor": 6112,
      "lend": 6113,
      "Ġdegrees": 6114,
      "Ġcredit": 6115,
      "Ġthoughts": 6116,
      "Ġfile": 6117,
      "Ġnerv": 6118,
      "Ġchain": 6119,
      "Ġjustice": 6120,
      "Ġpregn": 6121,
      "According": 6122,
      "Ġfeature": 6123,
      "Ġstaying": 6124,
      "Ġetc": 6125,
      "Fl": 6126,
      "bey": 6127,
      "Ġmatches": 6128,
      "Jesus": 6129,
      "Ġmo": 6130,
      "Ġunderstood": 6131,
      "Ġfields": 6132,
      "ĠChampionships": 6133,
      "Ġtough": 6134,
      "Ġpool": 6135,
      "aboo": 6136,
      "iously": 6137,
      "Ġ1930": 6138,
      "Ġsugar": 6139,
      "Ġimpl": 6140,
      "rence": 6141,
      "ika": 6142,
      "Ġcircle": 6143,
      "Ġstreets": 6144,
      "ubbles": 6145,
      "Welcome": 6146,
      "ĠIII": 6147,
      "asts": 6148,
      "Ġguitar": 6149,
      "ĠArk": 6150,
      "Ġhighly": 6151,
      "Ġbasic": 6152,
      "Ġbite": 6153,
      "icy": 6154,
      "Ġsuicide": 6155,
      "inda": 6156,
      "Ġjoke": 6157,
      "Ġcloser": 6158,
      "overy": 6159,
      "ĠSus": 6160,
      "ila": 6161,
      "ropri": 6162,
      "Ġfifteen": 6163,
      "rilliant": 6164,
      "Ġsuffered": 6165,
      "Ġexhib": 6166,
      "Ġsupported": 6167,
      "Ġlabor": 6168,
      "Ġcounter": 6169,
      "ĠSee": 6170,
      "Ġupper": 6171,
      "pecial": 6172,
      "OUT": 6173,
      "Ser": 6174,
      "Ġconcent": 6175,
      "Ġearn": 6176,
      "ĠIslam": 6177,
      "does": 6178,
      "Hmm": 6179,
      "Ġmum": 6180,
      "char": 6181,
      "igg": 6182,
      "cont": 6183,
      "ĠCle": 6184,
      "Ġsees": 6185,
      "Ġeastern": 6186,
      "CA": 6187,
      "ira": 6188,
      "Ġafford": 6189,
      "Ġcriminal": 6190,
      "Ġadvantage": 6191,
      "give": 6192,
      "Ġnoted": 6193,
      "ipl": 6194,
      "car": 6195,
      "Ġsin": 6196,
      "ĠOut": 6197,
      "Ste": 6198,
      "geant": 6199,
      "Ġvent": 6200,
      "achus": 6201,
      "ildren": 6202,
      "Ġchicken": 6203,
      "Ġrealized": 6204,
      "Ġselling": 6205,
      "Open": 6206,
      "ervation": 6207,
      "Ġweapons": 6208,
      "ĠAmy": 6209,
      "Ġelement": 6210,
      "ĠConn": 6211,
      "Ġfaster": 6212,
      "Ġknife": 6213,
      "Ġuniverse": 6214,
      "ĠAssembly": 6215,
      "Ġincident": 6216,
      "Ġentirely": 6217,
      "bably": 6218,
      "Ġdoors": 6219,
      "Ġagent": 6220,
      "Ġmultiple": 6221,
      "zy": 6222,
      "ĠLike": 6223,
      "ĠInter": 6224,
      "Ġmanagement": 6225,
      "low": 6226,
      "Ġsport": 6227,
      "iliar": 6228,
      "isation": 6229,
      "Ġcock": 6230,
      "ordin": 6231,
      "Ġdisplay": 6232,
      "ropical": 6233,
      "Ġtravell": 6234,
      "Ġdrawn": 6235,
      "Ġpresidential": 6236,
      "Many": 6237,
      "Ġexperiment": 6238,
      "ĠService": 6239,
      "Ġmax": 6240,
      "illed": 6241,
      "Whatever": 6242,
      "izabeth": 6243,
      "ĠLatin": 6244,
      "ĠPict": 6245,
      "thur": 6246,
      "ĠGe": 6247,
      "Ġpreviously": 6248,
      "Ġdrawing": 6249,
      "Ġbuddy": 6250,
      "Ġarrange": 6251,
      "aming": 6252,
      "ĠNet": 6253,
      "Ġclever": 6254,
      "Ġforgive": 6255,
      "verse": 6256,
      "Ġinstance": 6257,
      "Ġachieve": 6258,
      "Dan": 6259,
      "Try": 6260,
      "Ġpink": 6261,
      "Ġstarring": 6262,
      "ĠMike": 6263,
      "Ġwrit": 6264,
      "Ġ1984": 6265,
      "Ã¡n": 6266,
      "ĠAccording": 6267,
      "ĠRon": 6268,
      "Ġavoid": 6269,
      "Ġpurch": 6270,
      "Ġgang": 6271,
      "oser": 6272,
      "ĠDev": 6273,
      "Ġextremely": 6274,
      "ĠStr": 6275,
      "Ġmixed": 6276,
      "37": 6277,
      "wan": 6278,
      "enes": 6279,
      "alright": 6280,
      "ĠTer": 6281,
      "Ġcontinues": 6282,
      "Ġhyp": 6283,
      "erk": 6284,
      "sex": 6285,
      "Ġ/": 6286,
      "itter": 6287,
      "aren": 6288,
      "Ġ1973": 6289,
      "Ġ90": 6290,
      "Ġrecording": 6291,
      "Ġlegisl": 6292,
      "Ġsolution": 6293,
      "Ġships": 6294,
      "ĠIrish": 6295,
      "ĠAT": 6296,
      "ĠHan": 6297,
      "onday": 6298,
      "egal": 6299,
      "Ġcake": 6300,
      "Ġgather": 6301,
      "ĠGall": 6302,
      "orney": 6303,
      "ropol": 6304,
      "Ġhumans": 6305,
      "Ġplatform": 6306,
      "Ġgrave": 6307,
      "elled": 6308,
      "ĠJr": 6309,
      "ports": 6310,
      "ĠSaturday": 6311,
      "Ġdyn": 6312,
      "ĠSH": 6313,
      "ĠBor": 6314,
      "Ġrefused": 6315,
      "Ġmaiden": 6316,
      "Ġhel": 6317,
      "Still": 6318,
      "Ġattacked": 6319,
      "Ġapolog": 6320,
      "zo": 6321,
      "ĠTri": 6322,
      "ĠWay": 6323,
      "Early": 6324,
      "ĠAS": 6325,
      "ĠMah": 6326,
      "ĠHave": 6327,
      "ĠTay": 6328,
      "ĠFe": 6329,
      "ĠProfessor": 6330,
      "Ġparties": 6331,
      "Ġchampion": 6332,
      "etts": 6333,
      "ĠCAN": 6334,
      "Ġremoved": 6335,
      "Ġexpression": 6336,
      "Ġproposed": 6337,
      "ĠMother": 6338,
      "Ġrapid": 6339,
      "Paul": 6340,
      "mo": 6341,
      "ĠNether": 6342,
      "angle": 6343,
      "Ġafterwards": 6344,
      "Ġdrum": 6345,
      "Ġcolon": 6346,
      "Ġfalse": 6347,
      "Ġstations": 6348,
      "ĠMic": 6349,
      "ĠBav": 6350,
      "ĠWall": 6351,
      "Ġshirt": 6352,
      "ĠNat": 6353,
      "Ġ1976": 6354,
      "Ġult": 6355,
      "ĠLI": 6356,
      "Ġcontest": 6357,
      "Ġcheese": 6358,
      "fortunately": 6359,
      "lah": 6360,
      "Ġpill": 6361,
      "Ġintegr": 6362,
      "ĠMusic": 6363,
      "ĠKorea": 6364,
      "47": 6365,
      "enger": 6366,
      "Ġshake": 6367,
      "ulate": 6368,
      "ĠKong": 6369,
      "Ġjoint": 6370,
      "Ġweapon": 6371,
      "zer": 6372,
      "Ġnurs": 6373,
      "Ġplenty": 6374,
      "Ġguest": 6375,
      "Ġ1968": 6376,
      "awn": 6377,
      "Ġmap": 6378,
      "oti": 6379,
      "Ġ1978": 6380,
      "Ġfallen": 6381,
      "Ġdrove": 6382,
      "Ġscientific": 6383,
      "itants": 6384,
      "lection": 6385,
      "ĠLy": 6386,
      "Ġwindows": 6387,
      "ĠKar": 6388,
      "thew": 6389,
      "Ġcommission": 6390,
      "Ġproducts": 6391,
      "Bill": 6392,
      "Ġmama": 6393,
      "ĠRam": 6394,
      "Ġblame": 6395,
      "Ġincred": 6396,
      "\").": 6397,
      "inces": 6398,
      "ĠLong": 6399,
      "Ġsomehow": 6400,
      "Ġunderstanding": 6401,
      "Ġtouched": 6402,
      "Ġseriously": 6403,
      "Ġactivities": 6404,
      "Ġbunch": 6405,
      "Ġchat": 6406,
      "Ġdial": 6407,
      "eral": 6408,
      "ĠFriday": 6409,
      "Ġcolour": 6410,
      "ington": 6411,
      "quarters": 6412,
      "EM": 6413,
      "after": 6414,
      "Ġsilent": 6415,
      "Ġsilence": 6416,
      "Ġlevels": 6417,
      "Ġfairly": 6418,
      "Ġcandidate": 6419,
      "Ġpowers": 6420,
      "ĠAB": 6421,
      "ĠRod": 6422,
      "ĠEll": 6423,
      "Ġplanned": 6424,
      "gly": 6425,
      "uous": 6426,
      "Ġthin": 6427,
      "ĠBell": 6428,
      "Ġfinds": 6429,
      "force": 6430,
      "ĠDivision": 6431,
      "Ġwitch": 6432,
      "Ġow": 6433,
      "ĠDON": 6434,
      "Ġattended": 6435,
      "rolled": 6436,
      "ading": 6437,
      "ĠBre": 6438,
      "ĠRail": 6439,
      "Ġinvestigation": 6440,
      "Ġdetails": 6441,
      "obal": 6442,
      "Ġmathemat": 6443,
      "Ġ1982": 6444,
      "Ġ1975": 6445,
      "Ġconflict": 6446,
      "Ġdisappeared": 6447,
      "Ġpra": 6448,
      "Ġmanufact": 6449,
      "Ġcontains": 6450,
      "ĠJean": 6451,
      "angers": 6452,
      "ĠShow": 6453,
      "Ġpresented": 6454,
      "Ġresponsibility": 6455,
      "ĠBook": 6456,
      "Ġnotes": 6457,
      "David": 6458,
      "sk": 6459,
      "Ġhidden": 6460,
      "adel": 6461,
      "Ġsevere": 6462,
      "Ġaband": 6463,
      "Ġham": 6464,
      "Ġlion": 6465,
      "Ġlatter": 6466,
      "IL": 6467,
      "Up": 6468,
      "ĠKe": 6469,
      "Ġ70": 6470,
      "Ġclasses": 6471,
      "Ġadministr": 6472,
      "ching": 6473,
      "ĠWHAT": 6474,
      "Ġapprox": 6475,
      "Ġbrave": 6476,
      "Ġstated": 6477,
      "ĠUnder": 6478,
      "Ġbat": 6479,
      "mann": 6480,
      "standing": 6481,
      "Ġ1969": 6482,
      "achusetts": 6483,
      "ĠNetherlands": 6484,
      "Gl": 6485,
      "part": 6486,
      "thony": 6487,
      "Ġelements": 6488,
      "Ġfate": 6489,
      "Ġdomin": 6490,
      "oln": 6491,
      "odd": 6492,
      "ĠYear": 6493,
      "Ġconsult": 6494,
      "Ġprotection": 6495,
      "Ġsuggested": 6496,
      "Ġperfectly": 6497,
      "Ġwid": 6498,
      "Ġpupp": 6499,
      "ĠHy": 6500,
      "unte": 6501,
      "ĠLife": 6502,
      "Ġchose": 6503,
      "--\"": 6504,
      "Ġexcited": 6505,
      "Sec": 6506,
      "olved": 6507,
      "Ġoldest": 6508,
      "Ġpainting": 6509,
      "Ġconnection": 6510,
      "ĠSecond": 6511,
      "',": 6512,
      "Ġpin": 6513,
      "ocol": 6514,
      "Ġserving": 6515,
      "ĠOhio": 6516,
      "Ġwings": 6517,
      "also": 6518,
      "ĠGal": 6519,
      "Ġunf": 6520,
      "ĠForce": 6521,
      "ĠMissouri": 6522,
      "ooth": 6523,
      "Ġreject": 6524,
      "ĠWITH": 6525,
      "Ġunivers": 6526,
      "Ġcris": 6527,
      "RA": 6528,
      "erves": 6529,
      "acks": 6530,
      "Ġlaunched": 6531,
      "Ġviolence": 6532,
      "Ġpeak": 6533,
      "ela": 6534,
      "Ġmonster": 6535,
      "Frank": 6536,
      "hetic": 6537,
      "Ġnervous": 6538,
      "HER": 6539,
      "Ġ1964": 6540,
      "ender": 6541,
      "athan": 6542,
      "lahoma": 6543,
      "gend": 6544,
      "were": 6545,
      "Ġpassing": 6546,
      "Ġgrowth": 6547,
      "Ġhyd": 6548,
      "Ġtongue": 6549,
      "Ġhabit": 6550,
      "uns": 6551,
      "aka": 6552,
      "ĠHealth": 6553,
      "Ġslept": 6554,
      "Ġshame": 6555,
      "Ġentr": 6556,
      "Ġsubs": 6557,
      "ducation": 6558,
      "Ġsamp": 6559,
      "Ġcute": 6560,
      "ĠBattle": 6561,
      "ĠDef": 6562,
      "Ġexpensive": 6563,
      "aska": 6564,
      "Ġcauses": 6565,
      "ĠScottish": 6566,
      "Ġok": 6567,
      "amily": 6568,
      "Ġclient": 6569,
      "Ġstands": 6570,
      "ĠAbout": 6571,
      "Ġseek": 6572,
      "Ġcomfortable": 6573,
      "chant": 6574,
      "Ġchampionship": 6575,
      "izes": 6576,
      "Ġadvert": 6577,
      "Ġdivor": 6578,
      "Ġlimited": 6579,
      "Ã³n": 6580,
      "Ġbabies": 6581,
      "Hurry": 6582,
      "ĠUp": 6583,
      "Ġpolitics": 6584,
      "Ġtradition": 6585,
      "Ġslightly": 6586,
      "Ġmedicine": 6587,
      "Ã§": 6588,
      "Ġfox": 6589,
      "ĠBroad": 6590,
      "ĠHarry": 6591,
      "Ġroute": 6592,
      ".)": 6593,
      "Ġorange": 6594,
      "shall": 6595,
      "Ġoperations": 6596,
      "Ġ01": 6597,
      "Ġrecognize": 6598,
      "Ġsettled": 6599,
      "real": 6600,
      "Ġcream": 6601,
      "ĠAM": 6602,
      "Ġsharp": 6603,
      "Ġidiot": 6604,
      "Ġsenior": 6605,
      "Has": 6606,
      "Ġax": 6607,
      "Ġearned": 6608,
      "Ġteachers": 6609,
      "ĠGeorgia": 6610,
      "entially": 6611,
      "Ã©e": 6612,
      "aughs": 6613,
      "Ġrent": 6614,
      "Ġpassion": 6615,
      "ias": 6616,
      "esides": 6617,
      "Ġnarrow": 6618,
      "uckles": 6619,
      "Ġ1974": 6620,
      "irmed": 6621,
      "ĠTest": 6622,
      "emies": 6623,
      "Ġgentleman": 6624,
      "Ġvehicle": 6625,
      "Ġlocked": 6626,
      "ĠCy": 6627,
      "Ġshr": 6628,
      "istics": 6629,
      "Ġcharm": 6630,
      "Ġbless": 6631,
      "ulture": 6632,
      "Ġeleven": 6633,
      "Ġemot": 6634,
      "Ġsixty": 6635,
      "Ġhonour": 6636,
      "Ġneighbour": 6637,
      "Ġdefeated": 6638,
      "wick": 6639,
      "ĠSupreme": 6640,
      "bec": 6641,
      "Ġhomes": 6642,
      "Ġsexual": 6643,
      "TA": 6644,
      "asp": 6645,
      "ĠPac": 6646,
      "Ġgraph": 6647,
      "ĠLouisiana": 6648,
      "acter": 6649,
      "ĠTimes": 6650,
      "Ġsisters": 6651,
      "Des": 6652,
      "WHAT": 6653,
      "Ġpoison": 6654,
      "39": 6655,
      "akh": 6656,
      "Ġappeal": 6657,
      "Ġofficially": 6658,
      "ĠOklahoma": 6659,
      "Under": 6660,
      "sit": 6661,
      "ĠSP": 6662,
      "Ġracing": 6663,
      "Ġupstairs": 6664,
      "Ġexchange": 6665,
      "eps": 6666,
      "Ġbeach": 6667,
      "ĠHoly": 6668,
      "ultan": 6669,
      "Ġsurgery": 6670,
      "Ġoccurred": 6671,
      "ef": 6672,
      "Ġcards": 6673,
      "Ġhappiness": 6674,
      "awa": 6675,
      "Ġowner": 6676,
      "Ġeconomy": 6677,
      "stone": 6678,
      "ĠAk": 6679,
      "oston": 6680,
      "Ġpartners": 6681,
      "ĠÂ¶": 6682,
      "Ġcitizens": 6683,
      "Ġheav": 6684,
      "Ġ1977": 6685,
      "ervative": 6686,
      "ĠAustria": 6687,
      "Ġfairy": 6688,
      "ĠPakistan": 6689,
      "Geor": 6690,
      "Although": 6691,
      "Ġdeliver": 6692,
      "Ġrevolution": 6693,
      "Ġfollows": 6694,
      "Ġ1971": 6695,
      "Ġbegins": 6696,
      "Ġtreated": 6697,
      "bow": 6698,
      "point": 6699,
      "Ġbatt": 6700,
      "Ġvision": 6701,
      "Ġ35": 6702,
      "bridge": 6703,
      "ACK": 6704,
      "essel": 6705,
      "Ġloose": 6706,
      "Ġreports": 6707,
      "Ġcommercial": 6708,
      "Watch": 6709,
      "mommy": 6710,
      "oir": 6711,
      "onic": 6712,
      "Ġmuseum": 6713,
      "Ġ(,": 6714,
      "cript": 6715,
      "Ġelections": 6716,
      "\"),": 6717,
      "box": 6718,
      "ĠIowa": 6719,
      "Ġonline": 6720,
      "ĠHarr": 6721,
      "Ġlibrary": 6722,
      "Ġconsist": 6723,
      "Ġbreaking": 6724,
      "ext": 6725,
      "Ġbeer": 6726,
      "ĠCivil": 6727,
      "Ġgoals": 6728,
      "Ġblank": 6729,
      "worth": 6730,
      "Ġhom": 6731,
      "Ġlat": 6732,
      "unning": 6733,
      "Ġfamiliar": 6734,
      "ĠAsia": 6735,
      "Ġ1967": 6736,
      "ART": 6737,
      "Ġequip": 6738,
      "Turn": 6739,
      "Ġho": 6740,
      "ĠMcC": 6741,
      "Ġadmit": 6742,
      "ĠFrancisco": 6743,
      "38": 6744,
      "case": 6745,
      "Ġconc": 6746,
      "Ġmayor": 6747,
      "Ġarticle": 6748,
      "Ġterritory": 6749,
      "36": 6750,
      "cha": 6751,
      "ĠFour": 6752,
      "ntil": 6753,
      "ĠTony": 6754,
      "Ġtheme": 6755,
      "ureau": 6756,
      "Ġprime": 6757,
      "Ġretire": 6758,
      "Ġwinner": 6759,
      "rical": 6760,
      "Å¡": 6761,
      "only": 6762,
      "Ġcousin": 6763,
      "Ġseasons": 6764,
      "Ġsav": 6765,
      "Ġcommitted": 6766,
      "Ġboyfriend": 6767,
      "Ġincome": 6768,
      "Ġtraffic": 6769,
      "Ġsentence": 6770,
      "Ġvariety": 6771,
      "Ġfeatured": 6772,
      "inem": 6773,
      "phant": 6774,
      "Ġdiscover": 6775,
      "Last": 6776,
      "ĠGi": 6777,
      "Ġ1940": 6778,
      "Ġrespond": 6779,
      "Ġridic": 6780,
      "ĠSweden": 6781,
      "inent": 6782,
      "ĠARE": 6783,
      "clus": 6784,
      "Ġartists": 6785,
      "turn": 6786,
      "Ã´": 6787,
      "Ġintended": 6788,
      "Looks": 6789,
      "Ġpatients": 6790,
      "imal": 6791,
      "anches": 6792,
      "Ġsetting": 6793,
      "Ġwondering": 6794,
      "Ġkil": 6795,
      "ĠEven": 6796,
      "ĠUN": 6797,
      "Ġ1966": 6798,
      "Ġcalcul": 6799,
      "Ġlone": 6800,
      "ĠWinter": 6801,
      "ĠRose": 6802,
      "ĠFound": 6803,
      "Ġapparently": 6804,
      "Ġcreature": 6805,
      "Ġchallenge": 6806,
      "Ġremembered": 6807,
      "Ġmental": 6808,
      "orse": 6809,
      "Ġgained": 6810,
      "ĠAli": 6811,
      "ĠHome": 6812,
      "Ġrac": 6813,
      "ava": 6814,
      "Ġshoulder": 6815,
      "Ġhandsome": 6816,
      "Ġreferred": 6817,
      "Ġwaited": 6818,
      "Mad": 6819,
      "Ġfaces": 6820,
      "Ġhook": 6821,
      "ĠLie": 6822,
      "ĠNaz": 6823,
      "Ġscale": 6824,
      "Ġswitch": 6825,
      "Ġairport": 6826,
      "Ġinnocent": 6827,
      "Ġdiss": 6828,
      "Ġconscious": 6829,
      "ĠBlue": 6830,
      "Ġdaily": 6831,
      "Jan": 6832,
      "Ġwolf": 6833,
      "aser": 6834,
      "ĠVen": 6835,
      "Ġcommittee": 6836,
      "ĠMassachusetts": 6837,
      "ĠFootball": 6838,
      "49": 6839,
      "long": 6840,
      "than": 6841,
      "Ġ-&": 6842,
      "Ġhundreds": 6843,
      "PS": 6844,
      "Pol": 6845,
      "Ġtank": 6846,
      "Ġwise": 6847,
      "ĠAss": 6848,
      "ĠTime": 6849,
      "ĠKim": 6850,
      "Ġunknown": 6851,
      "Ġjun": 6852,
      "Ġactivity": 6853,
      "UM": 6854,
      "bu": 6855,
      "vy": 6856,
      "ĠLine": 6857,
      "Ġ500": 6858,
      "Ġestim": 6859,
      "Ġrailway": 6860,
      "Ġshock": 6861,
      "Ġvirt": 6862,
      "Ġincreasing": 6863,
      "Ġclimate": 6864,
      "Ġbasketball": 6865,
      "Ġsacrif": 6866,
      "Ġnea": 6867,
      "Ġath": 6868,
      "Ġshore": 6869,
      "Ġhorrible": 6870,
      "incoln": 6871,
      "ĠPolish": 6872,
      "Ġfrightened": 6873,
      "Ġinhabitants": 6874,
      "Mark": 6875,
      "Peter": 6876,
      "Ġbatter": 6877,
      "organ": 6878,
      "ĠChris": 6879,
      "Ġflood": 6880,
      "ggie": 6881,
      "po": 6882,
      "wa": 6883,
      "iece": 6884,
      "ĠFestival": 6885,
      "Ġtransform": 6886,
      "Ġorganiz": 6887,
      "Ġtie": 6888,
      "Ġpushed": 6889,
      "adu": 6890,
      "Ġrooms": 6891,
      "poration": 6892,
      "gian": 6893,
      "Ġcig": 6894,
      "ulpt": 6895,
      "Ġbackground": 6896,
      "ĠAndrew": 6897,
      "Ġsigns": 6898,
      "ĠWilliams": 6899,
      "EF": 6900,
      "Ma": 6901,
      "pa": 6902,
      "rich": 6903,
      "Ġye": 6904,
      "alm": 6905,
      "...\"": 6906,
      "Ġsplend": 6907,
      "Ġcheap": 6908,
      "ĠPrize": 6909,
      "every": 6910,
      "Ġben": 6911,
      "Ġreact": 6912,
      "Ġproced": 6913,
      "Ġblocks": 6914,
      "Ġaccomp": 6915,
      "Ġyoungest": 6916,
      "Ġwand": 6917,
      "earch": 6918,
      "Ġtrail": 6919,
      "48": 6920,
      "BS": 6921,
      "TO": 6922,
      "inging": 6923,
      "aughters": 6924,
      "ARD": 6925,
      "ĠChairman": 6926,
      "ĠGET": 6927,
      "ĠNorm": 6928,
      "Ġcommit": 6929,
      "Ġsteal": 6930,
      "ĠRepresentatives": 6931,
      "gment": 6932,
      "Their": 6933,
      "ĠHind": 6934,
      "ĠOx": 6935,
      "Ġoverall": 6936,
      "Ġens": 6937,
      "Ġoblig": 6938,
      "Ġservant": 6939,
      "Ġsolve": 6940,
      "Ġestablish": 6941,
      "Michael": 6942,
      "Whe": 6943,
      "Ġtor": 6944,
      "orf": 6945,
      "bly": 6946,
      "ĠLater": 6947,
      "ieve": 6948,
      "Ġimportance": 6949,
      "Ġmaintain": 6950,
      "ĠPolice": 6951,
      "Sit": 6952,
      "amin": 6953,
      "Ġaspect": 6954,
      "Ġsole": 6955,
      "Ġmyst": 6956,
      "agement": 6957,
      "Ġquit": 6958,
      "Ġtowns": 6959,
      "Ġcanton": 6960,
      "Ġresources": 6961,
      "IA": 6962,
      "Ġreward": 6963,
      "ovie": 6964,
      "ĠVol": 6965,
      "ĠAlan": 6966,
      "Ġpregnant": 6967,
      "gues": 6968,
      "lar": 6969,
      "Ġlt": 6970,
      "ĠDav": 6971,
      "arrass": 6972,
      "ĠPhilipp": 6973,
      "Ġframe": 6974,
      "Ġsuffering": 6975,
      "46": 6976,
      "cus": 6977,
      "Ġlin": 6978,
      "Ġlips": 6979,
      "ittie": 6980,
      "Ġroot": 6981,
      "door": 6982,
      "coh": 6983,
      "Ġborrow": 6984,
      "ivity": 6985,
      "Ġbelief": 6986,
      "ĠSanta": 6987,
      "Ġugly": 6988,
      "ĠBas": 6989,
      "ails": 6990,
      "Ġfurn": 6991,
      "Ġpump": 6992,
      "Ġstole": 6993,
      "geon": 6994,
      "Ġhoping": 6995,
      "70": 6996,
      "istor": 6997,
      "ĠBavaria": 6998,
      "Comm": 6999,
      "based": 7000,
      "ĠHal": 7001,
      "Ġcompared": 7002,
      "ĠThree": 7003,
      "Ġstring": 7004,
      "Ġclaimed": 7005,
      "uties": 7006,
      "usted": 7007,
      "Ġgodd": 7008,
      "oster": 7009,
      "ĠUncle": 7010,
      "Ġdescend": 7011,
      "Ġpriest": 7012,
      "Ġbeneath": 7013,
      "Ġexercise": 7014,
      "Ġjournalist": 7015,
      "Ġnurse": 7016,
      "Ġappreciate": 7017,
      "ĠBea": 7018,
      "ĠEastern": 7019,
      "Ġslave": 7020,
      "Ġobvious": 7021,
      "five": 7022,
      "ĠMiddle": 7023,
      "Ġkeys": 7024,
      "phia": 7025,
      "Ġsubt": 7026,
      "Ġemp": 7027,
      "Ġorganized": 7028,
      "Ġdisappoint": 7029,
      "Ġbullet": 7030,
      "Again": 7031,
      "James": 7032,
      "whe": 7033,
      "ompl": 7034,
      "Ġrow": 7035,
      "Ġequipment": 7036,
      "Ġclock": 7037,
      "Ġperman": 7038,
      "Time": 7039,
      "Ġbrilliant": 7040,
      "ĠMem": 7041,
      "Ġshell": 7042,
      "Ġmeters": 7043,
      "Ġexecutive": 7044,
      "Ġwrest": 7045,
      "onze": 7046,
      "Ġmole": 7047,
      "Ġinqu": 7048,
      "oto": 7049,
      "Ġbutton": 7050,
      "Ġcheer": 7051,
      "okes": 7052,
      "Ġruled": 7053,
      "Ġfolks": 7054,
      "ĠDisney": 7055,
      "peek": 7056,
      "Ġheight": 7057,
      "ĠHung": 7058,
      "venge": 7059,
      "ounce": 7060,
      "Ġassistant": 7061,
      "Ġrestaurant": 7062,
      "Too": 7063,
      "Ġgoodness": 7064,
      "burgh": 7065,
      "miss": 7066,
      "ĠKen": 7067,
      "Ġunus": 7068,
      "ti": 7069,
      "ĠCa": 7070,
      "ĠPre": 7071,
      "uma": 7072,
      "Ġspect": 7073,
      "Ġ45": 7074,
      "asked": 7075,
      "EST": 7076,
      "Ġcircumstances": 7077,
      "ori": 7078,
      "Ġwash": 7079,
      "aki": 7080,
      "Life": 7081,
      "ingly": 7082,
      "Ġchart": 7083,
      "Ġsuck": 7084,
      "Ġplate": 7085,
      "ĠNews": 7086,
      "ĠDirector": 7087,
      "cr": 7088,
      "ĠMonday": 7089,
      "Ġadditional": 7090,
      "Ġdemocr": 7091,
      "nesota": 7092,
      "outs": 7093,
      "iform": 7094,
      "Ġvessel": 7095,
      "Ġrelax": 7096,
      "ĠJustice": 7097,
      "Ġghost": 7098,
      "una": 7099,
      "ĠLO": 7100,
      "ĠEs": 7101,
      "ague": 7102,
      "ĠUP": 7103,
      "ropolitan": 7104,
      "occ": 7105,
      "Ġpul": 7106,
      "ĠTra": 7107,
      "Ġconqu": 7108,
      "Ġproperly": 7109,
      "Ġchalleng": 7110,
      "ĠAsh": 7111,
      "elf": 7112,
      "raham": 7113,
      "ogue": 7114,
      "Ġunh": 7115,
      "uer": 7116,
      "ĠNavy": 7117,
      "ements": 7118,
      "Ġsup": 7119,
      "Ġcourage": 7120,
      "Ġlands": 7121,
      "Sim": 7122,
      "life": 7123,
      "ceived": 7124,
      "Ġimpact": 7125,
      "ĠRecords": 7126,
      "iÄ": 7127,
      "Ġpoll": 7128,
      "ĠBon": 7129,
      "ĠOl": 7130,
      "Ġenemies": 7131,
      "195": 7132,
      "Ġgeneration": 7133,
      "Ġexistence": 7134,
      "Ġburning": 7135,
      "Ġrepeated": 7136,
      "ĠConfeder": 7137,
      "ĠSon": 7138,
      "Ġaccompl": 7139,
      "ĠAustrian": 7140,
      "Ġengaged": 7141,
      "Ġrocks": 7142,
      "Ġrecognized": 7143,
      "Ġromantic": 7144,
      "Pre": 7145,
      "Ġshel": 7146,
      "ERS": 7147,
      "Ġcaptured": 7148,
      "Ġgraduated": 7149,
      "ĠOffice": 7150,
      "cest": 7151,
      "Ġmail": 7152,
      "Ġcontain": 7153,
      "Ġeaten": 7154,
      "Ġvalues": 7155,
      "Ġreviews": 7156,
      "Ġassociated": 7157,
      "gorith": 7158,
      "Ġbastard": 7159,
      "Ben": 7160,
      "ĠAri": 7161,
      "ĠTake": 7162,
      "Ġ1963": 7163,
      "ĠMinnesota": 7164,
      "Ġbenefit": 7165,
      "Ġwound": 7166,
      "Ġthroat": 7167,
      "ĠMen": 7168,
      "chief": 7169,
      "inder": 7170,
      "Ġteen": 7171,
      "Ġsettle": 7172,
      "Ġscientists": 7173,
      "Ġdefeat": 7174,
      "Ġbra": 7175,
      "Ġdim": 7176,
      "kel": 7177,
      "ĠCorn": 7178,
      "osa": 7179,
      "eaking": 7180,
      "Ġinsp": 7181,
      "Ġlimit": 7182,
      "Ġfortune": 7183,
      "ĠHea": 7184,
      "aba": 7185,
      "ntario": 7186,
      "ĠBoard": 7187,
      "Ġneighborhood": 7188,
      "King": 7189,
      "met": 7190,
      "pass": 7191,
      "Ġtournament": 7192,
      "omy": 7193,
      "ĠBudd": 7194,
      "Ġselected": 7195,
      "ĠUh": 7196,
      "Ġ1956": 7197,
      "Ġdarkness": 7198,
      "take": 7199,
      "ĠSub": 7200,
      "olen": 7201,
      "Ġshoe": 7202,
      "Ġconsists": 7203,
      "Ġsolid": 7204,
      "Ġwebsite": 7205,
      "adelphia": 7206,
      "VID": 7207,
      "ĠOffic": 7208,
      "Ġtruly": 7209,
      "Ġcoal": 7210,
      "Ġsurvive": 7211,
      "Ġembarrass": 7212,
      "Ġagreement": 7213,
      "ĠMod": 7214,
      "ĠBad": 7215,
      "Ġalarm": 7216,
      "ĠViet": 7217,
      "isy": 7218,
      "Ġunique": 7219,
      "Ġlisted": 7220,
      "Ġ1965": 7221,
      "Big": 7222,
      "Ġsale": 7223,
      "ĠDak": 7224,
      "ĠEv": 7225,
      "Ġordinary": 7226,
      "Ġnormally": 7227,
      "ĠThanks": 7228,
      "Ġbunny": 7229,
      "Ġowe": 7230,
      "otic": 7231,
      "three": 7232,
      "ĠFre": 7233,
      "Ġthrown": 7234,
      "ipping": 7235,
      "andom": 7236,
      "Ġapply": 7237,
      "Ġkiller": 7238,
      "Ġholds": 7239,
      "arant": 7240,
      "Ġreck": 7241,
      "ĠTem": 7242,
      "Ġgoods": 7243,
      "ESS": 7244,
      "Ġveget": 7245,
      "Ġlabel": 7246,
      "little": 7247,
      "Ġfuel": 7248,
      "ĠInt": 7249,
      "urally": 7250,
      "Ġcrash": 7251,
      "Ġballs": 7252,
      "Bel": 7253,
      "CT": 7254,
      "alo": 7255,
      "owned": 7256,
      "Ġdistribution": 7257,
      "Bring": 7258,
      "CO": 7259,
      "THAT": 7260,
      "mag": 7261,
      "era": 7262,
      "eding": 7263,
      "icing": 7264,
      "ĠBh": 7265,
      "ĠWater": 7266,
      "Ġriding": 7267,
      "Ġchamber": 7268,
      "ĠBrother": 7269,
      "Ġsorts": 7270,
      "Ġhunting": 7271,
      "sur": 7272,
      "Ã¢": 7273,
      "Ġdude": 7274,
      "ĠBull": 7275,
      "ustration": 7276,
      "ĠDet": 7277,
      "Ġvotes": 7278,
      "NE": 7279,
      "bird": 7280,
      "uce": 7281,
      "Ġwounded": 7282,
      "Ġcateg": 7283,
      "Ġfancy": 7284,
      "Ġtroub": 7285,
      "Ġbrings": 7286,
      "Ġdelay": 7287,
      "ealous": 7288,
      "Ġobjects": 7289,
      "'?": 7290,
      "cow": 7291,
      "ĠSant": 7292,
      "ĠMayor": 7293,
      "Ġhistorical": 7294,
      "Ġelder": 7295,
      "ĠUkraine": 7296,
      "Rich": 7297,
      "gle": 7298,
      "ami": 7299,
      "ĠDick": 7300,
      "ĠOUT": 7301,
      "Ġinstant": 7302,
      "Ġsitu": 7303,
      "ĠSteve": 7304,
      "iser": 7305,
      "Ġdust": 7306,
      "Ġgal": 7307,
      "ĠSher": 7308,
      "Ġwithd": 7309,
      "Ġpoetry": 7310,
      "Ġpir": 7311,
      "ĠNight": 7312,
      "Ġconsequ": 7313,
      "Ġsubsequ": 7314,
      "ĠTrump": 7315,
      "Anything": 7316,
      "Ġobserved": 7317,
      "Geography": 7318,
      "fle": 7319,
      "Ġsculpt": 7320,
      "ĠRevolution": 7321,
      "Captain": 7322,
      "Father": 7323,
      "Ġtur": 7324,
      "ĠBus": 7325,
      "Ġproved": 7326,
      "agle": 7327,
      "Ġadvance": 7328,
      "Ġbelongs": 7329,
      "Ġefforts": 7330,
      "acity": 7331,
      "ĠGre": 7332,
      "osal": 7333,
      "Little": 7334,
      "Ġ1962": 7335,
      "Ġbedroom": 7336,
      "looking": 7337,
      "Ġprogramme": 7338,
      "ĠALL": 7339,
      "Ġliqu": 7340,
      "ĠLeg": 7341,
      "Ġvolunte": 7342,
      "Four": 7343,
      "Ġgain": 7344,
      "ourse": 7345,
      "abbit": 7346,
      "igr": 7347,
      "Ġhelps": 7348,
      "apping": 7349,
      "zech": 7350,
      "Ġinitial": 7351,
      "Both": 7352,
      "ĠBern": 7353,
      "Ġspending": 7354,
      "Ġassign": 7355,
      "Ġconfirmed": 7356,
      "ĠBerlin": 7357,
      "Ġsymbol": 7358,
      "dis": 7359,
      "Ġtort": 7360,
      "Ġlaunch": 7361,
      "bar": 7362,
      "Ġwing": 7363,
      "Ġaside": 7364,
      "inking": 7365,
      "Ġvia": 7366,
      "gging": 7367,
      "Ġfactory": 7368,
      "Ġski": 7369,
      "going": 7370,
      "ĠElizabeth": 7371,
      "Su": 7372,
      "ĠPL": 7373,
      "alymp": 7374,
      "Ġsending": 7375,
      "Ġemergency": 7376,
      "Ġfolk": 7377,
      "31": 7378,
      "Ġlift": 7379,
      "Ġstable": 7380,
      "Ġvir": 7381,
      "Ġbadly": 7382,
      "Ġannual": 7383,
      "ĠRegion": 7384,
      "respond": 7385,
      "Fin": 7386,
      "Ġcats": 7387,
      "ĠArts": 7388,
      "Ġclosely": 7389,
      "Ġconcern": 7390,
      "Ġchemical": 7391,
      "inity": 7392,
      "Ġbon": 7393,
      "ĠBoston": 7394,
      "Ġtoys": 7395,
      "ĠSk": 7396,
      "ĠCub": 7397,
      "ĠOb": 7398,
      "Ġexcellent": 7399,
      "stra": 7400,
      "Ġmeal": 7401,
      "ailed": 7402,
      "Ġsurely": 7403,
      "ĠParalymp": 7404,
      "Ġcritical": 7405,
      "Ġinjury": 7406,
      "fish": 7407,
      "ĠDuke": 7408,
      "Ġalgorith": 7409,
      "aws": 7410,
      "Ġdesper": 7411,
      "ollowing": 7412,
      "Ġjumped": 7413,
      "Ġargument": 7414,
      "Ġmerely": 7415,
      "nic": 7416,
      "Ġalleg": 7417,
      "ĠKenn": 7418,
      "Ġgotten": 7419,
      "Ġremaining": 7420,
      "rett": 7421,
      "Ġexplained": 7422,
      "Ġcomplicated": 7423,
      "Int": 7424,
      "Mart": 7425,
      "mosp": 7426,
      "Ġallows": 7427,
      "Ġphr": 7428,
      "onym": 7429,
      "ĠEnter": 7430,
      "Ġcruel": 7431,
      "ropriate": 7432,
      "Yep": 7433,
      "dog": 7434,
      "Ġfold": 7435,
      "Ġgrey": 7436,
      "alities": 7437,
      "ĠSa": 7438,
      "ciences": 7439,
      "Ġpoem": 7440,
      "Ġcollea": 7441,
      "Ġprofession": 7442,
      "Bar": 7443,
      "rive": 7444,
      "ĠMir": 7445,
      "Ġjew": 7446,
      "ounding": 7447,
      "Ġinstruct": 7448,
      "Ġcreation": 7449,
      "ĠDi": 7450,
      "ĠRom": 7451,
      "ĠOver": 7452,
      "Ġactions": 7453,
      "Ġacad": 7454,
      "Ġsym": 7455,
      "engers": 7456,
      "Ġjuice": 7457,
      "500": 7458,
      "Ġpiss": 7459,
      "ĠSol": 7460,
      "rose": 7461,
      "ĠBour": 7462,
      "Ġattitude": 7463,
      "ographer": 7464,
      "ĠSwedish": 7465,
      "Ġshared": 7466,
      "Ġexact": 7467,
      "Ġdistinct": 7468,
      "Ġfacts": 7469,
      "Ġprisoners": 7470,
      "Ġindividuals": 7471,
      "Ġaffected": 7472,
      "Ġsucceeded": 7473,
      "encies": 7474,
      "ĠColumbia": 7475,
      "OY": 7476,
      "Char": 7477,
      "ĠLabour": 7478,
      "yard": 7479,
      "usal": 7480,
      "sters": 7481,
      "Ġknocked": 7482,
      "Ġrum": 7483,
      "Ġbutt": 7484,
      "ĠConstitution": 7485,
      "Ġcommonly": 7486,
      "Ġadopted": 7487,
      "RAT": 7488,
      "ront": 7489,
      "Ġsixth": 7490,
      "ĠOnly": 7491,
      "Ġeighty": 7492,
      "Ġterrif": 7493,
      "aya": 7494,
      "Ġalcoh": 7495,
      "Ġvalley": 7496,
      "Ġanswers": 7497,
      "Ġwoods": 7498,
      "32": 7499,
      "KING": 7500,
      "Ġbranches": 7501,
      "never": 7502,
      "ĠJimmy": 7503,
      "90": 7504,
      "Ġdread": 7505,
      "Ġyard": 7506,
      "Ġreform": 7507,
      "emon": 7508,
      "Ġleads": 7509,
      "Ġ1959": 7510,
      "ĠMexican": 7511,
      "Ġridiculous": 7512,
      "mir": 7513,
      "amba": 7514,
      "Ġexamples": 7515,
      "Ġdepends": 7516,
      "IG": 7517,
      "RT": 7518,
      "uing": 7519,
      "Ġnumerous": 7520,
      "Five": 7521,
      "irit": 7522,
      "olk": 7523,
      "Ġauthorities": 7524,
      "ĠTurk": 7525,
      "Ġtelephone": 7526,
      "ĠPacific": 7527,
      "Mon": 7528,
      "inals": 7529,
      "Ġ1957": 7530,
      "Ġinsurance": 7531,
      "Somebody": 7532,
      "Career": 7533,
      "Ġmoves": 7534,
      "apped": 7535,
      "Ġ1954": 7536,
      "Ġswimming": 7537,
      "Eng": 7538,
      "Ġfalls": 7539,
      "adesh": 7540,
      "Ġburst": 7541,
      "ĠNic": 7542,
      "Ġconference": 7543,
      "Ġexplos": 7544,
      "Ġanimated": 7545,
      "evin": 7546,
      "Ġdisappear": 7547,
      "know": 7548,
      "onent": 7549,
      "Ġocean": 7550,
      "ĠVan": 7551,
      "Ġflu": 7552,
      "Ġsooner": 7553,
      "Ġconstitution": 7554,
      "\";": 7555,
      "Jim": 7556,
      "foot": 7557,
      "Ġcas": 7558,
      "Ġdish": 7559,
      "Ġdump": 7560,
      "ĠPin": 7561,
      "icking": 7562,
      "ultural": 7563,
      "Ġmonkey": 7564,
      "Ġdevice": 7565,
      "rior": 7566,
      "ĠGree": 7567,
      "ĠNO": 7568,
      "ĠAlthough": 7569,
      "ĠPoland": 7570,
      "34": 7571,
      "ORE": 7572,
      "ication": 7573,
      "ĠBilly": 7574,
      "Ġseats": 7575,
      "unting": 7576,
      "Ġshook": 7577,
      "ĠRoll": 7578,
      "ardo": 7579,
      "Ġnights": 7580,
      "Ġcharges": 7581,
      "Ġintroduce": 7582,
      "comp": 7583,
      "got": 7584,
      "ĠAnton": 7585,
      "BA": 7586,
      "Foot": 7587,
      "wich": 7588,
      "Ġshadow": 7589,
      "Ġestate": 7590,
      "Ġconstant": 7591,
      "Ġattacks": 7592,
      "Ġbaseball": 7593,
      "aints": 7594,
      "Ġ1947": 7595,
      "mony": 7596,
      "itable": 7597,
      "Ġstronger": 7598,
      "Ġdawn": 7599,
      "100": 7600,
      "cription": 7601,
      "Ġadvanced": 7602,
      "Ġlecture": 7603,
      "vi": 7604,
      "ifying": 7605,
      "aved": 7606,
      "Ġ36": 7607,
      "Ġlistened": 7608,
      "Ġdevil": 7609,
      "Ġstruggle": 7610,
      "Ġlonely": 7611,
      "Boy": 7612,
      "Ãª": 7613,
      "Ġtear": 7614,
      "omi": 7615,
      "Ġwhist": 7616,
      "rovers": 7617,
      "ĠHead": 7618,
      "Ġunable": 7619,
      "Ġdram": 7620,
      "Ġmarked": 7621,
      "Ġanalysis": 7622,
      "SO": 7623,
      "Ġsche": 7624,
      "Ġregions": 7625,
      "oked": 7626,
      "Ġimpress": 7627,
      "Ġsoftware": 7628,
      "Ġintelligence": 7629,
      "pher": 7630,
      "athered": 7631,
      "Ġpiano": 7632,
      "omach": 7633,
      "ĠProt": 7634,
      "Ġprize": 7635,
      "Ġsuffer": 7636,
      "Ġbathroom": 7637,
      "ĠDakota": 7638,
      "mat": 7639,
      "Ġdaughters": 7640,
      "ĠBoth": 7641,
      "Ġbits": 7642,
      "ĠAlf": 7643,
      "Ġnearby": 7644,
      "Ġbehavior": 7645,
      "aa": 7646,
      "aus": 7647,
      "Ġtow": 7648,
      "ĠFC": 7649,
      "Ġmusician": 7650,
      "Ġfigured": 7651,
      "Ġcultural": 7652,
      "ĠAlexander": 7653,
      "lers": 7654,
      "note": 7655,
      "Ġknees": 7656,
      "ĠNations": 7657,
      "Ġplot": 7658,
      "their": 7659,
      "Ġstranger": 7660,
      "Ġwarning": 7661,
      "hmm": 7662,
      "Ġsources": 7663,
      "Ġnuclear": 7664,
      "rad": 7665,
      "ĠNick": 7666,
      "onsense": 7667,
      "ĠBefore": 7668,
      "Ġsquared": 7669,
      "Ġconstruct": 7670,
      "Ġdemonstr": 7671,
      "Ġinstrument": 7672,
      ",âĢĻ": 7673,
      "Cong": 7674,
      "Jul": 7675,
      "Ġbones": 7676,
      "Ġlung": 7677,
      "Ġnort": 7678,
      "Ġatmosp": 7679,
      "ĠWhe": 7680,
      "Ġtrained": 7681,
      "Ġprotest": 7682,
      "Ġissued": 7683,
      "Brother": 7684,
      "Ġpilot": 7685,
      "99": 7686,
      "pol": 7687,
      "Ġgrav": 7688,
      "ĠWend": 7689,
      "ĠLight": 7690,
      "ĠFoundation": 7691,
      "##": 7692,
      "à¤": 7693,
      "Ġthrill": 7694,
      "ĠFederal": 7695,
      "Ġ1961": 7696,
      "Ġepisodes": 7697,
      "ĠGolden": 7698,
      "Hen": 7699,
      "Ġcert": 7700,
      "Ġlit": 7701,
      "iments": 7702,
      "ĠMu": 7703,
      "ĠDor": 7704,
      "ĠOntario": 7705,
      "class": 7706,
      "Ġ1952": 7707,
      "Ġhorror": 7708,
      "Ġadministration": 7709,
      "ĠBrook": 7710,
      "ras": 7711,
      "Ġdeserve": 7712,
      "Ġescaped": 7713,
      "ennes": 7714,
      "Ġdescribe": 7715,
      "conscious": 7716,
      "General": 7717,
      "mouth": 7718,
      "Ġsout": 7719,
      "Ġlamp": 7720,
      "ĠHong": 7721,
      "Ġcongress": 7722,
      "Ġsomewhat": 7723,
      "Ġheaded": 7724,
      "Ġdecor": 7725,
      "Shall": 7726,
      "anz": 7727,
      "Ġhousehold": 7728,
      "Ġ1945": 7729,
      "Ġapplied": 7730,
      "Ġtoy": 7731,
      "ivered": 7732,
      "Ġchairman": 7733,
      "Ġliterature": 7734,
      "Ġcrisis": 7735,
      "Res": 7736,
      "kh": 7737,
      "ĠJUST": 7738,
      "Ġbronze": 7739,
      "ĠAndy": 7740,
      "ĠJohnny": 7741,
      "Ġcreating": 7742,
      "ĠAtt": 7743,
      "Ġpainted": 7744,
      "ĠHonor": 7745,
      "mn": 7746,
      "ruce": 7747,
      "Ġfriendly": 7748,
      "ĠPhiladelphia": 7749,
      "ĠJews": 7750,
      "UCK": 7751,
      "Ġstairs": 7752,
      "Ġstolen": 7753,
      "Exactly": 7754,
      "Ġrevealed": 7755,
      "Ġdoctors": 7756,
      "aire": 7757,
      "Ġassume": 7758,
      "IST": 7759,
      "Ġtreasure": 7760,
      "Aye": 7761,
      "osis": 7762,
      "Ġdefin": 7763,
      "ddie": 7764,
      "Ġ1942": 7765,
      "Ġstraw": 7766,
      "Pat": 7767,
      "four": 7768,
      "wald": 7769,
      "Ġaid": 7770,
      "Ġsalt": 7771,
      "Ġpi": 7772,
      "Ġpitch": 7773,
      "ĠCzech": 7774,
      "Ġheadquarters": 7775,
      "Ġmarks": 7776,
      "ĠSeries": 7777,
      "):": 7778,
      "via": 7779,
      "Ġpension": 7780,
      "those": 7781,
      "pered": 7782,
      "Ġillness": 7783,
      "lNG": 7784,
      "Ġsang": 7785,
      "omed": 7786,
      "ĠSure": 7787,
      "Ġfounder": 7788,
      "Ġregret": 7789,
      "ierce": 7790,
      "ĠBarb": 7791,
      "Ġcopies": 7792,
      "ĠIndiana": 7793,
      "Ġquietly": 7794,
      "Ġprepare": 7795,
      "Ġapproximately": 7796,
      "IP": 7797,
      "eel": 7798,
      "ĠAny": 7799,
      "ĠTurn": 7800,
      "Ġwhenever": 7801,
      "Ant": 7802,
      "Work": 7803,
      "lad": 7804,
      "Ġmood": 7805,
      "obe": 7806,
      "Ġpleasant": 7807,
      "Ġpermission": 7808,
      "Robert": 7809,
      "itage": 7810,
      "Ġnest": 7811,
      "Ġancest": 7812,
      "ĠHolly": 7813,
      "coming": 7814,
      "Ġtracks": 7815,
      "Alex": 7816,
      "WELL": 7817,
      "Ġhug": 7818,
      "aro": 7819,
      "Ġclimb": 7820,
      "ĠAirport": 7821,
      "ĠPictures": 7822,
      "itors": 7823,
      "Ġdies": 7824,
      "ĠScience": 7825,
      "ĠAlp": 7826,
      "ĠPen": 7827,
      "Ġdesk": 7828,
      "IND": 7829,
      "Ġalongside": 7830,
      "pite": 7831,
      "Ġ75": 7832,
      "chers": 7833,
      "UD": 7834,
      "ateful": 7835,
      "Ġflow": 7836,
      "Also": 7837,
      "Ġdespite": 7838,
      "Ġbalance": 7839,
      "33": 7840,
      "HL": 7841,
      "Music": 7842,
      "hew": 7843,
      "ĠBra": 7844,
      "Ġjealous": 7845,
      "Ġrandom": 7846,
      "ĠEst": 7847,
      "clusion": 7848,
      "shit": 7849,
      "Ġsuppl": 7850,
      "Ġ1958": 7851,
      "Ġ1948": 7852,
      "Ġoperating": 7853,
      "ĠHam": 7854,
      "ĠIntern": 7855,
      "Ġdefense": 7856,
      "certain": 7857,
      "Ġcollabor": 7858,
      "Ġexpert": 7859,
      "ippi": 7860,
      "Ġvolume": 7861,
      "rets": 7862,
      "Ġwore": 7863,
      "ito": 7864,
      "ĠHospital": 7865,
      "Ġarmed": 7866,
      "Ġreference": 7867,
      "APTER": 7868,
      "IV": 7869,
      "Ġfart": 7870,
      "Ġpants": 7871,
      "Ġstones": 7872,
      "AKE": 7873,
      "mont": 7874,
      "oz": 7875,
      "Ġpages": 7876,
      "Ġleaf": 7877,
      "ĠBridge": 7878,
      "Ġinterests": 7879,
      "EAH": 7880,
      "Ġangle": 7881,
      "Ġphotograph": 7882,
      "Ġceremony": 7883,
      "fit": 7884,
      "Ġcurious": 7885,
      "Ġ1939": 7886,
      "ĠAtlantic": 7887,
      "Ġapplication": 7888,
      "Ġwicked": 7889,
      "anes": 7890,
      "Ġtools": 7891,
      "ĠCensus": 7892,
      "Ġbug": 7893,
      "ĠOxford": 7894,
      "ĠDNA": 7895,
      "Ġprosec": 7896,
      "Ġsets": 7897,
      "ĠAnthony": 7898,
      "jan": 7899,
      "ĠWalk": 7900,
      "estic": 7901,
      "eline": 7902,
      "Ġbuying": 7903,
      "Ġengineer": 7904,
      "orporated": 7905,
      "Åį": 7906,
      "Ġstim": 7907,
      "ĠPrem": 7908,
      "apore": 7909,
      "Its": 7910,
      "Ġexclaimed": 7911,
      "ags": 7912,
      "anging": 7913,
      "Ġours": 7914,
      "Ġinjured": 7915,
      "75": 7916,
      "Ap": 7917,
      "SC": 7918,
      "iy": 7919,
      "wait": 7920,
      "Ġdeck": 7921,
      "Ġdeleg": 7922,
      "Ġcomposed": 7923,
      "ĠBrad": 7924,
      "ĠArthur": 7925,
      "Ġmetres": 7926,
      "ĠDonald": 7927,
      "Ġcops": 7928,
      "Ġcommunication": 7929,
      "chio": 7930,
      "ĠTop": 7931,
      "Were": 7932,
      "Ġservants": 7933,
      "Ġindustrial": 7934,
      "Ġmouse": 7935,
      "Ġhired": 7936,
      "Ġdipl": 7937,
      "Ġnut": 7938,
      "ĠWANT": 7939,
      "umph": 7940,
      "ĠClass": 7941,
      "Ġcolors": 7942,
      "Ġ1955": 7943,
      "Ġphoto": 7944,
      "Black": 7945,
      "could": 7946,
      "ingham": 7947,
      "Ġnoble": 7948,
      "Ġbrush": 7949,
      "Ġcapable": 7950,
      "Ġhearts": 7951,
      "Ġaffair": 7952,
      "Ġmirror": 7953,
      "Ġbord": 7954,
      "Ġbump": 7955,
      "ĠSC": 7956,
      "ĠWork": 7957,
      "Ġrot": 7958,
      "Ġsteel": 7959,
      "Ġviews": 7960,
      "warf": 7961,
      "away": 7962,
      "Ġassociation": 7963,
      "Ġtrains": 7964,
      "Ġlegend": 7965,
      "Eh": 7966,
      "bi": 7967,
      "ĠVice": 7968,
      "Ġexplan": 7969,
      "udden": 7970,
      "Ġidentity": 7971,
      "Ġmaterials": 7972,
      "Ġindependence": 7973,
      "44": 7974,
      "burn": 7975,
      "iri": 7976,
      "Ġaunt": 7977,
      "Ġyards": 7978,
      "alty": 7979,
      "Ġrear": 7980,
      "Ġstomach": 7981,
      "ĠTok": 7982,
      "ĠPop": 7983,
      "uled": 7984,
      "Ġacts": 7985,
      "Ġcrap": 7986,
      "ĠReally": 7987,
      "ĠColor": 7988,
      "Ġfootballer": 7989,
      "Us": 7990,
      "reck": 7991,
      "Ġrings": 7992,
      "Ġrhy": 7993,
      "Ġmillions": 7994,
      "Ġdedicated": 7995,
      "bell": 7996,
      "Ġpity": 7997,
      "utation": 7998,
      "ĠRa": 7999,
      "resents": 8000,
      "Ġphase": 8001,
      "Ġ\"\"": 8002,
      "Ġrug": 8003,
      "abs": 8004,
      "erent": 8005,
      "Ġguarant": 8006,
      "Ġedition": 8007,
      "Ġappearances": 8008,
      "Ġvictims": 8009,
      "ĠVictoria": 8010,
      "Ġunusual": 8011,
      "Talk": 8012,
      "section": 8013,
      "Ġrice": 8014,
      "umes": 8015,
      "Ġspo": 8016,
      "oyd": 8017,
      "Ġdistingu": 8018,
      "Ġkidna": 8019,
      "Ġ1944": 8020,
      "tell": 8021,
      "Ġfil": 8022,
      "Ġhills": 8023,
      "Ġreaction": 8024,
      "ĠBal": 8025,
      "ĠJos": 8026,
      "otted": 8027,
      "Ġvisual": 8028,
      "ĠCoast": 8029,
      "Ġcycl": 8030,
      "Mother": 8031,
      "ĠBBC": 8032,
      "Ġmodels": 8033,
      "rogen": 8034,
      "BI": 8035,
      "Par": 8036,
      "bach": 8037,
      "iture": 8038,
      "Ġweb": 8039,
      "ĠSong": 8040,
      "Ġseized": 8041,
      "Ġ1920": 8042,
      "Ġdeeply": 8043,
      "Ġdiagn": 8044,
      "Besides": 8045,
      "Honey": 8046,
      "ĠLincoln": 8047,
      "akers": 8048,
      "Ġthrone": 8049,
      "Ġowners": 8050,
      "Ġelev": 8051,
      "ĠWat": 8052,
      "unts": 8053,
      "ĠOper": 8054,
      "ederation": 8055,
      "rayed": 8056,
      "Ġadministrative": 8057,
      "Bob": 8058,
      "ĠBall": 8059,
      "Ġrising": 8060,
      "Ġspare": 8061,
      "Ġimages": 8062,
      "Ġfeather": 8063,
      "Ġ32": 8064,
      "ĠMaria": 8065,
      "Ġfactor": 8066,
      "Ġextended": 8067,
      "Ġseventy": 8068,
      "ĠSarah": 8069,
      "Sw": 8070,
      "Ġfiction": 8071,
      "ĠBrian": 8072,
      "ĠRh": 8073,
      "ubble": 8074,
      "Ġprojects": 8075,
      "ni": 8076,
      "somet": 8077,
      "Ġdumb": 8078,
      "Ġbeating": 8079,
      "Ġbegged": 8080,
      "Ġconver": 8081,
      "Ġgrant": 8082,
      "Ġdecisions": 8083,
      "Ġconfidence": 8084,
      "Ġreturning": 8085,
      "Ġ1934": 8086,
      "Ġillust": 8087,
      "Ġeffective": 8088,
      "Ġawards": 8089,
      "rix": 8090,
      "ĠWas": 8091,
      "erer": 8092,
      "Ġcovers": 8093,
      "Ġending": 8094,
      "Ġdealing": 8095,
      "bsolutely": 8096,
      "Ġdifficulty": 8097,
      "Ġsubjects": 8098,
      "ĠSimon": 8099,
      "Ġmurdered": 8100,
      "dr": 8101,
      "Ġera": 8102,
      "Ġsimpl": 8103,
      "Ġcutting": 8104,
      "ĠÂ£": 8105,
      "Ġrecommend": 8106,
      "cut": 8107,
      "pes": 8108,
      "Ġtone": 8109,
      "Ġconclud": 8110,
      "velopment": 8111,
      "Ġcritics": 8112,
      "ĠHERE": 8113,
      "ĠRadio": 8114,
      "daddy": 8115,
      "Ġbone": 8116,
      "ĠSn": 8117,
      "ĠMoh": 8118,
      "Death": 8119,
      "ĠEmperor": 8120,
      "Ġloan": 8121,
      "Ġlover": 8122,
      "Ġreign": 8123,
      "ĠAff": 8124,
      "Ġharder": 8125,
      "Ġstarred": 8126,
      "William": 8127,
      "cos": 8128,
      "iat": 8129,
      "sen": 8130,
      "etime": 8131,
      "Ġselect": 8132,
      "Ġcontrovers": 8133,
      "Ġcarbon": 8134,
      "Ġconcert": 8135,
      "ĠDa": 8136,
      "ĠLew": 8137,
      "ĠStation": 8138,
      "Ġcheek": 8139,
      "Ġ1941": 8140,
      "Ġwire": 8141,
      "ursday": 8142,
      "Dear": 8143,
      "Six": 8144,
      "nat": 8145,
      "Ġloyal": 8146,
      "ĠWed": 8147,
      "ĠFall": 8148,
      "into": 8149,
      "Ġreply": 8150,
      "GE": 8151,
      "bal": 8152,
      "arks": 8153,
      "Ġcharged": 8154,
      "George": 8155,
      "ROM": 8156,
      "called": 8157,
      "dney": 8158,
      "last": 8159,
      "unist": 8160,
      "ĠDave": 8161,
      "Ġtalks": 8162,
      "Ġpointed": 8163,
      "Ġassault": 8164,
      "Ġpossibility": 8165,
      "Ġcorrespond": 8166,
      "Ġexciting": 8167,
      "ĠSanders": 8168,
      "Ġmile": 8169,
      "Ġgranted": 8170,
      "ilding": 8171,
      "Ġpretend": 8172,
      "Ġdistricts": 8173,
      "Ġengineering": 8174,
      "Ġpunishment": 8175,
      "Ġadventure": 8176,
      "Ġsplendid": 8177,
      "iÄĩ": 8178,
      "Ġscheme": 8179,
      "._": 8180,
      "BE": 8181,
      "Cont": 8182,
      "pool": 8183,
      "Ġgathered": 8184,
      "chair": 8185,
      "Ġdozen": 8186,
      "ĠInc": 8187,
      "Ġsupper": 8188,
      "Ġbitter": 8189,
      "bet": 8190,
      "itled": 8191,
      "Ġcou": 8192,
      "Ġpa": 8193,
      "stance": 8194,
      "open": 8195,
      "aks": 8196,
      "Ġaccur": 8197,
      "press": 8198,
      "ĠEarl": 8199,
      "ĠMarg": 8200,
      "Ġinterf": 8201,
      "Ġcolumn": 8202,
      "Ġbusinessman": 8203,
      "ĠLeon": 8204,
      "Ġaffairs": 8205,
      "EO": 8206,
      "Em": 8207,
      "iner": 8208,
      "Ġkittie": 8209,
      "Ġangel": 8210,
      "Ġwhoa": 8211,
      "Ġgrandfather": 8212,
      "ĠCastle": 8213,
      "ĠTaylor": 8214,
      "nold": 8215,
      "song": 8216,
      "opher": 8217,
      "ĠWait": 8218,
      "Ġvast": 8219,
      "ĠIslands": 8220,
      "ĠTeam": 8221,
      "ĠArkansas": 8222,
      "Want": 8223,
      "hh": 8224,
      "erable": 8225,
      "Ġstroke": 8226,
      "Ġspite": 8227,
      "assador": 8228,
      "aze": 8229,
      "Ġpossess": 8230,
      "Ġvisited": 8231,
      "Without": 8232,
      "Ġsurrounded": 8233,
      "Cor": 8234,
      "Ġcave": 8235,
      "ĠDaddy": 8236,
      "ĠJacob": 8237,
      "ĠCard": 8238,
      "ĠAdam": 8239,
      "Ġbanks": 8240,
      "ĠMorgan": 8241,
      "Ġrescue": 8242,
      "43": 8243,
      "esome": 8244,
      "asters": 8245,
      "utt": 8246,
      "stan": 8247,
      "ĠEducation": 8248,
      "ĠVar": 8249,
      "Ġuns": 8250,
      "Ġuniform": 8251,
      "Ġcontem": 8252,
      "uable": 8253,
      "Ġdoggie": 8254,
      "erences": 8255,
      "Ġsecure": 8256,
      "TS": 8257,
      "watch": 8258,
      "rete": 8259,
      "Ġwishes": 8260,
      "Ġbike": 8261,
      "ĠSO": 8262,
      "osl": 8263,
      "ordon": 8264,
      "Ġdesert": 8265,
      "Ġskills": 8266,
      "Ġticket": 8267,
      "Ġreduced": 8268,
      "55": 8269,
      "ĠSultan": 8270,
      "ĠPublic": 8271,
      "Ġsmooth": 8272,
      "Ġaccused": 8273,
      "Ġfriendship": 8274,
      "ĠDaniel": 8275,
      "Ġinspired": 8276,
      "Ġsoup": 8277,
      "Ġhockey": 8278,
      "Ġnick": 8279,
      "ĠSay": 8280,
      "ĠAv": 8281,
      "Ġstress": 8282,
      "ĠCab": 8283,
      "ĠJon": 8284,
      "Ġvice": 8285,
      "Ġslaves": 8286,
      "Ġinterrupt": 8287,
      "Ġprovides": 8288,
      "Person": 8289,
      "found": 8290,
      "Ã£": 8291,
      "ĠChannel": 8292,
      "Ġburned": 8293,
      "ĠStephen": 8294,
      "fly": 8295,
      "Ġfra": 8296,
      "Ġnaked": 8297,
      "idae": 8298,
      "ĠGOT": 8299,
      "ĠOrder": 8300,
      "whoa": 8301,
      "ĠNothing": 8302,
      "Ġinitially": 8303,
      "ratulations": 8304,
      "Ġped": 8305,
      "Ġrevol": 8306,
      "berry": 8307,
      "Ġgrade": 8308,
      "Ġletting": 8309,
      "Ġcricket": 8310,
      "Ġcounties": 8311,
      "ĠABOUT": 8312,
      "Ġ00": 8313,
      "Ġsorrow": 8314,
      "otte": 8315,
      "Ġunlike": 8316,
      "Ġmassive": 8317,
      "Ġpersu": 8318,
      "cu": 8319,
      "count": 8320,
      "fire": 8321,
      "Ġcrop": 8322,
      "ĠMid": 8323,
      "ĠHas": 8324,
      "ĠWin": 8325,
      "anges": 8326,
      "Ġshoulders": 8327,
      "Ġacid": 8328,
      "Ġfuneral": 8329,
      "Ġinterpret": 8330,
      "ĠCentre": 8331,
      "Ġthrowing": 8332,
      "ĠSingapore": 8333,
      ".[": 8334,
      "rine": 8335,
      "Ġpuzz": 8336,
      "uther": 8337,
      "ĠVerm": 8338,
      "ples": 8339,
      "Ġdraft": 8340,
      "Ġiniti": 8341,
      "ĠNetwork": 8342,
      "Ġâ": 8343,
      "ĠMaine": 8344,
      "asted": 8345,
      "ordinary": 8346,
      "Ġcrimes": 8347,
      "azed": 8348,
      "Ġwidely": 8349,
      "Ġmethods": 8350,
      "Ġscholar": 8351,
      "ĠCOVID": 8352,
      "athy": 8353,
      "Ġbesides": 8354,
      "iber": 8355,
      "Ġwaves": 8356,
      "Ġpale": 8357,
      "ando": 8358,
      "ĠGreg": 8359,
      "ĠUt": 8360,
      "Ġtrunk": 8361,
      "Ġswall": 8362,
      "Ġpassage": 8363,
      "ĠSenator": 8364,
      "Probably": 8365,
      "Ġdebt": 8366,
      "ĠWilson": 8367,
      "DO": 8368,
      "UGH": 8369,
      "baby": 8370,
      "Ġrope": 8371,
      "oga": 8372,
      "ĠAsian": 8373,
      "Ġdriven": 8374,
      "AF": 8375,
      "Es": 8376,
      "western": 8377,
      "edia": 8378,
      "ĠRus": 8379,
      "ĠNever": 8380,
      "ensity": 8381,
      "Ġ300": 8382,
      "INK": 8383,
      "Ġalbums": 8384,
      "Ġkissed": 8385,
      "Ġtheatre": 8386,
      "Ġfo": 8387,
      "alia": 8388,
      "Ġkings": 8389,
      "ĠLl": 8390,
      "ĠEve": 8391,
      "endment": 8392,
      "Ġregist": 8393,
      "Ġtries": 8394,
      "Ġshortly": 8395,
      "Ġcabin": 8396,
      "Aha": 8397,
      "Son": 8398,
      "Ġtherap": 8399,
      "oore": 8400,
      "ĠJam": 8401,
      "Ġarts": 8402,
      "perial": 8403,
      "Ġchildhood": 8404,
      "Ġcenturies": 8405,
      "Ġtrem": 8406,
      "ricane": 8407,
      "Ġdragon": 8408,
      "ĠWendy": 8409,
      "Ġaston": 8410,
      "ĠSU": 8411,
      "ĠPart": 8412,
      "tha": 8413,
      "ĠLead": 8414,
      "ĠRoss": 8415,
      "acked": 8416,
      "uddy": 8417,
      "Ġpride": 8418,
      "Ġrelief": 8419,
      "Ġconfused": 8420,
      "Ġlesson": 8421,
      "Ġchecked": 8422,
      "ĠTechn": 8423,
      "ĠLIKE": 8424,
      "ui": 8425,
      "ĠBol": 8426,
      "ĠPope": 8427,
      "Ġsites": 8428,
      "Ġ1938": 8429,
      "Ġroads": 8430,
      "ĠPlan": 8431,
      "ĠGuard": 8432,
      "ĠBrazilian": 8433,
      "Ġorganizations": 8434,
      "Har": 8435,
      "bro": 8436,
      "bra": 8437,
      "care": 8438,
      "Ġstir": 8439,
      "ĠLes": 8440,
      "ĠRoy": 8441,
      "Stand": 8442,
      "Ġglobal": 8443,
      "Forget": 8444,
      "Ġinspect": 8445,
      "Ġcrossed": 8446,
      "Ġshopping": 8447,
      "Sch": 8448,
      "ĠPot": 8449,
      "Ġmyster": 8450,
      "Ġsufficient": 8451,
      "ĠEp": 8452,
      "Ġpersonally": 8453,
      "isms": 8454,
      "Ġsecretary": 8455,
      "bus": 8456,
      "equ": 8457,
      "lock": 8458,
      "ĠCross": 8459,
      "ĠRIGHT": 8460,
      "ĠMississ": 8461,
      "Ġsnake": 8462,
      "Ġgods": 8463,
      "Ġspiritual": 8464,
      "has": 8465,
      "Ġnarr": 8466,
      "ĠSom": 8467,
      "ĠWard": 8468,
      "Ġcompar": 8469,
      "Ġflows": 8470,
      "ĠSpring": 8471,
      "Ġprisoner": 8472,
      "Ġarticles": 8473,
      "ĠBase": 8474,
      "Ġric": 8475,
      "occhio": 8476,
      "onto": 8477,
      "Ġclaims": 8478,
      "Ġtip": 8479,
      "rait": 8480,
      "hings": 8481,
      "teenth": 8482,
      "Ġstudying": 8483,
      "retty": 8484,
      "Ġreplace": 8485,
      "Ġliterally": 8486,
      "Ġfishing": 8487,
      "ĠHou": 8488,
      "andal": 8489,
      "ĠDog": 8490,
      "ipper": 8491,
      "Ġnecessarily": 8492,
      "ĠKorean": 8493,
      "Ġholiday": 8494,
      "made": 8495,
      "mission": 8496,
      "Ġwoke": 8497,
      "eable": 8498,
      "ogne": 8499,
      "Ġregional": 8500,
      "Ġsymp": 8501,
      "Ġcapacity": 8502,
      "Ġreflect": 8503,
      "Ġnegoti": 8504,
      "Check": 8505,
      "66": 8506,
      "DP": 8507,
      "icit": 8508,
      "Ġanger": 8509,
      "ĠBible": 8510,
      "iolet": 8511,
      "Ġminds": 8512,
      "ĠTommy": 8513,
      "Ġentrance": 8514,
      "Ġwheels": 8515,
      "Ġagric": 8516,
      "Ġextent": 8517,
      "Ġ1949": 8518,
      "ĠSystem": 8519,
      "ĠCorporation": 8520,
      "Ġalcohol": 8521,
      "Each": 8522,
      "woman": 8523,
      "Ġment": 8524,
      "tery": 8525,
      "ifts": 8526,
      "ĠWy": 8527,
      "Ġsheet": 8528,
      "enses": 8529,
      "Ġprecious": 8530,
      "tainment": 8531,
      "Ġ1935": 8532,
      "Ġastron": 8533,
      "tical": 8534,
      "ygen": 8535,
      "Ġanaly": 8536,
      "ĠTour": 8537,
      "ĠIndones": 8538,
      "Ġphen": 8539,
      "Ġbeings": 8540,
      "ugg": 8541,
      "Ġsurre": 8542,
      "Show": 8543,
      "Ġidentified": 8544,
      "ĠSteven": 8545,
      "Aren": 8546,
      "President": 8547,
      "Ġofficials": 8548,
      "ĠMoscow": 8549,
      "Ġitems": 8550,
      "star": 8551,
      "stal": 8552,
      "ĠPost": 8553,
      "Ġintention": 8554,
      "ancer": 8555,
      "hess": 8556,
      "Comp": 8557,
      "Sl": 8558,
      "Until": 8559,
      "Ġfake": 8560,
      "Ġris": 8561,
      "Ġopposed": 8562,
      "Ġsolo": 8563,
      "Ġannounce": 8564,
      "Ġphilosophy": 8565,
      "Ġfasc": 8566,
      "Ġfetch": 8567,
      "irk": 8568,
      "Ġappropriate": 8569,
      "Ġmessages": 8570,
      "Daddy": 8571,
      "Ġeldest": 8572,
      "Ġsought": 8573,
      "Ġtoile": 8574,
      "Ġnotable": 8575,
      "ĠPlease": 8576,
      "ĠRober": 8577,
      "Ġpositions": 8578,
      "Ġawake": 8579,
      "Ġmemories": 8580,
      "Ġdocuments": 8581,
      "asmus": 8582,
      "ĠConnect": 8583,
      "encer": 8584,
      "usting": 8585,
      "again": 8586,
      "Mmm": 8587,
      "ĠHighway": 8588,
      "Ġsatisfied": 8589,
      "Ġvoices": 8590,
      "Ġacademic": 8591,
      "Ġing": 8592,
      "Ġbubbles": 8593,
      "eness": 8594,
      "ĠAL": 8595,
      "Ġrabbit": 8596,
      "ĠNob": 8597,
      "ardens": 8598,
      "hedral": 8599,
      "Ġputs": 8600,
      "Ġrelations": 8601,
      "Ġ1953": 8602,
      "Ġ1931": 8603,
      "Ġsweetheart": 8604,
      "aura": 8605,
      "Ġcombined": 8606,
      "Ġleadership": 8607,
      "wen": 8608,
      "Ġtorn": 8609,
      "Ġtunn": 8610,
      "Ġdates": 8611,
      "Ġalph": 8612,
      "Ġshower": 8613,
      "Ġelephant": 8614,
      "Ġgrandmother": 8615,
      "Ġcooking": 8616,
      "Ġmidnight": 8617,
      "Ġbowl": 8618,
      "Ġsequence": 8619,
      "Ġatmosphere": 8620,
      "BUT": 8621,
      "EP": 8622,
      "ĠBos": 8623,
      "ĠDun": 8624,
      "ĠGro": 8625,
      "ĠRen": 8626,
      "aga": 8627,
      "Ġclin": 8628,
      "Ġmoments": 8629,
      "Ġpersonality": 8630,
      "amental": 8631,
      "CHAPTER": 8632,
      "Ġenjoyed": 8633,
      "Red": 8634,
      "nel": 8635,
      "atures": 8636,
      "Ġcraw": 8637,
      "Ġnuts": 8638,
      "upon": 8639,
      "Ġ1951": 8640,
      "Ġarranged": 8641,
      "Ġtender": 8642,
      "Ġprincipal": 8643,
      "Ġtransferred": 8644,
      "ocolate": 8645,
      "ĠHeaven": 8646,
      "ĠColorado": 8647,
      "kind": 8648,
      "Ġasks": 8649,
      "Ġparliament": 8650,
      "ĠStanley": 8651,
      "Rob": 8652,
      "Ġtropical": 8653,
      "ĠSix": 8654,
      "ĠVill": 8655,
      "Ġrepresenting": 8656,
      "Rep": 8657,
      "rim": 8658,
      "Ġagency": 8659,
      "uesday": 8660,
      "cules": 8661,
      "ĠClinton": 8662,
      "SP": 8663,
      "oa": 8664,
      "Ã«": 8665,
      "Ġguests": 8666,
      "Ġ180": 8667,
      "Ġrepresents": 8668,
      "anguage": 8669,
      "Ġhealthy": 8670,
      "42": 8671,
      "GR": 8672,
      "tÃ©": 8673,
      "Ġgray": 8674,
      "Ġgrace": 8675,
      "Ã¼r": 8676,
      "Ġsprang": 8677,
      "Ġmystery": 8678,
      "dam": 8679,
      "ked": 8680,
      "pent": 8681,
      "ĠBureau": 8682,
      "iva": 8683,
      "ordan": 8684,
      "Ġdiscovery": 8685,
      "Ġillegal": 8686,
      "ĠNorway": 8687,
      "ĠIan": 8688,
      "child": 8689,
      "Ġsemi": 8690,
      "Ġstops": 8691,
      "Ġconfirm": 8692,
      "ĠCarter": 8693,
      "Ġpicking": 8694,
      "Ġsquad": 8695,
      "Grand": 8696,
      "glas": 8697,
      "ĠHolmes": 8698,
      "Ġpremie": 8699,
      "Ġretirement": 8700,
      "atically": 8701,
      "Ġlap": 8702,
      "Ġvi": 8703,
      "Ġcampus": 8704,
      "ĠParker": 8705,
      "Ġparticipated": 8706,
      "98": 8707,
      "inced": 8708,
      "Ġsan": 8709,
      "Ġjury": 8710,
      "Ġremove": 8711,
      "HEN": 8712,
      "Ġrivers": 8713,
      "Ġheavily": 8714,
      "pherd": 8715,
      "onents": 8716,
      "Ġrein": 8717,
      "antry": 8718,
      "Ġhighway": 8719,
      "Ġopposition": 8720,
      "Ġvideos": 8721,
      "Footnote": 8722,
      "95": 8723,
      "SH": 8724,
      "War": 8725,
      "di": 8726,
      "even": 8727,
      "uter": 8728,
      "ĠSpecial": 8729,
      "ĠDam": 8730,
      "Ġupd": 8731,
      "ĠChap": 8732,
      "Ġfunctions": 8733,
      "Ġ1946": 8734,
      "Ġoccas": 8735,
      "Must": 8736,
      "Ġtool": 8737,
      "Ġeager": 8738,
      "ĠRo": 8739,
      "ĠOpen": 8740,
      "Ġviolent": 8741,
      "AH": 8742,
      "bie": 8743,
      "wow": 8744,
      "Ġfans": 8745,
      "Ġforb": 8746,
      "anting": 8747,
      "acking": 8748,
      "Ġconce": 8749,
      "ĠKal": 8750,
      "Ġnowhere": 8751,
      "Star": 8752,
      "Ġappointment": 8753,
      "Ġpersons": 8754,
      "Ġsympt": 8755,
      "Ã£o": 8756,
      "Mc": 8757,
      "Run": 8758,
      "hard": 8759,
      "Ġinput": 8760,
      "ayan": 8761,
      "lder": 8762,
      "ands": 8763,
      "ĠGil": 8764,
      "ĠGive": 8765,
      "Ġcomposer": 8766,
      "Ġgreatly": 8767,
      "Ġ1936": 8768,
      "Ġdiscussion": 8769,
      "peekaboo": 8770,
      "ĠVietnam": 8771,
      "music": 8772,
      "Ġcooper": 8773,
      "ĠHamp": 8774,
      "Ġdepth": 8775,
      "Ġamongst": 8776,
      "Ġprinciple": 8777,
      "Ġacquired": 8778,
      "Ġpermanent": 8779,
      "VD": 8780,
      "hus": 8781,
      "Ġbul": 8782,
      "Ġfond": 8783,
      "ĠAle": 8784,
      "herry": 8785,
      "ĠBishop": 8786,
      "ĠWild": 8787,
      "ĠKy": 8788,
      "ETH": 8789,
      "Ġdigital": 8790,
      "Ġfrequently": 8791,
      "ĠFairy": 8792,
      "Ġincredible": 8793,
      "ARE": 8794,
      "great": 8795,
      "ii": 8796,
      "Ġbom": 8797,
      "Ġmath": 8798,
      "oting": 8799,
      "rock": 8800,
      "ĠKer": 8801,
      "Ġrecon": 8802,
      "Ġcommander": 8803,
      "Ġlasted": 8804,
      "Ġimpression": 8805,
      "ikh": 8806,
      "Ġdivide": 8807,
      "Ġwooden": 8808,
      "Ġadmitted": 8809,
      "uct": 8810,
      "itched": 8811,
      "ĠTell": 8812,
      "thm": 8813,
      "Ġadapt": 8814,
      "Ġcontext": 8815,
      "Ġcommunities": 8816,
      "people": 8817,
      "Ġswing": 8818,
      "Ġparish": 8819,
      "Ġphrase": 8820,
      "sl": 8821,
      "Ä±": 8822,
      "ĠÐ": 8823,
      "Ġsust": 8824,
      "Ġpow": 8825,
      "icut": 8826,
      "olas": 8827,
      "nesday": 8828,
      "78": 8829,
      "uy": 8830,
      "adies": 8831,
      "ĠRoger": 8832,
      "ĠUs": 8833,
      "ĠVery": 8834,
      "Ġcarriage": 8835,
      "ĠAlso": 8836,
      "Ġhurts": 8837,
      "Ġtesting": 8838,
      "Ġtap": 8839,
      "erted": 8840,
      "ĠAut": 8841,
      "ĠBow": 8842,
      "Ġformal": 8843,
      "Bi": 8844,
      "lon": 8845,
      "Ġoption": 8846,
      "Ġdun": 8847,
      "Ġthir": 8848,
      "Ġacted": 8849,
      "Ġdisg": 8850,
      "Ġevolution": 8851,
      "Ġresear": 8852,
      "Ġconvinced": 8853,
      "Ġalternative": 8854,
      "ĠOfficer": 8855,
      "Sub": 8856,
      "dle": 8857,
      "Ġbishop": 8858,
      "Ġraces": 8859,
      "ĠREA": 8860,
      "ĠRyan": 8861,
      "Ġmyth": 8862,
      "ĠEach": 8863,
      "Ġprote": 8864,
      "Ġsurvey": 8865,
      "Ġbreast": 8866,
      "uese": 8867,
      "Ġoperated": 8868,
      "Ġgenus": 8869,
      "Ġcounsel": 8870,
      "Better": 8871,
      "isp": 8872,
      "Ġbold": 8873,
      "ĠStone": 8874,
      "iki": 8875,
      "Ġfocused": 8876,
      "Jo": 8877,
      "lets": 8878,
      "ĠSnow": 8879,
      "ĠAmb": 8880,
      "Ġprepar": 8881,
      "ĠUnivers": 8882,
      "Ġclubs": 8883,
      "Quick": 8884,
      "ĠBetty": 8885,
      "Ten": 8886,
      "ĠSomet": 8887,
      "Ġshift": 8888,
      "ibilities": 8889,
      "scar": 8890,
      "Ġtechnical": 8891,
      "Ġversions": 8892,
      "ĠCur": 8893,
      "ĠWel": 8894,
      "ĠOur": 8895,
      "Ġspons": 8896,
      "Ġarrow": 8897,
      "Ġprices": 8898,
      "Ġmargin": 8899,
      "Ġstrict": 8900,
      "Ġsecondary": 8901,
      "Ġdeaths": 8902,
      "Ġlanding": 8903,
      "ĠBeach": 8904,
      "Ġactivist": 8905,
      "Ġseparated": 8906,
      "amilton": 8907,
      "Ġairl": 8908,
      "Ġbond": 8909,
      "acles": 8910,
      "ĠPres": 8911,
      "iev": 8912,
      "Ġ400": 8913,
      "whoops": 8914,
      "Ġlaura": 8915,
      "Ġmerchant": 8916,
      "Ġmoral": 8917,
      "hum": 8918,
      "uv": 8919,
      "zona": 8920,
      "ĠIce": 8921,
      "ĠIra": 8922,
      "ĠUr": 8923,
      "ĠStand": 8924,
      "Ġguide": 8925,
      "III": 8926,
      "Trans": 8927,
      "Ġestimated": 8928,
      "ĠDavis": 8929,
      "Rel": 8930,
      "ĠMot": 8931,
      "ĠHay": 8932,
      "oli": 8933,
      "ĠRem": 8934,
      "abet": 8935,
      "agger": 8936,
      "ĠAnother": 8937,
      "ungle": 8938,
      "Ġthreatened": 8939,
      "ĠArgentina": 8940,
      "Ġkilomet": 8941,
      "%.": 8942,
      "Ġwanting": 8943,
      "Doctor": 8944,
      "Ġentry": 8945,
      "Ġglasses": 8946,
      "Ġunhappy": 8947,
      "Ġalgorithm": 8948,
      "Ġbark": 8949,
      "Ġstab": 8950,
      "ĠEnd": 8951,
      "agers": 8952,
      "Ġindic": 8953,
      "Ġcausing": 8954,
      "Ġinvolve": 8955,
      "Ġgenius": 8956,
      "ĠSergeant": 8957,
      "Ġcustomers": 8958,
      "ĠMatthew": 8959,
      "keeper": 8960,
      "Ġathlet": 8961,
      "NAR": 8962,
      "hol": 8963,
      "movie": 8964,
      "Ġdea": 8965,
      "Ġbeast": 8966,
      "iden": 8967,
      "ĠHIM": 8968,
      "ĠWars": 8969,
      "ĠFitz": 8970,
      "Ġsoil": 8971,
      "Ġobtained": 8972,
      "Charl": 8973,
      "mma": 8974,
      "Ġtypical": 8975,
      "Ġoccupied": 8976,
      "Ġscarce": 8977,
      "ĠParalympics": 8978,
      "Aw": 8979,
      "Happy": 8980,
      "West": 8981,
      "Ġlamb": 8982,
      "ĠFire": 8983,
      "Ġannoy": 8984,
      "Ġpulling": 8985,
      "net": 8986,
      "Ġbass": 8987,
      "Ġfulf": 8988,
      "izz": 8989,
      "ggy": 8990,
      "Ġpasses": 8991,
      "Ġ1937": 8992,
      "umbling": 8993,
      "Ġideal": 8994,
      "Ġphenomen": 8995,
      "greg": 8996,
      "Ġske": 8997,
      "weight": 8998,
      "Ġresign": 8999,
      "Ġdelicious": 9000,
      "Ġsumm": 9001,
      "Ġdiplom": 9002,
      "ownt": 9003,
      "state": 9004,
      "through": 9005,
      "ĠDur": 9006,
      "Step": 9007,
      "ĠResearch": 9008,
      "LRB": 9009,
      "sect": 9010,
      "ifer": 9011,
      "hatt": 9012,
      "ucker": 9013,
      "ĠSecurity": 9014,
      "ĠTokyo": 9015,
      "Bad": 9016,
      "Kill": 9017,
      "RRB": 9018,
      "bage": 9019,
      "ghan": 9020,
      "Ġattached": 9021,
      "Ġmerged": 9022,
      "Ġexisting": 9023,
      "Ġnewspapers": 9024,
      "ĠMississippi": 9025,
      "Ġduties": 9026,
      "Ġnerve": 9027,
      "ĠHard": 9028,
      "Ġplastic": 9029,
      "Ġcontrolled": 9030,
      "Ġpassengers": 9031,
      "Ġ1933": 9032,
      "Ġeighteen": 9033,
      "white": 9034,
      "Ġstepped": 9035,
      "ĠOlympic": 9036,
      "Ġexperienced": 9037,
      "Ġtiss": 9038,
      "ĠWOR": 9039,
      "Ġrush": 9040,
      "quis": 9041,
      "Ġworn": 9042,
      "Ġgrateful": 9043,
      "ĠAnne": 9044,
      "ĠIndepend": 9045,
      "Ġsurvived": 9046,
      "je": 9047,
      "anny": 9048,
      "esar": 9049,
      "ĠCall": 9050,
      "ĠCamer": 9051,
      "lesh": 9052,
      "Ġmuscle": 9053,
      "Ġdefined": 9054,
      "Ġinternal": 9055,
      "Ġwra": 9056,
      "ĠBarry": 9057,
      "Ġnorthwest": 9058,
      "Ġpolicies": 9059,
      "Ġbegun": 9060,
      "SI": 9061,
      "Yet": 9062,
      "idency": 9063,
      "Ġseated": 9064,
      "ĠLA": 9065,
      "Ġsoci": 9066,
      "ĠYe": 9067,
      "pected": 9068,
      "Goodbye": 9069,
      "Ġlifted": 9070,
      "Absolutely": 9071,
      "run": 9072,
      "Ġrevenge": 9073,
      "ĠBaby": 9074,
      "ante": 9075,
      "ĠField": 9076,
      "Ġflash": 9077,
      "Ġexpecting": 9078,
      "iscons": 9079,
      "ĠDoubs": 9080,
      "Ġinner": 9081,
      "Ġnations": 9082,
      "ĠFel": 9083,
      "ected": 9084,
      "Ġwherever": 9085,
      "hens": 9086,
      "Ġsyn": 9087,
      "Ġcompete": 9088,
      "Ġintellect": 9089,
      "ĠInternet": 9090,
      "88": 9091,
      "Find": 9092,
      "ums": 9093,
      "ĠLo": 9094,
      "rak": 9095,
      "olley": 9096,
      "cca": 9097,
      "Ġcray": 9098,
      "ĠGrant": 9099,
      "Hang": 9100,
      "lie": 9101,
      "ships": 9102,
      "scape": 9103,
      "Ġdescription": 9104,
      "RATOR": 9105,
      "Ġexplanation": 9106,
      "ĠVermont": 9107,
      "gun": 9108,
      "lause": 9109,
      "pur": 9110,
      "umin": 9111,
      "Ġguards": 9112,
      "Ġkinda": 9113,
      "Ġobst": 9114,
      "Ġformation": 9115,
      "Ġ150": 9116,
      "Ġcorpor": 9117,
      "Ġpurple": 9118,
      "ĠSydney": 9119,
      "Ġmaximum": 9120,
      "August": 9121,
      "rell": 9122,
      "Ġknee": 9123,
      "ĠStop": 9124,
      "Ġworldwide": 9125,
      "Ob": 9126,
      "Ġtoes": 9127,
      "ĠJoh": 9128,
      "rying": 9129,
      "Ġdownstairs": 9130,
      "Ġenorm": 9131,
      "ounced": 9132,
      "Ġdelivered": 9133,
      "pop": 9134,
      "Ġta": 9135,
      "heastern": 9136,
      "itals": 9137,
      "Ġuseless": 9138,
      "ective": 9139,
      "Ġcloth": 9140,
      "Ġserves": 9141,
      "Ġrib": 9142,
      "ĠAdams": 9143,
      "ĠONE": 9144,
      "Ġrapidly": 9145,
      "isconsin": 9146,
      "Pet": 9147,
      "world": 9148,
      "Ġsed": 9149,
      "Ġooh": 9150,
      "Ġpour": 9151,
      "ĠSorry": 9152,
      "ĠPo": 9153,
      "ules": 9154,
      "ĠNep": 9155,
      "Ġdescent": 9156,
      "Ġconfident": 9157,
      "Ġseventh": 9158,
      "Ġinvented": 9159,
      "Ġabandoned": 9160,
      "Ġgalax": 9161,
      "oge": 9162,
      "ĠBul": 9163,
      "Ġraid": 9164,
      "Ġadjust": 9165,
      "ĠThursday": 9166,
      "ammad": 9167,
      "Ġbags": 9168,
      "Ġvoted": 9169,
      "Sal": 9170,
      "Ġobey": 9171,
      "oration": 9172,
      "sea": 9173,
      "ĠAD": 9174,
      "romise": 9175,
      "Ġalien": 9176,
      "aza": 9177,
      "ĠDeath": 9178,
      "Ġ1943": 9179,
      "Ġrolled": 9180,
      "Ġbenefits": 9181,
      "uddenly": 9182,
      "41": 9183,
      "Ġvel": 9184,
      "cknow": 9185,
      "orton": 9186,
      "riends": 9187,
      "Ġdecre": 9188,
      "Ġproperties": 9189,
      "Ġreduce": 9190,
      "acon": 9191,
      "Ġsector": 9192,
      "Ġrushed": 9193,
      "Ġpoly": 9194,
      "iami": 9195,
      "annels": 9196,
      "Ġdrinks": 9197,
      "eanwhile": 9198,
      "Ġcookie": 9199,
      "Ġwaters": 9200,
      "Ġessentially": 9201,
      "Ġdelighted": 9202,
      "ĠLieutenant": 9203,
      "ĠEntertainment": 9204,
      "ĠConnecticut": 9205,
      "leton": 9206,
      "allel": 9207,
      "ĠDie": 9208,
      "theless": 9209,
      "Ġrecover": 9210,
      "phas": 9211,
      "Ġconsid": 9212,
      "ITT": 9213,
      "Ġabsolute": 9214,
      "Ġbreathing": 9215,
      "Ġstretched": 9216,
      "Ġashamed": 9217,
      "Jean": 9218,
      "Ġisol": 9219,
      "ocated": 9220,
      "ensions": 9221,
      "peed": 9222,
      "Ġheading": 9223,
      "Ġpenalty": 9224,
      "ennessee": 9225,
      "non": 9226,
      "push": 9227,
      "irts": 9228,
      "ĠHuman": 9229,
      "Ġclown": 9230,
      "Ġerror": 9231,
      "ĠMaybe": 9232,
      "ĠMadonna": 9233,
      "Ġinstitution": 9234,
      "_.": 9235,
      "Ġwins": 9236,
      "erg": 9237,
      "Ġbid": 9238,
      "Ġfestival": 9239,
      "ĠBurn": 9240,
      "ĠAlbert": 9241,
      "Ġcreatures": 9242,
      "Ġslipped": 9243,
      "96": 9244,
      "big": 9245,
      "orious": 9246,
      "ĠMain": 9247,
      "ĠHistory": 9248,
      "Ġgoin": 9249,
      "Ġprofit": 9250,
      "Ġ1926": 9251,
      "Ġemployed": 9252,
      "ĠMaryland": 9253,
      "Ġurban": 9254,
      "Ġnickn": 9255,
      "CC": 9256,
      "Long": 9257,
      "ĠTa": 9258,
      "ierre": 9259,
      "Ġreputation": 9260,
      "Ġsixteen": 9261,
      "Ġinsult": 9262,
      "ĠSwiss": 9263,
      "Ġvaluable": 9264,
      "Ġregarded": 9265,
      "Ġbarely": 9266,
      "usalem": 9267,
      "Saint": 9268,
      "oons": 9269,
      "rison": 9270,
      "Ġaired": 9271,
      "Ġgosh": 9272,
      "Ġknight": 9273,
      "ĠGen": 9274,
      "Ġcoordin": 9275,
      "HERE": 9276,
      "Ġslip": 9277,
      "Ġlargely": 9278,
      "Ġfleet": 9279,
      "Ġrobber": 9280,
      "Ġprecise": 9281,
      "Ġanxious": 9282,
      "Bre": 9283,
      "ÅĤ": 9284,
      "ĠCreek": 9285,
      "Ġwhoever": 9286,
      "neath": 9287,
      "before": 9288,
      "Ġattorney": 9289,
      "rot": 9290,
      "wind": 9291,
      "ĠFord": 9292,
      "Ġabuse": 9293,
      "Ġtrace": 9294,
      "ĠInf": 9295,
      "Ġtitles": 9296,
      "Ġarrive": 9297,
      "Baby": 9298,
      "six": 9299,
      "wall": 9300,
      "orge": 9301,
      "ĠCL": 9302,
      "ĠTennessee": 9303,
      "Ġexha": 9304,
      "iah": 9305,
      "Down": 9306,
      "Lou": 9307,
      "master": 9308,
      "Ġfaced": 9309,
      "rov": 9310,
      "ellite": 9311,
      "umble": 9312,
      "Ġsaving": 9313,
      "Ġrefuse": 9314,
      "Ġexped": 9315,
      "Ġclassic": 9316,
      "Ġresistance": 9317,
      "Ġboots": 9318,
      "Hon": 9319,
      "Ġpor": 9320,
      "ĠBart": 9321,
      "ĠNiger": 9322,
      "ups": 9323,
      "Ġelimin": 9324,
      "Ġimplement": 9325,
      "Ġsteam": 9326,
      "Ġtypically": 9327,
      "Such": 9328,
      "dale": 9329,
      "Ġtheater": 9330,
      "Ġpardon": 9331,
      "aman": 9332,
      "ĠSav": 9333,
      "Ġassh": 9334,
      "ĠWisconsin": 9335,
      "Ġcomed": 9336,
      "udge": 9337,
      "agu": 9338,
      "been": 9339,
      "Ġskill": 9340,
      "Ġ1927": 9341,
      "Ġvolcan": 9342,
      "Ġlatest": 9343,
      "Ġhid": 9344,
      "Ġpushing": 9345,
      "ĠCON": 9346,
      "Ġrural": 9347,
      "Ġequation": 9348,
      "Ġreceiving": 9349,
      "Ġportion": 9350,
      "Ġprimarily": 9351,
      "Ġvehicles": 9352,
      "EAR": 9353,
      "Ġcraft": 9354,
      "Ġfrag": 9355,
      "utor": 9356,
      "iry": 9357,
      "keys": 9358,
      "ĠDown": 9359,
      "ogan": 9360,
      "âĻ«": 9361,
      "Ġsupporting": 9362,
      "Ġtests": 9363,
      "Ġinvestment": 9364,
      "Ġnaturally": 9365,
      "Ġscreaming": 9366,
      "Ġoxygen": 9367,
      "mill": 9368,
      "oard": 9369,
      "Ġthread": 9370,
      "Ġpip": 9371,
      "ĠSab": 9372,
      "Ġdiscip": 9373,
      "Ask": 9374,
      "chestra": 9375,
      "AST": 9376,
      "Ġ1929": 9377,
      "Ġfoolish": 9378,
      "Ġrailroad": 9379,
      "communes": 9380,
      "iar": 9381,
      "Ġinher": 9382,
      "Ġnonsense": 9383,
      "ĠCare": 9384,
      "ĠTamil": 9385,
      "Ġoffers": 9386,
      "Ġpron": 9387,
      "liver": 9388,
      "Ġslide": 9389,
      "Ġequals": 9390,
      "Ġtickets": 9391,
      "Ġdebate": 9392,
      "ĠBuddh": 9393,
      "List": 9394,
      "erick": 9395,
      "Ġholes": 9396,
      "Ġlately": 9397,
      "rip": 9398,
      "Ġjur": 9399,
      "elson": 9400,
      "Ġtrap": 9401,
[...]
