#version: 0.2
Ġ t
h e
Ġ a
i n
Ġt he
r e
Ġ w
o u
Ġ s
o n
e r
a t
n d
i s
i t
Ġ b
Ġ o
Ġ c
Ġ m
a n
Ġ f
in g
o r
Ġ h
e d
e n
l l
Ġ d
Ġt o
e s
Ġt h
a r
Ġ p
Ġ y
Ġo f
a s
Ġ in
Ġa nd
Ġy ou
Ġ l
Ġ g
o m
Ġ Ċ
Ġ n
Ġ I
i c
a l
o w
v e
l e
o t
Ġ he
e t
' s
u s
a y
Ġ it
Ġ is
Ġb e
Ġth at
Ġ on
i on
i d
a d
Ġ e
Ġw as
g h
en t
l d
u t
i m
Ġ re
a m
a c
Ġw e
v er
Ġ S
T he
Ġw h
Ġf or
. .
r i
r o
l y
s t
i r
s e
Ġ A
Ġ .
k e
o o
Ġs t
Ġ C
Ġh a
gh t
' t
ou t
it h
Ġ M
a ll
Ġm e
Ġ k
Ġ u
Ġa n
Ġw ith
c h
u r
Ġa s
c t
Ġ H
he r
i ll
Ġd o
c e
Ġ 1
t er
Ġ B
i f
Ġs e
om e
h at
Ġa t
i l
a nd
Ġn ot
Ġha ve
Ġth is
us t
Ġa re
Ġ T
Ġ P
an t
ou ld
Ġg o
Y ou
at ion
Ġk n
e a
a in
o p
Ġl i
Ġ W
u n
Ġ 2
o l
Ġh is
Ġ "
t h
g e
Ġ D
r om
Ġ ,
Ġs h
u l
.. .
Ġkn ow
Ġ j
e ll
o re
ou r
Ġn e
Ġ G
Ġ r
Ġd e
p p
u m
is t
Ġ Ġ
Ġc an
Ġ L
Ġ R
i e
Ġthe y
Ġyou r
Ġ F
Ġs o
ar t
Ġm y
Ġ N
Ġ ?
es t
Ġa ll
Ġb y
Ġ The
a b
Ġf rom
e l
Ġa l
Ġa b
er s
es s
n t
Ġwh at
Ġ J
o s
i g
e m
Ġon e
Ġw he
re d
ar d
' re
i ght
Ġhe r
Ġu p
on e
â Ģ
Ġthe re
Ġ (
ac k
Ġh im
Ġc on
Ġc h
r y
Ġh ad
at e
Ġc om
q u
all y
Ġ2 0
Ġs u
re s
a p
Ġo r
Ġ out
Ġ1 9
Ġb ut
oo k
oo d
i ve
ver y
a ke
' m
Ġw or
am e
c k
Ġp l
Ġs he
Ġ O
Ġli ke
Ġ E
on g
as t
o d
Ġs a
Ġp ro
I t
Ġ us
b er
in k
Ġg et
or t
Ġwe re
Ġab out
in d
Ġ v
ic h
ou nd
Ġe x
it y
r a
A nd
Ġd on
Ġj ust
ri ght
H e
e ar
a k
ea h
e p
Ġwh o
Ġs p
i es
Ġn o
Ġhe re
Ġ K
Ġthe m
im e
ĠH e
Ġd id
u d
Ġw ant
in e
' ll
a g
e ct
Ġm an
Ġw ill
v en
ow n
Ġin t
Ġ if
m ent
W hat
Ġw ould
ic e
it t
Ġth ink
h ing
ou s
Ġs ome
o st
Ġg ot
Ġ right
Ġse e
id e
i an
Ġan y
Ġh as
Ġ U
ou gh
i a
a re
Ġt r
t her
Ġa g
u re
Ġwh ich
us e
Ġwhe n
i p
W e
Ġs ay
ĠI t
o ve
Ġa r
Ġt w
Ġsa id
e nd
i v
Ġ '
' ve
w ay
Ġt ime
Ġbe en
ac e
f f
Ġp e
ic k
T h
n a
ar y
s o
is h
Ġbe c
Ġc l
Ġn ow
o se
Ġl e
ou nt
Y eah
re at
re e
or n
ĠS t
op le
on d
Ġ20 1
ot her
Ġl ook
S o
Ġthe ir
Ġm ore
Ġof f
a ge
c i
an g
Ġb ack
Ġgo ing
Ġc ould
a use
Ġthe n
N o
u e
ir st
e w
an k
B ut
ĠC h
Ġ ro
it e
Ġo ther
Ġo ver
Ġ qu
i re
Ġg r
Ġpe ople
T hat
as s
o v
Ġb r
b le
Ġtw o
am p
he re
f ter
ac t
as e
Ġwor k
se l
or d
m er
Ġto o
Ġ very
O h
ing s
o g
at ed
Ġint o
Ġg ood
p t
er m
an s
u b
Ġcom p
Ġf irst
0 0
Ġd own
he d
itt le
o ll
an ce
w e
p er
Ġp r
o y
ion s
al k
Ġ en
om et
k ay
ĠĠ ĠĠ
ad e
Ġ V
- -
Ġh ow
Ġp art
e re
Ġa m
Ġu n
Ġ our
Ġ =
Ġw ay
h y
ĠI n
Ġy ear
ac h
i z
ou ght
Ġag ain
Ġal so
Ġl ittle
c c
Ġc ome
a v
if e
Ġ Y
at er
o h
Ġb l
i ld
w n
n e
r u
Ġwhe re
ur n
Ġon ly
nd er
o c
Ġe very
Ġ im
Ġc all
Ġa ct
Ġt e
Ġpl ay
Ġa d
W ell
. "
Ġd ay
Ġne ed
ar k
u ck
is s
Ġb et
i ed
res s
p l
t he
sel f
c l
t y
f ore
I n
Ġs omet
Ġt ake
u ch
en ce
e c
Ġa fter
Ġ âĢ
ic t
Ġf e
Ġwe ll
i le
ig n
Ġg u
a u
en s
Ġs c
n g
Ġm ake
ab le
in t
or y
Ġcon t
l es
th ing
Ġl et
Ġre ally
Ġth r
Ġp re
Ġsh ould
Ġth an
Ġa pp
Ġw r
ic al
o b
o ld
u ll
ĠU n
on na
at her
Ġbec ause
Ġha pp
Ġd is
f t
Th is
s h
or m
ul t
Ġu nder
Ġt ell
Ġs er
Ġp o
he n
The y
Ġthe se
Ġp ut
at es
Ġ !
Ġm uch
Ġre s
v ed
Ġg onna
at h
b e
Ġsomet hing
Ġp er
Ġf l
od y
oo l
' d
Ġme an
ĠT h
Ġdo es
on s
Ġne w
Ġl ong
a h
Ġm ade
Ġbe fore
d u
o ck
y ou
l and
Y es
t e
Ġc ar
it ed
a w
a ve
Ġt alk
a il
if f
Ġ er
Ġm ay
Ġe ven
v ing
S he
ver s
âĢ Ŀ
a ir
w ard
Ġne ver
in ce
Ġ 3
p ort
ad y
is e
Ġit s
e e
Ġdid n
Ġse c
ri ed
ou se
Ġre c
re n
The re
it ion
Ġcom m
i ly
t ing
i x
Ġb u
Ġ ke
Ġthr ough
i ous
h o
i al
I f
Ġre m
Ġ20 0
u ally
ic an
Ġha nd
l p
Ġg reat
or s
an c
Ġyear s
Ġc r
p e
Ġth ree
g et
ation s
Ġth ing
i gh
ve l
Ġo ld
Ġ You
Ġst art
Ġs m
Ġw ent
id ent
d ay
f ul
Ġf ind
Ġas k
H ow
Ġl ife
Ġa way
ct ion
u p
Ġc ount
Ġm ov
ĠS he
Ġm ust
Ġc ame
Ġm ost
Ġf ound
Ġl ove
Ġst ill
Ġth ought
u g
ation al
t ain
Ġl ast
m ber
Ġbe l
Ġhe lp
v es
Ġth ose
e ver
Ġd es
Ġh ome
Ġd iff
Ġc o
Ġman y
w hat
ir l
os s
ot h
Ġdo ing
ri end
l i
" .
Ġg ive
Ġp ol
Ġth ings
Ġl ea
ĠA mer
Ġo wn
on t
Ġsh ow
x t
en ed
m an
m y
Ġw on
he s
g an
ĠM ar
le ase
Ġc our
Ġe nd
Ġat t
im es
one y
Ġm in
Ġ i
b r
ter n
g in
at ch
an ge
Ġe ar
Ġbe ing
n y
N ow
Ġn ame
n ing
I N
a it
o ot
Ġs ame
H E
b ody
ent s
D o
an y
Ġw om
Ġ1 8
Ġhe ad
i o
em ber
ĠB r
Ġus ed
as ed
Ġch ild
ak ing
Ġn ight
al s
ou p
ub l
Ġc are
Ġt ry
" ,
way s
c ed
u h
Ġpl ace
Ġwor ld
Ġsu pp
ĠA nd
W hy
Ġk ind
Ġsu ch
Ġb ig
Ġfe el
Ġwh y
Ġl ot
ĠA r
Ġn um
g r
Ġcall ed
Ġ19 9
L et
s ide
ch ool
Ġf am
out h
O U
f orm
Ġo p
ur ing
or ry
Ġf in
Ġk ill
) .
Ġ 4
Ġm ar
, "
ers on
ut e
or k
u nd
ow er
D on
Ġe le
a z
Ġa cc
Ġan other
Ġf riend
Ġknow n
t hat
) ,
at ing
Ġp res
ĠN ew
i b
Ġs l
Ġar ound
Ġt urn
p h
Ġm ight
Ġg irl
Ġs et
ir d
Ġre g
Ġin d
Ġf our
S t
C ome
Ġd ist
en er
ĠF r
au ght
ĠUn ited
p ect
Ġdiff ere
Ġle ft
s s
Ġus e
we en
2 0
e k
g g
Ġst r
v ent
cl ud
Ġsec ond
ci al
Ġm on
t s
Ġ 5
A ll
Ġd one
Ġc he
Ġb it
âĢ Ļ
y s
Ġany thing
Ġsu re
Ġbet ter
M y
is hed
Ġh ouse
Ġal ways
ĠD e
ĠA l
e red
Ġs ur
Ġb oy
ic s
Ġr un
E R
i ble
ĠâĢ ľ
Ġa c
b ut
Ġre l
Ġd ied
Ġto ld
ĠAmer ican
oll ow
c es
n ess
t on
Ġm om
ĠM r
O kay
l ed
Ġe l
Ġ ent
ar m
as on
Ġd r
Ġbet ween
is ter
u al
Ġu nt
Ġre t
n er
Ġst ud
m b
Ġke ep
Ġtoo k
un e
ul ar
a j
re t
Ġre al
ou n
â Ļ
d er
Ġbel ie
Ġs y
Ġb o
ot t
oh n
I s
A N
c ess
ĠS h
1 9
y e
Ġb ook
Ġp h
y es
r ow
al e
Ġo b
Ġm at
ar s
ire ct
ĠW hat
W hen
Ġin v
He y
Ġfor m
Ġ erm
ver n
Ġm oney
Th ank
j ect
Ġe ver
Ġwh ile
Ġsu b
Ġde c
Ġb orn
ĠSt ates
Ġ -
Ġin clud
Ġb us
w here
is ion
ĠThe y
Ġu h
Ġ19 8
ak es
Ġpo int
N ot
l ing
Ġo kay
s on
Ġsa w
or th
Ġnot hing
Ġunt il
âĻ ª
Ġf ather
Ġwor d
at ive
re w
n o
Ġde p
ol og
Ġas s
i vers
Ġne xt
Ġcon s
i er
Ġs w
Ġs ing
Ġb est
Ġp erson
as h
Ġg l
Ġb oth
Ġm en
i red
t o
Ġe ach
ĠC ount
Ġcour se
Ġdiffere nt
Ġm et
st and
le t
Ġst op
Ġl ater
Ġs chool
it s
Ġf ollow
O n
a x
Ġp ass
Ġnum ber
Ġl ist
am es
Ġin st
ĠA s
ea k
Ġact ually
Ġm us
Ġw ater
ĠTh is
u res
o k
Ġc le
ce pt
Ġpro du
a id
ĠâĢ ĵ
e x
ĠP r
e g
Ġde f
Ġc ent
ĠG od
c er
om m
ĠA n
it ies
ĠN o
ble m
an na
Ġc ity
Ġf un
Ġp op
Ġy eah
The n
Ġm other
Ã ©
A T
Ġ19 7
Ġf r
Ġ 6
un g
ter s
Ġch ar
Ġse em
ĠI nd
Ġb re
ut h
Ġ 8
Ġin c
Ġte am
Ġyou ng
J ust
os ed
re am
Ġ 7
Ġre p
Ġ ;
Ġd irect
Ġdoes n
Ġc ap
ĠCount y
at t
in ess
Ġagain st
Ġpro blem
Ġim p
Ġon ce
Ġh ard
Ġhe ar
ĠK ing
r ist
ro ss
Ġs on
Ġl ar
ĠJ an
Ġs orry
al f
ab y
o f
Ġse en
Ġen ough
op e
i et
Ġp ubl
in a
Ġto get
R E
a pp
Ġtoget her
ot e
Ġh igh
Ġbec ame
Ġel se
âĢ ľ
i k
Ġto wn
Ġevery thing
IN G
Ġwant ed
Ġe m
Ġwith out
g er
Ġf act
W ho
Ġfam ily
R ight
if ic
W here
Ġf ive
en n
ĠB ut
Ġw ait
o ber
ro p
Ġre f
ĠE ng
a ut
a red
ie ld
Ġlea ve
Ġcom ing
Ġst and
it al
Ġle ad
Ġst ate
Ġpl an
ab ly
u c
e y
us s
Ġl oc
il m
Ġqu ite
Ġre st
Ġy es
ĠS p
ĠJ ohn
Ġ19 6
Ġ Z
Ġd uring
Ġs ix
et s
L ook
orn ing
in es
Ġs ince
Ġf ew
r al
Ġb ad
Ġs ign
Ġc oll
Ġs k
O N
Ġ id
Ġad d
Ġmov ie
Ġst ay
ur y
Ġsm all
Ġt ri
Ġwe ek
y eah
r ic
Ġro om
Ġ 9
Ġunder stand
Ġhe art
Ġwom an
um p
Ġhim self
A re
Ġop en
e b
Ġre ad
Ġs it
u ff
id d
ĠĠ Ġ
ar r
l ess
ant s
is ed
Ġli ght
Ġbelie ve
b all
Ġm ind
ĠI s
Ġf ar
ie w
Ġsay s
ĠC l
in s
âĢ ĵ
Ġlook ing
Ġ `
S h
Ġhapp ened
Ġt imes
Ġdis c
C h
en se
Ġli ve
ĠM ay
ĠĠĠĠ ĠĠĠĠ
Ġhe ard
Ġe v
Ġchild ren
Ġpre t
Ġs ide
Ġday s
Ġm ove
ment s
Ġar t
m e
Ġ ed
? "
ere st
U h
Ġh um
Ġtr ans
Ġne ar
A s
Ġwho le
i ke
Ġan s
Ġs im
Ġcon f
Ġqu est
F or
Ġto day
as ter
Ġp lease
re ady
Ġd ri
Ġm ed
Ġbe h
st em
ist s
ivers ity
c y
Ġbr other
u ary
Ġ ri
Ġme et
Ġin ter
Ġpol it
Ġs ort
is m
ec ause
Ġim port
. âĢĿ
s y
Ġde ath
Ġis n
Ġw ife
Ġ Q
g t
a i
it her
n ed
er tain
Ġm orning
00 0
Ġget ting
r ap
L L
en e
le ep
sh ip
Ġn ice
Ġ1 0
in ed
t a
ĠW e
A R
d y
M m
Ġw ar
Ġex p
Ġa ge
Ġh our
Ġw alk
Ġgr oup
Ġg ener
Â ł
Ġex t
G ood
Ġc ol
Ġp oss
ut ion
Ġb ro
Ġt ra
ow s
b y
Ġsay ing
er y
Ġstart ed
Ġso on
Ġf uck
am ed
iv es
Ġrec ord
Ġg ave
Ġl and
ĠT HE
Ġth ough
c hed
E r
Ġg i
Ġde ad
Ġask ed
aught er
Ġret urn
u es
ĠG r
Ġdo or
Ġint erest
Ġj ob
Ġs ong
iz ed
Ġp ay
Ġh old
Ġ' '
h m
Ġl aw
Ġe yes
Ġa ir
Ġd ra
Ġe as
Ġup on
Ġy et
t en
r ict
d o
Ġsh all
Ġha ving
Ġw anna
Ġwr ong
Ġb aby
C an
b orn
am a
Ġm od
Ġh alf
ĠS o
Ġgo vern
Ġ19 5
ĠJan uary
Ġtalk ing
is on
Ġc ase
ag es
Ġkn ew
A l
Ġmon th
iz e
G o
ĠS c
u ly
Ġmus ic
D id
Ġp ower
ĠO h
Ġp rom
ĠA p
on y
Ġf ace
ri es
Ġal ready
Ġal ong
Ġ $
Ġbu ild
ain s
Ġw in
Ġk ing
O R
ward s
Ġbe gan
Ġsy stem
Ġc ur
Ġr ound
Ġser v
ap s
re en
Ġf ore
d d
Ġk id
at s
Ġf ilm
ĠG erm
n ow
at ure
er ing
m ost
ug ust
o kay
Ġs ir
Ġm il
Ġplay ed
Ġid ea
ri l
Ġrem ember
Ġcount ry
ĠC an
id ed
y ing
ĠY OU
G et
Ġc reat
Ġpro v
Ġoff ic
Ġf ull
Ġbr ing
ct or
Ġm iss
p le
Ġm ain
Ġpro b
t ed
Ġto p
Ġimport ant
Ġmat ter
us h
n ot
Ġg ame
Ġsp e
Ġtry ing
ff ect
Ġs ound
Ġbe aut
Ġs ent
Ġbus iness
Ġg one
Ġf ell
Ġ [
as k
st er
il ity
ĠCh rist
ion al
l ish
Ġf oot
ĠH ow
le ased
c ome
ĠB l
You r
Ġab le
ĠC ar
Ġin s
Ġare a
Ġj o
Ġe at
it er
al ity
ate ly
Ġ19 4
an e
o ice
art ment
vel op
u ro
are nt
ĠO n
ĠR e
ar ch
at or
t here
or ld
Ġex pl
Ġpret ty
ap e
ĠThe re
Ġpro f
A t
Ġm ill
ic ally
Ġgo es
Ġth ank
Ġgu y
c an
ak en
Ġh ur
p r
er v
Ġl ost
Ġme ans
ĠA t
or row
Ġ1 7
Ġw ind
Ġsp eak
Ġ20 2
u red
Ġe qu
Ġmom ent
ĠA ugust
ep t
! "
M ay
Ġle g
er n
Ġ1 5
Ġpart ic
Ġhapp en
Ġcont in
Ġwom en
Ġin f
ĠBr it
ul ation
ain ed
ĠA ll
Ġc ertain
Ġhand s
Ġ19 3
Ġl ear
O ne
Ġch ang
Ġw atch
Ġd et
Ġwas n
ĠC on
Ġb all
Ġp ri
o le
ur ch
c le
e ad
He re
ĠUn iversity
A n
ĠMar ch
Ġf ire
Ġyour self
ĠH is
Ġh or
h ip
ĠY ork
c ri
ĠT hat
pp ed
ie f
Ġhis t
T o
ur al
Ġch ange
et h
Ġ &
us ed
Ġele ct
ĠAp ril
Ġsome one
un ic
E S
Ġser ies
Ġm aking
i ver
Ġb ody
m m
Ġf ine
i am
g y
um b
Ġt er
Ġre ce
Ġp os
ell o
ĠF or
Ġcl ose
an n
ic a
iv ed
Ġcom es
if ul
Ġb ed
en g
ĠW ar
Ġm ark
res ent
o on
Ġl ess
ĠP ar
Ġt y
Ġsh ort
Ġw ond
ĠP ro
w er
Ġc ut
Ġl ine
Ġgu ys
Ġp at
al th
Ġbl ack
ic es
le y
Ġtr ue
Ġp ain
ĠJ uly
Ġf all
z e
Ġst ory
ove mber
B ecause
Ġex per
r act
ic ian
Ġprob ably
id es
in c
Ġcl ass
Ġp ar
Ġha ven
gr am
Ġor der
und red
ent ion
ri gin
aj or
et y
le v
Ġpr ot
ct ober
m ed
Ġbec ome
ap er
ĠT r
al d
Ġs leep
Ġ ...
ut es
ĠW orld
Ġf ight
Ġe ight
Ġear ly
g ue
Ġwould n
n ce
E N
ent y
w h
Ġt erm
o e
, âĢĿ
ang u
Ġlook ed
Ġcomp any
ĠY es
m p
om p
ĠJ une
el s
e or
ne y
Ġlar ge
Ġme mber
Ġgi ven
Ġpres ent
Ġd ad
Ġde velop
Ġd aughter
ĠM in
c on
Ġs we
i ent
Ġad v
Ġwork ing
Ġcomp le
ce mber
re st
R e
Ġp ick
l ook
o x
on es
Ġbe gin
il t
Ġv is
ac es
Ġbr ought
ou ble
Ġgovern ment
ept ember
Ġ201 0
re et
Ġ es
o ke
ĠA ust
el t
os p
res ident
Ġle ast
ĠS outh
Â ´
et er
v ious
Ġf ree
p s
ra z
Ġ1 2
W h
Ġp ie
Ġkill ed
Ġhe ll
Ġm ag
Ġbre ak
Ġc a
Ġbeh ind
Ġquest ion
Ġre ady
Ġh undred
Ġmy self
ard s
Ġde al
eb ru
ud e
ebru ary
ĠB e
Ġli ved
ĠN ovember
Ġal one
Ġl ate
Ġo cc
b um
v an
Ġc or
Ġpubl ic
Ġan n
Ġre leased
ĠC omm
Ġdo g
Ġmar ried
ro l
f e
h uh
Ġh ope
sel ves
ĠO ctober
Ġor gan
Ġa w
Ġnew s
Ġt en
d e
Ġwh ite
Ġag o
Ġmay be
h a
Ġal most
am b
w ell
Ġfriend s
I S
Ġd iv
f or
ĠN ational
I T
a im
Ġ est
og rap
Ġof ten
cc ess
re nt
Ġh on
Ġo pp
E very
Ġdr ink
Ġ Yeah
l t
o int
Ġhapp y
Ġ1 6
r on
Ġsp ec
b and
Ġo per
c o
it ing
ĠE uro
c ent
Ġre ason
Ġse ver
Ġo rigin
Ġgo ld
ren ch
he ad
Ġen g
Ġbeaut iful
ĠDe cember
ĠG o
Ġgu ess
m in
Ġs qu
Ġre pl
Ġo h
Ġn amed
at ic
olog y
Ġt re
Ġs ol
Ġex amp
Ġfr ont
ĠS eptember
ĠW ill
ou d
Ġsupp ort
Ġs at
g ed
Ġcount y
b ed
ĠF ebruary
Ġword s
ull y
Ġ |
es e
Ġv ar
Ġt aken
ĠEng lish
ĠT H
Ġt aking
er t
B e
P lease
Ġcon st
ĠFr ance
Ġ20 20
Ġhum an
Ġ --
l er
Ġar m
Ġsever al
her n
Ġst e
ot s
ĠL e
Ġpro gram
b s
i or
od e
Ġde m
ac ed
Ġpart y
Ġcle ar
ĠR ep
Ġan im
Ġ ]
r ing
Ġatt ack
Ġbl ood
Ġal bum
Ġre port
ĠBrit ish
Ġ âĻª
Ġre d
ĠP h
o or
Ġso ld
Ġst uff
ĠT O
en cy
ĠC ol
Ġmin utes
Ġt ou
Ġth ird
ĠN orth
h aps
Ġres p
Ġp ast
Ġde l
i um
anc es
Ġf ig
c he
ur s
Ġm akes
A S
Ġt em
ar l
Ġ201 9
w o
w ork
Ġlist en
ke y
Ġl angu
an a
am ent
S ome
un k
m en
a ul
Ġs ister
ĠP resident
Ġhe ld
ĠS w
ĠA d
ci ent
Ġ1 1
e en
Ġstr ong
Ġh ot
id er
Ġchar ac
Ġqu ick
Ġper form
au gh
ĠEuro pe
i pp
M r
Ġcould n
Ġprof ess
Ġwith in
Ġ201 8
o ver
i ence
Ġall ow
Ġthink ing
Ġother s
Ġtr ain
us band
un ity
ru ct
ĠW h
Ġmill ion
Ġm ess
Ġdes ign
E x
Ġf ood
itt en
itt ing
Ġin form
Ġcomp et
Ġb ar
Ġp ict
Ġn ational
ĠC ity
` `
ang er
Ġe ither
ous and
Ġv al
Ġa p
ĠC al
iv ing
Ġ201 4
Ġin side
ad a
Ġwant s
lev ision
Ġb as
Ġinclud ing
Ġres ult
O r
Ġsu ccess
May be
g o
Ġse ason
act ly
ĠM iss
ch n
tern ational
Ġs il
Ġsing le
c hes
ac hed
Ġ1 4
u ed
ent ly
Ġ201 7
Ġwork ed
Ġbo x
A fter
al es
Ġro ad
Ġd ie
ĠP l
p ed
om an
ea red
om in
Ġturn ed
Ġapp ear
it ch
Ġpol ice
ĠB ar
ĠF rench
Ġfor mer
air s
ĠW hen
Ġ1 3
ĠO r
Ġr ather
Ġro ck
Ġdist rict
H ello
ian s
Ġb ird
ĠD o
Ġpop ulation
ar ing
Ġlook s
Ġ _
Ġp arent
Ġt ill
H ave
ou b
Ġh usband
o ad
A h
end ed
ĠG eor
Ġexamp le
Ġfollow ing
uth or
Ġse ven
Ġc amp
al y
ect ion
ĠThe n
art y
ore d
Ġpo or
Ġwond er
Ġ ve
Ġl a
v iew
ĠA f
e ge
W ith
or ies
Ġmonth s
f ully
O M
Ġb and
Ġ ill
id ge
Ġplay ing
le ct
Ġgr ow
att le
Ġgr ound
E T
ro g
un ch
Ġv ill
re ed
qu e
Ġ19 2
Ġmin ute
Ġw ish
Ġgot ta
Ġ X
Ġspe cial
Ġex pect
ĠH er
ĠF l
Ġli ving
Ġs um
em ent
Ġth ousand
ĠM an
Ġac ross
Ġto t
in o
ar a
Ġout side
ĠA b
Ġc ost
ro du
Ġt est
f ort
Ġm ajor
Ġ :
Ġsh ip
ĠG u
O W
Ġb ased
ro om
Ġha ir
Ġoff ice
Ġhour s
Ġswe et
ove red
ĠD on
Ġli ves
Ġh it
Ġd ark
Ġe ffect
p or
Ġapp ro
A ny
Ġg un
m orrow
Ġf elt
Ġd ream
Ġr a
as es
s c
Ġche ck
ri but
ĠE d
f ect
Ġst ra
Ġa f
idd le
re ad
ap an
in cess
Ġposs ible
Ġn orth
ou l
Ġc op
d om
Ġf ield
ill e
Ġfuck ing
Ġa v
Ġre qu
Ġfor g
Ġp ress
Ġt ried
Ġl ay
Ġam ong
ri e
Ġ3 0
ĠC ent
Ġle vel
Ġst ation
E D
I I
Ġs un
Ġc ir
Ġte levision
Ġp ull
oun c
b o
c om
ir th
Ġ ĠĊ
un t
Ġany one
l f
Ġ201 5
Ġf if
w ho
Ġpolit ician
m ore
ov ed
th ough
ĠP enn
Ġr ad
Ġr an
Ġd am
l van
Ġf a
Ġc re
Ġus ing
Ġor d
g est
m a
oc r
Ġdep artment
ra id
Ġcomple te
Ġpartic ular
Ġans wer
ed er
Ġ z
Ġse nd
Ġt reat
Ġhist ory
ond on
lvan ia
ur g
Ġwhe ther
ens us
Ġ #
Ġrep resent
h am
so ci
it ions
e ed
Er m
Ġde ar
Ġc oup
y n
ĠW est
O f
Ġwork s
Ġf av
Ġe vent
Ġst at
O T
Ġph one
Ġgr and
ff ic
Ġwr itten
unic ip
Ġv oice
sy lvania
ag ed
1 8
Ġd est
mb ers
li ke
Ġm ount
ir ty
Ġpres ident
Ġse at
Ġevery one
Ġmov ed
Ġp ost
Ġw all
Ġst ep
our n
Ġt ree
iss ion
id ence
ĠM c
Ġme mbers
Ġfe et
Ġm ur
Ġc at
Ġf ast
r it
Ã ¡
ĠPenn sylvania
Ġrece ived
i en
Ġt able
hy s
a ff
Ġpro per
Ġget s
Ġ201 6
Ġcreat ed
ain t
Ġpro p
Ġbu ilt
Ġis s
is ing
Ġf ur
Ġinv ol
Ġknow s
u k
s he
le x
Ġwor ry
p ar
id ing
Ġte ac
Ġex c
Ġcan not
L E
h ow
Ġv iew
Ġf air
Ġm ine
T ake
i od
ĠJ apan
Ġ2 5
Ġs n
if ied
Ġaf raid
Ġw ood
Ġv ide
om b
ord ing
Ġdra w
Ġsomet imes
Ġcon d
Ġcon cer
e al
Ġcomm on
e v
Ġhor se
Ġcur rent
ress ed
on ight
Ã Ń
Ġc ast
Ġtw enty
Ġcare er
Ġab s
ound s
l a
Ġa uthor
Ġbuild ing
Ġch ance
Ġs ense
Ġ202 2
Ġh uh
Ġwr ote
ĠA fter
u ri
U S
Ġreg ion
ĠA m
osp ital
k s
amp ions
as ure
at a
Ġseem s
Ġloc al
O K
Ġcl ub
Ġc ry
ĠL ondon
it ive
ĠT e
a el
Ġdiff ic
Ġeas y
Ġbu y
ĠI f
S ee
Ġon es
1 0
Ġpro cess
Ġcont rol
Ġgener al
r or
Ġed uc
Ġex actly
Ġdes cri
iz ation
ĠH ar
Ġsh ot
al t
ĠR uss
l ic
Ġc old
ĠD r
Ġcoup le
oo se
Ġlong er
Ġinc re
um ent
Ġc al
og n
Ġd in
ut ure
ay s
Ġm er
Ġserv ice
u le
Ġl uck
Ġrun ning
if t
ĠP ol
Ġm ot
l in
et t
S orry
Ġto morrow
ĠO ne
H is
Ġse a
Ġsh it
Ġde v
Ġinv est
Ġb ott
Ġparent s
ru g
av id
l s
Ġf ail
ĠJ ack
Ġp al
ĠW ell
em y
W ait
ac y
Ġdirect ed
Ġtr uth
u ation
Ġchang ed
ĠSt ate
Ġinform ation
Ġde ep
ir t
Ġser ved
Ġst ar
ci ence
Ġp aper
ill s
Ġtou ch
g es
Ġsome body
Ġcharac ter
Ġh ig
Ġpr act
ĠL ea
Ġhow ever
ill y
ĠP arty
Ġl ed
i ol
r ation
Ġt it
Ġb irth
av y
e an
st it
Ġcar ry
Ġte chn
ĠGerm an
ĠAust ral
Thank s
Ġd i
ĠH ouse
Ġthem selves
we red
Ġsupp osed
Ġf ly
Ġfoot ball
ĠE x
Ġar ri
ĠL ord
Ġre se
ĠO F
Ġ2 4
Ġs outh
ĠT om
Ġcour t
Ġlangu age
L ike
Ġper iod
Ġbl ue
ener al
Ġl ab
Ġboy s
ent le
it z
Ġkid s
Ġa ff
Ġl ow
Ġwait ing
w ith
ĠC ap
1 5
Ġse x
ĠU S
Ġl ady
Ġcent ury
ĠM ich
Ġsh oot
C H
pt ion
ĠEng land
ĠQ ue
Ġf uture
Ġpos ition
Ġm unicip
Ġneed s
Ġwhat ever
ĠInd ian
Ġ *
o es
ĠM y
V E
1 7
W ill
u z
A r
ir on
ist en
Ġri ver
Ġp ur
o ff
ounc il
Ġtr ouble
b ers
Ġm outh
iv il
Ġcon n
ci ally
Ġc ross
Ġ vers
f er
v ol
Ġt onight
ro ll
Ġsec ret
il ar
Ġser ious
H i
i ally
Ġthr ow
Ġb ank
Ġwr ite
N D
Ġli k
M ar
Ġhur t
e ople
G H
ir m
ĠRep ubl
Ġab ove
T ell
Ġr ul
A Y
it or
Ġac cept
con om
Ġh ang
th is
ĠS ec
se e
am er
Ġ 0
Ġp ot
Ġsu per
Ġres pect
Ġent ire
U n
a ur
Ġg en
Ġstra ight
Ġans wered
Ġpass ed
Ġtr ad
in al
Ġcle an
Ġcap ital
ag er
Ġeng ine
Ġse ll
pl oy
Ġsur pr
vious ly
if orn
the y
it ary
he l
r ay
Ġh y
e le
Ġfor get
Ġ )
f ord
s p
Ġpie ce
Ġst ri
ampions hip
Ġpri v
Ġevery body
Ġe p
Ġd a
Ġper haps
ĠGerm any
Ġc ensus
as hing
ĠN ot
ow ers
iforn ia
Ġvill age
Ġke pt
Ġc ried
Ġproblem s
Ġus ually
Ġro le
Ġso cial
p ing
Ġeven ing
ĠAmer ica
Ġ201 3
Ġpict ure
u el
ĠE l
E A
Ġbe ar
ĠT o
Ġl im
dd en
Ġco ver
ĠS chool
ep end
? âĢĿ
Ġst ood
Ġfin al
Ġpro ject
in ation
Ġn at
and er
Ġinst ead
Ġm ist
Ġfin ished
F r
ĠP ark
Ġseem ed
Ġd ue
Ġrec ogn
Ġes c
Ġplay er
Ġann oun
Ġgirl s
I D
Ġp le
ĠGo vern
Ġc os
St op
Ġpr ison
l ine
ah a
ĠC oll
at ter
Ġfur ther
i ers
Ġch air
a f
Ġme m
Ġt akes
Ġtr ack
Ġfun ny
Ġim ag
Ġv ict
te en
Ġcr it
k y
re g
Ġit self
Ġdec ided
Ġsu dden
Ġwor th
Ġvide o
ĠCal ifornia
Ġg reen
Ġsp ace
ri ll
raz y
es tern
Ġhe alth
Ġd ro
Ġp hys
ĠD em
Ġv ol
1 6
Ġk iss
Ġreturn ed
h i
v al
Ġdiffic ult
Ġtr ust
p ut
ol ute
Ġcomp ut
ell ow
ul a
Ġhapp ens
The se
Ġsu ff
Ġsu gg
Ġsugg est
Ġp ort
r is
land s
Ġan g
Ġear th
Ġinclud e
end ing
Ġloc ated
l u
ĠH igh
ro y
op s
Ġher self
Ġad m
Ġop ened
Ġact iv
j oy
Ġre ached
Ġbook s
Ġd oub
ĠM e
Ġpolit ical
ri age
Ġst re
Ġ1 00
Ġex ist
Ġr ing
Ġc ult
ci ety
ar i
Ġn ine
t ime
em pt
Ġwh om
Ġare n
1 4
1 2
Ġapp eared
Ġter ri
ĠGeor ge
A M
Ġsa ve
Ġd anger
Ġp en
Ġper fect
Ġpubl ished
Ġweek s
Ġmom my
Ġl ad
ĠPh il
Ġh ospital
Ġ( )
Ġsa fe
b or
iv id
ic o
Ġj ud
ĠLea gue
Ġcl ot
Ġr ace
Ġfeel ing
Ġc ook
ce ed
iv al
k en
Ġa in
Ġsh ut
ear s
C l
Ġc ell
Ġ <
re y
I C
Ġest ab
d ing
n ight
Ġm iddle
Ġag ed
ĠInd ia
Ġany way
ĠS m
Ġfig ure
ĠMin ister
Ġe ye
ra ft
Ġpop ular
Ġl augh
ĠD an
ĠP er
ĠP aul
itt ed
Ġs us
Ġh ung
" )
a e
Ġob ject
Ġlear n
Ġty pe
b it
re me
ĠS y
ad es
il i
om en
ĠMr s
Ġ( "
Ġn orm
Ġj ump
ĠL ou
Ġf ix
Ġne g
ĠN e
Ġn in
b l
Ġcl im
Ġh op
ĠR iver
Ġprot ect
Ġ2 1
Ġf ill
Ġph ot
Ġ2 2
G ive
ĠW hy
Ġ` `
U T
c her
y le
ĠI N
Ġgo d
um e
Ġdo ctor
Ġcl aim
Ġf re
Ġf ish
Ġst age
Ġtell ing
Ġs itting
Ġfl oor
ĠG ood
ĠJ ust
Ġele ction
Ġbe at
er ve
Ġm id
ĠP eter
Ġc orn
Ġm ult
Ġv iol
f ield
Ã ¼
ut y
ĠM ad
Ġso ft
Ġm is
F rom
om es
Ġlet ter
Ġd rug
ĠS en
Ġsl ow
Ġa head
r ain
Ġset t
u pp
Ġg entle
ĠWill iam
ress ion
Ġmeet ing
Ġ201 1
Ġtot al
Ġc razy
ere nce
r an
Ġsp ir
is hing
Ġde g
es us
Ġdri ve
Ġ201 2
Ġm aster
Ġa ut
Ġe conom
Ġgl ad
ĠPr ince
Ġbegin ning
Ġ2 3
ĠS e
Ġint rodu
Ġorigin al
ar th
pe cially
Ġm ad
ĠJ ames
Ġse lf
Ġs ad
ag o
Ġme ant
A C
B l
Re ally
T HE
am m
ock ed
Ġstud ents
Ġin n
Ġs ick
w as
ĠI T
o ly
oy al
Ġfor ward
H AT
Ġro ll
G od
Ġfor ce
Ġth ou
Ġsub ject
Ġresp ons
Ġb ag
Ġdis app
Ġc atch
om ing
Ġst ick
Ġfe at
Ġg iving
Ġke y
Ġb ull
Ġdo ll
he m
Ġacc ount
ing er
Ġst ars
i res
Ġm ention
Ġmunicip ality
Ġn on
Ġpol ic
Ġlea ving
Ġan t
ĠHow ever
ĠM or
Ġcir c
S omet
Ġfore st
Ġex cept
Ġmark et
il ed
Ġc ause
ro ad
oll y
b ye
Ġh oney
Ġf rog
Ġrel ig
Ġcertain ly
Ġm atch
Ġl ose
ĠM on
ĠM us
Ġcl os
Ġquick ly
1 3
ĠM ed
Ġrel ation
med i
Ġsim ilar
Ġal ive
ĠE ast
ra ve
im ent
Ġb urn
Ġne igh
B y
l ight
he t
Ġu m
ud d
ĠFr ank
AN D
Ġb ill
Ġc ool
y a
an ch
up id
Ġdin ner
D e
L isten
ober t
Ġspec ies
ĠS er
Ġst ru
a ven
Ġcomm unity
Ġwind ow
Ġ ident
Ġgr ad
Ġcom b
ĠS ch
Ġch urch
ur ity
Ġqu iet
f riend
Ġob s
A L
Ġto wards
ĠT own
Ġprofess ional
Ġm ater
Ġn et
Ġne cess
Ġprodu ct
Ġbel ong
M an
Ġen er
Ġ202 1
ic ed
ĠT ex
Ġpr ince
Ġfollow ed
Ġ x
ĠS an
Ġyour s
j ust
is es
v ille
ber t
c ast
ain ing
ĠE n
Ġm ass
Ġf ac
ri an
Ġpre p
N e
ber g
ĠR oman
Not hing
Ġf und
Ġ2 6
ĠC our
ĠC or
5 0
st r
w ood
r ican
i us
ĠG eneral
ĠDem ocr
Ġtra vel
Ġb ene
ĠR ich
Ġc aught
Ġf em
Ġwho se
Ġinterest ing
Ġstand ing
is c
Ġcomm une
Ġquest ions
Ġty p
u ge
Ġen joy
Ġse par
ĠT V
Ġact or
Ġf ear
E ven
ĠEurope an
Ġh ost
am s
Ġde cl
Ġfam ous
S p
Ġdirect or
Ġact ion
Ġb reat
M e
h ood
Ġind ivid
ĠD avid
T ER
Ġany more
Ã ¶
Ġmov ing
Ġinvol ved
Ġp ark
ort hern
ĠN ow
Ġli e
Ġprodu ced
c use
g ress
ĠW ho
ort s
Ġ ide
ard en
g ar
Ġc and
Ġexper ience
ock s
re ct
Ġ2 8
J ohn
p ly
ce ll
ĠC o
Ġw ide
out hern
Ġ2 7
2 00
Ġteac her
Ġdad dy
ĠTex as
ĠD ep
T r
Ġg ames
Ġd ance
Ġ200 8
er ry
Ġf le
Ġh at
Ġd ate
Ġpl aces
min ist
h ic
Ġcons ider
Ġbro ad
n es
Ġwr iting
Ġpe ace
om as
ci ous
Ġr id
Ġcol or
ĠG l
ĠI I
Ġear li
Ġstr ange
d on
F F
in ing
ĠThe se
eng th
Ġallow ed
ĠL a
B r
Ġsit uation
ograp hy
Ġp aid
m ing
Ġfin ally
Ġsim ple
A b
Ġmil es
Ġsur v
Ġe ast
Ġstop ped
Ġequ al
Ġpr im
ashing ton
Ġannoun ced
Ġm ach
ĠCan ada
Ġg rew
ose ph
ĠĠĠĠĠĠĠĠ ĠĠĠĠĠĠĠĠ
Ġterm s
A P
Ġt ax
ound ed
Ġind ust
ĠM ex
ĠA re
Ġpart s
Ġshow s
Ġsupp ose
ĠS am
Ġal right
P l
ĠO K
f l
ict ion
Ġapp oint
ĠB E
ĠP al
m as
res h
Ġ200 9
ol ic
ĠB y
ĠHe y
b our
Ġim medi
3 0
in y
Ġem ploy
ĠAn ge
Ġneed ed
g ing
O ur
us es
Ġmil itary
Ġam ount
Ġask ing
Ġc ard
is se
Ġb ud
ĠH en
Ġplay s
Ġp ack
ĠW ith
Ġcomm and
Ġsp ent
Ġlar gest
ĠM ark
Ġa ward
in ite
Ġar ch
Ġp erm
b urg
Ġsee ing
Ġeduc ation
ĠR eg
ĠSt e
Ġrese arch
ĠQue en
Ġ200 6
ĠG reat
Ġfound ed
! âĢĿ
Ġfav or
ist ic
Ġ ver
ĠC r
ĠL et
Ġany body
Ġway s
Ġconn ect
n s
Ġb ase
en ces
op h
ir gin
Ġstud y
ĠQ u
Ġoffic ial
Ġrad io
in ary
ĠCh ar
Ġclot hes
Ġst reet
ĠM ary
re m
g u
ĠBl ack
Ġd ress
Ġco ff
re l
Ġener gy
Ġmater ial
n ers
er o
Ġd ig
al ian
ak er
Ġvis it
olute ly
it es
ol f
ru ction
st on
ree k
ĠCh ampionship
ĠW here
Ġst ore
as ons
. '
k i
ĠTh ank
at ives
Ġnat ural
Ġmar ry
ed y
Ġcon v
Ġno vel
ent ial
ist rict
âĢ Ķ
ition al
Ġfor t
ĠA ir
ĠB en
ist ory
Ġref er
Ġar rest
Ġacc ident
c ul
pl ay
Ġrepl ied
ens ive
Ġbro ke
Ġatt empt
ib ility
Ġh ate
ĠE m
Ġdist ribut
Wh ich
k a
ĠCh urch
Ġcomp an
al a
ĠA c
Ġinclud ed
ĠM art
Ġen c
Ġcount ries
Ġf oc
Q u
ĠO N
sy ch
Ġw ed
Ġs cient
ĠD ad
I M
it ude
Ġmod el
Ġc ivil
Ġvar ious
A D
ĠIn ternational
Ġs our
Ġb ought
et her
ĠR ed
ĠâĢ ĺ
Ġst upid
Ġl o
. ,
Ġa ud
Ġf arm
Ġl oved
G r
Ġ5 0
Ġdisc uss
ĠB o
Ġpoint s
ĠUn ion
b ack
Ġca used
ra v
Ġnum bers
ĠM E
ric a
Ġs ight
an i
Ġtit le
Ġpriv ate
L D
T wo
Ġind eed
Ġse arch
Ġval ue
k n
pp er
Ġro b
Ġt ick
if y
Ġjo ined
Ġar r
Ġs cience
Ġbo ard
ĠS ome
ĠW ashington
P ro
Ġcomput er
Y OU
ĠIt s
il es
Ġgl ass
u x
Ġpl ant
o id
H er
on el
Ġar my
Ġp ers
Ġcar ried
g ent
Ġd rop
Ġbl ow
y ear
Ġhe avy
Ġqu ar
bo ard
m on
Ġb attle
Ġf ool
b ing
Ġ200 7
e ep
O S
Ġwe ar
Ġcomplete ly
Ġav ail
Ġpal ace
ĠMich ael
ĠB er
W ould
Ġw ild
Ġin ternational
Ġprom ise
Ġcont ract
a ign
soci ation
Ġperson al
Ġdest roy
Ġrelation ship
in ct
ĠL i
Ġarm s
ourn al
Ġsh op
Ġe gg
Ġdo c
ĠK h
id a
Ġlead er
Ġa ffect
inc ip
1 1
Ġt ired
se c
Ġanim als
Ġin j
Ġl ength
Ġst ruct
Ġdevelop ment
an ish
ab ility
Ã ³
Ġev idence
Ġcontin ued
Ġper cent
gr ound
f ace
g ood
du ct
Ġwe l
ĠA ward
Ġ2 9
ask et
ĠC ome
ot a
d id
ĠN or
Ġt ail
Ġn ature
Ġis land
Ġcon side
itt ee
ur t
Ġal though
Ġconside red
V ery
Ġinf lu
ĠPar is
Ġw est
w ise
Ġs oul
Ġth reat
av es
ĠYou r
ĠC omp
ĠA nt
ĠSt reet
ens ion
as c
anc ed
he st
Ġm ix
Ġind epend
Ġcoll ect
ĠB el
ant ly
Ġ et
il ing
E LL
Ġw arm
ĠĠĠĠ ĠĠ
Ġthank s
Ġb ow
ĠP ort
Ġshow ed
Ġinvest ig
Ġhist or
c hen
is k
as ing
ĠC up
Ġwonder ful
ust om
Ġpl us
Ġmar riage
Ġcoll ege
Ġ Â
Ġdoub t
Ġes pecially
ĠS u
Ġv ot
ri g
Ġ ice
Ġg ives
Ġbo at
Ġtre es
ĠPr incess
l o
all ey
w r
Ġvers ion
Ġin it
Ġestab l
Ġwatch ing
S ure
Ġsh are
wh ich
ĠCour t
ive ly
ĠChrist ian
Ġmount ain
K E
Ġc up
Ġr ich
ra w
ter day
Ġr ail
Ġth irty
ri a
Ġch oice
Ġmod ern
ĠH all
Ġshould n
h ouse
us hed
ĠA lex
Ġare as
Ġl iter
am n
ĠRuss ian
in n
se y
Ġr ain
Do es
Ġep is
Ġt our
il s
Ġpur p
Ġs al
ĠJ ew
ĠE arth
ĠO kay
Ġdet erm
Ġex ec
Ġchar ge
Ġne ck
ĠC ong
ac ing
P er
ĠIt alian
ĠC ouncil
ĠS ov
Ġpr ay
Ġfun ction
ĠM ont
Ġno body
Ġcl osed
Ġdiffere nce
i que
rie f
eder al
s et
Ġatt ention
Ġimp ro
Ġre ach
Ġhelp ed
Ġsing er
S ir
act ion
led ge
Ġnear ly
Ġ20 00
az ing
Ġelect ed
l im
ĠSov iet
; &
ast ic
olog ical
Ġfell ow
Ġw at
Ġno se
S c
ar ies
Ġ19 0
Ġsudden ly
el ve
Ġsome where
ann el
Ġ200 4
Ġb ur
Ġspir it
Ġ200 5
ĠS ir
Ex cuse
Ġyou th
ele br
ĠColl ege
et te
ad ian
Ġsound s
anc y
ant ic
os ing
use um
Ġtem per
ĠJapan ese
Ġg as
Ġsp end
Ġhappen ing
Ġc ab
Ġright s
c ing
Ġs ens
Ġre du
ĠB ill
Ġavail able
U m
p ro
no on
Ġe mb
Ġtalk ed
ĠR ob
ord s
ur a
E L
os ition
ap ers
Ġbott om
ĠAustral ia
ĠLou is
ĠP et
Ġcan cer
/ &
Ġhig her
Ġtrain ing
Ġbirth day
i j
Ġc ow
ĠA ND
Ġl ying
ines e
ĠF rom
Ġsim ply
ĠS T
Ġ4 0
A m
ap t
u nder
at ors
Ġc y
Ġbr ain
Ġc ases
Ġh ors
Ġinterest ed
ĠP at
Ġman age
ĠTH AT
e es
k ing
u ke
h od
Ġdet ail
ans as
ĠM a
p en
Ġb es
Ġn or
Ġbel ow
Ġform ed
Ġearli er
Ġen v
ut s
vol ution
Ġf at
ond isse
ĠC he
Ġn ames
Ġmov ies
b on
it a
ĠS im
ist ed
ous ly
Ġdef e
Ġy ellow
Ġe ff
ĠAf rica
Ġcoff ee
cc ording
Ġt end
ch ie
Ġoffic er
Ġent ered
Ġspe ed
Ġmean ing
Ġdec ision
sh ire
Ġt ea
est s
ĠCap tain
as ion
ib ly
Ġopp ort
Ġcr ime
Ġadd ed
ĠFr anc
ic ago
ĠSc ott
Ġpr incess
Ġmess age
ess ion
Ġlove ly
Ġexpl ain
P eople
id ay
or ing
Ġsum mer
Ġst ates
Ġpo et
Ġcap t
est y
Ġcall ing
Ġs ize
Ġput ting
Ġend ed
k in
il ities
oo p
al i
Ġsu it
Ġmur der
ast e
ad emy
ĠR obert
ĠO ly
Ġdis e
Ġp ig
Ġfa ith
Ġha ll
ĠD istrict
Ġpr ice
Ġmult ip
h is
Ġext ra
Ġwe ap
Ġwere n
te red
Ġn omin
Ġby e
Ġch ief
ian a
Ġbrother s
Ġimmedi ately
ord er
Ġbro ken
Ġsp oke
Ġschool s
Ġh ous
ĠGr and
Ġdem and
Ġcamp aign
Ġk ick
T H
ific ation
ĠCar ol
Ġf it
Ġh ar
Ġ199 0
ph one
ĠCh ina
ut ch
Ġu r
ĠS um
Ġarri ved
Ġnorm al
Ġn one
uz z
Ġoff er
se qu
ĠA ct
ĠM il
Ġa ver
Ġc elebr
Ġestabl ished
Ġserv ices
ĠRepubl ic
Ġl ower
Ġgroup s
Ġst one
ight s
Ġwor se
t t
Ġr ide
Ġre view
Ġprodu ction
Ġlaw y
oss ible
ĠM ag
B C
in ter
Ġbe ll
ĠG old
D r
Ġs now
Ġcre ate
h old
Ġd en
ĠT ur
c raft
se mb
Ġfour th
ĠP ri
em s
Ġh un
ĠO f
W as
ĠE r
Ġte xt
Ġ18 6
at ory
id s
ĠJ er
Ġim m
Ġcare ful
D ad
Ġb i
en a
Ġwed ding
Ġsc ene
ott en
19 9
and y
Ġsk in
Ġmove ment
Ġs ite
ar ily
ĠM al
ĠV irgin
ĠI S
ĠIt aly
ĠAr my
Ġreg ular
Ġafter noon
st e
Ġfin ish
Ġstud io
Ġhe ro
ĠJ im
in i
Ġocc ur
Ġjo in
Ġd ata
Ġag ree
er c
Ġad minist
On ly
Ġu nd
Ġstart ing
ĠChrist mas
os h
Ġcont act
Ġde li
Ġwr iter
Ġchang es
pp ing
ĠR es
Ġnet work
t r
GH T
f ast
ap ed
anc ing
ĠHen ry
ra g
l or
ch an
Ġcast le
ĠOly mp
Ġwalk ed
Ġpartic ip
ar ling
Ġdevelop ed
li ament
Ġg arden
is f
Ġp ath
ĠI ll
Ġpie ces
om a
us ion
ov es
ab les
Ġp sych
y ond
M hm
Ġw it
Ġso ciety
Ġde b
Ġlike ly
Ġw a
ĠB ob
ub b
V ER
z a
Ġ Ã
Ġthe e
Ġwel come
im ate
F irst
app y
Ġe mer
ĠD O
Ġch ick
Ġp un
Ġreg ard
Ġl if
Ġp age
Ġb right
Ġdist ance
Ġ198 0
ol es
ic ro
le ment
Ġsp read
Ġtr uck
Ġthere fore
Ġ18 9
Ġlear ned
Ġpr incip
Ġra ised
Ġl ines
Ġsil ver
Ġh uge
Ġev ents
N A
Ġc red
Ġfe ed
ĠSm ith
Ġl og
Ġfa ult
i ant
y r
Ġfif ty
Ġm aid
raz il
Ġ200 2
Ġstre ng
Ġcom fort
ĠPro v
Ġc amer
Ġact ress
n ie
ĠCan adian
Ġterri ble
ĠG O
Ġcent er
h ab
u it
it ation
Ġstud ent
Ġsm ell
Ġh ide
ĠSp anish
Ġcorn er
F uck
S T
i ot
Ġyes terday
Ġsp l
inite ly
Ġco ach
Ġse vent
ĠTown ship
R O
Ġspec ific
Ġgo al
ĠD el
Ġcr ow
ĠR oyal
Ġint ell
us ing
Ġass ist
Ġc oun
Ġd er
Ġleg s
Ġimag ine
d own
on a
ĠCh inese
ĠS al
ip s
Ġh arm
Ġ200 3
our s
ĠKing dom
ĠCh icago
ĠSc ot
Ġre ve
Ġm oon
Ġd uck
Ġbe yond
ur b
ie l
ĠJ esus
Ġsign ed
Ġd ouble
Ġhors es
er ved
Ġsc ared
H el
g l
Ġbus y
Ġpos itive
ant a
Ġb ath
ĠD uring
ĠWh ite
Ġb oss
Ġre lease
Ġfem ale
Ġsold iers
à ¸
Ġe ating
ap h
Ġc ustom
Ġacc ess
le ar
ent al
Ġr ule
Ġch all
ver t
Ġsh oes
Ġr u
ĠCh arl
Ġm or
Ġr ate
Ġnews p
ĠDemocr atic
2 5
G u
Ġdisc overed
and a
od ay
ĠAc ademy
Ġp red
Ġ ess
Ġc overed
Ġcon vers
Ġpress ure
Ġmil k
Ġp ounds
Ġv ote
C he
Ã ¤
Ġt all
A d
Ã ¨
Ġ200 1
ok en
Ġwalk ing
Ġth y
Ġrem ained
ĠM ac
Ġac qu
Ġhon or
is ions
Ġpl aced
Ġcontin ue
ve y
ĠAf rican
Ġmag az
B ye
L e
y l
Ġst aff
Ġsong s
i ents
Ġf irm
Ġde but
P ut
Ġtw elve
Ġdep end
Ġs le
ac hing
ish op
Ġst ories
ain e
Ġsec urity
Ġadd ress
Ġfor ces
ĠB razil
ru pt
Ġlea ves
ĠChar les
kn own
A LL
Ġf ol
Ġ18 8
iron ment
Ġpolic y
Ġhe y
ĠA g
Ġpract ice
ĠC ath
Ġdeg ree
w ould
w est
ent h
ĠS un
ĠSec ret
Ġro se
A mer
Ġl oss
Ġmet hod
ĠB ro
idd en
l am
ĠIs land
I R
ve re
o om
en ny
Ġanim al
anc he
U N
Ġlead ing
ĠM at
Ġdr ama
ĠK ore
Ġiss ue
C ould
w in
as ant
Ġr out
Ġtr ick
Ġk it
-- --
Ġhold ing
Ġdescri bed
it an
el ess
h ib
Ġthrough out
Ġsqu are
Ġdanger ous
Ġbene f
gg ed
H istory
U R
ĠC om
Ġread ing
Ġfl owers
Ġrem ain
re es
Ġthe ory
Ġcent ral
Ġsk y
Ġgi ant
ĠF in
Ġnecess ary
ab or
Ġv an
Ġart ic
Ġhon est
ĠCong ress
ire ction
ĠB ur
Ġ197 0
v a
Ġtw ice
w are
ict or
ĠAr t
our ney
Ġatt ract
Ġc ru
Ġm ir
Ġar g
Ġrecord ed
Ġcompet ition
Ġ( ;
Ġdri ving
e ff
Ġ ought
P r
um ents
g a
Ġre pe
ĠSw ed
Ġdes p
Ġap art
h and
ad o
st airs
Ġsh own
Ġmin us
Ġbelie ved
Ġj ournal
Ġlik ed
Ġang ry
ĠMex ico
Ġb asket
ĠS at
ign ed
Ġsuccess ful
Ġt ar
Ġtr ade
it ar
ul f
Ġnot ice
ate g
ip e
Ġpo ck
ĠRich ard
Ġl aid
Ġph il
Ġt ro
Ġcomm unic
Ġr ank
Ġin tern
Ġmed ical
ĠGovern or
Ġindivid ual
c omm
p ir
Ġsw im
Ġaver age
E C
Ġcor rect
Ġb le
Ġbl ock
Ġ3 1
Ġ18 7
ol s
r at
Ġo il
Ġg ar
N ew
f ess
Ġb ound
Every thing
Ġpurp ose
Ġs and
Ġa chie
Ġs en
Ġproper ty
Ġcomp l
Ġlaw s
d a
al ed
Ġmach ine
ist an
Ġacc ording
stit ute
ĠM et
ĠF irst
Ġag reed
Ġob viously
ograp h
Ġcond ition
G ot
Ġfor ced
Ġcand id
E n
Ġsc reen
Ġb ab
K eep
m ark
u f
all ed
Ġre n
Ġsp ot
Ġmost ly
w ar
Ġp ush
Ġl oad
tain ed
d en
as y
Ġknow ledge
2 2
Ġf right
g en
Ġst orm
Ġr ange
pt y
G reat
Ġst yle
il ies
Ġm m
Ġc ode
om my
4 0
Ġ ut
ve ll
ee ch
Ġd ry
N ever
Ġfor th
Ġmed ia
Ġeas ily
Ġdam n
R em
Ġt ape
au g
is l
ĠP e
Ġgrad u
c ause
or a
ĠM ount
un es
ĠJ oe
Ġpr oud
Ġcar s
Ġbre ad
Ġord ered
Ġs ac
ar ry
Ġre b
Ġopen ing
Ġluck y
Ġam b
iz ing
he ll
Ġy a
ĠMart in
Ġvict im
ĠL at
Ġext reme
Ġl ink
ĠD es
Ġsp ring
Ġsl ight
Ġcall s
Ġ199 9
Ġmag n
Ġreport ed
C on
Ġqu al
Ġ196 0
as m
Ġart ist
Ġmiss ing
L Y
S ince
th ank
Ġh ole
as tern
.. ..
ĠJ ul
Ġhig hest
Ġf resh
Ġdise ase
od es
Ġco ast
Ġmiss ion
Ġappoint ed
H old
Ġbird s
Ġpr int
Ġun iversity
et ic
ĠM aj
ĠL aw
Ġth us
ut ive
ĠCent ral
Ġabs olutely
ĠH ill
ra el
Ġstud ied
Ġlawy er
Ġ ir
ĠR ec
Ġfight ing
Ġfre qu
Ġth rew
Ġhe at
ore s
Ġesc ape
Ġe ld
ĠS und
Ġfl ight
ĠL os
av ing
ri f
Ġst uck
19 8
Ġman ager
Somet hing
Ġop in
Ġplan e
ĠD ay
it iz
ĠR oad
S e
Ġc ant
Ġpat ient
Ġrul es
Ġno ise
Ġwe e
ri al
Ġj oy
Ġrun s
ĠH ol
reed om
Ġforg ot
z en
Ġthink s
ĠCh ief
ĠCon f
lect ed
Ġjud ge
Ġf inger
ĠW omen
ul ations
Ġinclud es
Ġevent ually
Ġdro pped
h ad
Ġd irection
Ġsystem s
Ġmed ic
Ġsat isf
Ġt aught
Ġide as
Ġmist ake
an o
Ġfor ty
Ġtrans l
Ġhung ry
ab b
Ġinter view
ic ious
Ġbr idge
Ġwe aring
Ġmur d
w ill
ĠS ing
ell e
l aw
E E
H uh
s aid
Ġj ourney
Ġch oose
Ġsurpr ise
Ġspeak ing
Ġg e
Ġgr ass
O H
Ġas leep
ol a
ru it
Ġlead ers
Ġtri p
Ġparticular ly
Ġex am
Ġprov ide
iet y
iver se
Ġconst it
itz er
A ct
ic ated
Ġpl ans
Ġun less
Ġold er
ĠAr ab
Ġp et
ĠS ar
Ġgreat est
Ġqu een
Ġlot s
Ġimp ossible
Ġsign ific
Ġresult s
ĠB ay
g n
Ġsur r
Ġprom ised
Ġpick ed
Ġc rew
uck y
Ġteam s
ĠL ee
Ġhas n
I nd
Ġsa ved
Th ose
r ish
s m
Al right
Ġen emy
ar row
b es
ĠG reen
W ow
Ġm a
Ġto ward
ge l
ig an
it ect
Ġwor ried
Ġpict ures
ondisse ment
ak ed
Ġ199 2
Ġent er
ĠFranc is
ĠS l
Ġcurrent ly
r s
os es
ag n
Ġany where
Ġsecond s
is hes
ast y
Ġte le
ul ous
ĠHe re
ĠC at
Ġ199 6
ot ion
Ġmention ed
Ġb omb
ĠAs sociation
ar ly
Ġbig ger
Ġev il
ash ion
gy pt
h ave
m es
Ġhe aven
Ġtell s
Ġstru gg
ar p
arr ing
Ġcrit ic
Ġopport unity
im a
cl aim
Ġexpect ed
m it
r ough
ĠS erv
Ġr isk
ĠL ittle
Ġb rief
Ġp an
ĠC ont
om s
ĠTh omas
um ber
Ġperform ed
Ġking dom
y an
ĠD id
oo ps
ĠF OR
Ġam azing
Ġadd ition
Ġve hic
le g
Ġpre vent
ĠJohn son
as hed
L A
i ro
Ġgu ard
0 1
Ġ ..
ch ange
Ġprov ince
ĠCath olic
ĠB est
est ival
Ġstreng th
Ġwe ight
Ġlangu ages
m s
ĠR ock
âĢ ĺ
Ġcompan ies
Ġwit ness
Ġc ere
Ġapp re
O D
art s
Ġpre m
Ġmem ory
p re
Ġche m
Ġ199 8
Ġbec omes
Ġtri al
Ġperform ance
Ġsus p
I GHT
ĠD ou
ĠBr own
semb ly
Ġleg al
Ġgold en
I F
Ġstruct ure
S ay
Ġsp oken
an cial
Ġcomple x
Ġpl at
M iss
s es
Ġro les
Ġbit ch
en ing
Ġrel ated
Ġgrow ing
Ġincre ase
ĠAnge les
is her
Ġb an
br ary
z z
Ġplan et
N OW
ro at
Ġd rew
Ġwe ird
Ġkit chen
Ġ eth
ow ed
ĠVirgin ia
ed s
ic ans
Ġbl ind
Ġn ation
Ġaw are
Ġdoc ument
ĠH A
OM E
Ġth ick
ub e
Ġlet ters
h ost
um my
Ġfore ign
Ġord ers
ĠH on
Ġstart s
ĠDep artment
Ġb oo
ad d
Ġwe ak
Ġlear ning
ino is
Ġs ides
ĠRepubl ican
Ġcon cept
wh ile
Ġorgan ization
l ig
Ġcr im
Ġcom edy
Ġgreat er
Ġh ill
ist ry
ĠGovern ment
Ġdoll ars
Ġas soci
Ġcomp let
Ġdesign ed
ĠFl or
Ġocc up
he y
Be fore
Ġbe g
Ġneg ative
ĠD utch
Th ree
ĠAustral ian
ad or
Ġiss ues
Ġple asure
Ġfill ed
ĠS and
Ġsu c
Ġpre c
ĠSecret ary
Ġs ch
Ġm ut
am ber
ĠW il
ag on
Ġact ing
Ġhead s
Ġret ired
Ġsmall er
v is
2 1
ig er
a ult
k rain
m ar
un n
Ġte ach
ĠâĢ Ķ
Ġ199 3
b an
Ġst ream
ĠSp ain
ĠGr oup
Ġdiv ided
Ġlik es
Ġwill ing
f ather
ir ing
ĠE mp
Ġbeh av
I ON
Ġne ither
igh s
Ġlar ger
L ea
ĠM er
ce nd
ĠP eople
P h
Ġl unch
st ood
ill a
Ġr ap
ar n
Ġin vent
Ġplay ers
2 4
ant ed
az z
Ġsp r
Ġbec oming
Ġp air
Ġsh ape
ĠB u
Ġcon duct
Ġbr own
Ġ199 4
Ġfam ilies
Ġdem on
Ġsus pect
Ġsuc ceed
Ġcap tain
Ġpull ed
k m
Ġad ult
Ġl oud
Ġch amp
Ġour selves
idd ing
Ġgener ally
a res
Ġhard ly
Ġbreak fast
ĠB et
ĠF ox
Ġtot ally
Ġenv ironment
od ies
qu es
H a
Ġan cient
ĠT wo
os ite
Ġoff ered
Ġsc ream
ĠD is
Ġlad ies
Ġfle w
Ġhur ry
Ġindust ry
ĠG et
Ġoffic ers
Ġcrow d
ĠC ast
ĠB oy
Ġl ock
Ġli es
Ġqu ality
19 7
ĠTr ans
Ġcond itions
r ick
y our
Ġse ction
ĠF red
Ġun cle
Ġtrans fer
g ie
Ġ199 5
Ġkill ing
ot ed
Ġturn s
Ġepis ode
k er
ĠI re
Ġv ac
ĠF ore
ĠC O
um an
ĠR os
Ġpower ful
ĠScot land
j a
ĠE gypt
ol ution
Ġslow ly
s ay
in et
en ge
Ġse qu
Ġnot e
Ġlisten ing
Ġhot el
' .
a ud
b re
Ġo pt
Ġsa f
Ġsur face
Ġ iron
Ġsing ing
Ġs illy
Ġb uck
ct ions
Ġn orthern
ĠO s
Ġpre vious
Ġdef initely
ĠIs rael
m other
ard on
Ġdis p
ĠPr ime
Ġcamer a
Ġturn ing
un ny
Ġser ve
h im
Ġ rom
ce an
Ġtar get
r id
u a
Ġsh out
Ġorigin ally
u an
ĠM ur
Ġem pty
Ġ199 1
Ġtechn ology
Ġneigh bor
N ice
im ately
Ġus es
Ġact ive
On ce
Ġcharac ters
US T
Ġb al
Ġreal ize
Ġhous es
u ries
ac hes
ĠD en
um n
Ġdec ide
Ġgentle men
Ġphys ical
he red
AN T
i h
Ġsp eech
ĠSt ud
Ġfav our
b ook
ic ide
ĠF ather
b oy
Ġr ough
ĠO ld
be red
Is n
Ġwe ather
Ġmin ister
r am
Ġpro ve
Ġdef end
Ġter rit
ste in
C K
Ġun it
ĠV ictor
fort un
Ġcult ure
Ġsour ce
Ġcomp lic
Ġfail ed
itzer land
ĠAt l
Ġown ed
i ation
ĠIll inois
f rom
at o
Ġc ities
erm an
Ġrem ark
Ġdirect ly
Ġme re
ol ar
Ġsp ell
Ġro of
Ġ199 7
Ġfl at
Ġstand ard
Ġfly ing
ĠO k
ar on
us ic
Ġbeaut y
Ġbas ically
ul ty
ĠL ove
Ġsm art
EN T
Ġnin et
T om
Ġw ine
ĠM el
ell a
2 3
Ġre asons
Ġcent re
Ġrepresent ed
ou ch
Ġb other
ad ed
ee k
Amer ican
" ?
I E
ĠA N
ang ed
Ġevery where
ĠProv ince
he art
Ġkind s
b el
Ġl ord
ĠJ ud
B et
Ġmagaz ine
ĠComp any
he ast
Ġc art
Ġc itiz
am il
Ġch ap
ĠZ eal
Ġquar ter
i os
ag ing
Ġcont ribut
Ġhand le
Ġform s
Ġrepl aced
Ne xt
F ine
Ġfeat ures
Ġbreat h
m ond
r ated
Ġwas te
Ġman aged
Ġmag ic
Ġrelig ious
c a
ĠL uc
Ġapp l
Ġmiss ed
o is
Ġdel ight
W E
ri er
ĠM ajor
ĠH i
the n
Ġapp lic
Ġwin ning
T e
ĠB ig
Ġro y
ar ia
Ġintrodu ced
b ur
Ġp il
ĠM ass
ĠSt an
Ġear s
Ġmed al
Ġconcer ned
Ġrespons ible
6 0
Ġm ale
Ġcom mer
ĠU krain
Ġhear ing
Ġt ight
Ġl ack
Ġprep ared
ĠZeal and
ĠW ood
ep ing
Ġinst it
ur ry
Ġme chan
C E
ri pt
Ġr are
Ġa h
al ing
Hel p
ĠFlor ida
ĠRuss ia
ĠCarol ina
ĠC H
ĠD iv
arent ly
ĠSen ate
os op
Ġkn ock
Ġcal m
w hen
Ġg ay
ĠSw itzerland
stit ution
j o
Ġon to
Ġsepar ate
ap a
Ġcry ing
Ab out
Rem ember
ri b
ro s
Ġaward ed
Ġpain t
el come
Ġass um
2 8
Ġd uty
Ġr ub
Ġtemper ature
fess or
us hing
Ġme asure
ĠL ook
Ġv o
ĠAr ch
Ġcr ack
ĠL ake
Ġpock et
2 7
or ter
Ġsy mb
O oh
ĠM om
ar io
ing ers
ĠK ansas
ian ce
No body
Ġtrans port
Ġt ask
res p
ick ed
uri ous
k o
cl ock
Ġsw ord
Ġprodu cer
Ġstay ed
Ġad op
Ġappre ci
ĠA pp
ab ad
ĠP ak
oc key
ĠR ay
ĠV al
How ever
en c
ĠH a
Ġcont ent
Ġdr unk
Ġsurpr ised
O ver
ĠGeor g
Per haps
ĠMaj esty
Ġd ying
Ġco at
Ġdet ect
Ġdecl ared
ap es
Ġsw ear
Ġl oves
ĠW ind
Ġact ual
Ġlea gue
Ġindepend ent
Ġs outhern
at re
oo f
ĠG irl
Ġst ret
ĠYOU R
Ġwall s
Ġc ouncil
Ġknow ing
Ġcop y
Ġdistribut ed
ĠIre land
ĠH ER
ĠJ oseph
Ġprofess or
Ġdra g
Ġter ror
ĠA h
Ġed itor
Ġmot or
Ġs ake
ly n
ĠT im
on ed
em ic
Ġf ederal
ic ate
ĠJ o
ut en
ĠS aint
enn is
M AN
R I
ĠW al
ĠEd ward
Ġopin ion
on se
st ant
Ġdri ver
Ġme l
Ġprim ary
ĠM aster
ĠThe ir
Ġarch itect
ĠT or
ĠF ilm
Ġbig gest
Ġpart ner
Ġexper ien
Ġdrug s
Ġbroad cast
Ġp it
Ġsp orts
O ther
en ced
per or
Ġprov ided
ĠJack son
M om
c ons
Ġm ate
ĠR ome
Ġf ought
Ġfin ancial
Ġclear ly
v in
M ake
g ain
Ä ģ
Ġd ressed
ĠB ank
ĠSu per
is a
Ġch annel
Ġsleep ing
D uring
Ġg all
Ġfind ing
Ġdog s
ĠCent er
Ġz ero
Ġcom ment
Ġprodu ce
t wo
ĠS il
St ay
Ġ198 9
Ġadv ant
Ġwh is
ur ance
Ġte eth
Ġbill ion
pl ace
ffic ient
Ġ ign
Ġhad n
Ġair craft
ron ic
j i
ĠC ons
ĠH el
Ġcont r
Ġbott le
ĠSund ay
Â ¶
Ġt aste
ĠG reek
ĠĠĠĠ ĠĠĠ
Act ually
ĠM Y
ian o
Ġyoung er
o ch
Ġsc ore
Ġrem ind
Ġfilm s
m i
Ġrelig ion
ow ing
C ause
R B
ur day
Ġshe ep
Ġc e
or ough
Ġj ack
Ġblood y
Ġfoc us
oo h
ter ing
qu ar
Ġpat tern
ĠH E
Ġjob s
Ġp apers
ĠW estern
Ġfore ver
Ġintell ig
E l
ĠCl ub
Ġposs ibly
Ġb ang
ess ed
ĠU K
Ġlight s
im um
ĠCh air
Ġb order
ing u
Ġdep art
Sh ut
Ġr at
Ġstru ck
Ġnot iced
w ing
ok ing
l ict
r ate
s ome
ou red
ick et
av al
Ġw ake
ĠG ames
IT H
ac hel
oo per
g or
ĠS up
Ġed ge
N G
O ut
Ġl osing
Ġroy al
Ġd are
C os
Ġim age
Ġ195 0
ĠRep resent
D amn
Ġm icro
ĠM any
ick y
Ġkeep ing
Ġvict ory
cell ent
C om
Ġp ound
ĠF ort
ĠJ ones
ĠĠĠĠ Ġ
Ġbu ried
ĠSum mer
ĠEmp ire
Ġeas ier
se ll
Ġcirc um
Ġegg s
Ġd ed
ur d
Ġinst r
ĠComm ittee
ĠR ad
itt y
Ġrecord s
ĠBrit ain
Ġteac hing
Ġrem em
Ġlaugh ing
Ġw et
a o
m hm
Ġan al
Ġplan ning
ĠCol onel
b ecause
Ġwin ter
Ġrequ est
c ol
Ġst ock
Ġra ise
Ġfix ed
... ?
Ġwhe el
Ġappear ance
h an
Ġrec ently
T oday
ĠN OT
Ġstep s
hem at
ĠG ar
Ġshow ing
cept ion
2 6
ar ian
Ġme at
ce l
Ġres our
Ġ198 8
ĠT w
w ater
Ġp urs
are t
Ġcoll ection
Ġrequ ired
Ġforg otten
op p
O k
ur se
os en
ad ow
ick s
ĠJan e
ĠPar liament
ly ing
Lea ve
ĠL ab
G e
re r
Ġdo ct
un ities
Ġpres ence
Ġsweet ie
w anna
Ġf al
Ġr ise
Ġpl ants
Ġqu ant
Ġg ate
Ġwor st
ĠSo ciety
Ġspl it
Ġsaf ety
Ġg ift
ĠO ff
ĠIn stitute
ĠCl int
Ġdiv ision
u als
ad s
ri ble
Ġgr own
n ces
Ġs ons
ke nd
ĠL and
Ġfall ing
Ġdream s
Ġa st
Ġmus ical
Ġtyp es
S m
Ġstud ies
Ġoper ation
Ġend s
Any way
I LL
Ġc ash
Ġd irty
Ġappear s
Ġnewsp aper
ĠM o
im p
Ġsm oke
Ġfavor ite
Ġdestroy ed
ĠSo cial
Ġelect ric
Ġarrest ed
k es
ond s
Ġconvers ation
Ġex erc
Ġres ist
ĠYou ng
Ġrece ive
ĠF air
Ġfail ure
e gr
Ġf ashion
ĠB a
du c
M ove
Ġp ure
Ġal t
Ġsc ar
Ġsm ile
Ġs li
ĠS outhern
ea u
Ġ198 7
Somet imes
r d
ĠR ight
Ġad vent
S E
ab eth
Ġsc ript
Ġaut om
wr iter
d es
h in
ĠE very
Ġinflu ence
O P
e z
i pped
Ġw estern
Ġthousand s
Ġche st
ĠCar l
M ore
s u
ĠG er
C ar
ich ael
ubl ic
Ġdam age
Ġshoot ing
Ġbr and
Ġant i
Ġcomplet ed
b ury
ĠA ng
Ġman ner
Ġocc asion
. ]
og ether
Ġauthor ity
d ad
Ġo dd
Ġd u
ĠM ost
E d
Ġ198 6
Wh ile
M ost
Ġme as
Ġopp osite
Ġvar i
T V
ĠP an
Ġfeel s
Ġmain ly
ĠMus lim
w hy
Ġbring ing
Ġmajor ity
Ġb odies
Ġexc use
C ap
C are
Ġj u
Ġpro gress
cl es
Ġmin or
Ġimpro ve
. âĢĻ
i ac
Ġbuild ings
Ġform ula
Ġgun s
R Y
Ġp leased
ĠComm ission
ut ions
Ġcl oud
Ġun its
Sh it
Ġeconom ic
ather ine
b a
Ġt iny
Ġf ingers
or ial
Ġh i
ĠM ill
ile y
Ġtem ple
U L
ĠW E
ish ment
Ġhell o
Every one
Ġfif th
Ġreal ity
Ġ6 0
Ġstat us
N O
p ret
Ġresp onse
ĠPl ay
OU LD
Ġc ro
il ty
Ġnin ety
e h
an ing
Ġl ect
ĠB ang
ĠB ecause
ell y
Ġus ual
Ġatt end
Sh ould
, '
Ġd iam
Ġwork ers
Ġrest aur
Ġcr own
f all
ow a
Ġab ility
Ġexp ress
Ġadv ice
i est
Ġdes ire
ĠAmer icans
Ġwat ched
hell o
ĠC am
Ġh ol
ĠM useum
ĠAr gent
Ġf reedom
Ġbut ter
Ġsign al
aug hed
ĠJ ac
Ġbr ide
vent ion
em an
Ġfl ag
Ġrem ains
ON E
An other
Ġt ong
Ġd om
ov ing
Ġbr anch
Every body
ĠWh ile
Ġin hab
ri ff
ĠT re
Ġhelp ing
Ġg ro
og er
Ġmet al
ov a
Ġinn oc
Ġb ast
Ġf ruit
ĠW AS
Ġappro ach
Ġtro ops
ĠH aw
ĠV er
_ ,
t ies
w ant
Th ink
19 6
ĠDo ctor
st ead
ĠJ eff
Ġbes ide
Ġmat ters
ĠJer sey
w ers
Ġres ident
ĠTH IS
Ġeffect s
uten ant
y ay
Ġ198 5
Ġrequ ire
at i
Ġ198 1
Ġloc ation
Ġpot ential
Ġbud get
3 5
a is
ĠH u
ond er
Ġ197 2
Ġconst ruction
Ġap artment
Ġf an
Ġwe alth
ĠF oot
Ġsp in
Ġ198 3
Ġmount ains
S am
st ances
ĠN orthern
Ġsc ored
ger y
im in
n am
oo s
Ġpre fer
Ġb oot
ab ama
Did n
A B
Ġt al
ĠS qu
Ġd ancing
ĠM ax
Ġas h
ous in
Ġstri ke
ll a
ĠC amp
ĠD irect
Ġro de
Ġninet een
A G
l oad
ĠD ar
Ch rist
Ġcarry ing
Ġto wer
T w
k ins
ĠS ur
olog ist
ĠW ales
Ġcost s
Ġeff ort
ĠL ady
Ġup set
Ġpri or
claim ed
ut ed
Ġcare fully
Ġcompet ed
ĠHA VE
Ġcell s
ĠM os
Ġfull y
Some one
Ġmot ion
H O
Ġh ast
et ch
p et
Ġnomin ated
C all
Ġf ant
Ġf ired
ĠT y
Ġfl o
C ol
Ġk idding
ĠF ar
Ġsc r
ro ke
Ġan x
Ġt im
ac he
ac her
Ġun ion
Ġnum er
ell ing
Ġgirl friend
ourn ament
Ġconnect ed
Ġh iding
Ġgr ab
Ġ18 5
Ġkeep s
Ġt ears
Ġaw ful
ĠS ea
Ġtreat ment
v est
Ġag re
Ġprogram s
Ġbas is
Ġenc our
Ġl aughed
ĠA wards
ĠO ther
ad ium
ĠS ince
por ary
ĠOlymp ics
m ay
Ġfig ures
Ġal tern
Ġapp le
Ġrel ative
ĠAn n
g ency
Ġh m
ĠM ore
ĠSt ep
Ġaccept ed
Ġaud ience
8 0
L ove
S B
Ġd arling
Ġstat ement
Ġtrad itional
he im
ĠK NOW
Ġres c
ys is
Ġh orn
ck s
we et
Ġsc hed
Ġsignific ant
in son
Ġf ro
ĠJ un
ĠK at
Ġrec omm
Ġphil osop
uf act
i ven
ou ri
ĠR aj
Ġpro ceed
ab out
ĠLi ber
on ia
Ġn ative
Ġinv ited
Ġl ic
ĠI m
ent ed
ul s
ven ue
ĠV alley
Ġa im
ac le
Ġfl ower
4 5
Ġpro of
or por
ĠI ran
ĠF er
Ġch osen
the m
ĠAl abama
J ack
Ġb are
un ched
Ġfeel ings
Ġent ertain
e er
Ġpl ain
Ġwee kend
s pect
Ġsa il
Ġpay ing
ĠCharl ie
Ġwe bs
Mr s
ĠPort ug
2 9
ĠH ot
sh ould
A pp
O L
ĠH ello
Ġsc rew
Ġuse ful
Ġhang ing
Ã ±
Ġm ob
y o
Ġw ave
Ġl ake
ul ated
Ã ¦
Ġat e
ict ed
Ġsupp ly
Ġexp and
y m
Ġs ales
Ġn uc
ĠH ans
ĠN E
Ġcons um
Ġ8 0
Ġincre ased
ĠJew ish
Ġo x
ĠK ent
Ġother wise
arr ondissement
ĠCol umb
oc al
Ġgu ilty
Ġrec ent
Ġj ail
ĠL u
Who a
Ġsold ier
B ack
w ide
Ġm ort
Ġe h
ke ep
ĠMich igan
om er
Ġre v
Ġ197 9
L a
Ġchang ing
Ġdrink ing
Ġdeterm ined
Ġt ied
Ġw ished
Ġli ber
ĠSt ar
Ġgovern or
le nd
Ġdeg rees
Ġcred it
Ġthought s
Ġf ile
Ġn erv
Ġch ain
Ġjust ice
Ġpre gn
A ccording
Ġfe ature
Ġstay ing
Ġet c
F l
be y
Ġmat ches
J esus
Ġm o
Ġunder stood
Ġfield s
ĠChampionship s
Ġt ough
Ġp ool
ab oo
ious ly
Ġ193 0
Ġsu gar
Ġim pl
ren ce
ik a
Ġcir cle
Ġstre ets
ubb les
W elcome
ĠI II
ast s
Ġgu itar
ĠAr k
Ġhigh ly
Ġbas ic
Ġb ite
ic y
Ġsu icide
ind a
Ġjo ke
Ġclos er
o very
ĠS us
il a
rop ri
Ġfif teen
rill iant
Ġsuff ered
Ġex hib
Ġsupport ed
Ġlab or
Ġcoun ter
ĠS ee
Ġu pper
pe cial
OU T
S er
Ġcon cent
Ġear n
ĠIs lam
do es
H mm
Ġm um
ch ar
ig g
c ont
ĠC le
Ġse es
Ġeas tern
C A
ir a
Ġaff ord
Ġcrim inal
Ġadvant age
g ive
Ġnot ed
ip l
c ar
Ġs in
ĠO ut
S te
ge ant
Ġv ent
ach us
ild ren
Ġchick en
Ġreal ized
Ġsell ing
O pen
erv ation
Ġweap ons
ĠA my
Ġele ment
ĠCon n
Ġf aster
Ġkn ife
Ġun iverse
ĠAs sembly
Ġinc ident
Ġentire ly
b ably
Ġdo ors
Ġag ent
Ġmultip le
z y
ĠL ike
ĠIn ter
Ġmanage ment
l ow
Ġsp ort
ili ar
is ation
Ġc ock
ord in
Ġdis play
rop ical
Ġtra vell
Ġdra wn
Ġpresident ial
M any
Ġexper iment
ĠServ ice
Ġm ax
ill ed
What ever
iz abeth
ĠLat in
ĠP ict
th ur
ĠG e
Ġpre viously
Ġdraw ing
Ġbud dy
Ġarr ange
am ing
ĠN et
Ġcle ver
Ġforg ive
ver se
Ġinst ance
Ġachie ve
D an
T ry
Ġp ink
Ġst arring
ĠM ike
Ġwr it
Ġ198 4
Ã¡ n
ĠA ccording
ĠR on
Ġav oid
Ġp urch
Ġg ang
os er
ĠDe v
Ġextreme ly
ĠSt r
Ġmix ed
3 7
w an
en es
al right
ĠT er
Ġcontin ues
Ġhy p
er k
se x
Ġ /
it ter
are n
Ġ197 3
Ġ9 0
Ġrecord ing
Ġleg isl
Ġsol ution
Ġship s
ĠI rish
ĠA T
ĠH an
ond ay
eg al
Ġc ake
Ġg ather
ĠG all
orn ey
rop ol
Ġhum ans
Ġplat form
Ġg rave
ell ed
ĠJ r
port s
ĠSat urday
Ġd yn
ĠS H
ĠB or
Ġref used
Ġmaid en
Ġhe l
St ill
Ġattack ed
Ġap olog
z o
ĠT ri
ĠW ay
E arly
ĠA S
ĠM ah
ĠH ave
ĠT ay
ĠF e
ĠPro fessor
Ġpart ies
Ġchamp ion
et ts
ĠC AN
Ġrem oved
Ġexp ression
Ġprop osed
ĠM other
Ġrap id
P aul
m o
ĠN ether
ang le
Ġafter wards
Ġdr um
Ġcol on
Ġfal se
Ġst ations
ĠM ic
ĠB av
ĠW all
Ġsh irt
ĠN at
Ġ197 6
Ġu lt
ĠL I
Ġcont est
Ġche ese
fortun ately
l ah
Ġp ill
Ġint egr
ĠMus ic
ĠKore a
4 7
en ger
Ġsh ake
ul ate
ĠK ong
Ġjo int
Ġweap on
z er
Ġn urs
Ġpl enty
Ġgu est
Ġ196 8
a wn
Ġm ap
ot i
Ġ197 8
Ġfall en
Ġdro ve
Ġscient ific
it ants
le ction
ĠL y
Ġwind ows
ĠK ar
the w
Ġcomm ission
Ġproduct s
B ill
Ġm ama
ĠR am
Ġbl ame
Ġinc red
" ).
in ces
ĠL ong
Ġsome how
Ġunderstand ing
Ġtou ched
Ġserious ly
Ġactiv ities
Ġb unch
Ġc hat
Ġd ial
er al
ĠFr iday
Ġcol our
ing ton
quar ters
E M
a fter
Ġsil ent
Ġsil ence
Ġlevel s
Ġfair ly
Ġcandid ate
Ġp owers
ĠA B
ĠR od
ĠE ll
Ġplan ned
g ly
u ous
Ġth in
ĠB ell
Ġfind s
for ce
ĠDiv ision
Ġw itch
Ġo w
ĠD ON
Ġatt ended
roll ed
ad ing
ĠB re
ĠR ail
Ġinvestig ation
Ġdetail s
ob al
Ġmat hemat
Ġ198 2
Ġ197 5
Ġconf lict
Ġdisapp eared
Ġp ra
Ġman ufact
Ġcont ains
ĠJ ean
ang ers
ĠSh ow
Ġpresent ed
Ġrespons ibility
ĠB ook
Ġnot es
D avid
s k
Ġh idden
ad el
Ġse vere
Ġab and
Ġh am
Ġl ion
Ġl atter
I L
U p
ĠK e
Ġ7 0
Ġclass es
Ġadminist r
ch ing
ĠW HAT
Ġappro x
Ġb rave
Ġst ated
ĠU nder
Ġb at
man n
stand ing
Ġ196 9
achus etts
ĠNether lands
G l
p art
th ony
Ġele ments
Ġf ate
Ġd omin
ol n
od d
ĠY ear
Ġcons ult
Ġprot ection
Ġsuggest ed
Ġperfect ly
Ġw id
Ġp upp
ĠH y
un te
ĠL ife
Ġch ose
-- "
Ġexc ited
S ec
ol ved
Ġold est
Ġpain ting
Ġconn ection
ĠSec ond
' ,
Ġp in
oc ol
Ġser ving
ĠOh io
Ġw ings
al so
ĠG al
Ġun f
ĠFor ce
ĠMiss ouri
o oth
Ġre ject
ĠW ITH
Ġun ivers
Ġcr is
R A
er ves
ack s
Ġla unched
Ġviol ence
Ġp eak
el a
Ġmon ster
Fr ank
het ic
Ġnerv ous
HE R
Ġ196 4
end er
ath an
lah oma
ge nd
we re
Ġpass ing
Ġgrow th
Ġhy d
Ġtong ue
Ġha bit
un s
ak a
ĠHe alth
Ġsle pt
Ġsh ame
Ġent r
Ġsub s
duc ation
Ġs amp
Ġc ute
ĠB attle
ĠDe f
Ġexp ensive
ask a
Ġca uses
ĠScott ish
Ġo k
am ily
Ġcl ient
Ġstand s
ĠAb out
Ġsee k
Ġcomfort able
ch ant
Ġch ampionship
iz es
Ġad vert
Ġdiv or
Ġlim ited
Ã³ n
Ġbab ies
H urry
ĠU p
Ġpolit ics
Ġtrad ition
Ġslight ly
Ġmedic ine
Ã §
Ġf ox
ĠB road
ĠHar ry
Ġrout e
. )
Ġor ange
sh all
Ġoper ations
Ġ0 1
Ġrecogn ize
Ġsett led
re al
Ġc ream
ĠA M
Ġsh arp
Ġid iot
Ġsen ior
H as
Ġa x
Ġear ned
Ġteacher s
ĠGeorg ia
ent ially
Ã© e
augh s
Ġre nt
Ġpass ion
i as
es ides
Ġn arrow
uck les
Ġ197 4
ir med
ĠT est
em ies
Ġgentle man
Ġvehic le
Ġl ocked
ĠC y
Ġsh r
ist ics
Ġch arm
Ġbl ess
ult ure
Ġele ven
Ġem ot
Ġsix ty
Ġhon our
Ġneigh bour
Ġdefe ated
w ick
ĠSup reme
b ec
Ġh omes
Ġsex ual
T A
as p
ĠP ac
Ġgr aph
ĠLouis iana
ac ter
ĠT imes
Ġsister s
D es
W HAT
Ġpo ison
3 9
ak h
Ġapp eal
Ġoffic ially
ĠOk lahoma
U nder
s it
ĠS P
Ġr acing
Ġup stairs
Ġex change
ep s
Ġbe ach
ĠH oly
ult an
Ġsur gery
Ġoccur red
e f
Ġc ards
Ġhapp iness
aw a
Ġown er
Ġeconom y
st one
ĠA k
ost on
Ġpart ners
ĠÂ ¶
Ġcitiz ens
Ġhe av
Ġ197 7
erv ative
ĠAust ria
Ġfair y
ĠPak istan
G eor
Al though
Ġdeli ver
Ġre volution
Ġfollow s
Ġ197 1
Ġbegin s
Ġtreat ed
b ow
p oint
Ġb att
Ġv ision
Ġ3 5
br idge
AC K
es sel
Ġl oose
Ġreport s
Ġcommer cial
W atch
m ommy
o ir
on ic
Ġm useum
Ġ( ,
cri pt
Ġelect ions
" ),
b ox
ĠI owa
Ġon line
ĠH arr
Ġli brary
Ġcons ist
Ġbre aking
e xt
Ġbe er
ĠC ivil
Ġgo als
Ġbl ank
w orth
Ġh om
Ġl at
un ning
Ġfam iliar
ĠAs ia
Ġ196 7
AR T
Ġequ ip
T urn
Ġh o
ĠMc C
Ġadm it
ĠFrancis co
3 8
c ase
Ġcon c
Ġmay or
Ġartic le
Ġterrit ory
3 6
ch a
ĠF our
nt il
ĠT ony
Ġthem e
ure au
Ġpr ime
Ġret ire
Ġwin ner
r ical
Å ¡
on ly
Ġc ousin
Ġse asons
Ġsa v
Ġcomm itted
Ġboy friend
Ġinc ome
Ġtra ffic
Ġsent ence
Ġvar iety
Ġfeat ured
in em
ph ant
Ġdisc over
L ast
ĠG i
Ġ194 0
Ġresp ond
Ġrid ic
ĠSwed en
in ent
ĠA RE
cl us
Ġart ists
t urn
Ã ´
Ġint ended
Look s
Ġpat ients
im al
anc hes
Ġset ting
Ġwond ering
Ġk il
ĠE ven
ĠU N
Ġ196 6
Ġcal cul
Ġl one
ĠW inter
ĠR ose
ĠF ound
Ġapp arently
Ġcreat ure
Ġchall enge
Ġremem bered
Ġm ental
or se
Ġg ained
ĠA li
ĠH ome
Ġr ac
av a
Ġshould er
Ġhands ome
Ġrefer red
Ġwa ited
M ad
Ġf aces
Ġh ook
ĠL ie
ĠN az
Ġsc ale
Ġsw itch
Ġair port
Ġinnoc ent
Ġd iss
Ġcons cious
ĠBl ue
Ġda ily
J an
Ġw olf
as er
ĠV en
Ġcomm ittee
ĠMass achusetts
ĠFoot ball
4 9
l ong
th an
Ġ- &
Ġhundred s
P S
P ol
Ġt ank
Ġw ise
ĠA ss
ĠT ime
ĠK im
Ġun known
Ġj un
Ġactiv ity
U M
b u
v y
ĠL ine
Ġ5 00
Ġest im
Ġrail way
Ġsh ock
Ġv irt
Ġincre asing
Ġclim ate
Ġbasket ball
Ġsac rif
Ġn ea
Ġat h
Ġsh ore
Ġhor rible
inc oln
ĠPol ish
Ġfright ened
Ġinhab itants
M ark
P eter
Ġb atter
or gan
ĠCh ris
Ġfl ood
gg ie
p o
w a
ie ce
ĠF estival
Ġtrans form
Ġorgan iz
Ġt ie
Ġp ushed
ad u
Ġroom s
por ation
g ian
Ġc ig
ul pt
Ġback ground
ĠAnd rew
Ġsign s
ĠWilliam s
E F
M a
p a
r ich
Ġy e
al m
... "
Ġsp lend
Ġche ap
ĠPri ze
e very
Ġb en
Ġre act
Ġpro ced
Ġbl ocks
Ġacc omp
Ġyoung est
Ġw and
ear ch
Ġtra il
4 8
B S
T O
ing ing
aught ers
AR D
ĠChair man
ĠG ET
ĠN orm
Ġcomm it
Ġste al
ĠRepresent atives
g ment
The ir
ĠH ind
ĠO x
Ġover all
Ġen s
Ġob lig
Ġserv ant
Ġsol ve
Ġestab lish
M ichael
W he
Ġt or
or f
b ly
ĠL ater
ie ve
Ġimport ance
Ġmain tain
ĠPol ice
S it
am in
Ġas pect
Ġso le
Ġmy st
age ment
Ġqu it
Ġtown s
Ġcant on
Ġresour ces
I A
Ġre ward
ov ie
ĠV ol
ĠAl an
Ġpregn ant
g ues
l ar
Ġl t
ĠD av
arr ass
ĠPhil ipp
Ġfr ame
Ġsuff ering
4 6
c us
Ġl in
Ġli ps
itt ie
Ġro ot
do or
c oh
Ġb orrow
iv ity
Ġbelie f
ĠS anta
Ġu gly
ĠB as
ail s
Ġf urn
Ġp ump
Ġst ole
ge on
Ġhop ing
7 0
ist or
ĠBav aria
C omm
b ased
ĠH al
Ġcomp ared
ĠTh ree
Ġstr ing
Ġclaim ed
ut ies
ust ed
Ġgo dd
ost er
ĠUn cle
Ġdes cend
Ġpri est
Ġbene ath
Ġexerc ise
Ġjournal ist
Ġn urse
Ġappreci ate
ĠB ea
ĠE astern
Ġsl ave
Ġob vious
f ive
ĠM iddle
Ġke ys
ph ia
Ġsub t
Ġem p
Ġorgan ized
Ġdisapp oint
Ġbull et
A gain
J ames
w he
om pl
Ġr ow
Ġequip ment
Ġcl ock
Ġperm an
T ime
Ġb rilliant
ĠM em
Ġshe ll
Ġmet ers
Ġexec utive
Ġw rest
on ze
Ġm ole
Ġin qu
ot o
Ġbut ton
Ġche er
ok es
Ġrul ed
Ġfol ks
ĠDis ney
p eek
Ġhe ight
ĠH ung
ven ge
oun ce
Ġassist ant
Ġrestaur ant
T oo
Ġgood ness
bur gh
m iss
ĠK en
Ġun us
t i
ĠC a
ĠP re
um a
Ġsp ect
Ġ4 5
ask ed
ES T
Ġcircum stances
or i
Ġwas h
ak i
L ife
ing ly
Ġch art
Ġsu ck
Ġpl ate
ĠNew s
ĠDirect or
c r
ĠM onday
Ġadd itional
Ġdem ocr
nes ota
out s
if orm
Ġv essel
Ġrel ax
ĠJust ice
Ġg host
un a
ĠL O
ĠE s
ag ue
ĠU P
ropol itan
o cc
Ġp ul
ĠT ra
Ġcon qu
Ġproper ly
Ġchall eng
ĠA sh
el f
ra ham
og ue
Ġun h
u er
ĠN avy
em ents
Ġsu p
Ġcour age
Ġland s
S im
l ife
ce ived
Ġimp act
ĠRec ords
i Ä
Ġp oll
ĠB on
ĠO l
Ġen emies
19 5
Ġgener ation
Ġexist ence
Ġburn ing
Ġrepe ated
ĠConf eder
ĠS on
Ġacc ompl
ĠAust rian
Ġeng aged
Ġrock s
Ġrecogn ized
Ġrom antic
P re
Ġshe l
ER S
Ġcapt ured
Ġgradu ated
ĠOff ice
c est
Ġm ail
Ġcont ain
Ġeat en
Ġval ues
Ġreview s
Ġassoci ated
gor ith
Ġbast ard
B en
ĠA ri
ĠT ake
Ġ196 3
ĠMin nesota
Ġbenef it
Ġw ound
Ġth roat
ĠM en
ch ief
ind er
Ġte en
Ġsett le
Ġscient ists
Ġdefe at
Ġb ra
Ġd im
ke l
ĠC orn
os a
eak ing
Ġins p
Ġlim it
Ġfort une
ĠH ea
ab a
nt ario
ĠBo ard
Ġneighbor hood
K ing
m et
p ass
Ġt ournament
om y
ĠB udd
Ġse lected
ĠU h
Ġ195 6
Ġdark ness
t ake
ĠS ub
ol en
Ġsh oe
Ġcons ists
Ġsol id
Ġwebs ite
adel phia
V ID
ĠO ffic
Ġtr uly
Ġco al
Ġsurv ive
Ġemb arrass
Ġagre ement
ĠM od
ĠB ad
Ġal arm
ĠV iet
is y
Ġun ique
Ġlist ed
Ġ196 5
B ig
Ġs ale
ĠD ak
ĠE v
Ġord inary
Ġnorm ally
ĠThank s
Ġb unny
Ġo we
ot ic
th ree
ĠF re
Ġthr own
ipp ing
and om
Ġapp ly
Ġkill er
Ġhold s
ar ant
Ġre ck
ĠT em
Ġgood s
ES S
Ġve get
Ġlab el
l ittle
Ġf uel
ĠI nt
ur ally
Ġcr ash
Ġball s
B el
C T
al o
own ed
Ġdistribut ion
B ring
C O
T HAT
m ag
er a
ed ing
ic ing
ĠB h
ĠW ater
Ġr iding
Ġch amber
ĠBr other
Ġsort s
Ġhun ting
s ur
Ã ¢
Ġd ude
ĠB ull
ust ration
ĠD et
Ġvot es
N E
b ird
u ce
Ġw ounded
Ġc ateg
Ġf ancy
Ġtr oub
Ġbr ings
Ġdel ay
eal ous
Ġobject s
' ?
c ow
ĠS ant
ĠMay or
Ġhistor ical
Ġeld er
ĠUkrain e
R ich
g le
am i
ĠD ick
ĠO UT
Ġinst ant
Ġsit u
ĠSte ve
is er
Ġd ust
Ġg al
ĠS her
Ġwith d
Ġpoet ry
Ġp ir
ĠN ight
Ġcon sequ
Ġsub sequ
ĠTr ump
Any thing
Ġobs erved
Ge ography
f le
Ġsc ulpt
ĠRe volution
Cap tain
F ather
Ġt ur
ĠB us
Ġpro ved
ag le
Ġadv ance
Ġbelong s
Ġeff orts
ac ity
ĠG re
os al
L ittle
Ġ196 2
Ġbed room
look ing
Ġprogram me
ĠA LL
Ġli qu
ĠL eg
Ġvol unte
F our
Ġg ain
our se
ab bit
ig r
Ġhelp s
app ing
ze ch
Ġinit ial
B oth
ĠB ern
Ġsp ending
Ġass ign
Ġconf irmed
ĠBer lin
Ġsymb ol
d is
Ġt ort
Ġla unch
b ar
Ġw ing
Ġas ide
ink ing
Ġv ia
gg ing
Ġfact ory
Ġsk i
go ing
ĠEl izabeth
S u
ĠP L
aly mp
Ġsend ing
Ġemer gency
Ġfol k
3 1
Ġl ift
Ġst able
Ġv ir
Ġbad ly
Ġann ual
ĠReg ion
resp ond
F in
Ġc ats
ĠAr ts
Ġclose ly
Ġconcer n
Ġchem ical
in ity
Ġb on
ĠB oston
Ġto ys
ĠS k
ĠC ub
ĠO b
Ġex cellent
st ra
Ġme al
ail ed
Ġsure ly
ĠPar alymp
Ġcrit ical
Ġinj ury
f ish
ĠD uke
Ġal gorith
aw s
Ġdes per
ollow ing
Ġjump ed
Ġarg ument
Ġmere ly
n ic
Ġall eg
ĠK enn
Ġgot ten
Ġrem aining
ret t
Ġexpl ained
Ġcomplic ated
I nt
M art
m osp
Ġall ows
Ġph r
ony m
ĠEn ter
Ġcru el
ropri ate
Y ep
d og
Ġf old
Ġg rey
al ities
ĠS a
ci ences
Ġpo em
Ġcoll ea
Ġprofess ion
B ar
ri ve
ĠM ir
Ġj ew
ound ing
Ġinst ruct
Ġcre ation
ĠD i
ĠR om
ĠO ver
Ġact ions
Ġac ad
Ġsy m
eng ers
Ġju ice
5 00
Ġp iss
ĠS ol
ro se
ĠB our
Ġatt itude
ograp her
ĠSwed ish
Ġsh ared
Ġex act
Ġdist inct
Ġfact s
Ġprison ers
Ġindivid uals
Ġaffect ed
Ġsucceed ed
enc ies
ĠColumb ia
O Y
Ch ar
ĠLab our
y ard
us al
st ers
Ġkn ocked
Ġr um
Ġbut t
ĠCon stitution
Ġcommon ly
Ġadop ted
R AT
r ont
Ġsix th
ĠOn ly
Ġeight y
Ġterri f
ay a
Ġal coh
Ġv alley
Ġans wers
Ġwood s
3 2
K ING
Ġbr anches
ne ver
ĠJim my
9 0
Ġd read
Ġy ard
Ġre form
em on
Ġlead s
Ġ195 9
ĠMex ican
Ġridic ulous
m ir
amb a
Ġexamp les
Ġdepend s
I G
R T
u ing
Ġnumer ous
F ive
ir it
ol k
Ġauthor ities
ĠTur k
Ġtele phone
ĠPac ific
M on
in als
Ġ195 7
Ġins urance
Some body
Care er
Ġmov es
app ed
Ġ195 4
Ġswim ming
E ng
Ġfall s
ades h
Ġbur st
ĠN ic
Ġconf erence
Ġexpl os
Ġanim ated
ev in
Ġdisapp ear
k now
on ent
Ġo cean
ĠV an
Ġfl u
Ġsoon er
Ġconstit ution
" ;
J im
f oot
Ġc as
Ġd ish
Ġd ump
ĠP in
ick ing
ult ural
Ġmon key
Ġdev ice
ri or
ĠG ree
ĠN O
ĠAl though
ĠPol and
3 4
O RE
ic ation
ĠB illy
Ġse ats
un ting
Ġsh ook
ĠR oll
ard o
Ġnight s
Ġchar ges
Ġintrodu ce
c omp
g ot
ĠAnt on
B A
F oot
w ich
Ġsh adow
Ġest ate
Ġconst ant
Ġattack s
Ġbase ball
ain ts
Ġ194 7
m ony
it able
Ġstrong er
Ġda wn
1 00
cri ption
Ġadv anced
Ġlect ure
v i
if ying
av ed
Ġ3 6
Ġlist ened
Ġdev il
Ġstrugg le
Ġlone ly
B oy
Ã ª
Ġt ear
om i
Ġwh ist
ro vers
ĠHe ad
Ġun able
Ġdr am
Ġmark ed
Ġanal ysis
S O
Ġsc he
Ġreg ions
ok ed
Ġimp ress
Ġsoft ware
Ġintellig ence
p her
at hered
Ġp iano
om ach
ĠPr ot
Ġpri ze
Ġsuff er
Ġbath room
ĠDak ota
m at
Ġd aughters
ĠB oth
Ġbit s
ĠAl f
Ġnear by
Ġbehav ior
a a
a us
Ġto w
ĠF C
Ġmusic ian
Ġfig ured
Ġcult ural
ĠAlex ander
l ers
n ote
Ġkn ees
ĠN ations
Ġpl ot
the ir
Ġstr anger
Ġwar ning
hm m
Ġsour ces
Ġnuc lear
r ad
ĠN ick
ons ense
ĠBe fore
Ġsqu ared
Ġconst ruct
Ġdemon str
Ġinstr ument
, âĢĻ
C ong
J ul
Ġb ones
Ġl ung
Ġn ort
Ġat mosp
ĠW he
Ġtr ained
Ġprot est
Ġiss ued
Br other
Ġpil ot
9 9
p ol
Ġg rav
ĠW end
ĠL ight
ĠFound ation
# #
à ¤
Ġth rill
ĠF ederal
Ġ196 1
Ġepis odes
ĠGold en
H en
Ġc ert
Ġl it
im ents
ĠM u
ĠD or
ĠO ntario
cl ass
Ġ195 2
Ġhor ror
Ġadminist ration
ĠBro ok
r as
Ġdes erve
Ġesc aped
enn es
Ġdescri be
cons cious
G eneral
m outh
Ġs out
Ġl amp
ĠH ong
Ġcon gress
Ġsome what
Ġhead ed
Ġdec or
Sh all
an z
Ġhouse hold
Ġ194 5
Ġappl ied
Ġto y
ive red
Ġchair man
Ġliter ature
Ġcris is
R es
k h
ĠJ UST
Ġbr onze
ĠAnd y
ĠJohn ny
Ġcreat ing
ĠAt t
Ġpain ted
ĠHon or
m n
ru ce
Ġfriend ly
ĠPhil adelphia
ĠJew s
U CK
Ġst airs
Ġst olen
Ex actly
Ġreve aled
Ġdoct ors
a ire
Ġass ume
IS T
Ġtre asure
A ye
os is
Ġdef in
dd ie
Ġ194 2
Ġstra w
P at
f our
w ald
Ġa id
Ġs alt
Ġp i
Ġp itch
ĠC zech
Ġhead quarters
Ġmark s
ĠSer ies
) :
v ia
Ġp ension
th ose
pe red
Ġill ness
l NG
Ġs ang
om ed
ĠS ure
Ġfound er
Ġreg ret
ier ce
ĠBar b
Ġcop ies
ĠIndian a
Ġquiet ly
Ġprep are
Ġapprox imately
I P
e el
ĠA ny
ĠT urn
Ġwhen ever
A nt
W ork
l ad
Ġm ood
ob e
Ġple asant
Ġperm ission
R obert
it age
Ġn est
Ġan cest
ĠH olly
com ing
Ġtrack s
A lex
W ELL
Ġh ug
ar o
Ġclim b
ĠAir port
ĠPict ures
it ors
Ġd ies
ĠS cience
ĠA lp
ĠP en
Ġdes k
IN D
Ġalong side
p ite
Ġ7 5
cher s
U D
ate ful
Ġfl ow
Al so
Ġdesp ite
Ġbal ance
3 3
H L
M usic
he w
ĠB ra
Ġj ealous
Ġr andom
ĠE st
cl usion
sh it
Ġsupp l
Ġ195 8
Ġ194 8
Ġoper ating
ĠH am
ĠIn tern
Ġdef ense
cer tain
Ġcoll abor
Ġexper t
ipp i
Ġvol ume
re ts
Ġw ore
it o
ĠH ospital
Ġar med
Ġref erence
AP TER
I V
Ġf art
Ġp ants
Ġst ones
A KE
m ont
o z
Ġp ages
Ġlea f
ĠBr idge
Ġinterest s
EA H
Ġang le
Ġphot ograph
Ġcere mony
f it
Ġc urious
Ġ193 9
ĠAtl antic
Ġapplic ation
Ġw icked
an es
Ġto ols
ĠC ensus
Ġbu g
ĠOx ford
ĠD NA
Ġpro sec
Ġset s
ĠAn thony
j an
ĠW alk
est ic
el ine
Ġbu ying
Ġengine er
orpor ated
Å į
Ġst im
ĠP rem
ap ore
It s
Ġex claimed
ag s
ang ing
Ġour s
Ġinj ured
7 5
A p
S C
i y
w ait
Ġde ck
Ġde leg
Ġcomp osed
ĠBr ad
ĠAr thur
Ġmet res
ĠDon ald
Ġcop s
Ġcommunic ation
ch io
ĠT op
We re
Ġserv ants
Ġindust rial
Ġm ouse
Ġh ired
Ġd ipl
Ġn ut
ĠW ANT
um ph
ĠCl ass
Ġcol ors
Ġ195 5
Ġphot o
Bl ack
c ould
ing ham
Ġno ble
Ġbr ush
Ġcap able
Ġheart s
Ġaff air
Ġmir ror
Ġb ord
Ġb ump
ĠS C
ĠW ork
Ġr ot
Ġste el
Ġview s
war f
a way
Ġas sociation
Ġtr ains
Ġle gend
E h
b i
ĠV ice
Ġexpl an
udd en
Ġident ity
Ġmaterial s
Ġindepend ence
4 4
b urn
i ri
Ġa unt
Ġy ards
al ty
Ġre ar
Ġst omach
ĠT ok
ĠP op
ul ed
Ġact s
Ġcr ap
ĠRe ally
ĠCol or
Ġfootball er
U s
re ck
Ġr ings
Ġr hy
Ġmill ions
Ġded icated
b ell
Ġp ity
ut ation
ĠR a
res ents
Ġph ase
Ġ" "
Ġr ug
ab s
ere nt
Ġgu arant
Ġed ition
Ġappear ances
Ġvictim s
ĠVictor ia
Ġunus ual
T alk
se ction
Ġr ice
um es
Ġsp o
oy d
Ġdist ingu
Ġkid na
Ġ194 4
t ell
Ġf il
Ġh ills
Ġre action
ĠB al
ĠJ os
ott ed
Ġvis ual
ĠCo ast
Ġcy cl
M other
ĠB BC
Ġmod els
rog en
B I
P ar
b ach
it ure
Ġwe b
ĠS ong
Ġse ized
Ġ19 20
Ġdeep ly
Ġdi agn
B esides
H oney
ĠL incoln
ak ers
Ġthr one
Ġown ers
Ġele v
ĠW at
un ts
ĠO per
eder ation
ray ed
Ġadministr ative
B ob
ĠB all
Ġr ising
Ġsp are
Ġim ages
Ġfe ather
Ġ3 2
ĠMar ia
Ġfact or
Ġext ended
Ġsevent y
ĠSar ah
S w
Ġf iction
ĠB rian
ĠR h
ub ble
Ġproject s
n i
s omet
Ġd umb
Ġbe ating
Ġbe gged
Ġcon ver
Ġgr ant
Ġdec isions
Ġconf idence
Ġreturn ing
Ġ193 4
Ġill ust
Ġeffect ive
Ġa wards
ri x
ĠW as
ere r
Ġco vers
Ġend ing
Ġdeal ing
bs olutely
Ġdiffic ulty
Ġsubject s
ĠSim on
Ġmurd ered
d r
Ġer a
Ġsim pl
Ġcut ting
ĠÂ £
Ġrecomm end
c ut
p es
Ġt one
Ġcon clud
velop ment
Ġcrit ics
ĠHER E
ĠRad io
dad dy
Ġb one
ĠS n
ĠM oh
De ath
ĠEm peror
Ġlo an
Ġl over
Ġre ign
ĠA ff
Ġhard er
Ġstar red
Will iam
c os
i at
s en
et ime
Ġse lect
Ġcont rovers
Ġcar bon
Ġconcer t
ĠD a
ĠL ew
ĠSt ation
Ġche ek
Ġ194 1
Ġw ire
urs day
D ear
S ix
n at
Ġl oyal
ĠW ed
ĠF all
int o
Ġrep ly
G E
b al
ark s
Ġchar ged
Geor ge
R OM
c alled
d ney
l ast
un ist
ĠD ave
Ġtalk s
Ġpoint ed
Ġass ault
Ġposs ibility
Ġcor respond
Ġexc iting
ĠSand ers
Ġm ile
Ġgr anted
ild ing
Ġpret end
Ġdistrict s
Ġengine ering
Ġpun ishment
Ġadvent ure
Ġsplend id
iÄ ĩ
Ġsche me
. _
B E
C ont
p ool
Ġg athered
ch air
Ġdo zen
ĠIn c
Ġsupp er
Ġbit ter
b et
it led
Ġc ou
Ġp a
st ance
op en
ak s
Ġacc ur
p ress
ĠE arl
ĠMar g
Ġinter f
Ġcol umn
Ġbusiness man
ĠLe on
Ġaff airs
E O
E m
in er
Ġk ittie
Ġan gel
Ġwho a
Ġgrand father
ĠCast le
ĠTay lor
n old
s ong
op her
ĠW ait
Ġv ast
ĠIs lands
ĠTe am
ĠArk ansas
W ant
h h
er able
Ġst roke
Ġsp ite
ass ador
az e
Ġposs ess
Ġvis ited
With out
Ġsurr ounded
C or
Ġc ave
ĠDad dy
ĠJac ob
ĠC ard
ĠAd am
Ġbank s
ĠMor gan
Ġresc ue
4 3
es ome
as ters
ut t
st an
ĠE ducation
ĠV ar
Ġun s
Ġun iform
Ġcont em
u able
Ġdo ggie
ere nces
Ġsec ure
T S
w atch
re te
Ġw ishes
Ġb ike
ĠS O
os l
ord on
Ġdes ert
Ġsk ills
Ġtick et
Ġredu ced
5 5
ĠS ultan
ĠP ublic
Ġsm ooth
Ġacc used
Ġfriend ship
ĠDan iel
Ġinsp ired
Ġs oup
Ġh ockey
Ġn ick
ĠS ay
ĠA v
Ġst ress
ĠC ab
ĠJ on
Ġv ice
Ġsl aves
Ġinter rupt
Ġprov ides
P erson
f ound
Ã £
ĠCh annel
Ġburn ed
ĠStep hen
f ly
Ġf ra
Ġn aked
id ae
ĠG OT
ĠOr der
who a
ĠNot hing
Ġinit ially
rat ulations
Ġp ed
Ġre vol
ber ry
Ġgr ade
Ġlet ting
Ġcr icket
Ġcount ies
ĠAB OUT
Ġ 00
Ġs orrow
ot te
Ġun like
Ġmass ive
Ġpers u
c u
c ount
f ire
Ġc rop
ĠM id
ĠH as
ĠW in
ang es
Ġshould ers
Ġac id
Ġfun eral
Ġinter pret
ĠCent re
Ġthrow ing
ĠSing apore
. [
r ine
Ġp uzz
ut her
ĠV erm
pl es
Ġdra ft
Ġinit i
ĠNet work
Ġ â
ĠM aine
ast ed
ord inary
Ġcr imes
az ed
Ġwide ly
Ġmethod s
Ġsch olar
ĠCO VID
at hy
Ġbes ides
i ber
Ġw aves
Ġp ale
and o
ĠG reg
ĠU t
Ġtr unk
Ġsw all
Ġpass age
ĠSen ator
Pro bably
Ġdeb t
ĠWil son
D O
U GH
b aby
Ġro pe
og a
ĠAs ian
Ġdri ven
A F
E s
w estern
ed ia
ĠR us
ĠN ever
ens ity
Ġ3 00
IN K
Ġalbum s
Ġkiss ed
Ġthe atre
Ġf o
al ia
Ġk ings
ĠL l
ĠE ve
end ment
Ġreg ist
Ġtri es
Ġshort ly
Ġcab in
A ha
S on
Ġthe rap
oo re
ĠJ am
Ġar ts
per ial
Ġchild hood
Ġcent uries
Ġtre m
rican e
Ġdrag on
ĠWend y
Ġa ston
ĠS U
ĠP art
th a
ĠL ead
ĠR oss
ack ed
ud dy
Ġpr ide
Ġrel ief
Ġconf used
Ġless on
Ġcheck ed
ĠTe chn
ĠLI KE
u i
ĠB ol
ĠP ope
Ġsit es
Ġ193 8
Ġroad s
ĠPl an
ĠGu ard
ĠBrazil ian
Ġorganiz ations
H ar
b ro
b ra
c are
Ġst ir
ĠL es
ĠR oy
St and
Ġgl obal
For get
Ġins pect
Ġcross ed
Ġshop ping
S ch
ĠP ot
Ġmy ster
Ġsu fficient
ĠE p
Ġperson ally
ism s
Ġsecret ary
b us
e qu
l ock
ĠC ross
ĠR IGHT
ĠMiss iss
Ġsn ake
Ġgod s
Ġspirit ual
h as
Ġn arr
ĠS om
ĠW ard
Ġcomp ar
Ġfl ows
ĠSp ring
Ġprison er
Ġartic les
ĠB ase
Ġr ic
oc chio
ont o
Ġclaim s
Ġt ip
ra it
hing s
te enth
Ġstud ying
ret ty
Ġrepl ace
Ġliter ally
Ġf ishing
ĠH ou
and al
ĠD og
ipp er
Ġnecess arily
ĠKore an
Ġhol iday
m ade
m ission
Ġw oke
ea ble
og ne
Ġreg ional
Ġsy mp
Ġcap acity
Ġref lect
Ġneg oti
Che ck
6 6
D P
ic it
Ġan ger
ĠB ible
io let
Ġmind s
ĠTom my
Ġentr ance
Ġwhe els
Ġag ric
Ġext ent
Ġ194 9
ĠSy stem
ĠCor poration
Ġalcoh ol
E ach
w oman
Ġm ent
ter y
if ts
ĠW y
Ġshe et
ens es
Ġpre cious
tain ment
Ġ193 5
Ġast ron
t ical
y gen
Ġan aly
ĠT our
ĠInd ones
Ġp hen
Ġbe ings
ug g
Ġsur re
Sh ow
Ġident ified
ĠSte ven
A ren
P resident
Ġofficial s
ĠMos cow
Ġit ems
st ar
st al
ĠP ost
Ġint ention
anc er
hes s
C omp
S l
U ntil
Ġf ake
Ġr is
Ġopp osed
Ġsol o
Ġannoun ce
Ġphilosop hy
Ġf asc
Ġf etch
ir k
Ġapp ropriate
Ġmess ages
Dad dy
Ġeld est
Ġs ought
Ġto ile
Ġnot able
ĠP lease
ĠR ober
Ġpos itions
Ġaw ake
Ġmem ories
Ġdoc uments
asm us
ĠConn ect
en cer
ust ing
ag ain
Mm m
ĠHigh way
Ġsatisf ied
Ġvo ices
Ġacad emic
Ġ ing
Ġb ubbles
en ess
ĠA L
Ġr abbit
ĠN ob
ard ens
hed ral
Ġput s
Ġrel ations
Ġ195 3
Ġ193 1
Ġsweet heart
aur a
Ġcomb ined
Ġleaders hip
w en
Ġt orn
Ġt unn
Ġd ates
Ġal ph
Ġshow er
Ġele phant
Ġgrand mother
Ġcook ing
Ġmid night
Ġbow l
Ġsequ ence
Ġatmosp here
B UT
E P
ĠB os
ĠD un
ĠG ro
ĠR en
ag a
Ġcl in
Ġmom ents
Ġperson ality
ament al
CH APTER
Ġenjoy ed
R ed
n el
at ures
Ġc raw
Ġn uts
up on
Ġ195 1
Ġarr anged
Ġtend er
Ġprincip al
Ġtransfer red
ocol ate
ĠHea ven
ĠColor ado
k ind
Ġask s
Ġpar liament
ĠStan ley
R ob
Ġt ropical
ĠS ix
ĠV ill
Ġrepresent ing
R ep
r im
Ġag ency
ues day
cul es
ĠClint on
S P
o a
Ã «
Ġgu ests
Ġ18 0
Ġrep resents
angu age
Ġhealth y
4 2
G R
t Ã©
Ġgr ay
Ġgr ace
Ã¼ r
Ġspr ang
Ġmyst ery
d am
k ed
p ent
ĠB ureau
iv a
ord an
Ġdisc overy
Ġill egal
ĠNor way
ĠI an
ch ild
Ġse mi
Ġstop s
Ġconf irm
ĠCar ter
Ġpick ing
Ġsqu ad
Gr and
gl as
ĠHol mes
Ġprem ie
Ġretire ment
at ically
Ġl ap
Ġv i
Ġcamp us
ĠPark er
Ġparticip ated
9 8
in ced
Ġs an
Ġj ury
Ġrem ove
HE N
Ġri vers
Ġheav ily
pher d
on ents
Ġre in
ant ry
Ġhigh way
Ġopp osition
Ġvide os
Foot note
9 5
S H
W ar
d i
e ven
ut er
ĠS pecial
ĠD am
Ġup d
ĠCh ap
Ġfun ctions
Ġ194 6
Ġocc as
M ust
Ġto ol
Ġe ager
ĠR o
ĠO pen
Ġviol ent
A H
b ie
w ow
Ġf ans
Ġfor b
ant ing
ack ing
Ġcon ce
ĠK al
Ġnow here
St ar
Ġappoint ment
Ġpers ons
Ġsym pt
Ã£ o
M c
R un
h ard
Ġin put
ay an
ld er
and s
ĠG il
ĠG ive
Ġcomp oser
Ġgreat ly
Ġ193 6
Ġdiscuss ion
peek aboo
ĠViet nam
m usic
Ġc ooper
ĠH amp
Ġdep th
Ġamong st
Ġprincip le
Ġacqu ired
Ġperman ent
V D
h us
Ġb ul
Ġf ond
ĠA le
her ry
ĠB ishop
ĠW ild
ĠK y
ET H
Ġdig ital
Ġfrequ ently
ĠFair y
Ġincred ible
A RE
g reat
i i
Ġb om
Ġm ath
ot ing
ro ck
ĠK er
Ġrec on
Ġcomm ander
Ġlast ed
Ġimp ression
ik h
Ġdiv ide
Ġwood en
Ġadm itted
u ct
it ched
ĠT ell
th m
Ġad apt
Ġcont ext
Ġcomm unities
pe ople
Ġsw ing
Ġpar ish
Ġphr ase
s l
Ä ±
Ġ Ð
Ġs ust
Ġp ow
ic ut
ol as
nes day
7 8
u y
ad ies
ĠR oger
ĠU s
ĠV ery
Ġcar riage
ĠAl so
Ġhur ts
Ġtest ing
Ġt ap
er ted
ĠA ut
ĠB ow
Ġform al
B i
l on
Ġo ption
Ġd un
Ġth ir
Ġact ed
Ġdis g
Ġev olution
Ġrese ar
Ġconv inced
Ġaltern ative
ĠOffic er
S ub
d le
Ġb ishop
Ġr aces
ĠR EA
ĠR yan
Ġmy th
ĠE ach
Ġpr ote
Ġsur vey
Ġbre ast
ues e
Ġoper ated
Ġgen us
Ġcoun sel
Bet ter
is p
Ġb old
ĠSt one
ik i
Ġfoc used
J o
le ts
ĠS now
ĠA mb
Ġpre par
ĠUn ivers
Ġclub s
Qu ick
ĠBet ty
T en
ĠS omet
Ġsh ift
ib ilities
sc ar
Ġtechn ical
Ġvers ions
ĠC ur
ĠW el
ĠO ur
Ġsp ons
Ġar row
Ġpr ices
Ġmar gin
Ġstr ict
Ġsecond ary
Ġdeath s
Ġland ing
ĠBe ach
Ġactiv ist
Ġsepar ated
amil ton
Ġa irl
Ġb ond
ac les
ĠP res
ie v
Ġ4 00
wh oops
Ġla ura
Ġmer chant
Ġmor al
h um
u v
z ona
ĠI ce
ĠI ra
ĠU r
ĠSt and
Ġgu ide
II I
Tr ans
Ġestim ated
ĠDav is
R el
ĠM ot
ĠH ay
ol i
ĠR em
ab et
ag ger
ĠAn other
ung le
Ġthreat ened
ĠArgent ina
Ġkil omet
% .
Ġwant ing
Do ctor
Ġent ry
Ġglass es
Ġunh appy
Ġalgorith m
Ġb ark
Ġst ab
ĠE nd
ag ers
Ġind ic
Ġca using
Ġinvol ve
Ġgen ius
ĠSer geant
Ġcustom ers
ĠMat thew
keep er
Ġath let
N AR
h ol
m ovie
Ġd ea
Ġbe ast
id en
ĠH IM
ĠW ars
ĠF itz
Ġso il
Ġob tained
Ch arl
mm a
Ġtyp ical
Ġoccup ied
Ġscar ce
ĠParalymp ics
A w
H appy
W est
Ġl amb
ĠF ire
Ġann oy
Ġpull ing
n et
Ġb ass
Ġf ulf
iz z
gg y
Ġpass es
Ġ193 7
umb ling
Ġide al
Ġphen omen
g reg
Ġs ke
we ight
Ġres ign
Ġdel icious
Ġsum m
Ġdipl om
ow nt
st ate
th rough
ĠD ur
St ep
ĠRes earch
L RB
se ct
if er
hat t
uck er
ĠSec urity
ĠTok yo
B ad
K ill
R RB
b age
gh an
Ġatt ached
Ġmer ged
Ġexist ing
Ġnewsp apers
ĠMississ ippi
Ġd uties
Ġn erve
ĠH ard
Ġpl astic
Ġcont rolled
Ġpass engers
Ġ193 3
Ġeight een
wh ite
Ġste pped
ĠOlymp ic
Ġexperien ced
Ġt iss
ĠW OR
Ġr ush
qu is
Ġwor n
Ġgr ateful
ĠAn ne
ĠInd epend
Ġsurv ived
j e
an ny
es ar
ĠC all
ĠC amer
les h
Ġmus cle
Ġdef ined
Ġintern al
Ġw ra
ĠBar ry
Ġnorth west
Ġpolic ies
Ġbeg un
S I
Y et
id ency
Ġse ated
ĠL A
Ġso ci
ĠY e
pect ed
Good bye
Ġlif ted
A bsolutely
r un
Ġre venge
ĠB aby
ant e
ĠF ield
Ġfl ash
Ġexpect ing
isc ons
ĠDou bs
Ġin ner
Ġn ations
ĠF el
ect ed
Ġwhere ver
hen s
Ġsy n
Ġcompet e
Ġintell ect
ĠIntern et
8 8
F ind
um s
ĠL o
ra k
oll ey
cc a
Ġcr ay
ĠGr ant
H ang
l ie
ship s
sc ape
Ġdescri ption
RAT OR
Ġexplan ation
ĠVerm ont
g un
l ause
p ur
um in
Ġgu ards
Ġkind a
Ġob st
Ġform ation
Ġ15 0
Ġcor por
Ġpur ple
ĠSy dney
Ġmax imum
A ugust
re ll
Ġkn ee
ĠSt op
Ġworld wide
O b
Ġto es
ĠJ oh
ry ing
Ġdown stairs
Ġen orm
oun ced
Ġdel ivered
p op
Ġt a
he astern
it als
Ġus eless
ect ive
Ġcl oth
Ġser ves
Ġri b
ĠAd ams
ĠON E
Ġrapid ly
iscons in
P et
w orld
Ġs ed
Ġo oh
Ġp our
ĠS orry
ĠP o
ul es
ĠN ep
Ġdes cent
Ġconf ident
Ġsevent h
Ġinvent ed
Ġaband oned
Ġgal ax
o ge
ĠB ul
Ġr aid
Ġad just
ĠTh ursday
amm ad
Ġbag s
Ġvot ed
S al
Ġo bey
or ation
se a
ĠA D
rom ise
Ġal ien
az a
ĠDe ath
Ġ194 3
Ġroll ed
Ġbenef its
udden ly
4 1
Ġ vel
ck now
ort on
riend s
Ġdec re
Ġproper ties
Ġredu ce
ac on
Ġse ctor
Ġr ushed
Ġpo ly
iam i
ann els
Ġdrink s
ean while
Ġcook ie
Ġwat ers
Ġess entially
Ġdelight ed
ĠLie utenant
ĠEnter tainment
ĠConnect icut
le ton
all el
ĠD ie
the less
Ġrec over
ph as
Ġcons id
IT T
Ġabs olute
Ġbreat hing
Ġstret ched
Ġash amed
J ean
Ġis ol
oc ated
ens ions
pe ed
Ġhead ing
Ġpen alty
ennes see
n on
p ush
ir ts
ĠH uman
Ġcl own
Ġer ror
ĠMay be
ĠMad onna
Ġinstit ution
_ .
Ġw ins
er g
Ġb id
Ġf estival
ĠB urn
ĠAl bert
Ġcreat ures
Ġsli pped
9 6
b ig
or ious
ĠM ain
ĠH istory
Ġgo in
Ġprof it
Ġ192 6
Ġemploy ed
ĠMary land
Ġur ban
Ġnick n
C C
L ong
ĠT a
ier re
Ġrep utation
Ġsix teen
Ġins ult
ĠSw iss
Ġval uable
Ġregard ed
Ġbare ly
usal em
S aint
o ons
r ison
Ġa ired
Ġgo sh
Ġkn ight
ĠG en
Ġco ordin
HE RE
Ġsl ip
Ġlarge ly
Ġfle et
Ġrob ber
Ġprec ise
Ġanx ious
B re
Å Ĥ
ĠC reek
Ġwho ever
ne ath
be fore
Ġatt orney
r ot
w ind
ĠF ord
Ġab use
Ġtr ace
ĠIn f
Ġtit les
Ġarri ve
B aby
s ix
w all
or ge
ĠC L
ĠT ennessee
Ġex ha
ia h
D own
L ou
m aster
Ġf aced
ro v
ell ite
um ble
Ġsa ving
Ġref use
Ġexp ed
Ġclass ic
Ġresist ance
Ġboot s
H on
Ġp or
ĠB art
ĠN iger
up s
Ġel imin
Ġimp lement
Ġste am
Ġtyp ically
S uch
d ale
Ġthe ater
Ġp ardon
am an
ĠS av
Ġas sh
ĠW isconsin
Ġcom ed
ud ge
ag u
be en
Ġsk ill
Ġ192 7
Ġvol can
Ġlat est
Ġh id
Ġp ushing
ĠC ON
Ġr ural
Ġequ ation
Ġrece iving
Ġport ion
Ġprim arily
Ġvehic les
E AR
Ġc raft
Ġf rag
ut or
ir y
ke ys
ĠD own
og an
âĻ «
Ġsupport ing
Ġtest s
Ġinvest ment
Ġnat urally
Ġscream ing
Ġox ygen
m ill
o ard
Ġth read
Ġp ip
ĠS ab
Ġdisc ip
As k
che stra
AS T
Ġ192 9
Ġfool ish
Ġrail road
comm unes
i ar
Ġin her
Ġn onsense
ĠC are
ĠT amil
Ġoff ers
Ġpr on
li ver
Ġsl ide
Ġequ als
Ġtick ets
Ġdeb ate
ĠBudd h
L ist
er ick
Ġh oles
Ġl ately
ri p
Ġj ur
el son
Ġtr ap
Ġinv asion
ĠInd ians
uss y
Ġ193 2
Ġhop ed
Ġsoft ly
Ġfund s
Rich ard
7 6
ut iful
ĠS EE
Ġst amp
ĠF orm
ort ed
oc ese
Ġmight y
Ġident ify
ĠConf erence
ĠPrem ier
C ut
d in
d iv
re ally
un ter
ĠD omin
ĠThe atre
ĠO cean
Ġpro port
Ġfact ors
Ġz one
Ġcomb ination
FF FF
Ġspecific ally
Ġreck on
S ar
le te
ĠM ove
ol o
are well
Ġapp les
ever al
Ġ192 8
anche ster
ĠBour g
Ġdefin ition
M A
Ġd ating
us ter
Ġus er
ĠK night
Ġoff ering
Ġsc enes
Ġ4 8
Ġeduc ational
Ġclos ing
Ġfund ing
Ġtax es
Ġble w
Ġsurr ounding
ĠHolly wood
Ġ Å
ĠN ap
Ġsearch ing
Ġfant astic
ĠPortug uese
P oor
Ġw ounds
Ġb ade
Ġg reet
ĠS em
ĠP oint
ĠN ar
ian e
Ġqu ack
Ġfour teen
ĠOn ce
Ġadm ir
Ġattempt ed
Ġextra ordinary
ĠWal ter
N one
ad i
ĠR el
ĠF il
Ġdis aster
ix on
Ġcur ve
Ġoper a
Ġh ut
Ġto ast
ĠH or
ĠG oo
ĠK az
ĠCh ile
int s
Ġbo ats
Ġwar ned
Ġfuck in
Ġstrong ly
Ġbreat he
bour ne
Ġcapt ure
Ġaccomp an
Ã º
Ġc ore
Ġf ed
ĠT en
Ġli ed
em ploy
Ġv ain
ertain ly
ĠTHE RE
Ġprov iding
Fr ance
Ġben ch
ĠAri zona
NAR RATOR
F ire
Y EAH
Ġs na
Ġre aching
ĠM oore
ab el
Ġcom ic
ĠE lect
ĠK evin
Ġact ors
Ġpres ents
ĠFr ances
Ġwond ered
ĠCent ury
ĠQue ens
Ġrecogn ition
Ġphot os
ĠMed ia
Ġmach ines
ĠMet ropolitan
Ġmicro phone
ĠIra q
g irl
p at
Ġth irst
Ġg a
Ġsm iling
Ġstand ards
ĠSp irit
Ġfar mer
Ġsacrif ice
H Y
M S
t own
Ġin ch
ĠD ID
ĠMar ie
Ġev ident
rodu ction
Ġbeat en
Ġroll ing
? âĢĻ
h ar
p an
Ġs ession
ĠI V
ĠH art
ĠO tt
the se
Ġdep os
Ġtri be
Ġdevelop ing
ĠTur key
iven ess
ĠGree ce
L O
M in
S S
Ġb rig
ĠW olf
ist ol
ĠL ind
Ġcl ick
Ġfe ver
Ġdirect ions
Ġref ers
Ġrest rict
ON G
Ġprom oted
ĠAll en
inc ent
Ġcomb at
Ġcab inet
Com tÃ©
Ġdom estic
Ġh unt
Ġp ipe
al u
ĠA z
ĠF ederation
ĠCl ark
Ġjo ining
Ġfrog s
ĠPal est
Ġinj uries
Ġcelebr ate
Ġbehav i
C arl
Ġst adium
ĠC ir
ag ne
IN E
Ġinst antly
Ġposs ession
ĠCont in
Ġrelative ly
ot es
Ġis lands
all as
ĠB C
Ġse lection
Ġj oseph
Ġdist ant
for mer
Ġsett lement
ĠHarr is
Hen ry
D C
Ġa cknow
Ġch oo
og y
Ġconduct ed
Ġwhis pered
Ġresident s
H y
i ques
t w
Ġc oc
Ġc inem
Ġsh ining
br aska
tern al
cient ists
Ġphys ics
ĠCor ps
Ġmob ile
ĠBourg ogne
G irl
H ad
K S
v or
ĠB and
ab led
Ġres igned
Ġfl ed
ĠCl are
Ġwar n
Ġdam aged
uel a
Fr anche
ĠMil an
Ġru ined
Tom orrow
may be
Ġentertain ment
Cong ratulations
Ġtoile t
7 7
f a
Ġt ennis
Ġr ates
Ġro ots
Ġmin imum
Ġstr ings
Ġass ass
Ġprom inent
Ġfac ilities
ondisse ments
Su per
G ET
O ld
Ġb acter
Ġre jo
Ġdec ent
Ġass ess
eg a
Ġpract ical
Ġstore s
Ġconstit u
Ġbrief ly
Ġassum ed
Ġexperien ces
I ll
ac c
ĠB R
os aur
Ġcar pet
Ġstr ateg
US E
Ġwrit ers
: $
Ġt ub
al ie
th row
ĠF ame
ĠN ord
Ġcour ts
Ġass igned
ivers ary
Ġprodu cing
Ġem phas
AP P
Ġdeterm ine
Ġpray er
ĠMount ain
bre ak
ĠTor onto
ĠJun ior
Ġth orough
Ġg ear
ĠH oll
Ġv on
Ġcle ared
Ġreason able
che ll
augh ing
d ah
t oo
ĠC op
and ra
ĠJ ess
Ġex clus
ĠK n
ud es
ĠSt aff
ru ck
20 17
Ġent itled
Ġimp ressed
Ġland ed
Ġconst antly
Ġconsider able
8 5
8 6
ou st
or ters
ĠC art
ĠH ell
ĠJ oy
ĠE ric
Ġcont ained
Ġke en
Ġsm iled
ĠAnd re
ik o
ograp hic
ĠLi brary
rib ute
ĠPhilipp ines
olley ball
p ack
r in
Ġm ask
Ġf aint
em et
Ġfound ation
ĠDe velopment
ai ries
ĠTr ust
Ġaw esome
Ġperform ing
Ġvill ages
Ġtit led
Ġtail or
Ġarchitect ure
, --
Ġb ent
ur ation
ig s
ate gy
Ġgr ows
Ġstop ping
Ġmove ments
Ġabs or
Ġfac ing
Ġscient ist
Does n
IF A
ĠHou ston
S ur
at us
ĠI F
Ġsh ield
ĠG ot
ĠF ive
Ġout ta
ĠTH INK
Ġfavour ite
Ġemot ional
ĠTem ple
Mart in
ĠLew is
z i
is ible
Ġh its
es se
ĠA y
ĠT uesday
ĠJ ordan
Ġch annels
so ft
Ġdr ank
Ġinst inct
Ġfr anch
Ġ8 6
Ġexp ressed
Ġdoll ar
ĠAff airs
A ah
ĠM un
ĠM att
Ġse al
ĠF le
Ġop ens
St art
Ġob tain
ĠMin istry
ounc ill
Ġclim bed
Ġnomin ation
ll y
Ġn a
Ġrec overed
Ġstr ategy
Ġbo om
Ġprop osal
Ġarri val
Ġaccount s
ĠKh an
Ġregard ing
ĠIslam ic
F L
Ġb ay
Ġd oo
ĠI D
ad ows
ĠA th
ĠA hm
ea re
ĠN ev
ood y
Ġsc are
ĠDe an
ĠSh ah
Ġallow ing
Ġabs ence
Ġcomput ers
Ġlic ense
P P
Ġf lesh
Ġint ent
Ġer r
Ġbel t
ĠFore st
Ġshout ed
Ġsamp le
Ġski ing
r um
ĠO t
ĠK ay
So on
Ġmon arch
Ġsub urb
ÃŃ a
ĠĠĠĠĠĠĠĠĠĠĠĠĠĠĠĠ ĠĠĠĠĠĠĠĠ
Ġcollect ed
Ph il
Ġrough ly
ĠWed nesday
e enth
Ġh al
Ġpl ug
pect ive
ĠEng ine
Ġrequ ires
Ġmunicip alities
ĠMill er
spect or
Ġshel ter
Ġdesper ate
Person al
ĠM oon
pl ane
AT E
Ġins ane
ĠWind ows
" ...
F OR
Ġb ubble
Ġc ott
ot y
ĠS ports
ĠP ower
Ġj e
Ġab road
Ġmeet ings
Ġappro ved
ĠNe braska
ĠPat rick
Ġrepe at
C o
D S
Ġm ud
ĠM ember
ĠR oc
Ġsp oon
ag g
iv ia
Ġ3 3
Ġbox es
Ġdemand ed
Ġfart her
Ġbe ars
ĠH amilton
ĠW es
Ġband s
Ġexist ed
Ġfac ility
Ġemploy ees
Ġmeas ures
d s
il st
ĠG ame
int end
Ġrem ote
IC E
Tw enty
ownt own
Ġd ick
Ġne p
ĠF amily
ink s
ian g
ĠAr m
pr ise
Ġinform ed
Ġspir its
r ons
u ght
Ġb ot
ĠH orn
ĠH ug
Ġex ists
ount ain
Ġdis miss
Ġsm oking
Ġbelie ves
less ly
Ġins pir
ĠPortug al
ĠAnton io
Ġthe ore
Ġc attle
Ġd warf
ac ement
ĠW alt
Ġv en
Ġpre f
Ġres olution
Ġcour ses
Ġmar ch
Ġstat ue
Ġmount ed
Ġtechn ique
ĠDep uty
ĠBel g
ĠB ack
ĠP a
Ġcon ven
Ġbr id
Ġsing les
ĠCon stant
Ġmer cy
Pl ay
Ġpred ict
Ġintern et
Ġsac red
Ġfrequ ency
ĠFore ign
Ġtal ent
f irst
as ps
Ġbe nd
ch o
ĠB an
ĠP ra
ĠL ang
ĠCh uck
olog ists
Ġprotect ed
c ried
Ġt une
Ġm al
ce ler
ĠT ol
Ġch ances
Ġch ocolate
Ġpe asant
Ġsl ope
Ġocc urs
ĠTe levision
ival ent
Ġcompan ion
Ġachie ved
ĠAN Y
Ġproced ure
Ġenorm ous
) ;
G O
h u
o ices
Ġp up
ĠN ich
Ġus ers
ee z
Ġ6 5
Ġcond em
Ġder iv
Ġjack et
Ġvir us
Ġinstruct ions
0 5
F ort
R ay
j un
w alk
Ġf ierce
Ġn ic
ĠS ciences
ĠM anchester
ĠH aut
ĠB ruce
Ġne at
Ġch op
ĠSp r
Ġformer ly
Ġ192 2
Ġlim its
Ġren amed
Ġeth an
Ġvac ation
* *
L ord
b ian
Ġto oth
ĠA st
ĠF ern
iff erent
Ġreturn s
Ġprob ability
At t
ĠUkrain ian
N ational
p lease
Ġt ale
Ġw reck
ed ge
Ġl yr
ĠT ower
ol ves
ĠF IFA
Ġag es
ank s
ob ile
Ġut ter
" !
c od
p erson
r Ã©
on i
Ġc able
ĠA venue
ĠB i
ĠP un
Ġunder neath
gin es
Ġdiffere nces
Ġem peror
Ġbeh alf
Ġoffic es
ĠComm and
ĠComm ander
Ġoper ate
Ġrepresent ative
Ġfund amental
Ġbell y
Ġru in
Ġdocument ary
Ġmyster ious
Ġsympt oms
Ġd iet
ĠC OM
ĠSt adium
St r
Ġchar ity
Ġet ern
Ġcollea gues
Ġsout heast
B ea
Ġthe at
re c
Ġw o
Ġf ab
Ġit em
id el
ut ter
ĠS el
ĠS ky
ĠA R
ĠC ape
ĠM m
ĠH istor
ĠB alt
Ġhand ed
Ġdist ract
Ġext ensive
Ġpresent ly
Ġphys ician
Ġdetect ive
ĠSqu are
Ġsched ule
Ġdivor ce
] .
u its
Ġ {
Ġw ard
Ġh ip
ve t
ot hes
Ġbe ard
ĠM iami
ur ches
Ġcon clusion
ĠSt ock
Ġri val
Un less
ĠJer usalem
ĠLaw rence
ĠLiber al
Ġapolog ize
EF A
T im
ĠD C
Ġout put
ost a
Ġar gue
Ġevery day
Ġ8 5
Ġinter act
Ġswe at
cent ury
Ġearli est
Ġimmedi ate
O w
T ING
r ome
Ġd at
ate ur
Ar t
Sec ond
r ound
Ġ }
Ġl ob
ic ia
am ma
ĠS A
ĠA aron
ĠC ru
Ġsee king
Ġun ex
eg as
Ġadd ing
Ġexpl ore
Ġhistor ic
Ġkick ed
En ough
achel or
S il
V al
c at
z es
Ġt ent
ĠH ur
Ġunder ground
ett le
Ġcommand ed
Ġess ential
Ġadult s
M or
h ill
Ġc ure
an ed
Ġl oving
Ġn ap
ĠA dd
ide o
ĠSt ory
ĠHow ard
Ġprogram ming
ien na
Ġvari able
Ġcloud s
Ġliqu id
Ġnort heast
Ġnep hew
L ater
S an
r ade
r idge
ĠM olly
You ng
ĠK elly
ĠCh amp
ov ak
Ġlong est
Ġbel oved
St ud
Ġem br
Ġcur tain
lev ant
Ġresult ed
ĠOr gan
Ġmagn ific
ĠTurk ish
Ġw is
Ġm ic
am my
ess ions
ĠE ddie
Ġ3 7
uss ian
Ġrecord er
Ġless ons
Re ady
Ġvis ible
Ġliter ary
Ġthir teen
D el
W AY
w ord
ĠS ax
ĠS upp
ĠD VD
ĠN a
ĠN AS
Ġnew ly
An n
ĠFrank lin
ĠRob inson
R ec
R oger
ĠM AN
ĠT ed
op er
ĠW ould
ul ance
od ge
aw son
Ġmed ium
ĠEr asmus
6 5
in clud
it ical
Ġh ated
ĠB ush
th ink
ĠG U
ĠN ik
Ġ3 8
Ġform at
umb led
ĠBob by
ĠEgypt ian
ĠLuc y
Ġdiam ond
Ġoblig ed
! !
C r
L aughter
S outh
as hes
ĠH old
Ġso ap
os ure
Ġint end
end ar
ans ion
Ġwr ites
Al ways
Ġtem porary
Ġmist akes
Ġmis erable
IM E
J ac
m ake
Â °
ou g
ĠB at
Ġr ude
ĠE le
Ġdon key
ib i
Ġdep uty
Ġhum or
ĠMor ris
Ġreject ed
Char les
n ew
an ne
Ġp ear
st ream
Ġ8 8
ĠTHE Y
Ġbusiness es
iver pool
Ġpar am
ĠHar vey
C oll
b les
d ist
m aid
Ġh oly
Ġtw in
Ġwork er
Ġfe ast
form ation
Ġtem pt
Ġ192 5
Ġrespect ively
ĠDan ny
ĠDen mark
Ġinstit utions
Fin ally
A K
m ail
m itted
Ġh osp
ĠS ah
ĠP ad
ĠSt at
Ġgood bye
ĠComm on
Ġhistor ian
P retty
m aking
ĠL in
Ġv ul
oc a
Ġpre ced
Ġret reat
ĠWar ner
Ġforest s
emet ery
Ġst ages
ĠC roat
ĠH ockey
ĠT it
ĠP ass
Ġj am
Ġch a
Ġch ase
Ġsp y
Ġco inc
Ġwind s
Ġequ ally
Ġelect rical
Ġconcer ns
Ġmanufact ure
H ell
M Y
M en
Ġa er
re pre
nd a
Ġb ore
Ġb oring
ay er
im b
ri um
ĠG h
Ġext end
ĠGerm ans
Ġ192 4
Ġgradu ate
P art
s an
Ġs ack
ĠS id
ĠG ene
Ġout er
Ġv oc
akes p
ĠGr ace
Ġbreak s
---- ----
ĠHaw ai
Ġscr atch
" :
B ER
U RE
ĠA unt
Ġu na
pp ers
Ġtw ist
uck s
Ġdis ag
Ġent ering
Ġca res
Ġcop per
ĠMed ical
Ġopport unities
ĠDou glas
Ġham mer
D is
M um
S n
Ġc ord
Ġd ign
th od
Ġr age
ĠJ osh
os ity
ĠE X
Ġdist ur
Ġsw ift
Ġtri but
ĠBe at
Ġpark ing
Ġpurp oses
Ġmir acle
Ġstim ul
u j
in cial
Ġd well
ĠP ant
ĠF ree
ab ilities
ĠJ uan
ig hed
Ġen gines
Ġbu zz
Ġ9 5
Ġtre mb
Ġeduc ated
ĠPet e
ĠRober ts
U H
ĠS andy
ĠR et
Ġag ents
Ġcl ar
ere my
Ġfe e
Ġmist ress
Ġinflu enced
Ġunivers ities
Ġsuppl ies
Ġtrem end
repre ne
he ld
in ction
Ġs its
om ic
ĠB ye
ĠP ers
ore n
ĠF BI
ĠO ak
Ġpo ems
Ġpol o
Ġmon itor
Ġring ing
Ġbelong ed
ĠBelg ium
C R
W r
Ġw ow
ur ther
ĠG ab
ĠMar s
ĠAl ber
AT ION
Ġearth qu
Ġjump ing
Ġmad am
ĠMed ic
ĠNep al
Ġc am
ic ip
ter m
Ġne ut
ĠL isa
ie ur
ĠJ ason
ig en
qu et
ang a
iz a
Ġdis char
Ġcount ing
Ġsuccess fully
ĠCr own
OS E
p ower
re f
er ving
Ġre le
ĠP ut
ĠG ra
ĠL ib
per t
Ġfl av
Ġdri ll
Ġeight h
Ġcheck ing
Ġvisit ors
Ġstruct ures
Ġtunn el
M arch
Ã ¸
on z
Ġgo lf
ĠL yn
Th omas
Ġle ather
ru ption
Ġhor iz
Ġclass ical
Ġdev ices
Ġexcept ion
Ġblow ing
ĠPe ace
Ġpupp y
Ġscarce ly
hatt an
akesp eare
D ude
J oseph
L SB
S ounds
Ġg oose
ĠP itt
Ġj azz
Ġinc hes
Ġspeak s
ĠAd minist
Ex cept
Ġfro zen
ĠMarg aret
9 7
J uly
p resent
ac o
op y
ĠR iley
Ġsa iled
ag en
ĠU EFA
Th ough
Ġbu ff
OU ND
rop hy
OW N
Ġmot iv
Pl us
Ġpaint ings
ĠHel en
Ġhorn s
Ġtiss ue
L uc
R SB
s uch
or age
Ġth ief
et ers
Ġwas hed
ĠM P
ĠB Y
ain ted
Ġsh aring
Ġj ungle
ĠG a
Ġv ocal
Ġpe as
ĠBe ck
Ġappro ached
Ġfre ak
ĠNor we
Ġlif etime
Ġload ed
Ġinstr uments
Ġcateg ory
Ġsubsequ ently
Ġfranch ise
B a
J oe
on ing
ĠT el
ul u
ĠG R
ĠL ower
ĠR io
Ġyour selves
ig ation
Ġ3 4
gg er
Ġ192 3
Ġcelebr ated
Ġcomplic ations
; /
I m
l an
es c
Ġth umb
Ġg ap
am ar
ĠH it
ĠH ills
Ġse ar
ĠK a
ip er
Ġfl our
Ch ief
Ġhur ried
ĠPar ish
work s
De f
Ġcy cle
Ġarg ued
ĠBang l
Bill board
l aughs
m ates
Ġf airies
Ġto ss
ĠB uzz
Ġpro s
Ġint ense
Ġper f
Ġbu nd
Ġche w
Ġdep ending
ĠSp ace
Ġmod e
Ġtop ic
Ġmag ician
ruct ure
ÃŃ n
ĠUS A
Ġcover ing
Ġterri bly
ĠLou ise
ĠMad rid
Ġbull shit
Ġcandid ates
Ġpartners hip
Ġbatter y
Ġfurn iture
C le
S weet
Ġf iles
Ġe ase
ĠR aw
el ia
Ġsp ark
ons ieur
Ġent hus
Ġcons ent
Ġexp osed
Ġprom ote
Wh ite
Ġdeli ber
ĠAg ain
ĠCons ervative
ĠArgent ine
Ġenthus i
D a
P ardon
g ate
Ġo l
Ġy o
Ġg ates
ro oge
ĠC D
all ing
ol t
Ġv ow
ree ze
Ġins ist
Ġann iversary
Ġsat ellite
Ġclot hing
Ġfeat uring
ĠPal ace
Ġassh ole
Ġin du
ĠW HO
ig a
OU R
rap h
Ġsound ed
fect ure
Ġsuper ior
IC K
ĠFin land
Ġconsid ering
B rit
D R
L adies
or ia
ĠP y
ĠL en
Ġcon vention
ag an
Ġunder t
be ing
Ġsec rets
Ġdec ades
Ġ8 7
Ġinf l
cri bed
ĠPro ject
ĠHigh ness
Ġbuck s
U E
h al
j amin
Ġc od
or us
Ġd irt
al ph
ot hy
Ġst iff
ĠC hat
Ġme ets
ĠR ey
iz za
the l
Ġsc ary
Ġsc rap
omp son
co ver
Ġworth y
ĠChristian ity
Ġchap ter
Ġaccompan ied
H A
P ull
S y
T hings
in burgh
at oes
Ġc age
Ġgo at
ĠL anc
Ġcon vent
ove l
ug s
Ġprom pt
Ġhung er
Ġbur nt
Ġpig s
Ġprincip les
Ġoccasion ally
ĠMuslim s
Ġult imately
Ġwid ow
ĠConfeder ate
N ER
n ik
s ub
Ġhe sit
us hes
Ġst aring
ĠD allas
Ġsh ots
ĠE conom
Ġem otion
ene z
Ġfell ows
Ġfaith ful
Ġassist ance
C ons
i ency
as ures
st op
ĠB rig
ĠZ e
Ġpain ter
Ġ192 1
Ġquar ters
Fuck ing
Ġwitness es
Ġenvironment al
Ġdyn asty
Ġens ure
M ary
T y
b ishop
g ers
i ate
at in
es h
ot ton
ĠS ri
ly ne
ĠB eng
if est
Ġr ape
um mer
ĠF arm
ĠN ative
Ġun fortunately
av ia
Ġadv is
Un cle
Ġsafe ly
Ġcirc uit
Ġpack age
Ġimpro ved
ĠPin occhio
0 3
r m
z ing
ro it
ĠM as
ĠG ill
ĠG ordon
Ġch uck
Th rough
Ġun conscious
ec utive
Ġfr ank
Ġspeak er
Ġpar allel
De cember
Ġgrad ually
Ġprint ed
Ġdyn am
Ġbatt les
9 2
Ð °
Ġp od
ri v
ĠF a
cc er
be h
Ġconf ess
Ġri fle
Ġperform ances
Ġappro aching
L ES
c ular
p ot
u is
Ġm os
ĠP R
Ġab oard
Ġcol ours
de f
Ġtreat y
Ġdest ruction
Ġjud gment
Ġalt ogether
N ovember
P e
s ky
or ph
all e
ĠT al
ĠT ai
ĠL as
ĠJ erry
Ġch ir
ap ted
ud a
Ġpart ly
com une
ĠSy l
Ġintrodu ction
ĠMed al
ĠNorm an
Ġlyr ics
M ike
Y o
c ia
t op
v ar
Ã ī
in ated
Ġw ives
Ġb ail
Ġd ull
Ġg rief
ĠM and
ĠM erc
ĠD ream
ig ration
ick en
Ġdef ence
Ġcap s
rel ated
Ġdesp air
ĠOb ama
b oo
d el
m ind
Ġf ence
ic ial
ir ch
out e
ĠM az
ĠT erry
op ter
ĠF inn
act or
Ġreg ister
ĠĠĠĠĠĠĠĠ Ġ
ĠChrist opher
Ġcut s
ĠCol omb
ÃŃ s
ĠQue bec
Ġnea rest
Ġnea rer
Ġassign ment
Ġdread ful
M P
M at
M il
S eptember
ll or
ĠC ook
ĠR ights
Ġcont aining
Ġpay ment
Ġdra gged
ĠWh it
Ġobs erv
Ġjun ior
Charl ie
ĠS OME
ĠC ooper
if ty
ĠL ag
ru its
Ġsent enced
Ġclean ing
Ġdifficult ies
Ã¨ re
Ġguarant ee
E ast
N orth
ĠS HE
Ġha re
Ġch arts
ĠO cc
ank a
sh ine
Ġpres um
Ġequ ivalent
ged y
Ġground s
ĠDemocr at
ĠAnge l
Ġgar age
Ġopt ions
su ccess
ĠJeff erson
Ġdisappoint ed
uer to
? ?
M aster
n ia
Ġt iger
Ġhe n
id ers
ad er
Ġsh ops
ĠG ulf
ra ig
ĠSt ill
Ġac celer
âĢľ âĢĺ
Ġmusic ians
ĠLe o
ĠDo es
Ġlad der
Ġclim bing
ĠSe ven
Ġtransl ated
Ġsched uled
Ġtroub les
ĠHamp shire
0 6
l ove
m il
Å Ł
he ster
ĠH im
our t
Ġun certain
gr at
Ġsy nd
ĠSh ut
ĠAn na
Ġsouth west
Ġpan el
Col onel
S ho
b ors
in ations
Ġw oo
an other
Ġg ently
Ġbe aring
id i
ĠP RO
ĠL inda
Ġpe ek
Ġcl ay
Ġpoint ing
Ġdeep er
ĠDan ish
Gu ess
EC T
Ġpattern s
Ġconscious ness
C lear
S ame
w ear
im s
ĠB ird
ĠP ress
ĠD ennis
ell ig
ĠU pper
Ġhapp ily
ott o
Ġsub stant
Ġdun no
L ING
M ag
Ġb ored
Ġst ake
ĠC ole
op les
ĠG ary
Ġwhe at
ap se
ĠK am
Ġwhere as
In c
ĠInd ust
ple te
Ġadv oc
Ġimag ination
Ġtick le
Ġhous ing
Ġeth nic
ĠCam bridge
Ġexpand ed
Ġcott age
N or
c il
r ant
s ki
Ä į
à ¦
at tered
op es
ĠW eb
Ġj erk
ĠV ienna
au nd
Ġfin ishing
Ġinv ite
Ġins isted
Ġdesign er
Any one
Ġrul er
Ġble eding
ĠJud ge
bird s
J une
M ont
m aker
o j
ĠA ud
ĠT s
ĠD yn
ell i
ĠR ick
ous es
Ġgr at
sh i
ĠAl ice
Ġelse where
Ġmed als
bl ue
Ġdiscuss ed
ĠBase ball
O ctober
v ard
Ġt act
ant h
Ġde er
ĠL abor
ĠL iverpool
ĠV ic
Ġfound ing
Ġ4 2
Ġste ep
Ġsil k
ĠServ ices
ĠTrans port
Ġapplic ations
Ġdram atic
I VE
Ġd anced
ĠA uthor
ill ing
ĠB ert
Ġex cess
ĠTh or
Ġlist s
ON NA
Ġcreat ive
fe ld
Ġgrand ma
Ġparticip ate
VER Y
Ġhonest ly
Ġrank ed
Ġcontem porary
R ock
c ond
f ight
Ġt ables
Ġb icy
as per
ri ors
Ġdo in
ĠF at
ĠJ ay
Ġch im
ĠK ings
Ġres erve
ĠAl b
Ġpass enger
Ġ7 2
eb ast
Ġelect ron
Ġresult ing
ĠAf ghan
com fort
Ġinn ov
Ġcitiz en
Ġpurch ased
Ġwithd raw
somet hing
Ġexped ition
Ġbehavi our
J eff
p os
t ree
Ġf ict
Ġd ensity
Ġth under
ac ious
ĠB ah
ĠO p
Ġpre v
li er
Ġent reprene
Ġrock et
Ġtest ed
gress ive
6 7
E asy
G A
h our
Ġt roll
it chell
Ġhe lic
th ought
ĠL im
ĠR ah
Ġbl ows
aw are
ĠAnd erson
Ġdist urb
Ġsur f
Ġfuck ed
Go ing
Ġpain ful
ĠEd inburgh
Ġren ew
Ġmathemat ics
Ġ +
en os
Ġ( ),
Ġpol ite
Ġdec ade
head ed
Ġra ising
Ġhop es
Ġexec ution
Ġadop t
ĠWay ne
ĠCa esar
O B
Ġc odes
her s
ĠN i
Ġshe d
ott a
Ã© s
bour g
K now
f are
er ies
Ġo ink
ĠF ine
Ġshe pherd
Ġpe ep
ĠY et
ĠMar ian
ĠBr id
Ġass ure
Ġpubl isher
ĠComm unity
Ġtravel ing
Ġconv ince
Ġsens itive
Ġattract ive
Ġmurd erer
Ġadvert ising
Ġcas ual
3 00
B ur
M ur
r ane
w hel
ĠD er
Ġr ust
Ġcom ments
Ġ19 14
Ġpo le
OU GH
20 10
aim a
Ġsum mon
Ġgar bage
ĠIsrael i
ĠHot el
ĠPL AY
ĠKenn edy
ĠGoo gle
ĠNorwe gian
V EN
Ġf oss
Ġn om
ĠL ow
ĠO rigin
ĠV egas
ob b
ft en
sh ot
ĠTh us
Don ald
RE AM
Ġcross ing
Ġstri p
AC E
Qu ite
Ġreve al
Ind eed
Ġsequ el
Ġgodd amn
Ġsitu ations
ĠBus iness
0 7
M AR
m ight
Ġm oth
Ġg ra
ĠP hys
ĠCh amber
Ġart ific
Ġinf ection
ĠBe ast
ĠBar on
ĠX ia
Ġlab our
Ġfort un
Ġaffect ion
Ġdiagn osed
Ġoccas ions
thod ox
H m
as a
ĠS oph
ĠM ach
ĠH ad
ol ve
ĠF ROM
In stead
Ġlet s
Ġdri vers
reg on
Ġfarm ers
ĠRus sell
ĠBul gar
A c
F red
M ic
k ward
Ġc uri
Ġy ield
Ġl es
Ġl un
Ġn asty
Ġwe pt
Ġas sembly
ĠF ace
em ed
Ġimp rison
Sh h
ĠWar ren
Wh oo
Ġtechn iques
Ġtravell ing
Jan uary
Ġemp ire
Ġregist ered
Ġsurre nder
ĠWel sh
C al
d ed
g reen
Ġt u
Ġg ross
Ġhe d
Ġcl ients
Ġthr ust
Ġcr ashed
Ġkill s
Ġinst all
Ġmod er
bor ough
Ġrelationship s
Ġcontr ast
Ġcharm ing
Ġtherap y
v ision
ic le
Ġbe e
ĠA qu
ĠC os
ĠL ive
ĠL ane
ab e
Ġsp aces
Ġqu e
ss on
Ġtri umph
Ġelect ronic
ĠPro gram
Ġeffect ively
Ġmur m
Ġmeant ime
Ġmagaz ines
opp y
B LE
M al
M orning
R oll
in ian
Ġg ig
le vel
ĠC arm
ra h
ĠHe b
Ġrec all
anna h
Ġmid st
Ġfac ulty
Gu ys
Ġamb ulance
Es pecially
ĠIndones ia
9 3
F ar
M ind
N Y
U gh
e ight
t ra
in ea
ĠS ent
ĠB ond
Ġsh y
Ġsh aking
ĠR y
ĠN HL
od a
Ġsp ots
vern ment
Ġcons ervative
Ġrep air
Ġstay s
Ġsleep y
Ġcre ep
Ġprocess es
ĠPhil ip
Ġnovel s
---- "
H ope
N T
u art
re ction
ri k
ro ph
ĠB omb
Ġinv isible
ĠCount ry
Ġmus cles
Ġaff ili
N umber
is d
Ġc ust
Ġm ac
Ġg ym
ch i
ĠT oday
ĠD J
ond e
Ġun employ
ob s
Ġrel atives
app er
ins ula
ĠJul ia
Ġbuck et
Ġelectric ity
Ġfant asy
ĠKent ucky
Ġliber ty
C ertainly
g on
ĠS ister
Ġan ch
ĠP apa
Ġde ce
ĠL ux
ĠL aura
Ġ19 18
Ġback wards
Ġkind ly
Ġsy nt
Ġrest ored
ĠHer itage
ĠMont real
ĠPet ers
Ġlink ed
Ġce ased
odd ed
H oly
h alf
al an
ion e
st ruction
ĠC BS
ĠJ ournal
Ġtr ash
Ġdes ired
Ġass ets
Ġtri bes
Ġwalk s
Ġprom otion
Ġsol ar
Ġtransl ation
6 8
N at
g i
g ro
i ge
m ate
m und
Ġc aut
ĠH unter
ĠB ACK
ĠN elson
Ġcon grat
br id
Ġdef ine
aps ed
Ġhost ed
Ġpers pective
ĠSing h
Ġquant um
Ap ril
Ġwis dom
S R
d ie
Â ²
ĠB ed
ĠK l
ĠCh an
ale b
Ġinn it
Ġfem ales
ĠAre a
ĠRob in
Ġdemand s
Ġpill ow
ĠAtt orney
Ġunex pected
- [
M ac
it i
Ġto mb
Ġp ond
ĠI van
Ġe c
ĠC atherine
ĠM icro
ĠB uck
Ġsh ar
Ġacc ord
Ġvis iting
Ġsurpr ising
Ġmult i
rav o
Ġqual ified
Ġdepart ments
Ġaspect s
Ġbord ers
' '
C ool
H it
H ome
e ve
Ã ł
Ġb ars
Ġf iring
ĠI r
Ġst all
ĠT ar
ĠW ILL
ĠG ONNA
est ly
ĠK um
Ġsc oring
Ġfl ies
ock ing
Ġcol onel
ĠFor ces
Ġwhis per
on ies
it ement
Ġm aj
Ġg ifts
ĠC re
ill ery
ĠR at
ie ls
Ġv olleyball
Ġdep ression
Ġtri angle
ĠOF F
ubb ish
Ġcant ons
Ġremark able
Ġdivor ced
Ġconstruct ed
C ast
Ġin cl
ver ty
ĠC EO
ct ic
ĠB ud
ĠB ox
ĠL ion
ĠL uke
Ġad j
Ġfl ung
cy cle
Ġri g
Ġpartic les
Ġhuman ity
ĠFl ight
rag on
ĠAtl anta
Eng lish
P op
i u
u ine
Ġ ou
er ior
Ġp ile
ĠM ess
ĠM ind
ĠL ast
ĠR un
ĠN OW
qu est
Ġbr ains
az y
Ġreg iment
ash a
Ġref uge
Ġsign als
Ġprov inces
Ġmer ry
AM E
Ġexec uted
Ġcritic ism
0 4
0 8
S upp
f ree
p iece
Ġ q
Ġt ed
Ġt ack
al ion
ĠT R
ĠD u
Ġher s
ĠCh ildren
we alth
OU S
Ġ4 9
Ġacc ent
arr ant
Ġmain tained
OM AN
Ġsuggest s
Ġdemocr acy
B orn
Ġt urt
Ġh ipp
ĠC ow
ĠP ear
Ġli ver
ĠW right
ĠN ice
Ġgl ory
Ġ8 3
Ġ8 9
Ġsmall est
Ġconf ront
ĠComm unist
Ġregular ly
Ġstret ch
ĠSil ver
0 2
W oman
c ers
v o
Ġre ception
Ġst y
ĠW OULD
ĠD ark
Ġsh ares
ist inct
ĠO regon
oc ation
LL Y
entle men
Ġbull ets
t ry
Ã ¥
Ġd ict
se en
th y
Ġab st
Ġsomet ime
Ġsl a
Ġ5 5
Ġdr own
ĠSh akespeare
Ġcons isted
ific ations
ĠSp encer
ĠAust in
amb ers
ĠWh ich
ĠMan hattan
Ġden ied
Ġwra pped
! '
E ight
d ig
f in
m ic
r ise
nd ered
Ġb ills
en z
Ġto ler
Ġso d
Ġch airs
ĠTh ose
ail ing
ĠDe ad
Ġ6 4
Ġdri ves
EN D
Ġste aling
Ġshout ing
aret te
ĠMem orial
Ġconsequ ences
Ġcongress ional
Ġcomed ian
P ass
Q ue
l ings
Ġl aughter
Ġe fficient
Ġk m
Ġan ge
ĠP rop
ol ph
ist ical
Ġtr ump
Ġhelp ful
AN S
Ġmus h
Ġrad ical
Ġphot ographer
Ġhero es
ĠAlf red
Ġtow el
S ighs
m ble
in ating
re hens
ĠB und
if ted
ĠN am
ood le
Ġpro spect
ĠV ik
pl ess
Ġpo verty
Ġaw ait
Any body
Ġrob ot
Ġcustom er
Ġtrick s
Ġemot ions
? '
C AR
C oming
I d
Ġt ang
at um
Ġg re
Ġn odded
ĠS E
ro b
Ġ1 000
ĠP uerto
Ġv ig
ĠK aren
Ġmust n
Ġsub stance
Ġev ac
Ġmark ets
Ġpublic ation
Ġpriv ile
Tr ust
Ġbur den
Ġattract ed
Ġpurch ase
ĠBroad way
Ġfeather s
Ġtremend ous
B est
H alf
M E
N orm
r ac
Ġc ared
Ġl ane
out ing
ĠG or
ab l
Ġch ip
ĠY ug
ĠY outh
Ġdis hes
Ġ4 7
ash i
arr ondissements
Ġball oon
Ġgen etic
Ġsad dle
str ong
ĠLa ure
Ġwa ist
ĠMount ains
Ġimpress ive
Ġalph abet
p rodu
w w
Ġs ore
Ġs ank
Ġm ice
Ġhe ir
Ġre he
ĠB ry
Ġcan cell
Ġso ck
ĠJ ose
Ġpl ates
Ġsa uce
Ġcl iff
arm ing
Ġrepresent ation
Ġdeli very
Ġpan ic
Ġcontr ary
ĠAth let
5 8
K n
b ai
t ure
Ġthe ories
re ls
Ġn aima
ac re
ĠC ass
ĠH IS
ĠR achel
Ġover whel
ĠV incent
ĠYou T
Ġinc orporated
ik es
Ġexper iments
Ġhope fully
ĠPh ill
Ġpolitician s
Ġdrop s
Other wise
Ġencour age
Ġrhy thm
G old
or p
ar us
Ġn erves
ĠM s
ĠH appy
ĠP ap
Ġsh one
Ġso cks
Ġ19 17
Ġman ip
Ġcomp ass
Ġperson nel
uk i
irm ingham
Ġattempt s
Ġvan ished
sm ith
Ġlegisl ation
he e
Ġh ay
Ġd owntown
ar se
ĠC her
ur u
ĠD arling
Ġr it
Ġr ating
ĠJ a
ĠK id
Ġqu ote
ĠTh ompson
Ġsur ve
Ġ7 8
Ġbeh ave
Ġcor on
Ġdesign ated
ĠAb b
Ġpur se
Un fortunately
Ġstick s
Ġblank et
M er
M el
s il
Ġf er
Ġn av
al p
Ġre tain
Ġan th
un o
Ġj oking
Ġch rist
ĠK eep
Ġexp ansion
Ġval id
ĠAm ong
Ġperiod s
Ġimag ined
Ġneigh bors
Ġcommunic ate
Ġquant ity
ĠSocial ist
Ġch oices
Ġen force
iss a
Ġind ex
eg ro
Ġfew er
Ġpresent ation
Ġcompet itions
Ġve ter
Ġincre ases
Ġtouch ing
bel iev
aval ry
ĠDet roit
ĠWalk er
ĠUt ah
h ot
r r
it ate
an Ã§
Ġh ire
Ġl end
ĠC row
ĠT an
ĠL ist
ag raph
ace y
Ġover come
Ġres idence
ho le
Ġland scape
Ġaw kward
Ġpract ically
Ġsuspect ed
Ġcart oon
Ġwrit ings
ĠRail way
Ġbacter ia
Ġto m
le ans
Ġbe asts
ad ays
ĠG un
ĠN BC
Ġ4 6
AN G
ai ro
Ġtra pped
Ġdel icate
Ġsuggest ion
Ġtravel ed
Ġvo iced
ĠIm perial
Ġnurs ing
Ġestablish ment
j u
im ore
ri ver
Ġst ro
ĠD oc
ne um
Ġdifferent ly
Ġtri b
Ġposs essed
Ġsuccess or
unicip ality
Ġnetwork s
Ġfeed ing
ĠMel bourne
Ġflo ating
ĠLeg isl
Ġrug by
F ebruary
W on
g re
g rave
j ud
s n
Î ¿
Ġa rose
Ġthe ta
it is
an im
Ġh itting
Ġe y
ur rent
Ġli p
ĠG rey
ĠK it
Ġ7 7
umb o
ĠWar wick
Ġdescri bes
Ġconv icted
Ġcompan ions
Ġsuit able
ĠCharl otte
ĠSus an
ĠMove ment
A A
g age
s w
ĠM um
Ġas hes
ĠW oman
ĠL arry
ĠO R
ĠO d
ci o
Ġdis gu
Ġbus h
room s
Ġcivil ization
Ġremark ed
Ġrare ly
Ġintellig ent
Ġguitar ist
Ġdial ect
Ġalleg ed
song writer
Ġmagnific ent
Ġsla very
R a
S HE
Ð ¾
ing o
or al
Ġp unk
Ġwh ilst
ri et
... !
ĠR ain
Ġshe ets
Ġdown load
Ġste ady
ĠOr ange
Ġconsider ation
ĠDes pite
Pol ice
Ġexplos ion
F ollow
M ed
O l
» ¿
ï »¿
Ķ Ģ
Ġg le
am as
ĠR ap
ĠN ag
ab i
Ġcon sec
Ġ19 19
Ġwor ship
av an
ĠTh rough
Ġco in
Ġind icated
Ġind icate
umb ent
Ġconnect ions
Ġign ore
col m
mir al
Ġdat ab
v ant
Ġb ust
Ġf lex
Ġf ires
ro id
ĠP ink
ie val
Ġsc andal
ret ched
aster y
IS H
ĠJust in
Ne ither
Ġreb u
Ġchem istry
ĠTest ament
ĠTechn ology
Ġpremie red
Ġfict ional
S ing
Ġt ons
Ġb ind
Ġc ries
Ġm ales
Ġd iver
Ġp ills
Ġin sect
id ays
ĠS ean
ĠH o
Ġne ur
res a
ĠV is
ho e
Ġmother s
ĠAb d
Ġrese mb
roll ing
Ġjud ges
Ġemploy ment
des ign
Ġrequire ments
zer bai
Ġveget ables
Ġwhist le
Ġdea f
" '
H ard
v as
at ics
ĠS ac
ĠG host
amp ton
Ġrep orter
Ġair plane
Ġthank ed
Ġbed s
Ġappro val
Ġenc oun
ĠGO OD
Ġconc rete
Ġwand ered
ĠLead er
Ġgalax y
L and
P ER
t it
Ġd ug
ĠI l
ic on
us k
ad t
Ġwas hing
ct ors
ĠL ucky
ĠR ou
ĠR ow
Ġex it
cl ing
ah n
Ġrec overy
ĠMar ion
gr ade
Ġpar ad
Ġdesign s
ĠX X
Ġself ish
B R
e at
p ers
w ent
Ġre li
ĠS cientists
ĠC OULD
Ġnot ion
ĠD in
ist a
Ġch in
Ġv ital
ip h
ĠV enez
Ġ4 4
olog ies
not hing
ster dam
Ġhur ricane
Ġest imate
AS E
ĠTe le
Ġclos et
ĠWood y
ĠCarl os
Ġconcent ration
ĠLl oyd
Ill ustration
M eanwhile
s ighs
v ation
y ears
Ġt um
Ġt ube
Ġb ury
Ġf isher
Ġp oo
ĠB uff
Ġch ronic
ĠK r
ĠPr adesh
ĠAn im
Ġ8 1
Ġwin ners
Ġdiv ine
Ġav o
ele ction
ĠPer u
Ġprep aring
Ġsurv ival
5 6
A lp
b ul
l ord
m are
Ġw agon
Ġm and
Ġf eared
ar ation
ic ity
ĠS AY
ro st
ĠC hen
ĠE agle
ĠK ill
ĠHe art
ud ible
ĠCh ild
Ġbre ed
RE AT
Ġplan ets
Ġdri ft
Ġeng agement
Ġsurv iv
ĠCat hedral
Ġsusp icious
fortun ate
Ġanx iety
C OME
H ol
Ġw ax
Ġb in
Ġb ounce
Ġc ows
Ġp unch
Ġg rie
Ġal ert
ort ion
ĠSt orm
Ġcomp ens
Ġad apted
Ġloc ations
ĠSc rooge
Ġve ctor
Ġdro pping
T er
l oe
o i
Ġne uro
ĠF ollowing
ond a
Ġgr ain
Ġgener ous
Ġcompet ing
Ġappear ing
Ġla wn
Ġstri king
asket ball
Ġpock ets
Ġwrest ling
Ġdisg usting
Ġhosp itals
e lect
v als
Ġw ip
Ġo ven
Ġd ated
Ġre levant
am med
ĠM AR
ill es
ĠB O
ĠT IME
ĠD ong
Ġor g
iv an
Ġper ceived
ĠEx ecutive
ĠPal mer
ĠEm ily
Ġvot ing
tr ack
Ġsch ol
9 4
B ro
E v
P A
S k
W alk
W ater
â ĶĢ
he ro
Ġd ent
ay ne
ĠC as
ill o
ĠB irmingham
ĠF riends
oy age
Ġmat rix
Ġcons pir
Ġgl ance
Ġ9 1
Ġ9 3
arr ator
Ġgovern ments
Al most
ĠOr leans
Ġcontrol s
Ġtrust ed
ĠPer haps
Ġver se
ĠMont ana
Ġden y
Ġimm igr
ĠAg ency
ĠHind u
Ġlin ear
onym ous
Bi ography
Sar ah
H I
Ġf its
Ġre verse
ĠM aur
ĠL is
est yle
ĠCh and
Ġdis pl
Ġsur geon
Ġinv itation
ING S
Ġfore head
Ġsend s
Ġinvol ves
ĠGO ING
Ġwealth y
Ġvent ure
Ġhyd rogen
ĠNob el
A ss
x ual
Ġm ister
Ġf iled
Ġd ared
Ġwe igh
ĠS uch
Ġst ead
ĠC R
ĠD awson
Ġex ceed
ass es
ĠV I
iz er
Ġkind ness
20 14
Ġ8 2
Ġrep rodu
ĠĠĠĠĠĠĠĠ ĠĠ
Ġgener ations
Ġexpl o
Ġlear nt
Ġmist aken
Ġsal ary
Ġhun ter
Ġce iling
Ġscrew ed
Ġtravell ed
ĠCub a
Ġairl ine
Ġinspir ation
D A
s ing
Ġa uth
Ġs ar
at on
Ġb orough
om on
im o
Ġst orage
ĠH and
ĠB att
ĠB ey
ĠT un
ĠL isten
Ġpe oples
sh ow
Ġcar ries
ars on
Ġhigh light
Ġsk ull
For give
Ġcre pt
Ġinvol ving
Ġdise ases
ograph ical
ĠBet ween
ĠBrook lyn
ouncill or
C alm
H aving
I RE
X T
l ines
p arent
Ġs essions
or able
Ġp airs
Ġg orge
Ġn aught
op ed
art ed
ĠJ ake
em en
Ġsc en
Ġ8 4
ream ing
Ġadm ire
THE Y
Ġmultip ly
Ġcamer as
Ġmagn etic
Ġgrav ity
" -
, .
B o
S ave
h aw
s upp
Ġs ink
Ġo ath
ĠA BC
if ies
ĠT ob
ell s
ĠL uther
ĠJ ama
ort ing
ne cess
Ġdest iny
Ġconcer ning
Ġcal endar
Ġarr ondissement
duct ions
Ġder ived
Ġsitu ated
z el
is n
Ġp ace
Ġin aug
ĠC old
ch y
ch ildren
un ted
Ġch asing
ov ich
ub s
Ġam ateur
Ġfin est
omm e
Ġ6 8
Ġprof ile
Ġexc itement
Ġpack ed
Ġdetail ed
ĠNaz i
ĠTai wan
ebast ian
A ir
H arry
V I
Ġt ag
Ġm ild
Ġd ancer
am o
ĠA F
ĠA gent
ch t
ĠB ab
ass y
cl ose
Ġsec ured
Ġhome work
Ġown s
eg es
Ġpubl ishing
born e
Ġopp onent
Ġspin ning
Ġvessel s
Ġjur isd
A in
B oss
is i
Ġb apt
im ens
ĠM ack
ĠF uck
ĠAn nie
Ġ6 6
Ġ7 6
Ġlay ing
ĠNe xt
Ġviol in
Ġthreat ening
Ġsevent een
ĠMet ro
Ġoccup ation
ĠFred erick
Ġmechan ical
Ġvi br
Ġbom bs
Ġcinem a
comfort able
A f
E ither
S at
S ister
h all
i op
Ġl ou
Ġl ux
Ġg reed
ac co
ri el
ĠM ak
ĠB ass
il ation
ore nce
ĠCh ance
ens on
Ġres olved
Ġsw ept
Ġ9 2
Ġpret t
pr ing
Ġap ost
ĠRich mond
ĠSam uel
Ġcontribut ion
Dan iel
Ġchalleng es
nat ural
Ġvul ner
ĠBangl adesh
H OW
S uddenly
f r
f ell
h igh
ve land
if ully
ĠD oe
Ġr ubbish
ip ur
Ġapp arent
Ġcount s
az ine
ĠRe al
Ġign or
Ġexhib ition
L ie
M ight
b oth
Ġt ast
Ġp ad
Ġp atch
Ġbe ef
id al
ge ons
Ġsh ark
Ġr ang
ack et
Ġun l
Ġsw itched
ĠJan et
ĠAll ah
Ġprot ests
Ġrad iation
Ġkiss ing
ĠEn v
Ġdistingu ished
M ax
i ens
l ins
w oo
it us
Ġf ame
ĠA irl
Ġse ed
ul ating
ĠE nt
Ġcar go
ubl in
ier ra
Ġext ension
ĠChrist ians
Ġgen uine
Ġprotect ing
ALL Y
Se ven
Ġmurd ers
Ġdepart ure
Ġgodd ess
Ġprote in
ĠSomet imes
Ġcorpor ate
Ġartific ial
0 9
C ount
D rop
F eel
H igh
i qu
Ġt el
Ġg ene
ĠA ge
ĠM ust
ur as
Ġ1 20
art ial
act ive
ting ham
Ġtrans ition
Ġdream ing
ĠAm sterdam
Ġnin th
Ġenjoy ing
Ġsoul s
Ġamb assador
Ġlink s
Ġencour aged
Ġpra ised
Ġannounce ment
rane an
. --
B O
E ver
I mag
L aughs
Ġp neum
st eps
ĠW r
Ġman ifest
Ġro d
Ġro ses
Ġcomp are
Ġcons cience
omm od
unt ary
Ġsn eak
Ġredu ction
Ġlawy ers
Ġbound ary
ĠTer rit
Ġdeleg ates
ĠAuthor ity
h oo
s a
Ġab und
Ġcl ue
be an
ĠBr and
Ġreal ise
co at
Ġbar n
Ġstat ements
Ġrul ing
Pl ot
ĠDel hi
Ġsusp ended
Ġcontribut ed
Ġautom atic
Ġresident ial
Ġarrange ment
Ġconstitu ency
ĠConstant ine
H aven
P ort
Ġl y
ĠB ou
ĠT reat
ud son
ĠU l
Ġtr amp
Ġcl er
Ġbr ick
Ġass ured
Ġpress ed
Ġtrad ing
Ġcult iv
Ġfem in
Ġsusp ic
Ġsole mn
Ġaccompl ished
Ġthirst y
S a
z h
Ġf et
Ġin ject
ro c
st ill
Ġst ove
ĠB ear
Ġse eds
ĠK on
sel s
ub a
be at
Ġ5 4
ĠAl aska
ĠSh a
Ġlay er
Ġdev oted
ĠEx cuse
Ġant icip
Ġterror ist
Ġunivers al
Ġsubsequ ent
Ġderiv ative
Ġearthqu ake
B as
w right
Ġw ipe
en cing
Ġhe nce
ĠS ud
Ġu mb
ĠB ri
ĠB enn
Ġse ctions
un ion
un ction
ĠG ir
Ġr ats
ĠĠ ĠĊ
ĠR ea
ra ge
ag ram
Ġneed le
Ġsign ature
ĠSc ots
Ġ25 0
Ġpal m
ĠSe attle
Che ers
Ġscreen writer
Ġweak ness
ĠApp le
ĠMic key
Whe ther
ĠHung ary
Ġconclud ed
ĠUnivers al
ĠHit ler
believ able
J ane
L ee
O ff
p hy
s is
Ġc ouch
or g
ic ular
ul se
Ġsu its
od ed
Ġv irgin
ĠK an
ĠHe nd
ĠSt ew
act ory
uh ammad
AS S
Ġcir cles
ĠKh amba
Ġload s
Bet ween
Ġsymb ols
Ġvari ables
Ġdom ain
Ġfra ud
ĠPitt s
J os
l ia
s qu
Ġt on
ar ity
Ġg est
ad ia
im m
ĠC ry
Ġch urches
Ġint r
Ġdis order
Ġmon k
Ġplan es
ĠComm unic
ĠHar vard
Ġdi aper
Ġobs ervation
Ġaud io
ĠBel gian
Ġsuit case
Pr ince
Ġassoci ate
ĠLO OK
Ġcontrovers ial
ĠDie go
C la
E nd
R S
Ġc alf
am ation
ĠS aud
se ven
ĠR angers
est one
Ġ19 12
Ġbl own
Ġ5 7
ye h
ĠMc K
Ġlow est
Ġlie utenant
Ġpeace ful
Ġdress ing
itar ian
Ġreb ell
ĠBu ilding
Ġrat io
8 7
G reen
c ourse
l E
p ost
z ard
is en
ĠS af
ĠM itchell
ĠO ri
ĠV as
Ġadd ressed
Ġext ract
Ġtra gedy
Ġhon ored
Ġreport ing
Ġgen es
Bl ue
Ġarch ae
Ġsens es
G B
L ady
R eg
S end
l ist
Ġc otton
Ġf ears
Ġto re
ot he
Ġe rect
ĠA ires
Ġal ike
ap ing
ĠO liver
ĠE mer
Ġv s
ĠK u
Ġun e
Ġ4 3
Ġprov ision
Ġbott les
Ġpopular ity
OS T
Ġopt im
Ġadvent ures
Ġacknow led
ĠBalt imore
igen ous
ĠAfghan istan
n ice
t le
am ous
Ġas semb
ĠP ur
ĠG arden
ĠG raham
ĠF und
Ġex ternal
Ġqu id
Ġun fortunate
Ġbet ray
Ġsc an
Ġpat rol
Ġcompet itive
Ġdi ary
ĠBE EN
Ġpun ish
Ġstrugg ling
Ġalt itude
Ġtort ure
Ob viously
C ent
F ollowing
R on
re lla
Ġd ough
Ġhe al
ĠS ho
Ġst ew
ĠG ib
um ed
ist ant
ĠIn spector
Ġbl oke
Ġacc ommod
ĠFr ont
no x
ĠSp eak
Ġcontin uing
Ġdest ro
Ġcook ed
Ġcard iac
ĠBen jamin
Ġtransport ation
Ġmeas ured
Ġpul se
Ġintellect ual
ITT LE
ĠPun j
Ġbicy cle
ĠHeb rew
C L
L es
S us
W omen
Ġt enth
on ge
is ure
Ġp ant
if th
Ġr aw
Ġ19 16
ĠE th
Ġpe cul
Ġen qu
Ġ3 9
ĠAr nold
ĠSh in
Ġsit com
Ġtrans mit
Ġinter ior
ane ous
Ġanim ation
Ġrepresent atives
Ġpost ed
Un ited
ĠDel aware
ĠCommission er
Ġdiam onds
ĠSqu ad
Ġcig arette
Ġhelic opter
ĠYouT ube
ĠAirl ines
5 7
D ON
l ay
Ġa ster
in us
it ated
ot al
Ġhe els
Ġbe ep
ĠS i
se ud
ĠC hel
ĠM i
ĠT alk
op ing
ĠJ en
ack er
Ġor n
ak in
pt ions
av i
ens ed
vent h
ĠSh ir
min ute
ĠGu y
Ġpen et
heart ed
ĠBarb ara
Ġkilomet ers
Ġbund le
l aughter
m ans
w ife
Ġm amm
Ġf arewell
et ing
Ġwas ted
ĠS ig
ĠL t
ĠR og
ĠR ug
Ġcl o
Ġcount ed
arm a
Ġexpl ains
Ġaw oke
Ġbar rel
uk a
Ġcow ard
ĠMal ays
Ġlog ic
Ġcert ific
Ġkidna pped
Ġaccur ate
Ġpow der
U se
W al
r ating
t in
or ous
us cript
am ents
ĠS in
ĠD iane
um i
Ġ19 10
Ġpe e
orn e
Ġ5 2
Ġbus hes
Ġinst ruction
Ġprodu ces
Ġpen ny
ĠPri x
Ġtruck s
Ġrub ber
ĠFer r
ĠHarr ison
Ġcommit ment
ĠMod ern
Jim my
Ġsear ched
D em
P H
n est
Ġf itted
st ick
ĠT ree
ĠL eb
Ġv ic
Ġsp an
ĠMar ine
20 13
Ġ5 6
Ġgl oom
Ġpret ending
Ġmil it
Ġspeak ers
Ġpat ience
Ġdiv isions
Ġoper ates
Ġeng age
Ġpit cher
Ġbutter fly
ĠIran ian
ĠJoh ann
ĠAhm ed
ĠSyl via
S A
W HO
n al
p it
Å «
ar ter
om o
ĠP as
ĠD ec
ĠJ e
Ġ19 00
Ġv ary
ĠK now
Ġpre y
az on
Ġ9 9
Ġhum ili
Ġpar agraph
Ġbas ement
Ġsmell s
OD Y
Ġpurs ue
Ġbutt ons
Ġpuzz le
8 3
E uro
b ound
t es
id y
ĠA cc
ĠB right
ĠN av
Ġcon du
Th ou
Ġbr ut
Ġrec ip
Ġcoll ar
con f
gu ing
Ġrom ance
Ġpra ise
adu ate
Ġaccomp any
Ġconver ted
Ġdiscip line
Imag ine
A g
F rench
P al
Ġn it
Ġbe gging
Ġre venue
ĠM ans
ĠH ood
ĠL am
ie ves
ĠF A
ink le
ner gy
Ġsign ing
Ġpar a
Ġwall et
ĠPer ry
Ġmis under
Ġlo vers
Ġess ay
Ġrank s
lig a
ĠOs wald
Ġprior ity
b en
Ġc ul
al us
ĠS ound
il ib
Ġsh apes
ĠF u
ĠF ac
ĠN ation
Ġch ug
ĠO VER
ach i
ER E
Ġfight er
Ġlaugh s
Ġfle e
Ġfat al
Ad am
Ġcritic ized
Ġpir ates
omed ay
ĠNiger ia
J UL
P R
j in
Ġw oof
Ġs oph
is ons
Ġl oop
ĠC raig
ĠM ong
ant i
ĠR ud
ie ved
ear ing
ak o
Ġback s
Ġsc attered
Ġco ins
gr and
Ġpres idency
Ġsub div
Ġ9 6
Ġconf usion
Ġcountry side
bo at
Ġvers us
Ġrecogn ised
Ġhun ts
Ġsatisf action
ĠBu enos
ĠStud ies
Ġterrif ied
ĠCamer on
Ġchir ping
Ġrehe ars
c ap
j ar
r ace
t ail
he lp
Ġs ung
Ġto x
ri ly
ĠB eth
th ings
ĠK ate
Ġback pack
ĠIn n
St ation
20 16
ina udible
Ġcoll apse
Ġcol ony
Ġtem por
Ġobs erve
ĠDemocr ats
Ġsand wich
Ġterrit ories
whe el
Q U
o qu
in ate
Ġm ant
Ġh ood
Ġl id
ĠI ike
ĠS aints
Ġor ph
Ġno on
Ġoff ensive
og s
ĠMar shall
enn ifer
Ġterm inal
Ġvis itor
min ar
Ġsecret ly
Ġcatch ing
Ġclos est
Ġdig it
Ġbell s
Ġban ana
Ġprecise ly
Ġexha usted
ĠHawai i
: "
m ust
r ast
at ched
Ġb um
Ġd ried
ĠB ach
ĠB rew
Ġor bit
ĠO scar
Ġun ited
Ġdis m
be cca
you ng
ial s
Ġph ones
RE E
Ġ9 8
arr ot
ĠNot tingham
Con n
IF E
Ġresour ce
B u
H ea
M L
N ick
N OT
T R
g us
n ine
n orm
r ous
Ġw ages
ed e
Ġg ardens
Ġbe ans
im mer
Ġwe ary
ke e
Ġdo ck
il er
ĠW rest
Ġr ises
ĠL ok
ĠR and
Ġcl ap
Ġbr ass
Ġen h
Ġfl ames
Ġform ally
Ġ7 9
iet h
Ġcreat es
Ġfree ly
Ġcharacter istics
Ġdress es
ĠAlex and
Ġrequest ed
Ġliber al
ĠHung arian
ĠProt est
Ġresign ation
Ġproport ion
it ness
Ġb ri
Ġo ri
or ig
Ġbe am
ĠS ang
ĠA zerbai
ber ries
ine e
ov al
ĠTh ough
Ġpres erve
Ã© n
ĠCl ar
Be ing
Ġcamp s
LE Y
Ġge omet
LA UGH
Ġdefend ant
Bel ieve
hol m
F re
Ø §
Ġt ide
is ch
Ġh ind
Ġl ions
ĠS lyne
ĠB asketball
Ġsh orter
ĠR O
ĠF al
Ġall iance
sh op
ĠShe riff
ffic iency
Ġport rait
Ġhop eless
Ġinvestig ate
ker chief
ĠMur ray
Ġproced ures
Ġsculpt ure
ĠCommon wealth
Ġdign ity
A dd
R ad
T onight
Ġw ider
Ġm ast
Ġto b
ĠS lo
st ration
Ġst em
ĠH op
Ġsa iling
ink y
Ġapp et
sh al
ee ze
ho en
Ġpres erved
Ġunt o
Ġtrans mission
Ġsupport s
ĠAm endment
Ġver te
TH IS
Ġur gent
Ġproceed ed
Ġagric ultural
Ġthorough ly
Ġgorge ous
E at
U P
l ace
z ed
on so
Ġp ier
Ġl s
ent on
ation ally
Ġsh ocked
Ġj unk
Ġag encies
iss ance
Ġsc ores
ug ar
Ġweek ly
Ch ris
Ġdead ly
ĠCon vention
Ġorgan isation
ĠOr thodox
Ġprop ose
Ġmechan ism
Ġknock ing
ĠRepresent ative
Ġgather ing
Ġphotograph s
Ġcrop s
ĠJoy ce
Ġneut ral
Ġabst ract
W ake
h op
Ġt ies
Ġw age
Ġw ars
Ġo ak
Ġh ollow
Ġp anc
our ce
ĠO w
Ġun c
oc ity
Ġatt ribut
AN K
Ġinst alled
ĠTHE M
Ġbar gain
Ġdream ed
John ny
Ġpercent age
ĠCle veland
Ġrobber y
ellig ence
ĠYug osl
L aw
m ama
or o
Ġd ub
ay e
Ġre ct
ĠB urg
Ġat oms
ĠF E
Ġsp ider
Ġcomp ound
cl iff
au x
Ġrec y
ĠPr im
ey ed
Ġwar rior
ĠGr an
Ġsex y
Ġobject ive
ĠNe il
Ã¼ l
Ġvot ers
tt es
ĠÃ ī
Ġcro cod
Christ ian
ĠDev il
Ġhel met
Ġcolon ial
Ġincred ibly
ĠDef ense
Des pite
Ġcheek s
Ġphenomen on
dah o
Brit ish
design ated
D et
d aughter
o ffic
p se
Ġb rew
Ġp izza
ol is
Ġcan cel
Ġal ter
ess a
And y
Th ought
cl osed
Ġcar rier
Ġrun ner
Ġdec ides
Ġsong writer
OT HER
Cl ose
gu ard
Ġarg uments
Ġopin ions
onder ful
Ġembarrass ing
ĠBrother s
GR UN
Ġcust ody
e als
p ull
u ction
Ġw are
it ches
Ġf ruits
ĠT ELL
ĠP ont
ol ine
Ġj et
ĠR oute
Ġab ol
Ġfr act
Ġpen cil
Ġdepend ent
ĠStud ios
Te am
ĠDar win
Ġsubt le
Ġprepar ation
mill ion
5 9
I ES
Ã Ł
Ġe ats
ĠB L
il ight
ĠP C
Ġso ccer
Ġup side
so ever
Ġpr inces
ach ment
ĠTh ird
ĠAl ban
Ġprov incial
iter ranean
Ġleg it
amb ling
with out
Ġsuggest ing
ĠMil itary
Ġpsych iat
ĠGirl s
heim er
Ġhel pless
ĠCab inet
b its
m od
Ð ¸
Ġt apes
Ġst alk
ĠC AR
ĠK arl
Ġsl ap
Ġmon keys
Ġ5 1
Ġart istic
ten ance
ctor al
Ġcontin uous
Ġtravel s
resh old
Ġult imate
Ġembarrass ed
Ġisol ated
ĠLux em
D en
K im
M M
M uch
f ar
Ġp ony
im ony
am ount
ac ent
Ġwh ip
ri ger
Ġst ared
ĠH em
ter ior
ĠP A
ĠG onz
ĠF isher
Ġman aging
Ġun comfortable
ress ing
Ġreg ulations
Ġimp at
app lause
ĠEd wards
Ġz oo
Ġhar sh
ĠBro s
ĠArab ic
boy s
Ġdemocr atic
ĠTurn er
lad im
I O
l S
Ġd ot
Ġe agle
Ġwh ore
ri pp
ĠM orning
ĠD ublin
pp e
ĠR u
ĠK yle
ish i
Ġcour ty
Ġmin i
oot s
Ġmon ument
Ġ7 3
Ġconf ession
ane ously
Ġattack ing
off s
ĠMor occ
Ġpers ist
Ġattract ion
count ry
Ġagric ulture
l ain
á »
Ġ /&
Ġc ough
es y
Ġp orn
Ġwe lf
ĠM ake
ĠH aven
ĠD ig
Ġsh ine
ĠIn stead
ath i
Ġcost ume
Ġpray ers
Ġexam ined
Ser iously
Ġpir ate
Ġpiss ed
ĠVill age
ĠIndepend ent
Ġwelf are
G reek
T ony
t alk
w ering
Ġw arrant
on ce
Ġh aste
Ġin ev
et ry
Ġbe gg
ĠS of
ĠC OME
and ed
ĠW ade
ĠL ITTLE
amp s
Ġdis gr
Ġfl owing
ah u
Ġdr ain
Ġrest ore
amb o
Ġdig ging
Ġconvers ations
B Y
] ,
d isc
n ut
o vers
he nd
on om
Ġm all
Ġp and
om ot
ĠC ro
ĠB ald
ĠP oly
ĠN ature
Ġch ains
act s
ger ald
Ġfoot age
Ġmer ch
Ġcirc us
Sp eak
Ġtax i
Ġperm it
Ġpsych ology
Ġpsych ological
yr am
Ġrout ine
Ġdoct rine
Ġhyp othes
Ġdrum s
Ġsust ain
Ġhed ge
Que en
ilib rium
G reg
H ot
Ġc ra
Ġl ump
ĠC ant
ĠV e
Ġam endment
Ġfl ame
Ġrec re
arm ed
ĠSh ort
Ġrest ing
ĠZ ur
Ġmed ieval
Ġpay s
Ġhur ting
Ġclass ified
ett ina
Ġtrad ed
Ġemploy ee
Per fect
Ġbound aries
Ph one
Ġassum ption
Ġpros per
Ġcancell ed
P L
W ind
b ag
c ame
Ġc unning
Ġl od
Ġg y
Ġbe ats
id ance
Ġwe ars
Ġli ar
ig ious
Ġsp it
ere k
Ġwr ap
There fore
20 15
Ġform ing
Ġfollow ers
Ġcoll apsed
Ġpret ended
Ġswe ep
ĠBar n
Ġclean ed
bl ast
Ġmis fort
ĠCr icket
rem ember
Ġplant ed
Ġduck s
Ġcommunic ations
ĠDou g
pret ty
Ġaim ed
Ġcondem ned
? !
A ng
M et
e yes
r ator
Ġw olves
Ġs am
Ġm aps
Ġl f
Ġwas ting
ĠW atch
ĠW AY
ĠD ear
Ġ19 15
Ġman uscript
Ġcl an
Ġbl ast
vent ually
aj a
Ġev alu
Ġprom ises
Ġround s
Ġpar ade
Ġadv ised
bo om
Ġcompl ain
Ġheaven s
him self
Ġinvolve ment
z burg
Ġf est
ed i
ic ist
ay ed
ut ing
ĠC amb
ch anged
ĠH OW
op ard
ĠY a
int ed
Ġ4 1
ĠAn cient
Ġlight ning
Ġprocess ing
Ġbank rupt
sp eaking
Ġident ical
Tr ue
Ġvolunte er
R ead
h uman
Ð µ
Ġ Ä
Ġt urb
Ġa ha
Ġw ilt
it udes
et he
ĠS everal
if ting
ĠP ie
Ġj ohn
os oph
ĠO wen
Ġtw e
Ġcomp osition
Ġcomp onent
Ġbl essed
ener ation
Ġ5 8
Ġfr ust
Look ing
ha us
Ġsn ap
Ã¶ n
Ġpun ished
Ġloud ly
Ġvac c
ĠRay mond
Ġautom atically
Ġjew el
Ġbug s
Ġetern al
includ ing
Ġange ls
ĠPitts burgh
N ight
W il
n Ã©e
w ig
Ġa ye
ar an
ic he
ĠM ull
ant ine
ĠG ard
Ġr ally
os hi
og en
ĠIn vest
Ġdr owned
Ġob sc
Ġdeal t
Ġstrong est
Ġfill ing
ĠMad ame
ĠMag ic
Ġmotor cycle
Ġarrange ments
Ġow l
Ġlung s
Ġinterrupt ed
ĠAdminist ration
ĠMicro soft
Ġpneum onia
N ope
as ury
Ġl emon
ri ek
ĠH udson
Ġun success
Ġbet rayed
Ġper pet
Ġcomm unes
ib bean
Ġ5 9
ĠAl t
ĠGr ammy
Ġequ ilibrium
Ġeconom ics
rish na
Ġconstitution al
Ġthrill er
Ġcontrovers y
Ġstrateg ic
- (
A sh
F at
M O
R et
a ired
u um
Ã ¯
Ä «
Ġt ens
he ard
Ġn ail
Ġre aches
ĠS port
ol ia
Ġsh adows
ĠL ock
ĠL ET
ĠR E
ĠY an
ph ones
Ġph arm
Ġart illery
umb ai
Ġpublic ly
for ward
ĠHar old
Ġpolic eman
mon ary
ĠMag n
ĠJul ie
App arently
Ġdrum mer
Ġinqu ired
Rel ax
ĠChamp ion
? ,
B er
b ang
s chool
ĠI mp
id o
Ġe cc
am en
Ġse gment
ĠL ad
ck er
ĠO ber
Ġlike wise
Ġv ague
ĠSt uart
oll o
ob i
ĠBr anch
ĠPl ace
ĠAb raham
Ġindust ries
ij i
Ġut il
ĠLy on
ĠEv ans
Ġtroub led
Ġsymp athy
B on
G er
H ans
L y
a ver
ou ver
Ġcan al
ĠE cu
ach t
Ġbl oss
int erest
ph ants
Ġel abor
arm s
âĻª âĻª
Ġed ges
ĠAd v
Ex cellent
Ġprop he
Ã¶ r
Ġcand y
ĠMal colm
hand ed
Ġfrequ ent
ĠEvery thing
oos ing
ĠGall ery
ĠNaz is
Ġowners hip
Ġdatab ase
M ill
f an
m id
Ġ Î
Ġt in
Ġc ub
or ship
Ġp apa
et ta
ĠS ue
st able
ĠH AD
ĠB U
ĠB UT
ĠW WE
ĠD ub
Ġr ational
Ġr aining
Ġor chestra
ank ing
Oh h
OR T
Ġprof ound
EA D
Qu iet
Ġcrim inals
Ed ward
Ġchampionship s
Ġbless ing
ĠAmb assador
ĠIce land
ĠForm ula
Ġtob acco
M ah
p i
w al
in stein
re z
Ġm r
Ġf ert
Ġy elling
Ġbe et
ĠM ORE
Ġk ettle
ĠW ERE
Ġde als
ĠL anka
ab elle
Ġover se
Ġgu ilt
ob a
ative ly
Ġ7 4
Ġfilm ed
Ġvis its
Ġpost s
Ġpract ices
Mar ie
Ġlad s
ĠMon te
Ġbelong ing
OH N
Ġconcent rate
ĠGe off
ĠBea uty
Ġvolunte ers
Ġbot hered
Ġchim ney
2 000
f ront
an as
Ġp el
Ġp oured
Ġg ender
ĠM O
ĠH at
ĠD ee
ĠL ar
est ed
ĠJ ar
os c
Ġcon vert
ose xual
ond o
ĠShe l
Ġfin ance
Ġreg ime
Ġstr ain
Ġcons ol
Ġgl orious
ĠCl aire
Ġans wering
Ġnice ly
ĠMed iterranean
Ġdecl ine
Ġrefer ring
Ġhar vest
Ġcorrect ly
Ġbab e
Ġexam ination
ĠBa iley
Ġnuc le
Ġtank s
Ġbatter ies
Ġdelay ed
Ġcompar ison
k le
on te
all ow
ĠH um
Ġsh alt
ĠO UR
ĠE ls
He ad
Ġ7 1
Ġref ere
Ġdin osaur
bl ack
Ġinn ings
ĠĠĠĠĠĠĠĠĠĠĠĠĠĠĠĠ ĠĠĠĠĠĠĠĠĠĠĠĠĠĠĠĠ
Ġamount s
Ġcivil ian
Ġimm ense
Ġfirm ly
hell e
ĠHu gh
Ġhast ily
Ġjew els
ĠMedic ine
ĠRea gan
Ġpecul iar
5 4
A ust
H u
S low
p in
à ¹
in ner
Ġc atherine
ĠW ol
ĠD iana
el ing
Ġch lor
ra wn
Ġman ual
Th us
oy le
ild a
au c
ren cy
Ġatt ending
St an
Ġstr angers
Ġref riger
ĠZ h
Ġtri ple
ple asant
Ġstat istics
Ġver tical
ĠCont rol
Ġtask s
cel ona
Ġresear chers
Ġconven ient
C HE
O s
Ġs igh
Ġb unk
Ġc ents
Ġm ummy
ĠS ad
Ġst air
ĠB aker
Ġse as
Ġj er
Ġr aped
ĠE li
ec ess
Ġrec ru
gr oup
Ġref lected
Ġlight ed
me ow
Ġsol ved
ĠBoy s
Ġimprove ment
Ġprefer red
Ġdisplay ed
Ġcollea gue
Ġdismiss ed
R ose
h r
k ov
Å ¾
Ġb urg
ĠP ed
Ġ" ".
Ġdep ressed
Ġexp ense
erv atory
Ġadv ise
Ġmess enger
Ġcover age
Ġcand le
Ġprec ip
Ġdemon stration
Ġexclus ive
Ġfortun ate
ĠFace book
5 2
B uzz
F air
J on
P apa
T ur
c ock
l isten
l anguage
is an
or r
Ġp ian
ĠI ron
ĠA w
ĠC urt
ĠC osta
ĠL ud
ie ge
Ġso vere
qu al
ink er
Ġun p
iz ard
ph ony
Ġgl oves
Ġelect rons
Ġarm ies
ett i
sp ec
Ġrecogn ise
bl ood
Ġmarket ing
Ġpet ition
Ġphilosop her
ĠNE ED
Ġax e
Ġconsist ent
Ġswall ow
Ġcray ons
ĠRug by
M oney
N arrator
P ick
g ard
Ġd ivers
ĠD al
Ġj okes
ĠL ot
ĠF inal
And rew
ull ivan
Ġser ial
Ġsupp orters
Ġche aper
ĠSo on
ĠAd vent
Ġmembers hip
Ġabs urd
ĠEx press
Fr anc
Ġaut umn
duct ed
Ġinflu ential
Ġtour ist
ĠFin ally
ĠArch bishop
Ġunf air
Ġpeak ed
Ġsav ings
Ġcollabor ation
ĠGU Y
Ġpeas ants
Euro pe
7 2
M ine
V ictor
g om
á ¹
Ġs ab
Ġf ib
ĠS ic
ĠC ris
ĠM end
ĠM uhammad
ĠD OWN
ĠJ u
ig o
Ġout come
are r
Ġnow adays
orn s
ĠY u
Ġmar ble
20 19
Ã© t
Ġ6 00
Ġbeh old
Ġri p
Ġclass room
Ġra ven
ĠSch w
ĠSal v
Ġinterview s
Ġban ned
Ġaware ness
ĠAng lo
Ġnurs ery
Ġsamp les
Ġincreasing ly
Ġaccompl ish
Ġaston ished
Ġshar ply
hoen ix
ĠZur ich
E nt
Ġd ive
Ġp ussy
ic as
ld on
Ġst ub
ĠH oney
ĠT ang
Ġr att
ĠF ellow
ĠE va
ĠE arly
Ġtw isted
ci ation
Ġfl ights
Ġmin es
ream s
Ġrepl acement
Ġprop os
Ġmot ive
rug u
Ġhat red
Ġsurv iving
Ġfarm s
Ġemer ged
Ġdial ogue
ĠBuddh ist
ĠQueens land
Ġstimul us
ĠEcu ador
A y
b one
y er
an or
ent e
th ird
ĠD h
ul um
Ġde e
Ġde ploy
um er
ĠL amb
ĠR ee
amp ire
ling ton
Ġext inct
Ġposs ibilities
ows ki
Ġmain tenance
ĠRe view
arch y
ĠRep ort
ounc ing
ĠReg ional
Ġmedic ation
Ġrecomm ended
Alex ander
Ġinterpret ation
Ġaster oid
F e
G erman
S U
T op
V o
y ep
Ġth reshold
Ġp add
as ping
Ġl azy
Ġn ails
ĠI d
al ysis
ut o
Ġas pir
ĠT ogether
ĠW eek
ĠD rive
ist ani
ĠR oom
ĠO blast
ear ly
are ttes
reat ed
uck ed
Ġres erv
ath a
Ġlea p
Ġmon astery
ER Y
Ġcent ers
Ġsk ipper
Ġfilm ing
inc orporated
ĠRoman ia
Ġthreat s
AG E
ĠChance llor
s ure
ĠI mm
Ġre ly
ĠS out
Ġr ushing
Ġde ed
ĠN ov
Ġch ips
Ġshe riff
Ġun re
Ġmin ing
Ġworld s
ĠCl ay
Ġwar riors
field er
Ġprint s
Ġcrowd ed
Ġappl ause
Ġancest ors
ĠNich olas
Ġconspir acy
C I
J ess
L ondon
V an
V ill
g ic
l en
in ery
Ġd um
Ġwe eping
il ia
ĠT AKE
our ces
ĠG ay
Ġher itage
here nt
ict ions
anc ouver
Ġhome less
Ġear ning
Ġmar vel
aj i
ĠSh aw
Ġsw orn
ok er
Ġref e
Ġvill ain
Ġsun shine
Ġrob bers
Ġtemper atures
Ġcelebr ation
Ġrout es
itan ie
Ġdiam eter
Ġtim ing
Ġconsequ ence
ĠKenn eth
ĠWhe el
Ġted dy
ĠBund es
D E
G entlemen
M o
d em
g ow
l ater
y up
Ġs ings
Ġn aval
ĠS ally
ri ved
ĠB apt
ĠB iden
ĠP enny
ĠR alph
ig uel
Ġv oyage
Ġcomp os
we e
Ġhand kerchief
ĠMar cus
Ġlight ing
Ġtre nd
ĠGu inea
Ġmer c
amm ar
Ġcontract s
pro fit
ĠMag azine
Ġcere al
Ġcontribut ions
Ġlect ures
Ġdiplom at
Ġevident ly
ĠBeng al
ĠSaud i
Ġcourty ard
A li
D ay
G L
T ra
s al
y ellow
z illa
Ð ½
Ġb isc
Ġf og
ar ound
st age
ĠA P
ĠC ould
ĠM RT
ĠT ro
ĠP ied
ĠG riff
ĠR ena
ra eh
Ġman ners
ĠU H
Ġar ray
Ġcl erk
ĠCh ampions
we ek
iz zy
Ġper ce
ĠDe b
Ġ8 00
cy cl
Ġcor ruption
Ġmem orial
Ġhost s
Ġreb els
Se ems
ĠRock y
Ġmel ody
Ġhol idays
ĠSus sex
ĠLO VE
Ġelder ly
Ġflu id
ĠMaz raeh
ĠEnv ironment
Ġrefe ree
9 1
B L
J apan
c ott
m om
n an
Ġg um
Ġn iece
Ġre organ
ĠS ara
ĠT u
ĠP ier
ĠR ic
ĠN ash
ĠJ in
od or
ud der
ict ory
Ġapp rent
Ġper ception
Ġhand ling
br ush
az i
Ġbo ards
Ġsub stitute
ĠAp ost
ĠRe v
Ġbas in
com es
Ġengine ers
Ġcult ures
Ġdisp ute
ĠWall ace
Ġmanufact uring
Ã¢ t
Ġterrif ic
Ġsubstant ial
E ll
a ft
f old
m uch
p res
r ors
Ġb er
ĠM AKE
ĠT ru
ĠF ra
ĠN adu
el and
Ġ19 13
ĠE xt
so le
HE Y
Ġdef ensive
Who ever
Ġcontin u
Re al
Ġca f
min ster
Ġsqu ir
Ġfood s
Ġview ed
Ã¼ n
Ġbi ological
Ġchamp agne
ĠTw enty
ĠFil ip
ĠHoll and
Ġtrib ute
ĠLuxem bourg
m ers
p read
he nt
Ġbe w
ĠS OM
ĠD ist
ell er
Ġr abb
ĠF reedom
ĠN ort
ĠJ ob
ich i
Ġle isure
ĠCh all
erm aid
ru ctor
ĠTh ink
Ġbelie ving
Ġob ed
ames e
ĠCar ibbean
Re f
Ġrepl acing
ĠMiss ion
ĠBar celona
Ġport ray
Ġcred its
Could n
Ġcere mon
Ġchap el
Ġcommission ed
Ġbelief s
Ġmole cules
Ġsup erm
ĠFre ud
Ġadapt ation
Ġtremb ling
Ġjurisd iction
L ock
b ad
b ea
Ġb onds
Ġth omas
Ġj ar
ĠL iter
ard ed
Ġman kind
Ġbl ues
xt on
ĠMar io
OU GHT
Ġacc um
Ġdist inction
Ġ6 2
look ed
IT Y
Ġprop ag
ĠBlack y
asc al
Ġmechan ics
Ġgro cer
ĠNE W
Ġupd ate
Jac ques
Ġschol ars
Ġnaught y
ĠStew art
) "
B ETH
M ajor
S en
d amn
f olk
g al
v ous
ut ton
Ġre tained
ĠS S
ĠS ard
se mble
Ġab ilities
ig ion
Ġthem es
ang ar
ĠIn s
ĠY ale
Ġgu idance
ĠSh all
Ġfather s
RE N
Ġcoll eges
Ġbeaut ifully
Ġexper ts
Ġorgan ised
EA L
ID S
Ġstick ing
Ã¤ r
Ġacqu aint
Ġcompl aint
Ġaband on
ĠSher man
ĠMun ich
Ġsod ium
ladim ir
F ree
Ġthe rm
Ġst ere
Ġst ating
Ġst ored
ĠC ad
ĠG y
ĠG ang
ĠG iro
Ġr ag
Ġso b
Ġwill iam
Ġint u
ord ers
ced es
20 11
Ġdef ending
Ġmod ified
Ġinf ant
ides pread
Ġfight s
Ġgrand son
THE RE
ĠCom ics
Ġstrugg led
ĠSent ai
5 3
D irect
I mp
S ON
Y ES
nd ez
Ġy og
Ġhe m
Ġk in
Ġli ly
ĠD E
Ġwhat soever
ig ers
ĠE nergy
ect or
Ġgr ind
Ġbr u
Ġun incorporated
ĠUn it
port ant
Ġ18 00
Ġcur se
Ġquestion ed
Ġphys ically
Ġcoff in
Pro fessor
wr itten
Ġru ins
ĠRon ald
Ġadvert is
Ġpersu ade
Ġnickn ame
ĠNev ada
cliff e
d et
e ous
h or
h art
p m
s ch
on n
Ġc her
Ġd il
ĠM A
ĠM all
ĠM ath
ĠT W
ĠW ant
ge bra
ĠD ove
um ns
ĠO bs
ud ding
ru p
ĠAr men
Ġtri als
OR Y
ĠBl ake
Ġpat ron
ĠComm ons
Ġcry stal
Ġcirc ulation
Ġsal ad
Ġcy l
Ġdu o
Ġexperiment al
Ġrespond ed
Ġinterf ere
ĠLA UGH
ĠEngine ering
Ġgrat itude
Ġturt le
ĠLt d
% ,
B us
F ight
M s
M olly
T E
Y a
Ġs or
Ġp ine
Ġp ub
Ġhe ap
ĠT ak
Ġab bre
Ġsa us
ĠV in
Ġbl ah
ĠMar c
Do or
Ġage nda
Ġguess ed
Ġdin ing
Ġgen re
Ġesc ort
ID E
ĠColl ins
sec ond
Ġcollect ing
Ġspread ing
Ġqual ities
arring ton
add in
Ġstream s
ĠBank s
Ġwheel chair
ĠPlay Station
Ġrestaur ants
ĠFar mer
Back ground
Ġcolon ies
ĠDet ective
ĠSpr ings
ĠColomb ia
necess ary
C a
t em
in th
Ġf urious
Ġp ause
le ft
Ġwe ep
se ason
ĠM es
ĠP ierre
ĠW R
Ġsh h
Ġsh aped
ĠG ardens
ĠL ax
ĠR ub
Ġher d
ĠO z
og o
Ġmet er
Ġinf ect
ĠYork shire
ĠAb bey
Ġport rayed
cast ing
Ġaccident ally
Ġcru cial
Ġir rit
Ġsatisf y
Ġlabor atory
ĠDev on
ĠBor is
Ġborrow ed
Sim on
ĠRoll o
ĠPen insula
Ġforb idden
Lou is
Ġcompass ion
ĠPunj ab
ĠLeb an
gom ery
m un
m oon
Ĥ ¬
Ġt v
in ch
Ġd ense
Ġp istol
ic eless
ĠS Ã£o
ĠS ierra
ri ers
ĠA the
ĠM ol
ĠB ak
Ġse w
Ġse aled
Ġag gressive
Ġtw ent
oy s
Ġpart ial
ne g
Ġnever theless
Ġ6 9
Ġinf rast
Ġpat ri
gue z
Ġcor rid
Ġsol utions
Ġresp ir
ĠMc G
Ġcook ies
Ġsad ly
cast le
iction ary
ĠSte in
Ġdebut ed
Ġremain der
Ġtro op
Ġmagn et
Ġgall ery
Ġremind ed
ĠTy rol
Ġloyal ty
ĠKer ala
ĠFrances co
Ġrele ases
Ġfrank ly
Sho ot
Ġauth ors
ĠTun is
E ducation
at ar
Ġh ates
Ġl ocks
Ġg ent
Ġcan n
ĠN Y
ard i
ĠE VERY
Ġex clud
oll ar
pl us
Ġcont ents
Ġdis abled
Ġnight mare
Ġreg ards
Ġdist ress
Ġche ating
Ġmother f
Ġ6 7
Ġlight er
Ġhum ble
AR K
Ġexp enses
pr on
Ġclass ification
af a
Ġfarm ing
ĠME AN
Ġsens ible
Ġsevere ly
ĠJos Ã©
ĠREA LLY
Bre ak
ĠDyn asty
8 4
M od
N ah
x ide
Ġt ales
Ġh ither
al am
Ġse m
ĠW ere
ĠU m
Ġle ver
Ġdef inite
ING ING
Ġloc ally
Ġread ers
Ġsqu eak
Br own
Ġtext s
yl an
Ste ve
Ġpupp et
ĠDef ence
Ġneighbour hood
Ġhousehold s
Ġdistingu ish
B ri
B ell
B ull
C am
J ud
T ED
h ur
l ength
n ity
s weet
re a
at ra
Ġb a
Ġc hess
Ġm oo
ĠM ouse
ĠM arty
ĠB ubbles
ĠP ath
ĠP RE
ĠW ald
Ġpro hib
ĠU ntil
Ġle an
ire n
ĠV ir
Ġbl ade
Ġ5 3
Ġrel ate
Ġ6 1
Ġtest imony
Ġabs ent
Ġstar ving
Ġarri ving
Ġhy per
Ġcell ar
Would n
ĠGer ald
cont in
Pre p
Ġassess ment
A IT
E OP
I X
V er
b in
d irect
g iving
s wer
w on
Ġt ension
Ġs ins
ed ed
Ġto e
Ġe fficiency
Ġme als
ĠH ir
ĠL or
ĠU rugu
ci als
og g
ĠV ancouver
Ġday light
Ġsc re
Ġdraw ings
Ġhang ed
Ġpot atoes
Ġvol umes
Ġmis ery
Ġelement ary
Ġconsist ing
Ġvolcan o
Ġinher ited
ĠPalest ine
ĠSax ony
Ġparam eters
ĠOcc itanie
Ġenforce ment
Ġvulner able
D ead
H and
K iss
S EL
U C
W HERE
W OMAN
c orn
r ations
Ġs ne
Ġs aint
Ġh ath
st ruct
ĠC ode
ĠT odd
ĠR uth
ĠR ico
red it
Th irty
Ġhapp ier
ition ally
20 18
Ġgl anced
Ch ildren
ĠTr ade
Ġtem ples
ĠCap ital
Ġtrad itions
bor o
Ġclaim ing
Gr oup
Ġpurs ued
ĠJac ques
Ġflo ors
Ġunlike ly
Ġrein force
ĠWars aw
Ġvel ocity
Ġdistur bed
Ġrit ual
Ġdestro ying
ĠRog ers
c ule
m os
o ft
o ise
p ose
Ġc herry
Ġm ock
en berg
Ġe cho
Ġre vel
ĠS ide
ĠB ened
op l
ĠW H
Ġpl acing
ish ops
Ġen able
Ġsc hem
int on
Ġhand ful
gr im
Ġ6 3
Ġev olved
ician s
Ġpress ing
roll er
Ġbi ology
Ġminister s
Ġath lete
Ġclin ic
Ġentreprene ur
Ġsummon ed
ĠSoph ie
5 1
C DP
D istrict
F ore
H o
L ET
N ame
T Y
s ed
ĠS omme
ĠM ills
ĠP i
ĠF res
ĠN ixon
Ġout s
ail and
Ġdes erves
Ġcol umns
Ġprof its
eng u
ĠWar rior
IS S
Ġprop het
Ġdev ast
wr iting
TH ING
Ġpil ots
uls ion
Ġconsum ption
ĠKe ith
Ġsav age
ĠLeon ard
Ġfasc inating
Bea utiful
Ġsynd rome
anth rop
Ġtast es
4 00
S un
i able
l og
ê ¯
Ġf reed
ed a
Ġp ap
Ġl est
am y
ĠS oul
ĠC IA
ĠR ot
ĠN g
ĠE N
ĠK le
Ġro ast
Ġcomp onents
ĠIn g
ix ed
uss ia
Ġ9 4
Ġinter action
Ġpat hetic
Ġtreat ing
Ġarri ves
Ġstri kes
ĠSe oul
Ġharm ony
Ġ187 0
Ġcoast al
Ġwand ering
stan bul
Ġcooper ation
Ġpeek aboo
ĠPied mont
% )
A v
H ouse
L emon
g ren
it ic
Ġy um
as gow
ro e
Ġst ern
ĠM R
ĠB uch
ĠN aval
Ġint im
Ġqu ad
act ic
Ġim per
ec hes
Ġbu rial
Ġdes ires
ĠMar tha
gin s
Ġret ail
Ġret iring
Ġdirect ors
Ġtra uma
che t
Ġdam ned
Ġconv iction
ĠEm my
tr ans
Ã¨ s
ĠVen us
Cont in
ĠFinn ish
EOP LE
8 9
c or
c row
d ict
Ġl ust
Ġl akes
ĠS r
ĠM ap
ĠM ommy
ĠH APP
Ġli br
ĠK ash
ĠCh art
Ġbr ace
Ġcr ush
20 12
ĠAl bum
Ġprodu cers
Ġgener ated
ĠGr ay
Ġpartic le
Wh ose
Ġcorn ers
Ġrespons ibilities
Ġnecess ity
Ġperm itted
Am ong
LA US
Ġmo ist
Ġswall owed
ĠStand ard
oca ust
ĠVenez uela
6 4
C y
L ight
T ommy
Y e
t or
Ġw retched
Ġf ountain
Ġp uff
as i
ĠH ook
ĠT ib
ĠD ue
ĠR an
ĠN BA
Ġch oir
Ġout standing
He ar
ĠK ath
av in
Ġbl ocked
Ġcont empt
man y
Ġreal m
ĠSh aron
ale y
Ġsub mar
Ġpass port
idd les
Ġdra wer
ES CO
ĠCol in
ĠAd miral
ien ces
ĠSm all
AC T
Ġbow ed
Ġpray ed
ĠDes ign
Ġexam ine
Ġscream ed
Ġdepart ed
Ġash ore
ĠDi ocese
Ġbitter ly
ĠGreg ory
Ġelimin ated
Ġinher it
ovak ia
Ġumb rella
ĠBenn ett
L I
s im
t able
u ated
Ġt ire
Ġs unk
ĠA ude
ĠD AY
itt any
Ġtheir s
ov an
ĠY ellow
form ed
ON D
Ġdisc ont
Ġsent iment
iam ond
ĠPro ductions
Ġsum mit
aff e
Ġfund ed
Ġaffect s
ustom ed
Ġ186 1
Ġdelight ful
ĠJo an
Ġodd s
Ġmathemat ical
Whe never
Ġcateg ories
somet imes
rim ination
Ġathlet es
ĠKaz akh
oty pe
intend o
Ġfab ric
Ġconsec utive
Ġrefriger ator
6 3
M ain
l ied
o an
o ink
Ġto ll
st ory
st yle
ĠC and
ĠC ind
ĠM ey
ur bs
ĠT ournament
ĠP ow
ĠW ik
ra ight
urn ame
Ġad equ
Ġres ort
Ġcr ushed
Ġ9 7
ĠPro du
ĠAb u
OT H
Ar ch
Ġaut o
AL K
Ġrob bed
Ġcup s
Ġprint ing
Ġprevent ed
Ġrac ial
ĠGil bert
ĠPers ian
Ġdischar ge
ĠAzerbai jan
Ġhypothes is
A z
J am
d orf
r and
r ice
Ġt ut
Ġy ummy
Ġin k
Ġre vers
ĠS uz
ĠH erm
ĠH orse
ĠD ance
Ġr uff
ist ance
Ġal tered
ĠK ey
reat h
ful ness
br other
âĻ ¬
AN CE
Ã© l
Ġinc omp
Ġopen ly
Ġread s
ĠIs a
Ġconf ig
Ġsort ed
ats u
Ġspecial ized
ÃŃ t
ĠWell s
Ġsuper hero
Ġsepar ation
ĠReg iment
Ġkick ing
Ġpred ecess
Le ft
Ġinspect or
Ġcray on
ĠOrgan ization
Ġcoinc idence
) }
6 2
F C
H am
J un
Ġc ater
Ġm as
Ġp ac
Ġof the
ĠP il
ĠL ily
ĠJ eremy
Ġint eg
Ġar se
Th row
amp les
Ġam id
av ana
iss ions
Ġsc old
Ġsc ales
ĠUn iverse
Ġtri gger
Ġexp osure
Ġpri ests
ĠJack ie
Ġimm ort
Ġloss es
fess ional
Ġqual ify
ĠVal ent
ĠLu is
Ġlegisl ature
ĠRail road
Ġdomin ant
lar ge
ĠPlan et
tit les
G ame
m oo
u ish
Ġc emetery
Ġf erry
Ġy ay
ion ed
ri ages
ĠA C
Ġst ack
ĠC raw
ĠM ama
ĠH alf
ĠB ettina
ĠP el
th on
ig rated
Ġcon vey
qu er
res pect
Ġno isy
ĠK el
Ġpe an
ĠV el
pl an
IN S
ces ter
Ġgener ate
eth od
Ġpublic ations
ĠFl orence
Ġdest ination
Ġfail ing
Ġneg ro
ĠMad ison
mon th
Ġinvestig ating
LY N
Ġtransform ed
elf th
osa urs
Ġbon us
Ġcuri osity
ĠPeters burg
Ġpand emic
D arling
E st
b est
f ull
v ill
Ġs ciences
is ations
ing e
Ġon going
Ġre ass
ĠM umbai
ĠB ag
ĠB ET
Ġr ated
Ġr apper
Ġ( ).
ĠK LAUS
Ġar guing
ere lla
âĢĿ .
Ġco e
Ġend ea
Ġche f
Ġem ail
Al an
Ġcur ric
Ġprov isions
US IC
Ġmer ger
Ġvol t
Ġmix ture
Ġcup board
ĠRes erve
Ġintern ationally
Ġassum ing
ĠVen ice
Ġcig arettes
Ġsup reme
ĠRom ans
ĠWat son
Ġcraw l
ĠDID N
Ġpup ils
Ġmoder ate
Ġreli able
ĠChel sea
JUL lE
ĠKLAUS NER
; :
K e
h ome
w yn
Ġw idespread
Ġf ut
ro be
ĠC P
ĠT ab
Ġr otten
ĠR ound
ĠJ es
Ġwor ries
Ġcomp rehens
ĠV oice
Ġmar ched
Ġele g
Ġrel ating
ĠAs soci
Ch uckles
Ġcur rency
Get ting
Ġball et
Ġdescri bing
Ġdecl are
Sm ith
Ġbast ards
Ġing red
Ġdepos it
Ġstub born
ĠBundes liga
E ric
L isa
S ign
W orld
b ia
h ouses
Ġw ishing
Ġs hat
Ġb achelor
Ġm it
Ġm asters
Ġl aund
Ġn ig
ic ient
id ad
ad ers
im eter
ĠC hem
ill ance
ĠP ul
ĠP sych
ĠL ear
ĠF ried
Ġv ine
so on
cl amation
Ġpre st
br ing
Ġlight ly
Ġdeal er
Ġcor ps
hel m
Le on
Ġpump kin
Ġtur key
Ġcurtain s
8 1
G ar
K at
M em
R ussian
b ons
j ack
Ġl oses
ow l
Ġre hab
ĠM ason
ĠL und
ĠR ider
ĠF ull
ber n
ĠK ids
ag ar
iv als
ĠCh ad
oy a
ĠMar vel
ĠSh ould
Ġsing ular
Ġfr anc
Ġtop ics
ann atum
Ġforg iveness
Ġsun set
200 7
Ġsen ator
Ġconcept s
Ġpurs uit
Ġchat ter
Ġhyd ro
Ġvirt ually
Ġwrest ler
ĠOper a
Ġdeliber ately
ĠMaur ice
ĠWrest ling
Ġpropos als
( "
G i
G ro
c ore
h ales
i ors
k an
s peed
on ial
Ġd ual
Ġp ic
Ġhe ars
et a
Ġre nder
ĠS ey
Ġk itty
ĠH amm
ĠP ir
ĠP ick
ĠL an
ĠL omb
ĠN ancy
ers et
Ġout fit
ĠE P
ĠE ug
Ġsp otted
ec a
ĠRuss ians
Ġglad ly
Ġclos es
John son
200 9
ĠGl obal
Ġparticip ating
ĠArab ia
Ġscr ub
Ġjun ction
ĠInt elligence
Ġprofession ally
bet ween
Ġiniti ative
ĠAlber ta
ĠBuff alo
ĠTreat y
A my
b ot
c ross
d est
j oseph
id an
ĠS ign
Ġas cend
Ġnot ably
Ġsh riek
ĠL ocal
Ġ19 11
Ġv iolet
ĠCh ase
au er
sh aped
ult s
Ġfl ank
vel t
gr aduate
Ġele phants
Ġent ers
Ã© d
uss ion
ĠCan al
ĠThere fore
ĠMan agement
Ġworry ing
Ġview ers
ĠPol icy
Ġcharacter istic
Ġforget ting
ĠCr im
Ġattempt ing
Ġhistor ians
Ġneck lace
Ġpure ly
Ġhast ened
Ġpul monary
ĠStock holm
ĠTit ans
ĠKum ar
F O
F amily
H ING
M organ
O i
W HY
r ades
s er
s or
Ġa while
er ness
nd y
Ġm our
Ġth ieves
as el
Ġl n
ĠM unicipality
ĠB ose
ĠB ark
op ol
ook ie
ĠK ap
Ġcl ip
Ġover l
ĠY ang
ne ys
Ġlong ing
Ġpol ar
Ġche at
ok a
Ġsince re
Ġexpl aining
eter a
Ġcor rupt
ĠPl at
Ġappro aches
Ġdecl ined
Ġpark s
Ġparticip ants
gl ass
Ġshell s
Ġbrig ade
ĠNAS A
ĠBapt ist
6 9
M I
P ark
S pecial
S everal
U r
f aced
k ill
l ate
p ow
ĠA ctor
ch uckles
ĠP hoenix
art ing
ĠN athan
Ġgr in
ere rs
Ġun pleasant
Ġbl og
ĠTh ailand
li est
Ġacc us
Ġread er
ple x
ĠChrist ine
ann on
Ġdem ol
ĠTO O
Ġfast est
Ġep ic
ĠBel arus
rig io
ĠGrand e
Ġtarget s
Ġconqu ered
ĠSol omon
Ġspo il
Ġemphas is
Ġutter ly
Ġhoriz ont
Ġimmigr ants
ĠCommunic ations
Ġorph an
Ġinfrast ructure
B al
I l
N eed
c ro
ri ving
ĠM ort
ĠT all
ĠW ow
ĠD ragon
ĠF ood
Ġch orus
Ġshe lf
ĠK ang
itt ees
ous ed
ough s
oc y
Ġlea k
Ġreg ul
ĠInd eed
Ġhard ware
ĠBut ler
uc hess
Ġext rem
Ġgi ants
ĠOr chestra
ĠGu ild
Ġphys icist
Ġsick ness
Ġmarry ing
Ġtail s
Sc ott
Ġhonor ary
En joy
Ġprem ium
ĠLuc as
Ġbroadcast ing
ĠTw itter
Ġtim ber
Ġmort gage
Ġconqu er
Ġchalleng ing
ĠBern ard
Ġnickn amed
ĠLegisl ative
Ġsuspic ion
Ġware house
Ġdisgr ace
onom ous
. !
B ravo
H S
J e
O rigin
R am
V ar
h on
n u
er ie
Ġm artial
Ġp ence
et on
ĠC lement
ĠT oo
Ġsh ade
Ġall ies
Ġch oosing
ip edia
ish a
ĠV o
Ġdis ability
Ġres ur
ĠAl ger
Ġid le
arr ison
Ch uck
OR N
Ġsound track
Ġspecial ist
Ġrespect ed
Ġda isy
ĠPaul o
fl ies
Ġ190 1
Ġ190 3
Ġ189 0
vell ous
Ã± a
Ġplatform s
Ġliqu or
Ġdump ed
ĠFitz gerald
ĠHistor ic
Ġimprison ed
Ġtwe et
A U
C OM
L C
c ity
f ind
l n
Ġs ighed
Ġs omeday
ad vant
ĠA gr
Ġst eak
ĠC aleb
ĠH uh
ĠH AS
ĠB oss
ĠB oe
ĠD uck
ĠD ash
ĠL anguage
art z
Ġch ill
ĠO P
ĠO pp
ount ed
Ġgr ap
pl ed
Ġrel ieved
aj o
ĠSh an
Ġfr action
ĠInd ies
rist an
Ġref lection
Ġinf antry
Ġfree ze
Ġfree zing
Ġmag ical
Ġcat al
ĠEx change
CH UCK
GH S
het ti
ĠCarol ine
Ġcred ited
Ġsurr ound
book s
ĠRh ode
former ly
Ġimpat ient
Ġyog urt
6 1
L ive
M ENT
S qu
f orth
g ame
Ġl ac
ic ism
ro ach
ly de
st ed
ĠC ase
Ġha w
ĠG aul
ĠF ight
Ġtr im
Ġar bit
Ġback up
Ġgr im
Ġpart ially
Ġun ity
Ġfl ock
Ġname ly
Ġmet ropolitan
Ã© r
cri be
Ġarm our
che m
ĠSy ria
Bl ood
ĠSim p
Ġfirm s
ĠCom mer
Ġmagn itude
ĠMur phy
ĠPak istani
Ġneighbour s
worth y
turn ed
Ġinstrument al
ĠCzech osl
Ġpersu aded
Stud ent
Ġencoun ter
ĠLis bon
P ower
R hin
c ir
h ind
l ies
Ġ Âł
er ts
Ġp y
Ġg room
Ġn i
ĠI stanbul
al ways
ur an
Ġj une
ĠL oc
ĠE aster
ĠK irk
ach a
In ter
Ġfe ud
Ġmonth ly
Ġexpl icit
Ġsuccess ion
ĠHer cules
Ġdi agram
ĠSchool s
reg ular
Ġmad ness
ĠWho a
Ġaccident s
ĠSum er
win ning
Ġsignific antly
Ġcontr ad
App lause
ĠRon icky
ĠUp on
Ġrevolution ary
ĠVar ick
Ġclin ical
Ġprepar ations
ĠDer by
ĠMalays ia
ĠSOM ETH
D ev
e ffect
f urt
h un
h orse
p oss
s ight
Ġs ul
is ode
ic i
st ore
ĠH omer
ĠH OY
ter min
ĠP rest
Ġgo ver
ĠN ine
ĠN umber
est on
Ġwor m
Ġman s
ĠU tt
na ima
Ġle aning
ang o
Ġover head
Ġwr ist
Ġcar r
aw k
Ġer u
Ġcomm em
ye ong
Ġsk etch
ump ing
Ġsim ult
Ġleg acy
Ġorgan ic
Ġorgan ize
ĠMc N
Ġexc av
ĠLord s
Ġhy brid
Ġlim bs
atter ing
Ġmem br
Ġtrack ing
Ġ186 0
Ġremark s
Ġnarr ative
Ġstrict ly
Ġrib bon
Ġadmir ation
ĠCru z
Ġconvent ional
ĠBrig ade
ĠHOY T
D ick
P resent
f les
g od
p ill
Ġw aving
ll e
as ped
Ġg rill
Ġhe aling
et ies
ac ea
Ġdo ve
um m
ĠN intendo
ĠE sp
ide red
port ed
Ġhand y
anc ies
ĠPr ice
Ġhum id
OR D
ĠCar lo
Ġorgan isms
Ġpot ato
Ġden omin
Ġble nd
Ste ven
Ġghost s
Ġsuppl ied
bet ter
Ġanch or
Ġlou der
Ġelabor ate
A ud
R od
r ising
t ic
at isf
Ġc ogn
Ġg own
et ition
ĠS ighs
ĠH ope
ĠW or
ĠW HEN
Ġr ider
ĠN ed
Ġal oud
em aker
ĠK or
ĠCh a
Ġbl amed
Ġsw ung
ĠPr incip
RE D
ĠZ one
Ġinf inite
An thony
Ġrece ip
ann i
Ġcor poration
Ġtre asures
Ġsol ic
unt il
oose velt
ĠWith out
Ġconnect ing
Was n
yr us
comm on
Ġir re
ĠWOR K
Ġpip es
Ġvow el
Ġstead ily
7 1
D ar
M C
R C
c ies
e ur
f ashion
p ie
s ince
s pring
ã ĥ
Ġp seud
Ġy er
ow een
us sels
Ġwh ale
ge red
ĠG iant
Ġcan s
ĠL E
Ġcon son
qu eline
Ġpl ung
ĠO m
ĠE mma
Ġtr ous
Ġam mun
pl ant
Ġhand led
Ġcr ick
Ġdes erted
gg s
Ġdoub ts
Ġfoc uses
Ġcollect ions
Ġ190 7
Ġ190 8
Ġenv y
Ġhar ass
ĠSal zburg
ĠGer ard
Ġtal ented
enes is
every thing
ĠBudd ha
Ġswift ly
Ġpresum ably
Ġinsect s
Ġlux ury
ĠSlo ven
ĠSalv ador
8 00
D ie
E ddie
{ \
Ġb out
Ġo ct
Ġf oul
Ġon wards
ĠS ul
st orm
ĠP rigio
art ered
ip her
Ġper sec
Ġcomm un
form ance
ye o
AT HER
Ġpubl ish
Ġid i
Ġdisc rimination
Ġinter section
ĠPar amount
Ġmess ed
Ġappro ve
ĠMc Cl
Ġpriv acy
Ġvol untary
Ġjump s
Ġdiscuss ing
ij ing
Ġsignific ance
Ġdefend er
sell ing
Ġmort al
ĠFall s
Ġscholar ship
Ġnegoti ations
Ġris ks
Ġpremie re
Ġfoss il
ĠPear l
ĠTerrit ory
Ġcondu ctor
. \
C at
f red
h t
p sy
z heimer
Ñ Ģ
Ġb idding
Ġm orn
es ter
Ġg ut
ĠC inem
ĠD ol
ĠF ab
Ġch ampions
Ġdon ated
ia o
Ġhead ache
Ġsl ice
ĠFr aser
Ġmon sters
Ġrel uct
Ġem pt
Ġsk irt
hm et
Ġmiss ions
Ġaw fully
amb urg
Ġopp onents
Ġmunicip al
Ġkiss es
rain ing
Ġmass es
Sp eaking
ĠMont gomery
Ġphil osoph
ĠNE VER
ĠTay oga
Ġtor ment
Ġprosec utor
ĠOtt oman
ĠHug o
ĠCroat ia
Ġsurve illance
Ġsoph istic
Ġammun ition
C ourse
T ON
c aster
h orn
o ibi
s un
ou x
Ġs ib
Ġs urname
Ġo t
Ġc ad
Ġto wers
ar c
im i
ĠS ebastian
ell ar
est ion
em a
Ġor ch
Ġgr an
ĠV iv
Ġun w
Ġcont ribute
ors es
Ġsw ords
Ġmen u
Ġlist ing
ex p
Ġhalf way
Ġcreat or
Ġfell a
Ġoper ator
Ġste pping
Ġdel ta
Ġfast ened
Ġcand les
Ġhar bour
Ġ188 0
Ġce ase
Ġconsum er
Ġtrail er
Ant on
ikh ail
ĠBow l
Ġannoy ing
Ġpron ounced
Ġincl ined
Supp ose
Ġoverse as
D iv
M att
g one
k ar
p ath
Ġo d
Ġc avalry
Ġh ier
en o
Ġl il
Ġg ard
Ġg uts
ĠI daho
al ong
le z
im field
ĠA ction
ĠC rit
ith uan
Ġme lt
ĠB ath
ĠP M
ĠD onna
Ġr ides
Ġr ays
ĠN em
ĠJ enny
ig ma
qu ite
Ġpro ven
ang led
Ġun ions
ĠY am
ress es
Yes terday
ĠSh ar
Ġland mark
Ġmod est
Ġkid ney
Ġsent ences
ĠAll iance
Ã¡ s
Ġfail s
Ġfix ing
Ġeconom ist
Ġburn s
Ã¶ u
ĠCo ach
Ġprim itive
Ġ186 5
Care ful
Dan ny
Ġcorrespond ing
ĠMot or
ĠCare y
ĠBulgar ia
Ġcertific ate
c al
d an
d uck
d rop
g onna
s uff
in f
re p
it ol
Ġb ats
Ġb ureau
Ġh oo
Ġbe es
st own
ĠC arr
ĠM oney
ĠH ig
ĠB esides
Ġso fa
Ġex agger
Ġsp ear
ian c
ub by
ild e
ath on
air y
Ġrem oval
any thing
ĠBr istol
Ġfin als
Ġsub mit
Ġbre ach
Ġinter rog
Ġinter face
Ġfight ers
Ġcheck s
ĠGl asgow
wr ite
Sure ly
Ġcompl iment
Ġcrack ed
Ġresc ued
ĠMic hel
ĠSomet hing
ĠFa ith
Ġadj acent
ĠJama ica
/ /
M us
O ffic
R oy
S leep
e ast
f ig
s erv
Ġw ires
Ġf uss
Ġp ent
le e
ĠS ony
ĠM uch
ĠM aid
ur ring
ĠH unt
if teen
Ġnot hin
ĠT am
ĠP age
Ġcan on
ig ue
Ġgr apes
Ġgr asp
ne x
In ternational
ob by
ĠTh ou
Ġsub mitted
Ġfr idge
Ġwar fare
Ġrecord ings
ann ie
Ġpar as
co very
Ar thur
ND ER
Ġpot entially
Me et
Ġconnect s
pro of
ĠMag gie
Ġlog ical
ĠFer gus
Ġexpand ing
ĠSH OULD
Ġintegr al
Ġteen ager
Ġdepth s
tw enty
ĠCroat ian
Ġvoc als
ĠPLAY ING
Ġappet ite
E lect
I ÃŃ
r ust
s ized
Ġ ion
Ġt ires
Ġf oster
Ġl ined
al most
ĠS W
Ġwh irl
ro d
ĠW ong
ĠD A
ĠL iving
ĠF urther
ak ened
Ġar c
Ġback ed
ĠCh i
ĠCh itty
Ġqu eer
Ġam end
Ġbus es
Ġsqu eeze
ĠWest minster
Ġmass acre
Ġ190 4
Ġlif estyle
Ġqual ification
Ġinvent ion
Ġminor ity
Ġdescend ed
Ġsettle ments
ĠProtest ant
Prep are
B urn
I LD
L IE
R oman
d ep
Ġb ib
ac a
ĠC ut
ĠW onder
ĠR aven
art en
Ġal iens
ĠE ight
ous ins
ĠAl zheimer
Ġgl ow
Ġdef ended
Ġsk ip
Ġinter cept
ĠQ ing
Ġtra itor
Ġtra gic
Ġcontin ent
sc ale
Ġlay ers
Ġcat hedral
Ġrespect s
Ġsett lers
Ġnovel ist
Ġpig gy
Ġcelebr ity
Ġfeed back
EE P
Ġremind s
Ġneighbour ing
NE Y
sen al
ĠPot ter
again st
Ġsust ained
ĠJess ica
Ġnom inee
minar ayan
C ON
G un
G erm
N in
R yan
S W
T ay
d ro
d ec
l ot
r ina
Ġc akes
an ia
Ġh ack
ĠS it
ĠS peed
st all
ĠC ool
ĠC ulture
ĠM ovie
ol ics
Ġj olly
Ġr idge
Ġde eds
ie u
ĠF ifth
Ġso ber
Ġch ased
ĠK ir
Ġgr id
uck ing
pl ate
ict s
Ġres ent
ĠBr on
ĠGod s
Ġhard est
Ġtri ps
uff s
Ġed ited
Ġcontin ually
Ġinf ected
Ġquestion ing
amb oo
Ġorigin ated
Ġquick er
Ġsun light
Ã¼ h
Ġhost ile
200 5
Ġ190 6
Ġ186 4
vis or
ĠTy ler
Mad am
Ġchalleng ed
Ġwithd rew
Ġnort heastern
Ġscen ario
Ġassemb led
ĠEth iop
8 2
B illy
D i
H ur
J ason
N I
s aw
Ġs ighs
Ġh ive
Ġg azed
Ġhe e
Ġhe ating
ad os
ent in
ĠP ent
Ġsh o
Ġr av
Ġal ign
ĠJ esse
Ġsu cks
ĠO oh
od ore
ĠK i
Ġman e
Th ird
Ġam azed
Ġsw am
Ġpop ulations
Ġfact ories
ĠCl a
Ġtop s
che ster
irth day
rit ers
Ã¡ r
Ġrul ers
THE R
Ġdig its
Ġfool s
Ġtour ists
Ġpray ing
Ġtend s
Ġtend ency
Ġamb ition
Ġadvant ages
Ġnurs es
Ġtransform ation
Ġsubt ract
ĠCub an
Ġfold ed
Ġlegend ary
ĠOper ation
Ġpour ing
Ġtrous ers
: )
T ill
Z Z
r ative
Ġ ze
Ġa is
Ġm asc
Ġl aser
Ġn ode
et e
Ġe ve
Ġst are
ĠC rist
Ġare na
ĠP am
ĠG ates
ĠE ver
ick le
Ġdis ob
Ġ18 50
Ġel bow
Ġrest less
Ġtri ang
Ġexpl ode
An na
An swer
inc inn
uk u
ĠSen ior
Ġroll er
Ġver dict
pro bably
Ġtrick y
Ġcompl ained
Ġcompl aints
Ġlaws uit
Ġgrab bed
Ġachieve ment
Under stand
Ġdemonstr ated
ĠDa ily
ĠIndones ian
Ġarrow s
Ġbrid ges
Ġmaj esty
ĠAthlet ics
Ġsurviv ors
Ġrebell ion
ĠShir ley
Ġmisfort une
ĠBened ict
B ODY
S et
W N
Ð ²
Ġw ool
on er
it ating
Ġf el
Ġf ug
Ġd orm
Ġg ri
ld om
ĠC HE
Ġsh irts
qu in
Ġor b
Ġsp ont
Ġtr aces
Ġun con
ty pe
Ġres umed
br and
St upid
ĠCar roll
ĠRe ed
ĠRe ich
Ġrece ives
Ġ-- &
Ġrad ar
off ee
Dr ink
Ġbomb ing
Ġwitness ed
Ġprogress ive
ONE Y
ĠCamp bell
Ġsail ors
Ġbord ered
care ful
Ġric hest
intend ent
ĠPra gue
Ġdynam ic
ĠAnim ation
ĠSud an
J UST
K a
O F
P ink
V A
l iness
Å Ħ
Ġt att
ar am
et an
ĠH ank
ĠT oy
ĠThe ater
em ale
Ġover t
og i
Ġun believable
iss ors
Ġcr iter
oot y
Ġacc ustomed
Ġche ering
Ġsub urbs
ok u
Ġcol ored
Ġleg ally
Ġpublic ity
Ġap ology
Ġmid fielder
ĠPort land
Ġcontact s
Ġmaid ens
Ġess ence
Ġjournal ists
ĠMer cedes
Sam uel
Ġdomin ated
Ġsubs idi
ĠSant i
Bar b
Work s
Ġcou ples
Ġrevol t
Ġparliament ary
Ġeager ly
Ġbark ing
Ġdecre ase
ĠInf antry
ĠOtt awa
ĠAndre a
Ġenthusi asm
Ġacknowled ged
Ġclo ak
7 3
7 9
B ern
D ep
H ung
J ake
b ear
f ol
v ised
Ġb reeze
Ġf ier
Ġl an
Ġg rip
le ave
ĠB orough
ĠP ic
Ġ" ",
ĠG oth
Ġab used
ĠJ ennifer
Ġsp ray
ĠSt ay
Ġover night
iz ar
ĠY EAR
Ġneed n
Ġmake up
Ġmar ine
Ġpop ulous
Ġrest ed
Ġequ ations
Ġpresent er
amb ia
co ff
Ġsqu ares
Ġbas es
ribut ion
sp eak
Ġrid ers
Ġfoc using
Ġaud ition
Ġwat ches
ĠChe ster
Ġsusp ension
ĠStud io
Ġplain ly
Ġchemical s
Ġdraft ed
greg ation
ĠContin ues
Ġtheore m
Ġtribut aries
Ġorg ans
l ical
w ic
Ġc ited
Ġd ip
Ġl ingu
ĠI sh
Ġfor cing
ĠP H
ĠD R
Ġr ains
ĠL enny
Ġby pass
Ġcon clus
Ġpro x
ick er
ci um
Ġback ing
ans k
oc o
Ġcar ved
Ġind igenous
Ġreal ised
Ġbre asts
Ġspe cially
Ġfell as
ĠRe becca
EN CE
Ġorigin s
ĠSe ason
Bl oody
200 6
ĠBo oth
Ġjournal ism
Con f
Ġmut ual
Ġcart oons
ĠPan ama
ĠLiber ty
Ġconsult ant
Ġkidna pping
ĠBos nia
ĠNap ole
Girl s
Ġtribut ary
Ġdict ator
ĠMarion ette
Ġcorrid or
" --
B rian
F ull
S av
g ments
h app
p ic
y u
ã ģ
Ġ iv
re b
Ġw ander
it ational
en stein
ĠA ges
oo ped
ĠH ob
Ġr amp
Ġr ash
ĠL oren
ĠR eb
os o
Ġv ag
Ġar ise
Ġcl aws
Ġsomet hin
be e
Ġfl own
Ġrec ipe
any a
Ġsl aughter
let t
ĠWar grave
che ck
ĠHer o
200 1
ĠGl en
Ġhors ie
Ġcustom s
Ġacqu is
Ġqual ifying
Ġspell ing
Ġbother ing
Ġpassion ate
ĠUN ESCO
Ġvirt ue
Ġcheer ful
Ġelev ation
Ġpa used
Ġsan ct
Ġindic ates
Ġunemploy ment
Ġwip ed
Ġcrocod ile
L S
L ucky
S aid
f i
er ver
Ġb ol
Ġd ys
Ġd imin
Ġl oser
Ġbe held
ĠR est
ĠR ace
ĠF R
Ġcom a
Ġcl uster
Ġgr ants
act ions
Ġam pl
ens en
Ġcr ab
ĠDe ep
oun cer
Ġsw ore
Ġsw amp
Ġinc orpor
Ġ7 00
Ġdirect ing
Ġimp ulse
Ġremember ing
pr ints
Ġequ ipped
ĠBe ijing
lic ation
Ar r
light s
200 8
Ġur ged
Ġlog o
198 0
Sec ret
ĠSP EA
ĠHind i
ĠCard iff
ĠFel ix
ĠLo ire
ĠSimp son
ĠUtt ar
E X
J osh
g ence
i ology
u ate
u rop
Ġo gre
Ġp arrot
ĠS ite
ĠA G
oo ping
ĠC emetery
ĠM eg
if ier
Ġat om
ĠT i
ĠT roy
ĠT rib
ĠD ays
ĠL ex
ĠR oosevelt
ĠJ oint
Ġsu e
Ġno bles
ag ging
ag hetti
Ġint est
act ually
ark ed
sh ake
Ġunder wear
iff s
vel ope
Ġind ign
Ġrel ay
eg u
Ġunderstand s
An ge
ices ter
Ġvar ied
Ġarm or
Ġ190 5
199 9
Ġregard less
Ġreve als
IR ST
ĠHol ocaust
Ġspell ed
Should n
ĠAss istant
Ġsout heastern
ĠSom erset
Ġanth rop
ĠMorocc o
Ġcommem or
C amp
D ec
K ind
L u
P T
d one
er oy
Ġh atch
Ġl os
Ġg az
Ġhe ck
Ġfor k
ir us
ĠC ouncillor
Ġan ime
Ġgo ss
ĠW ea
un ty
Ġout break
ag les
Ġany time
ĠCh ang
ĠV ent
hy l
ĠUn like
Ġac ute
Ġel ite
Ġprom ising
Ġpri zes
cient ific
oub ted
ks and
Ġphot ography
Ġmach inery
ĠAnge ls
Ġ190 2
Ġ190 9
vere nd
ĠGer da
Ġax is
Ġgraph ics
Ġcalcul ated
Par is
nold s
Ġaston ishment
Ġkilomet res
ĠRaw lins
Ġmurm ured
ĠShel by
incinn ati
D ouble
P ay
R om
W ood
Ġb olt
Ġc ripp
ing le
Ġn an
Ġn od
ac ular
ĠS old
Ġwh ir
ĠA na
ĠM U
ch anted
ĠP oor
ĠR idge
qu ack
Ġex ile
ĠK o
Ġro ar
pt on
Ġam using
Ġcr umb
Ġdes erved
gr aph
ĠSh ip
Ġdem ons
Ġlo ans
Ġchick ens
Ġsle eve
Ġphil anthrop
Love ly
ĠBroad casting
Ġcoal ition
Ġspons ored
Ġsty les
Ġdisgu ise
Ġbegg ar
ĠCurt is
Ġgrap hic
7 4
D ean
G ER
K en
V ES
W in
c ard
k iss
m ia
à ¥
re qu
Ġs izes
Ġf itting
Ġd ash
Ġto ken
Ġy ell
Ġan ts
ĠT ag
Ġsh ovel
ĠG and
ĠR ita
ĠJ ava
ĠJ asper
ĠK rist
Ġtw ins
end ers
we ed
old s
Ġcomm unist
ĠNew ton
app le
ĠBut ter
Ġri ots
ĠQ U
Ġann ually
oub t
Ġrespect ive
200 4
Ġemploy er
ux ili
Ġdefe ating
ĠIll ustration
Ġpred icted
Ġacqu ire
UR N
ĠJul ian
Ġterror ists
Ġcomment ed
Ġvirt ual
Ġdescend ants
Ġdisappoint ment
Jul ia
Ġcert ified
ĠJon athan
mind ed
ĠAqu atics
yram id
Lemon is
" "
F all
J ones
P ierre
S ex
T ed
l ov
v re
z eg
Ġa y
Ġs iege
er red
Ġb inary
Ġc ort
Ġf ist
or is
ĠA x
ĠC ave
ĠM oses
ĠB arr
Ġse ize
un ciation
ĠG osp
ĠF ig
ab as
ab ol
Ġal gebra
ig ible
qu it
Ġpl ague
ĠK ur
ous y
Ġgr ades
ĠV or
Ġpre jud
Ġrec ruit
ĠAl addin
Not e
Ġref erences
Ġadd s
Ġshall ow
Ġprom ot
OR RY
Ġless er
200 2
Gr ab
Ġcollect ive
ĠAct ress
bel ix
Ġmathemat ician
Ġrac ist
Ġtort ured
Ġbul k
Ġelimin ate
Ġexclus ively
ĠHaut s
Ġembr ace
Ġsuperm ark
SEL F
E le
J eremy
M ade
S ad
d omin
l oo
is co
Ġd amp
Ġd iverse
Ġwe ed
ĠC e
ĠC ALL
ĠM AY
Ġr ay
Ġcom in
Ġpr ick
Ġen velope
IT E
ĠPresident ial
Ġprocess ion
Ġmem or
ĠRoman ian
Ġsepar ately
did n
Ġinterview ed
Ġrub bed
ĠGeorg ian
ĠColumb us
ĠFour th
Ġelev ator
ĠChap ter
Ġsumm ary
ĠElect ric
ĠCir c
ĠRoc hester
Ġdent ist
Ġsubmar ine
R en
R oyal
S and
b ill
l isted
Ġt ips
Ġh ats
Ġd ess
ĠB aba
ust y
ist on
ie g
ĠE ss
ĠV ance
ĠV illa
Ġpart ed
av ian
Ġfe es
Ġres erved
Ġfl ip
ah l
Ġbo iling
Ġsing ers
Sh ort
Ġconf using
Ġmod ule
ĠAp ollo
Ġmain land
for ced
Ġoper ational
bo ards
com ed
Ġgrand pa
Mar ia
rain e
Ġinflu ences
Ġut tered
ĠDen ver
Ġautom obile
ĠDar cy
ĠNat ural
Ġphenomen a
Ġpor ch
ĠNap les
Ġaccord ance
Ġtempor arily
ĠBald win
Ġlaund ry
ĠBoe ing
D oc
V ol
f ounded
g room
l ady
at em
Ġm aker
Ġp ion
as in
ow e
Ġhe ed
Ġst ool
ill ian
ĠD ale
Ġr ows
ĠL iz
os om
Ġcon sole
Ġman agers
Ġoff ense
omet own
Ġbl oom
sh oot
Ġmin istry
Ġmon ks
Ã© m
AR S
Be en
Ġbar rier
go vernment
Ah h
ĠHar bor
Ġtechn ologies
ĠPer th
ĠMad am
Ġmis chief
God damn
Ġhost age
Ġcommand s
Ġrain bow
Ġneighbor ing
ĠEll en
bu ilding
Us ually
Ġprote ins
Ġsna pped
Ġcha os
Ġoverwhel ming
ĠBatt alion
imens ional
Ġcler gy
ĠWik ipedia
Ġhorizont al
ĠAgr ic
; "
D Y
P o
S ol
W ashington
l N
r aint
t ogether
Ġw aking
Ġc reek
Ġm uff
an an
Ġh int
ĠS M
st ep
Ġme nd
ĠT ian
ĠP O
Ġgo ats
ist ocr
Ġv est
ĠK in
Ġpe ck
ĠV ideo
Ġsc ent
orm on
Ġcar ing
gr aded
Ġmar ching
ib a
Ġmat ure
Ġpay ments
eng ine
Ġorgan isations
ĠÃ ģ
ĠDO ES
Ġflo at
Ġfro st
ĠRevolution ary
Ġillust rated
ĠNAS CAR
Ġadvis or
hoe be
Ġpian ist
Ġmembr ane
K evin
L eg
M oh
M ama
N ic
R os
c ony
f u
r imin
Ġm i
Ġd ing
ic les
ĠM onsieur
ĠH us
ĠB enson
il ian
ĠW a
ĠD est
ĠD awn
Ġsh ove
Ġsh udder
ĠL ithuan
ĠR ama
ĠF oster
ĠN on
ard y
Ġout line
ĠE t
ĠE instein
Ġsp ill
Ġno ises
ud ed
ĠSt ars
ĠCh uckles
amp a
ĠV ladimir
oc us
pl ain
ho on
Ġinv aded
Ġborn e
Ġlater al
Ġtown ship
Ġloc omot
ush i
Ġelect ro
Ġshort s
Ġbox ing
ĠFl ower
Ġsun ny
Ġrad ius
Ġeduc ator
Ġaccept able
Ġrelig ions
Ġfac il
Br id
Ġcivil ians
Ġdiscuss ions
Ġrain fall
Ġsens ation
Ġscreen play
Ġren ov
Ġsuspect s
197 0
ĠTrans it
Ser geant
cript ions
Ġdecor ated
ĠJam ie
pent er
Ġmyth ology
ĠMatthew s
ĠBuddh ism
Ġmanufacture r
ĠCamb od
Ġvolt age
Ġgard ener
. -
2 50
C atch
F ifty
S M
W olf
r ÃŃ
Ġm arty
Ġg aining
ent ry
ĠC ord
Ġha bits
ĠM ul
ĠH il
ĠB achelor
ĠP ay
Ġkn ot
th s
ĠD isc
Ġj aw
ĠG ate
ĠE ston
Ġv ivid
Ġsome place
iv ic
na i
ans om
per ing
av ier
Ġdis k
Ġele ctoral
rew s
app a
Ġtri ll
Ġri fles
ĠRe f
Ġprot ocol
Ġten ure
ĠTH OUGHT
Ġprogram mes
ĠBar ack
With in
ĠHer bert
ĠMan ipur
Ġran ch
ĠMc L
Ġinvest ors
Ar ab
199 7
Ġpath s
ĠCamp aign
Ġintegr ated
Ġframe work
Ġconqu est
found er
Ġanaly st
Ġalph a
ĠIndepend ence
Ġdisag re
ĠSpeak er
Ġtransmit ter
Ġacquaint ance
Ġschem es
ĠSanti ago
E xt
S EE
T a
n ame
v ie
Â Ĵ
Ġc ens
Ġc ope
Ġf ag
Ġh ometown
ed o
Ġd y
Ġd ots
Ġth ither
Ġg aze
all i
ch urch
ĠB oo
ĠW ang
ass an
Ġcomp romise
fore st
sh irt
ug u
IN T
ĠAr ound
Ġri pped
wh ose
Ġpresent ing
Re ception
ĠMan uel
ĠLea ve
ĠEx cell
back s
199 0
Ġ189 9
Ġmoon light
ateg ory
sm all
ĠCat al
ĠHel p
Ġexpress ions
igg le
Ġcontain er
ĠMir anda
Quick ly
Ġcam el
Ġgreed y
ĠFerr ari
Ġsophistic ated
A men
A II
D un
E arth
L o
M ommy
S G
d raw
e lected
j ob
l aim
Ġt ones
Ġl ame
im er
ĠC incinnati
ĠM ick
Ġse iz
Ġgo sp
ĠD im
ul ia
Ġr attle
ĠN ova
ab ul
ap est
Ġpl ed
ĠE ye
ĠE sc
Ġv ault
ĠK urd
ount ered
ĠV iew
ne ed
Ġgu ided
Ġser geant
Ġpo ets
hes is
ĠMar co
Ġche ated
Ġac ademy
Ġreal istic
Ġass isted
ĠPr ison
AT ER
rop he
Ġhum our
Ġguess ing
Ġvar iation
Ġnorth western
Ġteac hes
Ġcry pt
ĠTe acher
Ġactiv ists
Ġtour ing
Ġdeterm ination
ĠTur in
ĠEr nest
ĠDes ert
ĠHon our
ĠDen is
ĠVictor ian
Ġappl ies
Ġalt ar
ĠHur ricane
Ġmos que
Ġtack le
Ġtwent ieth
, ...
6 00
A le
G en
W H
c all
i ated
z ens
Ñ ģ
on nie
Ġd azz
Ġe go
ĠS ullivan
se nd
Ġst er
Ġan onymous
pp y
ig ator
Ġsa fer
ak ov
ff ield
per haps
Ġcont rolling
Ġpre lim
Ġend ure
Ġcare ers
Ġchar ter
Ġfoot steps
ĠCon c
look s
la ura
Ġep id
ĠSer ge
ĠCo hen
ĠGl obe
Ġpred omin
Ġgradu ating
Ġprem ises
Ġmut tered
Ġscream s
Ġaltern ate
Ġlegisl ative
Ġperman ently
Ġsculpt or
Ġdemonstr ate
Ġprosec ution
Ġstab bed
Step hen
Ġfrag ments
ĠFle et
ĠMerc ury
ĠLim ited
ĠPhys ics
Ġprivile ge
ĠPhill ips
Ġgest ure
haus en
Ġcarr ots
N C
P C
S em
S wing
W all
d ia
f ollow
g ies
h og
l iter
r ake
s orry
Ġb arr
Ġp udding
al g
ĠS aid
ĠA ld
Ġst out
Ġst ability
ĠH mm
Ġdo d
ĠP le
ĠW ord
Ġne ural
Ġcan non
cc ane
Ġinv al
Ġrep ubl
ĠBl ood
pr us
mm et
ĠBe ing
ĠLe v
Ġill eg
Ġsn akes
Ġdoub led
200 3
ĠMil ton
Ġ189 8
Ġstreng the
Amer ica
Ġcomplet ion
Ġwebs ites
Up on
Ġathlet ics
Ġabsor bed
Ġpear ls
ĠLyn n
REAM ING
ĠChall enge
D ave
G re
N ine
X X
b elt
c ulation
h agen
m el
p aper
Ġt an
in ia
Ġl ament
Ġn avy
al om
ĠS K
ĠS weet
ri ke
ĠC ultural
ĠM ann
ĠB in
Ġse mes
op al
ĠR hod
ĠF ly
Ġout rage
erm o
Ġsc ree
Ġche que
ex cept
ik ing
ĠCl aud
Ġexp end
Ġbro om
Ġspe eches
Ġconcer ts
Ġsex ually
Ġgrad uation
Ġproduct ions
fl ower
ĠON LY
Ġsal mon
ĠCong o
Ġdemand ing
Ġhar ness
Ġ189 6
Ġ187 1
Ġdisp osal
osop hy
Ġflag s
ĠRaj a
Ġheav ier
Ġmole cule
anÃ§ ois
B oo
H or
O t
R ain
b uck
m ove
Ġb amboo
Ġd uke
as se
us a
ion a
Ġe uro
ĠS aw
ĠC AP
ĠM eanwhile
ĠH az
ĠP ab
ĠD I
ĠE qu
ink led
Ġdon t
Ġint imate
ĠU g
Ġcomp elled
Ġplay wright
Ġsc ope
ull ah
Ġpo ker
ĠTh under
Ġtalk in
gin ning
Ġsy ll
Ġbo ar
ott le
Ġcons ented
Ġgl obe
ex per
att i
ik on
ĠCl ara
ĠCl aus
Ġprom oting
ĠBl oom
ha ired
ien ne
Ġinvest ed
Ġstri pes
Ġsad ness
Ġobs erving
Ġemploy ers
ĠReg ister
Ġenc ountered
Ã¨ res
Ġsle nder
Ġcompl aining
rif ied
Ġkingdom s
Sm all
Jack son
ĠProt ection
Cor rect
Ġastron aut
Ġoccas ional
Ġcoordin ates
Ġerr ors
ĠStat istical
ĠGene va
ĠProp het
Ġinev itable
G RO
M ir
c oll
f inal
l ived
p upp
r ates
Ð »
Ġm ermaid
Ġd itch
as ma
Ġin ducted
Ġg inger
ĠA er
ĠJ azz
ĠE annatum
ĠK ul
Ġwhen ce
kay a
ĠV ers
hy la
iz ier
Ġrep ay
Ġbad ge
Ġdoor way
Ġprob able
alth ough
Ġpast or
Ġve il
Ġdraw s
amer a
Ġadm ired
Ġdecl aration
ĠCr ane
Ġadminist ered
abb ar
Ind ian
ĠOs lo
ĠMo z
Ġmeas uring
ais y
Ġconflict s
Ġcalcul ate
ERS ON
Ġfulf ill
Ġgalax ies
ĠWes sex
Ġrenew ed
Ġcasual ties
Ġrig id
Ġmamm als
ĠSOMETH ING
E p
H al
P y
a ah
g old
p y
Ġb acon
Ġc av
ic ations
ver ted
ur red
ĠH ond
ĠB ever
ĠW oo
ĠD oor
ĠG ust
Ġcom rades
Ġsu ite
Ġbut cher
ĠO g
ĠE un
ag i
itt a
Ġhas h
Ġar rog
Ġcl utch
Ġro pes
ans wered
ĠIn formation
iz ations
sh ore
Ġacc laim
Ġbo il
ok o
AT O
ĠIs n
ins ky
Ġcor pse
Ġste ering
ĠLe ft
ĠPl ant
ĠFl oyd
Ġsell s
ĠMon aco
ĠSte el
Ġ188 7
Ġwilling ly
AB Y
ĠMax well
Ġsail or
ĠBor g
Ġbra kes
ĠRem ember
Ġavo iding
ĠYugosl avia
L l
N ar
m ons
s ign
Ä Ł
Ġt ourn
Ġthe ft
Ġthe sis
Ġs ulf
an oid
Ġg azing
om beh
ad ise
ĠS alt
Ġat omic
ĠP ing
ĠW l
th ood
od ing
Ġpro claimed
Ġpe er
ĠV ern
ĠV II
Ġam us
land er
Ġreg ulation
Ġac res
Ġbook ed
Ġcons ervation
Ġinst ructor
ĠSp ider
Ġart if
Ġconf essed
Go vernment
Ġmiss ile
An ne
fe el
Ġsol ving
Ġhot els
ĠAm azon
ĠHar per
Ġcal cium
Ġdin osaurs
Ġcourt esy
Ġlik ing
Un like
Ġsuggest ions
inn ie
Ġrank ing
abb ath
Ġconcent rated
Int erest
ĠGree ks
Ġris en
Ġske leton
ĠTol ombeh
Ġtoss ed
ĠOrigin al
Ġcompens ation
Ġtel esc
ĠUrugu ay
ĠFergus on
B reat
B arry
F a
G row
J erry
w il
ã Ĥ
is ive
Ġd ances
om ers
ow ard
us c
am on
ĠS EC
ĠC u
ĠC ond
ĠP resent
ol an
ĠL aughing
ĠR ing
ĠN FL
Ġthere by
ap ur
ide on
Ġar ter
ĠV ERY
les i
ember g
ĠAl ong
ER ING
ĠSh it
Ġmat t
ĠCl iff
Ġinter vention
ĠSc out
Ġround ed
pr int
ĠTr in
Ġconst ell
Ġ14 0
Ġrock ing
Ġexpect ations
LE ASE
Ġpot ty
Ġspace craft
ĠSer bia
play ing
AD Y
Ġaud iences
about s
Ġow ed
ĠGi ants
ĠSant os
Ġalgorith ms
Ġiniti ated
Ġâ Ī
SP EA
Ġfulf illed
Ġobey ed
Str ange
Ġlob by
ĠGab riel
ĠEconom ic
Ġgeomet ry
ĠAthe ns
Ġmans ion
F riends
N a
T re
c m
s ame
Ġ Ø
Ġs inking
ing en
Ġp ots
Ġl ent
id ated
Ġre un
am ble
Ġst unt
ant on
ĠW u
ĠD re
ĠD erek
ĠG REAT
ĠL au
ĠL ONG
ong s
Ġsp okes
Ġle aned
ci le
ĠCh loe
Ġad s
Ġres olve
Ġsupp orter
ĠSh iva
olog ically
Ġrep ent
Ġsk illed
Ġread ily
ĠIs abelle
Ġri ot
inc ing
Ġpick s
Ġtou ches
Ġbird ie
Ġra is
ĠWell ington
Ġcross es
Ġworth less
Ġobject ions
arth y
Ġkey board
ĠGl ass
Ġaffect ing
Ġestabl ishing
199 5
Ġparticip ation
ĠGO D
Ġslight est
Ġeth ics
Ġbal cony
ĠStan ford
Ġfan ci
Ġintegr ity
ĠTra il
Jul ie
Ġrot ation
Ġsufficient ly
ĠKy iv
Alp es
Ġorn ament
Ġscre ens
Ġcomprehens ive
A unt
H um
I an
J IM
T aking
b ug
m orning
p arty
r ams
t old
u ver
at hetic
it ations
Ġb ou
Ġb ait
Ġh alt
Ġl ens
Ġg ir
ow ards
gh ai
ĠS all
ĠA GA
ĠC ort
ĠH od
ĠP av
op ic
ĠR ush
ĠF ired
ĠN ear
ĠN eed
em b
Ġ( _
Ġshe er
ind eer
Ġbr ows
Ġsc out
Ġsc rat
Ġthr ows
Ġunder lying
any on
ĠBr imfield
Ġmar vellous
Ġpop ped
uff y
Ġed iting
Go vern
ĠTH ING
Ġbar on
aly n
Ġshoot s
Ġshoot er
bor g
Ġviol ently
ĠMon k
ĠBy z
Ġlo ft
ĠBer g
Ġnomin ations
Ġreview ed
Ġhun ted
Ġtall est
agon ist
Ġign ored
Ġtal ents
ĠMah ar
Ġdiscover ies
mag Ã¼l
ĠParalymp ic
Ġdistinct ive
Ġrum ors
Ġaccur acy
ugg age
ĠAut o
Ġrestrict ed
Ġrele asing
alp ine
ĠLeban on
Ġcriter ia
Ġlan tern
. ?
G ee
G osh
K ids
P oint
c up
r ament
u ity
v ich
Ġf ishes
Ġp ains
Ġp ooh
Ġl oos
im en
ir s
Ġst ag
ĠC ell
Ġse ldom
ĠT ristan
ol and
ĠD ylan
ĠD iamond
ĠR i
ĠF UCK
ĠN in
Ġsu ited
ĠE ar
ast ard
Ġno b
Ġany how
te xt
pe es
Ġlea ped
ret ion
ĠAn j
Ġcoll ision
Ġclear ing
Ġshut tle
Ġaut hent
ĠRepublic ans
Ġ188 5
Ġreported ly
Ġguard ed
ĠSand ra
ĠBet ter
Ġdetect ed
Ġeditor ial
Ġconsum ers
Ġexhib it
Ġearn est
CA IT
Ġtradition ally
ĠBad en
Ġdesper ately
Ġancest ry
Hon estly
Ġuncertain ty
Ġveter an
Jos Ã©
Wal ter
Ġtox ic
Ġori ent
D eb
P an
R aj
t re
Ġ ll
er als
it tering
Ġb ob
Ġm es
am eless
ĠC elt
ĠT ry
ĠP oll
Ġsh ipping
ist le
itt ens
ick ers
ov anni
uch i
Ġsc issors
Ġrec alled
ĠAr med
Ġsl ain
St raight
ener ally
Ġinst ances
iet ies
Ġdisc ount
Ch icago
Ġ10 1
do ing
Ġjo ins
Ġequ ality
Ġfire works
Ġdesign ation
ĠBar ber
Ġdark er
Ġauthor ized
Ġbank ing
Ġhy ster
Ġobs essed
Ġproduct ive
Ġwel comed
Ġcampaign s
Ġcelebr ating
Ġgoal keeper
Ġpositive ly
Ġaddress es
Ġmir acles
ĠRec ord
Ġspr ings
Ġvac uum
Ġninet eenth
Ġimprove ments
Ġstab il
Ġdiplom atic
Ġintent ions
ĠSid ney
ĠBomb ay
Ġcongrat ulations
ĠSaf ety
Ġhunts man
Ø§ Ù
Ġmotherf ucker
Ġsubsidi ary
P romise
P roduction
S ean
g as
n ell
o oming
w y
Ñ Ĥ
Ġt un
ou ched
Ġb od
Ġp enn
Ġn omi
ay ette
ent ive
ĠS z
ĠM ut
ĠM iles
ur ai
Ġse als
hat e
ĠT ir
ĠW on
ĠG row
Ġcan ce
Ġch ambers
Ġpl a
ast on
Ġv it
Ġtw elfth
ĠSt ra
ov in
ĠV all
Ġim perial
cl ed
Ġdis advant
Ġunder water
Ġlong ed
Ġdiff er
Ġsl ower
ph is
ret urn
Ġimportant ly
Ġthank ful
cent ral
sc reen
ĠSy m
Ġstick y
Ġlo af
Ġlock er
Ġtight ly
ĠCH AR
ym ph
Ġvent ric
Ġflood ing
Ġreact ions
ĠCorn er
Int o
dr ama
Ġric hes
Ġexha ust
ĠPalest inian
Ġacknow ledge
ĠBeat les
Ġbuff alo
ĠHend erson
Ġmant le
Ġperce ive
Ġsaus age
Ġcurric ulum
Ġcrick eter
F unny
G onna
G ene
K h
M aking
M akes
M agn
c ake
g eneral
r ary
w at
y ll
Ġ âĻ«
on ation
ot on
ad ier
am mer
ĠS D
ĠS pl
ke ley
ĠC ary
ĠM iguel
Ġme adow
Ġan at
Ġkn ights
Ġj est
um per
ab by
Ġcom ics
Ġsa ils
Ġag rees
Ġcomp ute
ĠIn ca
Ġte ch
ress ive
Ġapp lying
Ġsm ashed
ĠAnd rÃ©
OU SE
Ġsl opes
Ġdist ances
Ġche wing
ĠZ ag
Ġconf ined
AR A
Ġequ ity
Ġblack s
ĠTr acy
ĠMin or
amb ig
Ġdiv ing
Ġve ins
Ġill usion
ĠEd gar
sp ace
Pl an
Ġquar rel
Ġredu nd
Ġhun ters
Ġcomment ary
Ġvari ations
TA IN
Ġprofession als
ĠBrook s
ĠGro ve
GB T
ĠClar ke
Europe an
angar oo
oubted ly
B all
B ook
C arm
J ew
L aura
O per
P ad
e ye
m us
p oor
r us
t ri
Ġt rophy
Ġs way
it ics
Ġm are
Ġf ianc
Ġd izzy
Ġth a
ĠA j
ĠC airo
ĠM iddles
ur ities
ĠD raft
Ġsh ifted
ĠN orton
Ġag g
Ġlook in
ere n
Ġun necessary
sh a
Ġres id
anc a
ange red
Ġph oned
ĠCl an
ĠĠĠĠĠĠĠĠ ĠĠĠĠĠ
Ġsol itary
com b
ĠAm anda
Mar g
ĠMon ica
De ep
ĠGreat er
ĠCr us
ĠPat ri
Ġpoet ic
ĠDel ta
Ġaccess ible
Ġconvers ion
Ġ188 8
Ġtransport ed
Ġrat ings
ais er
Ġhom osexual
Ġmaintain ing
ĠKen ya
vi ated
Ġpi geon
ĠWy oming
Ġannoy ed
Ġtheore tical
Ġward robe
Ġdistur bing
Def initely
Ġinnov ation
Ġles bian
Ġunemploy ed
Ġtom ato
Ġadequ ate
Ġgoss ip
= "
H uman
I mm
L ate
P in
d imensional
i ries
l ined
n in
u ber
in ence
er os
Ġb ald
Ġp ork
Ġl uggage
ĠI z
ic z
im ming
Ġan them
Ġan kle
ĠH ous
ĠH EL
Ġdo se
ĠW er
Ġall ey
qu artered
Ġout law
Ġpro ves
Ġjust ify
Ġsp un
Ġsp arrow
Ġag greg
Ġro be
ĠBr ussels
Ġdep icted
Ġbre eding
Ch ina
Ġexp ose
Ġland lord
Ġdevelop ments
ĠPol itical
Ġtechn ically
Ġboard ing
Ġstruct ural
Ġredu cing
ĠFranc o
Ġir regular
Bet ty
ĠTre asury
Gl ad
whe e
Ġthrill ed
Carl os
ĠHug hes
ĠRey nolds
Ġobserv ations
ĠBright on
Ġsovere ign
ĠAGA IN
L ake
W ITH
y et
Ġ ic
Ġa qu
in os
Ġb aked
Ġd angers
ar ians
Ġl ag
Ġg au
ĠS ak
ĠA way
ĠC E
ĠC er
ĠC reat
ĠC oun
ĠM ikhail
ill on
ĠT as
ĠP EOPLE
ant ha
ant astic
ĠD ot
ĠD amn
ĠL ore
ĠF i
ĠF riend
ĠN one
ers hip
ig ne
Ġwho lly
Ġsp at
Ġtr aced
ub ali
cl oth
ob ic
Ġstud ios
Ġass ert
Ġref uses
ury a
ric ia
Ġev al
Al as
Ġins ert
ha ven
Ġmess y
Ġmess ing
Ġnat ives
Ġroll s
Ġpack ing
ĠCr ime
Ġimpro ving
Ġ189 7
Ġ188 9
Ġboo st
Ġappreci ation
does n
Ġachieve ments
Ġrepeated ly
ĠGuard ian
Ġinspect ion
ĠSteven s
ĠFern ando
Ġhoriz on
ĠSout heast
Ġmour ning
Ġgosp el
CAIT LYN
F er
G otta
K ar
K id
M u
d al
l T
r unning
v iol
Î ±
on ian
or ient
ĠS V
ĠA ven
ĠM au
ĠH off
ĠW ing
ĠW ELL
ĠD enny
ĠD warf
ight ed
ĠE yes
Ġv om
ĠK ad
ĠHe ath
ĠHe ights
ud er
ag ua
Ġright eous
Ġar istocr
ĠCh ah
ens is
Ġfl oppy
Ġcr ust
ĠShe ffield
Ġmet re
Ġmus k
Ġinc on
Ġid ol
Ġed itions
Ġinter pre
ĠCan ter
Ġswe ets
head s
Ġcast ing
Ġpract icing
Ar ound
Ġhang s
ĠEl iza
Ġvict ories
Ġpen is
Ġobject ion
Ġant ib
ĠSer bian
fl ow
ĠHall oween
Ġ186 2
199 3
Pr ot
mark et
Ġtransl ator
Ġenter prise
Ġcrown ed
Ġdiss olved
bu ild
Pre viously
Ġteen age
Ġdim ension
Ġwhist ling
ĠAlp s
SI GHS
Ġsoci eties
ĠLib ya
Ġinfl ation
ĠLag ash
Ġrebu ilt
Bas ically
norm al
Ġlegit imate
ĠFres co
ĠIsa ac
Ġsib lings
Ġprelim inary
D ue
O O
T W
T or
] :
n ick
n amese
v iv
w ings
Ġa uction
re ra
on ne
Ġc ousins
Ġf are
Ġd w
ar ra
Ġp p
as is
Ġre ndered
am ine
ac er
ĠS ev
ĠA PP
ĠM ade
ĠM oss
ĠH AND
ĠP rom
ĠW W
ĠR ox
ĠN ina
Ġab ortion
Ġup ward
Ġup wards
Ġup coming
Ġpl aint
ĠE mb
ĠK iss
ĠK rishna
ud s
Ġtr act
Ġoff spring
ĠCh arming
In side
Ġimp osed
ĠSp art
me aning
ĠWe ather
Ġbro ok
ĠSc he
ĠRe id
ĠCon cer
ĠGu atem
Ġpresident s
Ġpost er
ĠPol o
Mar cus
Ġaccept ing
Ġconsider ably
Ġpack et
Ġinvestig ated
199 6
à¸ ²
ĠRichard son
En ter
Ġreb el
Ġconcept ion
ĠArch itect
ĠJo ey
ĠBa gh
ĠPlay er
Ġlic ence
Ġentertain ing
Ġexhib ited
ĠNorm andy
Ġinqu iry
Ġdisappear ance
Ġconclud e
ĠNob ody
ĠDur an
ĠCamer oon
Ġfrag ment
Att ention
Lie utenant
cycl op
Ġrespir atory
Ġsimult aneously
: --
E FF
T imes
c ost
h appy
p age
p ons
Ġc ured
or um
Ġl ords
et ary
Ġbe ak
ad le
ĠS eth
ĠC ore
ĠC OU
Ġha zard
Ġk itten
ĠB od
ĠD w
ĠD irt
est e
Ġall erg
ĠJ OHN
Ġget tin
ĠHe in
ick ets
Ġbr icks
Ġen chant
ne red
uck ily
Ġser pent
Ġfl ap
ah ubali
anc ers
Ġlea gues
ĠMar x
br al
Ġinc umbent
ched ule
An nie
oint ed
Ġtou red
Ġtrain er
ĠBar rett
Ġtest ify
Ġprop osition
Ġbank er
Ġcomb ine
Ġcouncil s
Ġterror ism
ĠFilm s
Ġbroadcast s
Ġjack al
Ã´ ne
Ġmole cular
ĠEs sex
Ġsurre ndered
Ġing en
ĠBurn s
ĠChile an
Ġassass ination
ĠOt to
Ġdisag ree
parent s
Ġerect ed
Ġmerch ants
edi ately
Ġrecru ited
Ġdiscont in
Ġpredecess or
A k
C op
D ong
J oh
T is
l C
n ea
w ang
Ã ĸ
Ġc ass
Ġhe el
us er
st ock
se ver
ĠC S
ĠM ethod
Ġsh aft
ĠL ah
ĠR abb
Ġus age
Ġman ga
ven ce
ĠU lt
ĠU DR
ĠV i
Ġapp eals
land ers
IN A
gr ow
Ġgl imp
Ġlive ly
Ġinter val
Ġexpl oration
lev ard
Ġcor rel
ĠLe eds
ĠLe icester
ousand s
OW ER
Ġlow ered
just ice
Ġinvestig ations
Ġhall s
ĠÃ İ
bel ieve
resp ons
ĠSup erman
ĠEvery one
ĠPict ure
Ġshr ine
pass ed
Ġven ue
dist ance
Ġmonitor ing
ĠAlber to
Ġperf ume
Ġec st
Ġunsuccess ful
ĠPed ro
Ġendea v
fashion ed
Ġglimp se
I AN
W ild
b ay
f inals
m ile
Ä ĥ
Ġg raz
et to
ad em
ĠS or
ĠS yn
ch oo
ĠH OP
ĠB ru
ĠW inc
ĠR ice
ĠN ing
Ġover d
ĠY EAH
ĠSh awn
Ġdef ect
Ġstuff ed
Ġsil ently
ĠEd mund
Ġpull s
Ġinvest ments
Ġsouth western
ĠCap itol
Ġpriv ately
Cl ass
medi ate
Ġimm igration
199 1
199 2
ĠCath olics
ĠFin ance
Ġchem ist
ĠRos a
Ġbride groom
Ġproceed ings
Bob by
Ġrecommend ation
Ġinterf erence
Ġinterpret ed
Ã¼r tt
Ġforb id
Sub titles
Ġfab ulous
ĠAlexand ria
ĠMU CH
Ġsemes ter
, [
D og
G al
L ear
M id
P a
S chool
W anna
W onderful
c atch
f amily
l at
l it
m al
w ords
Â Ń
á º
Ġw i
it ime
Ġf ury
en burg
Ġd ictionary
Ġl anes
ot ally
Ġhe ated
Ġe ll
ĠC C
ĠH ab
Ġcan vas
ĠL ate
Ġup load
ap or
Ġex ams
ost ic
Ġtr am
Ġen chanted
ĠY uri
Ġcomm ittees
ĠShe ll
ĠMar cel
20 22
ek a
Ġent ity
Ġhear th
ump y
ĠCl air
Can ada
Ġtre ason
Ġ11 0
Ġstat ues
Ġpract iced
Ġviol ated
Ġrespons es
fl ix
oph one
ĠSome one
ĠBer keley
Sc ot
Hel en
Ġ187 3
Ġmeasure ment
some body
Ġconsum ed
CA USE
Ġincident s
ĠMic helle
ĠCy prus
Ġtor ch
ĠCorn wall
pol is
ĠDor othy
Ġancest or
Ġfil ter
Ġregist ration
Trans port
Ġtheat rical
Mic key
Rad io
Ġidi ots
Ġtourn aments
C urrent
G AS
H an
J er
T ouch
V ING
b n
c ur
g entle
l ON
m etic
p osition
t aking
w ah
Ġw ont
Ġb ishops
Ġc ush
Ġh orm
ed uc
Ġbe an
ĠB ott
ĠB OY
ĠT hings
ĠP oo
Ġr h
Ġde ceived
ĠR ivers
Ġcom rade
ĠE D
ĠE M
Ġsp here
na u
na pp
Ġen abled
ne z
cl ub
Ġcar n
Ġrem ake
Ġlot tery
Ġele venth
Ġbit ing
Ġret rie
Al ice
Ġmill er
Ġpost p
See ing
Ġmouth s
Ġgen et
Cl ub
Ġlearn s
udd le
ij u
Ġcow boy
sequ ently
Ġemer ging
Ġmor ph
yl um
Ġtransl ate
lyn n
El izabeth
char acter
ĠGre gg
quis ite
ĠIndust ry
GRUN TING
Ġjewel ry
ĠJob ling
ĠCraw ford
rÃŃ guez
Ã¼rtt emberg
7 00
B ELL
D ou
H ug
R o
w ed
w omen
w oof
ï ¼
Ġc aves
Ġd iversity
ar u
ri z
all a
ch ang
ĠB ee
ĠB uddy
ĠP ast
ge e
ĠD iet
ul k
Ġj elly
ĠR if
ĠR acing
ĠJ i
ard ing
Ġch oke
ber y
Ġsp ared
ĠK os
ĠAnd es
ĠNew man
ĠNew castle
Ġtrans f
Ġprob ation
erv ille
alt ies
ett es
Ġdeep est
Ġaccept ance
ĠMark et
rav is
Ġhistor ically
Ġexec ute
Ġhar bor
199 8
ĠÃ ĸ
Ġir rig
Ġpet rol
Ġeth ical
Ġcalm ly
Ġcopy right
Ġarchitect ural
Ġanal og
Ġetc etera
Try ing
Ġpoison ed
ĠLes lie
Ġupd ated
Ġresear cher
Ġspons or
elect ric
Ġune asy
Ġsubdiv isions
ĠDig ital
Ġeval uation
C LA
L incoln
b ank
k al
l ily
r ays
v ial
Ã ½
Ġw aved
on gh
Ġc el
an za
en ch
Ġbe ads
ĠA ra
ĠM UST
ch u
ĠH O
ĠT ill
Ġli bert
ĠN y
ab in
ry s
Ġpro g
Ġv ampire
ound er
Ġint ens
Ġgr acious
pt ic
ĠV III
ĠY ears
Ġbet a
Ġmean while
Ġcar rot
Ġend less
ĠBr ady
Ġsl ot
Ġcent res
RE SS
ĠZ en
Ch ap
ĠĠĠĠĠĠĠĠ ĠĠĠ
ĠTHE N
ĠSc outs
Ġins ight
ĠRe verend
Ġorder ing
ald i
reet ings
de al
Ġfront ier
Ġval ve
Ġhusband s
Ġrespect able
Ġstraight forward
Ġang les
Ġdoub les
ĠQu ick
Ġindepend ently
Ġhar p
Ġur ge
Ġ189 3
Ġapart ments
ĠSl av
ĠBook s
Ġjealous y
Ġstir red
Ġric her
Ġpow ered
ĠSA ID
Ġabund ant
orig inal
Ġvacc ine
mid t
Ġsquir rel
L iving
S ax
W HEN
h oney
m ist
p ay
Ð º
Ġt ug
Ġt asted
Ġb ung
or ange
Ġre cept
ĠC ost
ĠC lear
Ġha ul
ĠM ine
Ġdo st
ĠB end
ĠP ART
ĠW HERE
ĠD ow
ĠG ru
pp ery
nt on
Ġch ore
ink ling
ra is
ĠU rs
So cial
omet er
ĠY ep
ater al
ult ip
te chn
get s
Ġco ached
Ġsl im
St ate
ener y
Ġloc ate
ĠIs le
Ġdra ught
Ġcur ves
Ġcur sed
aken ing
ĠPl ains
Ġdest ined
Ġcat ches
Ġtable ts
Ġpaper work
ivid ual
Ġident ification
Pro f
ĠPet erson
Ġspl ash
Ġru pees
198 9
Ġinnoc ence
Ġrequire ment
ĠHan sel
Ġhook ed
Ġpoll ution
Ġdim ensions
ĠViet namese
Ġguarant eed
Ġrecommend ations
Ġpuzz led
DO OR
Ġmush room
Ġnav ig
ĠFilip ino
C ant
C opy
T ogether
_ _
i ya
l aughing
s now
y stem
Ġt ense
in qu
Ġw ig
Ġw ag
it ory
Ġp ave
Ġg ee
id ian
st reet
ĠM is
ĠH om
ĠW elcome
un ately
Ġsh ave
Ġr anges
ĠL ing
ĠL IFE
ĠF ars
ĠE thel
ĠCh ronic
ov ina
Ġafter ward
au f
ob o
Ġnum bered
Ġind ul
ject ion
Ġgl am
Ġgl ove
let ed
ex ist
ruct ive
ĠMan ager
Ġdream t
Ġang rily
ari us
Ġintrodu cing
ĠEm il
Ġmix ing
Ġbow ling
Ġsal vation
ĠGrand ma
Ġut ility
Ġge ese
ros se
ĠJane iro
Ġtur f
Ġalleg ations
ĠÅ ł
Ġpup il
Ġhesit ated
ĠMach ine
Ġavo ided
Ġignor ance
Cent ral
orr h
ĠNash ville
Bri en
. <
B less
H all
N IE
l D
m akers
p rom
s ound
Ġm otto
Ġin hib
Ġg it
Ġg ren
om ical
om ial
ot or
us ive
im et
Ġwe asel
ĠS ell
ir able
Ġst ocks
ĠC ock
ĠM old
ĠT erm
ĠP om
ain es
ĠD oll
ĠD uchess
our age
Ġr aced
ĠL ess
ĠR EM
art e
ĠJ ak
qu el
ĠE b
Ġex cell
Ġint ensity
Ġqu oted
Ġcomp rom
Ġen light
Ġun anim
Ġbl ink
Ġdis band
ave l
Ġrem oving
ĠBr uns
Ġcare less
âĢĻ ,
Ġass et
Ġsw inging
Ġdef ault
ĠSc ar
Ġhon esty
work ing
Ġpoor ly
Ġdam ages
she ll
ĠAm elia
Ġtouch down
Mar ian
af ia
olly wood
ĠAnge la
Ġfort night
Ġpun ct
ĠBur ke
Ġcandid acy
Ġren owned
ĠCast ro
Ġlic ensed
Ġintegr ation
Ġmanufact ured
Ġcig ar
Ġspo iled
Ġnegoti ate
Ġconfident ial
Ġtact ics
Ġawait ing
Sat urday
Ġignor ant
Ġfest ivals
Ġcyl inder
Ġfranc s
8 20
B at
B ay
B ird
R h
R ather
S ea
T em
n ings
n amed
p al
s i
s low
t z
t ur
Ġt its
Ġt utor
Ġs ap
om orph
al in
us p
ĠA CT
ĠC N
ĠC anyon
ĠM ik
Ġse min
ĠP ig
ĠP ubl
ĠP retty
ĠW ag
ĠD ame
Ġj ug
Ġr idden
Ġcan st
ĠE lder
ov iÄĩ
Ġdis like
Ġser ver
Ġsec ular
irl ing
Ġhead quartered
ĠNew port
ib an
Ġbo iled
Ġrep ublic
Ġdra gging
ĠPh one
go es
Ġsn ack
Ġvers es
Ġsuper natural
Ġple aded
Ġexcept ions
ĠCo al
Ġspend s
ĠGrand pa
198 7
ĠArab s
Ġmicro sc
ĠInter ior
Ġcraw ling
Pet e
din and
Ġinstinct s
produ ced
Ġdess ert
Ġdw elt
B ang
C as
D am
G S
H im
H ands
S up
b ab
y t
Ġt ab
re ne
re pl
Ġm u
Ġf res
Ġd ashed
Ġp ose
us ters
Ġre leg
ĠS ex
ĠM asters
ĠT rent
ĠT iger
op ened
ĠR ex
ĠN as
ĠN ak
Ġab rupt
ĠO mar
Ġpro l
ear ance
ĠK enny
Ġright ly
ah i
ho f
br ance
ning ton
20 20
let cher
ump s
Ch ange
Ġgener ating
ĠX V
Ġrad i
Cl imate
Ġsad d
ĠHen ri
Gr ace
ĠNor folk
Ġwarm th
uzz y
umber land
ĠWil helm
su per
Ġsport ing
WAY S
ĠBulgar ian
Ġtrump et
Ġparad ise
Ġattribut ed
ĠTW O
Ġamus ement
Ġconstell ation
D ig
H ay
I Z
J oy
g io
r ics
y um
Ġt ended
Ġb ask
Ġo m
Ġm igr
Ġf aded
Ġd ice
Ġd aring
Ġth ine
le m
us ions
ĠS et
ĠH aving
ĠH annah
ĠH amburg
Ġdo omed
ĠB rent
ĠP ere
ĠP ars
ap olis
Ġex port
Ġsp ine
Ġwork shop
ĠIn ns
Ġapp ar
Ġwr ath
Ġres erves
iff erence
Ġmin imal
ĠBr ing
ister s
Ġchar iot
ĠIs abel
ĠBl ues
ĠCar rier
ator ies
Ġinf erior
umb ers
Ġpat ent
ĠWill ie
Be at
Ġ13 0
Ġhair y
ĠEx actly
ĠIN TO
Ġpark ed
ĠComp uter
199 4
Ġdeb ts
IR L
ĠHill ary
Ġspell s
Ġcomment ator
Ġcalcul ations
occ up
dis ambig
Ġdish on
Ġmargin al
Ġdea rest
ĠKay e
Ġtremb led
Ġflav or
Ġvocal ist
ĠRain bow
Ġly ric
Ġceremon ies
ĠFired rake
disambig uation
! --
A ut
G ordon
N ik
P ublic
R ick
S ummer
V IE
f ood
f ilm
l L
l Ã©
t is
Ġf ried
Ġf ax
ed ar
en ko
om atic
Ġn ought
.. "
st ud
ĠM AD
ce ph
ĠB ib
ĠT ropical
ĠP erson
Ġ" '
ĠR andy
ĠF O
est hetic
ĠE ld
ĠE than
ĠE VEN
Ġpro c
ra e
ep h
Ġsp aghetti
Ġback ward
hy d
Ġfl ashed
ĠTh an
Ġrec oll
Ġcomm itting
Ġcr ank
Ġcr ane
up iter
ug a
Ġco aches
ĠBr ittany
Ġsupp lement
Ġche ers
Ġmet eor
AT TER
Ġseem ingly
ball s
ĠIs les
by ter
ĠAll ison
ĠTH AN
Ġsn iff
Ġport fol
Ġobject ives
Ġcommand ing
asc ular
ĠPri v
Ġ186 7
Ġharm less
Ġaddress ing
ĠDid n
Ġmel ted
Ġbang ing
Ġsli ppers
Christ opher
Ġmuseum s
Ġestim ates
Ġflood s
lar gest
ĠGre ene
Ġgrav itational
Ġdies el
Ġconce aled
ĠDomin ican
ĠCart oon
Ġdece ased
ĠBud apest
dig it
Ġfet ched
ĠGib son
Ġbrut al
ĠFE EL
Ġfrust rated
ĠRic ardo
ĠLiter ature
: //
A mb
R us
b ruck
c ourt
m ath
n umber
p us
Ġa mer
re na
Ġs ine
an qu
Ġl uc
Ġg ambling
im an
ĠS ugar
st adt
se at
ĠC ald
ĠH ait
ĠB il
Ġkn eel
ĠD om
ĠD od
ĠG asps
ĠCh in
Ġbr ack
ne xt
Ġfl ush
ĠTh oibi
Ġhand ic
Ġstart led
Ġsm ith
ĠMar quis
ĠAr senal
ĠWhat ever
Ġdifferent ial
ĠPr inc
Ġfr ames
ump ed
eth an
iver ing
EN E
Ġvar iant
unk s
Ġconv incing
Ġthreat en
hold er
Ġund o
Ġcomfort ably
Ġcru ise
hand s
Ġgar ments
Ġcomplex ity
enge ance
Ġcro oked
ĠPhilipp ine
Ġreform s
ĠWork s
bro ken
Ġanaly ze
Ġcoc on
Ġextend s
ĠLanc aster
Ġprompt ly
Inc umbent
ĠNam ib
Norm an
Ġdispl ays
Ġmarvel ous
ĠRena issance
Ġplung ed
uxili ary
! âĢĻ
. :
A gent
B M
M os
P D
V en
c um
d ark
k u
m ur
s leep
Ġw izard
Ġm oss
ot ation
id able
st ay
ĠT on
ĠT itan
ĠP ike
ĠG olf
ĠR ut
ĠF uture
ĠF IRST
ĠJ em
ig l
Ġor che
Ġv icious
We ndy
Ġbl onde
Ġad vers
Ġdis orders
sh h
br own
Ġsl ay
Ġel igible
ax y
Ġrep airs
ĠZ ach
Ġfore cast
Ġexpl oded
Ġ15 00
IS E
che on
Ġdear ly
Ġsn atched
hel ia
Ġlim b
Ġfre ight
Br ad
ĠWith in
Ġrob ots
Ġbattle field
ĠAnt o
Ġfunction al
Ġemb ro
Ġharm on
Ġacqu ainted
Ġaccording ly
Ġencour aging
Ġweekend s
ĠNet flix
ĠRod rÃŃguez
Ġwid th
ĠNic kel
Ġexpert ise
bro ok
isp ers
LO OK
Ġdischar ged
Ġperf ection
Ġenqu iry
ĠKle in
ĠKazakh stan
ĠCind erella
ĠCommer ce
Ġfanci ed
A wards
B uck
C ross
G il
P rodu
c ases
f ew
h air
h ai
Ġthe ology
Ġm ol
Ġh mm
al one
ve red
et z
ac cept
ĠM I
ur ated
il ion
ĠP u
ant om
th ou
Ġr ascal
ĠF M
ĠF ish
Ġup right
Ġcon j
Ġpl asma
ĠK om
Ġoff ended
ang s
Ġcomp osite
Ġdown hill
hy ll
Ġbu ys
igh bour
Ġco ke
my r
Ġfin an
Ġrun ners
ĠSh ield
ex pl
Ġrest oration
Ġadd iction
Ch air
Ġmed itation
Ġfilm maker
ĠTr ain
ĠLe gend
ode on
ET ER
Ġaccount ant
friend s
Ġskin ny
Ġ189 1
Ġcru c
Ġsand wic
Ġut most
198 6
Ġprec aut
Ġappreci ated
Ġstret ching
Ġappeal ed
Ġoblig ation
ĠMem phis
ĠAsh ley
ĠArm strong
Ġembr aced
Ġexcess ive
ĠBrid get
Ġreserv oir
- ...
B ey
D ark
D rive
G M
L ay
L ily
P s
g Ã¤
l ore
v ik
at al
it ially
en ne
Ġy Ã¶u
ad ah
ac i
ĠS ed
ĠC ox
ĠH OME
ĠB ir
ĠT een
Ġr ags
ig i
Ġch alk
He h
ĠK il
ĠK end
ĠK aw
Ġgr ammar
-- -
oc ate
cl osure
Ġdis rupt
sh ort
Ġfl ute
vers ion
Ġco aching
man uel
Ġend angered
Ġinv iting
ĠGod d
ik er
ric ate
Ġheart ily
Ch inese
de ath
ĠSw an
Ġbox er
Ġlab els
Ġexcept ional
ĠPri or
Ġtall er
ĠArt ist
ĠCont est
Ġchap ters
Ġrev ival
Ġbatt alion
Ġsole ly
ĠSong s
abet es
Ġvel vet
Ġimplement ation
Ġstamp s
ĠCir cle
Ġadvoc ate
Ġwhisper ing
Ġrecy cling
Ġsab ot
ĠApost les
ĠValent ine
ĠBET TER
Ġingred ients
Ġgover ning
ĠCirc uit
. &
A aron
B attle
F ilm
G oo
P ress
R est
S now
T s
U K
b as
g ia
m ere
m atic
w orm
Ġthe or
Ġo wing
Ġc m
es pecially
Ġp ets
le en
im me
ĠS we
ĠS aul
Ġst ing
out ed
ct ive
ĠB AR
Ġse gments
ĠT roll
ul i
ul ates
ĠG ren
Ġcan e
ĠF ou
ĠF ur
ĠN ana
Ġch rom
ĠK urt
ag her
Ġsee ks
Ġact ively
." [
Ġper former
ĠTh ir
ĠShe pherd
und a
ĠSh adow
ok i
Ġhum ming
Ġcol oured
pr ot
Ġprot otype
ĠTH R
Ġz omb
Ġgrand children
Ġstep mother
ĠDr ake
Ġpriv at
Ġesc aping
Ġviol ation
ĠRob yn
Ġoccur ring
Ġlif ting
Ġthy self
ĠBro ck
Ġcrowd s
bre aking
ĠStud ent
Ġcontribut ing
Ġpit ched
Other s
ĠSil k
Ġaim s
ĠNat alie
Ġlimit ations
Ġstraw berry
ĠEst her
Ġfil thy
Ġpossess ions
Ġment ally
ĠChap el
Ġobst acles
ĠFil ipp
FOR D
idel ines
Ġflex ible
ĠCry stal
ĠJohann es
Ġabol ished
Ref erences
Ġconfig uration
Ġpic nic
ĠOP EN
Ġfier y
F el
G asps
I ce
K al
L yn
P ost
S her
V irgin
d ers
f ried
h arm
u u
it as
Ġf i
as co
Ġn un
Ġbe fall
ri ans
ly mouth
ĠM ight
Ġan nex
if a
ĠP ack
th ia
Ġsh iny
Ġsh ores
Ġr ansom
pp en
ĠL EO
ĠO il
od i
ip se
so ld
sel ess
og ram
Ġcomp at
ĠTh ai
gr ad
ib al
Ġind irect
Ġass urance
Ġsk ins
Ġ9 00
Sh in
Ġfuck er
Ġdead line
Ġmain stream
Ġsleep s
EN NY
Ġswe ater
ĠEurope ans
Ġz ip
Ġcat ast
stit utes
ND C
Ġbill ions
str ument
ĠPat sy
Ġpsych ologist
ĠFin ancial
Ġya wn
Ind ia
Ġguard ian
Ġweak ened
Ġinvent or
Ġattend ance
ĠTre vor
ĠBas il
Ġlamp s
Ġcorrespond ence
open hagen
Ġfra gr
Ä± m
Ġindic ating
Ġadmir al
Ġmic row
ĠGard ner
ansk rit
B art
D AY
F ound
F orm
L ar
O x
T ri
a uthor
i rie
r ained
nd on
Ġc ob
Ġm ourn
Ġh ub
Ġwe ld
ĠS ection
Ġwh it
ri ous
ĠB ug
ĠB IG
ĠT ong
ĠD ra
Ġsh arks
ul ent
ĠG ur
ĠL em
ĠL GBT
ĠF lying
od ka
ud ing
ia z
Ġover time
Ġrec urring
Ġfound ers
gin a
ĠAn at
app eared
uc lear
Ġtri vial
Ġed it
ĠBl ock
Ġball ot
ĠTr inity
con n
Ġreason ing
ĠGo a
Ġval ued
Ġstation ed
OK AY
ĠTe resa
Ġeye br
ĠMus ical
Ġtour ism
Ġ189 5
Ġfright en
Ġfright ening
ĠHu i
ĠSur rey
Ġveget able
Boy s
Ġelev ated
._ --
ĠSU RE
Ġment ions
Ġbul b
Ġimplement ed
Fort y
Ġhipp o
Ġgloom y
Ġmilit ia
Ġpsychiat rist
Ġbisc uits
ĠSard inia
ĠKash mir
Ġeleg ant
ĠÂł ĠÂł
Ġacquis ition
ksand r
B EC
S und
b ull
b ows
p ri
p ick
r ange
u en
u ld
y ummy
in is
nd um
Ġm ug
Ġd io
Ġd usk
ĠC ic
ĠM uk
ĠH ert
Ġdo zens
ĠT ory
ĠT ert
ĠW et
ĠD ora
ĠG ul
um ont
ĠL az
ĠR oth
ĠR otten
He art
ud ence
Ġint act
Ġpe pper
ĠV il
ĠAl icia
Ġrun way
Is lam
19 2
Ġsub stances
att a
Ġsk ier
Ġri bs
Ġpolit ically
Ġcertain ty
Ġball oons
Ġcop ied
Ġgrand daughter
ĠTe ch
ĠDr ama
ĠLord ship
Fr iday
lu ence
Ġclos ure
Ġcool er
ĠCo ven
ĠDep uties
Ġcontact ed
Le o
Ġexerc ises
AB LE
Ġflo ated
ĠMore over
Ġadministr ator
ĠEv il
foot ball
Ġtear ing
Ġpi geons
ĠJos ie
ĠSpring field
Ġtunn els
Ġconce al
Ġmonarch y
Wr ong
var ado
Ġneur ons
ĠChand ler
Ġprett iest
Ġapost olic
ĠSquad ron
Aust ral
ĠAdvent ures
Ġobed ience
Ġintu ition
ĠObs ervatory
B ruce
D ee
F urther
W ay
b ase
h it
n ap
r ings
s che
Ġt ummy
Ġf u
en ough
ĠB ac
ĠP it
un i
ĠD rug
ĠL og
ĠL av
ĠR AD
ĠN ay
ĠN ame
ĠN ass
Ġal umin
Ġher b
ĠE ventually
ind ers
ra ged
ount y
ĠSt re
ĠCh ambers
Ġcomp act
Ġres ume
iff ic
Ġlast ing
form ing
Ġind ication
Not ice
let te
idd y
Ġcur ved
Ġinf lict
ĠAll an
Ġaw akened
Ġvar ies
ĠTH INGS
ĠAd rian
ean ing
put ed
Ġcomput ing
ĠGood bye
Ġimm une
ĠSat an
ĠSing les
Ġinstit ute
oof y
ĠVer a
ĠEll is
Ġconsult ation
Ġhabit at
Ġspect rum
ĠAlp ha
ĠMoh ammed
ĠContin ental
Sil ence
might y
enz ie
Law rence
ĠEug ene
ĠNapole on
ĠByz antine
A cc
D oug
E ve
F M
K ate
R aw
S oph
T ar
f its
k ittie
n ear
Ġa lex
it ative
Ġc rest
Ġf ain
Ġp ensions
ĠI da
le igh
Ġhe h
Ġre indeer
Ġwh ipped
ke eping
ĠC el
Ġat tain
ĠT ALK
um bered
Ġso da
Ġall y
qu iet
ĠO LD
Ġsa ves
ber man
ber ger
Ġsp inal
ĠK ai
Ġag ony
Ġgr ape
ater nity
ĠâĢ Ļ
Ġsc orn
Ġsc roll
Ġcar penter
br is
ĠAr ctic
19 60
ash ire
ĠGod zilla
Ġinter ven
do ors
Ġgovern ed
ĠBl anche
Ġswe eping
ĠAd vis
Ã¡ lez
Ġdev otion
Ġsupposed ly
Ġmem oir
AM A
Ġspir al
ĠDep ression
Ġtour s
Ġ186 3
Ġchick s
ĠCO LL
Ġbrand s
RY ING
Ġconsult ed
ĠHea vy
Ġalarm ed
dog gie
ĠMoh ammad
ĠNiger ian
Ġgreet ed
ĠEconom ics
Ġpeep ed
Ġinstall ation
Ġgym n
Ġcaut ion
ĠSic ily
Ġgrocer y
ĠMey er
Ġreceip t
Ġsupermark et
, ,
C rit
D or
J ay
L ots
L aughing
N ear
P M
T erry
h ou
h ra
r ition
y amba
Ġs i
Ġs es
Ġc reed
ĠI ÃŃ
us ually
ĠM ing
Ġme ow
ĠB erry
ĠP arr
ĠG IVE
Ġr am
ĠL EA
ĠR ES
ĠN ATO
em ption
ack leton
Ġsu nd
Ġpl ains
ĠK ra
ĠU NDER
Ġsm iles
li o
ĠAmer icas
ĠFr anz
20 21
Ġsur g
Ġmat ched
Ġsub mission
Ġfr iction
Ġchar ging
Ġref using
Ġblack smith
rest rial
ĠEuro vision
Ġsum mar
ĠGu jar
Ġlay s
Ġexc uses
Un iversity
Ġsocial ist
Ġdoll s
Ġfac ial
orts mouth
Ġemer ge
Ġstream ing
Ġconduct ing
ĠFred dy
ĠOs borne
Ġbal anced
ĠJud ith
Äģ n
Ġquant ities
ĠKat ie
uls ive
Ġrent ed
Ġdeliver ing
Ġteen agers
Ġwithd rawn
Ġlecture r
Ġdeleg ation
Ġsimpl er
cos ystem
Ġment or
Ġris ky
Ġpref erence
ĠJosh ua
Ġclar inet
Mat thew
abl ished
Ġrecip ient
ĠFac ulty
Ġevalu ate
à¸² à¸
B B
B eth
C ity
C over
C arry
L uke
M ummy
N S
S ort
f y
m oney
p ast
t ook
Ġ icon
Ġa pt
Ġb ake
Ġb ounded
Ġc ube
Ġf ir
Ġy elled
Ġg or
Ġn er
ent ric
im portant
ĠS abbath
ĠM aced
ĠH arm
ĠB ot
ĠB og
ĠB eau
ĠP and
ĠP orter
ist ically
ĠF iji
ood les
ĠO THER
ĠK irch
reat ic
Ġam used
iz ers
In spector
du ardo
ĠNew ark
Ġret ro
ale x
Ġdec ay
Ġpop s
Ġfr ic
Ġri pe
Ġvis ions
ĠPh D
Ġvill agers
ĠEd ge
ĠMy st
ĠMon roe
Ġ186 8
ĠDO OR
Ġstorm s
198 4
Ġpregn ancy
igg ling
Ġhyp ocr
Ġpupp ies
Ġblank ets
Comm ander
Eng land
ĠClass ic
Ġsumm ers
Ġvolcan ic
ĠOak land
Cons ider
Ty p
Ġabund ance
Ġenh ance
ĠGUY S
Ġpropag anda
ĠLax minarayan
Ġphilosoph ical
Ġconclus ions
ĠGosp el
ĠRhod es
B U
F ig
L arry
T ele
] ]
l iving
he it
Ġw akes
Ġin land
Ġl odge
ĠS uff
Ġwh ites
st ones
op oly
Ġsh ifts
um ing
ĠO H
od s
Ġv room
ear th
Ġman ages
Ġpe ac
Th or
Ġro ared
Ġbr ow
ord ination
ob ia
be ck
Ġrec urs
Ġcr ater
az er
Ġsl ogan
ret ch
AT H
Ġinc ap
Ġri vals
Ġexpl oring
ĠCon rad
ĠTr aining
Ġdiv iding
Ġtre acher
ĠFl ash
Ġsum s
Ġrequ ests
Ġdi ocese
Ġpot ion
Ġsurpr ises
Ġang uish
Ġadm ission
Ġjud ged
Ġprotect ive
Ġsett ings
Ġcirc ular
ĠEn ough
TH ANK
Ġpsych ic
Ġ188 6
ĠBur ton
Ġ187 5
ĠJul ius
will ing
Ġge ography
Ġprec ision
ĠBoy d
Ġtarget ed
Out side
Ġpurs uing
Car ol
ĠKar oo
ĠRod in
Ġcitizens hip
Pat rick
Ġâ Ĥ¬
ĠNever theless
bus iness
ĠDun can
ĠKer im
Start ing
Ġnic er
Ġtwin ned
Ġfoss ils
ĠOrigin ally
Ġmush rooms
Ġstew ard
LAUGH S
Ret urn
Ġcogn itive
ĠÃİ le
ĠBruns wick
Ġsandwic hes
F lor
G G
M EN
N orton
S ant
S ara
S yl
T win
V ED
W estern
g ang
h n
h ang
i ott
l augh
n or
ll er
Ġd airy
as an
as al
se emed
ĠC yn
ĠB le
Ġnot ation
Ġr anging
ĠL ogan
ĠR af
ĠThe resa
Ġout door
It alia
ak y
ĠK ab
Ġpe el
ĠCh ange
Ġro gue
Ġcomp ounds
Ġun pre
ĠTh om
day s
Ġsl alom
ĠFr an
ĠSh ore
Ġdef icit
Ġinc or
AR Y
Ġext ending
ĠSo ft
Ġbreak down
ĠBe et
Ġve x
Ġve nd
Ġhair s
Ġra ft
Ġcal culation
ĠEx per
Cl ark
Ġdoll y
onel iness
Ġhall uc
hold ers
Ġhero ic
Ad minist
Pr incess
New s
ĠJul es
Ġremem bers
ĠGar c
Ġscar f
ĠEvery body
Ġattend ants
Pol itical
Ġsacrif iced
Ġrelax ed
ĠOl ivia
Ġexplos ives
ĠRh ine
ĠCard inal
Ġped est
ĠMot ors
Ġcoc aine
Ġfierce ly
ĠAdd itionally
ĠLin ux
Ġdrown ing
Ġmisunder standing
Ġbeet le
Ġrefere ndum
Ġprecip itation
Japan ese
Ġlibr aries
ĠTrin idad
gÃ¤ u
Ġdio xide
: ]
C apt
F A
K aren
S ound
b ling
d eg
h istor
i ard
m ut
w i
he ar
ou f
on omy
is che
Ġh amm
en ance
Ġd ong
Ġp amp
ĠI v
gh na
Ġre de
am ic
ĠS ER
st ring
ĠA IDS
ĠM am
ĠB ord
Ġse ctors
ĠW ins
ĠW HY
ĠG us
ĠR aid
ĠF un
ĠF ind
ĠF rost
ĠN egro
el ope
ag ged
are l
use ppe
Ġoff ence
oll ocks
av is
Ġsm ack
ĠBr ab
Ġreg ained
Ġgl ue
Ġtri bal
Ch urch
Ġmed i
ĠHis pan
Ġhor rid
Ġste amer
Ġparent al
Ġz ones
ĠPer formance
anch oly
ĠGl enn
ĠPal m
Ġpack ages
OS S
ĠBer k
Ġwild erness
Ġfat igue
Ġspeed s
Ġmultip lication
Ġ189 4
ĠGovernor ate
Ġ187 9
Ġuncle ar
Ġsli pping
Ġcounter part
CA A
ĠMcC arthy
Ġrac ism
mont on
Ġsymp ath
ouncill ors
Ġtheat ers
includ e
alle ys
ĠIndust rial
ĠPrim ary
Ġfert il
Ġcontinu ously
ĠHAPP EN
Ġinherit ance
Ġimmort al
Ġphilanthrop ist
ĠCanter bury
ĠPrinc eton
F ox
J uan
L at
N ord
R oad
R iley
S um
f ellow
k l
m ain
s and
t oday
re present
Ġs acked
Ġh obby
Ġhe s
ut i
ri ft
all ic
ĠH ast
ĠH OUSE
ĠT E
ore nt
Ġr ack
ĠR oh
ĠR ams
ĠN eg
red ited
Ġsu cc
ĠE van
ian ces
Ġar tery
Ġcl aw
Ġunder cover
Ġunder graduate
Ġres on
ah an
land o
anc o
Ġthought ful
Ġlast s
Ġmin eral
ĠBr uno
ale h
ĠInd o
Ġref res
uff le
Ġ[ [
Ġins cription
Ġprof itable
Ġmoment um
ĠCon nie
Ġwond ers
ĠCal vin
ĠHer ald
Ġstat istical
ran o
Ġaccount ing
ĠMon ster
Ġsimilar ly
Tr ack
Ġemb ed
ĠDO ING
ĠProv incial
ĠMat hemat
Ġswim mer
ĠJud y
Ġdrunk en
ĠGall agher
ĠGal axy
ĠPres byter
Ġdecre ased
ĠCON T
ĠClare nce
-------- --------
Luc y
Ġadopt ion
Ġfisher man
Ġnit rogen
Ġverte x
Ġabbre viated
hur st
Ġshat tered
ĠCzechosl ovakia
Tay lor
ĠEthiop ia
ĠGand hi
ĠNickel odeon
D one
G iven
L os
M ass
M ister
en ary
Ġl apt
Ġl ousy
Ġg erm
Ġwe ighed
ĠS elf
ĠA WAY
ĠC lyde
ĠC openhagen
Ġk alie
ĠH of
ĠP or
ĠD up
ĠR ican
ĠF o
Ġcon ceived
ĠE VER
Ġcl icks
Ġcomp ilation
hy a
ult ies
be k
ily n
Ġsm oked
Ġfound ations
Do ing
Ġind istinct
Ġbit es
Ġsw ap
uff ed
Uh h
Ġexp elled
ĠBl air
erv atives
Ġcontin ental
ĠPro f
Ġeight eenth
ps ons
Ġmag ist
Ġeng ra
ĠWill y
ĠAb i
dom en
ĠEx ped
ĠTom atoes
Ġport al
AM ES
Ne il
YOU R
Ġbi ography
Ġfeed s
Ġhide ous
Amer icans
Ġrepe ating
ĠPe ggy
thank s
Ġbehav ed
Te acher
enc ia
Ġmob il
Ġrev ised
ĠStr ong
Ġpoison ing
Ġshock ing
Ġreward ed
Ġdiagn osis
Ġfo am
ĠUs ually
Ġdepos its
Ġrejo iced
Ġbend ing
jun ction
Ba ahubali
Ġundert aken
Ġprev ailed
ĠGeoff rey
Ġrevel ation
engu in
Ġbrace let
ĠShan ghai
ĠCla ude
Ġtatt oo
Ġportfol io
1 20
C re
F UL
H ill
M ex
O le
S id
S ays
T C
m atter
is abeth
Ġf ri
Ġp ione
Ġy onder
Ġg ains
Ġn aming
Ġit er
Ġbe eping
im ar
im ize
ĠA in
ĠH BO
ĠB erm
ĠT A
ĠT ort
ĠT rophy
ĠP ry
ĠP ER
un ge
ĠL akes
ĠR over
Ġcon ve
are th
ace ut
Ġcl icking
ĠSt ella
ci ble
Ġro aring
ĠV iolet
Ġpre fecture
ĠTh ames
Ġcr ude
IN TER
Ġmar sh
ĠDe h
Ġgl owing
Ġcent ered
ĠCl ive
Ġtrans it
Ġwar mer
ĠRe ady
Ġaw a
co al
Ġcompet itors
Ġrock y
Ġord ained
ourn als
Ġimag ery
Ġenv iron
Ġmeaning ful
Ġpig gie
ĠGold berg
ĠMal ay
Ġstreng then
Ġess ays
198 8
Ġnation wide
Ġpil grim
ĠWood s
Ġinhab ited
Ġprotest ed
Ġaccur ately
Em ily
Ġuniform s
ĠJon as
Ġtempt ed
ĠSah ure
CR OW
Pe ace
ĠTransport ation
Ġimprison ment
Ġinaug ural
Ġvic inity
Ġprosper ity
Mod ern
Ġmorn ings
ĠSall ie
) ]
A CH
D AN
F ace
V P
c rap
l ance
v room
Ã ®
is ans
Ġm ichael
Ġh ull
Ġd an
ĠS leep
Ġwh oles
ĠC av
ĠC oke
ĠC omb
all ah
Ġan ten
ĠH oo
ĠH app
ĠB M
and in
ĠT oul
ĠT igers
th r
ĠL adies
ĠF letcher
os ion
Ġtr ay
hy ul
ign y
Ġsc ound
Ġ3 60
ee red
get ting
ĠMar ines
IN CE
ĠAnd ers
ph ib
ual ity
oun ge
Ġmat thew
ĠGr ound
Ġeas iest
ĠCar n
An gel
ĠTr uth
Ġdevelop er
Re lease
Ã¡ ndez
ĠTe h
epend ent
Ġmatch ing
Ġide als
ĠBlack burn
ĠAnt ony
Ġdeterm in
pro v
ĠST ART
Ġ187 7
Ġgar ment
197 4
ingu ished
Ġhel m
Ġswitch ing
Ġlin en
Ġdisg ust
ĠBaby lon
Ġna ive
Ġparam eter
Ġmotiv ation
ĠAgain st
plete ly
Kn ock
ĠProdu ction
Ġprest igious
Ġmasc ot
izar re
Ġorient ation
ĠSym phony
A st
F itz
G AN
H ail
L i
L en
g ae
m ine
s kin
t ar
ou che
Ġd uration
Ġd ancers
Ġin justice
al tern
le ading
Ġhe ter
us ky
im ag
ĠS tern
ĠA ber
ĠM USIC
ĠM ONEY
ĠH ang
Ġse wing
Ġat tained
op atra
ĠD j
ĠR ica
ĠF RI
ĠE agles
Ġdon ations
ĠK aiser
itt e
Ġtr actor
Ġcl am
ble ep
pt ed
oll en
-- ?
ĠY ard
Ġad ul
au cus
ĠTh r
ons on
li ked
Ġsur plus
ĠSh op
let ter
Ġrep orters
Ġwait er
Ġair s
Ġgovern ors
Al ong
Ġcor al
Ġhon ors
ĠSw ord
Ġcost umes
ĠEd ition
Ar m
Ġaut obi
Ġfear ful
ĠGl oria
Ġstrange ly
Ġtax ation
ĠSam my
Ã³ w
ĠCharl eston
Ġ188 1
198 5
Ġcommer ce
ĠWind sor
Ġexperien cing
them selves
Ġimpl ies
ĠAS K
ĠKong yamba
ĠMem bers
Ġphr ases
IG N
Ãª s
ĠAny thing
ĠBrad ford
Ġcycl ist
ĠUr ban
Ġfrag ile
ĠCOM P
Ġdistract ed
ĠSupp orting
Ã¸ r
ĠBeck y
Ġsynt hetic
Sus an
Ġrehears al
Ġpanc reatic
Ġnob ility
ĠGuatem ala
ĠWinc hester
ï¼ Į
C razy
C atherine
F ifteen
G y
I r
L ess
W ER
f act
f elt
g asps
l as
u o
z ar
in v
Ġs aints
on o
Ġb rill
Ġb osom
es ters
ad der
im eters
ac ies
oo chy
Ġst un
ĠM ister
ĠM ormon
ĠT ap
ĠP ond
ĠP iet
ĠW ool
ĠD AD
ĠD rag
ul us
ĠL ink
ĠL ost
ĠN im
Ġall ocated
ry an
Ġpl ac
ĠK ell
Ġcomp iled
Ġam az
Ġcr adle
Ġatt ach
Ġreg iments
Ġent ries
Ġsw ish
Ġpass ages
Ġref resh
less ness
ĠMay a
ĠSc ript
Ġinf inity
amb led
Ġtechn ological
ĠUS D
bl ock
rain ts
Ġmass age
Sp anish
Ġcard i
Ġver b
ala is
ĠPri est
ĠScot ia
Ġreve aling
Ġ188 3
pre fecture
mar ried
Ġsequ ences
ih ar
Ġtong ues
ĠOther s
Ġrev ived
Ġcommission er
Ġconsult ing
Ġspect acular
pop ular
Ġgreet ing
Ġetern ity
ĠEle anor
Ġtempt ation
Ġindu ced
riv ate
ĠAF TER
ĠMull en
Ġrabb its
ĠArmen ian
ĠLomb ardy
Ġpion eer
Breat he
orrh age
J enny
M ount
M AY
P ING
d oh
h ung
j et
k ers
l est
y i
re nd
Ġw al
er i
er ton
at he
Ġo at
Ġm im
Ġm ike
Ġm igration
Ġp aw
Ġg arrison
ĠS N
ri o
Ġst ork
Ġnot ing
ĠP S
ol er
ĠD erm
ĠD ob
our ing
um sy
ĠN adia
ab il
Ġch uckles
Ġex changed
Ġex quisite
ra its
Ġsp ies
Ġman uela
au kee
Ġcr ashing
ĠBr un
Ġcons ume
att ed
app ropriate
ĠZ ion
Ġtri o
Ġconf erences
ator ial
Ġter race
ĠLe vel
Ġfif teenth
Ġmot el
Ġsuper vision
Un ion
ĠPark s
Ġneg lect
Sp ec
Ġfort ress
ĠNor a
Ġ188 4
Ġmeasure ments
ĠJo el
Ġteaching s
ĠGar cia
ĠPlay ers
196 9
Ã± or
ĠStr ange
Ġhyp ot
Ġapprox im
Des cription
ĠPre fecture
Ġrhy me
ugg ling
ĠAL WAYS
Ġcooper ate
ĠPres idency
ĠLanc ashire
ĠWhit ney
Ġacceler ation
Ġsurf aces
Ġbind ing
ĠAbd ul
ĠSac rament
Ġarchae ological
Ġnucle us
ĠLoren zo
abul ary
iju ana
Ġenviron ments
B ased
B OTH
D isc
J ump
V is
c re
e ach
f s
Ġt ad
Ġb io
Ġb aker
Ġp aws
Ġl ing
ve ment
id ate
Ġre ef
ĠS iber
Ġst ressed
ĠC ec
Ġas ylum
ĠH ooty
and ro
Ġkn ives
ĠW id
ĠD y
ĠN ote
ook er
Ġpl edge
ĠE U
Ġex otic
iv i
iv ier
ick i
ĠCh al
Ġro omm
Ġdown ward
Ġpr isons
Ġam bit
Ġ3 50
Ġfind ings
Ġmin ers
oup le
ĠSh arp
Ġgl ac
Ġgl ittering
ĠAs k
Ġtrans mitted
Ġgener ator
Ġext inction
Ġtra its
Ġhold er
ĠHow e
ĠPar adise
ĠWill et
Be eping
ĠSw ift
Ġcamp ing
Ġforg iven
OT T
Ġmer ge
Ġdi abetes
15 0
Ġactiv ated
ĠSy rian
Ġhoney moon
Ġbroad caster
Ġfool ed
Ġcontract ed
Ġlength s
Ġcollect or
otten ham
Gu y
Ġblock ing
will iam
Ġcommer cials
Ġchat tering
ĠEll ie
bu ilt
Ġvolunte ered
ĠWork ers
iri am
Ġsimpl est
HEN RY
ĠJess ie
Ġbrid le
Ġbuzz ing
Ġmotiv ated
ĠTel ugu
Hope fully
ĠAthlet ic
ĠBou levard
ĠSig urd
Ġapprent ice
Ġbew ild
Ġconson ant
ĠYEAR S
ĠCelt ic
Ġbrack ets
H ou
M ART
P res
S ally
l M
n uts
r ide
s ays
v ideo
Ġs ire
Ġb og
Ġf rench
ic ating
ad h
Ġre igned
ĠS ep
ĠS ask
ch w
and e
ĠT anz
ĠF IND
Ġcon gest
ĠE uras
ĠK un
Th an
Ġbr isk
Ġen act
ĠV O
Ġcomm enced
Ġcr unch
Ġmust ard
ĠMar vin
ys on
ĠDe cl
ĠAl most
oun ces
Ġsub stitution
Ġmet als
Ġpass word
Ġcle ans
AT T
ific ant
Ġtrans actions
Ġadv ancing
van a
fe et
Ġ16 0
ĠPl aza
Ġsuper f
Ġhy mn
Fr ances
Ġfre aking
ĠSen ators
Ġcool ing
ĠRich ards
asc ar
ĠPort rait
ĠST OP
kin son
Ġbright ly
Ġcorrect ed
Ġprevent ion
Ġdocument ed
ĠLiber ation
Ġow ls
Ġdistinct ly
ĠWin ters
ĠSystem s
Ġske let
Ġchoo ses
Rock y
Ġaffili ated
quest ion
Hea ven
Det ective
ĠGonz Ã¡lez
Ġbankrupt cy
Ġsurround ings
domin al
ĠCambod ia
Ġcance led
Pin occhio
H op
L B
V incent
d ar
n ant
p arts
s at
Ġt iles
Ġt asty
Ġs ultan
Ġc unt
Ġf olly
Ġto pped
Ġp ix
Ġl oot
Ġe cosystem
am ura
ĠS inger
ĠS IR
ĠM ead
Ġdo lp
ĠT uls
op ot
op sy
Ġde emed
Ġcan oe
ĠN an
Ġher bs
res cent
ĠE isen
Ġsa u
ĠK ara
ove re
other ap
Ġpart ing
uck land
Ġapp end
Ġapp ropri
sh ut
sh oes
Ġper il
Ġfl ashing
air d
oss ibly
Ġbit ches
Ġel astic
AN Y
Ġrep aired
Where as
Al bert
cle an
Ġrece iver
aim ie
Ġopp osing
Ġsqu eez
Ġvar ieties
ĠEd monton
Ġcharacter ized
Ġple a
Ġphys i
ĠNe ither
Ġbroad er
Ġcomfort ed
Ġ187 2
198 3
ĠArab ian
197 6
Ġgang ster
ĠAndrew s
ĠPop ular
Ġrecon c
isp here
ĠCur rent
Ġtub es
Ġje ans
Ġpreced ed
ĠAud rey
ĠLion el
Ġrefuge es
ĠAbb ott
Ã¢t eau
rews bury
ĠExcell ency
lesi ast
ĠZag reb
? --
C offee
F T
K O
M ess
P sych
S N
S ab
h ire
h man
o ften
t ically
Ä ĩ
Ġa pe
in j
Ġm ates
ll o
Ġl as
ĠS ag
st re
ĠA ur
ĠM ab
ĠM itch
ĠH assan
ĠP ole
ĠP ortsmouth
ea ux
ol ving
ĠD oyle
ĠG as
ĠL OT
ĠR in
ĠF L
Ġab domen
Ġpro be
Ġpro ving
ak is
ous se
Ġtr out
Ġcont amin
ull ian
ĠTh umb
ock et
Ġcar p
Ġeven ings
ĠShe ldon
li hood
Ġatt itudes
ĠAnd roid
Ġstr ang
Ġdec isive
ĠPr att
Ġinc om
uc ci
Ġinter im
hm a
ĠSo x
velop ed
ĠPar agu
ĠTr ue
min utes
Ġtou g
Some how
ĠAd ela
ĠPl aces
ped o
Ġrock ets
ĠEd ith
Ġsun rise
Ġcre eping
Ġhospital ity
Ġjud icial
Ġprotect s
Ne ill
ĠSim mons
Ġ186 6
Ġ188 2
hib ition
comm unic
agn etic
Ġpan els
Ġnation ally
agon al
Ġlack ing
Ġmechan isms
ordin ate
ĠGi ovanni
Ġflood ed
Ġborrow ing
Ġexplos ive
ĠSay y
Ġmath s
ĠIraq i
ĠStaff ord
Wr ite
Ġenthusi astic
Ġhesit ate
ĠZe us
ĠLabor atory
ĠRah ul
Ġaffili ate
Ġey el
ĠChen nai
auc as
ĠPrincip al
ĠGoth ic
ĠAgric ulture
ĠHond uras
orient ed
ĠDw ight
Ġallerg ic
aceut ical
Ġanten na
Ġambit ious
' !
D ance
D eal
M as
R oss
S D
T ok
T otal
U FF
b id
c ry
d ead
h ope
k ick
n ob
t ill
t rees
v oc
Ù Ĭ
Ġb usted
Ġh oof
Ġd ummy
Ġp m
as ive
le ast
Ġbe ck
Ġre union
Ġst aged
ĠC itiz
ĠH ack
ĠH umph
ĠP end
Ġsh aken
ĠG ord
Ġr uth
ĠN A
qu ick
Ġpro long
ĠK ish
So ft
ov o
Ġwhere in
au ff
Ġcont ing
ĠAr d
Ġdec iding
to e
Ġteam mates
Ġdisc overs
Ġmed ian
Ġland sc
pr ises
Ġblack mail
Ġpar aly
ald a
Ġspec imens
anger ous
ĠX box
Ġexpect ation
ĠGu ad
hys ical
aur us
Ġclean er
Ġesc al
ĠMinister s
Ġclim ax
ĠFrank ie
ĠQu inn
ĠSome body
Ġwarm ing
lim ited
Ġemb arked
Ġ186 9
Ġ189 2
ĠCom edy
asm ine
ĠJul iet
Ġban quet
zz o
ĠBu yeo
ĠStud ents
Ġterrit orial
ENT S
bur st
stitution al
Ġimpl ications
Ġcock tail
Ġow es
Ġshr ink
ĠDick inson
Ġdram atically
ĠBrad ley
ĠHard y
Ġrestrict ions
Ġcondem n
ĠColomb ian
REAM S
ĠMust afa
Ġaccommod ation
ĠHop kins
ĠTunis ia
Ġpean ut
ĠCrit ics
Marg aret
Ġcocon ut
. ).
A ub
F inal
H D
K ent
P O
b out
b read
f ty
h undred
h aving
l ogy
p roduction
t om
t rain
t ailed
Ġa ids
Ġw iser
ou lt
at che
it ably
it ives
Ġm ound
ing es
Ġp end
le af
id ation
ad ine
am el
am ination
st en
ĠA ye
ith metic
ĠB ills
ĠT ax
ĠP AL
ge ois
ĠG L
ĠG ert
ĠL uz
ĠR ange
ie m
ĠF lynn
Ġher mit
Ġtr anqu
ure n
ass ing
Ġen zy
ru gged
uck le
uch y
Ġdis abilities
Ġfl ut
Ġfl owed
Ġrec ession
ho ven
man ia
ĠMar shal
Ġend ors
gr own
Ġpres cription
Ġdr ought
Ġbo ast
cer ne
Ġsk ate
Ch amp
me an
Ġimport ed
Ġsound ing
ĠCar rie
Ġwind ing
Ġcomple ting
Ġopp ose
Some where
Ġprofess ors
Ġfa ire
Ġtreat ments
Ġmot ives
Ġcrit ically
Ġport ions
Ġjud ging
ĠĠĠĠĠĠĠĠĠĠĠĠĠĠĠĠ ĠĠĠ
Ġenc ry
ĠPet rov
ĠSim psons
Ġhous ed
Ġund oubtedly
Ġfrequ encies
Ġpet ty
ĠDis covery
197 2
Ġrub bing
Ġcontent ed
ĠFort une
han ie
ba um
roke e
Ã± o
Ġexhib itions
ĠConfeder acy
CT OR
Ġsymp athetic
Ġabsor b
rec ogn
Ġpolite ly
Ġnav igation
âĶĢ âĶĢ
Ġreprodu ce
Ġpersist ent
Ġber ries
bea utiful
Ġinteg er
ĠBever ly
ĠInns bruck
B ed
C row
C LE
M onsieur
P ray
T est
W ARD
c z
d oo
f ur
r ather
à §
Ġs erm
is hen
Ġc er
Ġm old
Ġm oust
Ġf ainted
Ġl ace
ĠI MP
ic able
ve olar
Ġbe aches
ĠS ever
st ad
ĠM IN
Ġan terior
ĠH aj
ill ings
ĠB D
ĠB ren
ĠB irthday
ĠT yr
ĠL ima
ĠF is
ak u
amp le
Ġyear ly
ĠY o
Ġplay ground
cl air
Ġgu er
Ġer otic
Ġi i
Ġsl edge
ek s
ott i
ĠNo ble
ĠSp ani
Ġsk ies
uff led
Ġfore most
ern and
Ġspec imen
Ġpast e
Ġve in
ĠMan ila
Ġtrad ers
atter y
Ġhealth care
ĠPer fect
Ġdoctor ate
ĠMon a
ĠRich ie
ĠGreat est
Ġwild ly
sec ret
Ġgas ped
iot ics
ĠMet al
Never theless
ANT ING
Ġlack ed
Ġmel od
Ġscript s
Ġbutter flies
ĠHaw k
Christ mas
Ġ185 6
Ġfurn ished
Ġassign ments
ĠConstitution al
Us ing
bra him
Ġstir ring
Ġnarr ator
ĠHay es
Ġisol ation
ĠDomin ion
Ġhal ted
GO OD
Ġinteract ions
Ġtum or
Ġinject ion
ĠShort ly
iche ver
Ġdil ig
ĠChem istry
ĠLund gren
Ġarbit rary
Ġgaz elle
zeg ovina
Ġtelesc ope
B uy
C Y
C AN
G ran
N on
N et
O ber
S i
S cientists
W onder
d ate
d rive
d ifferent
f un
g s
p ig
r ance
s ir
z in
Ã Ĺ
Å ĳ
he h
re cht
ou m
Ġf ries
Ġto ad
Ġy ep
Ġy oga
ĠS ORRY
Ġwh isk
ro x
ĠA RT
ĠA uckland
ĠC ob
ĠC ousin
ĠC ARE
ĠM ist
ĠM Äģ
ur able
Ġnot icing
ust adt
ĠT onight
ĠT ennis
ĠD ata
Ġsh an
Ġj ournals
Ġr asp
ie ving
ab we
ab ille
ig ger
Ġpro stitute
It alian
Ġle ase
ank ed
Ġbr ute
Ġcomp aring
Ġpart ition
Ġwhere by
Ġneed ing
Ġsc outs
orm an
Ġper imeter
Ġcomm od
Ġco ats
Ġpol ished
ĠMar ÃŃa
Ġ18 30
Ġchild ish
Ġsl ides
Ġreg ain
Ġdist ribute
let abille
Ġcap ability
Ġdisc ipl
Ch ild
Ġinter change
ĠGr ade
Ġcur ling
Ġorgan ism
de ep
ĠEd itor
Ġav iation
Ġview ing
Ġstar ve
ĠColl ection
ĠFrank furt
ĠAre na
iny l
Ġfavor able
ĠQu arter
Ġsens ors
Ġprincess es
Ġspl itting
Ġ187 4
Ġstrugg les
Ġoccup y
ĠJud a
Ġmechan ic
ĠLook ing
Car ter
Ġmo aning
ĠAM C
only include
Ã´ n
every body
ĠBea ver
ĠMod el
Talk ing
Ġastron omer
Ġfasc inated
Ġgrace ful
ĠDur ham
ĠSab ha
osaur us
imb abwe
Ġgig antic
Ġconfront ed
Ġalleged ly
Conn or
spec ies
ĠDeb bie
Ġcoe fficient
Ġdemol ished
Ġpseud onym
ĠBron x
ĠWea ver
pupp y
ĠMiddles ex
Sax on
' "
B it
B ab
B itch
D ang
G N
M OR
W oody
W ayne
f al
g os
j as
l Ã¡n
p resident
t imes
w olf
w aukee
Ġ ),
Ġt il
in um
Ġw il
Ġc ask
Ġp anting
Ġl ime
Ġhe aled
ĠC ay
ĠC avalry
ĠC redit
ĠH uss
Ġkn elt
ĠW ake
ĠG ideon
pp le
ĠL ions
ĠF olk
ĠJ ung
ĠCh ip
og ical
Ġbl unt
ne ck
oc ent
oc ide
Ġad orable
ens burg
ĠMar sh
ĠBr is
ĠAr c
âĢĻ .
Ġrel ocated
Ġbo oth
Ġdep ict
AT CH
Ġread ings
ai y
AR R
ĠGr ac
Ġair ing
ten stein
Can adian
ĠThat cher
ĠPro fessional
ract ion
Ġspec ulation
ĠWill is
ĠPh ot
Ġsuccess es
ĠAb by
Ġtreat s
Ġgrand parents
ĠMc Donald
ilar ly
Ġsuper visor
Ġtrack ed
Ġport s
Cl ar
ĠDan iels
AL D
Ġpeace fully
don ald
Ab d
Ġdoubt less
KE Y
EL Y
Ġimm unity
Ġoccur rence
Ġmedic ines
ĠWal ton
igg les
Ġconsist ently
Ġdescend ing
Ġdeleg ate
di ocese
Ġcoordin ate
ĠKnight s
Ġstrateg ies
ĠĠĠĠĠĠĠĠĠĠĠĠĠĠĠĠĠĠĠĠĠĠĠĠ ĠĠĠĠĠĠ
ĠWes ley
ĠSpr oul
ĠHawai ian
ĠDream s
ĠMarian ne
Ġtang ent
ĠBrand on
Ġanticip ated
offic ial
ĠGriff in
Ġexclud ed
CHUCK LES
Present ly
ĠLithuan ia
Ġincon ven
ĠWag ner
B an
F il
P RO
Y up
a els
b red
c art
d ied
h ig
h usband
l ive
l ost
r ised
z on
Ġt id
Ġt apped
Ġthe olog
re k
Ġb ree
Ġf rig
Ġh ides
as ar
ic us
le gged
Ġwe ener
Ġwe ights
ĠS ind
ĠS ob
ĠC herry
ĠM ON
ĠB ing
ĠB ash
ĠB eg
il o
ĠP athan
ĠW i
ĠW ilt
ĠW inn
Ġr acket
Ġde lete
ist les
ĠL ey
ĠL ois
Ġso ot
Ġal ibi
Ġch ron
Ġwor sh
Ġpl um
ra pped
Ġjust ified
Ġtr ot
ov ies
per ty
oc aly
oc hem
Ġad am
pl aced
Ġpo lyn
te am
Ġbu ccane
az or
ys crap
ĠAl varado
Ġob li
ling en
ex actly
ope z
ĠQ atar
Good night
Ġins ol
oor ay
ĠDo one
ĠHer zegovina
Ġdraw ers
Ġcourt iers
ĠUS SR
Ġaccept s
Ġhy m
Cl int
ĠBE LIE
Pro blem
board ing
ĠAnt i
Ġproud ly
197 9
Â¶ Â¶
Ġscar let
ĠKat hy
ĠFer dinand
ĠEll iott
Ã« l
Ġsuburb an
Ġuna ware
Gold en
ĠUl ster
icular ly
GRUN TS
ĠRabb i
Ġsurg ical
A USE
B OY
L ab
L AND
O liver
R at
T onnie
w art
w ana
in as
Ġb red
Ġb ip
Ġwe aker
ĠS I
Ġfor wards
ĠM TV
ĠH unting
ce ans
il ot
ant o
op in
op us
ul ator
ĠG ian
um ar
ist e
Ġthere after
Ġv engeance
Ġdon ation
ĠK Ã¶
ud ent
erm ined
Ġam use
sh ots
Ġper ish
Ġ3 000
Ġhand ing
get ic
Ġlea pt
Ġ18 40
Ġsl ut
ĠAl as
ĠSh ane
ject ive
Ġpop ulated
Ã© g
Ġfr amed
Al ready
Ġins ign
Ġmark ing
Ġpar anoid
Ġsqu ash
ĠNorth west
arl ow
Or der
que z
ma res
how ever
uri a
Ġmer it
Ġsuper st
Ġmater nal
Ġemb assy
Ġcapt ive
ĠAct ors
ST AND
ograph ics
ĠSund ays
Ġcere bral
Ġassoci ations
196 7
Ġtravell ers
Ġcontest ed
Ġjoint s
Ġrespond ing
Ã´ te
Comm unes
Ġspect ators
ĠSher idan
ĠPL ACE
Ġillust rations
ĠWin ston
Ġtrunk s
Ġreflect s
Comp osition
Ġshield s
ĠANY THING
AK ES
ĠAlb any
Ġwithdraw al
ĠBO OK
ĠOri oles
Fre eman
Ġprophe ts
Ġdeploy ed
Direct or
ĠSloven ia
hmet ov
Barb ara
Ġepid emic
Interest ing
Ġmicrow ave
F ood
L inda
P ot
R ober
U B
W at
d ong
d ra
l ink
r ub
Ã °
Ġb izarre
Ġc ork
ow ler
Ġre pt
ro le
Ġk idd
ĠB ravo
th irty
ĠD aisy
ĠR anger
ĠR UN
ĠN ell
ig ar
ook s
ĠK EEP
Ġcl ues
Ġro ok
Ġover board
ass is
ass ium
Ġbr ake
amp ed
ĠV ia
Ġun ite
Ġun common
Ġbl iss
Ġim pe
Ġday time
Ġsc enery
Ġfl ats
Ġpol es
Ġi Phone
Ġkind erg
form ula
St at
gg ers
Ġreal izing
Ġph on
RE S
ĠĠĠĠĠĠĠĠ ĠĠĠĠĠĠ
Ġart work
Ġ10 2
Your s
pr ising
Ġshort ened
Ġline up
Ġdevelop s
Ġdevelop ers
Be hind
Ġbar ber
ĠPl us
Ġstri pped
Ġimag inary
ĠPhil osophy
ĠIN TER
light ly
ĠOK AY
ĠAlex andra
Ġfunction ing
Am azing
under stand
Ġfit ness
Ġur ine
Ġcelebr ities
Ġmor on
Gu ard
ĠArt ists
Ġ187 8
Ġmission ary
Ġjudge ment
Ġban ner
Ġshout s
rib ly
Ġassum ptions
Ġdetect ives
Ġremem brance
Ġ185 9
ĠBre ak
po em
Ġneighborhood s
uv ian
Ġchop ped
Ġdeliber ate
mil k
Ġdisturb ance
ĠPap ua
Ġdrain age
mom ent
Ġadvertis ement
ĠSumer ian
acea e
ĠUg anda
Ġsulf ur
Ġdiscontin ued
Ġhes itation
ĠPresbyter ian
C and
C orn
O ise
S L
S cience
b Ã©
l oss
n im
p rop
t ape
v ig
w ives
Â £
Ġb ounds
or gh
Ġp est
Ġp oop
ĠI X
us i
ac count
ĠS L
ĠS pect
Ġwh ither
ir su
Ġst umbled
ĠC ertainly
Ġha unted
ĠB rom
ĠB ast
ĠT ackleton
ĠP lymouth
Ġli zard
un ct
ĠN IGHT
ĠN CAA
Ġch ord
ĠO belix
ak an
ĠK atherine
ĠK IND
ci us
Ġen lar
Ġhapp iest
ath lon
Ġhand les
form s
Ġind ef
Ġind ifferent
ason able
Ġsub prefecture
Ġsw ell
Ġimp ose
Ġem blem
Are a
Ġtrans p
Ġinter vals
ĠWe gg
ĠRe ading
ĠAll ied
ĠTr ud
AS H
ĠFrench man
Ġlay out
ĠEx amples
off ice
Mar ion
road s
Ġindivid ually
fl owers
gu y
ĠComp an
ĠAct s
Ġhero in
Ġlog s
ĠScot ch
Ġpred ators
ĠHol t
Ġcrew s
Ġmel ting
Ġgall ows
Ġju ven
Ġ185 4
ĠLu cerne
ĠHan Ä±m
Ġpin ch
Ġcollabor ated
hard t
Ġtap ing
Ġathlet ic
ĠSav age
Fort unately
Ann ouncer
ĠBat man
beh ind
Ġcreep y
Ġunl ucky
ĠMong olia
mod ern
ĠOz u
Ġcort ex
Ġpled ged
Ġbarr acks
ĠPriv ate
Ġembro idered
Ġamaz ement
B ow
C D
G a
K enn
M ich
O ops
R ome
a illes
g iven
m ies
s le
u ya
w ave
w ara
y on
z ig
Ġt rop
Ġo v
Ġp all
as ily
Ġin verse
Ġl oneliness
Ġg ird
ut us
am us
am ong
ĠS hen
Ġwh im
Ġst yl
Ġk ite
Ġk angaroo
ĠB US
ĠT ouch
ĠP all
ĠP ine
ĠP OWER
ĠW en
un al
ĠG ael
ĠL ena
ĠR acey
ĠF ed
Ġup s
Ġout comes
Ġpl ucked
Ġsa x
Ġv alleys
ĠK arn
Ġcl ad
per fect
ĠV on
ĠV ince
ign on
ĠAr ms
Ġfin ishes
Ġpres ume
ĠNo ah
Ġchar itable
Just in
RE T
ote chn
ai ge
ĠSo ci
ĠSc reen
Ġbuild s
Ġter rain
Ġshort est
wh is
Ġspec ified
Ġreason ably
Ġdem o
Ġperform s
ĠMan it
ĠGu ide
read ing
Ġav al
Ġrequ iring
Un ivers
Ġpen insula
ran ium
rican es
Ġhost ing
ĠST ORY
Ġbi as
Ġbab ys
Ġir res
Ġexam ining
ĠHa ute
Under stood
Turn s
Ġsuck ed
Ġga ily
ĠNev ille
Ġlob ster
Ġindu ction
Ġcod ice
alan x
Ġstro kes
Ġvary ing
ĠSof ia
ethe less
Ġchlor ide
Ġstair case
Ġcompos ers
ĠEnvironment al
ĠCrim inal
Ġspont aneous
coff s
Ġexpend iture
Ġpave ment
ĠCald well
ĠTuls a
B ox
C old
D est
E sc
F R
G U
G ary
H istor
L ead
R ah
S anta
a gh
d river
m ith
m em
s cience
u ah
Ġt et
Ġw icket
Ġb il
Ġo mn
Ġf ills
ĠI ND
ent er
ac ional
ĠS olar
st art
ĠM otion
ĠB uk
ĠT in
ĠP ull
ĠP UT
ĠW ilm
Ġsh ipped
Ġsh ifting
Ġj im
ĠG ol
ĠG unn
ĠR ural
ĠJ upiter
Ġcon ject
ĠE R
ink i
ort ic
He ads
Ġsp illed
ine as
ĠSt ig
ew ey
Ġun seen
ile e
but ter
Ġreal izes
Just ice
Ġcap abilities
ik ov
Ġloc ality
Ġsign atures
Ġdisc retion
Ġpar ole
Ġadv ances
Ġcomple ment
Ġ12 5
ĠTH OSE
ĠAd ler
ĠAd olf
Ġwonder fully
Ġspecial ty
Ġcal ories
Ġsuper b
ĠPark inson
ĠDem on
ĠSch midt
friend ly
Ab by
Ġfort unes
ĠBen ny
Ġrain y
ĠChe ck
ĠMal ta
VER S
Ġsen ate
ĠDay ton
ĠSil va
196 8
Ġanx iously
Ġtim id
Ġagre ements
Ġham let
Gl ass
ĠGre thel
Cong ress
pol it
ĠMu lder
Work ing
Ġwire less
Ġaston ishing
ĠEp isode
Ġairl ines
ÅĤ aw
Ġprompt ed
mil o
Ġque ue
Ġdece ive
Ġfemin ine
Slow ly
Ġreorgan isation
ĠAlbum s
Ġrevers ed
pill ar
Ġtriang les
ĠHEL P
Ġdisband ed
ĠGujar at
C ry
H z
I LY
M l
M erry
O uch
c ars
r ater
s ama
Ħ Å
Ġw ink
Ġw reath
it he
it ri
Ġb ully
Ġp yramid
Ġin equ
ĠI C
Ġon ion
im ity
ĠS eg
Ġst ink
ĠC LE
ĠM mm
ur ger
ĠH D
if iers
il us
il ant
ĠT hy
ĠT ottenham
ĠP eak
ĠW an
ĠG enesis
Ġde bris
Ġso cially
art a
ĠN ate
ĠN iels
el in
Ġal as
ĠJ ur
ĠJ ill
Ġsu ed
ĠO wn
ĠE RA
ough ing
are lla
ĠIt al
other s
ans on
Ġen rolled
ĠV aud
Ġun stable
Ġneed les
pl anes
Ġgu idelines
Ġpre acher
gr ounds
Ġset up
Ġsub way
Ġass es
ĠCount ess
Ġdirect ive
ĠSp y
ĠZ imbabwe
Ġed itors
Ġtrans action
Ġ10 4
ĠGr imes
pr act
ĠFor bes
Ġorgan izing
ĠOr lando
ÃŃ o
ĠWell es
sp irit
Ġdoub ted
Ġneg lected
Ġpolic emen
.' "
ĠAnt ar
Ġneck s
Ġsens it
ĠRob ey
Ġchief s
ĠEr in
Ġduck ie
Ġheaven ly
ih an
ĠCam ille
ĠRaj as
Ġsales man
ropol is
ĠKar achi
Ġpeak s
Ġgraph s
ĠPhilipp e
Ġpoll s
ĠBon nie
Ġcruel ty
Ġastron omy
Ġalien ation
ĠBR AD
Ġconven ience
Ġmanufacture rs
ĠGh ana
?? ??
ĠWheel er
Ġinfect ions
Ġaccus ations
Ġcrumb s
ĠNamib ia
ĠKirch ner
Ġlapt op
B ra
B uddy
C AP
D ist
F ool
J ose
L ost
M edia
S ong
d ress
n st
n ope
s ac
s ville
v ic
v oice
â Ī
in ally
it Ã©
Ġb udd
Ġc one
Ġc yn
Ġf iddle
Ġh ij
Ġd ow
Ġp int
ut a
ĠA ce
Ġst atic
Ġst ables
ĠH ear
ĠH EAD
ĠB ent
ĠB uc
and ise
Ġnot eb
ĠW ah
ol ith
ĠD olly
ul o
ĠG os
ĠG ud
Ġde ity
ĠL uck
ĠL AST
ĠThe ory
Ġup graded
Ġlike lihood
ĠK itty
Ġman iac
Ġar ises
Ġgr ains
ass ie
Ġun rest
Ġun lock
ĠY ong
ater nal
the ory
Ġfl aw
aw i
Ġsm ash
Ġmust ache
AN ING
ĠSh i
ĠSh outing
Ġdec omp
Ġem pir
Ġref usal
ĠCl oud
For mer
Ġ10 6
ĠSc andin
Ġfore ns
ĠCon struction
Ġadv iser
Ġest ates
ĠX IV
com pl
Ġprop riet
stit u
Ġlab s
Ġtrad es
field s
ĠSen eca
Ġsett ling
Ġaut ograph
Ġcirc uits
Ġident ifying
Ġener gies
Ġcivil ized
kn ock
Ġscreen ing
198 2
Ġsatisf actory
ĠSl ow
Ġtele gram
zz y
197 1
197 3
Ġdefend ants
Ġmotor way
cons ider
Ġsli ppery
Ġdu pl
ĠSur in
Ġcock pit
Ġsacrif ices
Ġreact or
ĠBas in
Ġalcoh olic
ĠHead quarters
Ġdemonstr ations
ĠAv iv
Ġsorrow ful
Ġbass ist
Ġproport ional
ĠLind say
Ġdwarf s
ĠEX P
Ġgra ves
haw ks
Ġbapt ized
Ġsustain able
Ġobsc ure
Ġreinforce ments
ĠMap le
ĠCase y
ĠPrest on
ĠConc ord
ĠVern on
Ġaggreg ate
Ġirrig ation
Ġincom plete
C ase
F ORE
G UN
K er
N ING
S ebastian
T am
T own
U LL
W y
W ed
W ard
b ol
b ump
c ot
f o
f air
l is
t ub
Â ¡
Ġa pron
in ished
re leased
Ġf ry
Ġf oe
Ġd agger
es i
Ġl ick
Ġn ests
ĠI ber
ad ad
ĠS ere
ĠS ON
ĠS kin
ĠM ail
ct rine
ĠH els
if ix
and el
ĠT ucker
ol ate
ol son
ĠG em
ĠG Ã¶
Ġr im
ĠL amp
ĠL illy
ĠF eder
est het
Ġor al
ast ics
Ġv odka
ĠK as
ĠK em
Ġar ithmetic
iv able
ĠSt y
ĠSt arr
Ġro asted
Ġqu otes
oll er
ade qu
ĠV augh
ĠV iol
ere m
Ġam mo
Ġun ic
ark ing
Ġsm arter
HE L
Ġacc use
Ġpres ervation
ĠAl right
ĠSh h
Ġmet aph
Ġmet abol
Ġsk yscrap
ric o
Ġ10 3
ĠTHE SE
ster ix
ĠPro gressive
Ġpar cel
ĠTr ack
de en
ĠTO LD
unicip al
Ġdescri ptions
Ġlim estone
ari at
THE N
ĠMon th
Ġgrad ient
Ġobs erver
ĠReg ency
ĠBo hem
ĠChe ers
Ġoffer ings
comm ittee
197 8
Ġvac ant
Ġexpress ing
ĠHy de
Ġinstruct ed
Ġterrif ying
Eng ine
Ġtorn ado
Ġcraft s
ĠRet urn
ĠBird s
Mur der
Pop ulation
ww w
Ġrebu ild
Ġcul min
Ġbloss om
Stan ley
third s
cro ft
Ġsolic itor
Ġamend ments
cyclop edia
Bey ond
ĠGodd ess
Ġfric ative
ĠMÄģ ori
D epend
D ifferent
F reeze
G all
H aw
H undred
J O
L ow
N urse
R ound
W ish
b il
c overed
h aha
v ain
Ñ ĥ
he alth
he avy
at u
Ġm ute
Ġm hm
Ġd ome
Ġp awn
Ġin mates
Ġl ur
Ġg n
ic eable
al is
al ore
ac hy
ĠS ire
ĠA CC
Ġst ap
ĠM ale
Ġk o
ĠH ers
ter dam
ĠB ard
ĠP ain
ĠW ife
ĠW AIT
ĠD ag
ĠD oming
Ġj aws
Ġde ment
ĠL af
ĠL iga
ĠR A
ĠF ant
red ible
ĠO S
ĠK ann
ven ues
are z
ĠSt ore
ite i
og ues
Ġad min
ign o
az ar
clud ing
Ġph alanx
AR M
ĠCol onial
arl ic
unk y
who le
ĠEx pl
ĠIndian apolis
Ġshut ting
rav ag
Ġpersonal ities
Ġliter acy
Ġemb ry
ĠMil waukee
lement ary
ĠProv idence
Ġ187 6
ĠOs aka
Te xt
ĠAng l
Tw ist
Ġpool s
ĠConn or
EM BER
Ġsubt it
Ġsuck er
ĠSher lock
Ġped al
ĠREA L
Ġtiss ues
Ġaer ial
Ġdwell ing
roph ic
Ġcongrat ulate
ĠBry an
Ġoverwhel med
Ġsurviv or
Ġprophe cy
sweet ie
Ġrehab il
Germ any
Govern or
Ġbung al
Ġembed ded
ĠBRAD FORD
- "
K amen
L ine
L ew
N eg
S el
S outhern
S chedule
U l
f unction
m unicipality
o at
p end
p ants
s ister
z an
z ards
Â Ŀ
Ġa le
Ġw its
Ġm ould
Ġm ule
Ġf encing
Ġp its
Ġp sy
Ġg ly
om bo
Ġhe ights
Ġon ions
ut ches
im us
Ġwe ighs
ĠA ren
ĠM obile
ĠT ina
Ġgo b
ĠD ixon
Ġj og
ĠG w
ĠL ed
ĠR ao
Ġab dominal
ig nt
Ġher ds
Ġout ward
Ġpl ank
ĠE NG
ink a
Ġv oid
Ġex ting
ak sh
ĠK ol
own er
itt ered
end o
Ġen listed
Ġad orn
Ġunder take
ath olic
Ġmean ings
ug gest
mber g
ĠMar se
Ġsl iding
ĠDe uts
Ġdep ended
ĠPr inces
Ġinc ons
Ġrep ro
ĠJohn ston
Ġtrans plant
ai us
Ġca vern
ograp hed
Ġhon ours
Ġtre ad
Ġbar rels
ĠEd win
Ġrepresent ations
uk es
Ġdev ote
ĠPet ru
ĠST R
ĠTur ks
chan ical
Ġsmell ed
ĠCongress ional
ĠBur l
ĠArt icle
Ġmir rors
ĠFred er
ĠFred die
ĠVer de
Ġunf old
Ġsubs id
Ġbless ings
Ġinsp ire
OY D
Ġdisappear ing
Ġtherap ist
Ġtender ness
Ġdiscip les
Ġerr and
ĠCole man
Ġfisher men
Bro ok
Ġaccompany ing
ĠEls a
Jon athan
Bus iness
Ġreluct ant
IÃŃ m
Brid get
ĠCAP TAIN
Cant ons
Ġincor rect
ĠSacrament o
ĠBELIE VE
) &
C hat
E va
J udge
P en
T old
W Ã¼rttemberg
b ah
c old
d istrict
h l
r int
s ar
in ement
er ting
Ġc ement
Ġm oor
Ġd ine
Ġy acht
as ia
Ġin appropriate
ĠS ki
ĠC oul
ĠC oming
ĠC opp
ith a
ch ron
ĠH EN
ĠH ague
ĠW ON
Ġsh ines
ĠG A
ĠG az
ĠG raz
ĠL ap
ĠL aughs
ĠR iding
ĠF ri
ĠF ir
ĠF ork
Ġall ied
ab lish
ĠO ct
ĠE asy
Ġpro clamation
ĠU mma
Ġen closed
Ġplay doh
In s
Ġdis respect
Ġdis puted
sh ops
ĠTh ought
ĠMar l
gr ateful
Ġind oor
Ġkeep er
ĠSh rewsbury
Ġgl or
Ġdef ic
Ġchar coal
Where ver
Ġloc als
ĠSp ec
ĠZ ap
Ġadd ict
Sh ir
Sh ame
ai res
ĠGr ass
OR GE
Ġmark er
ient o
Ġbreak through
Ġpast a
Ġcompet itor
Ġbar red
Ġve t
ĠX ML
ĠTom orrow
ford shire
Ġhospital ized
Me gan
play ed
Ġplant ing
Ġheavy weight
Ġinvestig ator
Ġdeterm ines
hold ing
Ġbright er
Ġble ed
Ġprevent ing
Ġprem ature
Ġmut ations
Ġbother s
Te chn
Ġgall op
196 6
point s
Ġhom icide
ĠBea utiful
ĠOl ive
Ġimpress ions
Ġdecor ation
Rob in
Grand pa
Ġfulf il
Ġinstitution al
Ġinsult ed
Ġpron ounce
ĠHistor ical
Ġvig or
Ġbapt ism
ĠHamm ond
Ġgir affe
Ġscrat ched
ĠCoun sel
Ġecst asy
ĠRif le
repl ied
ĠExped ition
! _
A ction
B rilliant
G ay
J a
L og
N i
T een
Z e
b ane
c op
c ole
d ollar
g ary
h ours
j ump
k ot
k ir
k un
r ans
t ower
Ä Ľ
Ġa ft
in ters
ou pe
Ġb aking
en i
Ġp ea
as aki
Ġl umber
Ġn ay
ĠI gn
et in
Ġfor s
Ġfor fe
ĠC hern
ĠM OM
ch ance
ch tenstein
ĠH ence
ĠH erman
Ġse ct
ĠT able
Ġli vest
ĠW ee
ul ative
ĠL ief
ĠL opez
ĠF ear
ĠF IN
ĠN ile
est ro
Ġcon dom
Ġpl ag
ĠE ch
Ġtr aps
ip es
end e
Ġcl usters
ĠCh un
ĠCh ick
ĠCh urches
ens itive
ob y
Ġdis may
ee le
Ġgreat ness
what ever
Ġtry in
Ġmon uments
ĠAl ways
Ġrel ieve
Ġel mo
Is rael
ĠSh ak
ject s
Ġsw ine
Ġcle arer
RE Y
ĠZ ar
ĠZ oo
Ġsk ating
Ġtra um
Ġmiss es
ĠBl aine
ĠPro bably
Ġdad a
Ġca fe
ĠComm un
Ġeng aging
Ġdel ic
arl berg
Ġallow ance
ara oh
Ġsn atch
uri ously
Ġshot gun
uz ey
ilar ious
Ġstri ps
Ġstri ker
Ġstre ak
ĠSen egal
Ġaut onomous
ĠAir bus
Gr ant
ĠBer tha
ĠBel fast
ĠRob bie
ĠRes ources
Ã¨ ne
Ġdisp osition
Ġcommer cially
Ġ185 7
Ġmort ar
ĠSH OW
ĠRod ri
whe ther
Ġvir uses
ĠNic ar
Ġassault ed
ĠPart ners
ĠBol ivia
Ġconfirm ation
Ġbold ly
Ġobst acle
Ġwo ven
Ġextensive ly
ĠNik ki
Ġpreced ing
Ġretreat ed
ĠSister s
Ġturt les
Ġtrump ets
ĠRot terdam
bill ion
BEC AUSE
- ,
D F
D ennis
F ast
F riend
F resh
F reedom
M arty
N ay
R IGHT
R IST
T ax
b right
d ings
d irty
t aker
Ø ±
Ġt unes
in ers
Ġs igma
an ity
en egro
ll i
Ġto mat
Ġp ens
as o
et o
Ġbe ers
gh am
ro qu
ĠA ch
ĠA be
ĠM t
ch anging
Ġat he
and i
ĠP Ã©
Ġkn ots
th itta
ore r
Ġr ushes
ist Ã¨re
ĠJ eh
em in
Ġup grade
Ġ( ?
ap o
Ġor th
ĠO ften
ĠE C
ĠK nox
are st
Ġmore over
act ing
ĠV alais
av irus
Ġbl uff
ru ff
Ġcar avan
Ġcount less
ph al
row s
Ã© part
of en
Ġheart y
Ġdisc ourse
Ġtrans parent
Ġwin ters
Ġfire place
ĠFor ster
Ġterm inus
Wh a
Ġbar bar
ĠGu ys
Ġpost ers
Ġaff irm
Ġda res
ĠHigh lands
Ġbag gage
Ġdisapp ro
ĠCour se
Ġver ge
ĠEm ir
Ġwild life
ĠKh al
Ġund erest
Ġhonor able
Ġsle e
unn el
197 7
ĠStud y
Ġroof s
Ġmel ancholy
Ġfashion able
Ġscrew ing
Ã¦ m
Ġgrave ly
Ġbat hing
Ġshr imp
Ġveget ation
Ġlegend s
Ġcycl one
iat ric
nat ured
Kill ing
Ġven om
Ġwreck ed
ĠPant on
ĠGR UN
Ġpublisher s
ĠKit chen
BR ID
Ġbri be
Ġrecre ation
Ġunsuccess fully
Ġsor ce
Offic er
à¥ į
ĠVor arlberg
Ġstrengthe ned
Ġbask ets
Chair man
ĠTHR OUGH
Ġeyebr ows
ĠDerm ot
lesiast ical
Ġendors ed
E mer
F antastic
G ab
O ften
R um
T otally
V e
c amera
f und
m icro
p ence
p oles
t im
y ards
È Ļ
Ġ à¤
Ġt ying
Ġthe o
it on
Ġb ah
Ġh iring
Ġd uel
Ġp us
Ġg oo
ĠI R
Ġhe x
Ġhe li
ad itional
ĠS ame
ĠS ave
ke es
Ġst ain
Ġst itch
ĠC ash
ĠH our
ĠH onda
ĠB ene
ĠT aj
ant is
un it
th omas
ĠD art
ĠD ante
Ġsh rill
Ġde an
ĠR oland
em porary
Ġor anges
ra ul
ĠK ane
iv ities
Ġcl umsy
ĠCh ow
ade h
ĠV a
av or
ĠY i
ater ial
Ġcount enance
ĠMar ina
vent ure
ner y
olog na
Ġass erted
Ġwater ing
eg iate
Ġimp aired
ĠCl af
ĠGr unts
OR S
ĠBl ind
Ġwatch man
ĠWar riors
Ġpat ches
Ġlisten ers
Ah hh
ĠAb el
Ġpost erior
see ing
Ġgreen belt
Ġsuff ers
ris es
Ġaut opsy
Ġhost ages
Ġradio active
gu er
Ġconv ict
ĠLi u
ĠLi bert
Ġcy ber
Ġpsych o
Ġfault s
Ġmor ality
ĠSun ny
ĠFin istÃ¨re
ĠIre ne
Ġgall oped
col umn
196 4
ĠJeff rey
Ġproceed s
Ġapolog ies
ĠAS S
ĠHy der
Ġunf inished
Ġpoison ous
ĠAk hmetov
Ġsuck ing
ĠSant o
Ġcas ino
ĠMu hyul
Ġcraw led
Ġevolution ary
Ġcorpor ations
Ġrecover ing
ĠConstant in
rec ord
uj ah
ĠSoph ia
Ġspaces hip
gro ans
ĠLegisl ature
Ġprett ier
Ġfemin ist
Ġhumili ating
ĠRand all
hop per
ĠLAUGH ING
ĠPul itzer
Ġharass ment
Ġempt ied
ĠGust av
ĠPom pe
ĠDup ont
ĠClaf lin
? .
E than
F ly
F arewell
K A
K yle
L ind
M is
P ri
R iver
U lt
V ideo
W ILL
b bing
d ri
g ener
j une
m ary
n un
p ain
u ced
v ro
he k
Ġs ally
on omic
nd e
is bury
it ars
or ax
Ġh ose
Ġh over
ar in
ar at
Ġy en
Ġg el
Ġg ifted
Ġn ipp
al bum
ĠS AT
Ġwh a
st antly
se in
Ġst ems
Ġst ooped
ĠC het
ĠC ategory
ĠH ale
Ġdo pe
ĠB orn
ĠB oh
ĠB ody
Ġse ating
ĠT urt
ĠT inker
Ġsh ack
Ġsh aved
ĠL ay
ĠR as
ĠN u
Ġcon junction
ĠE y
Ġex terior
ĠK itt
ag li
Ġcomp artment
ĠV ed
ĠV ul
ĠY as
oc he
Ġper cept
ah oo
Ġ18 37
Ġent reat
Ġob last
Not es
Ġsw ollen
ĠPr ussia
ĠAugust us
Ġdet ention
Ġinform al
ĠX I
Ġcost ly
ĠAfter wards
Ġbuy er
alt ar
ĠEl ena
Ġworth while
Cl are
ĠIT V
Ġdisapp ears
ĠBy ron
Ġmodel ing
ĠME ET
Ġrob bing
Ġplant ation
asc a
Ġbath s
arn ation
RI AN
Ġign oring
Ġded ication
ba a
Tw elve
ĠTy p
Ġnumer ical
Ġ185 5
Ã¦ us
ĠInter state
sk irts
ĠDef oe
Again st
Ġunus ually
uer bach
Bel ow
Ġcert ification
Ġdecor ative
ĠHam let
ĠBol ton
ĠStand ing
Ġrib bons
Ray mond
Clear ly
Roll ing
Ġdialect s
mans hip
Ġmanuscript s
Ġsob bing
ĠVir g
ĠPow ell
ici ary
Ġorch ard
Ġsanct uary
Ġinval id
Ġoutrage ous
Ġarrog ant
ĠTert ullian
ĠParagu ay
ĠLief ering
" ]
2 20
9 00
A way
B road
E ss
F aster
G C
J EFF
L atin
N HL
P age
R u
S elf
a ic
c ats
f at
h av
i antly
s outh
t ight
Å Ļ
Î ½
Ġt art
Ġt umbled
nd s
Ġb our
Ġb ows
Ġo re
Ġm akers
an os
Ġf use
Ġf iber
or ic
Ġd ame
Ġth orn
Ġp ist
Ġp onies
Ġl akh
Ġn igg
le ader
ut an
ĠS pe
st y
ĠM C
ĠH urry
her ic
ĠB it
ĠT ale
ain ty
ĠR ash
ab ble
Ġal mond
one ly
Ġch ina
ĠE duc
ak k
ĠK erry
ank an
Ġro sy
Ġbr ushed
ĠV eter
Ġun ified
ru ly
Ġte lev
Ġsc oot
Ġunder went
ĠTh ousand
man i
Ġmar s
Ġhouse keeper
olog ne
ash tra
Ġmet h
Ġwater fall
Ġpop ping
AT ED
enn ial
ĠZ el
Ġsk et
me al
Ġdri pping
Ġbeh aving
Ġexp on
Ġcol t
Al t
Al fred
Ġins cribed
ĠRe in
ĠAll eg
Ġeng lish
Ġconst raints
ĠBar nes
ĠOr d
Ġill ustration
ĠGu er
Ġz oom
Ġcurrent s
Ġbuy ers
Ġport raits
ĠPer uvian
ĠNe ustadt
ĠMon ument
Sp ace
Ġide ology
Ġprim aries
ĠBer gen
ĠÂ °
Ġsal ute
ĠMont enegro
Ġcab les
ĠSim ran
Ġplat oon
Ġban anas
ĠEmp ress
Ġdefend ers
Ġagre eable
ĠJun ction
uls ory
Ġmort ality
Ġexhib its
ĠRail ways
Ġentr usted
ĠLie chtenstein
Sim ple
ĠBern ie
ĠMir ror
Ġsimpl icity
utt le
Ġsmooth ly
Rep eat
Ġassass in
Ġrejo icing
idel ity
Ġexplore r
Ġearthqu akes
Ġrust y
Ġtoler ate
sil ocy
Ġsolemn ly
Ġobed ient
pow ered
Origin ally
Ġresur rection
Ġdenomin ator
ĠPab lo
Ġartif acts
Ġlag oon
ĠHein rich
Ġexcell ence
Rus sell
ĠHait i
ĠGarc ÃŃa
Ġpamp h
atche wan
D er
F light
O cc
W A
W o
_ :
m art
u ously
y ght
ou fl
Ġs andy
at ile
ar f
Ġin herent
Ġn ude
Ġre write
am thitta
ly ss
ill er
if ax
ĠT at
ĠP ony
op old
ĠW itness
ĠL ines
ĠR I
ĠF ry
ĠF actory
Ġso y
ab ove
Ġher ald
Ġcon ced
Ġpl aster
ĠO le
ĠO sc
iv ated
Ġ' ,
Ġpe b
ount ains
ĠSt ev
ov y
ach ine
ru gg
In f
be ep
Ġnew er
Ġmar riages
Ġacc using
Ġsl apped
Ġdef ines
ey n
arr is
Ġinter mediate
Ġ10 5
Ġland fall
ĠBl u
Ġins uff
ĠMin i
Ġoper as
Ġsupport ive
Ġste als
ĠPl ain
ĠGeor gie
Ġprocess or
ĠEx eter
Ġrese mble
CH O
Ġgen ocide
Ġple as
ĠMe itei
Ġfre estyle
Ġmult itude
Ġviol ations
amm ing
ĠSam ar
fl oor
Ġver ify
Ġcab bage
ĠRes istance
Ġarg ues
Pr im
Pr ime
isher s
Ġboo ze
Ġmut ation
Ġcrack s
Ġstock ings
Ġcro ok
cont rol
ĠOut standing
Ġapolog ise
miss ions
ĠConfeder ation
ĠRom ney
Ġnut ri
ĠJacob s
ĠTechn ical
ĠRober to
Ġsquad ron
ĠYe on
ĠBurn ing
Lou ise
Ġpor ridge
Phil ip
Mor ris
ĠPy thon
Mag gie
cond uct
ĠCarm en
ĠVik ings
Ġchrist mas
Ġorg asm
Ġportray al
Leon ard
Gro ans
Ġpredomin antly
Carm en
ultip le
ĠAdela ide
ĠPathan amthitta
Ġtomat oes
D uck
D awn
E ventually
F MAN
G reetings
J ACK
L ax
L iber
M oving
P ara
R io
R achel
S ue
T ook
U krain
b ott
f illed
g ru
s we
s pl
t ouch
v iation
x i
z ek
Ġt aped
Ġw ickets
ou cester
Ġc oo
Ġc um
ll en
Ġl ounge
Ġn oses
am atic
ĠS uk
Ġha il
ĠB ates
ĠB elle
and on
ĠT ah
ge nder
ĠD ud
Ġsh illings
ell es
ĠG ret
ĠG Ã¼
Ġr ake
ĠL iv
ĠR EL
ĠF alk
ĠN est
Ġch oked
ĠE min
Ġpro claim
Ġsp ying
ĠK ens
ĠK ham
ine z
itt in
ian ca
ff e
ary a
ĠSt rat
Ġback yard
we ather
Ġun just
ĠIn ner
iz on
sh am
Ġfl ask
Ġfl aming
ren ches
ren Ã¦us
Ġcomm ence
ĠMar ilyn
Ġnight club
ubl ished
gr unting
Ġfin ale
Ġfin ances
ib s
Ġfour teenth
Ġpass ive
Ġdef ining
Ġfun n
att en
Ġdisc o
Ġtrans cription
AR ING
Ġcur ly
ster n
Ġinf ilt
ĠMin o
ĠMin nea
ps ies
Ġann ouncing
Ġdem ise
Ġred es
ipp in
Ġra ises
Ġpress ures
ocr atic
Ġpost ing
Ġdev ils
Ġstar ter
Ġmouth ful
Mar c
Ġpot assium
Ġesc apes
AM P
amm it
ĠCour age
Ġenjoy s
Ġconv oy
ĠCong ratulations
ĠPat ricia
Ġmultip lied
Ġpsych oan
rif ic
Se ason
ĠRock et
ĠMer cy
ois elle
Ġcrack ing
Ġsymb olic
ĠTw elve
Ġencour agement
ĠTer ror
Ġbrave ly
Ġrac er
Jan et
comp an
ĠJam al
ĠAhm ad
ĠAR OUND
Jac ob
Ġpear l
ĠFat magÃ¼l
Ġyield ed
Ġevac uation
Ġcultiv ated
ĠKu wait
Ġdub bed
Imp ossible
ĠLor raine
ĠFried rich
Ġsho emaker
Ġintest ine
Ġprejud ice
ĠMethod ist
ĠLah ore
ĠNing irsu
Ġappar atus
ĠMAD E
strument al
Ġawa ited
Ġscound rel
ĠHumph rey
ignt y
ĠMinnea polis
1 10
D iane
F ear
G one
H ong
J u
b led
e ither
f us
n ge
o za
s ent
Å Ľ
Ù ħ
Ġt idy
Ġs ou
Ġb oughs
Ġo ceans
Ġm op
Ġd ime
Ġth igh
Ġp uri
Ġp orter
Ġg in
Ġn ailed
et ian
Ġbe ams
ĠM IND
Ġk ittens
Ġan a
ĠB ABY
ĠT ampa
ĠP owers
op ath
ĠG on
ist ent
ĠF ah
ĠN AR
est ablished
Ġall ocation
Ġab ort
ĠJ al
ĠJ iang
Ġwor ms
ĠE AR
ĠE ND
Ġv a
ra j
ĠK AU
Ġsay in
end s
Ġro oster
Ġqu iz
Ġgr asped
Ġlet hal
iff any
Ġco aster
Ġsl id
ĠFr anÃ§ois
Ġel bows
ject ed
orth y
Ġmus cular
ĠPr act
Ġtri fle
LL OYD
Ġwar p
Ġexp ired
Ġtra ils
Ġbuild er
ĠRe form
ĠRe ardon
Ġexpl ored
At l
Ġdet er
umb ria
Ġla ure
Ġfav ors
OT S
CH A
Ġtrad em
Ġhy pert
ĠEl aine
Ġimag in
Ġaut ism
Ġver bal
ĠQu iet
Ġsight s
Ġwest ward
ĠST ILL
ĠChe rokee
Ġkick s
Ġgradu ates
Ġplat eau
Ġassoci ates
197 5
col oured
ĠSocial ists
Ġsli pper
ĠHaw ks
196 3
ĠWall er
Ġbat ting
ĠCard inals
found land
ĠHas an
ĠGreg or
ĠAle ksandr
[...]
