{"<|endoftext|>":0,"<UNK>":1,"!":2,"\"":3,"#":4,"$":5,"%":6,"&":7,"'":8,"(":9,")":10,"*":11,"+":12,",":13,"-":14,".":15,"/":16,"0":17,"1":18,"2":19,"3":20,"4":21,"5":22,"6":23,"7":24,"8":25,"9":26,":":27,";":28,"<":29,"=":30,">":31,"?":32,"@":33,"A":34,"B":35,"C":36,"D":37,"E":38,"F":39,"G":40,"H":41,"I":42,"J":43,"K":44,"L":45,"M":46,"N":47,"O":48,"P":49,"Q":50,"R":51,"S":52,"T":53,"U":54,"V":55,"W":56,"X":57,"Y":58,"Z":59,"[":60,"\\":61,"]":62,"^":63,"_":64,"`":65,"a":66,"b":67,"c":68,"d":69,"e":70,"f":71,"g":72,"h":73,"i":74,"j":75,"k":76,"l":77,"m":78,"n":79,"o":80,"p":81,"q":82,"r":83,"s":84,"t":85,"u":86,"v":87,"w":88,"x":89,"y":90,"z":91,"{":92,"|":93,"}":94,"~":95,"¡":96,"¢":97,"£":98,"¤":99,"¥":100,"¦":101,"§":102,"¨":103,"©":104,"ª":105,"«":106,"¬":107,"®":108,"¯":109,"°":110,"±":111,"²":112,"³":113,"´":114,"µ":115,"¶":116,"·":117,"¸":118,"¹":119,"º":120,"»":121,"¼":122,"½":123,"¾":124,"¿":125,"À":126,"Á":127,"Â":128,"Ã":129,"Ä":130,"Å":131,"Æ":132,"Ç":133,"È":134,"É":135,"Ê":136,"Ë":137,"Ì":138,"Í":139,"Î":140,"Ï":141,"Ð":142,"Ñ":143,"Ò":144,"Ó":145,"Ô":146,"Õ":147,"Ö":148,"×":149,"Ø":150,"Ù":151,"Ú":152,"Û":153,"Ü":154,"Ý":155,"Þ":156,"ß":157,"à":158,"á":159,"â":160,"ã":161,"ä":162,"å":163,"æ":164,"ç":165,"è":166,"é":167,"ê":168,"ë":169,"ì":170,"í":171,"î":172,"ï":173,"ð":174,"ñ":175,"ò":176,"ó":177,"ô":178,"õ":179,"ö":180,"÷":181,"ø":182,"ù":183,"ú":184,"û":185,"ü":186,"ý":187,"þ":188,"ÿ":189,"Ā":190,"ā":191,"Ă":192,"ă":193,"Ą":194,"ą":195,"Ć":196,"ć":197,"Ĉ":198,"ĉ":199,"Ċ":200,"ċ":201,"Č":202,"č":203,"Ď":204,"ď":205,"Đ":206,"đ":207,"Ē":208,"ē":209,"Ĕ":210,"ĕ":211,"Ė":212,"ė":213,"Ę":214,"ę":215,"Ě":216,"ě":217,"Ĝ":218,"ĝ":219,"Ğ":220,"ğ":221,"Ġ":222,"ġ":223,"Ģ":224,"ģ":225,"Ĥ":226,"ĥ":227,"Ħ":228,"ħ":229,"Ĩ":230,"ĩ":231,"Ī":232,"ī":233,"Ĭ":234,"ĭ":235,"Į":236,"į":237,"İ":238,"ı":239,"Ĳ":240,"ĳ":241,"Ĵ":242,"ĵ":243,"Ķ":244,"ķ":245,"ĸ":246,"Ĺ":247,"ĺ":248,"Ļ":249,"ļ":250,"Ľ":251,"ľ":252,"Ŀ":253,"ŀ":254,"Ł":255,"ł":256,"Ń":257,"Ġt":258,"he":259,"Ġa":260,"in":261,"Ġthe":262,"re":263,"Ġw":264,"ou":265,"Ġs":266,"on":267,"er":268,"at":269,"nd":270,"is":271,"it":272,"Ġb":273,"Ġo":274,"Ġc":275,"Ġm":276,"an":277,"Ġf":278,"ing":279,"or":280,"Ġh":281,"ed":282,"en":283,"ll":284,"Ġd":285,"Ġto":286,"es":287,"Ġth":288,"ar":289,"Ġp":290,"Ġy":291,"Ġof":292,"as":293,"Ġin":294,"Ġand":295,"Ġyou":296,"Ġl":297,"Ġg":298,"om":299,"ĠĊ":300,"Ġn":301,"ĠI":302,"ic":303,"al":304,"ow":305,"ve":306,"le":307,"ot":308,"Ġhe":309,"et":310,"'s":311,"us":312,"ay":313,"Ġit":314,"Ġis":315,"Ġbe":316,"Ġthat":317,"Ġon":318,"ion":319,"id":320,"ad":321,"Ġe":322,"Ġwas":323,"gh":324,"ent":325,"ld":326,"ut":327,"im":328,"Ġre":329,"am":330,"ac":331,"Ġwe":332,"ver":333,"ĠS":334,"The":335,"Ġwh":336,"Ġfor":337,"..":338,"ri":339,"ro":340,"ly":341,"st":342,"ir":343,"se":344,"ĠA":345,"Ġ.":346,"ke":347,"oo":348,"Ġst":349,"ĠC":350,"Ġha":351,"ght":352,"'t":353,"out":354,"ith":355,"ĠM":356,"all":357,"Ġme":358,"Ġk":359,"Ġu":360,"Ġan":361,"Ġwith":362,"ch":363,"ur":364,"Ġas":365,"ct":366,"ĠH":367,"her":368,"ill":369,"Ġdo":370,"ce":371,"Ġ1":372,"ter":373,"ĠB":374,"if":375,"Ġse":376,"ome":377,"hat":378,"Ġat":379,"il":380,"and":381,"Ġnot":382,"Ġhave":383,"Ġthis":384,"ust":385,"Ġare":386,"ĠT":387,"ĠP":388,"ant":389,"ould":390,"Ġgo":391,"You":392,"ation":393,"Ġkn":394,"ea":395,"ain":396,"op":397,"Ġli":398,"ĠW":399,"un":400,"Ġ2":401,"ol":402,"Ġhis":403,"Ġ\"":404,"th":405,"ge":406,"ĠD":407,"rom":408,"Ġ,":409,"Ġsh":410,"ul":411,"...":412,"Ġknow":413,"Ġj":414,"ell":415,"ore":416,"our":417,"Ġne":418,"ĠG":419,"Ġr":420,"Ġde":421,"pp":422,"um":423,"ist":424,"ĠĠ":425,"Ġcan":426,"ĠL":427,"ĠR":428,"ie":429,"Ġthey":430,"Ġyour":431,"ĠF":432,"Ġso":433,"art":434,"Ġmy":435,"ĠN":436,"Ġ?":437,"est":438,"Ġall":439,"Ġby":440,"ĠThe":441,"ab":442,"Ġfrom":443,"el":444,"Ġal":445,"Ġab":446,"ers":447,"ess":448,"nt":449,"Ġwhat":450,"ĠJ":451,"os":452,"ig":453,"em":454,"Ġone":455,"Ġwhe":456,"red":457,"ard":458,"'re":459,"ight":460,"Ġher":461,"Ġup":462,"one":463,"âĢ":464,"Ġthere":465,"Ġ(":466,"ack":467,"Ġhim":468,"Ġcon":469,"Ġch":470,"ry":471,"Ġhad":472,"ate":473,"Ġcom":474,"qu":475,"ally":476,"Ġ20":477,"Ġsu":478,"res":479,"ap":480,"Ġor":481,"Ġout":482,"Ġ19":483,"Ġbut":484,"ook":485,"ood":486,"ive":487,"very":488,"ake":489,"'m":490,"Ġwor":491,"ame":492,"ck":493,"Ġpl":494,"Ġshe":495,"ĠO":496,"Ġlike":497,"ĠE":498,"ong":499,"ast":500,"od":501,"Ġsa":502,"Ġpro":503,"It":504,"Ġus":505,"ber":506,"ink":507,"Ġget":508,"ort":509,"Ġwere":510,"Ġabout":511,"ind":512,"Ġv":513,"ich":514,"ound":515,"Ġex":516,"ity":517,"ra":518,"And":519,"Ġdon":520,"Ġjust":521,"right":522,"He":523,"ear":524,"ak":525,"eah":526,"ep":527,"Ġwho":528,"Ġsp":529,"ies":530,"Ġno":531,"Ġhere":532,"ĠK":533,"Ġthem":534,"ime":535,"ĠHe":536,"Ġdid":537,"ud":538,"Ġwant":539,"ine":540,"'ll":541,"ag":542,"ect":543,"Ġman":544,"Ġwill":545,"ven":546,"own":547,"Ġint":548,"Ġif":549,"ment":550,"What":551,"Ġwould":552,"ice":553,"itt":554,"Ġthink":555,"hing":556,"ous":557,"Ġsome":558,"ost":559,"Ġgot":560,"Ġright":561,"Ġsee":562,"ide":563,"ian":564,"Ġany":565,"Ġhas":566,"ĠU":567,"ough":568,"ia":569,"are":570,"Ġtr":571,"ther":572,"Ġag":573,"ure":574,"Ġwhich":575,"use":576,"Ġwhen":577,"ip":578,"We":579,"Ġsay":580,"ĠIt":581,"ove":582,"Ġar":583,"Ġtw":584,"Ġsaid":585,"end":586,"iv":587,"Ġ'":588,"'ve":589,"way":590,"Ġtime":591,"Ġbeen":592,"ace":593,"ff":594,"Ġpe":595,"ick":596,"Th":597,"na":598,"ary":599,"so":600,"ish":601,"Ġbec":602,"Ġcl":603,"Ġnow":604,"ose":605,"Ġle":606,"ount":607,"Yeah":608,"reat":609,"ree":610,"orn":611,"ĠSt":612,"ople":613,"ond":614,"Ġ201":615,"other":616,"Ġlook":617,"So":618,"Ġtheir":619,"Ġmore":620,"Ġoff":621,"age":622,"ci":623,"ang":624,"Ġback":625,"Ġgoing":626,"Ġcould":627,"ause":628,"Ġthen":629,"No":630,"ue":631,"irst":632,"ew":633,"ank":634,"But":635,"ĠCh":636,"Ġro":637,"ite":638,"Ġother":639,"Ġover":640,"Ġqu":641,"ire":642,"Ġgr":643,"Ġpeople":644,"That":645,"ass":646,"ov":647,"Ġbr":648,"ble":649,"Ġtwo":650,"amp":651,"here":652,"fter":653,"act":654,"ase":655,"Ġwork":656,"sel":657,"ord":658,"mer":659,"Ġtoo":660,"Ġvery":661,"Oh":662,"ings":663,"og":664,"ated":665,"Ġinto":666,"Ġgood":667,"pt":668,"erm":669,"ans":670,"ub":671,"Ġcomp":672,"Ġfirst":673,"00":674,"Ġdown":675,"hed":676,"ittle":677,"oll":678,"ance":679,"we":680,"per":681,"Ġpr":682,"oy":683,"ions":684,"alk":685,"Ġen":686,"omet":687,"kay":688,"ĠĠĠĠ":689,"ade":690,"ĠV":691,"--":692,"Ġhow":693,"Ġpart":694,"ere":695,"Ġam":696,"Ġun":697,"Ġour":698,"Ġ=":699,"Ġway":700,"hy":701,"ĠIn":702,"Ġyear":703,"ach":704,"iz":705,"ought":706,"Ġagain":707,"Ġalso":708,"Ġlittle":709,"cc":710,"Ġcome":711,"av":712,"ife":713,"ĠY":714,"ater":715,"oh":716,"Ġbl":717,"ild":718,"wn":719,"ne":720,"ru":721,"Ġwhere":722,"urn":723,"Ġonly":724,"nder":725,"oc":726,"Ġevery":727,"Ġim":728,"Ġcall":729,"Ġact":730,"Ġte":731,"Ġplay":732,"Ġad":733,"Well":734,".\"":735,"Ġday":736,"Ġneed":737,"ark":738,"uck":739,"iss":740,"Ġbet":741,"ied":742,"ress":743,"pl":744,"the":745,"self":746,"cl":747,"ty":748,"fore":749,"In":750,"Ġsomet":751,"Ġtake":752,"uch":753,"ence":754,"ec":755,"Ġafter":756,"ĠâĢ":757,"ict":758,"Ġfe":759,"Ġwell":760,"ile":761,"ign":762,"Ġgu":763,"au":764,"ens":765,"Ġsc":766,"ng":767,"Ġmake":768,"able":769,"int":770,"ory":771,"Ġcont":772,"les":773,"thing":774,"Ġlet":775,"Ġreally":776,"Ġthr":777,"Ġpre":778,"Ġshould":779,"Ġthan":780,"Ġapp":781,"Ġwr":782,"ical":783,"ob":784,"old":785,"ull":786,"ĠUn":787,"onna":788,"ather":789,"Ġbecause":790,"Ġhapp":791,"Ġdis":792,"ft":793,"This":794,"sh":795,"orm":796,"ult":797,"Ġunder":798,"Ġtell":799,"Ġser":800,"Ġpo":801,"hen":802,"They":803,"Ġthese":804,"Ġput":805,"ates":806,"Ġ!":807,"Ġmuch":808,"Ġres":809,"ved":810,"Ġgonna":811,"ath":812,"be":813,"Ġsomething":814,"Ġper":815,"Ġfl":816,"ody":817,"ool":818,"'d":819,"Ġmean":820,"ĠTh":821,"Ġdoes":822,"ons":823,"Ġnew":824,"Ġlong":825,"ah":826,"Ġmade":827,"Ġbefore":828,"du":829,"ock":830,"you":831,"land":832,"Yes":833,"te":834,"Ġcar":835,"ited":836,"aw":837,"ave":838,"Ġtalk":839,"ail":840,"iff":841,"Ġer":842,"Ġmay":843,"Ġeven":844,"ving":845,"She":846,"vers":847,"âĢĿ":848,"air":849,"ward":850,"Ġnever":851,"ince":852,"Ġ3":853,"port":854,"ady":855,"ise":856,"Ġits":857,"ee":858,"Ġdidn":859,"Ġsec":860,"ried":861,"ouse":862,"Ġrec":863,"ren":864,"There":865,"ition":866,"Ġcomm":867,"ily":868,"ting":869,"ix":870,"Ġbu":871,"Ġke":872,"Ġthrough":873,"ious":874,"ho":875,"ial":876,"If":877,"Ġrem":878,"Ġ200":879,"ually":880,"ican":881,"Ġhand":882,"lp":883,"Ġgreat":884,"ors":885,"anc":886,"Ġyears":887,"Ġcr":888,"pe":889,"Ġthree":890,"get":891,"ations":892,"Ġthing":893,"igh":894,"vel":895,"Ġold":896,"ĠYou":897,"Ġstart":898,"Ġsm":899,"Ġwent":900,"ident":901,"day":902,"ful":903,"Ġfind":904,"Ġask":905,"How":906,"Ġlife":907,"Ġaway":908,"ction":909,"up":910,"Ġcount":911,"Ġmov":912,"ĠShe":913,"Ġmust":914,"Ġcame":915,"Ġmost":916,"Ġfound":917,"Ġlove":918,"Ġstill":919,"Ġthought":920,"ug":921,"ational":922,"tain":923,"Ġlast":924,"mber":925,"Ġbel":926,"Ġhelp":927,"ves":928,"Ġthose":929,"ever":930,"Ġdes":931,"Ġhome":932,"Ġdiff":933,"Ġco":934,"Ġmany":935,"what":936,"irl":937,"oss":938,"oth":939,"Ġdoing":940,"riend":941,"li":942,"\".":943,"Ġgive":944,"Ġpol":945,"Ġthings":946,"Ġlea":947,"ĠAmer":948,"Ġown":949,"ont":950,"Ġshow":951,"xt":952,"ened":953,"man":954,"my":955,"Ġwon":956,"hes":957,"gan":958,"ĠMar":959,"lease":960,"Ġcour":961,"Ġend":962,"Ġatt":963,"imes":964,"oney":965,"Ġmin":966,"Ġi":967,"br":968,"tern":969,"gin":970,"atch":971,"ange":972,"Ġear":973,"Ġbeing":974,"ny":975,"Now":976,"Ġname":977,"ning":978,"IN":979,"ait":980,"oot":981,"Ġsame":982,"HE":983,"body":984,"ents":985,"Do":986,"any":987,"Ġwom":988,"Ġ18":989,"Ġhead":990,"io":991,"ember":992,"ĠBr":993,"Ġused":994,"ased":995,"Ġchild":996,"aking":997,"Ġnight":998,"als":999,"oup":1000,"ubl":1001,"Ġcare":1002,"Ġtry":1003,"\",":1004,"ways":1005,"ced":1006,"uh":1007,"Ġplace":1008,"Ġworld":1009,"Ġsupp":1010,"ĠAnd":1011,"Why":1012,"Ġkind":1013,"Ġsuch":1014,"Ġbig":1015,"Ġfeel":1016,"Ġwhy":1017,"Ġlot":1018,"ĠAr":1019,"Ġnum":1020,"gr":1021,"Ġcalled":1022,"Ġ199":1023,"Let":1024,"side":1025,"chool":1026,"Ġfam":1027,"outh":1028,"OU":1029,"form":1030,"Ġop":1031,"uring":1032,"orry":1033,"Ġfin":1034,"Ġkill":1035,").":1036,"Ġ4":1037,"Ġmar":1038,",\"":1039,"erson":1040,"ute":1041,"ork":1042,"und":1043,"ower":1044,"Don":1045,"Ġele":1046,"az":1047,"Ġacc":1048,"Ġanother":1049,"Ġfriend":1050,"Ġknown":1051,"that":1052,"),":1053,"ating":1054,"Ġpres":1055,"ĠNew":1056,"ib":1057,"Ġsl":1058,"Ġaround":1059,"Ġturn":1060,"ph":1061,"Ġmight":1062,"Ġgirl":1063,"Ġset":1064,"ird":1065,"Ġreg":1066,"Ġind":1067,"Ġfour":1068,"St":1069,"Come":1070,"Ġdist":1071,"ener":1072,"ĠFr":1073,"aught":1074,"ĠUnited":1075,"pect":1076,"Ġdiffere":1077,"Ġleft":1078,"ss":1079,"Ġuse":1080,"ween":1081,"20":1082,"ek":1083,"gg":1084,"Ġstr":1085,"vent":1086,"clud":1087,"Ġsecond":1088,"cial":1089,"Ġmon":1090,"ts":1091,"Ġ5":1092,"All":1093,"Ġdone":1094,"Ġche":1095,"Ġbit":1096,"âĢĻ":1097,"ys":1098,"Ġanything":1099,"Ġsure":1100,"Ġbetter":1101,"My":1102,"ished":1103,"Ġhouse":1104,"Ġalways":1105,"ĠDe":1106,"ĠAl":1107,"ered":1108,"Ġsur":1109,"Ġboy":1110,"ics":1111,"Ġrun":1112,"ER":1113,"ible":1114,"ĠâĢľ":1115,"Ġac":1116,"but":1117,"Ġrel":1118,"Ġdied":1119,"Ġtold":1120,"ĠAmerican":1121,"ollow":1122,"ces":1123,"ness":1124,"ton":1125,"Ġmom":1126,"ĠMr":1127,"Okay":1128,"led":1129,"Ġel":1130,"Ġent":1131,"arm":1132,"ason":1133,"Ġdr":1134,"Ġbetween":1135,"ister":1136,"ual":1137,"Ġunt":1138,"Ġret":1139,"ner":1140,"Ġstud":1141,"mb":1142,"Ġkeep":1143,"Ġtook":1144,"une":1145,"ular":1146,"aj":1147,"ret":1148,"Ġreal":1149,"oun":1150,"âĻ":1151,"der":1152,"Ġbelie":1153,"Ġsy":1154,"Ġbo":1155,"ott":1156,"ohn":1157,"Is":1158,"AN":1159,"cess":1160,"ĠSh":1161,"19":1162,"ye":1163,"Ġbook":1164,"Ġph":1165,"yes":1166,"row":1167,"ale":1168,"Ġob":1169,"Ġmat":1170,"ars":1171,"irect":1172,"ĠWhat":1173,"When":1174,"Ġinv":1175,"Hey":1176,"Ġform":1177,"Ġerm":1178,"vern":1179,"Ġmoney":1180,"Thank":1181,"ject":1182,"Ġever":1183,"Ġwhile":1184,"Ġsub":1185,"Ġdec":1186,"Ġborn":1187,"ĠStates":1188,"Ġ-":1189,"Ġinclud":1190,"Ġbus":1191,"where":1192,"ision":1193,"ĠThey":1194,"Ġuh":1195,"Ġ198":1196,"akes":1197,"Ġpoint":1198,"Not":1199,"ling":1200,"Ġokay":1201,"son":1202,"Ġsaw":1203,"orth":1204,"Ġnothing":1205,"Ġuntil":1206,"âĻª":1207,"Ġfather":1208,"Ġword":1209,"ative":1210,"rew":1211,"no":1212,"Ġdep":1213,"olog":1214,"Ġass":1215,"ivers":1216,"Ġnext":1217,"Ġcons":1218,"ier":1219,"Ġsw":1220,"Ġsing":1221,"Ġbest":1222,"Ġperson":1223,"ash":1224,"Ġgl":1225,"Ġboth":1226,"Ġmen":1227,"ired":1228,"to":1229,"Ġeach":1230,"ĠCount":1231,"Ġcourse":1232,"Ġdifferent":1233,"Ġmet":1234,"stand":1235,"let":1236,"Ġstop":1237,"Ġlater":1238,"Ġschool":1239,"its":1240,"Ġfollow":1241,"On":1242,"ax":1243,"Ġpass":1244,"Ġnumber":1245,"Ġlist":1246,"ames":1247,"Ġinst":1248,"ĠAs":1249,"eak":1250,"Ġactually":1251,"Ġmus":1252,"Ġwater":1253,"ĠThis":1254,"ures":1255,"ok":1256,"Ġcle":1257,"cept":1258,"Ġprodu":1259,"aid":1260,"ĠâĢĵ":1261,"ex":1262,"ĠPr":1263,"eg":1264,"Ġdef":1265,"Ġcent":1266,"ĠGod":1267,"cer":1268,"omm":1269,"ĠAn":1270,"ities":1271,"ĠNo":1272,"blem":1273,"anna":1274,"Ġcity":1275,"Ġfun":1276,"Ġpop":1277,"Ġyeah":1278,"Then":1279,"Ġmother":1280,"Ã©":1281,"AT":1282,"Ġ197":1283,"Ġfr":1284,"Ġ6":1285,"ung":1286,"ters":1287,"Ġchar":1288,"Ġseem":1289,"ĠInd":1290,"Ġbre":1291,"uth":1292,"Ġ8":1293,"Ġinc":1294,"Ġteam":1295,"Ġyoung":1296,"Just":1297,"osed":1298,"ream":1299,"Ġ7":1300,"Ġrep":1301,"Ġ;":1302,"Ġdirect":1303,"Ġdoesn":1304,"Ġcap":1305,"ĠCounty":1306,"att":1307,"iness":1308,"Ġagainst":1309,"Ġproblem":1310,"Ġimp":1311,"Ġonce":1312,"Ġhard":1313,"Ġhear":1314,"ĠKing":1315,"rist":1316,"ross":1317,"Ġson":1318,"Ġlar":1319,"ĠJan":1320,"Ġsorry":1321,"alf":1322,"aby":1323,"of":1324,"Ġseen":1325,"Ġenough":1326,"ope":1327,"iet":1328,"Ġpubl":1329,"ina":1330,"Ġtoget":1331,"RE":1332,"app":1333,"Ġtogether":1334,"ote":1335,"Ġhigh":1336,"Ġbecame":1337,"Ġelse":1338,"âĢľ":1339,"ik":1340,"Ġtown":1341,"Ġeverything":1342,"ING":1343,"Ġwanted":1344,"Ġem":1345,"Ġwithout":1346,"ger":1347,"Ġfact":1348,"Who":1349,"Ġfamily":1350,"Right":1351,"ific":1352,"Where":1353,"Ġfive":1354,"enn":1355,"ĠBut":1356,"Ġwait":1357,"ober":1358,"rop":1359,"Ġref":1360,"ĠEng":1361,"aut":1362,"ared":1363,"ield":1364,"Ġleave":1365,"Ġcoming":1366,"Ġstand":1367,"ital":1368,"Ġlead":1369,"Ġstate":1370,"Ġplan":1371,"ably":1372,"uc":1373,"ey":1374,"uss":1375,"Ġloc":1376,"ilm":1377,"Ġquite":1378,"Ġrest":1379,"Ġyes":1380,"ĠSp":1381,"ĠJohn":1382,"Ġ196":1383,"ĠZ":1384,"Ġduring":1385,"Ġsix":1386,"ets":1387,"Look":1388,"orning":1389,"ines":1390,"Ġsince":1391,"Ġfew":1392,"ral":1393,"Ġbad":1394,"Ġsign":1395,"Ġcoll":1396,"Ġsk":1397,"ON":1398,"Ġid":1399,"Ġadd":1400,"Ġmovie":1401,"Ġstay":1402,"ury":1403,"Ġsmall":1404,"Ġtri":1405,"Ġweek":1406,"yeah":1407,"ric":1408,"Ġroom":1409,"Ġ9":1410,"Ġunderstand":1411,"Ġheart":1412,"Ġwoman":1413,"ump":1414,"Ġhimself":1415,"Are":1416,"Ġopen":1417,"eb":1418,"Ġread":1419,"Ġsit":1420,"uff":1421,"idd":1422,"ĠĠĠ":1423,"arr":1424,"less":1425,"ants":1426,"ised":1427,"Ġlight":1428,"Ġbelieve":1429,"ball":1430,"Ġmind":1431,"ĠIs":1432,"Ġfar":1433,"iew":1434,"Ġsays":1435,"ĠCl":1436,"ins":1437,"âĢĵ":1438,"Ġlooking":1439,"Ġ`":1440,"Sh":1441,"Ġhappened":1442,"Ġtimes":1443,"Ġdisc":1444,"Ch":1445,"ense":1446,"Ġlive":1447,"ĠMay":1448,"ĠĠĠĠĠĠĠĠ":1449,"Ġheard":1450,"Ġev":1451,"Ġchildren":1452,"Ġpret":1453,"Ġside":1454,"Ġdays":1455,"Ġmove":1456,"ments":1457,"Ġart":1458,"me":1459,"Ġed":1460,"?\"":1461,"erest":1462,"Uh":1463,"Ġhum":1464,"Ġtrans":1465,"Ġnear":1466,"As":1467,"Ġwhole":1468,"ike":1469,"Ġans":1470,"Ġsim":1471,"Ġconf":1472,"Ġquest":1473,"For":1474,"Ġtoday":1475,"aster":1476,"Ġplease":1477,"ready":1478,"Ġdri":1479,"Ġmed":1480,"Ġbeh":1481,"stem":1482,"ists":1483,"iversity":1484,"cy":1485,"Ġbrother":1486,"uary":1487,"Ġri":1488,"Ġmeet":1489,"Ġinter":1490,"Ġpolit":1491,"Ġsort":1492,"ism":1493,"ecause":1494,"Ġimport":1495,".âĢĿ":1496,"sy":1497,"Ġdeath":1498,"Ġisn":1499,"Ġwife":1500,"ĠQ":1501,"gt":1502,"ai":1503,"ither":1504,"ned":1505,"ertain":1506,"Ġmorning":1507,"000":1508,"Ġgetting":1509,"rap":1510,"LL":1511,"ene":1512,"leep":1513,"ship":1514,"Ġnice":1515,"Ġ10":1516,"ined":1517,"ta":1518,"ĠWe":1519,"AR":1520,"dy":1521,"Mm":1522,"Ġwar":1523,"Ġexp":1524,"Ġage":1525,"Ġhour":1526,"Ġwalk":1527,"Ġgroup":1528,"Ġgener":1529,"Âł":1530,"Ġext":1531,"Good":1532,"Ġcol":1533,"Ġposs":1534,"ution":1535,"Ġbro":1536,"Ġtra":1537,"ows":1538,"by":1539,"Ġsaying":1540,"ery":1541,"Ġstarted":1542,"Ġsoon":1543,"Ġfuck":1544,"amed":1545,"ives":1546,"Ġrecord":1547,"Ġgave":1548,"Ġland":1549,"ĠTHE":1550,"Ġthough":1551,"ched":1552,"Er":1553,"Ġgi":1554,"Ġdead":1555,"Ġasked":1556,"aughter":1557,"Ġreturn":1558,"ues":1559,"ĠGr":1560,"Ġdoor":1561,"Ġinterest":1562,"Ġjob":1563,"Ġsong":1564,"ized":1565,"Ġpay":1566,"Ġhold":1567,"Ġ''":1568,"hm":1569,"Ġlaw":1570,"Ġeyes":1571,"Ġair":1572,"Ġdra":1573,"Ġeas":1574,"Ġupon":1575,"Ġyet":1576,"ten":1577,"rict":1578,"do":1579,"Ġshall":1580,"Ġhaving":1581,"Ġwanna":1582,"Ġwrong":1583,"Ġbaby":1584,"Can":1585,"born":1586,"ama":1587,"Ġmod":1588,"Ġhalf":1589,"ĠSo":1590,"Ġgovern":1591,"Ġ195":1592,"ĠJanuary":1593,"Ġtalking":1594,"ison":1595,"Ġcase":1596,"ages":1597,"Ġknew":1598,"Al":1599,"Ġmonth":1600,"ize":1601,"Go":1602,"ĠSc":1603,"uly":1604,"Ġmusic":1605,"Did":1606,"Ġpower":1607,"ĠOh":1608,"Ġprom":1609,"ĠAp":1610,"ony":1611,"Ġface":1612,"ries":1613,"Ġalready":1614,"Ġalong":1615,"Ġ$":1616,"Ġbuild":1617,"ains":1618,"Ġwin":1619,"Ġking":1620,"OR":1621,"wards":1622,"Ġbegan":1623,"Ġsystem":1624,"Ġcur":1625,"Ġround":1626,"Ġserv":1627,"aps":1628,"reen":1629,"Ġfore":1630,"dd":1631,"Ġkid":1632,"ats":1633,"Ġfilm":1634,"ĠGerm":1635,"now":1636,"ature":1637,"ering":1638,"most":1639,"ugust":1640,"okay":1641,"Ġsir":1642,"Ġmil":1643,"Ġplayed":1644,"Ġidea":1645,"ril":1646,"Ġremember":1647,"Ġcountry":1648,"ĠCan":1649,"ided":1650,"ying":1651,"ĠYOU":1652,"Get":1653,"Ġcreat":1654,"Ġprov":1655,"Ġoffic":1656,"Ġfull":1657,"Ġbring":1658,"ctor":1659,"Ġmiss":1660,"ple":1661,"Ġmain":1662,"Ġprob":1663,"ted":1664,"Ġtop":1665,"Ġimportant":1666,"Ġmatter":1667,"ush":1668,"not":1669,"Ġgame":1670,"Ġspe":1671,"Ġtrying":1672,"ffect":1673,"Ġsound":1674,"Ġbeaut":1675,"Ġsent":1676,"Ġbusiness":1677,"Ġgone":1678,"Ġfell":1679,"Ġ[":1680,"ask":1681,"ster":1682,"ility":1683,"ĠChrist":1684,"ional":1685,"lish":1686,"Ġfoot":1687,"ĠHow":1688,"leased":1689,"come":1690,"ĠBl":1691,"Your":1692,"Ġable":1693,"ĠCar":1694,"Ġins":1695,"Ġarea":1696,"Ġjo":1697,"Ġeat":1698,"iter":1699,"ality":1700,"ately":1701,"Ġ194":1702,"ane":1703,"oice":1704,"artment":1705,"velop":1706,"uro":1707,"arent":1708,"ĠOn":1709,"ĠRe":1710,"arch":1711,"ator":1712,"there":1713,"orld":1714,"Ġexpl":1715,"Ġpretty":1716,"ape":1717,"ĠThere":1718,"Ġprof":1719,"At":1720,"Ġmill":1721,"ically":1722,"Ġgoes":1723,"Ġthank":1724,"Ġguy":1725,"can":1726,"aken":1727,"Ġhur":1728,"pr":1729,"erv":1730,"Ġlost":1731,"Ġmeans":1732,"ĠAt":1733,"orrow":1734,"Ġ17":1735,"Ġwind":1736,"Ġspeak":1737,"Ġ202":1738,"ured":1739,"Ġequ":1740,"Ġmoment":1741,"ĠAugust":1742,"ept":1743,"!\"":1744,"May":1745,"Ġleg":1746,"ern":1747,"Ġ15":1748,"Ġpartic":1749,"Ġhappen":1750,"Ġcontin":1751,"Ġwomen":1752,"Ġinf":1753,"ĠBrit":1754,"ulation":1755,"ained":1756,"ĠAll":1757,"Ġcertain":1758,"Ġhands":1759,"Ġ193":1760,"Ġlear":1761,"One":1762,"Ġchang":1763,"Ġwatch":1764,"Ġdet":1765,"Ġwasn":1766,"ĠCon":1767,"Ġball":1768,"Ġpri":1769,"ole":1770,"urch":1771,"cle":1772,"ead":1773,"Here":1774,"ĠUniversity":1775,"An":1776,"ĠMarch":1777,"Ġfire":1778,"Ġyourself":1779,"ĠHis":1780,"Ġhor":1781,"hip":1782,"ĠYork":1783,"cri":1784,"ĠThat":1785,"pped":1786,"ief":1787,"Ġhist":1788,"To":1789,"ural":1790,"Ġchange":1791,"eth":1792,"Ġ&":1793,"used":1794,"Ġelect":1795,"ĠApril":1796,"Ġsomeone":1797,"unic":1798,"ES":1799,"Ġseries":1800,"Ġmaking":1801,"iver":1802,"Ġbody":1803,"mm":1804,"Ġfine":1805,"iam":1806,"gy":1807,"umb":1808,"Ġter":1809,"Ġrece":1810,"Ġpos":1811,"ello":1812,"ĠFor":1813,"Ġclose":1814,"ann":1815,"ica":1816,"ived":1817,"Ġcomes":1818,"iful":1819,"Ġbed":1820,"eng":1821,"ĠWar":1822,"Ġmark":1823,"resent":1824,"oon":1825,"Ġless":1826,"ĠPar":1827,"Ġty":1828,"Ġshort":1829,"Ġwond":1830,"ĠPro":1831,"wer":1832,"Ġcut":1833,"Ġline":1834,"Ġguys":1835,"Ġpat":1836,"alth":1837,"Ġblack":1838,"ices":1839,"ley":1840,"Ġtrue":1841,"Ġpain":1842,"ĠJuly":1843,"Ġfall":1844,"ze":1845,"Ġstory":1846,"ovember":1847,"Because":1848,"Ġexper":1849,"ract":1850,"ician":1851,"Ġprobably":1852,"ides":1853,"inc":1854,"Ġclass":1855,"Ġpar":1856,"Ġhaven":1857,"gram":1858,"Ġorder":1859,"undred":1860,"ention":1861,"rigin":1862,"ajor":1863,"ety":1864,"lev":1865,"Ġprot":1866,"ctober":1867,"med":1868,"Ġbecome":1869,"aper":1870,"ĠTr":1871,"ald":1872,"Ġsleep":1873,"Ġ...":1874,"utes":1875,"ĠWorld":1876,"Ġfight":1877,"Ġeight":1878,"Ġearly":1879,"gue":1880,"Ġwouldn":1881,"nce":1882,"EN":1883,"enty":1884,"wh":1885,"Ġterm":1886,"oe":1887,",âĢĿ":1888,"angu":1889,"Ġlooked":1890,"Ġcompany":1891,"ĠYes":1892,"mp":1893,"omp":1894,"ĠJune":1895,"els":1896,"eor":1897,"ney":1898,"Ġlarge":1899,"Ġmember":1900,"Ġgiven":1901,"Ġpresent":1902,"Ġdad":1903,"Ġdevelop":1904,"Ġdaughter":1905,"ĠMin":1906,"con":1907,"Ġswe":1908,"ient":1909,"Ġadv":1910,"Ġworking":1911,"Ġcomple":1912,"cember":1913,"rest":1914,"Re":1915,"Ġpick":1916,"look":1917,"ox":1918,"ones":1919,"Ġbegin":1920,"ilt":1921,"Ġvis":1922,"aces":1923,"Ġbrought":1924,"ouble":1925,"Ġgovernment":1926,"eptember":1927,"Ġ2010":1928,"reet":1929,"Ġes":1930,"oke":1931,"ĠAust":1932,"elt":1933,"osp":1934,"resident":1935,"Ġleast":1936,"ĠSouth":1937,"Â´":1938,"eter":1939,"vious":1940,"Ġfree":1941,"ps":1942,"raz":1943,"Ġ12":1944,"Wh":1945,"Ġpie":1946,"Ġkilled":1947,"Ġhell":1948,"Ġmag":1949,"Ġbreak":1950,"Ġca":1951,"Ġbehind":1952,"Ġquestion":1953,"Ġready":1954,"Ġhundred":1955,"Ġmyself":1956,"ards":1957,"Ġdeal":1958,"ebru":1959,"ude":1960,"ebruary":1961,"ĠBe":1962,"Ġlived":1963,"ĠNovember":1964,"Ġalone":1965,"Ġlate":1966,"Ġocc":1967,"bum":1968,"van":1969,"Ġcor":1970,"Ġpublic":1971,"Ġann":1972,"Ġreleased":1973,"ĠComm":1974,"Ġdog":1975,"Ġmarried":1976,"rol":1977,"fe":1978,"huh":1979,"Ġhope":1980,"selves":1981,"ĠOctober":1982,"Ġorgan":1983,"Ġaw":1984,"Ġnews":1985,"Ġten":1986,"de":1987,"Ġwhite":1988,"Ġago":1989,"Ġmaybe":1990,"ha":1991,"Ġalmost":1992,"amb":1993,"well":1994,"Ġfriends":1995,"IS":1996,"Ġdiv":1997,"for":1998,"ĠNational":1999,"IT":2000,"aim":2001,"Ġest":2002,"ograp":2003,"Ġoften":2004,"ccess":2005,"rent":2006,"Ġhon":2007,"Ġopp":2008,"Every":2009,"Ġdrink":2010,"ĠYeah":2011,"lt":2012,"oint":2013,"Ġhappy":2014,"Ġ16":2015,"ron":2016,"Ġspec":2017,"band":2018,"Ġoper":2019,"co":2020,"iting":2021,"ĠEuro":2022,"cent":2023,"Ġreason":2024,"Ġsever":2025,"Ġorigin":2026,"Ġgold":2027,"rench":2028,"head":2029,"Ġeng":2030,"Ġbeautiful":2031,"ĠDecember":2032,"ĠGo":2033,"Ġguess":2034,"min":2035,"Ġsqu":2036,"Ġrepl":2037,"Ġoh":2038,"Ġnamed":2039,"atic":2040,"ology":2041,"Ġtre":2042,"Ġsol":2043,"Ġexamp":2044,"Ġfront":2045,"ĠSeptember":2046,"ĠWill":2047,"oud":2048,"Ġsupport":2049,"Ġsat":2050,"ged":2051,"Ġcounty":2052,"bed":2053,"ĠFebruary":2054,"Ġwords":2055,"ully":2056,"Ġ|":2057,"ese":2058,"Ġvar":2059,"Ġtaken":2060,"ĠEnglish":2061,"ĠTH":2062,"Ġtaking":2063,"ert":2064,"Be":2065,"Please":2066,"Ġconst":2067,"ĠFrance":2068,"Ġ2020":2069,"Ġhuman":2070,"Ġ--":2071,"ler":2072,"Ġarm":2073,"Ġseveral":2074,"hern":2075,"Ġste":2076,"ots":2077,"ĠLe":2078,"Ġprogram":2079,"bs":2080,"ior":2081,"ode":2082,"Ġdem":2083,"aced":2084,"Ġparty":2085,"Ġclear":2086,"ĠRep":2087,"Ġanim":2088,"Ġ]":2089,"ring":2090,"Ġattack":2091,"Ġblood":2092,"Ġalbum":2093,"Ġreport":2094,"ĠBritish":2095,"ĠâĻª":2096,"Ġred":2097,"ĠPh":2098,"oor":2099,"Ġsold":2100,"Ġstuff":2101,"ĠTO":2102,"ency":2103,"ĠCol":2104,"Ġminutes":2105,"Ġtou":2106,"Ġthird":2107,"ĠNorth":2108,"haps":2109,"Ġresp":2110,"Ġpast":2111,"Ġdel":2112,"ium":2113,"ances":2114,"Ġfig":2115,"che":2116,"urs":2117,"Ġmakes":2118,"AS":2119,"Ġtem":2120,"arl":2121,"Ġ2019":2122,"wo":2123,"work":2124,"Ġlisten":2125,"key":2126,"Ġlangu":2127,"ana":2128,"ament":2129,"Some":2130,"unk":2131,"men":2132,"aul":2133,"Ġsister":2134,"ĠPresident":2135,"Ġheld":2136,"ĠSw":2137,"ĠAd":2138,"cient":2139,"Ġ11":2140,"een":2141,"Ġstrong":2142,"Ġhot":2143,"ider":2144,"Ġcharac":2145,"Ġquick":2146,"Ġperform":2147,"augh":2148,"ĠEurope":2149,"ipp":2150,"Mr":2151,"Ġcouldn":2152,"Ġprofess":2153,"Ġwithin":2154,"Ġ2018":2155,"over":2156,"ience":2157,"Ġallow":2158,"Ġthinking":2159,"Ġothers":2160,"Ġtrain":2161,"usband":2162,"unity":2163,"ruct":2164,"ĠWh":2165,"Ġmillion":2166,"Ġmess":2167,"Ġdesign":2168,"Ex":2169,"Ġfood":2170,"itten":2171,"itting":2172,"Ġinform":2173,"Ġcompet":2174,"Ġbar":2175,"Ġpict":2176,"Ġnational":2177,"ĠCity":2178,"``":2179,"anger":2180,"Ġeither":2181,"ousand":2182,"Ġval":2183,"Ġap":2184,"ĠCal":2185,"iving":2186,"Ġ2014":2187,"Ġinside":2188,"ada":2189,"Ġwants":2190,"levision":2191,"Ġbas":2192,"Ġincluding":2193,"Ġresult":2194,"Or":2195,"Ġsuccess":2196,"Maybe":2197,"go":2198,"Ġseason":2199,"actly":2200,"ĠMiss":2201,"chn":2202,"ternational":2203,"Ġsil":2204,"Ġsingle":2205,"ches":2206,"ached":2207,"Ġ14":2208,"ued":2209,"ently":2210,"Ġ2017":2211,"Ġworked":2212,"Ġbox":2213,"After":2214,"ales":2215,"Ġroad":2216,"Ġdie":2217,"ĠPl":2218,"ped":2219,"oman":2220,"eared":2221,"omin":2222,"Ġturned":2223,"Ġappear":2224,"itch":2225,"Ġpolice":2226,"ĠBar":2227,"ĠFrench":2228,"Ġformer":2229,"airs":2230,"ĠWhen":2231,"Ġ13":2232,"ĠOr":2233,"Ġrather":2234,"Ġrock":2235,"Ġdistrict":2236,"Hello":2237,"ians":2238,"Ġbird":2239,"ĠDo":2240,"Ġpopulation":2241,"aring":2242,"Ġlooks":2243,"Ġ_":2244,"Ġparent":2245,"Ġtill":2246,"Have":2247,"oub":2248,"Ġhusband":2249,"oad":2250,"Ah":2251,"ended":2252,"ĠGeor":2253,"Ġexample":2254,"Ġfollowing":2255,"uthor":2256,"Ġseven":2257,"Ġcamp":2258,"aly":2259,"ection":2260,"ĠThen":2261,"arty":2262,"ored":2263,"Ġpoor":2264,"Ġwonder":2265,"Ġve":2266,"Ġla":2267,"view":2268,"ĠAf":2269,"ege":2270,"With":2271,"ories":2272,"Ġmonths":2273,"fully":2274,"OM":2275,"Ġband":2276,"Ġill":2277,"idge":2278,"Ġplaying":2279,"lect":2280,"Ġgrow":2281,"attle":2282,"Ġground":2283,"ET":2284,"rog":2285,"unch":2286,"Ġvill":2287,"reed":2288,"que":2289,"Ġ192":2290,"Ġminute":2291,"Ġwish":2292,"Ġgotta":2293,"ĠX":2294,"Ġspecial":2295,"Ġexpect":2296,"ĠHer":2297,"ĠFl":2298,"Ġliving":2299,"Ġsum":2300,"ement":2301,"Ġthousand":2302,"ĠMan":2303,"Ġacross":2304,"Ġtot":2305,"ino":2306,"ara":2307,"Ġoutside":2308,"ĠAb":2309,"Ġcost":2310,"rodu":2311,"Ġtest":2312,"fort":2313,"Ġmajor":2314,"Ġ:":2315,"Ġship":2316,"ĠGu":2317,"OW":2318,"Ġbased":2319,"room":2320,"Ġhair":2321,"Ġoffice":2322,"Ġhours":2323,"Ġsweet":2324,"overed":2325,"ĠDon":2326,"Ġlives":2327,"Ġhit":2328,"Ġdark":2329,"Ġeffect":2330,"por":2331,"Ġappro":2332,"Any":2333,"Ġgun":2334,"morrow":2335,"Ġfelt":2336,"Ġdream":2337,"Ġra":2338,"ases":2339,"sc":2340,"Ġcheck":2341,"ribut":2342,"ĠEd":2343,"fect":2344,"Ġstra":2345,"Ġaf":2346,"iddle":2347,"read":2348,"apan":2349,"incess":2350,"Ġpossible":2351,"Ġnorth":2352,"oul":2353,"Ġcop":2354,"dom":2355,"Ġfield":2356,"ille":2357,"Ġfucking":2358,"Ġav":2359,"Ġrequ":2360,"Ġforg":2361,"Ġpress":2362,"Ġtried":2363,"Ġlay":2364,"Ġamong":2365,"rie":2366,"Ġ30":2367,"ĠCent":2368,"Ġlevel":2369,"Ġstation":2370,"ED":2371,"II":2372,"Ġsun":2373,"Ġcir":2374,"Ġtelevision":2375,"Ġpull":2376,"ounc":2377,"bo":2378,"com":2379,"irth":2380,"ĠĠĊ":2381,"unt":2382,"Ġanyone":2383,"lf":2384,"Ġ2015":2385,"Ġfif":2386,"who":2387,"Ġpolitician":2388,"more":2389,"oved":2390,"though":2391,"ĠPenn":2392,"Ġrad":2393,"Ġran":2394,"Ġdam":2395,"lvan":2396,"Ġfa":2397,"Ġcre":2398,"Ġusing":2399,"Ġord":2400,"gest":2401,"ma":2402,"ocr":2403,"Ġdepartment":2404,"raid":2405,"Ġcomplete":2406,"Ġparticular":2407,"Ġanswer":2408,"eder":2409,"Ġz":2410,"Ġsend":2411,"Ġtreat":2412,"Ġhistory":2413,"ondon":2414,"lvania":2415,"urg":2416,"Ġwhether":2417,"ensus":2418,"Ġ#":2419,"Ġrepresent":2420,"ham":2421,"soci":2422,"itions":2423,"eed":2424,"Erm":2425,"Ġdear":2426,"Ġcoup":2427,"yn":2428,"ĠWest":2429,"Of":2430,"Ġworks":2431,"Ġfav":2432,"Ġevent":2433,"Ġstat":2434,"OT":2435,"Ġphone":2436,"Ġgrand":2437,"ffic":2438,"Ġwritten":2439,"unicip":2440,"Ġvoice":2441,"sylvania":2442,"aged":2443,"18":2444,"Ġdest":2445,"mbers":2446,"like":2447,"Ġmount":2448,"irty":2449,"Ġpresident":2450,"Ġseat":2451,"Ġeveryone":2452,"Ġmoved":2453,"Ġpost":2454,"Ġwall":2455,"Ġstep":2456,"ourn":2457,"Ġtree":2458,"ission":2459,"idence":2460,"ĠMc":2461,"Ġmembers":2462,"Ġfeet":2463,"Ġmur":2464,"Ġcat":2465,"Ġfast":2466,"rit":2467,"Ã¡":2468,"ĠPennsylvania":2469,"Ġreceived":2470,"ien":2471,"Ġtable":2472,"hys":2473,"aff":2474,"Ġproper":2475,"Ġgets":2476,"Ġ2016":2477,"Ġcreated":2478,"aint":2479,"Ġprop":2480,"Ġbuilt":2481,"Ġiss":2482,"ising":2483,"Ġfur":2484,"Ġinvol":2485,"Ġknows":2486,"uk":2487,"she":2488,"lex":2489,"Ġworry":2490,"par":2491,"iding":2492,"Ġteac":2493,"Ġexc":2494,"Ġcannot":2495,"LE":2496,"how":2497,"Ġview":2498,"Ġfair":2499,"Ġmine":2500,"Take":2501,"iod":2502,"ĠJapan":2503,"Ġ25":2504,"Ġsn":2505,"ified":2506,"Ġafraid":2507,"Ġwood":2508,"Ġvide":2509,"omb":2510,"ording":2511,"Ġdraw":2512,"Ġsometimes":2513,"Ġcond":2514,"Ġconcer":2515,"eal":2516,"Ġcommon":2517,"ev":2518,"Ġhorse":2519,"Ġcurrent":2520,"ressed":2521,"onight":2522,"ÃŃ":2523,"Ġcast":2524,"Ġtwenty":2525,"Ġcareer":2526,"Ġabs":2527,"ounds":2528,"la":2529,"Ġauthor":2530,"Ġbuilding":2531,"Ġchance":2532,"Ġsense":2533,"Ġ2022":2534,"Ġhuh":2535,"Ġwrote":2536,"ĠAfter":2537,"uri":2538,"US":2539,"Ġregion":2540,"ĠAm":2541,"ospital":2542,"ks":2543,"ampions":2544,"asure":2545,"ata":2546,"Ġseems":2547,"Ġlocal":2548,"OK":2549,"Ġclub":2550,"Ġcry":2551,"ĠLondon":2552,"itive":2553,"ĠTe":2554,"ael":2555,"Ġdiffic":2556,"Ġeasy":2557,"Ġbuy":2558,"ĠIf":2559,"See":2560,"Ġones":2561,"10":2562,"Ġprocess":2563,"Ġcontrol":2564,"Ġgeneral":2565,"ror":2566,"Ġeduc":2567,"Ġexactly":2568,"Ġdescri":2569,"ization":2570,"ĠHar":2571,"Ġshot":2572,"alt":2573,"ĠRuss":2574,"lic":2575,"Ġcold":2576,"ĠDr":2577,"Ġcouple":2578,"oose":2579,"Ġlonger":2580,"Ġincre":2581,"ument":2582,"Ġcal":2583,"ogn":2584,"Ġdin":2585,"uture":2586,"ays":2587,"Ġmer":2588,"Ġservice":2589,"ule":2590,"Ġluck":2591,"Ġrunning":2592,"ift":2593,"ĠPol":2594,"Ġmot":2595,"lin":2596,"ett":2597,"Sorry":2598,"Ġtomorrow":2599,"ĠOne":2600,"His":2601,"Ġsea":2602,"Ġshit":2603,"Ġdev":2604,"Ġinvest":2605,"Ġbott":2606,"Ġparents":2607,"rug":2608,"avid":2609,"ls":2610,"Ġfail":2611,"ĠJack":2612,"Ġpal":2613,"ĠWell":2614,"emy":2615,"Wait":2616,"acy":2617,"Ġdirected":2618,"Ġtruth":2619,"uation":2620,"Ġchanged":2621,"ĠState":2622,"Ġinformation":2623,"Ġdeep":2624,"irt":2625,"Ġserved":2626,"Ġstar":2627,"cience":2628,"Ġpaper":2629,"ills":2630,"Ġtouch":2631,"ges":2632,"Ġsomebody":2633,"Ġcharacter":2634,"Ġhig":2635,"Ġpract":2636,"ĠLea":2637,"Ġhowever":2638,"illy":2639,"ĠParty":2640,"Ġled":2641,"iol":2642,"ration":2643,"Ġtit":2644,"Ġbirth":2645,"avy":2646,"ean":2647,"stit":2648,"Ġcarry":2649,"Ġtechn":2650,"ĠGerman":2651,"ĠAustral":2652,"Thanks":2653,"Ġdi":2654,"ĠHouse":2655,"Ġthemselves":2656,"wered":2657,"Ġsupposed":2658,"Ġfly":2659,"Ġfootball":2660,"ĠEx":2661,"Ġarri":2662,"ĠLord":2663,"Ġrese":2664,"ĠOF":2665,"Ġ24":2666,"Ġsouth":2667,"ĠTom":2668,"Ġcourt":2669,"Ġlanguage":2670,"Like":2671,"Ġperiod":2672,"Ġblue":2673,"eneral":2674,"Ġlab":2675,"Ġboys":2676,"entle":2677,"itz":2678,"Ġkids":2679,"Ġaff":2680,"Ġlow":2681,"Ġwaiting":2682,"with":2683,"ĠCap":2684,"15":2685,"Ġsex":2686,"ĠUS":2687,"Ġlady":2688,"Ġcentury":2689,"ĠMich":2690,"Ġshoot":2691,"CH":2692,"ption":2693,"ĠEngland":2694,"ĠQue":2695,"Ġfuture":2696,"Ġposition":2697,"Ġmunicip":2698,"Ġneeds":2699,"Ġwhatever":2700,"ĠIndian":2701,"Ġ*":2702,"oes":2703,"ĠMy":2704,"VE":2705,"17":2706,"Will":2707,"uz":2708,"Ar":2709,"iron":2710,"isten":2711,"Ġriver":2712,"Ġpur":2713,"off":2714,"ouncil":2715,"Ġtrouble":2716,"bers":2717,"Ġmouth":2718,"ivil":2719,"Ġconn":2720,"cially":2721,"Ġcross":2722,"Ġvers":2723,"fer":2724,"vol":2725,"Ġtonight":2726,"roll":2727,"Ġsecret":2728,"ilar":2729,"Ġserious":2730,"Hi":2731,"ially":2732,"Ġthrow":2733,"Ġbank":2734,"Ġwrite":2735,"ND":2736,"Ġlik":2737,"Mar":2738,"Ġhurt":2739,"eople":2740,"GH":2741,"irm":2742,"ĠRepubl":2743,"Ġabove":2744,"Tell":2745,"Ġrul":2746,"AY":2747,"itor":2748,"Ġaccept":2749,"conom":2750,"Ġhang":2751,"this":2752,"ĠSec":2753,"see":2754,"amer":2755,"Ġ0":2756,"Ġpot":2757,"Ġsuper":2758,"Ġrespect":2759,"Ġentire":2760,"Un":2761,"aur":2762,"Ġgen":2763,"Ġstraight":2764,"Ġanswered":2765,"Ġpassed":2766,"Ġtrad":2767,"inal":2768,"Ġclean":2769,"Ġcapital":2770,"ager":2771,"Ġengine":2772,"Ġsell":2773,"ploy":2774,"Ġsurpr":2775,"viously":2776,"iforn":2777,"they":2778,"itary":2779,"hel":2780,"ray":2781,"Ġhy":2782,"ele":2783,"Ġforget":2784,"Ġ)":2785,"ford":2786,"sp":2787,"Ġpiece":2788,"Ġstri":2789,"ampionship":2790,"Ġpriv":2791,"Ġeverybody":2792,"Ġep":2793,"Ġda":2794,"Ġperhaps":2795,"ĠGermany":2796,"Ġcensus":2797,"ashing":2798,"ĠNot":2799,"owers":2800,"ifornia":2801,"Ġvillage":2802,"Ġkept":2803,"Ġcried":2804,"Ġproblems":2805,"Ġusually":2806,"Ġrole":2807,"Ġsocial":2808,"ping":2809,"Ġevening":2810,"ĠAmerica":2811,"Ġ2013":2812,"Ġpicture":2813,"uel":2814,"ĠEl":2815,"EA":2816,"Ġbear":2817,"ĠTo":2818,"Ġlim":2819,"dden":2820,"Ġcover":2821,"ĠSchool":2822,"epend":2823,"?âĢĿ":2824,"Ġstood":2825,"Ġfinal":2826,"Ġproject":2827,"ination":2828,"Ġnat":2829,"ander":2830,"Ġinstead":2831,"Ġmist":2832,"Ġfinished":2833,"Fr":2834,"ĠPark":2835,"Ġseemed":2836,"Ġdue":2837,"Ġrecogn":2838,"Ġesc":2839,"Ġplayer":2840,"Ġannoun":2841,"Ġgirls":2842,"ID":2843,"Ġple":2844,"ĠGovern":2845,"Ġcos":2846,"Stop":2847,"Ġprison":2848,"line":2849,"aha":2850,"ĠColl":2851,"atter":2852,"Ġfurther":2853,"iers":2854,"Ġchair":2855,"af":2856,"Ġmem":2857,"Ġtakes":2858,"Ġtrack":2859,"Ġfunny":2860,"Ġimag":2861,"Ġvict":2862,"teen":2863,"Ġcrit":2864,"ky":2865,"reg":2866,"Ġitself":2867,"Ġdecided":2868,"Ġsudden":2869,"Ġworth":2870,"Ġvideo":2871,"ĠCalifornia":2872,"Ġgreen":2873,"Ġspace":2874,"rill":2875,"razy":2876,"estern":2877,"Ġhealth":2878,"Ġdro":2879,"Ġphys":2880,"ĠDem":2881,"Ġvol":2882,"16":2883,"Ġkiss":2884,"Ġreturned":2885,"hi":2886,"val":2887,"Ġdifficult":2888,"Ġtrust":2889,"put":2890,"olute":2891,"Ġcomput":2892,"ellow":2893,"ula":2894,"Ġhappens":2895,"These":2896,"Ġsuff":2897,"Ġsugg":2898,"Ġsuggest":2899,"Ġport":2900,"ris":2901,"lands":2902,"Ġang":2903,"Ġearth":2904,"Ġinclude":2905,"ending":2906,"Ġlocated":2907,"lu":2908,"ĠHigh":2909,"roy":2910,"ops":2911,"Ġherself":2912,"Ġadm":2913,"Ġopened":2914,"Ġactiv":2915,"joy":2916,"Ġreached":2917,"Ġbooks":2918,"Ġdoub":2919,"ĠMe":2920,"Ġpolitical":2921,"riage":2922,"Ġstre":2923,"Ġ100":2924,"Ġexist":2925,"Ġring":2926,"Ġcult":2927,"ciety":2928,"ari":2929,"Ġnine":2930,"time":2931,"empt":2932,"Ġwhom":2933,"Ġaren":2934,"14":2935,"12":2936,"Ġappeared":2937,"Ġterri":2938,"ĠGeorge":2939,"AM":2940,"Ġsave":2941,"Ġdanger":2942,"Ġpen":2943,"Ġperfect":2944,"Ġpublished":2945,"Ġweeks":2946,"Ġmommy":2947,"Ġlad":2948,"ĠPhil":2949,"Ġhospital":2950,"Ġ()":2951,"Ġsafe":2952,"bor":2953,"ivid":2954,"ico":2955,"Ġjud":2956,"ĠLeague":2957,"Ġclot":2958,"Ġrace":2959,"Ġfeeling":2960,"Ġcook":2961,"ceed":2962,"ival":2963,"ken":2964,"Ġain":2965,"Ġshut":2966,"ears":2967,"Cl":2968,"Ġcell":2969,"Ġ<":2970,"rey":2971,"IC":2972,"Ġestab":2973,"ding":2974,"night":2975,"Ġmiddle":2976,"Ġaged":2977,"ĠIndia":2978,"Ġanyway":2979,"ĠSm":2980,"Ġfigure":2981,"ĠMinister":2982,"Ġeye":2983,"raft":2984,"Ġpopular":2985,"Ġlaugh":2986,"ĠDan":2987,"ĠPer":2988,"ĠPaul":2989,"itted":2990,"Ġsus":2991,"Ġhung":2992,"\")":2993,"ae":2994,"Ġobject":2995,"Ġlearn":2996,"Ġtype":2997,"bit":2998,"reme":2999,"ĠSy":3000,"ades":3001,"ili":3002,"omen":3003,"ĠMrs":3004,"Ġ(\"":3005,"Ġnorm":3006,"Ġjump":3007,"ĠLou":3008,"Ġfix":3009,"Ġneg":3010,"ĠNe":3011,"Ġnin":3012,"bl":3013,"Ġclim":3014,"Ġhop":3015,"ĠRiver":3016,"Ġprotect":3017,"Ġ21":3018,"Ġfill":3019,"Ġphot":3020,"Ġ22":3021,"Give":3022,"ĠWhy":3023,"Ġ``":3024,"UT":3025,"cher":3026,"yle":3027,"ĠIN":3028,"Ġgod":3029,"ume":3030,"Ġdoctor":3031,"Ġclaim":3032,"Ġfre":3033,"Ġfish":3034,"Ġstage":3035,"Ġtelling":3036,"Ġsitting":3037,"Ġfloor":3038,"ĠGood":3039,"ĠJust":3040,"Ġelection":3041,"Ġbeat":3042,"erve":3043,"Ġmid":3044,"ĠPeter":3045,"Ġcorn":3046,"Ġmult":3047,"Ġviol":3048,"field":3049,"Ã¼":3050,"uty":3051,"ĠMad":3052,"Ġsoft":3053,"Ġmis":3054,"From":3055,"omes":3056,"Ġletter":3057,"Ġdrug":3058,"ĠSen":3059,"Ġslow":3060,"Ġahead":3061,"rain":3062,"Ġsett":3063,"upp":3064,"Ġgentle":3065,"ĠWilliam":3066,"ression":3067,"Ġmeeting":3068,"Ġ2011":3069,"Ġtotal":3070,"Ġcrazy":3071,"erence":3072,"ran":3073,"Ġspir":3074,"ishing":3075,"Ġdeg":3076,"esus":3077,"Ġdrive":3078,"Ġ2012":3079,"Ġmaster":3080,"Ġaut":3081,"Ġeconom":3082,"Ġglad":3083,"ĠPrince":3084,"Ġbeginning":3085,"Ġ23":3086,"ĠSe":3087,"Ġintrodu":3088,"Ġoriginal":3089,"arth":3090,"pecially":3091,"Ġmad":3092,"ĠJames":3093,"Ġself":3094,"Ġsad":3095,"ago":3096,"Ġmeant":3097,"AC":3098,"Bl":3099,"Really":3100,"THE":3101,"amm":3102,"ocked":3103,"Ġstudents":3104,"Ġinn":3105,"Ġsick":3106,"was":3107,"ĠIT":3108,"oly":3109,"oyal":3110,"Ġforward":3111,"HAT":3112,"Ġroll":3113,"God":3114,"Ġforce":3115,"Ġthou":3116,"Ġsubject":3117,"Ġrespons":3118,"Ġbag":3119,"Ġdisapp":3120,"Ġcatch":3121,"oming":3122,"Ġstick":3123,"Ġfeat":3124,"Ġgiving":3125,"Ġkey":3126,"Ġbull":3127,"Ġdoll":3128,"hem":3129,"Ġaccount":3130,"inger":3131,"Ġstars":3132,"ires":3133,"Ġmention":3134,"Ġmunicipality":3135,"Ġnon":3136,"Ġpolic":3137,"Ġleaving":3138,"Ġant":3139,"ĠHowever":3140,"ĠMor":3141,"Ġcirc":3142,"Somet":3143,"Ġforest":3144,"Ġexcept":3145,"Ġmarket":3146,"iled":3147,"Ġcause":3148,"road":3149,"olly":3150,"bye":3151,"Ġhoney":3152,"Ġfrog":3153,"Ġrelig":3154,"Ġcertainly":3155,"Ġmatch":3156,"Ġlose":3157,"ĠMon":3158,"ĠMus":3159,"Ġclos":3160,"Ġquickly":3161,"13":3162,"ĠMed":3163,"Ġrelation":3164,"medi":3165,"Ġsimilar":3166,"Ġalive":3167,"ĠEast":3168,"rave":3169,"iment":3170,"Ġburn":3171,"Ġneigh":3172,"By":3173,"light":3174,"het":3175,"Ġum":3176,"udd":3177,"ĠFrank":3178,"AND":3179,"Ġbill":3180,"Ġcool":3181,"ya":3182,"anch":3183,"upid":3184,"Ġdinner":3185,"De":3186,"Listen":3187,"obert":3188,"Ġspecies":3189,"ĠSer":3190,"Ġstru":3191,"aven":3192,"Ġcommunity":3193,"Ġwindow":3194,"Ġident":3195,"Ġgrad":3196,"Ġcomb":3197,"ĠSch":3198,"Ġchurch":3199,"urity":3200,"Ġquiet":3201,"friend":3202,"Ġobs":3203,"AL":3204,"Ġtowards":3205,"ĠTown":3206,"Ġprofessional":3207,"Ġmater":3208,"Ġnet":3209,"Ġnecess":3210,"Ġproduct":3211,"Ġbelong":3212,"Man":3213,"Ġener":3214,"Ġ2021":3215,"iced":3216,"ĠTex":3217,"Ġprince":3218,"Ġfollowed":3219,"Ġx":3220,"ĠSan":3221,"Ġyours":3222,"just":3223,"ises":3224,"ville":3225,"bert":3226,"cast":3227,"aining":3228,"ĠEn":3229,"Ġmass":3230,"Ġfac":3231,"rian":3232,"Ġprep":3233,"Ne":3234,"berg":3235,"ĠRoman":3236,"Nothing":3237,"Ġfund":3238,"Ġ26":3239,"ĠCour":3240,"ĠCor":3241,"50":3242,"str":3243,"wood":3244,"rican":3245,"ius":3246,"ĠGeneral":3247,"ĠDemocr":3248,"Ġtravel":3249,"Ġbene":3250,"ĠRich":3251,"Ġcaught":3252,"Ġfem":3253,"Ġwhose":3254,"Ġinteresting":3255,"Ġstanding":3256,"isc":3257,"Ġcommune":3258,"Ġquestions":3259,"Ġtyp":3260,"uge":3261,"Ġenjoy":3262,"Ġsepar":3263,"ĠTV":3264,"Ġactor":3265,"Ġfear":3266,"Even":3267,"ĠEuropean":3268,"Ġhost":3269,"ams":3270,"Ġdecl":3271,"Ġfamous":3272,"Sp":3273,"Ġdirector":3274,"Ġaction":3275,"Ġbreat":3276,"Me":3277,"hood":3278,"Ġindivid":3279,"ĠDavid":3280,"TER":3281,"Ġanymore":3282,"Ã¶":3283,"Ġmoving":3284,"Ġinvolved":3285,"Ġpark":3286,"orthern":3287,"ĠNow":3288,"Ġlie":3289,"Ġproduced":3290,"cuse":3291,"gress":3292,"ĠWho":3293,"orts":3294,"Ġide":3295,"arden":3296,"gar":3297,"Ġcand":3298,"Ġexperience":3299,"ocks":3300,"rect":3301,"Ġ28":3302,"John":3303,"ply":3304,"cell":3305,"ĠCo":3306,"Ġwide":3307,"outhern":3308,"Ġ27":3309,"200":3310,"Ġteacher":3311,"Ġdaddy":3312,"ĠTexas":3313,"ĠDep":3314,"Tr":3315,"Ġgames":3316,"Ġdance":3317,"Ġ2008":3318,"erry":3319,"Ġfle":3320,"Ġhat":3321,"Ġdate":3322,"Ġplaces":3323,"minist":3324,"hic":3325,"Ġconsider":3326,"Ġbroad":3327,"nes":3328,"Ġwriting":3329,"Ġpeace":3330,"omas":3331,"cious":3332,"Ġrid":3333,"Ġcolor":3334,"ĠGl":3335,"ĠII":3336,"Ġearli":3337,"Ġstrange":3338,"don":3339,"FF":3340,"ining":3341,"ĠThese":3342,"ength":3343,"Ġallowed":3344,"ĠLa":3345,"Br":3346,"Ġsituation":3347,"ography":3348,"Ġpaid":3349,"ming":3350,"Ġfinally":3351,"Ġsimple":3352,"Ab":3353,"Ġmiles":3354,"Ġsurv":3355,"Ġeast":3356,"Ġstopped":3357,"Ġequal":3358,"Ġprim":3359,"ashington":3360,"Ġannounced":3361,"Ġmach":3362,"ĠCanada":3363,"Ġgrew":3364,"oseph":3365,"ĠĠĠĠĠĠĠĠĠĠĠĠĠĠĠĠ":3366,"Ġterms":3367,"AP":3368,"Ġtax":3369,"ounded":3370,"Ġindust":3371,"ĠMex":3372,"ĠAre":3373,"Ġparts":3374,"Ġshows":3375,"Ġsuppose":3376,"ĠSam":3377,"Ġalright":3378,"Pl":3379,"ĠOK":3380,"fl":3381,"iction":3382,"Ġappoint":3383,"ĠBE":3384,"ĠPal":3385,"mas":3386,"resh":3387,"Ġ2009":3388,"olic":3389,"ĠBy":3390,"ĠHey":3391,"bour":3392,"Ġimmedi":3393,"30":3394,"iny":3395,"Ġemploy":3396,"ĠAnge":3397,"Ġneeded":3398,"ging":3399,"Our":3400,"uses":3401,"Ġmilitary":3402,"Ġamount":3403,"Ġasking":3404,"Ġcard":3405,"isse":3406,"Ġbud":3407,"ĠHen":3408,"Ġplays":3409,"Ġpack":3410,"ĠWith":3411,"Ġcommand":3412,"Ġspent":3413,"Ġlargest":3414,"ĠMark":3415,"Ġaward":3416,"inite":3417,"Ġarch":3418,"Ġperm":3419,"burg":3420,"Ġseeing":3421,"Ġeducation":3422,"ĠReg":3423,"ĠSte":3424,"Ġresearch":3425,"ĠQueen":3426,"Ġ2006":3427,"ĠGreat":3428,"Ġfounded":3429,"!âĢĿ":3430,"Ġfavor":3431,"istic":3432,"Ġver":3433,"ĠCr":3434,"ĠLet":3435,"Ġanybody":3436,"Ġways":3437,"Ġconnect":3438,"ns":3439,"Ġbase":3440,"ences":3441,"oph":3442,"irgin":3443,"Ġstudy":3444,"ĠQu":3445,"Ġofficial":3446,"Ġradio":3447,"inary":3448,"ĠChar":3449,"Ġclothes":3450,"Ġstreet":3451,"ĠMary":3452,"rem":3453,"gu":3454,"ĠBlack":3455,"Ġdress":3456,"Ġcoff":3457,"rel":3458,"Ġenergy":3459,"Ġmaterial":3460,"ners":3461,"ero":3462,"Ġdig":3463,"alian":3464,"aker":3465,"Ġvisit":3466,"olutely":3467,"ites":3468,"olf":3469,"ruction":3470,"ston":3471,"reek":3472,"ĠChampionship":3473,"ĠWhere":3474,"Ġstore":3475,"asons":3476,".'":3477,"ki":3478,"ĠThank":3479,"atives":3480,"Ġnatural":3481,"Ġmarry":3482,"edy":3483,"Ġconv":3484,"Ġnovel":3485,"ential":3486,"istrict":3487,"âĢĶ":3488,"itional":3489,"Ġfort":3490,"ĠAir":3491,"ĠBen":3492,"istory":3493,"Ġrefer":3494,"Ġarrest":3495,"Ġaccident":3496,"cul":3497,"play":3498,"Ġreplied":3499,"ensive":3500,"Ġbroke":3501,"Ġattempt":3502,"ibility":3503,"Ġhate":3504,"ĠEm":3505,"Ġdistribut":3506,"Which":3507,"ka":3508,"ĠChurch":3509,"Ġcompan":3510,"ala":3511,"ĠAc":3512,"Ġincluded":3513,"ĠMart":3514,"Ġenc":3515,"Ġcountries":3516,"Ġfoc":3517,"Qu":3518,"ĠON":3519,"sych":3520,"Ġwed":3521,"Ġscient":3522,"ĠDad":3523,"IM":3524,"itude":3525,"Ġmodel":3526,"Ġcivil":3527,"Ġvarious":3528,"AD":3529,"ĠInternational":3530,"Ġsour":3531,"Ġbought":3532,"ether":3533,"ĠRed":3534,"ĠâĢĺ":3535,"Ġstupid":3536,"Ġlo":3537,".,":3538,"Ġaud":3539,"Ġfarm":3540,"Ġloved":3541,"Gr":3542,"Ġ50":3543,"Ġdiscuss":3544,"ĠBo":3545,"Ġpoints":3546,"ĠUnion":3547,"back":3548,"Ġcaused":3549,"rav":3550,"Ġnumbers":3551,"ĠME":3552,"rica":3553,"Ġsight":3554,"ani":3555,"Ġtitle":3556,"Ġprivate":3557,"LD":3558,"Two":3559,"Ġindeed":3560,"Ġsearch":3561,"Ġvalue":3562,"kn":3563,"pper":3564,"Ġrob":3565,"Ġtick":3566,"ify":3567,"Ġjoined":3568,"Ġarr":3569,"Ġscience":3570,"Ġboard":3571,"ĠSome":3572,"ĠWashington":3573,"Pro":3574,"Ġcomputer":3575,"YOU":3576,"ĠIts":3577,"iles":3578,"Ġglass":3579,"ux":3580,"Ġplant":3581,"oid":3582,"Her":3583,"onel":3584,"Ġarmy":3585,"Ġpers":3586,"Ġcarried":3587,"gent":3588,"Ġdrop":3589,"Ġblow":3590,"year":3591,"Ġheavy":3592,"Ġquar":3593,"board":3594,"mon":3595,"Ġbattle":3596,"Ġfool":3597,"bing":3598,"Ġ2007":3599,"eep":3600,"OS":3601,"Ġwear":3602,"Ġcompletely":3603,"Ġavail":3604,"Ġpalace":3605,"ĠMichael":3606,"ĠBer":3607,"Would":3608,"Ġwild":3609,"Ġinternational":3610,"Ġpromise":3611,"Ġcontract":3612,"aign":3613,"sociation":3614,"Ġpersonal":3615,"Ġdestroy":3616,"Ġrelationship":3617,"inct":3618,"ĠLi":3619,"Ġarms":3620,"ournal":3621,"Ġshop":3622,"Ġegg":3623,"Ġdoc":3624,"ĠKh":3625,"ida":3626,"Ġleader":3627,"Ġaffect":3628,"incip":3629,"11":3630,"Ġtired":3631,"sec":3632,"Ġanimals":3633,"Ġinj":3634,"Ġlength":3635,"Ġstruct":3636,"Ġdevelopment":3637,"anish":3638,"ability":3639,"Ã³":3640,"Ġevidence":3641,"Ġcontinued":3642,"Ġpercent":3643,"ground":3644,"face":3645,"good":3646,"duct":3647,"Ġwel":3648,"ĠAward":3649,"Ġ29":3650,"asket":3651,"ĠCome":3652,"ota":3653,"did":3654,"ĠNor":3655,"Ġtail":3656,"Ġnature":3657,"Ġisland":3658,"Ġconside":3659,"ittee":3660,"urt":3661,"Ġalthough":3662,"Ġconsidered":3663,"Very":3664,"Ġinflu":3665,"ĠParis":3666,"Ġwest":3667,"wise":3668,"Ġsoul":3669,"Ġthreat":3670,"aves":3671,"ĠYour":3672,"ĠComp":3673,"ĠAnt":3674,"ĠStreet":3675,"ension":3676,"asc":3677,"anced":3678,"hest":3679,"Ġmix":3680,"Ġindepend":3681,"Ġcollect":3682,"ĠBel":3683,"antly":3684,"Ġet":3685,"iling":3686,"ELL":3687,"Ġwarm":3688,"ĠĠĠĠĠĠ":3689,"Ġthanks":3690,"Ġbow":3691,"ĠPort":3692,"Ġshowed":3693,"Ġinvestig":3694,"Ġhistor":3695,"chen":3696,"isk":3697,"asing":3698,"ĠCup":3699,"Ġwonderful":3700,"ustom":3701,"Ġplus":3702,"Ġmarriage":3703,"Ġcollege":3704,"ĠÂ":3705,"Ġdoubt":3706,"Ġespecially":3707,"ĠSu":3708,"Ġvot":3709,"rig":3710,"Ġice":3711,"Ġgives":3712,"Ġboat":3713,"Ġtrees":3714,"ĠPrincess":3715,"lo":3716,"alley":3717,"wr":3718,"Ġversion":3719,"Ġinit":3720,"Ġestabl":3721,"Ġwatching":3722,"Sure":3723,"Ġshare":3724,"which":3725,"ĠCourt":3726,"ively":3727,"ĠChristian":3728,"Ġmountain":3729,"KE":3730,"Ġcup":3731,"Ġrich":3732,"raw":3733,"terday":3734,"Ġrail":3735,"Ġthirty":3736,"ria":3737,"Ġchoice":3738,"Ġmodern":3739,"ĠHall":3740,"Ġshouldn":3741,"house":3742,"ushed":3743,"ĠAlex":3744,"Ġareas":3745,"Ġliter":3746,"amn":3747,"ĠRussian":3748,"inn":3749,"sey":3750,"Ġrain":3751,"Does":3752,"Ġepis":3753,"Ġtour":3754,"ils":3755,"Ġpurp":3756,"Ġsal":3757,"ĠJew":3758,"ĠEarth":3759,"ĠOkay":3760,"Ġdeterm":3761,"Ġexec":3762,"Ġcharge":3763,"Ġneck":3764,"ĠCong":3765,"acing":3766,"Per":3767,"ĠItalian":3768,"ĠCouncil":3769,"ĠSov":3770,"Ġpray":3771,"Ġfunction":3772,"ĠMont":3773,"Ġnobody":3774,"Ġclosed":3775,"Ġdifference":3776,"ique":3777,"rief":3778,"ederal":3779,"set":3780,"Ġattention":3781,"Ġimpro":3782,"Ġreach":3783,"Ġhelped":3784,"Ġsinger":3785,"Sir":3786,"action":3787,"ledge":3788,"Ġnearly":3789,"Ġ2000":3790,"azing":3791,"Ġelected":3792,"lim":3793,"ĠSoviet":3794,";&":3795,"astic":3796,"ological":3797,"Ġfellow":3798,"Ġwat":3799,"Ġnose":3800,"Sc":3801,"aries":3802,"Ġ190":3803,"Ġsuddenly":3804,"elve":3805,"Ġsomewhere":3806,"annel":3807,"Ġ2004":3808,"Ġbur":3809,"Ġspirit":3810,"Ġ2005":3811,"ĠSir":3812,"Excuse":3813,"Ġyouth":3814,"elebr":3815,"ĠCollege":3816,"ette":3817,"adian":3818,"Ġsounds":3819,"ancy":3820,"antic":3821,"osing":3822,"useum":3823,"Ġtemper":3824,"ĠJapanese":3825,"Ġgas":3826,"Ġspend":3827,"Ġhappening":3828,"Ġcab":3829,"Ġrights":3830,"cing":3831,"Ġsens":3832,"Ġredu":3833,"ĠBill":3834,"Ġavailable":3835,"Um":3836,"pro":3837,"noon":3838,"Ġemb":3839,"Ġtalked":3840,"ĠRob":3841,"ords":3842,"ura":3843,"EL":3844,"osition":3845,"apers":3846,"Ġbottom":3847,"ĠAustralia":3848,"ĠLouis":3849,"ĠPet":3850,"Ġcancer":3851,"/&":3852,"Ġhigher":3853,"Ġtraining":3854,"Ġbirthday":3855,"ij":3856,"Ġcow":3857,"ĠAND":3858,"Ġlying":3859,"inese":3860,"ĠFrom":3861,"Ġsimply":3862,"ĠST":3863,"Ġ40":3864,"Am":3865,"apt":3866,"under":3867,"ators":3868,"Ġcy":3869,"Ġbrain":3870,"Ġcases":3871,"Ġhors":3872,"Ġinterested":3873,"ĠPat":3874,"Ġmanage":3875,"ĠTHAT":3876,"ees":3877,"king":3878,"uke":3879,"hod":3880,"Ġdetail":3881,"ansas":3882,"ĠMa":3883,"pen":3884,"Ġbes":3885,"Ġnor":3886,"Ġbelow":3887,"Ġformed":3888,"Ġearlier":3889,"Ġenv":3890,"uts":3891,"volution":3892,"Ġfat":3893,"ondisse":3894,"ĠChe":3895,"Ġnames":3896,"Ġmovies":3897,"bon":3898,"ita":3899,"ĠSim":3900,"isted":3901,"ously":3902,"Ġdefe":3903,"Ġyellow":3904,"Ġeff":3905,"ĠAfrica":3906,"Ġcoffee":3907,"ccording":3908,"Ġtend":3909,"chie":3910,"Ġofficer":3911,"Ġentered":3912,"Ġspeed":3913,"Ġmeaning":3914,"Ġdecision":3915,"shire":3916,"Ġtea":3917,"ests":3918,"ĠCaptain":3919,"asion":3920,"ibly":3921,"Ġopport":3922,"Ġcrime":3923,"Ġadded":3924,"ĠFranc":3925,"icago":3926,"ĠScott":3927,"Ġprincess":3928,"Ġmessage":3929,"ession":3930,"Ġlovely":3931,"Ġexplain":3932,"People":3933,"iday":3934,"oring":3935,"Ġsummer":3936,"Ġstates":3937,"Ġpoet":3938,"Ġcapt":3939,"esty":3940,"Ġcalling":3941,"Ġsize":3942,"Ġputting":3943,"Ġended":3944,"kin":3945,"ilities":3946,"oop":3947,"ali":3948,"Ġsuit":3949,"Ġmurder":3950,"aste":3951,"ademy":3952,"ĠRobert":3953,"ĠOly":3954,"Ġdise":3955,"Ġpig":3956,"Ġfaith":3957,"Ġhall":3958,"ĠDistrict":3959,"Ġprice":3960,"Ġmultip":3961,"his":3962,"Ġextra":3963,"Ġweap":3964,"Ġweren":3965,"tered":3966,"Ġnomin":3967,"Ġbye":3968,"Ġchief":3969,"iana":3970,"Ġbrothers":3971,"Ġimmediately":3972,"order":3973,"Ġbroken":3974,"Ġspoke":3975,"Ġschools":3976,"Ġhous":3977,"ĠGrand":3978,"Ġdemand":3979,"Ġcampaign":3980,"Ġkick":3981,"TH":3982,"ification":3983,"ĠCarol":3984,"Ġfit":3985,"Ġhar":3986,"Ġ1990":3987,"phone":3988,"ĠChina":3989,"utch":3990,"Ġur":3991,"ĠSum":3992,"Ġarrived":3993,"Ġnormal":3994,"Ġnone":3995,"uzz":3996,"Ġoffer":3997,"sequ":3998,"ĠAct":3999,"ĠMil":4000,"Ġaver":4001,"Ġcelebr":4002,"Ġestablished":4003,"Ġservices":4004,"ĠRepublic":4005,"Ġlower":4006,"Ġgroups":4007,"Ġstone":4008,"ights":4009,"Ġworse":4010,"tt":4011,"Ġride":4012,"Ġreview":4013,"Ġproduction":4014,"Ġlawy":4015,"ossible":4016,"ĠMag":4017,"BC":4018,"inter":4019,"Ġbell":4020,"ĠGold":4021,"Dr":4022,"Ġsnow":4023,"Ġcreate":4024,"hold":4025,"Ġden":4026,"ĠTur":4027,"craft":4028,"semb":4029,"Ġfourth":4030,"ĠPri":4031,"ems":4032,"Ġhun":4033,"ĠOf":4034,"Was":4035,"ĠEr":4036,"Ġtext":4037,"Ġ186":4038,"atory":4039,"ids":4040,"ĠJer":4041,"Ġimm":4042,"Ġcareful":4043,"Dad":4044,"Ġbi":4045,"ena":4046,"Ġwedding":4047,"Ġscene":4048,"otten":4049,"199":4050,"andy":4051,"Ġskin":4052,"Ġmovement":4053,"Ġsite":4054,"arily":4055,"ĠMal":4056,"ĠVirgin":4057,"ĠIS":4058,"ĠItaly":4059,"ĠArmy":4060,"Ġregular":4061,"Ġafternoon":4062,"ste":4063,"Ġfinish":4064,"Ġstudio":4065,"Ġhero":4066,"ĠJim":4067,"ini":4068,"Ġoccur":4069,"Ġjoin":4070,"Ġdata":4071,"Ġagree":4072,"erc":4073,"Ġadminist":4074,"Only":4075,"Ġund":4076,"Ġstarting":4077,"ĠChristmas":4078,"osh":4079,"Ġcontact":4080,"Ġdeli":4081,"Ġwriter":4082,"Ġchanges":4083,"pping":4084,"ĠRes":4085,"Ġnetwork":4086,"tr":4087,"GHT":4088,"fast":4089,"aped":4090,"ancing":4091,"ĠHenry":4092,"rag":4093,"lor":4094,"chan":4095,"Ġcastle":4096,"ĠOlymp":4097,"Ġwalked":4098,"Ġparticip":4099,"arling":4100,"Ġdeveloped":4101,"liament":4102,"Ġgarden":4103,"isf":4104,"Ġpath":4105,"ĠIll":4106,"Ġpieces":4107,"oma":4108,"usion":4109,"oves":4110,"ables":4111,"Ġpsych":4112,"yond":4113,"Mhm":4114,"Ġwit":4115,"Ġsociety":4116,"Ġdeb":4117,"Ġlikely":4118,"Ġwa":4119,"ĠBob":4120,"ubb":4121,"VER":4122,"za":4123,"ĠÃ":4124,"Ġthee":4125,"Ġwelcome":4126,"imate":4127,"First":4128,"appy":4129,"Ġemer":4130,"ĠDO":4131,"Ġchick":4132,"Ġpun":4133,"Ġregard":4134,"Ġlif":4135,"Ġpage":4136,"Ġbright":4137,"Ġdistance":4138,"Ġ1980":4139,"oles":4140,"icro":4141,"lement":4142,"Ġspread":4143,"Ġtruck":4144,"Ġtherefore":4145,"Ġ189":4146,"Ġlearned":4147,"Ġprincip":4148,"Ġraised":4149,"Ġlines":4150,"Ġsilver":4151,"Ġhuge":4152,"Ġevents":4153,"NA":4154,"Ġcred":4155,"Ġfeed":4156,"ĠSmith":4157,"Ġlog":4158,"Ġfault":4159,"iant":4160,"yr":4161,"Ġfifty":4162,"Ġmaid":4163,"razil":4164,"Ġ2002":4165,"Ġstreng":4166,"Ġcomfort":4167,"ĠProv":4168,"Ġcamer":4169,"Ġactress":4170,"nie":4171,"ĠCanadian":4172,"Ġterrible":4173,"ĠGO":4174,"Ġcenter":4175,"hab":4176,"uit":4177,"itation":4178,"Ġstudent":4179,"Ġsmell":4180,"Ġhide":4181,"ĠSpanish":4182,"Ġcorner":4183,"Fuck":4184,"ST":4185,"iot":4186,"Ġyesterday":4187,"Ġspl":4188,"initely":4189,"Ġcoach":4190,"Ġsevent":4191,"ĠTownship":4192,"RO":4193,"Ġspecific":4194,"Ġgoal":4195,"ĠDel":4196,"Ġcrow":4197,"ĠRoyal":4198,"Ġintell":4199,"using":4200,"Ġassist":4201,"Ġcoun":4202,"Ġder":4203,"Ġlegs":4204,"Ġimagine":4205,"down":4206,"ona":4207,"ĠChinese":4208,"ĠSal":4209,"ips":4210,"Ġharm":4211,"Ġ2003":4212,"ours":4213,"ĠKingdom":4214,"ĠChicago":4215,"ĠScot":4216,"Ġreve":4217,"Ġmoon":4218,"Ġduck":4219,"Ġbeyond":4220,"urb":4221,"iel":4222,"ĠJesus":4223,"Ġsigned":4224,"Ġdouble":4225,"Ġhorses":4226,"erved":4227,"Ġscared":4228,"Hel":4229,"gl":4230,"Ġbusy":4231,"Ġpositive":4232,"anta":4233,"Ġbath":4234,"ĠDuring":4235,"ĠWhite":4236,"Ġboss":4237,"Ġrelease":4238,"Ġfemale":4239,"Ġsoldiers":4240,"à¸":4241,"Ġeating":4242,"aph":4243,"Ġcustom":4244,"Ġaccess":4245,"lear":4246,"ental":4247,"Ġrule":4248,"Ġchall":4249,"vert":4250,"Ġshoes":4251,"Ġru":4252,"ĠCharl":4253,"Ġmor":4254,"Ġrate":4255,"Ġnewsp":4256,"ĠDemocratic":4257,"25":4258,"Gu":4259,"Ġdiscovered":4260,"anda":4261,"oday":4262,"ĠAcademy":4263,"Ġpred":4264,"Ġess":4265,"Ġcovered":4266,"Ġconvers":4267,"Ġpressure":4268,"Ġmilk":4269,"Ġpounds":4270,"Ġvote":4271,"Che":4272,"Ã¤":4273,"Ġtall":4274,"Ad":4275,"Ã¨":4276,"Ġ2001":4277,"oken":4278,"Ġwalking":4279,"Ġthy":4280,"Ġremained":4281,"ĠMac":4282,"Ġacqu":4283,"Ġhonor":4284,"isions":4285,"Ġplaced":4286,"Ġcontinue":4287,"vey":4288,"ĠAfrican":4289,"Ġmagaz":4290,"Bye":4291,"Le":4292,"yl":4293,"Ġstaff":4294,"Ġsongs":4295,"ients":4296,"Ġfirm":4297,"Ġdebut":4298,"Put":4299,"Ġtwelve":4300,"Ġdepend":4301,"Ġsle":4302,"aching":4303,"ishop":4304,"Ġstories":4305,"aine":4306,"Ġsecurity":4307,"Ġaddress":4308,"Ġforces":4309,"ĠBrazil":4310,"rupt":4311,"Ġleaves":4312,"ĠCharles":4313,"known":4314,"ALL":4315,"Ġfol":4316,"Ġ188":4317,"ironment":4318,"Ġpolicy":4319,"Ġhey":4320,"ĠAg":4321,"Ġpractice":4322,"ĠCath":4323,"Ġdegree":4324,"would":4325,"west":4326,"enth":4327,"ĠSun":4328,"ĠSecret":4329,"Ġrose":4330,"Amer":4331,"Ġloss":4332,"Ġmethod":4333,"ĠBro":4334,"idden":4335,"lam":4336,"ĠIsland":4337,"IR":4338,"vere":4339,"oom":4340,"enny":4341,"Ġanimal":4342,"anche":4343,"UN":4344,"Ġleading":4345,"ĠMat":4346,"Ġdrama":4347,"ĠKore":4348,"Ġissue":4349,"Could":4350,"win":4351,"asant":4352,"Ġrout":4353,"Ġtrick":4354,"Ġkit":4355,"----":4356,"Ġholding":4357,"Ġdescribed":4358,"itan":4359,"eless":4360,"hib":4361,"Ġthroughout":4362,"Ġsquare":4363,"Ġdangerous":4364,"Ġbenef":4365,"gged":4366,"History":4367,"UR":4368,"ĠCom":4369,"Ġreading":4370,"Ġflowers":4371,"Ġremain":4372,"rees":4373,"Ġtheory":4374,"Ġcentral":4375,"Ġsky":4376,"Ġgiant":4377,"ĠFin":4378,"Ġnecessary":4379,"abor":4380,"Ġvan":4381,"Ġartic":4382,"Ġhonest":4383,"ĠCongress":4384,"irection":4385,"ĠBur":4386,"Ġ1970":4387,"va":4388,"Ġtwice":4389,"ware":4390,"ictor":4391,"ĠArt":4392,"ourney":4393,"Ġattract":4394,"Ġcru":4395,"Ġmir":4396,"Ġarg":4397,"Ġrecorded":4398,"Ġcompetition":4399,"Ġ(;":4400,"Ġdriving":4401,"eff":4402,"Ġought":4403,"Pr":4404,"uments":4405,"ga":4406,"Ġrepe":4407,"ĠSwed":4408,"Ġdesp":4409,"Ġapart":4410,"hand":4411,"ado":4412,"stairs":4413,"Ġshown":4414,"Ġminus":4415,"Ġbelieved":4416,"Ġjournal":4417,"Ġliked":4418,"Ġangry":4419,"ĠMexico":4420,"Ġbasket":4421,"ĠSat":4422,"igned":4423,"Ġsuccessful":4424,"Ġtar":4425,"Ġtrade":4426,"itar":4427,"ulf":4428,"Ġnotice":4429,"ateg":4430,"ipe":4431,"Ġpock":4432,"ĠRichard":4433,"Ġlaid":4434,"Ġphil":4435,"Ġtro":4436,"Ġcommunic":4437,"Ġrank":4438,"Ġintern":4439,"Ġmedical":4440,"ĠGovernor":4441,"Ġindividual":4442,"comm":4443,"pir":4444,"Ġswim":4445,"Ġaverage":4446,"EC":4447,"Ġcorrect":4448,"Ġble":4449,"Ġblock":4450,"Ġ31":4451,"Ġ187":4452,"ols":4453,"rat":4454,"Ġoil":4455,"Ġgar":4456,"New":4457,"fess":4458,"Ġbound":4459,"Everything":4460,"Ġpurpose":4461,"Ġsand":4462,"Ġachie":4463,"Ġsen":4464,"Ġproperty":4465,"Ġcompl":4466,"Ġlaws":4467,"da":4468,"aled":4469,"Ġmachine":4470,"istan":4471,"Ġaccording":4472,"stitute":4473,"ĠMet":4474,"ĠFirst":4475,"Ġagreed":4476,"Ġobviously":4477,"ograph":4478,"Ġcondition":4479,"Got":4480,"Ġforced":4481,"Ġcandid":4482,"En":4483,"Ġscreen":4484,"Ġbab":4485,"Keep":4486,"mark":4487,"uf":4488,"alled":4489,"Ġren":4490,"Ġspot":4491,"Ġmostly":4492,"war":4493,"Ġpush":4494,"Ġload":4495,"tained":4496,"den":4497,"asy":4498,"Ġknowledge":4499,"22":4500,"Ġfright":4501,"gen":4502,"Ġstorm":4503,"Ġrange":4504,"pty":4505,"Great":4506,"Ġstyle":4507,"ilies":4508,"Ġmm":4509,"Ġcode":4510,"ommy":4511,"40":4512,"Ġut":4513,"vell":4514,"eech":4515,"Ġdry":4516,"Never":4517,"Ġforth":4518,"Ġmedia":4519,"Ġeasily":4520,"Ġdamn":4521,"Rem":4522,"Ġtape":4523,"aug":4524,"isl":4525,"ĠPe":4526,"Ġgradu":4527,"cause":4528,"ora":4529,"ĠMount":4530,"unes":4531,"ĠJoe":4532,"Ġproud":4533,"Ġcars":4534,"Ġbread":4535,"Ġordered":4536,"Ġsac":4537,"arry":4538,"Ġreb":4539,"Ġopening":4540,"Ġlucky":4541,"Ġamb":4542,"izing":4543,"hell":4544,"Ġya":4545,"ĠMartin":4546,"Ġvictim":4547,"ĠLat":4548,"Ġextreme":4549,"Ġlink":4550,"ĠDes":4551,"Ġspring":4552,"Ġslight":4553,"Ġcalls":4554,"Ġ1999":4555,"Ġmagn":4556,"Ġreported":4557,"Con":4558,"Ġqual":4559,"Ġ1960":4560,"asm":4561,"Ġartist":4562,"Ġmissing":4563,"LY":4564,"Since":4565,"thank":4566,"Ġhole":4567,"astern":4568,"....":4569,"ĠJul":4570,"Ġhighest":4571,"Ġfresh":4572,"Ġdisease":4573,"odes":4574,"Ġcoast":4575,"Ġmission":4576,"Ġappointed":4577,"Hold":4578,"Ġbirds":4579,"Ġprint":4580,"Ġuniversity":4581,"etic":4582,"ĠMaj":4583,"ĠLaw":4584,"Ġthus":4585,"utive":4586,"ĠCentral":4587,"Ġabsolutely":4588,"ĠHill":4589,"rael":4590,"Ġstudied":4591,"Ġlawyer":4592,"Ġir":4593,"ĠRec":4594,"Ġfighting":4595,"Ġfrequ":4596,"Ġthrew":4597,"Ġheat":4598,"ores":4599,"Ġescape":4600,"Ġeld":4601,"ĠSund":4602,"Ġflight":4603,"ĠLos":4604,"aving":4605,"rif":4606,"Ġstuck":4607,"198":4608,"Ġmanager":4609,"Something":4610,"Ġopin":4611,"Ġplane":4612,"ĠDay":4613,"itiz":4614,"ĠRoad":4615,"Se":4616,"Ġcant":4617,"Ġpatient":4618,"Ġrules":4619,"Ġnoise":4620,"Ġwee":4621,"rial":4622,"Ġjoy":4623,"Ġruns":4624,"ĠHol":4625,"reedom":4626,"Ġforgot":4627,"zen":4628,"Ġthinks":4629,"ĠChief":4630,"ĠConf":4631,"lected":4632,"Ġjudge":4633,"Ġfinger":4634,"ĠWomen":4635,"ulations":4636,"Ġincludes":4637,"Ġeventually":4638,"Ġdropped":4639,"had":4640,"Ġdirection":4641,"Ġsystems":4642,"Ġmedic":4643,"Ġsatisf":4644,"Ġtaught":4645,"Ġideas":4646,"Ġmistake":4647,"ano":4648,"Ġforty":4649,"Ġtransl":4650,"Ġhungry":4651,"abb":4652,"Ġinterview":4653,"icious":4654,"Ġbridge":4655,"Ġwearing":4656,"Ġmurd":4657,"will":4658,"ĠSing":4659,"elle":4660,"law":4661,"EE":4662,"Huh":4663,"said":4664,"Ġjourney":4665,"Ġchoose":4666,"Ġsurprise":4667,"Ġspeaking":4668,"Ġge":4669,"Ġgrass":4670,"OH":4671,"Ġasleep":4672,"ola":4673,"ruit":4674,"Ġleaders":4675,"Ġtrip":4676,"Ġparticularly":4677,"Ġexam":4678,"Ġprovide":4679,"iety":4680,"iverse":4681,"Ġconstit":4682,"itzer":4683,"Act":4684,"icated":4685,"Ġplans":4686,"Ġunless":4687,"Ġolder":4688,"ĠArab":4689,"Ġpet":4690,"ĠSar":4691,"Ġgreatest":4692,"Ġqueen":4693,"Ġlots":4694,"Ġimpossible":4695,"Ġsignific":4696,"Ġresults":4697,"ĠBay":4698,"gn":4699,"Ġsurr":4700,"Ġpromised":4701,"Ġpicked":4702,"Ġcrew":4703,"ucky":4704,"Ġteams":4705,"ĠLee":4706,"Ġhasn":4707,"Ind":4708,"Ġsaved":4709,"Those":4710,"rish":4711,"sm":4712,"Alright":4713,"Ġenemy":4714,"arrow":4715,"bes":4716,"ĠGreen":4717,"Wow":4718,"Ġma":4719,"Ġtoward":4720,"gel":4721,"igan":4722,"itect":4723,"Ġworried":4724,"Ġpictures":4725,"ondissement":4726,"aked":4727,"Ġ1992":4728,"Ġenter":4729,"ĠFrancis":4730,"ĠSl":4731,"Ġcurrently":4732,"rs":4733,"oses":4734,"agn":4735,"Ġanywhere":4736,"Ġseconds":4737,"ishes":4738,"asty":4739,"Ġtele":4740,"ulous":4741,"ĠHere":4742,"ĠCat":4743,"Ġ1996":4744,"otion":4745,"Ġmentioned":4746,"Ġbomb":4747,"ĠAssociation":4748,"arly":4749,"Ġbigger":4750,"Ġevil":4751,"ashion":4752,"gypt":4753,"have":4754,"mes":4755,"Ġheaven":4756,"Ġtells":4757,"Ġstrugg":4758,"arp":4759,"arring":4760,"Ġcritic":4761,"Ġopportunity":4762,"ima":4763,"claim":4764,"Ġexpected":4765,"mit":4766,"rough":4767,"ĠServ":4768,"Ġrisk":4769,"ĠLittle":4770,"Ġbrief":4771,"Ġpan":4772,"ĠCont":4773,"oms":4774,"ĠThomas":4775,"umber":4776,"Ġperformed":4777,"Ġkingdom":4778,"yan":4779,"ĠDid":4780,"oops":4781,"ĠFOR":4782,"Ġamazing":4783,"Ġaddition":4784,"Ġvehic":4785,"leg":4786,"Ġprevent":4787,"ĠJohnson":4788,"ashed":4789,"LA":4790,"iro":4791,"Ġguard":4792,"01":4793,"Ġ..":4794,"change":4795,"Ġprovince":4796,"ĠCatholic":4797,"ĠBest":4798,"estival":4799,"Ġstrength":4800,"Ġweight":4801,"Ġlanguages":4802,"ms":4803,"ĠRock":4804,"âĢĺ":4805,"Ġcompanies":4806,"Ġwitness":4807,"Ġcere":4808,"Ġappre":4809,"OD":4810,"arts":4811,"Ġprem":4812,"Ġmemory":4813,"pre":4814,"Ġchem":4815,"Ġ1998":4816,"Ġbecomes":4817,"Ġtrial":4818,"Ġperformance":4819,"Ġsusp":4820,"IGHT":4821,"ĠDou":4822,"ĠBrown":4823,"sembly":4824,"Ġlegal":4825,"Ġgolden":4826,"IF":4827,"Ġstructure":4828,"Say":4829,"Ġspoken":4830,"ancial":4831,"Ġcomplex":4832,"Ġplat":4833,"Miss":4834,"ses":4835,"Ġroles":4836,"Ġbitch":4837,"ening":4838,"Ġrelated":4839,"Ġgrowing":4840,"Ġincrease":4841,"ĠAngeles":4842,"isher":4843,"Ġban":4844,"brary":4845,"zz":4846,"Ġplanet":4847,"NOW":4848,"roat":4849,"Ġdrew":4850,"Ġweird":4851,"Ġkitchen":4852,"Ġeth":4853,"owed":4854,"ĠVirginia":4855,"eds":4856,"icans":4857,"Ġblind":4858,"Ġnation":4859,"Ġaware":4860,"Ġdocument":4861,"ĠHA":4862,"OME":4863,"Ġthick":4864,"ube":4865,"Ġletters":4866,"host":4867,"ummy":4868,"Ġforeign":4869,"Ġorders":4870,"ĠHon":4871,"Ġstarts":4872,"ĠDepartment":4873,"Ġboo":4874,"add":4875,"Ġweak":4876,"Ġlearning":4877,"inois":4878,"Ġsides":4879,"ĠRepublican":4880,"Ġconcept":4881,"while":4882,"Ġorganization":4883,"lig":4884,"Ġcrim":4885,"Ġcomedy":4886,"Ġgreater":4887,"Ġhill":4888,"istry":4889,"ĠGovernment":4890,"Ġdollars":4891,"Ġassoci":4892,"Ġcomplet":4893,"Ġdesigned":4894,"ĠFlor":4895,"Ġoccup":4896,"hey":4897,"Before":4898,"Ġbeg":4899,"Ġnegative":4900,"ĠDutch":4901,"Three":4902,"ĠAustralian":4903,"ador":4904,"Ġissues":4905,"Ġpleasure":4906,"Ġfilled":4907,"ĠSand":4908,"Ġsuc":4909,"Ġprec":4910,"ĠSecretary":4911,"Ġsch":4912,"Ġmut":4913,"amber":4914,"ĠWil":4915,"agon":4916,"Ġacting":4917,"Ġheads":4918,"Ġretired":4919,"Ġsmaller":4920,"vis":4921,"21":4922,"iger":4923,"ault":4924,"krain":4925,"mar":4926,"unn":4927,"Ġteach":4928,"ĠâĢĶ":4929,"Ġ1993":4930,"ban":4931,"Ġstream":4932,"ĠSpain":4933,"ĠGroup":4934,"Ġdivided":4935,"Ġlikes":4936,"Ġwilling":4937,"father":4938,"iring":4939,"ĠEmp":4940,"Ġbehav":4941,"ION":4942,"Ġneither":4943,"ighs":4944,"Ġlarger":4945,"Lea":4946,"ĠMer":4947,"cend":4948,"ĠPeople":4949,"Ph":4950,"Ġlunch":4951,"stood":4952,"illa":4953,"Ġrap":4954,"arn":4955,"Ġinvent":4956,"Ġplayers":4957,"24":4958,"anted":4959,"azz":4960,"Ġspr":4961,"Ġbecoming":4962,"Ġpair":4963,"Ġshape":4964,"ĠBu":4965,"Ġconduct":4966,"Ġbrown":4967,"Ġ1994":4968,"Ġfamilies":4969,"Ġdemon":4970,"Ġsuspect":4971,"Ġsucceed":4972,"Ġcaptain":4973,"Ġpulled":4974,"km":4975,"Ġadult":4976,"Ġloud":4977,"Ġchamp":4978,"Ġourselves":4979,"idding":4980,"Ġgenerally":4981,"ares":4982,"Ġhardly":4983,"Ġbreakfast":4984,"ĠBet":4985,"ĠFox":4986,"Ġtotally":4987,"Ġenvironment":4988,"odies":4989,"ques":4990,"Ha":4991,"Ġancient":4992,"ĠTwo":4993,"osite":4994,"Ġoffered":4995,"Ġscream":4996,"ĠDis":4997,"Ġladies":4998,"Ġflew":4999,"Ġhurry":5000,"Ġindustry":5001,"ĠGet":5002,"Ġofficers":5003,"Ġcrowd":5004,"ĠCast":5005,"ĠBoy":5006,"Ġlock":5007,"Ġlies":5008,"Ġquality":5009,"197":5010,"ĠTrans":5011,"Ġconditions":5012,"rick":5013,"your":5014,"Ġsection":5015,"ĠFred":5016,"Ġuncle":5017,"Ġtransfer":5018,"gie":5019,"Ġ1995":5020,"Ġkilling":5021,"oted":5022,"Ġturns":5023,"Ġepisode":5024,"ker":5025,"ĠIre":5026,"Ġvac":5027,"ĠFore":5028,"ĠCO":5029,"uman":5030,"ĠRos":5031,"Ġpowerful":5032,"ĠScotland":5033,"ja":5034,"ĠEgypt":5035,"olution":5036,"Ġslowly":5037,"say":5038,"inet":5039,"enge":5040,"Ġsequ":5041,"Ġnote":5042,"Ġlistening":5043,"Ġhotel":5044,"'.":5045,"aud":5046,"bre":5047,"Ġopt":5048,"Ġsaf":5049,"Ġsurface":5050,"Ġiron":5051,"Ġsinging":5052,"Ġsilly":5053,"Ġbuck":5054,"ctions":5055,"Ġnorthern":5056,"ĠOs":5057,"Ġprevious":5058,"Ġdefinitely":5059,"ĠIsrael":5060,"mother":5061,"ardon":5062,"Ġdisp":5063,"ĠPrime":5064,"Ġcamera":5065,"Ġturning":5066,"unny":5067,"Ġserve":5068,"him":5069,"Ġrom":5070,"cean":5071,"Ġtarget":5072,"rid":5073,"ua":5074,"Ġshout":5075,"Ġoriginally":5076,"uan":5077,"ĠMur":5078,"Ġempty":5079,"Ġ1991":5080,"Ġtechnology":5081,"Ġneighbor":5082,"Nice":5083,"imately":5084,"Ġuses":5085,"Ġactive":5086,"Once":5087,"Ġcharacters":5088,"UST":5089,"Ġbal":5090,"Ġrealize":5091,"Ġhouses":5092,"uries":5093,"aches":5094,"ĠDen":5095,"umn":5096,"Ġdecide":5097,"Ġgentlemen":5098,"Ġphysical":5099,"hered":5100,"ANT":5101,"ih":5102,"Ġspeech":5103,"ĠStud":5104,"Ġfavour":5105,"book":5106,"icide":5107,"ĠFather":5108,"boy":5109,"Ġrough":5110,"ĠOld":5111,"bered":5112,"Isn":5113,"Ġweather":5114,"Ġminister":5115,"ram":5116,"Ġprove":5117,"Ġdefend":5118,"Ġterrit":5119,"stein":5120,"CK":5121,"Ġunit":5122,"ĠVictor":5123,"fortun":5124,"Ġculture":5125,"Ġsource":5126,"Ġcomplic":5127,"Ġfailed":5128,"itzerland":5129,"ĠAtl":5130,"Ġowned":5131,"iation":5132,"ĠIllinois":5133,"from":5134,"ato":5135,"Ġcities":5136,"erman":5137,"Ġremark":5138,"Ġdirectly":5139,"Ġmere":5140,"olar":5141,"Ġspell":5142,"Ġroof":5143,"Ġ1997":5144,"Ġflat":5145,"Ġstandard":5146,"Ġflying":5147,"ĠOk":5148,"aron":5149,"usic":5150,"Ġbeauty":5151,"Ġbasically":5152,"ulty":5153,"ĠLove":5154,"Ġsmart":5155,"ENT":5156,"Ġninet":5157,"Tom":5158,"Ġwine":5159,"ĠMel":5160,"ella":5161,"23":5162,"Ġreasons":5163,"Ġcentre":5164,"Ġrepresented":5165,"ouch":5166,"Ġbother":5167,"aded":5168,"eek":5169,"American":5170,"\"?":5171,"IE":5172,"ĠAN":5173,"anged":5174,"Ġeverywhere":5175,"ĠProvince":5176,"heart":5177,"Ġkinds":5178,"bel":5179,"Ġlord":5180,"ĠJud":5181,"Bet":5182,"Ġmagazine":5183,"ĠCompany":5184,"heast":5185,"Ġcart":5186,"Ġcitiz":5187,"amil":5188,"Ġchap":5189,"ĠZeal":5190,"Ġquarter":5191,"ios":5192,"aging":5193,"Ġcontribut":5194,"Ġhandle":5195,"Ġforms":5196,"Ġreplaced":5197,"Next":5198,"Fine":5199,"Ġfeatures":5200,"Ġbreath":5201,"mond":5202,"rated":5203,"Ġwaste":5204,"Ġmanaged":5205,"Ġmagic":5206,"Ġreligious":5207,"ca":5208,"ĠLuc":5209,"Ġappl":5210,"Ġmissed":5211,"ois":5212,"Ġdelight":5213,"WE":5214,"rier":5215,"ĠMajor":5216,"ĠHi":5217,"then":5218,"Ġapplic":5219,"Ġwinning":5220,"Te":5221,"ĠBig":5222,"Ġroy":5223,"aria":5224,"Ġintroduced":5225,"bur":5226,"Ġpil":5227,"ĠMass":5228,"ĠStan":5229,"Ġears":5230,"Ġmedal":5231,"Ġconcerned":5232,"Ġresponsible":5233,"60":5234,"Ġmale":5235,"Ġcommer":5236,"ĠUkrain":5237,"Ġhearing":5238,"Ġtight":5239,"Ġlack":5240,"Ġprepared":5241,"ĠZealand":5242,"ĠWood":5243,"eping":5244,"Ġinstit":5245,"urry":5246,"Ġmechan":5247,"CE":5248,"ript":5249,"Ġrare":5250,"Ġah":5251,"aling":5252,"Help":5253,"ĠFlorida":5254,"ĠRussia":5255,"ĠCarolina":5256,"ĠCH":5257,"ĠDiv":5258,"arently":5259,"ĠSenate":5260,"osop":5261,"Ġknock":5262,"Ġcalm":5263,"when":5264,"Ġgay":5265,"ĠSwitzerland":5266,"stitution":5267,"jo":5268,"Ġonto":5269,"Ġseparate":5270,"apa":5271,"Ġcrying":5272,"About":5273,"Remember":5274,"rib":5275,"ros":5276,"Ġawarded":5277,"Ġpaint":5278,"elcome":5279,"Ġassum":5280,"28":5281,"Ġduty":5282,"Ġrub":5283,"Ġtemperature":5284,"fessor":5285,"ushing":5286,"Ġmeasure":5287,"ĠLook":5288,"Ġvo":5289,"ĠArch":5290,"Ġcrack":5291,"ĠLake":5292,"Ġpocket":5293,"27":5294,"orter":5295,"Ġsymb":5296,"Ooh":5297,"ĠMom":5298,"ario":5299,"ingers":5300,"ĠKansas":5301,"iance":5302,"Nobody":5303,"Ġtransport":5304,"Ġtask":5305,"resp":5306,"icked":5307,"urious":5308,"ko":5309,"clock":5310,"Ġsword":5311,"Ġproducer":5312,"Ġstayed":5313,"Ġadop":5314,"Ġappreci":5315,"ĠApp":5316,"abad":5317,"ĠPak":5318,"ockey":5319,"ĠRay":5320,"ĠVal":5321,"However":5322,"enc":5323,"ĠHa":5324,"Ġcontent":5325,"Ġdrunk":5326,"Ġsurprised":5327,"Over":5328,"ĠGeorg":5329,"Perhaps":5330,"ĠMajesty":5331,"Ġdying":5332,"Ġcoat":5333,"Ġdetect":5334,"Ġdeclared":5335,"apes":5336,"Ġswear":5337,"Ġloves":5338,"ĠWind":5339,"Ġactual":5340,"Ġleague":5341,"Ġindependent":5342,"Ġsouthern":5343,"atre":5344,"oof":5345,"ĠGirl":5346,"Ġstret":5347,"ĠYOUR":5348,"Ġwalls":5349,"Ġcouncil":5350,"Ġknowing":5351,"Ġcopy":5352,"Ġdistributed":5353,"ĠIreland":5354,"ĠHER":5355,"ĠJoseph":5356,"Ġprofessor":5357,"Ġdrag":5358,"Ġterror":5359,"ĠAh":5360,"Ġeditor":5361,"Ġmotor":5362,"Ġsake":5363,"lyn":5364,"ĠTim":5365,"oned":5366,"emic":5367,"Ġfederal":5368,"icate":5369,"ĠJo":5370,"uten":5371,"ĠSaint":5372,"ennis":5373,"MAN":5374,"RI":5375,"ĠWal":5376,"ĠEdward":5377,"Ġopinion":5378,"onse":5379,"stant":5380,"Ġdriver":5381,"Ġmel":5382,"Ġprimary":5383,"ĠMaster":5384,"ĠTheir":5385,"Ġarchitect":5386,"ĠTor":5387,"ĠFilm":5388,"Ġbiggest":5389,"Ġpartner":5390,"Ġexperien":5391,"Ġdrugs":5392,"Ġbroadcast":5393,"Ġpit":5394,"Ġsports":5395,"Other":5396,"enced":5397,"peror":5398,"Ġprovided":5399,"ĠJackson":5400,"Mom":5401,"cons":5402,"Ġmate":5403,"ĠRome":5404,"Ġfought":5405,"Ġfinancial":5406,"Ġclearly":5407,"vin":5408,"Make":5409,"gain":5410,"Äģ":5411,"Ġdressed":5412,"ĠBank":5413,"ĠSuper":5414,"isa":5415,"Ġchannel":5416,"Ġsleeping":5417,"During":5418,"Ġgall":5419,"Ġfinding":5420,"Ġdogs":5421,"ĠCenter":5422,"Ġzero":5423,"Ġcomment":5424,"Ġproduce":5425,"two":5426,"ĠSil":5427,"Stay":5428,"Ġ1989":5429,"Ġadvant":5430,"Ġwhis":5431,"urance":5432,"Ġteeth":5433,"Ġbillion":5434,"place":5435,"fficient":5436,"Ġign":5437,"Ġhadn":5438,"Ġaircraft":5439,"ronic":5440,"ji":5441,"ĠCons":5442,"ĠHel":5443,"Ġcontr":5444,"Ġbottle":5445,"ĠSunday":5446,"Â¶":5447,"Ġtaste":5448,"ĠGreek":5449,"ĠĠĠĠĠĠĠ":5450,"Actually":5451,"ĠMY":5452,"iano":5453,"Ġyounger":5454,"och":5455,"Ġscore":5456,"Ġremind":5457,"Ġfilms":5458,"mi":5459,"Ġreligion":5460,"owing":5461,"Cause":5462,"RB":5463,"urday":5464,"Ġsheep":5465,"Ġce":5466,"orough":5467,"Ġjack":5468,"Ġbloody":5469,"Ġfocus":5470,"ooh":5471,"tering":5472,"quar":5473,"Ġpattern":5474,"ĠHE":5475,"Ġjobs":5476,"Ġpapers":5477,"ĠWestern":5478,"Ġforever":5479,"Ġintellig":5480,"El":5481,"ĠClub":5482,"Ġpossibly":5483,"Ġbang":5484,"essed":5485,"ĠUK":5486,"Ġlights":5487,"imum":5488,"ĠChair":5489,"Ġborder":5490,"ingu":5491,"Ġdepart":5492,"Shut":5493,"Ġrat":5494,"Ġstruck":5495,"Ġnoticed":5496,"wing":5497,"oking":5498,"lict":5499,"rate":5500,"some":5501,"oured":5502,"icket":5503,"aval":5504,"Ġwake":5505,"ĠGames":5506,"ITH":5507,"achel":5508,"ooper":5509,"gor":5510,"ĠSup":5511,"Ġedge":5512,"NG":5513,"Out":5514,"Ġlosing":5515,"Ġroyal":5516,"Ġdare":5517,"Cos":5518,"Ġimage":5519,"Ġ1950":5520,"ĠRepresent":5521,"Damn":5522,"Ġmicro":5523,"ĠMany":5524,"icky":5525,"Ġkeeping":5526,"Ġvictory":5527,"cellent":5528,"Com":5529,"Ġpound":5530,"ĠFort":5531,"ĠJones":5532,"ĠĠĠĠĠ":5533,"Ġburied":5534,"ĠSummer":5535,"ĠEmpire":5536,"Ġeasier":5537,"sell":5538,"Ġcircum":5539,"Ġeggs":5540,"Ġded":5541,"urd":5542,"Ġinstr":5543,"ĠCommittee":5544,"ĠRad":5545,"itty":5546,"Ġrecords":5547,"ĠBritain":5548,"Ġteaching":5549,"Ġremem":5550,"Ġlaughing":5551,"Ġwet":5552,"ao":5553,"mhm":5554,"Ġanal":5555,"Ġplanning":5556,"ĠColonel":5557,"because":5558,"Ġwinter":5559,"Ġrequest":5560,"col":5561,"Ġstock":5562,"Ġraise":5563,"Ġfixed":5564,"...?":5565,"Ġwheel":5566,"Ġappearance":5567,"han":5568,"Ġrecently":5569,"Today":5570,"ĠNOT":5571,"Ġsteps":5572,"hemat":5573,"ĠGar":5574,"Ġshowing":5575,"ception":5576,"26":5577,"arian":5578,"Ġmeat":5579,"cel":5580,"Ġresour":5581,"Ġ1988":5582,"ĠTw":5583,"water":5584,"Ġpurs":5585,"aret":5586,"Ġcollection":5587,"Ġrequired":5588,"Ġforgotten":5589,"opp":5590,"Ok":5591,"urse":5592,"osen":5593,"adow":5594,"icks":5595,"ĠJane":5596,"ĠParliament":5597,"lying":5598,"Leave":5599,"ĠLab":5600,"Ge":5601,"rer":5602,"Ġdoct":5603,"unities":5604,"Ġpresence":5605,"Ġsweetie":5606,"wanna":5607,"Ġfal":5608,"Ġrise":5609,"Ġplants":5610,"Ġquant":5611,"Ġgate":5612,"Ġworst":5613,"ĠSociety":5614,"Ġsplit":5615,"Ġsafety":5616,"Ġgift":5617,"ĠOff":5618,"ĠInstitute":5619,"ĠClint":5620,"Ġdivision":5621,"uals":5622,"ads":5623,"rible":5624,"Ġgrown":5625,"nces":5626,"Ġsons":5627,"kend":5628,"ĠLand":5629,"Ġfalling":5630,"Ġdreams":5631,"Ġast":5632,"Ġmusical":5633,"Ġtypes":5634,"Sm":5635,"Ġstudies":5636,"Ġoperation":5637,"Ġends":5638,"Anyway":5639,"ILL":5640,"Ġcash":5641,"Ġdirty":5642,"Ġappears":5643,"Ġnewspaper":5644,"ĠMo":5645,"imp":5646,"Ġsmoke":5647,"Ġfavorite":5648,"Ġdestroyed":5649,"ĠSocial":5650,"Ġelectric":5651,"Ġarrested":5652,"kes":5653,"onds":5654,"Ġconversation":5655,"Ġexerc":5656,"Ġresist":5657,"ĠYoung":5658,"Ġreceive":5659,"ĠFair":5660,"Ġfailure":5661,"egr":5662,"Ġfashion":5663,"ĠBa":5664,"duc":5665,"Move":5666,"Ġpure":5667,"Ġalt":5668,"Ġscar":5669,"Ġsmile":5670,"Ġsli":5671,"ĠSouthern":5672,"eau":5673,"Ġ1987":5674,"Sometimes":5675,"rd":5676,"ĠRight":5677,"Ġadvent":5678,"SE":5679,"abeth":5680,"Ġscript":5681,"Ġautom":5682,"writer":5683,"des":5684,"hin":5685,"ĠEvery":5686,"Ġinfluence":5687,"OP":5688,"ez":5689,"ipped":5690,"Ġwestern":5691,"Ġthousands":5692,"Ġchest":5693,"ĠCarl":5694,"More":5695,"su":5696,"ĠGer":5697,"Car":5698,"ichael":5699,"ublic":5700,"Ġdamage":5701,"Ġshooting":5702,"Ġbrand":5703,"Ġanti":5704,"Ġcompleted":5705,"bury":5706,"ĠAng":5707,"Ġmanner":5708,"Ġoccasion":5709,".]":5710,"ogether":5711,"Ġauthority":5712,"dad":5713,"Ġodd":5714,"Ġdu":5715,"ĠMost":5716,"Ed":5717,"Ġ1986":5718,"While":5719,"Most":5720,"Ġmeas":5721,"Ġopposite":5722,"Ġvari":5723,"TV":5724,"ĠPan":5725,"Ġfeels":5726,"Ġmainly":5727,"ĠMuslim":5728,"why":5729,"Ġbringing":5730,"Ġmajority":5731,"Ġbodies":5732,"Ġexcuse":5733,"Cap":5734,"Care":5735,"Ġju":5736,"Ġprogress":5737,"cles":5738,"Ġminor":5739,"Ġimprove":5740,".âĢĻ":5741,"iac":5742,"Ġbuildings":5743,"Ġformula":5744,"Ġguns":5745,"RY":5746,"Ġpleased":5747,"ĠCommission":5748,"utions":5749,"Ġcloud":5750,"Ġunits":5751,"Shit":5752,"Ġeconomic":5753,"atherine":5754,"ba":5755,"Ġtiny":5756,"Ġfingers":5757,"orial":5758,"Ġhi":5759,"ĠMill":5760,"iley":5761,"Ġtemple":5762,"UL":5763,"ĠWE":5764,"ishment":5765,"Ġhello":5766,"Everyone":5767,"Ġfifth":5768,"Ġreality":5769,"Ġ60":5770,"Ġstatus":5771,"NO":5772,"pret":5773,"Ġresponse":5774,"ĠPlay":5775,"OULD":5776,"Ġcro":5777,"ilty":5778,"Ġninety":5779,"eh":5780,"aning":5781,"Ġlect":5782,"ĠBang":5783,"ĠBecause":5784,"elly":5785,"Ġusual":5786,"Ġattend":5787,"Should":5788,",'":5789,"Ġdiam":5790,"Ġworkers":5791,"Ġrestaur":5792,"Ġcrown":5793,"fall":5794,"owa":5795,"Ġability":5796,"Ġexpress":5797,"Ġadvice":5798,"iest":5799,"Ġdesire":5800,"ĠAmericans":5801,"Ġwatched":5802,"hello":5803,"ĠCam":5804,"Ġhol":5805,"ĠMuseum":5806,"ĠArgent":5807,"Ġfreedom":5808,"Ġbutter":5809,"Ġsignal":5810,"aughed":5811,"ĠJac":5812,"Ġbride":5813,"vention":5814,"eman":5815,"Ġflag":5816,"Ġremains":5817,"ONE":5818,"Another":5819,"Ġtong":5820,"Ġdom":5821,"oving":5822,"Ġbranch":5823,"Everybody":5824,"ĠWhile":5825,"Ġinhab":5826,"riff":5827,"ĠTre":5828,"Ġhelping":5829,"Ġgro":5830,"oger":5831,"Ġmetal":5832,"ova":5833,"Ġinnoc":5834,"Ġbast":5835,"Ġfruit":5836,"ĠWAS":5837,"Ġapproach":5838,"Ġtroops":5839,"ĠHaw":5840,"ĠVer":5841,"_,":5842,"ties":5843,"want":5844,"Think":5845,"196":5846,"ĠDoctor":5847,"stead":5848,"ĠJeff":5849,"Ġbeside":5850,"Ġmatters":5851,"ĠJersey":5852,"wers":5853,"Ġresident":5854,"ĠTHIS":5855,"Ġeffects":5856,"utenant":5857,"yay":5858,"Ġ1985":5859,"Ġrequire":5860,"ati":5861,"Ġ1981":5862,"Ġlocation":5863,"Ġpotential":5864,"Ġbudget":5865,"35":5866,"ais":5867,"ĠHu":5868,"onder":5869,"Ġ1972":5870,"Ġconstruction":5871,"Ġapartment":5872,"Ġfan":5873,"Ġwealth":5874,"ĠFoot":5875,"Ġspin":5876,"Ġ1983":5877,"Ġmountains":5878,"Sam":5879,"stances":5880,"ĠNorthern":5881,"Ġscored":5882,"gery":5883,"imin":5884,"nam":5885,"oos":5886,"Ġprefer":5887,"Ġboot":5888,"abama":5889,"Didn":5890,"AB":5891,"Ġtal":5892,"ĠSqu":5893,"Ġdancing":5894,"ĠMax":5895,"Ġash":5896,"ousin":5897,"Ġstrike":5898,"lla":5899,"ĠCamp":5900,"ĠDirect":5901,"Ġrode":5902,"Ġnineteen":5903,"AG":5904,"load":5905,"ĠDar":5906,"Christ":5907,"Ġcarrying":5908,"Ġtower":5909,"Tw":5910,"kins":5911,"ĠSur":5912,"ologist":5913,"ĠWales":5914,"Ġcosts":5915,"Ġeffort":5916,"ĠLady":5917,"Ġupset":5918,"Ġprior":5919,"claimed":5920,"uted":5921,"Ġcarefully":5922,"Ġcompeted":5923,"ĠHAVE":5924,"Ġcells":5925,"ĠMos":5926,"Ġfully":5927,"Someone":5928,"Ġmotion":5929,"HO":5930,"Ġhast":5931,"etch":5932,"pet":5933,"Ġnominated":5934,"Call":5935,"Ġfant":5936,"Ġfired":5937,"ĠTy":5938,"Ġflo":5939,"Col":5940,"Ġkidding":5941,"ĠFar":5942,"Ġscr":5943,"roke":5944,"Ġanx":5945,"Ġtim":5946,"ache":5947,"acher":5948,"Ġunion":5949,"Ġnumer":5950,"elling":5951,"Ġgirlfriend":5952,"ournament":5953,"Ġconnected":5954,"Ġhiding":5955,"Ġgrab":5956,"Ġ185":5957,"Ġkeeps":5958,"Ġtears":5959,"Ġawful":5960,"ĠSea":5961,"Ġtreatment":5962,"vest":5963,"Ġagre":5964,"Ġprograms":5965,"Ġbasis":5966,"Ġencour":5967,"Ġlaughed":5968,"ĠAwards":5969,"ĠOther":5970,"adium":5971,"ĠSince":5972,"porary":5973,"ĠOlympics":5974,"may":5975,"Ġfigures":5976,"Ġaltern":5977,"Ġapple":5978,"Ġrelative":5979,"ĠAnn":5980,"gency":5981,"Ġhm":5982,"ĠMore":5983,"ĠStep":5984,"Ġaccepted":5985,"Ġaudience":5986,"80":5987,"Love":5988,"SB":5989,"Ġdarling":5990,"Ġstatement":5991,"Ġtraditional":5992,"heim":5993,"ĠKNOW":5994,"Ġresc":5995,"ysis":5996,"Ġhorn":5997,"cks":5998,"weet":5999,"Ġsched":6000,"Ġsignificant":6001,"inson":6002,"Ġfro":6003,"ĠJun":6004,"ĠKat":6005,"Ġrecomm":6006,"Ġphilosop":6007,"ufact":6008,"iven":6009,"ouri":6010,"ĠRaj":6011,"Ġproceed":6012,"about":6013,"ĠLiber":6014,"onia":6015,"Ġnative":6016,"Ġinvited":6017,"Ġlic":6018,"ĠIm":6019,"ented":6020,"uls":6021,"venue":6022,"ĠValley":6023,"Ġaim":6024,"acle":6025,"Ġflower":6026,"45":6027,"Ġproof":6028,"orpor":6029,"ĠIran":6030,"ĠFer":6031,"Ġchosen":6032,"them":6033,"ĠAlabama":6034,"Jack":6035,"Ġbare":6036,"unched":6037,"Ġfeelings":6038,"Ġentertain":6039,"eer":6040,"Ġplain":6041,"Ġweekend":6042,"spect":6043,"Ġsail":6044,"Ġpaying":6045,"ĠCharlie":6046,"Ġwebs":6047,"Mrs":6048,"ĠPortug":6049,"29":6050,"ĠHot":6051,"should":6052,"App":6053,"OL":6054,"ĠHello":6055,"Ġscrew":6056,"Ġuseful":6057,"Ġhanging":6058,"Ã±":6059,"Ġmob":6060,"yo":6061,"Ġwave":6062,"Ġlake":6063,"ulated":6064,"Ã¦":6065,"Ġate":6066,"icted":6067,"Ġsupply":6068,"Ġexpand":6069,"ym":6070,"Ġsales":6071,"Ġnuc":6072,"ĠHans":6073,"ĠNE":6074,"Ġconsum":6075,"Ġ80":6076,"Ġincreased":6077,"ĠJewish":6078,"Ġox":6079,"ĠKent":6080,"Ġotherwise":6081,"arrondissement":6082,"ĠColumb":6083,"ocal":6084,"Ġguilty":6085,"Ġrecent":6086,"Ġjail":6087,"ĠLu":6088,"Whoa":6089,"Ġsoldier":6090,"Back":6091,"wide":6092,"Ġmort":6093,"Ġeh":6094,"keep":6095,"ĠMichigan":6096,"omer":6097,"Ġrev":6098,"Ġ1979":6099,"La":6100,"Ġchanging":6101,"Ġdrinking":6102,"Ġdetermined":6103,"Ġtied":6104,"Ġwished":6105,"Ġliber":6106,"ĠStar":6107,"Ġgovernor":6108,"lend":6109,"Ġdegrees":6110,"Ġcredit":6111,"Ġthoughts":6112,"Ġfile":6113,"Ġnerv":6114,"Ġchain":6115,"Ġjustice":6116,"Ġpregn":6117,"According":6118,"Ġfeature":6119,"Ġstaying":6120,"Ġetc":6121,"Fl":6122,"bey":6123,"Ġmatches":6124,"Jesus":6125,"Ġmo":6126,"Ġunderstood":6127,"Ġfields":6128,"ĠChampionships":6129,"Ġtough":6130,"Ġpool":6131,"aboo":6132,"iously":6133,"Ġ1930":6134,"Ġsugar":6135,"Ġimpl":6136,"rence":6137,"ika":6138,"Ġcircle":6139,"Ġstreets":6140,"ubbles":6141,"Welcome":6142,"ĠIII":6143,"asts":6144,"Ġguitar":6145,"ĠArk":6146,"Ġhighly":6147,"Ġbasic":6148,"Ġbite":6149,"icy":6150,"Ġsuicide":6151,"inda":6152,"Ġjoke":6153,"Ġcloser":6154,"overy":6155,"ĠSus":6156,"ila":6157,"ropri":6158,"Ġfifteen":6159,"rilliant":6160,"Ġsuffered":6161,"Ġexhib":6162,"Ġsupported":6163,"Ġlabor":6164,"Ġcounter":6165,"ĠSee":6166,"Ġupper":6167,"pecial":6168,"OUT":6169,"Ser":6170,"Ġconcent":6171,"Ġearn":6172,"ĠIslam":6173,"does":6174,"Hmm":6175,"Ġmum":6176,"char":6177,"igg":6178,"cont":6179,"ĠCle":6180,"Ġsees":6181,"Ġeastern":6182,"CA":6183,"ira":6184,"Ġafford":6185,"Ġcriminal":6186,"Ġadvantage":6187,"give":6188,"Ġnoted":6189,"ipl":6190,"car":6191,"Ġsin":6192,"ĠOut":6193,"Ste":6194,"geant":6195,"Ġvent":6196,"achus":6197,"ildren":6198,"Ġchicken":6199,"Ġrealized":6200,"Ġselling":6201,"Open":6202,"ervation":6203,"Ġweapons":6204,"ĠAmy":6205,"Ġelement":6206,"ĠConn":6207,"Ġfaster":6208,"Ġknife":6209,"Ġuniverse":6210,"ĠAssembly":6211,"Ġincident":6212,"Ġentirely":6213,"bably":6214,"Ġdoors":6215,"Ġagent":6216,"Ġmultiple":6217,"zy":6218,"ĠLike":6219,"ĠInter":6220,"Ġmanagement":6221,"low":6222,"Ġsport":6223,"iliar":6224,"isation":6225,"Ġcock":6226,"ordin":6227,"Ġdisplay":6228,"ropical":6229,"Ġtravell":6230,"Ġdrawn":6231,"Ġpresidential":6232,"Many":6233,"Ġexperiment":6234,"ĠService":6235,"Ġmax":6236,"illed":6237,"Whatever":6238,"izabeth":6239,"ĠLatin":6240,"ĠPict":6241,"thur":6242,"ĠGe":6243,"Ġpreviously":6244,"Ġdrawing":6245,"Ġbuddy":6246,"Ġarrange":6247,"aming":6248,"ĠNet":6249,"Ġclever":6250,"Ġforgive":6251,"verse":6252,"Ġinstance":6253,"Ġachieve":6254,"Dan":6255,"Try":6256,"Ġpink":6257,"Ġstarring":6258,"ĠMike":6259,"Ġwrit":6260,"Ġ1984":6261,"Ã¡n":6262,"ĠAccording":6263,"ĠRon":6264,"Ġavoid":6265,"Ġpurch":6266,"Ġgang":6267,"oser":6268,"ĠDev":6269,"Ġextremely":6270,"ĠStr":6271,"Ġmixed":6272,"37":6273,"wan":6274,"enes":6275,"alright":6276,"ĠTer":6277,"Ġcontinues":6278,"Ġhyp":6279,"erk":6280,"sex":6281,"Ġ/":6282,"itter":6283,"aren":6284,"Ġ1973":6285,"Ġ90":6286,"Ġrecording":6287,"Ġlegisl":6288,"Ġsolution":6289,"Ġships":6290,"ĠIrish":6291,"ĠAT":6292,"ĠHan":6293,"onday":6294,"egal":6295,"Ġcake":6296,"Ġgather":6297,"ĠGall":6298,"orney":6299,"ropol":6300,"Ġhumans":6301,"Ġplatform":6302,"Ġgrave":6303,"elled":6304,"ĠJr":6305,"ports":6306,"ĠSaturday":6307,"Ġdyn":6308,"ĠSH":6309,"ĠBor":6310,"Ġrefused":6311,"Ġmaiden":6312,"Ġhel":6313,"Still":6314,"Ġattacked":6315,"Ġapolog":6316,"zo":6317,"ĠTri":6318,"ĠWay":6319,"Early":6320,"ĠAS":6321,"ĠMah":6322,"ĠHave":6323,"ĠTay":6324,"ĠFe":6325,"ĠProfessor":6326,"Ġparties":6327,"Ġchampion":6328,"etts":6329,"ĠCAN":6330,"Ġremoved":6331,"Ġexpression":6332,"Ġproposed":6333,"ĠMother":6334,"Ġrapid":6335,"Paul":6336,"mo":6337,"ĠNether":6338,"angle":6339,"Ġafterwards":6340,"Ġdrum":6341,"Ġcolon":6342,"Ġfalse":6343,"Ġstations":6344,"ĠMic":6345,"ĠBav":6346,"ĠWall":6347,"Ġshirt":6348,"ĠNat":6349,"Ġ1976":6350,"Ġult":6351,"ĠLI":6352,"Ġcontest":6353,"Ġcheese":6354,"fortunately":6355,"lah":6356,"Ġpill":6357,"Ġintegr":6358,"ĠMusic":6359,"ĠKorea":6360,"47":6361,"enger":6362,"Ġshake":6363,"ulate":6364,"ĠKong":6365,"Ġjoint":6366,"Ġweapon":6367,"zer":6368,"Ġnurs":6369,"Ġplenty":6370,"Ġguest":6371,"Ġ1968":6372,"awn":6373,"Ġmap":6374,"oti":6375,"Ġ1978":6376,"Ġfallen":6377,"Ġdrove":6378,"Ġscientific":6379,"itants":6380,"lection":6381,"ĠLy":6382,"Ġwindows":6383,"ĠKar":6384,"thew":6385,"Ġcommission":6386,"Ġproducts":6387,"Bill":6388,"Ġmama":6389,"ĠRam":6390,"Ġblame":6391,"Ġincred":6392,"\").":6393,"inces":6394,"ĠLong":6395,"Ġsomehow":6396,"Ġunderstanding":6397,"Ġtouched":6398,"Ġseriously":6399,"Ġactivities":6400,"Ġbunch":6401,"Ġchat":6402,"Ġdial":6403,"eral":6404,"ĠFriday":6405,"Ġcolour":6406,"ington":6407,"quarters":6408,"EM":6409,"after":6410,"Ġsilent":6411,"Ġsilence":6412,"Ġlevels":6413,"Ġfairly":6414,"Ġcandidate":6415,"Ġpowers":6416,"ĠAB":6417,"ĠRod":6418,"ĠEll":6419,"Ġplanned":6420,"gly":6421,"uous":6422,"Ġthin":6423,"ĠBell":6424,"Ġfinds":6425,"force":6426,"ĠDivision":6427,"Ġwitch":6428,"Ġow":6429,"ĠDON":6430,"Ġattended":6431,"rolled":6432,"ading":6433,"ĠBre":6434,"ĠRail":6435,"Ġinvestigation":6436,"Ġdetails":6437,"obal":6438,"Ġmathemat":6439,"Ġ1982":6440,"Ġ1975":6441,"Ġconflict":6442,"Ġdisappeared":6443,"Ġpra":6444,"Ġmanufact":6445,"Ġcontains":6446,"ĠJean":6447,"angers":6448,"ĠShow":6449,"Ġpresented":6450,"Ġresponsibility":6451,"ĠBook":6452,"Ġnotes":6453,"David":6454,"sk":6455,"Ġhidden":6456,"adel":6457,"Ġsevere":6458,"Ġaband":6459,"Ġham":6460,"Ġlion":6461,"Ġlatter":6462,"IL":6463,"Up":6464,"ĠKe":6465,"Ġ70":6466,"Ġclasses":6467,"Ġadministr":6468,"ching":6469,"ĠWHAT":6470,"Ġapprox":6471,"Ġbrave":6472,"Ġstated":6473,"ĠUnder":6474,"Ġbat":6475,"mann":6476,"standing":6477,"Ġ1969":6478,"achusetts":6479,"ĠNetherlands":6480,"Gl":6481,"part":6482,"thony":6483,"Ġelements":6484,"Ġfate":6485,"Ġdomin":6486,"oln":6487,"odd":6488,"ĠYear":6489,"Ġconsult":6490,"Ġprotection":6491,"Ġsuggested":6492,"Ġperfectly":6493,"Ġwid":6494,"Ġpupp":6495,"ĠHy":6496,"unte":6497,"ĠLife":6498,"Ġchose":6499,"--\"":6500,"Ġexcited":6501,"Sec":6502,"olved":6503,"Ġoldest":6504,"Ġpainting":6505,"Ġconnection":6506,"ĠSecond":6507,"',":6508,"Ġpin":6509,"ocol":6510,"Ġserving":6511,"ĠOhio":6512,"Ġwings":6513,"also":6514,"ĠGal":6515,"Ġunf":6516,"ĠForce":6517,"ĠMissouri":6518,"ooth":6519,"Ġreject":6520,"ĠWITH":6521,"Ġunivers":6522,"Ġcris":6523,"RA":6524,"erves":6525,"acks":6526,"Ġlaunched":6527,"Ġviolence":6528,"Ġpeak":6529,"ela":6530,"Ġmonster":6531,"Frank":6532,"hetic":6533,"Ġnervous":6534,"HER":6535,"Ġ1964":6536,"ender":6537,"athan":6538,"lahoma":6539,"gend":6540,"were":6541,"Ġpassing":6542,"Ġgrowth":6543,"Ġhyd":6544,"Ġtongue":6545,"Ġhabit":6546,"uns":6547,"aka":6548,"ĠHealth":6549,"Ġslept":6550,"Ġshame":6551,"Ġentr":6552,"Ġsubs":6553,"ducation":6554,"Ġsamp":6555,"Ġcute":6556,"ĠBattle":6557,"ĠDef":6558,"Ġexpensive":6559,"aska":6560,"Ġcauses":6561,"ĠScottish":6562,"Ġok":6563,"amily":6564,"Ġclient":6565,"Ġstands":6566,"ĠAbout":6567,"Ġseek":6568,"Ġcomfortable":6569,"chant":6570,"Ġchampionship":6571,"izes":6572,"Ġadvert":6573,"Ġdivor":6574,"Ġlimited":6575,"Ã³n":6576,"Ġbabies":6577,"Hurry":6578,"ĠUp":6579,"Ġpolitics":6580,"Ġtradition":6581,"Ġslightly":6582,"Ġmedicine":6583,"Ã§":6584,"Ġfox":6585,"ĠBroad":6586,"ĠHarry":6587,"Ġroute":6588,".)":6589,"Ġorange":6590,"shall":6591,"Ġoperations":6592,"Ġ01":6593,"Ġrecognize":6594,"Ġsettled":6595,"real":6596,"Ġcream":6597,"ĠAM":6598,"Ġsharp":6599,"Ġidiot":6600,"Ġsenior":6601,"Has":6602,"Ġax":6603,"Ġearned":6604,"Ġteachers":6605,"ĠGeorgia":6606,"entially":6607,"Ã©e":6608,"aughs":6609,"Ġrent":6610,"Ġpassion":6611,"ias":6612,"esides":6613,"Ġnarrow":6614,"uckles":6615,"Ġ1974":6616,"irmed":6617,"ĠTest":6618,"emies":6619,"Ġgentleman":6620,"Ġvehicle":6621,"Ġlocked":6622,"ĠCy":6623,"Ġshr":6624,"istics":6625,"Ġcharm":6626,"Ġbless":6627,"ulture":6628,"Ġeleven":6629,"Ġemot":6630,"Ġsixty":6631,"Ġhonour":6632,"Ġneighbour":6633,"Ġdefeated":6634,"wick":6635,"ĠSupreme":6636,"bec":6637,"Ġhomes":6638,"Ġsexual":6639,"TA":6640,"asp":6641,"ĠPac":6642,"Ġgraph":6643,"ĠLouisiana":6644,"acter":6645,"ĠTimes":6646,"Ġsisters":6647,"Des":6648,"WHAT":6649,"Ġpoison":6650,"39":6651,"akh":6652,"Ġappeal":6653,"Ġofficially":6654,"ĠOklahoma":6655,"Under":6656,"sit":6657,"ĠSP":6658,"Ġracing":6659,"Ġupstairs":6660,"Ġexchange":6661,"eps":6662,"Ġbeach":6663,"ĠHoly":6664,"ultan":6665,"Ġsurgery":6666,"Ġoccurred":6667,"ef":6668,"Ġcards":6669,"Ġhappiness":6670,"awa":6671,"Ġowner":6672,"Ġeconomy":6673,"stone":6674,"ĠAk":6675,"oston":6676,"Ġpartners":6677,"ĠÂ¶":6678,"Ġcitizens":6679,"Ġheav":6680,"Ġ1977":6681,"ervative":6682,"ĠAustria":6683,"Ġfairy":6684,"ĠPakistan":6685,"Geor":6686,"Although":6687,"Ġdeliver":6688,"Ġrevolution":6689,"Ġfollows":6690,"Ġ1971":6691,"Ġbegins":6692,"Ġtreated":6693,"bow":6694,"point":6695,"Ġbatt":6696,"Ġvision":6697,"Ġ35":6698,"bridge":6699,"ACK":6700,"essel":6701,"Ġloose":6702,"Ġreports":6703,"Ġcommercial":6704,"Watch":6705,"mommy":6706,"oir":6707,"onic":6708,"Ġmuseum":6709,"Ġ(,":6710,"cript":6711,"Ġelections":6712,"\"),":6713,"box":6714,"ĠIowa":6715,"Ġonline":6716,"ĠHarr":6717,"Ġlibrary":6718,"Ġconsist":6719,"Ġbreaking":6720,"ext":6721,"Ġbeer":6722,"ĠCivil":6723,"Ġgoals":6724,"Ġblank":6725,"worth":6726,"Ġhom":6727,"Ġlat":6728,"unning":6729,"Ġfamiliar":6730,"ĠAsia":6731,"Ġ1967":6732,"ART":6733,"Ġequip":6734,"Turn":6735,"Ġho":6736,"ĠMcC":6737,"Ġadmit":6738,"ĠFrancisco":6739,"38":6740,"case":6741,"Ġconc":6742,"Ġmayor":6743,"Ġarticle":6744,"Ġterritory":6745,"36":6746,"cha":6747,"ĠFour":6748,"ntil":6749,"ĠTony":6750,"Ġtheme":6751,"ureau":6752,"Ġprime":6753,"Ġretire":6754,"Ġwinner":6755,"rical":6756,"Å¡":6757,"only":6758,"Ġcousin":6759,"Ġseasons":6760,"Ġsav":6761,"Ġcommitted":6762,"Ġboyfriend":6763,"Ġincome":6764,"Ġtraffic":6765,"Ġsentence":6766,"Ġvariety":6767,"Ġfeatured":6768,"inem":6769,"phant":6770,"Ġdiscover":6771,"Last":6772,"ĠGi":6773,"Ġ1940":6774,"Ġrespond":6775,"Ġridic":6776,"ĠSweden":6777,"inent":6778,"ĠARE":6779,"clus":6780,"Ġartists":6781,"turn":6782,"Ã´":6783,"Ġintended":6784,"Looks":6785,"Ġpatients":6786,"imal":6787,"anches":6788,"Ġsetting":6789,"Ġwondering":6790,"Ġkil":6791,"ĠEven":6792,"ĠUN":6793,"Ġ1966":6794,"Ġcalcul":6795,"Ġlone":6796,"ĠWinter":6797,"ĠRose":6798,"ĠFound":6799,"Ġapparently":6800,"Ġcreature":6801,"Ġchallenge":6802,"Ġremembered":6803,"Ġmental":6804,"orse":6805,"Ġgained":6806,"ĠAli":6807,"ĠHome":6808,"Ġrac":6809,"ava":6810,"Ġshoulder":6811,"Ġhandsome":6812,"Ġreferred":6813,"Ġwaited":6814,"Mad":6815,"Ġfaces":6816,"Ġhook":6817,"ĠLie":6818,"ĠNaz":6819,"Ġscale":6820,"Ġswitch":6821,"Ġairport":6822,"Ġinnocent":6823,"Ġdiss":6824,"Ġconscious":6825,"ĠBlue":6826,"Ġdaily":6827,"Jan":6828,"Ġwolf":6829,"aser":6830,"ĠVen":6831,"Ġcommittee":6832,"ĠMassachusetts":6833,"ĠFootball":6834,"49":6835,"long":6836,"than":6837,"Ġ-&":6838,"Ġhundreds":6839,"PS":6840,"Pol":6841,"Ġtank":6842,"Ġwise":6843,"ĠAss":6844,"ĠTime":6845,"ĠKim":6846,"Ġunknown":6847,"Ġjun":6848,"Ġactivity":6849,"UM":6850,"bu":6851,"vy":6852,"ĠLine":6853,"Ġ500":6854,"Ġestim":6855,"Ġrailway":6856,"Ġshock":6857,"Ġvirt":6858,"Ġincreasing":6859,"Ġclimate":6860,"Ġbasketball":6861,"Ġsacrif":6862,"Ġnea":6863,"Ġath":6864,"Ġshore":6865,"Ġhorrible":6866,"incoln":6867,"ĠPolish":6868,"Ġfrightened":6869,"Ġinhabitants":6870,"Mark":6871,"Peter":6872,"Ġbatter":6873,"organ":6874,"ĠChris":6875,"Ġflood":6876,"ggie":6877,"po":6878,"wa":6879,"iece":6880,"ĠFestival":6881,"Ġtransform":6882,"Ġorganiz":6883,"Ġtie":6884,"Ġpushed":6885,"adu":6886,"Ġrooms":6887,"poration":6888,"gian":6889,"Ġcig":6890,"ulpt":6891,"Ġbackground":6892,"ĠAndrew":6893,"Ġsigns":6894,"ĠWilliams":6895,"EF":6896,"Ma":6897,"pa":6898,"rich":6899,"Ġye":6900,"alm":6901,"...\"":6902,"Ġsplend":6903,"Ġcheap":6904,"ĠPrize":6905,"every":6906,"Ġben":6907,"Ġreact":6908,"Ġproced":6909,"Ġblocks":6910,"Ġaccomp":6911,"Ġyoungest":6912,"Ġwand":6913,"earch":6914,"Ġtrail":6915,"48":6916,"BS":6917,"TO":6918,"inging":6919,"aughters":6920,"ARD":6921,"ĠChairman":6922,"ĠGET":6923,"ĠNorm":6924,"Ġcommit":6925,"Ġsteal":6926,"ĠRepresentatives":6927,"gment":6928,"Their":6929,"ĠHind":6930,"ĠOx":6931,"Ġoverall":6932,"Ġens":6933,"Ġoblig":6934,"Ġservant":6935,"Ġsolve":6936,"Ġestablish":6937,"Michael":6938,"Whe":6939,"Ġtor":6940,"orf":6941,"bly":6942,"ĠLater":6943,"ieve":6944,"Ġimportance":6945,"Ġmaintain":6946,"ĠPolice":6947,"Sit":6948,"amin":6949,"Ġaspect":6950,"Ġsole":6951,"Ġmyst":6952,"agement":6953,"Ġquit":6954,"Ġtowns":6955,"Ġcanton":6956,"Ġresources":6957,"IA":6958,"Ġreward":6959,"ovie":6960,"ĠVol":6961,"ĠAlan":6962,"Ġpregnant":6963,"gues":6964,"lar":6965,"Ġlt":6966,"ĠDav":6967,"arrass":6968,"ĠPhilipp":6969,"Ġframe":6970,"Ġsuffering":6971,"46":6972,"cus":6973,"Ġlin":6974,"Ġlips":6975,"ittie":6976,"Ġroot":6977,"door":6978,"coh":6979,"Ġborrow":6980,"ivity":6981,"Ġbelief":6982,"ĠSanta":6983,"Ġugly":6984,"ĠBas":6985,"ails":6986,"Ġfurn":6987,"Ġpump":6988,"Ġstole":6989,"geon":6990,"Ġhoping":6991,"70":6992,"istor":6993,"ĠBavaria":6994,"Comm":6995,"based":6996,"ĠHal":6997,"Ġcompared":6998,"ĠThree":6999,"Ġstring":7000,"Ġclaimed":7001,"uties":7002,"usted":7003,"Ġgodd":7004,"oster":7005,"ĠUncle":7006,"Ġdescend":7007,"Ġpriest":7008,"Ġbeneath":7009,"Ġexercise":7010,"Ġjournalist":7011,"Ġnurse":7012,"Ġappreciate":7013,"ĠBea":7014,"ĠEastern":7015,"Ġslave":7016,"Ġobvious":7017,"five":7018,"ĠMiddle":7019,"Ġkeys":7020,"phia":7021,"Ġsubt":7022,"Ġemp":7023,"Ġorganized":7024,"Ġdisappoint":7025,"Ġbullet":7026,"Again":7027,"James":7028,"whe":7029,"ompl":7030,"Ġrow":7031,"Ġequipment":7032,"Ġclock":7033,"Ġperman":7034,"Time":7035,"Ġbrilliant":7036,"ĠMem":7037,"Ġshell":7038,"Ġmeters":7039,"Ġexecutive":7040,"Ġwrest":7041,"onze":7042,"Ġmole":7043,"Ġinqu":7044,"oto":7045,"Ġbutton":7046,"Ġcheer":7047,"okes":7048,"Ġruled":7049,"Ġfolks":7050,"ĠDisney":7051,"peek":7052,"Ġheight":7053,"ĠHung":7054,"venge":7055,"ounce":7056,"Ġassistant":7057,"Ġrestaurant":7058,"Too":7059,"Ġgoodness":7060,"burgh":7061,"miss":7062,"ĠKen":7063,"Ġunus":7064,"ti":7065,"ĠCa":7066,"ĠPre":7067,"uma":7068,"Ġspect":7069,"Ġ45":7070,"asked":7071,"EST":7072,"Ġcircumstances":7073,"ori":7074,"Ġwash":7075,"aki":7076,"Life":7077,"ingly":7078,"Ġchart":7079,"Ġsuck":7080,"Ġplate":7081,"ĠNews":7082,"ĠDirector":7083,"cr":7084,"ĠMonday":7085,"Ġadditional":7086,"Ġdemocr":7087,"nesota":7088,"outs":7089,"iform":7090,"Ġvessel":7091,"Ġrelax":7092,"ĠJustice":7093,"Ġghost":7094,"una":7095,"ĠLO":7096,"ĠEs":7097,"ague":7098,"ĠUP":7099,"ropolitan":7100,"occ":7101,"Ġpul":7102,"ĠTra":7103,"Ġconqu":7104,"Ġproperly":7105,"Ġchalleng":7106,"ĠAsh":7107,"elf":7108,"raham":7109,"ogue":7110,"Ġunh":7111,"uer":7112,"ĠNavy":7113,"ements":7114,"Ġsup":7115,"Ġcourage":7116,"Ġlands":7117,"Sim":7118,"life":7119,"ceived":7120,"Ġimpact":7121,"ĠRecords":7122,"iÄ":7123,"Ġpoll":7124,"ĠBon":7125,"ĠOl":7126,"Ġenemies":7127,"195":7128,"Ġgeneration":7129,"Ġexistence":7130,"Ġburning":7131,"Ġrepeated":7132,"ĠConfeder":7133,"ĠSon":7134,"Ġaccompl":7135,"ĠAustrian":7136,"Ġengaged":7137,"Ġrocks":7138,"Ġrecognized":7139,"Ġromantic":7140,"Pre":7141,"Ġshel":7142,"ERS":7143,"Ġcaptured":7144,"Ġgraduated":7145,"ĠOffice":7146,"cest":7147,"Ġmail":7148,"Ġcontain":7149,"Ġeaten":7150,"Ġvalues":7151,"Ġreviews":7152,"Ġassociated":7153,"gorith":7154,"Ġbastard":7155,"Ben":7156,"ĠAri":7157,"ĠTake":7158,"Ġ1963":7159,"ĠMinnesota":7160,"Ġbenefit":7161,"Ġwound":7162,"Ġthroat":7163,"ĠMen":7164,"chief":7165,"inder":7166,"Ġteen":7167,"Ġsettle":7168,"Ġscientists":7169,"Ġdefeat":7170,"Ġbra":7171,"Ġdim":7172,"kel":7173,"ĠCorn":7174,"osa":7175,"eaking":7176,"Ġinsp":7177,"Ġlimit":7178,"Ġfortune":7179,"ĠHea":7180,"aba":7181,"ntario":7182,"ĠBoard":7183,"Ġneighborhood":7184,"King":7185,"met":7186,"pass":7187,"Ġtournament":7188,"omy":7189,"ĠBudd":7190,"Ġselected":7191,"ĠUh":7192,"Ġ1956":7193,"Ġdarkness":7194,"take":7195,"ĠSub":7196,"olen":7197,"Ġshoe":7198,"Ġconsists":7199,"Ġsolid":7200,"Ġwebsite":7201,"adelphia":7202,"VID":7203,"ĠOffic":7204,"Ġtruly":7205,"Ġcoal":7206,"Ġsurvive":7207,"Ġembarrass":7208,"Ġagreement":7209,"ĠMod":7210,"ĠBad":7211,"Ġalarm":7212,"ĠViet":7213,"isy":7214,"Ġunique":7215,"Ġlisted":7216,"Ġ1965":7217,"Big":7218,"Ġsale":7219,"ĠDak":7220,"ĠEv":7221,"Ġordinary":7222,"Ġnormally":7223,"ĠThanks":7224,"Ġbunny":7225,"Ġowe":7226,"otic":7227,"three":7228,"ĠFre":7229,"Ġthrown":7230,"ipping":7231,"andom":7232,"Ġapply":7233,"Ġkiller":7234,"Ġholds":7235,"arant":7236,"Ġreck":7237,"ĠTem":7238,"Ġgoods":7239,"ESS":7240,"Ġveget":7241,"Ġlabel":7242,"little":7243,"Ġfuel":7244,"ĠInt":7245,"urally":7246,"Ġcrash":7247,"Ġballs":7248,"Bel":7249,"CT":7250,"alo":7251,"owned":7252,"Ġdistribution":7253,"Bring":7254,"CO":7255,"THAT":7256,"mag":7257,"era":7258,"eding":7259,"icing":7260,"ĠBh":7261,"ĠWater":7262,"Ġriding":7263,"Ġchamber":7264,"ĠBrother":7265,"Ġsorts":7266,"Ġhunting":7267,"sur":7268,"Ã¢":7269,"Ġdude":7270,"ĠBull":7271,"ustration":7272,"ĠDet":7273,"Ġvotes":7274,"NE":7275,"bird":7276,"uce":7277,"Ġwounded":7278,"Ġcateg":7279,"Ġfancy":7280,"Ġtroub":7281,"Ġbrings":7282,"Ġdelay":7283,"ealous":7284,"Ġobjects":7285,"'?":7286,"cow":7287,"ĠSant":7288,"ĠMayor":7289,"Ġhistorical":7290,"Ġelder":7291,"ĠUkraine":7292,"Rich":7293,"gle":7294,"ami":7295,"ĠDick":7296,"ĠOUT":7297,"Ġinstant":7298,"Ġsitu":7299,"ĠSteve":7300,"iser":7301,"Ġdust":7302,"Ġgal":7303,"ĠSher":7304,"Ġwithd":7305,"Ġpoetry":7306,"Ġpir":7307,"ĠNight":7308,"Ġconsequ":7309,"Ġsubsequ":7310,"ĠTrump":7311,"Anything":7312,"Ġobserved":7313,"Geography":7314,"fle":7315,"Ġsculpt":7316,"ĠRevolution":7317,"Captain":7318,"Father":7319,"Ġtur":7320,"ĠBus":7321,"Ġproved":7322,"agle":7323,"Ġadvance":7324,"Ġbelongs":7325,"Ġefforts":7326,"acity":7327,"ĠGre":7328,"osal":7329,"Little":7330,"Ġ1962":7331,"Ġbedroom":7332,"looking":7333,"Ġprogramme":7334,"ĠALL":7335,"Ġliqu":7336,"ĠLeg":7337,"Ġvolunte":7338,"Four":7339,"Ġgain":7340,"ourse":7341,"abbit":7342,"igr":7343,"Ġhelps":7344,"apping":7345,"zech":7346,"Ġinitial":7347,"Both":7348,"ĠBern":7349,"Ġspending":7350,"Ġassign":7351,"Ġconfirmed":7352,"ĠBerlin":7353,"Ġsymbol":7354,"dis":7355,"Ġtort":7356,"Ġlaunch":7357,"bar":7358,"Ġwing":7359,"Ġaside":7360,"inking":7361,"Ġvia":7362,"gging":7363,"Ġfactory":7364,"Ġski":7365,"going":7366,"ĠElizabeth":7367,"Su":7368,"ĠPL":7369,"alymp":7370,"Ġsending":7371,"Ġemergency":7372,"Ġfolk":7373,"31":7374,"Ġlift":7375,"Ġstable":7376,"Ġvir":7377,"Ġbadly":7378,"Ġannual":7379,"ĠRegion":7380,"respond":7381,"Fin":7382,"Ġcats":7383,"ĠArts":7384,"Ġclosely":7385,"Ġconcern":7386,"Ġchemical":7387,"inity":7388,"Ġbon":7389,"ĠBoston":7390,"Ġtoys":7391,"ĠSk":7392,"ĠCub":7393,"ĠOb":7394,"Ġexcellent":7395,"stra":7396,"Ġmeal":7397,"ailed":7398,"Ġsurely":7399,"ĠParalymp":7400,"Ġcritical":7401,"Ġinjury":7402,"fish":7403,"ĠDuke":7404,"Ġalgorith":7405,"aws":7406,"Ġdesper":7407,"ollowing":7408,"Ġjumped":7409,"Ġargument":7410,"Ġmerely":7411,"nic":7412,"Ġalleg":7413,"ĠKenn":7414,"Ġgotten":7415,"Ġremaining":7416,"rett":7417,"Ġexplained":7418,"Ġcomplicated":7419,"Int":7420,"Mart":7421,"mosp":7422,"Ġallows":7423,"Ġphr":7424,"onym":7425,"ĠEnter":7426,"Ġcruel":7427,"ropriate":7428,"Yep":7429,"dog":7430,"Ġfold":7431,"Ġgrey":7432,"alities":7433,"ĠSa":7434,"ciences":7435,"Ġpoem":7436,"Ġcollea":7437,"Ġprofession":7438,"Bar":7439,"rive":7440,"ĠMir":7441,"Ġjew":7442,"ounding":7443,"Ġinstruct":7444,"Ġcreation":7445,"ĠDi":7446,"ĠRom":7447,"ĠOver":7448,"Ġactions":7449,"Ġacad":7450,"Ġsym":7451,"engers":7452,"Ġjuice":7453,"500":7454,"Ġpiss":7455,"ĠSol":7456,"rose":7457,"ĠBour":7458,"Ġattitude":7459,"ographer":7460,"ĠSwedish":7461,"Ġshared":7462,"Ġexact":7463,"Ġdistinct":7464,"Ġfacts":7465,"Ġprisoners":7466,"Ġindividuals":7467,"Ġaffected":7468,"Ġsucceeded":7469,"encies":7470,"ĠColumbia":7471,"OY":7472,"Char":7473,"ĠLabour":7474,"yard":7475,"usal":7476,"sters":7477,"Ġknocked":7478,"Ġrum":7479,"Ġbutt":7480,"ĠConstitution":7481,"Ġcommonly":7482,"Ġadopted":7483,"RAT":7484,"ront":7485,"Ġsixth":7486,"ĠOnly":7487,"Ġeighty":7488,"Ġterrif":7489,"aya":7490,"Ġalcoh":7491,"Ġvalley":7492,"Ġanswers":7493,"Ġwoods":7494,"32":7495,"KING":7496,"Ġbranches":7497,"never":7498,"ĠJimmy":7499,"90":7500,"Ġdread":7501,"Ġyard":7502,"Ġreform":7503,"emon":7504,"Ġleads":7505,"Ġ1959":7506,"ĠMexican":7507,"Ġridiculous":7508,"mir":7509,"amba":7510,"Ġexamples":7511,"Ġdepends":7512,"IG":7513,"RT":7514,"uing":7515,"Ġnumerous":7516,"Five":7517,"irit":7518,"olk":7519,"Ġauthorities":7520,"ĠTurk":7521,"Ġtelephone":7522,"ĠPacific":7523,"Mon":7524,"inals":7525,"Ġ1957":7526,"Ġinsurance":7527,"Somebody":7528,"Career":7529,"Ġmoves":7530,"apped":7531,"Ġ1954":7532,"Ġswimming":7533,"Eng":7534,"Ġfalls":7535,"adesh":7536,"Ġburst":7537,"ĠNic":7538,"Ġconference":7539,"Ġexplos":7540,"Ġanimated":7541,"evin":7542,"Ġdisappear":7543,"know":7544,"onent":7545,"Ġocean":7546,"ĠVan":7547,"Ġflu":7548,"Ġsooner":7549,"Ġconstitution":7550,"\";":7551,"Jim":7552,"foot":7553,"Ġcas":7554,"Ġdish":7555,"Ġdump":7556,"ĠPin":7557,"icking":7558,"ultural":7559,"Ġmonkey":7560,"Ġdevice":7561,"rior":7562,"ĠGree":7563,"ĠNO":7564,"ĠAlthough":7565,"ĠPoland":7566,"34":7567,"ORE":7568,"ication":7569,"ĠBilly":7570,"Ġseats":7571,"unting":7572,"Ġshook":7573,"ĠRoll":7574,"ardo":7575,"Ġnights":7576,"Ġcharges":7577,"Ġintroduce":7578,"comp":7579,"got":7580,"ĠAnton":7581,"BA":7582,"Foot":7583,"wich":7584,"Ġshadow":7585,"Ġestate":7586,"Ġconstant":7587,"Ġattacks":7588,"Ġbaseball":7589,"aints":7590,"Ġ1947":7591,"mony":7592,"itable":7593,"Ġstronger":7594,"Ġdawn":7595,"100":7596,"cription":7597,"Ġadvanced":7598,"Ġlecture":7599,"vi":7600,"ifying":7601,"aved":7602,"Ġ36":7603,"Ġlistened":7604,"Ġdevil":7605,"Ġstruggle":7606,"Ġlonely":7607,"Boy":7608,"Ãª":7609,"Ġtear":7610,"omi":7611,"Ġwhist":7612,"rovers":7613,"ĠHead":7614,"Ġunable":7615,"Ġdram":7616,"Ġmarked":7617,"Ġanalysis":7618,"SO":7619,"Ġsche":7620,"Ġregions":7621,"oked":7622,"Ġimpress":7623,"Ġsoftware":7624,"Ġintelligence":7625,"pher":7626,"athered":7627,"Ġpiano":7628,"omach":7629,"ĠProt":7630,"Ġprize":7631,"Ġsuffer":7632,"Ġbathroom":7633,"ĠDakota":7634,"mat":7635,"Ġdaughters":7636,"ĠBoth":7637,"Ġbits":7638,"ĠAlf":7639,"Ġnearby":7640,"Ġbehavior":7641,"aa":7642,"aus":7643,"Ġtow":7644,"ĠFC":7645,"Ġmusician":7646,"Ġfigured":7647,"Ġcultural":7648,"ĠAlexander":7649,"lers":7650,"note":7651,"Ġknees":7652,"ĠNations":7653,"Ġplot":7654,"their":7655,"Ġstranger":7656,"Ġwarning":7657,"hmm":7658,"Ġsources":7659,"Ġnuclear":7660,"rad":7661,"ĠNick":7662,"onsense":7663,"ĠBefore":7664,"Ġsquared":7665,"Ġconstruct":7666,"Ġdemonstr":7667,"Ġinstrument":7668,",âĢĻ":7669,"Cong":7670,"Jul":7671,"Ġbones":7672,"Ġlung":7673,"Ġnort":7674,"Ġatmosp":7675,"ĠWhe":7676,"Ġtrained":7677,"Ġprotest":7678,"Ġissued":7679,"Brother":7680,"Ġpilot":7681,"99":7682,"pol":7683,"Ġgrav":7684,"ĠWend":7685,"ĠLight":7686,"ĠFoundation":7687,"##":7688,"à¤":7689,"Ġthrill":7690,"ĠFederal":7691,"Ġ1961":7692,"Ġepisodes":7693,"ĠGolden":7694,"Hen":7695,"Ġcert":7696,"Ġlit":7697,"iments":7698,"ĠMu":7699,"ĠDor":7700,"ĠOntario":7701,"class":7702,"Ġ1952":7703,"Ġhorror":7704,"Ġadministration":7705,"ĠBrook":7706,"ras":7707,"Ġdeserve":7708,"Ġescaped":7709,"ennes":7710,"Ġdescribe":7711,"conscious":7712,"General":7713,"mouth":7714,"Ġsout":7715,"Ġlamp":7716,"ĠHong":7717,"Ġcongress":7718,"Ġsomewhat":7719,"Ġheaded":7720,"Ġdecor":7721,"Shall":7722,"anz":7723,"Ġhousehold":7724,"Ġ1945":7725,"Ġapplied":7726,"Ġtoy":7727,"ivered":7728,"Ġchairman":7729,"Ġliterature":7730,"Ġcrisis":7731,"Res":7732,"kh":7733,"ĠJUST":7734,"Ġbronze":7735,"ĠAndy":7736,"ĠJohnny":7737,"Ġcreating":7738,"ĠAtt":7739,"Ġpainted":7740,"ĠHonor":7741,"mn":7742,"ruce":7743,"Ġfriendly":7744,"ĠPhiladelphia":7745,"ĠJews":7746,"UCK":7747,"Ġstairs":7748,"Ġstolen":7749,"Exactly":7750,"Ġrevealed":7751,"Ġdoctors":7752,"aire":7753,"Ġassume":7754,"IST":7755,"Ġtreasure":7756,"Aye":7757,"osis":7758,"Ġdefin":7759,"ddie":7760,"Ġ1942":7761,"Ġstraw":7762,"Pat":7763,"four":7764,"wald":7765,"Ġaid":7766,"Ġsalt":7767,"Ġpi":7768,"Ġpitch":7769,"ĠCzech":7770,"Ġheadquarters":7771,"Ġmarks":7772,"ĠSeries":7773,"):":7774,"via":7775,"Ġpension":7776,"those":7777,"pered":7778,"Ġillness":7779,"lNG":7780,"Ġsang":7781,"omed":7782,"ĠSure":7783,"Ġfounder":7784,"Ġregret":7785,"ierce":7786,"ĠBarb":7787,"Ġcopies":7788,"ĠIndiana":7789,"Ġquietly":7790,"Ġprepare":7791,"Ġapproximately":7792,"IP":7793,"eel":7794,"ĠAny":7795,"ĠTurn":7796,"Ġwhenever":7797,"Ant":7798,"Work":7799,"lad":7800,"Ġmood":7801,"obe":7802,"Ġpleasant":7803,"Ġpermission":7804,"Robert":7805,"itage":7806,"Ġnest":7807,"Ġancest":7808,"ĠHolly":7809,"coming":7810,"Ġtracks":7811,"Alex":7812,"WELL":7813,"Ġhug":7814,"aro":7815,"Ġclimb":7816,"ĠAirport":7817,"ĠPictures":7818,"itors":7819,"Ġdies":7820,"ĠScience":7821,"ĠAlp":7822,"ĠPen":7823,"Ġdesk":7824,"IND":7825,"Ġalongside":7826,"pite":7827,"Ġ75":7828,"chers":7829,"UD":7830,"ateful":7831,"Ġflow":7832,"Also":7833,"Ġdespite":7834,"Ġbalance":7835,"33":7836,"HL":7837,"Music":7838,"hew":7839,"ĠBra":7840,"Ġjealous":7841,"Ġrandom":7842,"ĠEst":7843,"clusion":7844,"shit":7845,"Ġsuppl":7846,"Ġ1958":7847,"Ġ1948":7848,"Ġoperating":7849,"ĠHam":7850,"ĠIntern":7851,"Ġdefense":7852,"certain":7853,"Ġcollabor":7854,"Ġexpert":7855,"ippi":7856,"Ġvolume":7857,"rets":7858,"Ġwore":7859,"ito":7860,"ĠHospital":7861,"Ġarmed":7862,"Ġreference":7863,"APTER":7864,"IV":7865,"Ġfart":7866,"Ġpants":7867,"Ġstones":7868,"AKE":7869,"mont":7870,"oz":7871,"Ġpages":7872,"Ġleaf":7873,"ĠBridge":7874,"Ġinterests":7875,"EAH":7876,"Ġangle":7877,"Ġphotograph":7878,"Ġceremony":7879,"fit":7880,"Ġcurious":7881,"Ġ1939":7882,"ĠAtlantic":7883,"Ġapplication":7884,"Ġwicked":7885,"anes":7886,"Ġtools":7887,"ĠCensus":7888,"Ġbug":7889,"ĠOxford":7890,"ĠDNA":7891,"Ġprosec":7892,"Ġsets":7893,"ĠAnthony":7894,"jan":7895,"ĠWalk":7896,"estic":7897,"eline":7898,"Ġbuying":7899,"Ġengineer":7900,"orporated":7901,"Åį":7902,"Ġstim":7903,"ĠPrem":7904,"apore":7905,"Its":7906,"Ġexclaimed":7907,"ags":7908,"anging":7909,"Ġours":7910,"Ġinjured":7911,"75":7912,"Ap":7913,"SC":7914,"iy":7915,"wait":7916,"Ġdeck":7917,"Ġdeleg":7918,"Ġcomposed":7919,"ĠBrad":7920,"ĠArthur":7921,"Ġmetres":7922,"ĠDonald":7923,"Ġcops":7924,"Ġcommunication":7925,"chio":7926,"ĠTop":7927,"Were":7928,"Ġservants":7929,"Ġindustrial":7930,"Ġmouse":7931,"Ġhired":7932,"Ġdipl":7933,"Ġnut":7934,"ĠWANT":7935,"umph":7936,"ĠClass":7937,"Ġcolors":7938,"Ġ1955":7939,"Ġphoto":7940,"Black":7941,"could":7942,"ingham":7943,"Ġnoble":7944,"Ġbrush":7945,"Ġcapable":7946,"Ġhearts":7947,"Ġaffair":7948,"Ġmirror":7949,"Ġbord":7950,"Ġbump":7951,"ĠSC":7952,"ĠWork":7953,"Ġrot":7954,"Ġsteel":7955,"Ġviews":7956,"warf":7957,"away":7958,"Ġassociation":7959,"Ġtrains":7960,"Ġlegend":7961,"Eh":7962,"bi":7963,"ĠVice":7964,"Ġexplan":7965,"udden":7966,"Ġidentity":7967,"Ġmaterials":7968,"Ġindependence":7969,"44":7970,"burn":7971,"iri":7972,"Ġaunt":7973,"Ġyards":7974,"alty":7975,"Ġrear":7976,"Ġstomach":7977,"ĠTok":7978,"ĠPop":7979,"uled":7980,"Ġacts":7981,"Ġcrap":7982,"ĠReally":7983,"ĠColor":7984,"Ġfootballer":7985,"Us":7986,"reck":7987,"Ġrings":7988,"Ġrhy":7989,"Ġmillions":7990,"Ġdedicated":7991,"bell":7992,"Ġpity":7993,"utation":7994,"ĠRa":7995,"resents":7996,"Ġphase":7997,"Ġ\"\"":7998,"Ġrug":7999,"abs":8000,"erent":8001,"Ġguarant":8002,"Ġedition":8003,"Ġappearances":8004,"Ġvictims":8005,"ĠVictoria":8006,"Ġunusual":8007,"Talk":8008,"section":8009,"Ġrice":8010,"umes":8011,"Ġspo":8012,"oyd":8013,"Ġdistingu":8014,"Ġkidna":8015,"Ġ1944":8016,"tell":8017,"Ġfil":8018,"Ġhills":8019,"Ġreaction":8020,"ĠBal":8021,"ĠJos":8022,"otted":8023,"Ġvisual":8024,"ĠCoast":8025,"Ġcycl":8026,"Mother":8027,"ĠBBC":8028,"Ġmodels":8029,"rogen":8030,"BI":8031,"Par":8032,"bach":8033,"iture":8034,"Ġweb":8035,"ĠSong":8036,"Ġseized":8037,"Ġ1920":8038,"Ġdeeply":8039,"Ġdiagn":8040,"Besides":8041,"Honey":8042,"ĠLincoln":8043,"akers":8044,"Ġthrone":8045,"Ġowners":8046,"Ġelev":8047,"ĠWat":8048,"unts":8049,"ĠOper":8050,"ederation":8051,"rayed":8052,"Ġadministrative":8053,"Bob":8054,"ĠBall":8055,"Ġrising":8056,"Ġspare":8057,"Ġimages":8058,"Ġfeather":8059,"Ġ32":8060,"ĠMaria":8061,"Ġfactor":8062,"Ġextended":8063,"Ġseventy":8064,"ĠSarah":8065,"Sw":8066,"Ġfiction":8067,"ĠBrian":8068,"ĠRh":8069,"ubble":8070,"Ġprojects":8071,"ni":8072,"somet":8073,"Ġdumb":8074,"Ġbeating":8075,"Ġbegged":8076,"Ġconver":8077,"Ġgrant":8078,"Ġdecisions":8079,"Ġconfidence":8080,"Ġreturning":8081,"Ġ1934":8082,"Ġillust":8083,"Ġeffective":8084,"Ġawards":8085,"rix":8086,"ĠWas":8087,"erer":8088,"Ġcovers":8089,"Ġending":8090,"Ġdealing":8091,"bsolutely":8092,"Ġdifficulty":8093,"Ġsubjects":8094,"ĠSimon":8095,"Ġmurdered":8096,"dr":8097,"Ġera":8098,"Ġsimpl":8099,"Ġcutting":8100,"ĠÂ£":8101,"Ġrecommend":8102,"cut":8103,"pes":8104,"Ġtone":8105,"Ġconclud":8106,"velopment":8107,"Ġcritics":8108,"ĠHERE":8109,"ĠRadio":8110,"daddy":8111,"Ġbone":8112,"ĠSn":8113,"ĠMoh":8114,"Death":8115,"ĠEmperor":8116,"Ġloan":8117,"Ġlover":8118,"Ġreign":8119,"ĠAff":8120,"Ġharder":8121,"Ġstarred":8122,"William":8123,"cos":8124,"iat":8125,"sen":8126,"etime":8127,"Ġselect":8128,"Ġcontrovers":8129,"Ġcarbon":8130,"Ġconcert":8131,"ĠDa":8132,"ĠLew":8133,"ĠStation":8134,"Ġcheek":8135,"Ġ1941":8136,"Ġwire":8137,"ursday":8138,"Dear":8139,"Six":8140,"nat":8141,"Ġloyal":8142,"ĠWed":8143,"ĠFall":8144,"into":8145,"Ġreply":8146,"GE":8147,"bal":8148,"arks":8149,"Ġcharged":8150,"George":8151,"ROM":8152,"called":8153,"dney":8154,"last":8155,"unist":8156,"ĠDave":8157,"Ġtalks":8158,"Ġpointed":8159,"Ġassault":8160,"Ġpossibility":8161,"Ġcorrespond":8162,"Ġexciting":8163,"ĠSanders":8164,"Ġmile":8165,"Ġgranted":8166,"ilding":8167,"Ġpretend":8168,"Ġdistricts":8169,"Ġengineering":8170,"Ġpunishment":8171,"Ġadventure":8172,"Ġsplendid":8173,"iÄĩ":8174,"Ġscheme":8175,"._":8176,"BE":8177,"Cont":8178,"pool":8179,"Ġgathered":8180,"chair":8181,"Ġdozen":8182,"ĠInc":8183,"Ġsupper":8184,"Ġbitter":8185,"bet":8186,"itled":8187,"Ġcou":8188,"Ġpa":8189,"stance":8190,"open":8191,"aks":8192,"Ġaccur":8193,"press":8194,"ĠEarl":8195,"ĠMarg":8196,"Ġinterf":8197,"Ġcolumn":8198,"Ġbusinessman":8199,"ĠLeon":8200,"Ġaffairs":8201,"EO":8202,"Em":8203,"iner":8204,"Ġkittie":8205,"Ġangel":8206,"Ġwhoa":8207,"Ġgrandfather":8208,"ĠCastle":8209,"ĠTaylor":8210,"nold":8211,"song":8212,"opher":8213,"ĠWait":8214,"Ġvast":8215,"ĠIslands":8216,"ĠTeam":8217,"ĠArkansas":8218,"Want":8219,"hh":8220,"erable":8221,"Ġstroke":8222,"Ġspite":8223,"assador":8224,"aze":8225,"Ġpossess":8226,"Ġvisited":8227,"Without":8228,"Ġsurrounded":8229,"Cor":8230,"Ġcave":8231,"ĠDaddy":8232,"ĠJacob":8233,"ĠCard":8234,"ĠAdam":8235,"Ġbanks":8236,"ĠMorgan":8237,"Ġrescue":8238,"43":8239,"esome":8240,"asters":8241,"utt":8242,"stan":8243,"ĠEducation":8244,"ĠVar":8245,"Ġuns":8246,"Ġuniform":8247,"Ġcontem":8248,"uable":8249,"Ġdoggie":8250,"erences":8251,"Ġsecure":8252,"TS":8253,"watch":8254,"rete":8255,"Ġwishes":8256,"Ġbike":8257,"ĠSO":8258,"osl":8259,"ordon":8260,"Ġdesert":8261,"Ġskills":8262,"Ġticket":8263,"Ġreduced":8264,"55":8265,"ĠSultan":8266,"ĠPublic":8267,"Ġsmooth":8268,"Ġaccused":8269,"Ġfriendship":8270,"ĠDaniel":8271,"Ġinspired":8272,"Ġsoup":8273,"Ġhockey":8274,"Ġnick":8275,"ĠSay":8276,"ĠAv":8277,"Ġstress":8278,"ĠCab":8279,"ĠJon":8280,"Ġvice":8281,"Ġslaves":8282,"Ġinterrupt":8283,"Ġprovides":8284,"Person":8285,"found":8286,"Ã£":8287,"ĠChannel":8288,"Ġburned":8289,"ĠStephen":8290,"fly":8291,"Ġfra":8292,"Ġnaked":8293,"idae":8294,"ĠGOT":8295,"ĠOrder":8296,"whoa":8297,"ĠNothing":8298,"Ġinitially":8299,"ratulations":8300,"Ġped":8301,"Ġrevol":8302,"berry":8303,"Ġgrade":8304,"Ġletting":8305,"Ġcricket":8306,"Ġcounties":8307,"ĠABOUT":8308,"Ġ00":8309,"Ġsorrow":8310,"otte":8311,"Ġunlike":8312,"Ġmassive":8313,"Ġpersu":8314,"cu":8315,"count":8316,"fire":8317,"Ġcrop":8318,"ĠMid":8319,"ĠHas":8320,"ĠWin":8321,"anges":8322,"Ġshoulders":8323,"Ġacid":8324,"Ġfuneral":8325,"Ġinterpret":8326,"ĠCentre":8327,"Ġthrowing":8328,"ĠSingapore":8329,".[":8330,"rine":8331,"Ġpuzz":8332,"uther":8333,"ĠVerm":8334,"ples":8335,"Ġdraft":8336,"Ġiniti":8337,"ĠNetwork":8338,"Ġâ":8339,"ĠMaine":8340,"asted":8341,"ordinary":8342,"Ġcrimes":8343,"azed":8344,"Ġwidely":8345,"Ġmethods":8346,"Ġscholar":8347,"ĠCOVID":8348,"athy":8349,"Ġbesides":8350,"iber":8351,"Ġwaves":8352,"Ġpale":8353,"ando":8354,"ĠGreg":8355,"ĠUt":8356,"Ġtrunk":8357,"Ġswall":8358,"Ġpassage":8359,"ĠSenator":8360,"Probably":8361,"Ġdebt":8362,"ĠWilson":8363,"DO":8364,"UGH":8365,"baby":8366,"Ġrope":8367,"oga":8368,"ĠAsian":8369,"Ġdriven":8370,"AF":8371,"Es":8372,"western":8373,"edia":8374,"ĠRus":8375,"ĠNever":8376,"ensity":8377,"Ġ300":8378,"INK":8379,"Ġalbums":8380,"Ġkissed":8381,"Ġtheatre":8382,"Ġfo":8383,"alia":8384,"Ġkings":8385,"ĠLl":8386,"ĠEve":8387,"endment":8388,"Ġregist":8389,"Ġtries":8390,"Ġshortly":8391,"Ġcabin":8392,"Aha":8393,"Son":8394,"Ġtherap":8395,"oore":8396,"ĠJam":8397,"Ġarts":8398,"perial":8399,"Ġchildhood":8400,"Ġcenturies":8401,"Ġtrem":8402,"ricane":8403,"Ġdragon":8404,"ĠWendy":8405,"Ġaston":8406,"ĠSU":8407,"ĠPart":8408,"tha":8409,"ĠLead":8410,"ĠRoss":8411,"acked":8412,"uddy":8413,"Ġpride":8414,"Ġrelief":8415,"Ġconfused":8416,"Ġlesson":8417,"Ġchecked":8418,"ĠTechn":8419,"ĠLIKE":8420,"ui":8421,"ĠBol":8422,"ĠPope":8423,"Ġsites":8424,"Ġ1938":8425,"Ġroads":8426,"ĠPlan":8427,"ĠGuard":8428,"ĠBrazilian":8429,"Ġorganizations":8430,"Har":8431,"bro":8432,"bra":8433,"care":8434,"Ġstir":8435,"ĠLes":8436,"ĠRoy":8437,"Stand":8438,"Ġglobal":8439,"Forget":8440,"Ġinspect":8441,"Ġcrossed":8442,"Ġshopping":8443,"Sch":8444,"ĠPot":8445,"Ġmyster":8446,"Ġsufficient":8447,"ĠEp":8448,"Ġpersonally":8449,"isms":8450,"Ġsecretary":8451,"bus":8452,"equ":8453,"lock":8454,"ĠCross":8455,"ĠRIGHT":8456,"ĠMississ":8457,"Ġsnake":8458,"Ġgods":8459,"Ġspiritual":8460,"has":8461,"Ġnarr":8462,"ĠSom":8463,"ĠWard":8464,"Ġcompar":8465,"Ġflows":8466,"ĠSpring":8467,"Ġprisoner":8468,"Ġarticles":8469,"ĠBase":8470,"Ġric":8471,"occhio":8472,"onto":8473,"Ġclaims":8474,"Ġtip":8475,"rait":8476,"hings":8477,"teenth":8478,"Ġstudying":8479,"retty":8480,"Ġreplace":8481,"Ġliterally":8482,"Ġfishing":8483,"ĠHou":8484,"andal":8485,"ĠDog":8486,"ipper":8487,"Ġnecessarily":8488,"ĠKorean":8489,"Ġholiday":8490,"made":8491,"mission":8492,"Ġwoke":8493,"eable":8494,"ogne":8495,"Ġregional":8496,"Ġsymp":8497,"Ġcapacity":8498,"Ġreflect":8499,"Ġnegoti":8500,"Check":8501,"66":8502,"DP":8503,"icit":8504,"Ġanger":8505,"ĠBible":8506,"iolet":8507,"Ġminds":8508,"ĠTommy":8509,"Ġentrance":8510,"Ġwheels":8511,"Ġagric":8512,"Ġextent":8513,"Ġ1949":8514,"ĠSystem":8515,"ĠCorporation":8516,"Ġalcohol":8517,"Each":8518,"woman":8519,"Ġment":8520,"tery":8521,"ifts":8522,"ĠWy":8523,"Ġsheet":8524,"enses":8525,"Ġprecious":8526,"tainment":8527,"Ġ1935":8528,"Ġastron":8529,"tical":8530,"ygen":8531,"Ġanaly":8532,"ĠTour":8533,"ĠIndones":8534,"Ġphen":8535,"Ġbeings":8536,"ugg":8537,"Ġsurre":8538,"Show":8539,"Ġidentified":8540,"ĠSteven":8541,"Aren":8542,"President":8543,"Ġofficials":8544,"ĠMoscow":8545,"Ġitems":8546,"star":8547,"stal":8548,"ĠPost":8549,"Ġintention":8550,"ancer":8551,"hess":8552,"Comp":8553,"Sl":8554,"Until":8555,"Ġfake":8556,"Ġris":8557,"Ġopposed":8558,"Ġsolo":8559,"Ġannounce":8560,"Ġphilosophy":8561,"Ġfasc":8562,"Ġfetch":8563,"irk":8564,"Ġappropriate":8565,"Ġmessages":8566,"Daddy":8567,"Ġeldest":8568,"Ġsought":8569,"Ġtoile":8570,"Ġnotable":8571,"ĠPlease":8572,"ĠRober":8573,"Ġpositions":8574,"Ġawake":8575,"Ġmemories":8576,"Ġdocuments":8577,"asmus":8578,"ĠConnect":8579,"encer":8580,"usting":8581,"again":8582,"Mmm":8583,"ĠHighway":8584,"Ġsatisfied":8585,"Ġvoices":8586,"Ġacademic":8587,"Ġing":8588,"Ġbubbles":8589,"eness":8590,"ĠAL":8591,"Ġrabbit":8592,"ĠNob":8593,"ardens":8594,"hedral":8595,"Ġputs":8596,"Ġrelations":8597,"Ġ1953":8598,"Ġ1931":8599,"Ġsweetheart":8600,"aura":8601,"Ġcombined":8602,"Ġleadership":8603,"wen":8604,"Ġtorn":8605,"Ġtunn":8606,"Ġdates":8607,"Ġalph":8608,"Ġshower":8609,"Ġelephant":8610,"Ġgrandmother":8611,"Ġcooking":8612,"Ġmidnight":8613,"Ġbowl":8614,"Ġsequence":8615,"Ġatmosphere":8616,"BUT":8617,"EP":8618,"ĠBos":8619,"ĠDun":8620,"ĠGro":8621,"ĠRen":8622,"aga":8623,"Ġclin":8624,"Ġmoments":8625,"Ġpersonality":8626,"amental":8627,"CHAPTER":8628,"Ġenjoyed":8629,"Red":8630,"nel":8631,"atures":8632,"Ġcraw":8633,"Ġnuts":8634,"upon":8635,"Ġ1951":8636,"Ġarranged":8637,"Ġtender":8638,"Ġprincipal":8639,"Ġtransferred":8640,"ocolate":8641,"ĠHeaven":8642,"ĠColorado":8643,"kind":8644,"Ġasks":8645,"Ġparliament":8646,"ĠStanley":8647,"Rob":8648,"Ġtropical":8649,"ĠSix":8650,"ĠVill":8651,"Ġrepresenting":8652,"Rep":8653,"rim":8654,"Ġagency":8655,"uesday":8656,"cules":8657,"ĠClinton":8658,"SP":8659,"oa":8660,"Ã«":8661,"Ġguests":8662,"Ġ180":8663,"Ġrepresents":8664,"anguage":8665,"Ġhealthy":8666,"42":8667,"GR":8668,"tÃ©":8669,"Ġgray":8670,"Ġgrace":8671,"Ã¼r":8672,"Ġsprang":8673,"Ġmystery":8674,"dam":8675,"ked":8676,"pent":8677,"ĠBureau":8678,"iva":8679,"ordan":8680,"Ġdiscovery":8681,"Ġillegal":8682,"ĠNorway":8683,"ĠIan":8684,"child":8685,"Ġsemi":8686,"Ġstops":8687,"Ġconfirm":8688,"ĠCarter":8689,"Ġpicking":8690,"Ġsquad":8691,"Grand":8692,"glas":8693,"ĠHolmes":8694,"Ġpremie":8695,"Ġretirement":8696,"atically":8697,"Ġlap":8698,"Ġvi":8699,"Ġcampus":8700,"ĠParker":8701,"Ġparticipated":8702,"98":8703,"inced":8704,"Ġsan":8705,"Ġjury":8706,"Ġremove":8707,"HEN":8708,"Ġrivers":8709,"Ġheavily":8710,"pherd":8711,"onents":8712,"Ġrein":8713,"antry":8714,"Ġhighway":8715,"Ġopposition":8716,"Ġvideos":8717,"Footnote":8718,"95":8719,"SH":8720,"War":8721,"di":8722,"even":8723,"uter":8724,"ĠSpecial":8725,"ĠDam":8726,"Ġupd":8727,"ĠChap":8728,"Ġfunctions":8729,"Ġ1946":8730,"Ġoccas":8731,"Must":8732,"Ġtool":8733,"Ġeager":8734,"ĠRo":8735,"ĠOpen":8736,"Ġviolent":8737,"AH":8738,"bie":8739,"wow":8740,"Ġfans":8741,"Ġforb":8742,"anting":8743,"acking":8744,"Ġconce":8745,"ĠKal":8746,"Ġnowhere":8747,"Star":8748,"Ġappointment":8749,"Ġpersons":8750,"Ġsympt":8751,"Ã£o":8752,"Mc":8753,"Run":8754,"hard":8755,"Ġinput":8756,"ayan":8757,"lder":8758,"ands":8759,"ĠGil":8760,"ĠGive":8761,"Ġcomposer":8762,"Ġgreatly":8763,"Ġ1936":8764,"Ġdiscussion":8765,"peekaboo":8766,"ĠVietnam":8767,"music":8768,"Ġcooper":8769,"ĠHamp":8770,"Ġdepth":8771,"Ġamongst":8772,"Ġprinciple":8773,"Ġacquired":8774,"Ġpermanent":8775,"VD":8776,"hus":8777,"Ġbul":8778,"Ġfond":8779,"ĠAle":8780,"herry":8781,"ĠBishop":8782,"ĠWild":8783,"ĠKy":8784,"ETH":8785,"Ġdigital":8786,"Ġfrequently":8787,"ĠFairy":8788,"Ġincredible":8789,"ARE":8790,"great":8791,"ii":8792,"Ġbom":8793,"Ġmath":8794,"oting":8795,"rock":8796,"ĠKer":8797,"Ġrecon":8798,"Ġcommander":8799,"Ġlasted":8800,"Ġimpression":8801,"ikh":8802,"Ġdivide":8803,"Ġwooden":8804,"Ġadmitted":8805,"uct":8806,"itched":8807,"ĠTell":8808,"thm":8809,"Ġadapt":8810,"Ġcontext":8811,"Ġcommunities":8812,"people":8813,"Ġswing":8814,"Ġparish":8815,"Ġphrase":8816,"sl":8817,"Ä±":8818,"ĠÐ":8819,"Ġsust":8820,"Ġpow":8821,"icut":8822,"olas":8823,"nesday":8824,"78":8825,"uy":8826,"adies":8827,"ĠRoger":8828,"ĠUs":8829,"ĠVery":8830,"Ġcarriage":8831,"ĠAlso":8832,"Ġhurts":8833,"Ġtesting":8834,"Ġtap":8835,"erted":8836,"ĠAut":8837,"ĠBow":8838,"Ġformal":8839,"Bi":8840,"lon":8841,"Ġoption":8842,"Ġdun":8843,"Ġthir":8844,"Ġacted":8845,"Ġdisg":8846,"Ġevolution":8847,"Ġresear":8848,"Ġconvinced":8849,"Ġalternative":8850,"ĠOfficer":8851,"Sub":8852,"dle":8853,"Ġbishop":8854,"Ġraces":8855,"ĠREA":8856,"ĠRyan":8857,"Ġmyth":8858,"ĠEach":8859,"Ġprote":8860,"Ġsurvey":8861,"Ġbreast":8862,"uese":8863,"Ġoperated":8864,"Ġgenus":8865,"Ġcounsel":8866,"Better":8867,"isp":8868,"Ġbold":8869,"ĠStone":8870,"iki":8871,"Ġfocused":8872,"Jo":8873,"lets":8874,"ĠSnow":8875,"ĠAmb":8876,"Ġprepar":8877,"ĠUnivers":8878,"Ġclubs":8879,"Quick":8880,"ĠBetty":8881,"Ten":8882,"ĠSomet":8883,"Ġshift":8884,"ibilities":8885,"scar":8886,"Ġtechnical":8887,"Ġversions":8888,"ĠCur":8889,"ĠWel":8890,"ĠOur":8891,"Ġspons":8892,"Ġarrow":8893,"Ġprices":8894,"Ġmargin":8895,"Ġstrict":8896,"Ġsecondary":8897,"Ġdeaths":8898,"Ġlanding":8899,"ĠBeach":8900,"Ġactivist":8901,"Ġseparated":8902,"amilton":8903,"Ġairl":8904,"Ġbond":8905,"acles":8906,"ĠPres":8907,"iev":8908,"Ġ400":8909,"whoops":8910,"Ġlaura":8911,"Ġmerchant":8912,"Ġmoral":8913,"hum":8914,"uv":8915,"zona":8916,"ĠIce":8917,"ĠIra":8918,"ĠUr":8919,"ĠStand":8920,"Ġguide":8921,"III":8922,"Trans":8923,"Ġestimated":8924,"ĠDavis":8925,"Rel":8926,"ĠMot":8927,"ĠHay":8928,"oli":8929,"ĠRem":8930,"abet":8931,"agger":8932,"ĠAnother":8933,"ungle":8934,"Ġthreatened":8935,"ĠArgentina":8936,"Ġkilomet":8937,"%.":8938,"Ġwanting":8939,"Doctor":8940,"Ġentry":8941,"Ġglasses":8942,"Ġunhappy":8943,"Ġalgorithm":8944,"Ġbark":8945,"Ġstab":8946,"ĠEnd":8947,"agers":8948,"Ġindic":8949,"Ġcausing":8950,"Ġinvolve":8951,"Ġgenius":8952,"ĠSergeant":8953,"Ġcustomers":8954,"ĠMatthew":8955,"keeper":8956,"Ġathlet":8957,"NAR":8958,"hol":8959,"movie":8960,"Ġdea":8961,"Ġbeast":8962,"iden":8963,"ĠHIM":8964,"ĠWars":8965,"ĠFitz":8966,"Ġsoil":8967,"Ġobtained":8968,"Charl":8969,"mma":8970,"Ġtypical":8971,"Ġoccupied":8972,"Ġscarce":8973,"ĠParalympics":8974,"Aw":8975,"Happy":8976,"West":8977,"Ġlamb":8978,"ĠFire":8979,"Ġannoy":8980,"Ġpulling":8981,"net":8982,"Ġbass":8983,"Ġfulf":8984,"izz":8985,"ggy":8986,"Ġpasses":8987,"Ġ1937":8988,"umbling":8989,"Ġideal":8990,"Ġphenomen":8991,"greg":8992,"Ġske":8993,"weight":8994,"Ġresign":8995,"Ġdelicious":8996,"Ġsumm":8997,"Ġdiplom":8998,"ownt":8999,"state":9000,"through":9001,"ĠDur":9002,"Step":9003,"ĠResearch":9004,"LRB":9005,"sect":9006,"ifer":9007,"hatt":9008,"ucker":9009,"ĠSecurity":9010,"ĠTokyo":9011,"Bad":9012,"Kill":9013,"RRB":9014,"bage":9015,"ghan":9016,"Ġattached":9017,"Ġmerged":9018,"Ġexisting":9019,"Ġnewspapers":9020,"ĠMississippi":9021,"Ġduties":9022,"Ġnerve":9023,"ĠHard":9024,"Ġplastic":9025,"Ġcontrolled":9026,"Ġpassengers":9027,"Ġ1933":9028,"Ġeighteen":9029,"white":9030,"Ġstepped":9031,"ĠOlympic":9032,"Ġexperienced":9033,"Ġtiss":9034,"ĠWOR":9035,"Ġrush":9036,"quis":9037,"Ġworn":9038,"Ġgrateful":9039,"ĠAnne":9040,"ĠIndepend":9041,"Ġsurvived":9042,"je":9043,"anny":9044,"esar":9045,"ĠCall":9046,"ĠCamer":9047,"lesh":9048,"Ġmuscle":9049,"Ġdefined":9050,"Ġinternal":9051,"Ġwra":9052,"ĠBarry":9053,"Ġnorthwest":9054,"Ġpolicies":9055,"Ġbegun":9056,"SI":9057,"Yet":9058,"idency":9059,"Ġseated":9060,"ĠLA":9061,"Ġsoci":9062,"ĠYe":9063,"pected":9064,"Goodbye":9065,"Ġlifted":9066,"Absolutely":9067,"run":9068,"Ġrevenge":9069,"ĠBaby":9070,"ante":9071,"ĠField":9072,"Ġflash":9073,"Ġexpecting":9074,"iscons":9075,"ĠDoubs":9076,"Ġinner":9077,"Ġnations":9078,"ĠFel":9079,"ected":9080,"Ġwherever":9081,"hens":9082,"Ġsyn":9083,"Ġcompete":9084,"Ġintellect":9085,"ĠInternet":9086,"88":9087,"Find":9088,"ums":9089,"ĠLo":9090,"rak":9091,"olley":9092,"cca":9093,"Ġcray":9094,"ĠGrant":9095,"Hang":9096,"lie":9097,"ships":9098,"scape":9099,"Ġdescription":9100,"RATOR":9101,"Ġexplanation":9102,"ĠVermont":9103,"gun":9104,"lause":9105,"pur":9106,"umin":9107,"Ġguards":9108,"Ġkinda":9109,"Ġobst":9110,"Ġformation":9111,"Ġ150":9112,"Ġcorpor":9113,"Ġpurple":9114,"ĠSydney":9115,"Ġmaximum":9116,"August":9117,"rell":9118,"Ġknee":9119,"ĠStop":9120,"Ġworldwide":9121,"Ob":9122,"Ġtoes":9123,"ĠJoh":9124,"rying":9125,"Ġdownstairs":9126,"Ġenorm":9127,"ounced":9128,"Ġdelivered":9129,"pop":9130,"Ġta":9131,"heastern":9132,"itals":9133,"Ġuseless":9134,"ective":9135,"Ġcloth":9136,"Ġserves":9137,"Ġrib":9138,"ĠAdams":9139,"ĠONE":9140,"Ġrapidly":9141,"isconsin":9142,"Pet":9143,"world":9144,"Ġsed":9145,"Ġooh":9146,"Ġpour":9147,"ĠSorry":9148,"ĠPo":9149,"ules":9150,"ĠNep":9151,"Ġdescent":9152,"Ġconfident":9153,"Ġseventh":9154,"Ġinvented":9155,"Ġabandoned":9156,"Ġgalax":9157,"oge":9158,"ĠBul":9159,"Ġraid":9160,"Ġadjust":9161,"ĠThursday":9162,"ammad":9163,"Ġbags":9164,"Ġvoted":9165,"Sal":9166,"Ġobey":9167,"oration":9168,"sea":9169,"ĠAD":9170,"romise":9171,"Ġalien":9172,"aza":9173,"ĠDeath":9174,"Ġ1943":9175,"Ġrolled":9176,"Ġbenefits":9177,"uddenly":9178,"41":9179,"Ġvel":9180,"cknow":9181,"orton":9182,"riends":9183,"Ġdecre":9184,"Ġproperties":9185,"Ġreduce":9186,"acon":9187,"Ġsector":9188,"Ġrushed":9189,"Ġpoly":9190,"iami":9191,"annels":9192,"Ġdrinks":9193,"eanwhile":9194,"Ġcookie":9195,"Ġwaters":9196,"Ġessentially":9197,"Ġdelighted":9198,"ĠLieutenant":9199,"ĠEntertainment":9200,"ĠConnecticut":9201,"leton":9202,"allel":9203,"ĠDie":9204,"theless":9205,"Ġrecover":9206,"phas":9207,"Ġconsid":9208,"ITT":9209,"Ġabsolute":9210,"Ġbreathing":9211,"Ġstretched":9212,"Ġashamed":9213,"Jean":9214,"Ġisol":9215,"ocated":9216,"ensions":9217,"peed":9218,"Ġheading":9219,"Ġpenalty":9220,"ennessee":9221,"non":9222,"push":9223,"irts":9224,"ĠHuman":9225,"Ġclown":9226,"Ġerror":9227,"ĠMaybe":9228,"ĠMadonna":9229,"Ġinstitution":9230,"_.":9231,"Ġwins":9232,"erg":9233,"Ġbid":9234,"Ġfestival":9235,"ĠBurn":9236,"ĠAlbert":9237,"Ġcreatures":9238,"Ġslipped":9239,"96":9240,"big":9241,"orious":9242,"ĠMain":9243,"ĠHistory":9244,"Ġgoin":9245,"Ġprofit":9246,"Ġ1926":9247,"Ġemployed":9248,"ĠMaryland":9249,"Ġurban":9250,"Ġnickn":9251,"CC":9252,"Long":9253,"ĠTa":9254,"ierre":9255,"Ġreputation":9256,"Ġsixteen":9257,"Ġinsult":9258,"ĠSwiss":9259,"Ġvaluable":9260,"Ġregarded":9261,"Ġbarely":9262,"usalem":9263,"Saint":9264,"oons":9265,"rison":9266,"Ġaired":9267,"Ġgosh":9268,"Ġknight":9269,"ĠGen":9270,"Ġcoordin":9271,"HERE":9272,"Ġslip":9273,"Ġlargely":9274,"Ġfleet":9275,"Ġrobber":9276,"Ġprecise":9277,"Ġanxious":9278,"Bre":9279,"ÅĤ":9280,"ĠCreek":9281,"Ġwhoever":9282,"neath":9283,"before":9284,"Ġattorney":9285,"rot":9286,"wind":9287,"ĠFord":9288,"Ġabuse":9289,"Ġtrace":9290,"ĠInf":9291,"Ġtitles":9292,"Ġarrive":9293,"Baby":9294,"six":9295,"wall":9296,"orge":9297,"ĠCL":9298,"ĠTennessee":9299,"Ġexha":9300,"iah":9301,"Down":9302,"Lou":9303,"master":9304,"Ġfaced":9305,"rov":9306,"ellite":9307,"umble":9308,"Ġsaving":9309,"Ġrefuse":9310,"Ġexped":9311,"Ġclassic":9312,"Ġresistance":9313,"Ġboots":9314,"Hon":9315,"Ġpor":9316,"ĠBart":9317,"ĠNiger":9318,"ups":9319,"Ġelimin":9320,"Ġimplement":9321,"Ġsteam":9322,"Ġtypically":9323,"Such":9324,"dale":9325,"Ġtheater":9326,"Ġpardon":9327,"aman":9328,"ĠSav":9329,"Ġassh":9330,"ĠWisconsin":9331,"Ġcomed":9332,"udge":9333,"agu":9334,"been":9335,"Ġskill":9336,"Ġ1927":9337,"Ġvolcan":9338,"Ġlatest":9339,"Ġhid":9340,"Ġpushing":9341,"ĠCON":9342,"Ġrural":9343,"Ġequation":9344,"Ġreceiving":9345,"Ġportion":9346,"Ġprimarily":9347,"Ġvehicles":9348,"EAR":9349,"Ġcraft":9350,"Ġfrag":9351,"utor":9352,"iry":9353,"keys":9354,"ĠDown":9355,"ogan":9356,"âĻ«":9357,"Ġsupporting":9358,"Ġtests":9359,"Ġinvestment":9360,"Ġnaturally":9361,"Ġscreaming":9362,"Ġoxygen":9363,"mill":9364,"oard":9365,"Ġthread":9366,"Ġpip":9367,"ĠSab":9368,"Ġdiscip":9369,"Ask":9370,"chestra":9371,"AST":9372,"Ġ1929":9373,"Ġfoolish":9374,"Ġrailroad":9375,"communes":9376,"iar":9377,"Ġinher":9378,"Ġnonsense":9379,"ĠCare":9380,"ĠTamil":9381,"Ġoffers":9382,"Ġpron":9383,"liver":9384,"Ġslide":9385,"Ġequals":9386,"Ġtickets":9387,"Ġdebate":9388,"ĠBuddh":9389,"List":9390,"erick":9391,"Ġholes":9392,"Ġlately":9393,"rip":9394,"Ġjur":9395,"elson":9396,"Ġtrap":9397,"Ġinvasion":9398,"ĠIndians":9399,"ussy":9400,"Ġ1932":9401,"Ġhoped":9402,"Ġsoftly":9403,"Ġfunds":9404,"Richard":9405,"76":9406,"utiful":9407,"ĠSEE":9408,"Ġstamp":9409,"ĠForm":9410,"orted":9411,"ocese":9412,"Ġmighty":9413,"Ġidentify":9414,"ĠConference":9415,"ĠPremier":9416,"Cut":9417,"din":9418,"div":9419,"really":9420,"unter":9421,"ĠDomin":9422,"ĠTheatre":9423,"ĠOcean":9424,"Ġproport":9425,"Ġfactors":9426,"Ġzone":9427,"Ġcombination":9428,"FFFF":9429,"Ġspecifically":9430,"Ġreckon":9431,"Sar":9432,"lete":9433,"ĠMove":9434,"olo":9435,"arewell":9436,"Ġapples":9437,"everal":9438,"Ġ1928":9439,"anchester":9440,"ĠBourg":9441,"Ġdefinition":9442,"MA":9443,"Ġdating":9444,"uster":9445,"Ġuser":9446,"ĠKnight":9447,"Ġoffering":9448,"Ġscenes":9449,"Ġ48":9450,"Ġeducational":9451,"Ġclosing":9452,"Ġfunding":9453,"Ġtaxes":9454,"Ġblew":9455,"Ġsurrounding":9456,"ĠHollywood":9457,"ĠÅ":9458,"ĠNap":9459,"Ġsearching":9460,"Ġfantastic":9461,"ĠPortuguese":9462,"Poor":9463,"Ġwounds":9464,"Ġbade":9465,"Ġgreet":9466,"ĠSem":9467,"ĠPoint":9468,"ĠNar":9469,"iane":9470,"Ġquack":9471,"Ġfourteen":9472,"ĠOnce":9473,"Ġadmir":9474,"Ġattempted":9475,"Ġextraordinary":9476,"ĠWalter":9477,"None":9478,"adi":9479,"ĠRel":9480,"ĠFil":9481,"Ġdisaster":9482,"ixon":9483,"Ġcurve":9484,"Ġopera":9485,"Ġhut":9486,"Ġtoast":9487,"ĠHor":9488,"ĠGoo":9489,"ĠKaz":9490,"ĠChile":9491,"ints":9492,"Ġboats":9493,"Ġwarned":9494,"Ġfuckin":9495,"Ġstrongly":9496,"Ġbreathe":9497,"bourne":9498,"Ġcapture":9499,"Ġaccompan":9500,"Ãº":9501,"Ġcore":9502,"Ġfed":9503,"ĠTen":9504,"Ġlied":9505,"employ":9506,"Ġvain":9507,"ertainly":9508,"ĠTHERE":9509,"Ġproviding":9510,"France":9511,"Ġbench":9512,"ĠArizona":9513,"NARRATOR":9514,"Fire":9515,"YEAH":9516,"Ġsna":9517,"Ġreaching":9518,"ĠMoore":9519,"abel":9520,"Ġcomic":9521,"ĠElect":9522,"ĠKevin":9523,"Ġactors":9524,"Ġpresents":9525,"ĠFrances":9526,"Ġwondered":9527,"ĠCentury":9528,"ĠQueens":9529,"Ġrecognition":9530,"Ġphotos":9531,"ĠMedia":9532,"Ġmachines":9533,"ĠMetropolitan":9534,"Ġmicrophone":9535,"ĠIraq":9536,"girl":9537,"pat":9538,"Ġthirst":9539,"Ġga":9540,"Ġsmiling":9541,"Ġstandards":9542,"ĠSpirit":9543,"Ġfarmer":9544,"Ġsacrifice":9545,"HY":9546,"MS":9547,"town":9548,"Ġinch":9549,"ĠDID":9550,"ĠMarie":9551,"Ġevident":9552,"roduction":9553,"Ġbeaten":9554,"Ġrolling":9555,"?âĢĻ":9556,"har":9557,"pan":9558,"Ġsession":9559,"ĠIV":9560,"ĠHart":9561,"ĠOtt":9562,"these":9563,"Ġdepos":9564,"Ġtribe":9565,"Ġdeveloping":9566,"ĠTurkey":9567,"iveness":9568,"ĠGreece":9569,"LO":9570,"Min":9571,"SS":9572,"Ġbrig":9573,"ĠWolf":9574,"istol":9575,"ĠLind":9576,"Ġclick":9577,"Ġfever":9578,"Ġdirections":9579,"Ġrefers":9580,"Ġrestrict":9581,"ONG":9582,"Ġpromoted":9583,"ĠAllen":9584,"incent":9585,"Ġcombat":9586,"Ġcabinet":9587,"ComtÃ©":9588,"Ġdomestic":9589,"Ġhunt":9590,"Ġpipe":9591,"alu":9592,"ĠAz":9593,"ĠFederation":9594,"ĠClark":9595,"Ġjoining":9596,"Ġfrogs":9597,"ĠPalest":9598,"Ġinjuries":9599,"Ġcelebrate":9600,"Ġbehavi":9601,"Carl":9602,"Ġstadium":9603,"ĠCir":9604,"agne":9605,"INE":9606,"Ġinstantly":9607,"Ġpossession":9608,"ĠContin":9609,"Ġrelatively":9610,"otes":9611,"Ġislands":9612,"allas":9613,"ĠBC":9614,"Ġselection":9615,"Ġjoseph":9616,"Ġdistant":9617,"former":9618,"Ġsettlement":9619,"ĠHarris":9620,"Henry":9621,"DC":9622,"Ġacknow":9623,"Ġchoo":9624,"ogy":9625,"Ġconducted":9626,"Ġwhispered":9627,"Ġresidents":9628,"Hy":9629,"iques":9630,"tw":9631,"Ġcoc":9632,"Ġcinem":9633,"Ġshining":9634,"braska":9635,"ternal":9636,"cientists":9637,"Ġphysics":9638,"ĠCorps":9639,"Ġmobile":9640,"ĠBourgogne":9641,"Girl":9642,"Had":9643,"KS":9644,"vor":9645,"ĠBand":9646,"abled":9647,"Ġresigned":9648,"Ġfled":9649,"ĠClare":9650,"Ġwarn":9651,"Ġdamaged":9652,"uela":9653,"Franche":9654,"ĠMilan":9655,"Ġruined":9656,"Tomorrow":9657,"maybe":9658,"Ġentertainment":9659,"Congratulations":9660,"Ġtoilet":9661,"77":9662,"fa":9663,"Ġtennis":9664,"Ġrates":9665,"Ġroots":9666,"Ġminimum":9667,"Ġstrings":9668,"Ġassass":9669,"Ġprominent":9670,"Ġfacilities":9671,"ondissements":9672,"Super":9673,"GET":9674,"Old":9675,"Ġbacter":9676,"Ġrejo":9677,"Ġdecent":9678,"Ġassess":9679,"ega":9680,"Ġpractical":9681,"Ġstores":9682,"Ġconstitu":9683,"Ġbriefly":9684,"Ġassumed":9685,"Ġexperiences":9686,"Ill":9687,"acc":9688,"ĠBR":9689,"osaur":9690,"Ġcarpet":9691,"Ġstrateg":9692,"USE":9693,"Ġwriters":9694,":$":9695,"Ġtub":9696,"alie":9697,"throw":9698,"ĠFame":9699,"ĠNord":9700,"Ġcourts":9701,"Ġassigned":9702,"iversary":9703,"Ġproducing":9704,"Ġemphas":9705,"APP":9706,"Ġdetermine":9707,"Ġprayer":9708,"ĠMountain":9709,"break":9710,"ĠToronto":9711,"ĠJunior":9712,"Ġthorough":9713,"Ġgear":9714,"ĠHoll":9715,"Ġvon":9716,"Ġcleared":9717,"Ġreasonable":9718,"chell":9719,"aughing":9720,"dah":9721,"too":9722,"ĠCop":9723,"andra":9724,"ĠJess":9725,"Ġexclus":9726,"ĠKn":9727,"udes":9728,"ĠStaff":9729,"ruck":9730,"2017":9731,"Ġentitled":9732,"Ġimpressed":9733,"Ġlanded":9734,"Ġconstantly":9735,"Ġconsiderable":9736,"85":9737,"86":9738,"oust":9739,"orters":9740,"ĠCart":9741,"ĠHell":9742,"ĠJoy":9743,"ĠEric":9744,"Ġcontained":9745,"Ġkeen":9746,"Ġsmiled":9747,"ĠAndre":9748,"iko":9749,"ographic":9750,"ĠLibrary":9751,"ribute":9752,"ĠPhilippines":9753,"olleyball":9754,"pack":9755,"rin":9756,"Ġmask":9757,"Ġfaint":9758,"emet":9759,"Ġfoundation":9760,"ĠDevelopment":9761,"airies":9762,"ĠTrust":9763,"Ġawesome":9764,"Ġperforming":9765,"Ġvillages":9766,"Ġtitled":9767,"Ġtailor":9768,"Ġarchitecture":9769,",--":9770,"Ġbent":9771,"uration":9772,"igs":9773,"ategy":9774,"Ġgrows":9775,"Ġstopping":9776,"Ġmovements":9777,"Ġabsor":9778,"Ġfacing":9779,"Ġscientist":9780,"Doesn":9781,"IFA":9782,"ĠHouston":9783,"Sur":9784,"atus":9785,"ĠIF":9786,"Ġshield":9787,"ĠGot":9788,"ĠFive":9789,"Ġoutta":9790,"ĠTHINK":9791,"Ġfavourite":9792,"Ġemotional":9793,"ĠTemple":9794,"Martin":9795,"ĠLewis":9796,"zi":9797,"isible":9798,"Ġhits":9799,"esse":9800,"ĠAy":9801,"ĠTuesday":9802,"ĠJordan":9803,"Ġchannels":9804,"soft":9805,"Ġdrank":9806,"Ġinstinct":9807,"Ġfranch":9808,"Ġ86":9809,"Ġexpressed":9810,"Ġdollar":9811,"ĠAffairs":9812,"Aah":9813,"ĠMun":9814,"ĠMatt":9815,"Ġseal":9816,"ĠFle":9817,"Ġopens":9818,"Start":9819,"Ġobtain":9820,"ĠMinistry":9821,"ouncill":9822,"Ġclimbed":9823,"Ġnomination":9824,"lly":9825,"Ġna":9826,"Ġrecovered":9827,"Ġstrategy":9828,"Ġboom":9829,"Ġproposal":9830,"Ġarrival":9831,"Ġaccounts":9832,"ĠKhan":9833,"Ġregarding":9834,"ĠIslamic":9835,"FL":9836,"Ġbay":9837,"Ġdoo":9838,"ĠID":9839,"adows":9840,"ĠAth":9841,"ĠAhm":9842,"eare":9843,"ĠNev":9844,"oody":9845,"Ġscare":9846,"ĠDean":9847,"ĠShah":9848,"Ġallowing":9849,"Ġabsence":9850,"Ġcomputers":9851,"Ġlicense":9852,"PP":9853,"Ġflesh":9854,"Ġintent":9855,"Ġerr":9856,"Ġbelt":9857,"ĠForest":9858,"Ġshouted":9859,"Ġsample":9860,"Ġskiing":9861,"rum":9862,"ĠOt":9863,"ĠKay":9864,"Soon":9865,"Ġmonarch":9866,"Ġsuburb":9867,"ÃŃa":9868,"ĠĠĠĠĠĠĠĠĠĠĠĠĠĠĠĠĠĠĠĠĠĠĠĠ":9869,"Ġcollected":9870,"Phil":9871,"Ġroughly":9872,"ĠWednesday":9873,"eenth":9874,"Ġhal":9875,"Ġplug":9876,"pective":9877,"ĠEngine":9878,"Ġrequires":9879,"Ġmunicipalities":9880,"ĠMiller":9881,"spector":9882,"Ġshelter":9883,"Ġdesperate":9884,"Personal":9885,"ĠMoon":9886,"plane":9887,"ATE":9888,"Ġinsane":9889,"ĠWindows":9890,"\"...":9891,"FOR":9892,"Ġbubble":9893,"Ġcott":9894,"oty":9895,"ĠSports":9896,"ĠPower":9897,"Ġje":9898,"Ġabroad":9899,"Ġmeetings":9900,"Ġapproved":9901,"ĠNebraska":9902,"ĠPatrick":9903,"Ġrepeat":9904,"Co":9905,"DS":9906,"Ġmud":9907,"ĠMember":9908,"ĠRoc":9909,"Ġspoon":9910,"agg":9911,"ivia":9912,"Ġ33":9913,"Ġboxes":9914,"Ġdemanded":9915,"Ġfarther":9916,"Ġbears":9917,"ĠHamilton":9918,"ĠWes":9919,"Ġbands":9920,"Ġexisted":9921,"Ġfacility":9922,"Ġemployees":9923,"Ġmeasures":9924,"ds":9925,"ilst":9926,"ĠGame":9927,"intend":9928,"Ġremote":9929,"ICE":9930,"Twenty":9931,"owntown":9932,"Ġdick":9933,"Ġnep":9934,"ĠFamily":9935,"inks":9936,"iang":9937,"ĠArm":9938,"prise":9939,"Ġinformed":9940,"Ġspirits":9941,"rons":9942,"ught":9943,"Ġbot":9944,"ĠHorn":9945,"ĠHug":9946,"Ġexists":9947,"ountain":9948,"Ġdismiss":9949,"Ġsmoking":9950,"Ġbelieves":9951,"lessly":9952,"Ġinspir":9953,"ĠPortugal":9954,"ĠAntonio":9955,"Ġtheore":9956,"Ġcattle":9957,"Ġdwarf":9958,"acement":9959,"ĠWalt":9960,"Ġven":9961,"Ġpref":9962,"Ġresolution":9963,"Ġcourses":9964,"Ġmarch":9965,"Ġstatue":9966,"Ġmounted":9967,"Ġtechnique":9968,"ĠDeputy":9969,"ĠBelg":9970,"ĠBack":9971,"ĠPa":9972,"Ġconven":9973,"Ġbrid":9974,"Ġsingles":9975,"ĠConstant":9976,"Ġmercy":9977,"Play":9978,"Ġpredict":9979,"Ġinternet":9980,"Ġsacred":9981,"Ġfrequency":9982,"ĠForeign":9983,"Ġtalent":9984,"first":9985,"asps":9986,"Ġbend":9987,"cho":9988,"ĠBan":9989,"ĠPra":9990,"ĠLang":9991,"ĠChuck":9992,"ologists":9993,"Ġprotected":9994,"cried":9995,"Ġtune":9996,"Ġmal":9997,"celer":9998,"ĠTol":9999,"Ġchances":10000,"Ġchocolate":10001,"Ġpeasant":10002,"Ġslope":10003,"Ġoccurs":10004,"ĠTelevision":10005,"ivalent":10006,"Ġcompanion":10007,"Ġachieved":10008,"ĠANY":10009,"Ġprocedure":10010,"Ġenormous":10011,");":10012,"GO":10013,"hu":10014,"oices":10015,"Ġpup":10016,"ĠNich":10017,"Ġusers":10018,"eez":10019,"Ġ65":10020,"Ġcondem":10021,"Ġderiv":10022,"Ġjacket":10023,"Ġvirus":10024,"Ġinstructions":10025,"05":10026,"Fort":10027,"Ray":10028,"jun":10029,"walk":10030,"Ġfierce":10031,"Ġnic":10032,"ĠSciences":10033,"ĠManchester":10034,"ĠHaut":10035,"ĠBruce":10036,"Ġneat":10037,"Ġchop":10038,"ĠSpr":10039,"Ġformerly":10040,"Ġ1922":10041,"Ġlimits":10042,"Ġrenamed":10043,"Ġethan":10044,"Ġvacation":10045,"**":10046,"Lord":10047,"bian":10048,"Ġtooth":10049,"ĠAst":10050,"ĠFern":10051,"ifferent":10052,"Ġreturns":10053,"Ġprobability":10054,"Att":10055,"ĠUkrainian":10056,"National":10057,"please":10058,"Ġtale":10059,"Ġwreck":10060,"edge":10061,"Ġlyr":10062,"ĠTower":10063,"olves":10064,"ĠFIFA":10065,"Ġages":10066,"anks":10067,"obile":10068,"Ġutter":10069,"\"!":10070,"cod":10071,"person":10072,"rÃ©":10073,"oni":10074,"Ġcable":10075,"ĠAvenue":10076,"ĠBi":10077,"ĠPun":10078,"Ġunderneath":10079,"gines":10080,"Ġdifferences":10081,"Ġemperor":10082,"Ġbehalf":10083,"Ġoffices":10084,"ĠCommand":10085,"ĠCommander":10086,"Ġoperate":10087,"Ġrepresentative":10088,"Ġfundamental":10089,"Ġbelly":10090,"Ġruin":10091,"Ġdocumentary":10092,"Ġmysterious":10093,"Ġsymptoms":10094,"Ġdiet":10095,"ĠCOM":10096,"ĠStadium":10097,"Str":10098,"Ġcharity":10099,"Ġetern":10100,"Ġcolleagues":10101,"Ġsoutheast":10102,"Bea":10103,"Ġtheat":10104,"rec":10105,"Ġwo":10106,"Ġfab":10107,"Ġitem":10108,"idel":10109,"utter":10110,"ĠSel":10111,"ĠSky":10112,"ĠAR":10113,"ĠCape":10114,"ĠMm":10115,"ĠHistor":10116,"ĠBalt":10117,"Ġhanded":10118,"Ġdistract":10119,"Ġextensive":10120,"Ġpresently":10121,"Ġphysician":10122,"Ġdetective":10123,"ĠSquare":10124,"Ġschedule":10125,"Ġdivorce":10126,"].":10127,"uits":10128,"Ġ{":10129,"Ġward":10130,"Ġhip":10131,"vet":10132,"othes":10133,"Ġbeard":10134,"ĠMiami":10135,"urches":10136,"Ġconclusion":10137,"ĠStock":10138,"Ġrival":10139,"Unless":10140,"ĠJerusalem":10141,"ĠLawrence":10142,"ĠLiberal":10143,"Ġapologize":10144,"EFA":10145,"Tim":10146,"ĠDC":10147,"Ġoutput":10148,"osta":10149,"Ġargue":10150,"Ġeveryday":10151,"Ġ85":10152,"Ġinteract":10153,"Ġsweat":10154,"century":10155,"Ġearliest":10156,"Ġimmediate":10157,"Ow":10158,"TING":10159,"rome":10160,"Ġdat":10161,"ateur":10162,"Art":10163,"Second":10164,"round":10165,"Ġ}":10166,"Ġlob":10167,"icia":10168,"amma":10169,"ĠSA":10170,"ĠAaron":10171,"ĠCru":10172,"Ġseeking":10173,"Ġunex":10174,"egas":10175,"Ġadding":10176,"Ġexplore":10177,"Ġhistoric":10178,"Ġkicked":10179,"Enough":10180,"achelor":10181,"Sil":10182,"Val":10183,"cat":10184,"zes":10185,"Ġtent":10186,"ĠHur":10187,"Ġunderground":10188,"ettle":10189,"Ġcommanded":10190,"Ġessential":10191,"Ġadults":10192,"Mor":10193,"hill":10194,"Ġcure":10195,"aned":10196,"Ġloving":10197,"Ġnap":10198,"ĠAdd":10199,"ideo":10200,"ĠStory":10201,"ĠHoward":10202,"Ġprogramming":10203,"ienna":10204,"Ġvariable":10205,"Ġclouds":10206,"Ġliquid":10207,"Ġnortheast":10208,"Ġnephew":10209,"Later":10210,"San":10211,"rade":10212,"ridge":10213,"ĠMolly":10214,"Young":10215,"ĠKelly":10216,"ĠChamp":10217,"ovak":10218,"Ġlongest":10219,"Ġbeloved":10220,"Stud":10221,"Ġembr":10222,"Ġcurtain":10223,"levant":10224,"Ġresulted":10225,"ĠOrgan":10226,"Ġmagnific":10227,"ĠTurkish":10228,"Ġwis":10229,"Ġmic":10230,"ammy":10231,"essions":10232,"ĠEddie":10233,"Ġ37":10234,"ussian":10235,"Ġrecorder":10236,"Ġlessons":10237,"Ready":10238,"Ġvisible":10239,"Ġliterary":10240,"Ġthirteen":10241,"Del":10242,"WAY":10243,"word":10244,"ĠSax":10245,"ĠSupp":10246,"ĠDVD":10247,"ĠNa":10248,"ĠNAS":10249,"Ġnewly":10250,"Ann":10251,"ĠFranklin":10252,"ĠRobinson":10253,"Rec":10254,"Roger":10255,"ĠMAN":10256,"ĠTed":10257,"oper":10258,"ĠWould":10259,"ulance":10260,"odge":10261,"awson":10262,"Ġmedium":10263,"ĠErasmus":10264,"65":10265,"includ":10266,"itical":10267,"Ġhated":10268,"ĠBush":10269,"think":10270,"ĠGU":10271,"ĠNik":10272,"Ġ38":10273,"Ġformat":10274,"umbled":10275,"ĠBobby":10276,"ĠEgyptian":10277,"ĠLucy":10278,"Ġdiamond":10279,"Ġobliged":10280,"!!":10281,"Cr":10282,"Laughter":10283,"South":10284,"ashes":10285,"ĠHold":10286,"Ġsoap":10287,"osure":10288,"Ġintend":10289,"endar":10290,"ansion":10291,"Ġwrites":10292,"Always":10293,"Ġtemporary":10294,"Ġmistakes":10295,"Ġmiserable":10296,"IME":10297,"Jac":10298,"make":10299,"Â°":10300,"oug":10301,"ĠBat":10302,"Ġrude":10303,"ĠEle":10304,"Ġdonkey":10305,"ibi":10306,"Ġdeputy":10307,"Ġhumor":10308,"ĠMorris":10309,"Ġrejected":10310,"Charles":10311,"new":10312,"anne":10313,"Ġpear":10314,"stream":10315,"Ġ88":10316,"ĠTHEY":10317,"Ġbusinesses":10318,"iverpool":10319,"Ġparam":10320,"ĠHarvey":10321,"Coll":10322,"bles":10323,"dist":10324,"maid":10325,"Ġholy":10326,"Ġtwin":10327,"Ġworker":10328,"Ġfeast":10329,"formation":10330,"Ġtempt":10331,"Ġ1925":10332,"Ġrespectively":10333,"ĠDanny":10334,"ĠDenmark":10335,"Ġinstitutions":10336,"Finally":10337,"AK":10338,"mail":10339,"mitted":10340,"Ġhosp":10341,"ĠSah":10342,"ĠPad":10343,"ĠStat":10344,"Ġgoodbye":10345,"ĠCommon":10346,"Ġhistorian":10347,"Pretty":10348,"making":10349,"ĠLin":10350,"Ġvul":10351,"oca":10352,"Ġpreced":10353,"Ġretreat":10354,"ĠWarner":10355,"Ġforests":10356,"emetery":10357,"Ġstages":10358,"ĠCroat":10359,"ĠHockey":10360,"ĠTit":10361,"ĠPass":10362,"Ġjam":10363,"Ġcha":10364,"Ġchase":10365,"Ġspy":10366,"Ġcoinc":10367,"Ġwinds":10368,"Ġequally":10369,"Ġelectrical":10370,"Ġconcerns":10371,"Ġmanufacture":10372,"Hell":10373,"MY":10374,"Men":10375,"Ġaer":10376,"repre":10377,"nda":10378,"Ġbore":10379,"Ġboring":10380,"ayer":10381,"imb":10382,"rium":10383,"ĠGh":10384,"Ġextend":10385,"ĠGermans":10386,"Ġ1924":10387,"Ġgraduate":10388,"Part":10389,"san":10390,"Ġsack":10391,"ĠSid":10392,"ĠGene":10393,"Ġouter":10394,"Ġvoc":10395,"akesp":10396,"ĠGrace":10397,"Ġbreaks":10398,"--------":10399,"ĠHawai":10400,"Ġscratch":10401,"\":":10402,"BER":10403,"URE":10404,"ĠAunt":10405,"Ġuna":10406,"ppers":10407,"Ġtwist":10408,"ucks":10409,"Ġdisag":10410,"Ġentering":10411,"Ġcares":10412,"Ġcopper":10413,"ĠMedical":10414,"Ġopportunities":10415,"ĠDouglas":10416,"Ġhammer":10417,"Dis":10418,"Mum":10419,"Sn":10420,"Ġcord":10421,"Ġdign":10422,"thod":10423,"Ġrage":10424,"ĠJosh":10425,"osity":10426,"ĠEX":10427,"Ġdistur":10428,"Ġswift":10429,"Ġtribut":10430,"ĠBeat":10431,"Ġparking":10432,"Ġpurposes":10433,"Ġmiracle":10434,"Ġstimul":10435,"uj":10436,"incial":10437,"Ġdwell":10438,"ĠPant":10439,"ĠFree":10440,"abilities":10441,"ĠJuan":10442,"ighed":10443,"Ġengines":10444,"Ġbuzz":10445,"Ġ95":10446,"Ġtremb":10447,"Ġeducated":10448,"ĠPete":10449,"ĠRoberts":10450,"UH":10451,"ĠSandy":10452,"ĠRet":10453,"Ġagents":10454,"Ġclar":10455,"eremy":10456,"Ġfee":10457,"Ġmistress":10458,"Ġinfluenced":10459,"Ġuniversities":10460,"Ġsupplies":10461,"Ġtremend":10462,"reprene":10463,"held":10464,"inction":10465,"Ġsits":10466,"omic":10467,"ĠBye":10468,"ĠPers":10469,"oren":10470,"ĠFBI":10471,"ĠOak":10472,"Ġpoems":10473,"Ġpolo":10474,"Ġmonitor":10475,"Ġringing":10476,"Ġbelonged":10477,"ĠBelgium":10478,"CR":10479,"Wr":10480,"Ġwow":10481,"urther":10482,"ĠGab":10483,"ĠMars":10484,"ĠAlber":10485,"ATION":10486,"Ġearthqu":10487,"Ġjumping":10488,"Ġmadam":10489,"ĠMedic":10490,"ĠNepal":10491,"Ġcam":10492,"icip":10493,"term":10494,"Ġneut":10495,"ĠLisa":10496,"ieur":10497,"ĠJason":10498,"igen":10499,"quet":10500,"anga":10501,"iza":10502,"Ġdischar":10503,"Ġcounting":10504,"Ġsuccessfully":10505,"ĠCrown":10506,"OSE":10507,"power":10508,"ref":10509,"erving":10510,"Ġrele":10511,"ĠPut":10512,"ĠGra":10513,"ĠLib":10514,"pert":10515,"Ġflav":10516,"Ġdrill":10517,"Ġeighth":10518,"Ġchecking":10519,"Ġvisitors":10520,"Ġstructures":10521,"Ġtunnel":10522,"March":10523,"Ã¸":10524,"onz":10525,"Ġgolf":10526,"ĠLyn":10527,"Thomas":10528,"Ġleather":10529,"ruption":10530,"Ġhoriz":10531,"Ġclassical":10532,"Ġdevices":10533,"Ġexception":10534,"Ġblowing":10535,"ĠPeace":10536,"Ġpuppy":10537,"Ġscarcely":10538,"hattan":10539,"akespeare":10540,"Dude":10541,"Joseph":10542,"LSB":10543,"Sounds":10544,"Ġgoose":10545,"ĠPitt":10546,"Ġjazz":10547,"Ġinches":10548,"Ġspeaks":10549,"ĠAdminist":10550,"Except":10551,"Ġfrozen":10552,"ĠMargaret":10553,"97":10554,"July":10555,"present":10556,"aco":10557,"opy":10558,"ĠRiley":10559,"Ġsailed":10560,"agen":10561,"ĠUEFA":10562,"Though":10563,"Ġbuff":10564,"OUND":10565,"rophy":10566,"OWN":10567,"Ġmotiv":10568,"Plus":10569,"Ġpaintings":10570,"ĠHelen":10571,"Ġhorns":10572,"Ġtissue":10573,"Luc":10574,"RSB":10575,"such":10576,"orage":10577,"Ġthief":10578,"eters":10579,"Ġwashed":10580,"ĠMP":10581,"ĠBY":10582,"ainted":10583,"Ġsharing":10584,"Ġjungle":10585,"ĠGa":10586,"Ġvocal":10587,"Ġpeas":10588,"ĠBeck":10589,"Ġapproached":10590,"Ġfreak":10591,"ĠNorwe":10592,"Ġlifetime":10593,"Ġloaded":10594,"Ġinstruments":10595,"Ġcategory":10596,"Ġsubsequently":10597,"Ġfranchise":10598,"Ba":10599,"Joe":10600,"oning":10601,"ĠTel":10602,"ulu":10603,"ĠGR":10604,"ĠLower":10605,"ĠRio":10606,"Ġyourselves":10607,"igation":10608,"Ġ34":10609,"gger":10610,"Ġ1923":10611,"Ġcelebrated":10612,"Ġcomplications":10613,";/":10614,"Im":10615,"lan":10616,"esc":10617,"Ġthumb":10618,"Ġgap":10619,"amar":10620,"ĠHit":10621,"ĠHills":10622,"Ġsear":10623,"ĠKa":10624,"iper":10625,"Ġflour":10626,"Chief":10627,"Ġhurried":10628,"ĠParish":10629,"works":10630,"Def":10631,"Ġcycle":10632,"Ġargued":10633,"ĠBangl":10634,"Billboard":10635,"laughs":10636,"mates":10637,"Ġfairies":10638,"Ġtoss":10639,"ĠBuzz":10640,"Ġpros":10641,"Ġintense":10642,"Ġperf":10643,"Ġbund":10644,"Ġchew":10645,"Ġdepending":10646,"ĠSpace":10647,"Ġmode":10648,"Ġtopic":10649,"Ġmagician":10650,"ructure":10651,"ÃŃn":10652,"ĠUSA":10653,"Ġcovering":10654,"Ġterribly":10655,"ĠLouise":10656,"ĠMadrid":10657,"Ġbullshit":10658,"Ġcandidates":10659,"Ġpartnership":10660,"Ġbattery":10661,"Ġfurniture":10662,"Cle":10663,"Sweet":10664,"Ġfiles":10665,"Ġease":10666,"ĠRaw":10667,"elia":10668,"Ġspark":10669,"onsieur":10670,"Ġenthus":10671,"Ġconsent":10672,"Ġexposed":10673,"Ġpromote":10674,"White":10675,"Ġdeliber":10676,"ĠAgain":10677,"ĠConservative":10678,"ĠArgentine":10679,"Ġenthusi":10680,"Da":10681,"Pardon":10682,"gate":10683,"Ġol":10684,"Ġyo":10685,"Ġgates":10686,"rooge":10687,"ĠCD":10688,"alling":10689,"olt":10690,"Ġvow":10691,"reeze":10692,"Ġinsist":10693,"Ġanniversary":10694,"Ġsatellite":10695,"Ġclothing":10696,"Ġfeaturing":10697,"ĠPalace":10698,"Ġasshole":10699,"Ġindu":10700,"ĠWHO":10701,"iga":10702,"OUR":10703,"raph":10704,"Ġsounded":10705,"fecture":10706,"Ġsuperior":10707,"ICK":10708,"ĠFinland":10709,"Ġconsidering":10710,"Brit":10711,"DR":10712,"Ladies":10713,"oria":10714,"ĠPy":10715,"ĠLen":10716,"Ġconvention":10717,"agan":10718,"Ġundert":10719,"being":10720,"Ġsecrets":10721,"Ġdecades":10722,"Ġ87":10723,"Ġinfl":10724,"cribed":10725,"ĠProject":10726,"ĠHighness":10727,"Ġbucks":10728,"UE":10729,"hal":10730,"jamin":10731,"Ġcod":10732,"orus":10733,"Ġdirt":10734,"alph":10735,"othy":10736,"Ġstiff":10737,"ĠChat":10738,"Ġmeets":10739,"ĠRey":10740,"izza":10741,"thel":10742,"Ġscary":10743,"Ġscrap":10744,"ompson":10745,"cover":10746,"Ġworthy":10747,"ĠChristianity":10748,"Ġchapter":10749,"Ġaccompanied":10750,"HA":10751,"Pull":10752,"Sy":10753,"Things":10754,"inburgh":10755,"atoes":10756,"Ġcage":10757,"Ġgoat":10758,"ĠLanc":10759,"Ġconvent":10760,"ovel":10761,"ugs":10762,"Ġprompt":10763,"Ġhunger":10764,"Ġburnt":10765,"Ġpigs":10766,"Ġprinciples":10767,"Ġoccasionally":10768,"ĠMuslims":10769,"Ġultimately":10770,"Ġwidow":10771,"ĠConfederate":10772,"NER":10773,"nik":10774,"sub":10775,"Ġhesit":10776,"ushes":10777,"Ġstaring":10778,"ĠDallas":10779,"Ġshots":10780,"ĠEconom":10781,"Ġemotion":10782,"enez":10783,"Ġfellows":10784,"Ġfaithful":10785,"Ġassistance":10786,"Cons":10787,"iency":10788,"asures":10789,"stop":10790,"ĠBrig":10791,"ĠZe":10792,"Ġpainter":10793,"Ġ1921":10794,"Ġquarters":10795,"Fucking":10796,"Ġwitnesses":10797,"Ġenvironmental":10798,"Ġdynasty":10799,"Ġensure":10800,"Mary":10801,"Ty":10802,"bishop":10803,"gers":10804,"iate":10805,"atin":10806,"esh":10807,"otton":10808,"ĠSri":10809,"lyne":10810,"ĠBeng":10811,"ifest":10812,"Ġrape":10813,"ummer":10814,"ĠFarm":10815,"ĠNative":10816,"Ġunfortunately":10817,"avia":10818,"Ġadvis":10819,"Uncle":10820,"Ġsafely":10821,"Ġcircuit":10822,"Ġpackage":10823,"Ġimproved":10824,"ĠPinocchio":10825,"03":10826,"rm":10827,"zing":10828,"roit":10829,"ĠMas":10830,"ĠGill":10831,"ĠGordon":10832,"Ġchuck":10833,"Through":10834,"Ġunconscious":10835,"ecutive":10836,"Ġfrank":10837,"Ġspeaker":10838,"Ġparallel":10839,"December":10840,"Ġgradually":10841,"Ġprinted":10842,"Ġdynam":10843,"Ġbattles":10844,"92":10845,"Ð°":10846,"Ġpod":10847,"riv":10848,"ĠFa":10849,"ccer":10850,"beh":10851,"Ġconfess":10852,"Ġrifle":10853,"Ġperformances":10854,"Ġapproaching":10855,"LES":10856,"cular":10857,"pot":10858,"uis":10859,"Ġmos":10860,"ĠPR":10861,"Ġaboard":10862,"Ġcolours":10863,"def":10864,"Ġtreaty":10865,"Ġdestruction":10866,"Ġjudgment":10867,"Ġaltogether":10868,"November":10869,"Pe":10870,"sky":10871,"orph":10872,"alle":10873,"ĠTal":10874,"ĠTai":10875,"ĠLas":10876,"ĠJerry":10877,"Ġchir":10878,"apted":10879,"uda":10880,"Ġpartly":10881,"comune":10882,"ĠSyl":10883,"Ġintroduction":10884,"ĠMedal":10885,"ĠNorman":10886,"Ġlyrics":10887,"Mike":10888,"Yo":10889,"cia":10890,"top":10891,"var":10892,"Ãī":10893,"inated":10894,"Ġwives":10895,"Ġbail":10896,"Ġdull":10897,"Ġgrief":10898,"ĠMand":10899,"ĠMerc":10900,"ĠDream":10901,"igration":10902,"icken":10903,"Ġdefence":10904,"Ġcaps":10905,"related":10906,"Ġdespair":10907,"ĠObama":10908,"boo":10909,"del":10910,"mind":10911,"Ġfence":10912,"icial":10913,"irch":10914,"oute":10915,"ĠMaz":10916,"ĠTerry":10917,"opter":10918,"ĠFinn":10919,"actor":10920,"Ġregister":10921,"ĠĠĠĠĠĠĠĠĠ":10922,"ĠChristopher":10923,"Ġcuts":10924,"ĠColomb":10925,"ÃŃs":10926,"ĠQuebec":10927,"Ġnearest":10928,"Ġnearer":10929,"Ġassignment":10930,"Ġdreadful":10931,"MP":10932,"Mat":10933,"Mil":10934,"September":10935,"llor":10936,"ĠCook":10937,"ĠRights":10938,"Ġcontaining":10939,"Ġpayment":10940,"Ġdragged":10941,"ĠWhit":10942,"Ġobserv":10943,"Ġjunior":10944,"Charlie":10945,"ĠSOME":10946,"ĠCooper":10947,"ifty":10948,"ĠLag":10949,"ruits":10950,"Ġsentenced":10951,"Ġcleaning":10952,"Ġdifficulties":10953,"Ã¨re":10954,"Ġguarantee":10955,"East":10956,"North":10957,"ĠSHE":10958,"Ġhare":10959,"Ġcharts":10960,"ĠOcc":10961,"anka":10962,"shine":10963,"Ġpresum":10964,"Ġequivalent":10965,"gedy":10966,"Ġgrounds":10967,"ĠDemocrat":10968,"ĠAngel":10969,"Ġgarage":10970,"Ġoptions":10971,"success":10972,"ĠJefferson":10973,"Ġdisappointed":10974,"uerto":10975,"??":10976,"Master":10977,"nia":10978,"Ġtiger":10979,"Ġhen":10980,"iders":10981,"ader":10982,"Ġshops":10983,"ĠGulf":10984,"raig":10985,"ĠStill":10986,"Ġacceler":10987,"âĢľâĢĺ":10988,"Ġmusicians":10989,"ĠLeo":10990,"ĠDoes":10991,"Ġladder":10992,"Ġclimbing":10993,"ĠSeven":10994,"Ġtranslated":10995,"Ġscheduled":10996,"Ġtroubles":10997,"ĠHampshire":10998,"06":10999,"love":11000,"mil":11001,"ÅŁ":11002,"hester":11003,"ĠHim":11004,"ourt":11005,"Ġuncertain":11006,"grat":11007,"Ġsynd":11008,"ĠShut":11009,"ĠAnna":11010,"Ġsouthwest":11011,"Ġpanel":11012,"Colonel":11013,"Sho":11014,"bors":11015,"inations":11016,"Ġwoo":11017,"another":11018,"Ġgently":11019,"Ġbearing":11020,"idi":11021,"ĠPRO":11022,"ĠLinda":11023,"Ġpeek":11024,"Ġclay":11025,"Ġpointing":11026,"Ġdeeper":11027,"ĠDanish":11028,"Guess":11029,"ECT":11030,"Ġpatterns":11031,"Ġconsciousness":11032,"Clear":11033,"Same":11034,"wear":11035,"ims":11036,"ĠBird":11037,"ĠPress":11038,"ĠDennis":11039,"ellig":11040,"ĠUpper":11041,"Ġhappily":11042,"otto":11043,"Ġsubstant":11044,"Ġdunno":11045,"LING":11046,"Mag":11047,"Ġbored":11048,"Ġstake":11049,"ĠCole":11050,"oples":11051,"ĠGary":11052,"Ġwheat":11053,"apse":11054,"ĠKam":11055,"Ġwhereas":11056,"Inc":11057,"ĠIndust":11058,"plete":11059,"Ġadvoc":11060,"Ġimagination":11061,"Ġtickle":11062,"Ġhousing":11063,"Ġethnic":11064,"ĠCambridge":11065,"Ġexpanded":11066,"Ġcottage":11067,"Nor":11068,"cil":11069,"rant":11070,"ski":11071,"Äį":11072,"à¦":11073,"attered":11074,"opes":11075,"ĠWeb":11076,"Ġjerk":11077,"ĠVienna":11078,"aund":11079,"Ġfinishing":11080,"Ġinvite":11081,"Ġinsisted":11082,"Ġdesigner":11083,"Anyone":11084,"Ġruler":11085,"Ġbleeding":11086,"ĠJudge":11087,"birds":11088,"June":11089,"Mont":11090,"maker":11091,"oj":11092,"ĠAud":11093,"ĠTs":11094,"ĠDyn":11095,"elli":11096,"ĠRick":11097,"ouses":11098,"Ġgrat":11099,"shi":11100,"ĠAlice":11101,"Ġelsewhere":11102,"Ġmedals":11103,"blue":11104,"Ġdiscussed":11105,"ĠBaseball":11106,"October":11107,"vard":11108,"Ġtact":11109,"anth":11110,"Ġdeer":11111,"ĠLabor":11112,"ĠLiverpool":11113,"ĠVic":11114,"Ġfounding":11115,"Ġ42":11116,"Ġsteep":11117,"Ġsilk":11118,"ĠServices":11119,"ĠTransport":11120,"Ġapplications":11121,"Ġdramatic":11122,"IVE":11123,"Ġdanced":11124,"ĠAuthor":11125,"illing":11126,"ĠBert":11127,"Ġexcess":11128,"ĠThor":11129,"Ġlists":11130,"ONNA":11131,"Ġcreative":11132,"feld":11133,"Ġgrandma":11134,"Ġparticipate":11135,"VERY":11136,"Ġhonestly":11137,"Ġranked":11138,"Ġcontemporary":11139,"Rock":11140,"cond":11141,"fight":11142,"Ġtables":11143,"Ġbicy":11144,"asper":11145,"riors":11146,"Ġdoin":11147,"ĠFat":11148,"ĠJay":11149,"Ġchim":11150,"ĠKings":11151,"Ġreserve":11152,"ĠAlb":11153,"Ġpassenger":11154,"Ġ72":11155,"ebast":11156,"Ġelectron":11157,"Ġresulting":11158,"ĠAfghan":11159,"comfort":11160,"Ġinnov":11161,"Ġcitizen":11162,"Ġpurchased":11163,"Ġwithdraw":11164,"something":11165,"Ġexpedition":11166,"Ġbehaviour":11167,"Jeff":11168,"pos":11169,"tree":11170,"Ġfict":11171,"Ġdensity":11172,"Ġthunder":11173,"acious":11174,"ĠBah":11175,"ĠOp":11176,"Ġprev":11177,"lier":11178,"Ġentreprene":11179,"Ġrocket":11180,"Ġtested":11181,"gressive":11182,"67":11183,"Easy":11184,"GA":11185,"hour":11186,"Ġtroll":11187,"itchell":11188,"Ġhelic":11189,"thought":11190,"ĠLim":11191,"ĠRah":11192,"Ġblows":11193,"aware":11194,"ĠAnderson":11195,"Ġdisturb":11196,"Ġsurf":11197,"Ġfucked":11198,"Going":11199,"Ġpainful":11200,"ĠEdinburgh":11201,"Ġrenew":11202,"Ġmathematics":11203,"Ġ+":11204,"enos":11205,"Ġ(),":11206,"Ġpolite":11207,"Ġdecade":11208,"headed":11209,"Ġraising":11210,"Ġhopes":11211,"Ġexecution":11212,"Ġadopt":11213,"ĠWayne":11214,"ĠCaesar":11215,"OB":11216,"Ġcodes":11217,"hers":11218,"ĠNi":11219,"Ġshed":11220,"otta":11221,"Ã©s":11222,"bourg":11223,"Know":11224,"fare":11225,"eries":11226,"Ġoink":11227,"ĠFine":11228,"Ġshepherd":11229,"Ġpeep":11230,"ĠYet":11231,"ĠMarian":11232,"ĠBrid":11233,"Ġassure":11234,"Ġpublisher":11235,"ĠCommunity":11236,"Ġtraveling":11237,"Ġconvince":11238,"Ġsensitive":11239,"Ġattractive":11240,"Ġmurderer":11241,"Ġadvertising":11242,"Ġcasual":11243,"300":11244,"Bur":11245,"Mur":11246,"rane":11247,"whel":11248,"ĠDer":11249,"Ġrust":11250,"Ġcomments":11251,"Ġ1914":11252,"Ġpole":11253,"OUGH":11254,"2010":11255,"aima":11256,"Ġsummon":11257,"Ġgarbage":11258,"ĠIsraeli":11259,"ĠHotel":11260,"ĠPLAY":11261,"ĠKennedy":11262,"ĠGoogle":11263,"ĠNorwegian":11264,"VEN":11265,"Ġfoss":11266,"Ġnom":11267,"ĠLow":11268,"ĠOrigin":11269,"ĠVegas":11270,"obb":11271,"ften":11272,"shot":11273,"ĠThus":11274,"Donald":11275,"REAM":11276,"Ġcrossing":11277,"Ġstrip":11278,"ACE":11279,"Quite":11280,"Ġreveal":11281,"Indeed":11282,"Ġsequel":11283,"Ġgoddamn":11284,"Ġsituations":11285,"ĠBusiness":11286,"07":11287,"MAR":11288,"might":11289,"Ġmoth":11290,"Ġgra":11291,"ĠPhys":11292,"ĠChamber":11293,"Ġartific":11294,"Ġinfection":11295,"ĠBeast":11296,"ĠBaron":11297,"ĠXia":11298,"Ġlabour":11299,"Ġfortun":11300,"Ġaffection":11301,"Ġdiagnosed":11302,"Ġoccasions":11303,"thodox":11304,"Hm":11305,"asa":11306,"ĠSoph":11307,"ĠMach":11308,"ĠHad":11309,"olve":11310,"ĠFROM":11311,"Instead":11312,"Ġlets":11313,"Ġdrivers":11314,"regon":11315,"Ġfarmers":11316,"ĠRussell":11317,"ĠBulgar":11318,"Ac":11319,"Fred":11320,"Mic":11321,"kward":11322,"Ġcuri":11323,"Ġyield":11324,"Ġles":11325,"Ġlun":11326,"Ġnasty":11327,"Ġwept":11328,"Ġassembly":11329,"ĠFace":11330,"emed":11331,"Ġimprison":11332,"Shh":11333,"ĠWarren":11334,"Whoo":11335,"Ġtechniques":11336,"Ġtravelling":11337,"January":11338,"Ġempire":11339,"Ġregistered":11340,"Ġsurrender":11341,"ĠWelsh":11342,"Cal":11343,"ded":11344,"green":11345,"Ġtu":11346,"Ġgross":11347,"Ġhed":11348,"Ġclients":11349,"Ġthrust":11350,"Ġcrashed":11351,"Ġkills":11352,"Ġinstall":11353,"Ġmoder":11354,"borough":11355,"Ġrelationships":11356,"Ġcontrast":11357,"Ġcharming":11358,"Ġtherapy":11359,"vision":11360,"icle":11361,"Ġbee":11362,"ĠAqu":11363,"ĠCos":11364,"ĠLive":11365,"ĠLane":11366,"abe":11367,"Ġspaces":11368,"Ġque":11369,"sson":11370,"Ġtriumph":11371,"Ġelectronic":11372,"ĠProgram":11373,"Ġeffectively":11374,"Ġmurm":11375,"Ġmeantime":11376,"Ġmagazines":11377,"oppy":11378,"BLE":11379,"Mal":11380,"Morning":11381,"Roll":11382,"inian":11383,"Ġgig":11384,"level":11385,"ĠCarm":11386,"rah":11387,"ĠHeb":11388,"Ġrecall":11389,"annah":11390,"Ġmidst":11391,"Ġfaculty":11392,"Guys":11393,"Ġambulance":11394,"Especially":11395,"ĠIndonesia":11396,"93":11397,"Far":11398,"Mind":11399,"NY":11400,"Ugh":11401,"eight":11402,"tra":11403,"inea":11404,"ĠSent":11405,"ĠBond":11406,"Ġshy":11407,"Ġshaking":11408,"ĠRy":11409,"ĠNHL":11410,"oda":11411,"Ġspots":11412,"vernment":11413,"Ġconservative":11414,"Ġrepair":11415,"Ġstays":11416,"Ġsleepy":11417,"Ġcreep":11418,"Ġprocesses":11419,"ĠPhilip":11420,"Ġnovels":11421,"----\"":11422,"Hope":11423,"NT":11424,"uart":11425,"rection":11426,"rik":11427,"roph":11428,"ĠBomb":11429,"Ġinvisible":11430,"ĠCountry":11431,"Ġmuscles":11432,"Ġaffili":11433,"Number":11434,"isd":11435,"Ġcust":11436,"Ġmac":11437,"Ġgym":11438,"chi":11439,"ĠToday":11440,"ĠDJ":11441,"onde":11442,"Ġunemploy":11443,"obs":11444,"Ġrelatives":11445,"apper":11446,"insula":11447,"ĠJulia":11448,"Ġbucket":11449,"Ġelectricity":11450,"Ġfantasy":11451,"ĠKentucky":11452,"Ġliberty":11453,"Certainly":11454,"gon":11455,"ĠSister":11456,"Ġanch":11457,"ĠPapa":11458,"Ġdece":11459,"ĠLux":11460,"ĠLaura":11461,"Ġ1918":11462,"Ġbackwards":11463,"Ġkindly":11464,"Ġsynt":11465,"Ġrestored":11466,"ĠHeritage":11467,"ĠMontreal":11468,"ĠPeters":11469,"Ġlinked":11470,"Ġceased":11471,"odded":11472,"Holy":11473,"half":11474,"alan":11475,"ione":11476,"struction":11477,"ĠCBS":11478,"ĠJournal":11479,"Ġtrash":11480,"Ġdesired":11481,"Ġassets":11482,"Ġtribes":11483,"Ġwalks":11484,"Ġpromotion":11485,"Ġsolar":11486,"Ġtranslation":11487,"68":11488,"Nat":11489,"gi":11490,"gro":11491,"ige":11492,"mate":11493,"mund":11494,"Ġcaut":11495,"ĠHunter":11496,"ĠBACK":11497,"ĠNelson":11498,"Ġcongrat":11499,"brid":11500,"Ġdefine":11501,"apsed":11502,"Ġhosted":11503,"Ġperspective":11504,"ĠSingh":11505,"Ġquantum":11506,"April":11507,"Ġwisdom":11508,"SR":11509,"die":11510,"Â²":11511,"ĠBed":11512,"ĠKl":11513,"ĠChan":11514,"aleb":11515,"Ġinnit":11516,"Ġfemales":11517,"ĠArea":11518,"ĠRobin":11519,"Ġdemands":11520,"Ġpillow":11521,"ĠAttorney":11522,"Ġunexpected":11523,"-[":11524,"Mac":11525,"iti":11526,"Ġtomb":11527,"Ġpond":11528,"ĠIvan":11529,"Ġec":11530,"ĠCatherine":11531,"ĠMicro":11532,"ĠBuck":11533,"Ġshar":11534,"Ġaccord":11535,"Ġvisiting":11536,"Ġsurprising":11537,"Ġmulti":11538,"ravo":11539,"Ġqualified":11540,"Ġdepartments":11541,"Ġaspects":11542,"Ġborders":11543,"''":11544,"Cool":11545,"Hit":11546,"Home":11547,"eve":11548,"Ãł":11549,"Ġbars":11550,"Ġfiring":11551,"ĠIr":11552,"Ġstall":11553,"ĠTar":11554,"ĠWILL":11555,"ĠGONNA":11556,"estly":11557,"ĠKum":11558,"Ġscoring":11559,"Ġflies":11560,"ocking":11561,"Ġcolonel":11562,"ĠForces":11563,"Ġwhisper":11564,"onies":11565,"itement":11566,"Ġmaj":11567,"Ġgifts":11568,"ĠCre":11569,"illery":11570,"ĠRat":11571,"iels":11572,"Ġvolleyball":11573,"Ġdepression":11574,"Ġtriangle":11575,"ĠOFF":11576,"ubbish":11577,"Ġcantons":11578,"Ġremarkable":11579,"Ġdivorced":11580,"Ġconstructed":11581,"Cast":11582,"Ġincl":11583,"verty":11584,"ĠCEO":11585,"ctic":11586,"ĠBud":11587,"ĠBox":11588,"ĠLion":11589,"ĠLuke":11590,"Ġadj":11591,"Ġflung":11592,"cycle":11593,"Ġrig":11594,"Ġparticles":11595,"Ġhumanity":11596,"ĠFlight":11597,"ragon":11598,"ĠAtlanta":11599,"English":11600,"Pop":11601,"iu":11602,"uine":11603,"Ġou":11604,"erior":11605,"Ġpile":11606,"ĠMess":11607,"ĠMind":11608,"ĠLast":11609,"ĠRun":11610,"ĠNOW":11611,"quest":11612,"Ġbrains":11613,"azy":11614,"Ġregiment":11615,"asha":11616,"Ġrefuge":11617,"Ġsignals":11618,"Ġprovinces":11619,"Ġmerry":11620,"AME":11621,"Ġexecuted":11622,"Ġcriticism":11623,"04":11624,"08":11625,"Supp":11626,"free":11627,"piece":11628,"Ġq":11629,"Ġted":11630,"Ġtack":11631,"alion":11632,"ĠTR":11633,"ĠDu":11634,"Ġhers":11635,"ĠChildren":11636,"wealth":11637,"OUS":11638,"Ġ49":11639,"Ġaccent":11640,"arrant":11641,"Ġmaintained":11642,"OMAN":11643,"Ġsuggests":11644,"Ġdemocracy":11645,"Born":11646,"Ġturt":11647,"Ġhipp":11648,"ĠCow":11649,"ĠPear":11650,"Ġliver":11651,"ĠWright":11652,"ĠNice":11653,"Ġglory":11654,"Ġ83":11655,"Ġ89":11656,"Ġsmallest":11657,"Ġconfront":11658,"ĠCommunist":11659,"Ġregularly":11660,"Ġstretch":11661,"ĠSilver":11662,"02":11663,"Woman":11664,"cers":11665,"vo":11666,"Ġreception":11667,"Ġsty":11668,"ĠWOULD":11669,"ĠDark":11670,"Ġshares":11671,"istinct":11672,"ĠOregon":11673,"ocation":11674,"LLY":11675,"entlemen":11676,"Ġbullets":11677,"try":11678,"Ã¥":11679,"Ġdict":11680,"seen":11681,"thy":11682,"Ġabst":11683,"Ġsometime":11684,"Ġsla":11685,"Ġ55":11686,"Ġdrown":11687,"ĠShakespeare":11688,"Ġconsisted":11689,"ifications":11690,"ĠSpencer":11691,"ĠAustin":11692,"ambers":11693,"ĠWhich":11694,"ĠManhattan":11695,"Ġdenied":11696,"Ġwrapped":11697,"!'":11698,"Eight":11699,"dig":11700,"fin":11701,"mic":11702,"rise":11703,"ndered":11704,"Ġbills":11705,"enz":11706,"Ġtoler":11707,"Ġsod":11708,"Ġchairs":11709,"ĠThose":11710,"ailing":11711,"ĠDead":11712,"Ġ64":11713,"Ġdrives":11714,"END":11715,"Ġstealing":11716,"Ġshouting":11717,"arette":11718,"ĠMemorial":11719,"Ġconsequences":11720,"Ġcongressional":11721,"Ġcomedian":11722,"Pass":11723,"Que":11724,"lings":11725,"Ġlaughter":11726,"Ġefficient":11727,"Ġkm":11728,"Ġange":11729,"ĠProp":11730,"olph":11731,"istical":11732,"Ġtrump":11733,"Ġhelpful":11734,"ANS":11735,"Ġmush":11736,"Ġradical":11737,"Ġphotographer":11738,"Ġheroes":11739,"ĠAlfred":11740,"Ġtowel":11741,"Sighs":11742,"mble":11743,"inating":11744,"rehens":11745,"ĠBund":11746,"ifted":11747,"ĠNam":11748,"oodle":11749,"Ġprospect":11750,"ĠVik":11751,"pless":11752,"Ġpoverty":11753,"Ġawait":11754,"Anybody":11755,"Ġrobot":11756,"Ġcustomer":11757,"Ġtricks":11758,"Ġemotions":11759,"?'":11760,"CAR":11761,"Coming":11762,"Id":11763,"Ġtang":11764,"atum":11765,"Ġgre":11766,"Ġnodded":11767,"ĠSE":11768,"rob":11769,"Ġ1000":11770,"ĠPuerto":11771,"Ġvig":11772,"ĠKaren":11773,"Ġmustn":11774,"Ġsubstance":11775,"Ġevac":11776,"Ġmarkets":11777,"Ġpublication":11778,"Ġprivile":11779,"Trust":11780,"Ġburden":11781,"Ġattracted":11782,"Ġpurchase":11783,"ĠBroadway":11784,"Ġfeathers":11785,"Ġtremendous":11786,"Best":11787,"Half":11788,"ME":11789,"Norm":11790,"rac":11791,"Ġcared":11792,"Ġlane":11793,"outing":11794,"ĠGor":11795,"abl":11796,"Ġchip":11797,"ĠYug":11798,"ĠYouth":11799,"Ġdishes":11800,"Ġ47":11801,"ashi":11802,"arrondissements":11803,"Ġballoon":11804,"Ġgenetic":11805,"Ġsaddle":11806,"strong":11807,"ĠLaure":11808,"Ġwaist":11809,"ĠMountains":11810,"Ġimpressive":11811,"Ġalphabet":11812,"produ":11813,"ww":11814,"Ġsore":11815,"Ġsank":11816,"Ġmice":11817,"Ġheir":11818,"Ġrehe":11819,"ĠBry":11820,"Ġcancell":11821,"Ġsock":11822,"ĠJose":11823,"Ġplates":11824,"Ġsauce":11825,"Ġcliff":11826,"arming":11827,"Ġrepresentation":11828,"Ġdelivery":11829,"Ġpanic":11830,"Ġcontrary":11831,"ĠAthlet":11832,"58":11833,"Kn":11834,"bai":11835,"ture":11836,"Ġtheories":11837,"rels":11838,"Ġnaima":11839,"acre":11840,"ĠCass":11841,"ĠHIS":11842,"ĠRachel":11843,"Ġoverwhel":11844,"ĠVincent":11845,"ĠYouT":11846,"Ġincorporated":11847,"ikes":11848,"Ġexperiments":11849,"Ġhopefully":11850,"ĠPhill":11851,"Ġpoliticians":11852,"Ġdrops":11853,"Otherwise":11854,"Ġencourage":11855,"Ġrhythm":11856,"Gold":11857,"orp":11858,"arus":11859,"Ġnerves":11860,"ĠMs":11861,"ĠHappy":11862,"ĠPap":11863,"Ġshone":11864,"Ġsocks":11865,"Ġ1917":11866,"Ġmanip":11867,"Ġcompass":11868,"Ġpersonnel":11869,"uki":11870,"irmingham":11871,"Ġattempts":11872,"Ġvanished":11873,"smith":11874,"Ġlegislation":11875,"hee":11876,"Ġhay":11877,"Ġdowntown":11878,"arse":11879,"ĠCher":11880,"uru":11881,"ĠDarling":11882,"Ġrit":11883,"Ġrating":11884,"ĠJa":11885,"ĠKid":11886,"Ġquote":11887,"ĠThompson":11888,"Ġsurve":11889,"Ġ78":11890,"Ġbehave":11891,"Ġcoron":11892,"Ġdesignated":11893,"ĠAbb":11894,"Ġpurse":11895,"Unfortunately":11896,"Ġsticks":11897,"Ġblanket":11898,"Mer":11899,"Mel":11900,"sil":11901,"Ġfer":11902,"Ġnav":11903,"alp":11904,"Ġretain":11905,"Ġanth":11906,"uno":11907,"Ġjoking":11908,"Ġchrist":11909,"ĠKeep":11910,"Ġexpansion":11911,"Ġvalid":11912,"ĠAmong":11913,"Ġperiods":11914,"Ġimagined":11915,"Ġneighbors":11916,"Ġcommunicate":11917,"Ġquantity":11918,"ĠSocialist":11919,"Ġchoices":11920,"Ġenforce":11921,"issa":11922,"Ġindex":11923,"egro":11924,"Ġfewer":11925,"Ġpresentation":11926,"Ġcompetitions":11927,"Ġveter":11928,"Ġincreases":11929,"Ġtouching":11930,"believ":11931,"avalry":11932,"ĠDetroit":11933,"ĠWalker":11934,"ĠUtah":11935,"hot":11936,"rr":11937,"itate":11938,"anÃ§":11939,"Ġhire":11940,"Ġlend":11941,"ĠCrow":11942,"ĠTan":11943,"ĠList":11944,"agraph":11945,"acey":11946,"Ġovercome":11947,"Ġresidence":11948,"hole":11949,"Ġlandscape":11950,"Ġawkward":11951,"Ġpractically":11952,"Ġsuspected":11953,"Ġcartoon":11954,"Ġwritings":11955,"ĠRailway":11956,"Ġbacteria":11957,"Ġtom":11958,"leans":11959,"Ġbeasts":11960,"adays":11961,"ĠGun":11962,"ĠNBC":11963,"Ġ46":11964,"ANG":11965,"airo":11966,"Ġtrapped":11967,"Ġdelicate":11968,"Ġsuggestion":11969,"Ġtraveled":11970,"Ġvoiced":11971,"ĠImperial":11972,"Ġnursing":11973,"Ġestablishment":11974,"ju":11975,"imore":11976,"river":11977,"Ġstro":11978,"ĠDoc":11979,"neum":11980,"Ġdifferently":11981,"Ġtrib":11982,"Ġpossessed":11983,"Ġsuccessor":11984,"unicipality":11985,"Ġnetworks":11986,"Ġfeeding":11987,"ĠMelbourne":11988,"Ġfloating":11989,"ĠLegisl":11990,"Ġrugby":11991,"February":11992,"Won":11993,"gre":11994,"grave":11995,"jud":11996,"sn":11997,"Î¿":11998,"Ġarose":11999,"Ġtheta":12000,"itis":12001,"anim":12002,"Ġhitting":12003,"Ġey":12004,"urrent":12005,"Ġlip":12006,"ĠGrey":12007,"ĠKit":12008,"Ġ77":12009,"umbo":12010,"ĠWarwick":12011,"Ġdescribes":12012,"Ġconvicted":12013,"Ġcompanions":12014,"Ġsuitable":12015,"ĠCharlotte":12016,"ĠSusan":12017,"ĠMovement":12018,"AA":12019,"gage":12020,"sw":12021,"ĠMum":12022,"Ġashes":12023,"ĠWoman":12024,"ĠLarry":12025,"ĠOR":12026,"ĠOd":12027,"cio":12028,"Ġdisgu":12029,"Ġbush":12030,"rooms":12031,"Ġcivilization":12032,"Ġremarked":12033,"Ġrarely":12034,"Ġintelligent":12035,"Ġguitarist":12036,"Ġdialect":12037,"Ġalleged":12038,"songwriter":12039,"Ġmagnificent":12040,"Ġslavery":12041,"Ra":12042,"SHE":12043,"Ð¾":12044,"ingo":12045,"oral":12046,"Ġpunk":12047,"Ġwhilst":12048,"riet":12049,"...!":12050,"ĠRain":12051,"Ġsheets":12052,"Ġdownload":12053,"Ġsteady":12054,"ĠOrange":12055,"Ġconsideration":12056,"ĠDespite":12057,"Police":12058,"Ġexplosion":12059,"Follow":12060,"Med":12061,"Ol":12062,"»¿":12063,"ï»¿":12064,"ĶĢ":12065,"Ġgle":12066,"amas":12067,"ĠRap":12068,"ĠNag":12069,"abi":12070,"Ġconsec":12071,"Ġ1919":12072,"Ġworship":12073,"avan":12074,"ĠThrough":12075,"Ġcoin":12076,"Ġindicated":12077,"Ġindicate":12078,"umbent":12079,"Ġconnections":12080,"Ġignore":12081,"colm":12082,"miral":12083,"Ġdatab":12084,"vant":12085,"Ġbust":12086,"Ġflex":12087,"Ġfires":12088,"roid":12089,"ĠPink":12090,"ieval":12091,"Ġscandal":12092,"retched":12093,"astery":12094,"ISH":12095,"ĠJustin":12096,"Neither":12097,"Ġrebu":12098,"Ġchemistry":12099,"ĠTestament":12100,"ĠTechnology":12101,"Ġpremiered":12102,"Ġfictional":12103,"Sing":12104,"Ġtons":12105,"Ġbind":12106,"Ġcries":12107,"Ġmales":12108,"Ġdiver":12109,"Ġpills":12110,"Ġinsect":12111,"idays":12112,"ĠSean":12113,"ĠHo":12114,"Ġneur":12115,"resa":12116,"ĠVis":12117,"hoe":12118,"Ġmothers":12119,"ĠAbd":12120,"Ġresemb":12121,"rolling":12122,"Ġjudges":12123,"Ġemployment":12124,"design":12125,"Ġrequirements":12126,"zerbai":12127,"Ġvegetables":12128,"Ġwhistle":12129,"Ġdeaf":12130,"\"'":12131,"Hard":12132,"vas":12133,"atics":12134,"ĠSac":12135,"ĠGhost":12136,"ampton":12137,"Ġreporter":12138,"Ġairplane":12139,"Ġthanked":12140,"Ġbeds":12141,"Ġapproval":12142,"Ġencoun":12143,"ĠGOOD":12144,"Ġconcrete":12145,"Ġwandered":12146,"ĠLeader":12147,"Ġgalaxy":12148,"Land":12149,"PER":12150,"tit":12151,"Ġdug":12152,"ĠIl":12153,"icon":12154,"usk":12155,"adt":12156,"Ġwashing":12157,"ctors":12158,"ĠLucky":12159,"ĠRou":12160,"ĠRow":12161,"Ġexit":12162,"cling":12163,"ahn":12164,"Ġrecovery":12165,"ĠMarion":12166,"grade":12167,"Ġparad":12168,"Ġdesigns":12169,"ĠXX":12170,"Ġselfish":12171,"BR":12172,"eat":12173,"pers":12174,"went":12175,"Ġreli":12176,"ĠScientists":12177,"ĠCOULD":12178,"Ġnotion":12179,"ĠDin":12180,"ista":12181,"Ġchin":12182,"Ġvital":12183,"iph":12184,"ĠVenez":12185,"Ġ44":12186,"ologies":12187,"nothing":12188,"sterdam":12189,"Ġhurricane":12190,"Ġestimate":12191,"ASE":12192,"ĠTele":12193,"Ġcloset":12194,"ĠWoody":12195,"ĠCarlos":12196,"Ġconcentration":12197,"ĠLloyd":12198,"Illustration":12199,"Meanwhile":12200,"sighs":12201,"vation":12202,"years":12203,"Ġtum":12204,"Ġtube":12205,"Ġbury":12206,"Ġfisher":12207,"Ġpoo":12208,"ĠBuff":12209,"Ġchronic":12210,"ĠKr":12211,"ĠPradesh":12212,"ĠAnim":12213,"Ġ81":12214,"Ġwinners":12215,"Ġdivine":12216,"Ġavo":12217,"election":12218,"ĠPeru":12219,"Ġpreparing":12220,"Ġsurvival":12221,"56":12222,"Alp":12223,"bul":12224,"lord":12225,"mare":12226,"Ġwagon":12227,"Ġmand":12228,"Ġfeared":12229,"aration":12230,"icity":12231,"ĠSAY":12232,"rost":12233,"ĠChen":12234,"ĠEagle":12235,"ĠKill":12236,"ĠHeart":12237,"udible":12238,"ĠChild":12239,"Ġbreed":12240,"REAT":12241,"Ġplanets":12242,"Ġdrift":12243,"Ġengagement":12244,"Ġsurviv":12245,"ĠCathedral":12246,"Ġsuspicious":12247,"fortunate":12248,"Ġanxiety":12249,"COME":12250,"Hol":12251,"Ġwax":12252,"Ġbin":12253,"Ġbounce":12254,"Ġcows":12255,"Ġpunch":12256,"Ġgrie":12257,"Ġalert":12258,"ortion":12259,"ĠStorm":12260,"Ġcompens":12261,"Ġadapted":12262,"Ġlocations":12263,"ĠScrooge":12264,"Ġvector":12265,"Ġdropping":12266,"Ter":12267,"loe":12268,"oi":12269,"Ġneuro":12270,"ĠFollowing":12271,"onda":12272,"Ġgrain":12273,"Ġgenerous":12274,"Ġcompeting":12275,"Ġappearing":12276,"Ġlawn":12277,"Ġstriking":12278,"asketball":12279,"Ġpockets":12280,"Ġwrestling":12281,"Ġdisgusting":12282,"Ġhospitals":12283,"elect":12284,"vals":12285,"Ġwip":12286,"Ġoven":12287,"Ġdated":12288,"Ġrelevant":12289,"ammed":12290,"ĠMAR":12291,"illes":12292,"ĠBO":12293,"ĠTIME":12294,"ĠDong":12295,"Ġorg":12296,"ivan":12297,"Ġperceived":12298,"ĠExecutive":12299,"ĠPalmer":12300,"ĠEmily":12301,"Ġvoting":12302,"track":12303,"Ġschol":12304,"94":12305,"Bro":12306,"Ev":12307,"PA":12308,"Sk":12309,"Walk":12310,"Water":12311,"âĶĢ":12312,"hero":12313,"Ġdent":12314,"ayne":12315,"ĠCas":12316,"illo":12317,"ĠBirmingham":12318,"ĠFriends":12319,"oyage":12320,"Ġmatrix":12321,"Ġconspir":12322,"Ġglance":12323,"Ġ91":12324,"Ġ93":12325,"arrator":12326,"Ġgovernments":12327,"Almost":12328,"ĠOrleans":12329,"Ġcontrols":12330,"Ġtrusted":12331,"ĠPerhaps":12332,"Ġverse":12333,"ĠMontana":12334,"Ġdeny":12335,"Ġimmigr":12336,"ĠAgency":12337,"ĠHindu":12338,"Ġlinear":12339,"onymous":12340,"Biography":12341,"Sarah":12342,"HI":12343,"Ġfits":12344,"Ġreverse":12345,"ĠMaur":12346,"ĠLis":12347,"estyle":12348,"ĠChand":12349,"Ġdispl":12350,"Ġsurgeon":12351,"Ġinvitation":12352,"INGS":12353,"Ġforehead":12354,"Ġsends":12355,"Ġinvolves":12356,"ĠGOING":12357,"Ġwealthy":12358,"Ġventure":12359,"Ġhydrogen":12360,"ĠNobel":12361,"Ass":12362,"xual":12363,"Ġmister":12364,"Ġfiled":12365,"Ġdared":12366,"Ġweigh":12367,"ĠSuch":12368,"Ġstead":12369,"ĠCR":12370,"ĠDawson":12371,"Ġexceed":12372,"asses":12373,"ĠVI":12374,"izer":12375,"Ġkindness":12376,"2014":12377,"Ġ82":12378,"Ġreprodu":12379,"ĠĠĠĠĠĠĠĠĠĠ":12380,"Ġgenerations":12381,"Ġexplo":12382,"Ġlearnt":12383,"Ġmistaken":12384,"Ġsalary":12385,"Ġhunter":12386,"Ġceiling":12387,"Ġscrewed":12388,"Ġtravelled":12389,"ĠCuba":12390,"Ġairline":12391,"Ġinspiration":12392,"DA":12393,"sing":12394,"Ġauth":12395,"Ġsar":12396,"aton":12397,"Ġborough":12398,"omon":12399,"imo":12400,"Ġstorage":12401,"ĠHand":12402,"ĠBatt":12403,"ĠBey":12404,"ĠTun":12405,"ĠListen":12406,"Ġpeoples":12407,"show":12408,"Ġcarries":12409,"arson":12410,"Ġhighlight":12411,"Ġskull":12412,"Forgive":12413,"Ġcrept":12414,"Ġinvolving":12415,"Ġdiseases":12416,"ographical":12417,"ĠBetween":12418,"ĠBrooklyn":12419,"ouncillor":12420,"Calm":12421,"Having":12422,"IRE":12423,"XT":12424,"lines":12425,"parent":12426,"Ġsessions":12427,"orable":12428,"Ġpairs":12429,"Ġgorge":12430,"Ġnaught":12431,"oped":12432,"arted":12433,"ĠJake":12434,"emen":12435,"Ġscen":12436,"Ġ84":12437,"reaming":12438,"Ġadmire":12439,"THEY":12440,"Ġmultiply":12441,"Ġcameras":12442,"Ġmagnetic":12443,"Ġgravity":12444,"\"-":12445,",.":12446,"Bo":12447,"Save":12448,"haw":12449,"supp":12450,"Ġsink":12451,"Ġoath":12452,"ĠABC":12453,"ifies":12454,"ĠTob":12455,"ells":12456,"ĠLuther":12457,"ĠJama":12458,"orting":12459,"necess":12460,"Ġdestiny":12461,"Ġconcerning":12462,"Ġcalendar":12463,"Ġarrondissement":12464,"ductions":12465,"Ġderived":12466,"Ġsituated":12467,"zel":12468,"isn":12469,"Ġpace":12470,"Ġinaug":12471,"ĠCold":12472,"chy":12473,"children":12474,"unted":12475,"Ġchasing":12476,"ovich":12477,"ubs":12478,"Ġamateur":12479,"Ġfinest":12480,"omme":12481,"Ġ68":12482,"Ġprofile":12483,"Ġexcitement":12484,"Ġpacked":12485,"Ġdetailed":12486,"ĠNazi":12487,"ĠTaiwan":12488,"ebastian":12489,"Air":12490,"Harry":12491,"VI":12492,"Ġtag":12493,"Ġmild":12494,"Ġdancer":12495,"amo":12496,"ĠAF":12497,"ĠAgent":12498,"cht":12499,"ĠBab":12500,"assy":12501,"close":12502,"Ġsecured":12503,"Ġhomework":12504,"Ġowns":12505,"eges":12506,"Ġpublishing":12507,"borne":12508,"Ġopponent":12509,"Ġspinning":12510,"Ġvessels":12511,"Ġjurisd":12512,"Ain":12513,"Boss":12514,"isi":12515,"Ġbapt":12516,"imens":12517,"ĠMack":12518,"ĠFuck":12519,"ĠAnnie":12520,"Ġ66":12521,"Ġ76":12522,"Ġlaying":12523,"ĠNext":12524,"Ġviolin":12525,"Ġthreatening":12526,"Ġseventeen":12527,"ĠMetro":12528,"Ġoccupation":12529,"ĠFrederick":12530,"Ġmechanical":12531,"Ġvibr":12532,"Ġbombs":12533,"Ġcinema":12534,"comfortable":12535,"Af":12536,"Either":12537,"Sat":12538,"Sister":12539,"hall":12540,"iop":12541,"Ġlou":12542,"Ġlux":12543,"Ġgreed":12544,"acco":12545,"riel":12546,"ĠMak":12547,"ĠBass":12548,"ilation":12549,"orence":12550,"ĠChance":12551,"enson":12552,"Ġresolved":12553,"Ġswept":12554,"Ġ92":12555,"Ġprett":12556,"pring":12557,"Ġapost":12558,"ĠRichmond":12559,"ĠSamuel":12560,"Ġcontribution":12561,"Daniel":12562,"Ġchallenges":12563,"natural":12564,"Ġvulner":12565,"ĠBangladesh":12566,"HOW":12567,"Suddenly":12568,"fr":12569,"fell":12570,"high":12571,"veland":12572,"ifully":12573,"ĠDoe":12574,"Ġrubbish":12575,"ipur":12576,"Ġapparent":12577,"Ġcounts":12578,"azine":12579,"ĠReal":12580,"Ġignor":12581,"Ġexhibition":12582,"Lie":12583,"Might":12584,"both":12585,"Ġtast":12586,"Ġpad":12587,"Ġpatch":12588,"Ġbeef":12589,"idal":12590,"geons":12591,"Ġshark":12592,"Ġrang":12593,"acket":12594,"Ġunl":12595,"Ġswitched":12596,"ĠJanet":12597,"ĠAllah":12598,"Ġprotests":12599,"Ġradiation":12600,"Ġkissing":12601,"ĠEnv":12602,"Ġdistinguished":12603,"Max":12604,"iens":12605,"lins":12606,"woo":12607,"itus":12608,"Ġfame":12609,"ĠAirl":12610,"Ġseed":12611,"ulating":12612,"ĠEnt":12613,"Ġcargo":12614,"ublin":12615,"ierra":12616,"Ġextension":12617,"ĠChristians":12618,"Ġgenuine":12619,"Ġprotecting":12620,"ALLY":12621,"Seven":12622,"Ġmurders":12623,"Ġdeparture":12624,"Ġgoddess":12625,"Ġprotein":12626,"ĠSometimes":12627,"Ġcorporate":12628,"Ġartificial":12629,"09":12630,"Count":12631,"Drop":12632,"Feel":12633,"High":12634,"iqu":12635,"Ġtel":12636,"Ġgene":12637,"ĠAge":12638,"ĠMust":12639,"uras":12640,"Ġ120":12641,"artial":12642,"active":12643,"tingham":12644,"Ġtransition":12645,"Ġdreaming":12646,"ĠAmsterdam":12647,"Ġninth":12648,"Ġenjoying":12649,"Ġsouls":12650,"Ġambassador":12651,"Ġlinks":12652,"Ġencouraged":12653,"Ġpraised":12654,"Ġannouncement":12655,"ranean":12656,".--":12657,"BO":12658,"Ever":12659,"Imag":12660,"Laughs":12661,"Ġpneum":12662,"steps":12663,"ĠWr":12664,"Ġmanifest":12665,"Ġrod":12666,"Ġroses":12667,"Ġcompare":12668,"Ġconscience":12669,"ommod":12670,"untary":12671,"Ġsneak":12672,"Ġreduction":12673,"Ġlawyers":12674,"Ġboundary":12675,"ĠTerrit":12676,"Ġdelegates":12677,"ĠAuthority":12678,"hoo":12679,"sa":12680,"Ġabund":12681,"Ġclue":12682,"bean":12683,"ĠBrand":12684,"Ġrealise":12685,"coat":12686,"Ġbarn":12687,"Ġstatements":12688,"Ġruling":12689,"Plot":12690,"ĠDelhi":12691,"Ġsuspended":12692,"Ġcontributed":12693,"Ġautomatic":12694,"Ġresidential":12695,"Ġarrangement":12696,"Ġconstituency":12697,"ĠConstantine":12698,"Haven":12699,"Port":12700,"Ġly":12701,"ĠBou":12702,"ĠTreat":12703,"udson":12704,"ĠUl":12705,"Ġtramp":12706,"Ġcler":12707,"Ġbrick":12708,"Ġassured":12709,"Ġpressed":12710,"Ġtrading":12711,"Ġcultiv":12712,"Ġfemin":12713,"Ġsuspic":12714,"Ġsolemn":12715,"Ġaccomplished":12716,"Ġthirsty":12717,"Sa":12718,"zh":12719,"Ġfet":12720,"Ġinject":12721,"roc":12722,"still":12723,"Ġstove":12724,"ĠBear":12725,"Ġseeds":12726,"ĠKon":12727,"sels":12728,"uba":12729,"beat":12730,"Ġ54":12731,"ĠAlaska":12732,"ĠSha":12733,"Ġlayer":12734,"Ġdevoted":12735,"ĠExcuse":12736,"Ġanticip":12737,"Ġterrorist":12738,"Ġuniversal":12739,"Ġsubsequent":12740,"Ġderivative":12741,"Ġearthquake":12742,"Bas":12743,"wright":12744,"Ġwipe":12745,"encing":12746,"Ġhence":12747,"ĠSud":12748,"Ġumb":12749,"ĠBri":12750,"ĠBenn":12751,"Ġsections":12752,"union":12753,"unction":12754,"ĠGir":12755,"Ġrats":12756,"ĠĠĠĊ":12757,"ĠRea":12758,"rage":12759,"agram":12760,"Ġneedle":12761,"Ġsignature":12762,"ĠScots":12763,"Ġ250":12764,"Ġpalm":12765,"ĠSeattle":12766,"Cheers":12767,"Ġscreenwriter":12768,"Ġweakness":12769,"ĠApple":12770,"ĠMickey":12771,"Whether":12772,"ĠHungary":12773,"Ġconcluded":12774,"ĠUniversal":12775,"ĠHitler":12776,"believable":12777,"Jane":12778,"Lee":12779,"Off":12780,"phy":12781,"sis":12782,"Ġcouch":12783,"org":12784,"icular":12785,"ulse":12786,"Ġsuits":12787,"oded":12788,"Ġvirgin":12789,"ĠKan":12790,"ĠHend":12791,"ĠStew":12792,"actory":12793,"uhammad":12794,"ASS":12795,"Ġcircles":12796,"ĠKhamba":12797,"Ġloads":12798,"Between":12799,"Ġsymbols":12800,"Ġvariables":12801,"Ġdomain":12802,"Ġfraud":12803,"ĠPitts":12804,"Jos":12805,"lia":12806,"squ":12807,"Ġton":12808,"arity":12809,"Ġgest":12810,"adia":12811,"imm":12812,"ĠCry":12813,"Ġchurches":12814,"Ġintr":12815,"Ġdisorder":12816,"Ġmonk":12817,"Ġplanes":12818,"ĠCommunic":12819,"ĠHarvard":12820,"Ġdiaper":12821,"Ġobservation":12822,"Ġaudio":12823,"ĠBelgian":12824,"Ġsuitcase":12825,"Prince":12826,"Ġassociate":12827,"ĠLOOK":12828,"Ġcontroversial":12829,"ĠDiego":12830,"Cla":12831,"End":12832,"RS":12833,"Ġcalf":12834,"amation":12835,"ĠSaud":12836,"seven":12837,"ĠRangers":12838,"estone":12839,"Ġ1912":12840,"Ġblown":12841,"Ġ57":12842,"yeh":12843,"ĠMcK":12844,"Ġlowest":12845,"Ġlieutenant":12846,"Ġpeaceful":12847,"Ġdressing":12848,"itarian":12849,"Ġrebell":12850,"ĠBuilding":12851,"Ġratio":12852,"87":12853,"Green":12854,"course":12855,"lE":12856,"post":12857,"zard":12858,"isen":12859,"ĠSaf":12860,"ĠMitchell":12861,"ĠOri":12862,"ĠVas":12863,"Ġaddressed":12864,"Ġextract":12865,"Ġtragedy":12866,"Ġhonored":12867,"Ġreporting":12868,"Ġgenes":12869,"Blue":12870,"Ġarchae":12871,"Ġsenses":12872,"GB":12873,"Lady":12874,"Reg":12875,"Send":12876,"list":12877,"Ġcotton":12878,"Ġfears":12879,"Ġtore":12880,"othe":12881,"Ġerect":12882,"ĠAires":12883,"Ġalike":12884,"aping":12885,"ĠOliver":12886,"ĠEmer":12887,"Ġvs":12888,"ĠKu":12889,"Ġune":12890,"Ġ43":12891,"Ġprovision":12892,"Ġbottles":12893,"Ġpopularity":12894,"OST":12895,"Ġoptim":12896,"Ġadventures":12897,"Ġacknowled":12898,"ĠBaltimore":12899,"igenous":12900,"ĠAfghanistan":12901,"nice":12902,"tle":12903,"amous":12904,"Ġassemb":12905,"ĠPur":12906,"ĠGarden":12907,"ĠGraham":12908,"ĠFund":12909,"Ġexternal":12910,"Ġquid":12911,"Ġunfortunate":12912,"Ġbetray":12913,"Ġscan":12914,"Ġpatrol":12915,"Ġcompetitive":12916,"Ġdiary":12917,"ĠBEEN":12918,"Ġpunish":12919,"Ġstruggling":12920,"Ġaltitude":12921,"Ġtorture":12922,"Obviously":12923,"Cent":12924,"Following":12925,"Ron":12926,"rella":12927,"Ġdough":12928,"Ġheal":12929,"ĠSho":12930,"Ġstew":12931,"ĠGib":12932,"umed":12933,"istant":12934,"ĠInspector":12935,"Ġbloke":12936,"Ġaccommod":12937,"ĠFront":12938,"nox":12939,"ĠSpeak":12940,"Ġcontinuing":12941,"Ġdestro":12942,"Ġcooked":12943,"Ġcardiac":12944,"ĠBenjamin":12945,"Ġtransportation":12946,"Ġmeasured":12947,"Ġpulse":12948,"Ġintellectual":12949,"ITTLE":12950,"ĠPunj":12951,"Ġbicycle":12952,"ĠHebrew":12953,"CL":12954,"Les":12955,"Sus":12956,"Women":12957,"Ġtenth":12958,"onge":12959,"isure":12960,"Ġpant":12961,"ifth":12962,"Ġraw":12963,"Ġ1916":12964,"ĠEth":12965,"Ġpecul":12966,"Ġenqu":12967,"Ġ39":12968,"ĠArnold":12969,"ĠShin":12970,"Ġsitcom":12971,"Ġtransmit":12972,"Ġinterior":12973,"aneous":12974,"Ġanimation":12975,"Ġrepresentatives":12976,"Ġposted":12977,"United":12978,"ĠDelaware":12979,"ĠCommissioner":12980,"Ġdiamonds":12981,"ĠSquad":12982,"Ġcigarette":12983,"Ġhelicopter":12984,"ĠYouTube":12985,"ĠAirlines":12986,"57":12987,"DON":12988,"lay":12989,"Ġaster":12990,"inus":12991,"itated":12992,"otal":12993,"Ġheels":12994,"Ġbeep":12995,"ĠSi":12996,"seud":12997,"ĠChel":12998,"ĠMi":12999,"ĠTalk":13000,"oping":13001,"ĠJen":13002,"acker":13003,"Ġorn":13004,"akin":13005,"ptions":13006,"avi":13007,"ensed":13008,"venth":13009,"ĠShir":13010,"minute":13011,"ĠGuy":13012,"Ġpenet":13013,"hearted":13014,"ĠBarbara":13015,"Ġkilometers":13016,"Ġbundle":13017,"laughter":13018,"mans":13019,"wife":13020,"Ġmamm":13021,"Ġfarewell":13022,"eting":13023,"Ġwasted":13024,"ĠSig":13025,"ĠLt":13026,"ĠRog":13027,"ĠRug":13028,"Ġclo":13029,"Ġcounted":13030,"arma":13031,"Ġexplains":13032,"Ġawoke":13033,"Ġbarrel":13034,"uka":13035,"Ġcoward":13036,"ĠMalays":13037,"Ġlogic":13038,"Ġcertific":13039,"Ġkidnapped":13040,"Ġaccurate":13041,"Ġpowder":13042,"Use":13043,"Wal":13044,"rating":13045,"tin":13046,"orous":13047,"uscript":13048,"aments":13049,"ĠSin":13050,"ĠDiane":13051,"umi":13052,"Ġ1910":13053,"Ġpee":13054,"orne":13055,"Ġ52":13056,"Ġbushes":13057,"Ġinstruction":13058,"Ġproduces":13059,"Ġpenny":13060,"ĠPrix":13061,"Ġtrucks":13062,"Ġrubber":13063,"ĠFerr":13064,"ĠHarrison":13065,"Ġcommitment":13066,"ĠModern":13067,"Jimmy":13068,"Ġsearched":13069,"Dem":13070,"PH":13071,"nest":13072,"Ġfitted":13073,"stick":13074,"ĠTree":13075,"ĠLeb":13076,"Ġvic":13077,"Ġspan":13078,"ĠMarine":13079,"2013":13080,"Ġ56":13081,"Ġgloom":13082,"Ġpretending":13083,"Ġmilit":13084,"Ġspeakers":13085,"Ġpatience":13086,"Ġdivisions":13087,"Ġoperates":13088,"Ġengage":13089,"Ġpitcher":13090,"Ġbutterfly":13091,"ĠIranian":13092,"ĠJohann":13093,"ĠAhmed":13094,"ĠSylvia":13095,"SA":13096,"WHO":13097,"nal":13098,"pit":13099,"Å«":13100,"arter":13101,"omo":13102,"ĠPas":13103,"ĠDec":13104,"ĠJe":13105,"Ġ1900":13106,"Ġvary":13107,"ĠKnow":13108,"Ġprey":13109,"azon":13110,"Ġ99":13111,"Ġhumili":13112,"Ġparagraph":13113,"Ġbasement":13114,"Ġsmells":13115,"ODY":13116,"Ġpursue":13117,"Ġbuttons":13118,"Ġpuzzle":13119,"83":13120,"Euro":13121,"bound":13122,"tes":13123,"idy":13124,"ĠAcc":13125,"ĠBright":13126,"ĠNav":13127,"Ġcondu":13128,"Thou":13129,"Ġbrut":13130,"Ġrecip":13131,"Ġcollar":13132,"conf":13133,"guing":13134,"Ġromance":13135,"Ġpraise":13136,"aduate":13137,"Ġaccompany":13138,"Ġconverted":13139,"Ġdiscipline":13140,"Imagine":13141,"Ag":13142,"French":13143,"Pal":13144,"Ġnit":13145,"Ġbegging":13146,"Ġrevenue":13147,"ĠMans":13148,"ĠHood":13149,"ĠLam":13150,"ieves":13151,"ĠFA":13152,"inkle":13153,"nergy":13154,"Ġsigning":13155,"Ġpara":13156,"Ġwallet":13157,"ĠPerry":13158,"Ġmisunder":13159,"Ġlovers":13160,"Ġessay":13161,"Ġranks":13162,"liga":13163,"ĠOswald":13164,"Ġpriority":13165,"ben":13166,"Ġcul":13167,"alus":13168,"ĠSound":13169,"ilib":13170,"Ġshapes":13171,"ĠFu":13172,"ĠFac":13173,"ĠNation":13174,"Ġchug":13175,"ĠOVER":13176,"achi":13177,"ERE":13178,"Ġfighter":13179,"Ġlaughs":13180,"Ġflee":13181,"Ġfatal":13182,"Adam":13183,"Ġcriticized":13184,"Ġpirates":13185,"omeday":13186,"ĠNigeria":13187,"JUL":13188,"PR":13189,"jin":13190,"Ġwoof":13191,"Ġsoph":13192,"isons":13193,"Ġloop":13194,"ĠCraig":13195,"ĠMong":13196,"anti":13197,"ĠRud":13198,"ieved":13199,"earing":13200,"ako":13201,"Ġbacks":13202,"Ġscattered":13203,"Ġcoins":13204,"grand":13205,"Ġpresidency":13206,"Ġsubdiv":13207,"Ġ96":13208,"Ġconfusion":13209,"Ġcountryside":13210,"boat":13211,"Ġversus":13212,"Ġrecognised":13213,"Ġhunts":13214,"Ġsatisfaction":13215,"ĠBuenos":13216,"ĠStudies":13217,"Ġterrified":13218,"ĠCameron":13219,"Ġchirping":13220,"Ġrehears":13221,"cap":13222,"jar":13223,"race":13224,"tail":13225,"help":13226,"Ġsung":13227,"Ġtox":13228,"rily":13229,"ĠBeth":13230,"things":13231,"ĠKate":13232,"Ġbackpack":13233,"ĠInn":13234,"Station":13235,"2016":13236,"inaudible":13237,"Ġcollapse":13238,"Ġcolony":13239,"Ġtempor":13240,"Ġobserve":13241,"ĠDemocrats":13242,"Ġsandwich":13243,"Ġterritories":13244,"wheel":13245,"QU":13246,"oqu":13247,"inate":13248,"Ġmant":13249,"Ġhood":13250,"Ġlid":13251,"ĠIike":13252,"ĠSaints":13253,"Ġorph":13254,"Ġnoon":13255,"Ġoffensive":13256,"ogs":13257,"ĠMarshall":13258,"ennifer":13259,"Ġterminal":13260,"Ġvisitor":13261,"minar":13262,"Ġsecretly":13263,"Ġcatching":13264,"Ġclosest":13265,"Ġdigit":13266,"Ġbells":13267,"Ġbanana":13268,"Ġprecisely":13269,"Ġexhausted":13270,"ĠHawaii":13271,":\"":13272,"must":13273,"rast":13274,"atched":13275,"Ġbum":13276,"Ġdried":13277,"ĠBach":13278,"ĠBrew":13279,"Ġorbit":13280,"ĠOscar":13281,"Ġunited":13282,"Ġdism":13283,"becca":13284,"young":13285,"ials":13286,"Ġphones":13287,"REE":13288,"Ġ98":13289,"arrot":13290,"ĠNottingham":13291,"Conn":13292,"IFE":13293,"Ġresource":13294,"Bu":13295,"Hea":13296,"ML":13297,"Nick":13298,"NOT":13299,"TR":13300,"gus":13301,"nine":13302,"norm":13303,"rous":13304,"Ġwages":13305,"ede":13306,"Ġgardens":13307,"Ġbeans":13308,"immer":13309,"Ġweary":13310,"kee":13311,"Ġdock":13312,"iler":13313,"ĠWrest":13314,"Ġrises":13315,"ĠLok":13316,"ĠRand":13317,"Ġclap":13318,"Ġbrass":13319,"Ġenh":13320,"Ġflames":13321,"Ġformally":13322,"Ġ79":13323,"ieth":13324,"Ġcreates":13325,"Ġfreely":13326,"Ġcharacteristics":13327,"Ġdresses":13328,"ĠAlexand":13329,"Ġrequested":13330,"Ġliberal":13331,"ĠHungarian":13332,"ĠProtest":13333,"Ġresignation":13334,"Ġproportion":13335,"itness":13336,"Ġbri":13337,"Ġori":13338,"orig":13339,"Ġbeam":13340,"ĠSang":13341,"ĠAzerbai":13342,"berries":13343,"inee":13344,"oval":13345,"ĠThough":13346,"Ġpreserve":13347,"Ã©n":13348,"ĠClar":13349,"Being":13350,"Ġcamps":13351,"LEY":13352,"Ġgeomet":13353,"LAUGH":13354,"Ġdefendant":13355,"Believe":13356,"holm":13357,"Fre":13358,"Ø§":13359,"Ġtide":13360,"isch":13361,"Ġhind":13362,"Ġlions":13363,"ĠSlyne":13364,"ĠBasketball":13365,"Ġshorter":13366,"ĠRO":13367,"ĠFal":13368,"Ġalliance":13369,"shop":13370,"ĠSheriff":13371,"fficiency":13372,"Ġportrait":13373,"Ġhopeless":13374,"Ġinvestigate":13375,"kerchief":13376,"ĠMurray":13377,"Ġprocedures":13378,"Ġsculpture":13379,"ĠCommonwealth":13380,"Ġdignity":13381,"Add":13382,"Rad":13383,"Tonight":13384,"Ġwider":13385,"Ġmast":13386,"Ġtob":13387,"ĠSlo":13388,"stration":13389,"Ġstem":13390,"ĠHop":13391,"Ġsailing":13392,"inky":13393,"Ġappet":13394,"shal":13395,"eeze":13396,"hoen":13397,"Ġpreserved":13398,"Ġunto":13399,"Ġtransmission":13400,"Ġsupports":13401,"ĠAmendment":13402,"Ġverte":13403,"THIS":13404,"Ġurgent":13405,"Ġproceeded":13406,"Ġagricultural":13407,"Ġthoroughly":13408,"Ġgorgeous":13409,"Eat":13410,"UP":13411,"lace":13412,"zed":13413,"onso":13414,"Ġpier":13415,"Ġls":13416,"enton":13417,"ationally":13418,"Ġshocked":13419,"Ġjunk":13420,"Ġagencies":13421,"issance":13422,"Ġscores":13423,"ugar":13424,"Ġweekly":13425,"Chris":13426,"Ġdeadly":13427,"ĠConvention":13428,"Ġorganisation":13429,"ĠOrthodox":13430,"Ġpropose":13431,"Ġmechanism":13432,"Ġknocking":13433,"ĠRepresentative":13434,"Ġgathering":13435,"Ġphotographs":13436,"Ġcrops":13437,"ĠJoyce":13438,"Ġneutral":13439,"Ġabstract":13440,"Wake":13441,"hop":13442,"Ġties":13443,"Ġwage":13444,"Ġwars":13445,"Ġoak":13446,"Ġhollow":13447,"Ġpanc":13448,"ource":13449,"ĠOw":13450,"Ġunc":13451,"ocity":13452,"Ġattribut":13453,"ANK":13454,"Ġinstalled":13455,"ĠTHEM":13456,"Ġbargain":13457,"Ġdreamed":13458,"Johnny":13459,"Ġpercentage":13460,"ĠCleveland":13461,"Ġrobbery":13462,"elligence":13463,"ĠYugosl":13464,"Law":13465,"mama":13466,"oro":13467,"Ġdub":13468,"aye":13469,"Ġrect":13470,"ĠBurg":13471,"Ġatoms":13472,"ĠFE":13473,"Ġspider":13474,"Ġcompound":13475,"cliff":13476,"aux":13477,"Ġrecy":13478,"ĠPrim":13479,"eyed":13480,"Ġwarrior":13481,"ĠGran":13482,"Ġsexy":13483,"Ġobjective":13484,"ĠNeil":13485,"Ã¼l":13486,"Ġvoters":13487,"ttes":13488,"ĠÃī":13489,"Ġcrocod":13490,"Christian":13491,"ĠDevil":13492,"Ġhelmet":13493,"Ġcolonial":13494,"Ġincredibly":13495,"ĠDefense":13496,"Despite":13497,"Ġcheeks":13498,"Ġphenomenon":13499,"daho":13500,"British":13501,"designated":13502,"Det":13503,"daughter":13504,"offic":13505,"pse":13506,"Ġbrew":13507,"Ġpizza":13508,"olis":13509,"Ġcancel":13510,"Ġalter":13511,"essa":13512,"Andy":13513,"Thought":13514,"closed":13515,"Ġcarrier":13516,"Ġrunner":13517,"Ġdecides":13518,"Ġsongwriter":13519,"OTHER":13520,"Close":13521,"guard":13522,"Ġarguments":13523,"Ġopinions":13524,"onderful":13525,"Ġembarrassing":13526,"ĠBrothers":13527,"GRUN":13528,"Ġcustody":13529,"eals":13530,"pull":13531,"uction":13532,"Ġware":13533,"itches":13534,"Ġfruits":13535,"ĠTELL":13536,"ĠPont":13537,"oline":13538,"Ġjet":13539,"ĠRoute":13540,"Ġabol":13541,"Ġfract":13542,"Ġpencil":13543,"Ġdependent":13544,"ĠStudios":13545,"Team":13546,"ĠDarwin":13547,"Ġsubtle":13548,"Ġpreparation":13549,"million":13550,"59":13551,"IES":13552,"ÃŁ":13553,"Ġeats":13554,"ĠBL":13555,"ilight":13556,"ĠPC":13557,"Ġsoccer":13558,"Ġupside":13559,"soever":13560,"Ġprinces":13561,"achment":13562,"ĠThird":13563,"ĠAlban":13564,"Ġprovincial":13565,"iterranean":13566,"Ġlegit":13567,"ambling":13568,"without":13569,"Ġsuggesting":13570,"ĠMilitary":13571,"Ġpsychiat":13572,"ĠGirls":13573,"heimer":13574,"Ġhelpless":13575,"ĠCabinet":13576,"bits":13577,"mod":13578,"Ð¸":13579,"Ġtapes":13580,"Ġstalk":13581,"ĠCAR":13582,"ĠKarl":13583,"Ġslap":13584,"Ġmonkeys":13585,"Ġ51":13586,"Ġartistic":13587,"tenance":13588,"ctoral":13589,"Ġcontinuous":13590,"Ġtravels":13591,"reshold":13592,"Ġultimate":13593,"Ġembarrassed":13594,"Ġisolated":13595,"ĠLuxem":13596,"Den":13597,"Kim":13598,"MM":13599,"Much":13600,"far":13601,"Ġpony":13602,"imony":13603,"amount":13604,"acent":13605,"Ġwhip":13606,"riger":13607,"Ġstared":13608,"ĠHem":13609,"terior":13610,"ĠPA":13611,"ĠGonz":13612,"ĠFisher":13613,"Ġmanaging":13614,"Ġuncomfortable":13615,"ressing":13616,"Ġregulations":13617,"Ġimpat":13618,"applause":13619,"ĠEdwards":13620,"Ġzoo":13621,"Ġharsh":13622,"ĠBros":13623,"ĠArabic":13624,"boys":13625,"Ġdemocratic":13626,"ĠTurner":13627,"ladim":13628,"IO":13629,"lS":13630,"Ġdot":13631,"Ġeagle":13632,"Ġwhore":13633,"ripp":13634,"ĠMorning":13635,"ĠDublin":13636,"ppe":13637,"ĠRu":13638,"ĠKyle":13639,"ishi":13640,"Ġcourty":13641,"Ġmini":13642,"oots":13643,"Ġmonument":13644,"Ġ73":13645,"Ġconfession":13646,"aneously":13647,"Ġattacking":13648,"offs":13649,"ĠMorocc":13650,"Ġpersist":13651,"Ġattraction":13652,"country":13653,"Ġagriculture":13654,"lain":13655,"á»":13656,"Ġ/&":13657,"Ġcough":13658,"esy":13659,"Ġporn":13660,"Ġwelf":13661,"ĠMake":13662,"ĠHaven":13663,"ĠDig":13664,"Ġshine":13665,"ĠInstead":13666,"athi":13667,"Ġcostume":13668,"Ġprayers":13669,"Ġexamined":13670,"Seriously":13671,"Ġpirate":13672,"Ġpissed":13673,"ĠVillage":13674,"ĠIndependent":13675,"Ġwelfare":13676,"Greek":13677,"Tony":13678,"talk":13679,"wering":13680,"Ġwarrant":13681,"once":13682,"Ġhaste":13683,"Ġinev":13684,"etry":13685,"Ġbegg":13686,"ĠSof":13687,"ĠCOME":13688,"anded":13689,"ĠWade":13690,"ĠLITTLE":13691,"amps":13692,"Ġdisgr":13693,"Ġflowing":13694,"ahu":13695,"Ġdrain":13696,"Ġrestore":13697,"ambo":13698,"Ġdigging":13699,"Ġconversations":13700,"BY":13701,"],":13702,"disc":13703,"nut":13704,"overs":13705,"hend":13706,"onom":13707,"Ġmall":13708,"Ġpand":13709,"omot":13710,"ĠCro":13711,"ĠBald":13712,"ĠPoly":13713,"ĠNature":13714,"Ġchains":13715,"acts":13716,"gerald":13717,"Ġfootage":13718,"Ġmerch":13719,"Ġcircus":13720,"Speak":13721,"Ġtaxi":13722,"Ġpermit":13723,"Ġpsychology":13724,"Ġpsychological":13725,"yram":13726,"Ġroutine":13727,"Ġdoctrine":13728,"Ġhypothes":13729,"Ġdrums":13730,"Ġsustain":13731,"Ġhedge":13732,"Queen":13733,"ilibrium":13734,"Greg":13735,"Hot":13736,"Ġcra":13737,"Ġlump":13738,"ĠCant":13739,"ĠVe":13740,"Ġamendment":13741,"Ġflame":13742,"Ġrecre":13743,"armed":13744,"ĠShort":13745,"Ġresting":13746,"ĠZur":13747,"Ġmedieval":13748,"Ġpays":13749,"Ġhurting":13750,"Ġclassified":13751,"ettina":13752,"Ġtraded":13753,"Ġemployee":13754,"Perfect":13755,"Ġboundaries":13756,"Phone":13757,"Ġassumption":13758,"Ġprosper":13759,"Ġcancelled":13760,"PL":13761,"Wind":13762,"bag":13763,"came":13764,"Ġcunning":13765,"Ġlod":13766,"Ġgy":13767,"Ġbeats":13768,"idance":13769,"Ġwears":13770,"Ġliar":13771,"igious":13772,"Ġspit":13773,"erek":13774,"Ġwrap":13775,"Therefore":13776,"2015":13777,"Ġforming":13778,"Ġfollowers":13779,"Ġcollapsed":13780,"Ġpretended":13781,"Ġsweep":13782,"ĠBarn":13783,"Ġcleaned":13784,"blast":13785,"Ġmisfort":13786,"ĠCricket":13787,"remember":13788,"Ġplanted":13789,"Ġducks":13790,"Ġcommunications":13791,"ĠDoug":13792,"pretty":13793,"Ġaimed":13794,"Ġcondemned":13795,"?!":13796,"Ang":13797,"Met":13798,"eyes":13799,"rator":13800,"Ġwolves":13801,"Ġsam":13802,"Ġmaps":13803,"Ġlf":13804,"Ġwasting":13805,"ĠWatch":13806,"ĠWAY":13807,"ĠDear":13808,"Ġ1915":13809,"Ġmanuscript":13810,"Ġclan":13811,"Ġblast":13812,"ventually":13813,"aja":13814,"Ġevalu":13815,"Ġpromises":13816,"Ġrounds":13817,"Ġparade":13818,"Ġadvised":13819,"boom":13820,"Ġcomplain":13821,"Ġheavens":13822,"himself":13823,"Ġinvolvement":13824,"zburg":13825,"Ġfest":13826,"edi":13827,"icist":13828,"ayed":13829,"uting":13830,"ĠCamb":13831,"changed":13832,"ĠHOW":13833,"opard":13834,"ĠYa":13835,"inted":13836,"Ġ41":13837,"ĠAncient":13838,"Ġlightning":13839,"Ġprocessing":13840,"Ġbankrupt":13841,"speaking":13842,"Ġidentical":13843,"True":13844,"Ġvolunteer":13845,"Read":13846,"human":13847,"Ðµ":13848,"ĠÄ":13849,"Ġturb":13850,"Ġaha":13851,"Ġwilt":13852,"itudes":13853,"ethe":13854,"ĠSeveral":13855,"ifting":13856,"ĠPie":13857,"Ġjohn":13858,"osoph":13859,"ĠOwen":13860,"Ġtwe":13861,"Ġcomposition":13862,"Ġcomponent":13863,"Ġblessed":13864,"eneration":13865,"Ġ58":13866,"Ġfrust":13867,"Looking":13868,"haus":13869,"Ġsnap":13870,"Ã¶n":13871,"Ġpunished":13872,"Ġloudly":13873,"Ġvacc":13874,"ĠRaymond":13875,"Ġautomatically":13876,"Ġjewel":13877,"Ġbugs":13878,"Ġeternal":13879,"including":13880,"Ġangels":13881,"ĠPittsburgh":13882,"Night":13883,"Wil":13884,"nÃ©e":13885,"wig":13886,"Ġaye":13887,"aran":13888,"iche":13889,"ĠMull":13890,"antine":13891,"ĠGard":13892,"Ġrally":13893,"oshi":13894,"ogen":13895,"ĠInvest":13896,"Ġdrowned":13897,"Ġobsc":13898,"Ġdealt":13899,"Ġstrongest":13900,"Ġfilling":13901,"ĠMadame":13902,"ĠMagic":13903,"Ġmotorcycle":13904,"Ġarrangements":13905,"Ġowl":13906,"Ġlungs":13907,"Ġinterrupted":13908,"ĠAdministration":13909,"ĠMicrosoft":13910,"Ġpneumonia":13911,"Nope":13912,"asury":13913,"Ġlemon":13914,"riek":13915,"ĠHudson":13916,"Ġunsuccess":13917,"Ġbetrayed":13918,"Ġperpet":13919,"Ġcommunes":13920,"ibbean":13921,"Ġ59":13922,"ĠAlt":13923,"ĠGrammy":13924,"Ġequilibrium":13925,"Ġeconomics":13926,"rishna":13927,"Ġconstitutional":13928,"Ġthriller":13929,"Ġcontroversy":13930,"Ġstrategic":13931,"-(":13932,"Ash":13933,"Fat":13934,"MO":13935,"Ret":13936,"aired":13937,"uum":13938,"Ã¯":13939,"Ä«":13940,"Ġtens":13941,"heard":13942,"Ġnail":13943,"Ġreaches":13944,"ĠSport":13945,"olia":13946,"Ġshadows":13947,"ĠLock":13948,"ĠLET":13949,"ĠRE":13950,"ĠYan":13951,"phones":13952,"Ġpharm":13953,"Ġartillery":13954,"umbai":13955,"Ġpublicly":13956,"forward":13957,"ĠHarold":13958,"Ġpoliceman":13959,"monary":13960,"ĠMagn":13961,"ĠJulie":13962,"Apparently":13963,"Ġdrummer":13964,"Ġinquired":13965,"Relax":13966,"ĠChampion":13967,"?,":13968,"Ber":13969,"bang":13970,"school":13971,"ĠImp":13972,"ido":13973,"Ġecc":13974,"amen":13975,"Ġsegment":13976,"ĠLad":13977,"cker":13978,"ĠOber":13979,"Ġlikewise":13980,"Ġvague":13981,"ĠStuart":13982,"ollo":13983,"obi":13984,"ĠBranch":13985,"ĠPlace":13986,"ĠAbraham":13987,"Ġindustries":13988,"iji":13989,"Ġutil":13990,"ĠLyon":13991,"ĠEvans":13992,"Ġtroubled":13993,"Ġsympathy":13994,"Bon":13995,"Ger":13996,"Hans":13997,"Ly":13998,"aver":13999,"ouver":14000,"Ġcanal":14001,"ĠEcu":14002,"acht":14003,"Ġbloss":14004,"interest":14005,"phants":14006,"Ġelabor":14007,"arms":14008,"âĻªâĻª":14009,"Ġedges":14010,"ĠAdv":14011,"Excellent":14012,"Ġprophe":14013,"Ã¶r":14014,"Ġcandy":14015,"ĠMalcolm":14016,"handed":14017,"Ġfrequent":14018,"ĠEverything":14019,"oosing":14020,"ĠGallery":14021,"ĠNazis":14022,"Ġownership":14023,"Ġdatabase":14024,"Mill":14025,"fan":14026,"mid":14027,"ĠÎ":14028,"Ġtin":14029,"Ġcub":14030,"orship":14031,"Ġpapa":14032,"etta":14033,"ĠSue":14034,"stable":14035,"ĠHAD":14036,"ĠBU":14037,"ĠBUT":14038,"ĠWWE":14039,"ĠDub":14040,"Ġrational":14041,"Ġraining":14042,"Ġorchestra":14043,"anking":14044,"Ohh":14045,"ORT":14046,"Ġprofound":14047,"EAD":14048,"Quiet":14049,"Ġcriminals":14050,"Edward":14051,"Ġchampionships":14052,"Ġblessing":14053,"ĠAmbassador":14054,"ĠIceland":14055,"ĠFormula":14056,"Ġtobacco":14057,"Mah":14058,"pi":14059,"wal":14060,"instein":14061,"rez":14062,"Ġmr":14063,"Ġfert":14064,"Ġyelling":14065,"Ġbeet":14066,"ĠMORE":14067,"Ġkettle":14068,"ĠWERE":14069,"Ġdeals":14070,"ĠLanka":14071,"abelle":14072,"Ġoverse":14073,"Ġguilt":14074,"oba":14075,"atively":14076,"Ġ74":14077,"Ġfilmed":14078,"Ġvisits":14079,"Ġposts":14080,"Ġpractices":14081,"Marie":14082,"Ġlads":14083,"ĠMonte":14084,"Ġbelonging":14085,"OHN":14086,"Ġconcentrate":14087,"ĠGeoff":14088,"ĠBeauty":14089,"Ġvolunteers":14090,"Ġbothered":14091,"Ġchimney":14092,"2000":14093,"front":14094,"anas":14095,"Ġpel":14096,"Ġpoured":14097,"Ġgender":14098,"ĠMO":14099,"ĠHat":14100,"ĠDee":14101,"ĠLar":14102,"ested":14103,"ĠJar":14104,"osc":14105,"Ġconvert":14106,"osexual":14107,"ondo":14108,"ĠShel":14109,"Ġfinance":14110,"Ġregime":14111,"Ġstrain":14112,"Ġconsol":14113,"Ġglorious":14114,"ĠClaire":14115,"Ġanswering":14116,"Ġnicely":14117,"ĠMediterranean":14118,"Ġdecline":14119,"Ġreferring":14120,"Ġharvest":14121,"Ġcorrectly":14122,"Ġbabe":14123,"Ġexamination":14124,"ĠBailey":14125,"Ġnucle":14126,"Ġtanks":14127,"Ġbatteries":14128,"Ġdelayed":14129,"Ġcomparison":14130,"kle":14131,"onte":14132,"allow":14133,"ĠHum":14134,"Ġshalt":14135,"ĠOUR":14136,"ĠEls":14137,"Head":14138,"Ġ71":14139,"Ġrefere":14140,"Ġdinosaur":14141,"black":14142,"Ġinnings":14143,"ĠĠĠĠĠĠĠĠĠĠĠĠĠĠĠĠĠĠĠĠĠĠĠĠĠĠĠĠĠĠĠĠ":14144,"Ġamounts":14145,"Ġcivilian":14146,"Ġimmense":14147,"Ġfirmly":14148,"helle":14149,"ĠHugh":14150,"Ġhastily":14151,"Ġjewels":14152,"ĠMedicine":14153,"ĠReagan":14154,"Ġpeculiar":14155,"54":14156,"Aust":14157,"Hu":14158,"Slow":14159,"pin":14160,"à¹":14161,"inner":14162,"Ġcatherine":14163,"ĠWol":14164,"ĠDiana":14165,"eling":14166,"Ġchlor":14167,"rawn":14168,"Ġmanual":14169,"Thus":14170,"oyle":14171,"ilda":14172,"auc":14173,"rency":14174,"Ġattending":14175,"Stan":14176,"Ġstrangers":14177,"Ġrefriger":14178,"ĠZh":14179,"Ġtriple":14180,"pleasant":14181,"Ġstatistics":14182,"Ġvertical":14183,"ĠControl":14184,"Ġtasks":14185,"celona":14186,"Ġresearchers":14187,"Ġconvenient":14188,"CHE":14189,"Os":14190,"Ġsigh":14191,"Ġbunk":14192,"Ġcents":14193,"Ġmummy":14194,"ĠSad":14195,"Ġstair":14196,"ĠBaker":14197,"Ġseas":14198,"Ġjer":14199,"Ġraped":14200,"ĠEli":14201,"ecess":14202,"Ġrecru":14203,"group":14204,"Ġreflected":14205,"Ġlighted":14206,"meow":14207,"Ġsolved":14208,"ĠBoys":14209,"Ġimprovement":14210,"Ġpreferred":14211,"Ġdisplayed":14212,"Ġcolleague":14213,"Ġdismissed":14214,"Rose":14215,"hr":14216,"kov":14217,"Å¾":14218,"Ġburg":14219,"ĠPed":14220,"Ġ\"\".":14221,"Ġdepressed":14222,"Ġexpense":14223,"ervatory":14224,"Ġadvise":14225,"Ġmessenger":14226,"Ġcoverage":14227,"Ġcandle":14228,"Ġprecip":14229,"Ġdemonstration":14230,"Ġexclusive":14231,"Ġfortunate":14232,"ĠFacebook":14233,"52":14234,"Buzz":14235,"Fair":14236,"Jon":14237,"Papa":14238,"Tur":14239,"cock":14240,"listen":14241,"language":14242,"isan":14243,"orr":14244,"Ġpian":14245,"ĠIron":14246,"ĠAw":14247,"ĠCurt":14248,"ĠCosta":14249,"ĠLud":14250,"iege":14251,"Ġsovere":14252,"qual":14253,"inker":14254,"Ġunp":14255,"izard":14256,"phony":14257,"Ġgloves":14258,"Ġelectrons":14259,"Ġarmies":14260,"etti":14261,"spec":14262,"Ġrecognise":14263,"blood":14264,"Ġmarketing":14265,"Ġpetition":14266,"Ġphilosopher":14267,"ĠNEED":14268,"Ġaxe":14269,"Ġconsistent":14270,"Ġswallow":14271,"Ġcrayons":14272,"ĠRugby":14273,"Money":14274,"Narrator":14275,"Pick":14276,"gard":14277,"Ġdivers":14278,"ĠDal":14279,"Ġjokes":14280,"ĠLot":14281,"ĠFinal":14282,"Andrew":14283,"ullivan":14284,"Ġserial":14285,"Ġsupporters":14286,"Ġcheaper":14287,"ĠSoon":14288,"ĠAdvent":14289,"Ġmembership":14290,"Ġabsurd":14291,"ĠExpress":14292,"Franc":14293,"Ġautumn":14294,"ducted":14295,"Ġinfluential":14296,"Ġtourist":14297,"ĠFinally":14298,"ĠArchbishop":14299,"Ġunfair":14300,"Ġpeaked":14301,"Ġsavings":14302,"Ġcollaboration":14303,"ĠGUY":14304,"Ġpeasants":14305,"Europe":14306,"72":14307,"Mine":14308,"Victor":14309,"gom":14310,"á¹":14311,"Ġsab":14312,"Ġfib":14313,"ĠSic":14314,"ĠCris":14315,"ĠMend":14316,"ĠMuhammad":14317,"ĠDOWN":14318,"ĠJu":14319,"igo":14320,"Ġoutcome":14321,"arer":14322,"Ġnowadays":14323,"orns":14324,"ĠYu":14325,"Ġmarble":14326,"2019":14327,"Ã©t":14328,"Ġ600":14329,"Ġbehold":14330,"Ġrip":14331,"Ġclassroom":14332,"Ġraven":14333,"ĠSchw":14334,"ĠSalv":14335,"Ġinterviews":14336,"Ġbanned":14337,"Ġawareness":14338,"ĠAnglo":14339,"Ġnursery":14340,"Ġsamples":14341,"Ġincreasingly":14342,"Ġaccomplish":14343,"Ġastonished":14344,"Ġsharply":14345,"hoenix":14346,"ĠZurich":14347,"Ent":14348,"Ġdive":14349,"Ġpussy":14350,"icas":14351,"ldon":14352,"Ġstub":14353,"ĠHoney":14354,"ĠTang":14355,"Ġratt":14356,"ĠFellow":14357,"ĠEva":14358,"ĠEarly":14359,"Ġtwisted":14360,"ciation":14361,"Ġflights":14362,"Ġmines":14363,"reams":14364,"Ġreplacement":14365,"Ġpropos":14366,"Ġmotive":14367,"rugu":14368,"Ġhatred":14369,"Ġsurviving":14370,"Ġfarms":14371,"Ġemerged":14372,"Ġdialogue":14373,"ĠBuddhist":14374,"ĠQueensland":14375,"Ġstimulus":14376,"ĠEcuador":14377,"Ay":14378,"bone":14379,"yer":14380,"anor":14381,"ente":14382,"third":14383,"ĠDh":14384,"ulum":14385,"Ġdee":14386,"Ġdeploy":14387,"umer":14388,"ĠLamb":14389,"ĠRee":14390,"ampire":14391,"lington":14392,"Ġextinct":14393,"Ġpossibilities":14394,"owski":14395,"Ġmaintenance":14396,"ĠReview":14397,"archy":14398,"ĠReport":14399,"ouncing":14400,"ĠRegional":14401,"Ġmedication":14402,"Ġrecommended":14403,"Alexander":14404,"Ġinterpretation":14405,"Ġasteroid":14406,"Fe":14407,"German":14408,"SU":14409,"Top":14410,"Vo":14411,"yep":14412,"Ġthreshold":14413,"Ġpadd":14414,"asping":14415,"Ġlazy":14416,"Ġnails":14417,"ĠId":14418,"alysis":14419,"uto":14420,"Ġaspir":14421,"ĠTogether":14422,"ĠWeek":14423,"ĠDrive":14424,"istani":14425,"ĠRoom":14426,"ĠOblast":14427,"early":14428,"arettes":14429,"reated":14430,"ucked":14431,"Ġreserv":14432,"atha":14433,"Ġleap":14434,"Ġmonastery":14435,"ERY":14436,"Ġcenters":14437,"Ġskipper":14438,"Ġfilming":14439,"incorporated":14440,"ĠRomania":14441,"Ġthreats":14442,"AGE":14443,"ĠChancellor":14444,"sure":14445,"ĠImm":14446,"Ġrely":14447,"ĠSout":14448,"Ġrushing":14449,"Ġdeed":14450,"ĠNov":14451,"Ġchips":14452,"Ġsheriff":14453,"Ġunre":14454,"Ġmining":14455,"Ġworlds":14456,"ĠClay":14457,"Ġwarriors":14458,"fielder":14459,"Ġprints":14460,"Ġcrowded":14461,"Ġapplause":14462,"Ġancestors":14463,"ĠNicholas":14464,"Ġconspiracy":14465,"CI":14466,"Jess":14467,"London":14468,"Van":14469,"Vill":14470,"gic":14471,"len":14472,"inery":14473,"Ġdum":14474,"Ġweeping":14475,"ilia":14476,"ĠTAKE":14477,"ources":14478,"ĠGay":14479,"Ġheritage":14480,"herent":14481,"ictions":14482,"ancouver":14483,"Ġhomeless":14484,"Ġearning":14485,"Ġmarvel":14486,"aji":14487,"ĠShaw":14488,"Ġsworn":14489,"oker":14490,"Ġrefe":14491,"Ġvillain":14492,"Ġsunshine":14493,"Ġrobbers":14494,"Ġtemperatures":14495,"Ġcelebration":14496,"Ġroutes":14497,"itanie":14498,"Ġdiameter":14499,"Ġtiming":14500,"Ġconsequence":14501,"ĠKenneth":14502,"ĠWheel":14503,"Ġteddy":14504,"ĠBundes":14505,"DE":14506,"Gentlemen":14507,"Mo":14508,"dem":14509,"gow":14510,"later":14511,"yup":14512,"Ġsings":14513,"Ġnaval":14514,"ĠSally":14515,"rived":14516,"ĠBapt":14517,"ĠBiden":14518,"ĠPenny":14519,"ĠRalph":14520,"iguel":14521,"Ġvoyage":14522,"Ġcompos":14523,"wee":14524,"Ġhandkerchief":14525,
[...]
