#version: 0.2
* *
Ġ t
h e
Ġ a
** :
o u
Ġ **
Ġ \
i n
Ġ w
Ġ s
r e
Ġt he
l d
i t
n d
h i
Ġ b
e r
h a
Ġ c
Ġt o
in g
Ġ y
Ġy ou
hi ld
C hild
Ġ I
a n
Ġ f
Ġ "
Ġ m
Ġ l
o n
o r
Ġ d
' s
Ġ p
l l
Ġ g
e t
e s
o m
Ġ it
a y
ha t
o w
k e
e a
Ġ n
Ġa nd
s t
i g
u t
Ġw e
v e
a t
l e
o o
Ġ o
Ġ T
e d
Ġ S
a d
Ġ ha
a r
a s
Ġc an
o t
! "
Ġ he
Ġ i
Ġb e
ig h
e n
c k
Ġ W
Ġs t
. "
Ġ u
e nd
t er
s e
Ġl i
Ġ in
ou t
r a
i d
Ġ on
Ġf or
Ġyou r
Ġ Y
Ġt hat
l ing
i b
? "
igh t
' t
Ġ re
Ġo f
e x
Ġ h
Ġli ke
ĠI t
m e
ib ling
he r
Ġd o
ĠS ibling
it h
Ġ j
M om
Ġw ith
i r
a b
D ad
r i
Ġp l
c h
y s
an t
c e
Ġ A
Ġ r
Ġ B
c t
ex t
v er
Ġw as
a ke
n t
a l
Ġi s
Ġa b
Ġ H
Ġ L
' ll
f t
Ġs o
Ġg o
Ġab out
it ter
ld er
e e
Ġm e
hi s
ab ys
abys itter
om e
Ġ e
u n
l y
O lder
Ġt h
u st
Ġ N
a ll
Ġ C
B abysitter
Ġ k
Ġb ut
' re
oo d
Ġha ve
o ft
Ġg et
< |
| >
Ġ <|
end oft
endoft ext
l p
ĠW e
ĠT he
Ġu p
a re
Ġn e
oo k
ĠB ut
Ġhe lp
u re
ĠY ou
Ġm y
o re
Ġ O
Ġw ant
Ġpl ay
p p
k ay
ri end
Ġn ot
ĠT hat
r o
ou ld
ea r
Ġt i
Ġw he
Ġa n
ou r
Ġj ust
Ġm ake
at e
Ġt his
Ġl et
t le
Ġd on
i s
ĠA nd
Ġa ll
ĠC an
r y
in d
u r
ĠL et
Ġthe y
ha n
a ck
i c
Ġ M
Ġr ight
i ll
ou nd
Ġti me
Ġto o
ra nd
ver y
ar t
Ġs h
h ing
ĠH e
Ġs p
Ġwhe n
ĠN ow
Ġne ed
m p
' m
as s
Ġw hat
Ġ D
Ġ out
it tle
Ġl ittle
i on
rand p
Ġs a
Ġa re
e p
i e
c her
Ġk n
Ġthe m
ea cher
Ġb ig
Ġ G
on e
Ġs ee
Ġs ome
Ġst or
Ġ our
en t
g h
u l
m b
a k
han k
b or
are nt
id e
es s
l ass
igh bor
a st
Ġw or
Ġd id
u s
in k
. .
g er
T eacher
Ġon e
Ġthe re
Ġa t
Ġi f
om et
Ġ ea
f e
g et
ĠW hat
N e
all y
Ġ or
e ll
Ne ighbor
Ġn ow
randp arent
l o
Y ou
Ġg ood
Ġh ow
G randparent
Y es
Ġ hi
i ck
q u
a in
ow n
Ġw h
a u
d y
at er
le an
o p
Ġkn ow
Ġs omet
re at
i ce
Ġstor y
r om
get her
Ġ '
F riend
Ġa s
a p
Ġm ore
Ġthe n
Ġp ut
Ġs w
oo l
Ġto gether
m ate
Ġ *
Ġa l
i l
a g
b e
lass mate
Ġl ook
a m
Ġf un
C lassmate
es t
Ġc o
Ġc lean
Ġs u
ĠY es
Ġ P
f ul
u ck
o b
w ay
i m
ay be
n ger
Ġu s
f ter
Ġha pp
m y
mb er
You nger
a nd
Ġc ould
i ve
ĠT hank
e et
Ġp ro
Ġsomet hing
T hat
Ġe very
or t
Ġo kay
o ve
it e
Ġea t
ea h
me mber
e c
Ġf ind
Ġs ha
Ġb u
er s
e ct
Ġ E
ar d
i es
Ġf rom
ĠThe y
ou gh
t y
Ġj ob
is h
Ġth ink
au se
Ġth ing
Ġn o
a ct
Ġb ack
Ġp re
on g
ĠN o
Ġt ry
a me
ĠO h
nd er
Ġ ex
Ġbe c
Ġc are
ĠO kay
Ġa fter
Ġc ar
Ġs c
Ġ ke
Ġha nd
Ġs ay
in e
Ġ qu
Ġ R
Ġan y
ĠHe y
r ow
p er
Ġw ill
ir st
Ġme an
Ġhe re
Ġre ad
Ġwor k
Ġgo ing
u m
Ġha d
Ġw ay
Ġre ally
Ġs n
Ġa r
g e
Ġb r
â Ģ
Ġg ot
Ġd ay
n y
Ġdo es
Ġg u
Ġd ra
Ġt ur
al k
' ve
Ġw ater
Ġa d
Ġst art
Ġs ure
Ġc l
s ide
Ġt ake
ve n
Ġu se
Ġ v
Ġf irst
Ġwh o
Ġin t
H e
Ġi mp
ear n
act ly
u e
Ġbec ause
Ġs ound
Ġc ool
i ke
ĠY eah
Ġb o
Ġc om
ĠH ow
Ġke ep
Ġre member
l ow
ĠS o
l es
Ġf riend
f f
Ġl earn
t her
Ġ J
Ġd own
Ġb et
.. .
eet ie
Ġ very
Ġa g
Ġw ould
Ġthing s
Ġ Dad
Ġsh ow
Ġ en
Ġ Mom
at ch
a ch
ar k
Ġu nder
ĠM aybe
Ġl ove
Ġt re
Ġ (
Ġf a
Ġm ak
t ing
ĠThank s
N o
Ġt ell
l f
Ġt r
Ġtur n
Ġo ver
Ġb ear
x actly
Ġe ven
Ġne w
âĢ Ļ
d ay
Ġr o
Ġ his
O kay
Ġs m
Ġc on
Ġf ee
h y
Ġb y
Ġwe re
lo ck
Ġg reat
at ion
Ġimp ort
le ep
Ġp art
o y
ĠD o
o l
Ġo ther
Ġm o
Ġm ight
Ġimport ant
Ġpre t
Ġhand s
Ġ F
Ġn ice
Ġd i
Ġhapp y
s s
Ġbet ter
p l
Ġb l
Ġcare ful
Ġb ot
ĠG ood
Ġg ame
t hing
Ġ ra
Ġag ain
Ġthe ir
ve nt
Ġm u
ĠL ike
Ġgu ess
f ore
j ect
Ġn ext
T he
Ġsh ould
v es
Ġbe ing
Ġsu per
Ġbe fore
Ġw a
Ġint o
e l
way s
ĠD id
Ġb it
i ld
ĠP l
h o
Ġto ys
Ġst u
Ġb lock
Ġb all
Ġk ind
Ġwhe re
Ġsha re
Ġs he
v ing
Ġto y
Ġh ome
ad e
Ġp e
Ġf ast
Ġpro ject
Ġa way
Ġg ive
st and
ab le
Ġw hi
Ġhe ar
ou s
ir d
Ġfee l
u ll
Ġf i
Ġsound s
Ġp o
G ood
Ġal ways
Ġs k
un ny
ea se
Ġevery one
Ġhapp en
Ġl ot
op le
ea l
Ġs leep
He y
Ġunder stand
d d
ĠWe ll
Ġha r
Ġc he
i al
o ach
u mp
Ġwa it
o se
Ġto day
Ġst r
f fe
Ġdra w
ĠE xactly
ĠL ook
Ġfriend s
Ġc ha
a ce
ke d
an ce
r ight
Ġm om
Ġb ook
Ġsw eetie
Ġb est
Ġsa fe
Ġst ill
Ġmu ch
vent ure
ou d
Ġi d
o ld
Ġh u
y e
Ġout side
Ġw on
Ġsn ack
ĠJ ust
Ġu n
Ġb re
Ġpe ople
Ġread y
Ġad venture
Ġwh y
g g
Ġdid n
Ġbot h
Ġf in
ĠS ee
ot her
Ġid ea
Ġl ea
Ġc our
Ġs l
i se
Ġg r
i st
Ġt alk
Ġha s
Ġf ound
Ġar ound
b le
re d
i p
ou se
o s
Ġhi m
Ġcour se
Ġplay ing
Ġhar d
Ġt w
ro om
Ġmean s
he n
ĠI f
he s
B ut
Ġp ick
Ġthe se
Ġm ade
i z
Ġa pp
Ġst ay
Ġc ook
Ġof f
Ġt ri
um my
Ġto w
Ġc ome
ra ct
Ġbu ild
ĠMom my
Ġm aybe
Ġpl ant
Ġt ea
ĠW hy
Ġa ct
al s
Ġblock s
Ġpl ease
Ġo ld
on s
Ġre s
Ġmak es
a c
Ġb unny
Ġdon e
Ġh ur
n ing
l right
us h
Ġhe r
Ġe ver
Ġstu ff
ar m
ut or
Ġb ird
ag e
Ġl ater
Ġbe en
u p
Ġw atch
n ce
Ġbre ak
Ġre d
Ġpret ty
n ight
Ġp r
t h
m m
I t
im es
Ġ own
Ġb ed
m ent
t s
Ġan im
Ġbo x
Ġth ough
in y
ffe re
Ġd in
ch ool
re am
ĠHe re
randp a
ed dy
as h
it y
Ġsome one
he d
Ġdi ffere
Ġth ose
T utor
C oach
Ġm an
Ġs it
m s
r ing
t i
u ally
Ġf ood
Ġk id
d e
Ġsp ec
ĠM r
Ġdo ing
Ġsa id
Ġw r
Ġre al
n er
Ġs et
Ġs chool
Ġst ick
Ġhi gh
i ct
Ġr un
ĠDad dy
n e
is s
Ġfi x
Ġf l
Ġdoes n
l or
en ce
Ġfin ish
ut e
ĠS ure
ĠR e
Ġt ra
Ġwith out
Ġwhi le
Ġtw o
Ġf low
Ġli st
Ġpl an
ĠM y
Ġn ight
Ġfa ir
as ure
' d
ea d
Ġs un
at h
ou ch
Ġw ind
Ġstr ong
Ġa w
ion s
i et
ir lf
irlf riend
Ġbl ue
Ġwe nt
Ġl ong
n a
m or
Ġevery thing
Ġg row
Ġdra g
Ġl e
m a
Ġmak ing
Ġco lor
s o
Ġtre asure
G irlfriend
Ġc han
Ġf o
or k
re en
Ġspec ial
ee p
o st
ĠRe member
r ink
Ġk it
fe ct
ĠI s
Ġc all
Ġdiffere nt
Ġas k
Ġhappen ed
Ġd uck
f riend
Ġd e
ak es
l er
or y
Ġhur t
Ġsa w
un ch
Ġ end
p s
Ġg en
i ly
er fect
Ġp ract
Ġp ark
Ġanim als
a ve
c c
Ġhelp ing
Ġs e
an c
pp y
p en
ĠThe n
g y
Ġin side
Ġd ry
Ġsm all
Ġg l
Ġc r
ĠO f
B oy
Boy friend
Ġm ag
Ġtry ing
ict ure
Ġwas h
Ġlist en
o es
ou nt
ard en
Ġget ting
Ġstor ies
es ome
Ġd ec
Ġro om
Ġw alk
ke n
Ġco ld
ĠW hen
Ġp u
Ġp icture
ap er
Ġwor d
Ġg arden
W e
Ġtr uck
Ġdrag on
Ġh old
Ġis n
ĠG randpa
au gh
Ġs qu
Ġh ouse
w ork
w eetie
ĠT his
re ss
Ġd is
Ġp ain
in s
Ġt han
Ġth r
Ġc lo
Ġc lass
Ġdin ner
Ġup on
one y
T hank
Ġany thing
Ġex pl
Ġm ess
Ġj ump
ĠPl us
Ġp ie
Ġal so
Ġb ra
v or
Ġan other
Ġso on
Ġqu iet
b b
W hat
Ġf ish
Ġthr ough
Y eah
are d
rom ise
Ġl ast
Ġf all
ir it
Ġin st
ar y
Ġsp irit
Ġpro ble
mor row
ĠThe re
Ġto morrow
Ġe l
Ġtre e
ĠA lright
un g
ti me
Ġt eddy
ĠY ay
Ġf ly
dd ler
b s
Ġmag ic
Ġn ap
re e
Ġy ummy
Ġit s
Ġea ch
Ġg i
Ġlook s
Ġu nt
n g
j oy
Ġw arm
Ġc hi
O h
Ġgen tle
Ġtea m
A nd
Ġtow er
Ġd ir
Ġsomet imes
o on
ig n
ve d
Ġel se
Ġt able
le d
Ġst ar
Ġsa nd
Ġf e
he re
Ġh ot
Ġj u
Ġw o
Ġs ad
Ġw ear
Ġd rink
en se
Ġb ad
Ġp aper
Ġwe e
ĠR ea
Ġg reen
Ġbr ing
Ġm ove
c us
re t
Ġon ly
Ġaw esome
Ġ U
Ġfa vor
Ġflow ers
ea k
ĠS he
Ġf ore
i ous
Ġg ra
Ġl ight
Ġact ually
Ġus ed
Ġthough t
or ry
ĠG reat
ĠG ot
Ġc h
Ġunt il
Ġget s
se lf
Ġc ho
Ġres p
g s
Ġa ir
Ġsw ing
hi r
Ġfavor ite
Ġo pen
re l
i mb
Ġpret end
i ence
ĠYou r
Ġpract ice
Ġlearn ing
e re
Ġcom p
Ġs low
Ġt ouch
Ġsha ring
b ye
Ġpl ace
Ġso ft
Ġ z
ĠPl ay
c es
Ġhelp s
Ġcon t
Ġwant ed
Ġb ea
at es
ak ing
Ġt iny
a mp
Ġsu pp
ll y
Ġplant s
an ge
E xactly
Ġt hank
Ġsc ared
in t
Ġwe ll
a il
Ġsk y
Ġen joy
Ġd ance
or s
ĠO ne
Ġd ream
an k
Ġsl ide
Ġhi st
Ġf r
Ġinst ead
Ġra in
Ġ K
Ġre st
Ġlove d
Ġmom my
Ġd eal
ent ly
Ġf lo
d dy
Ġhe ad
Ġ 1
G reat
ĠB e
t en
Ġw ish
Ġh op
at ing
W ell
Ġs ec
Ġp romise
a w
Ġc atch
Ġ ri
Ġsu ch
Ġproble m
Ġw et
c le
ir rel
Ġsw im
Ġsn ow
Ġf ull
an s
ĠA re
Ġth row
Ġcl imb
Ġgo es
Ġl unch
Ġlook ing
Ġne ver
o ck
Ġad d
Ġhe ard
ung ry
Ġqu ick
ell ow
ĠS t
Ġd ri
ĠT h
Ġl oud
Ġwho le
Ġwhi ch
Ġstart ed
Ġw in
Ġkid s
z y
uck y
Ġto ddler
Ġju ice
Ġsh oes
Ġc ra
Ġhelp er
a v
p t
Ġp h
Ġf am
Ġqu ite
Ġbra ve
Ġbe l
Ġpain t
Ġsqu irrel
Ġst op
s h
Ġto p
Ġb ro
ĠA fter
Ġm on
Ġd ark
Ġt eacher
Ġex c
Ġc ut
re ad
Ġb abysitter
Ġb as
** ,
Ġen ough
Ġro ck
ĠD eal
Ġre c
Ġsp l
ig g
pp ed
Ġbut ter
Ġclo se
. *
ĠN ot
Ġche ck
Ġhist ory
c ome
at ed
an na
Ġman y
Ġwr ite
Ġp en
iz e
Ġfore st
Ġdir ty
Ġgl ad
oo se
Ġea s
Ġhome work
Ġm us
Ġ V
Ġp erfect
Ġbr other
Ġf ro
ou p
Ġ hat
Ġsm art
Ġh ungry
er y
Ġc up
nder ful
Ġsp ace
Ġs orry
Ġcall ed
ol ute
or m
ow l
Ġqu est
olute ly
Ġpr oud
Ġfun ny
Ġy es
Ġp ull
c i
ri es
D id
Ġi ce
al t
O nce
or n
P l
Ġha ving
Ġg am
m ag
at ter
' ?"
S t
ing s
Ġm or
Ġlot s
ow er
Ġs ense
r ot
bs olutely
Ġp ot
Ġso l
Ġcook ies
ast e
Ġw anna
Ġp ush
i le
ke y
S weetie
ea s
c l
y es
Ġd es
Ġother s
ere st
Ġpie ce
m an
Ġwork ing
Ġy ellow
m ost
Ġhi de
Y ay
Ġc ount
Ġs ing
Ġd ad
t ain
ur ing
et s
Ġc at
Ġturn s
Ġon es
Ġm in
pp ing
Ġa c
gg y
Ġeat ing
Ġe yes
Ġv room
C an
Ġg ently
l come
Ġhu g
Ġs ibling
Ġmor ning
Ġt e
b o
ib le
L ook
Ġst and
Ġf ine
m ore
f in
ip e
Ġc ame
Ġr ide
Ġon ce
Ġ ear
Ġlearn ed
ĠI n
Ġbu ddy
Ġwe lcome
Ġs ick
Ġe le
Ġh it
Ġint erest
Ġwo nderful
i x
Ġra ce
Ġor ange
L et
id ed
Ġany more
Ġl o
Ġsp ot
Ġlea ves
Ġb ath
Ġpart y
ac es
Ġchan ge
ĠRea dy
Ġfam ily
z ing
Ġmo v
Ġti red
Ġsw eet
Ġwas n
' ?
Ġst uck
Ġexpl ain
A lright
ĠE very
Ġexc it
Ġsand w
Ġapp le
a ppy
Pl ay
st er
Ġc reat
ĠC oach
ĠA ll
m on
oo t
Ġf ig
ic al
Ġtre es
Ġsay s
g u
ĠW ow
Ġstick y
Ġthink ing
Ġb ite
Ġany one
Ġli fe
ec ause
p e
Ġs ur
Ġfee ling
Ġl ess
rand ma
ĠD on
Ġfo cus
Ġfi re
u g
Ġhe av
s ent
Ġdo or
ĠT o
i f
Ġa cc
Ġsa me
ea t
ĠM e
Ġj ack
Ġkit ty
Ġat t
Ġplay ed
Ġdo g
Ġpo int
Ġus ing
fin ite
el t
Ġcom es
O f
Ġdec ided
Ġflo or
Ġal most
u b
ĠS p
finite ly
hi p
oo ked
Ġbird s
Ġcar s
Ġt aking
Ġgam es
Ġmus ic
Ġmo st
Ġh oney
s et
Ġi mag
Ġp ers
Ġcl ot
Ġheav y
i v
il k
Ġunderstand ing
ĠS omet
ĠW as
Ġst ep
ĠO nce
Ġstar s
u ct
Ġh o
l ess
Ġf elt
Ġbro ken
ll ow
Ġd ro
Ġy ucky
Ġtalk ing
Ġ ext
Ġto ld
Ġneed s
ent s
Ġfig ure
Ġbel ie
n s
it s
Ġb ab
ĠH mm
ast le
Ġd uring
i re
Ġm iss
Ġg one
Ġcook ie
Ġp ir
Ġgr ound
ul es
ĠS ha
Ġfe w
Ġa ma
Ġsleep y
Ġcar ry
Ġre l
i er
z z
on na
ĠH ave
Ġcr ay
Ġsuper her
st r
Ġkn ight
Ġtra in
Ġex per
Ġwor ry
ic s
Ġsc ience
Ġp at
Ġsh iny
Ġbo at
Ġama zing
os ed
Ġb us
Ġen er
Ġt all
ĠMr s
Ġdraw ing
ĠA bsolutely
c ken
ic es
Ġd ear
Ġtoo k
ĠSomet imes
Ġg onna
Ġwor ld
ro ss
Ġmo on
Ġli ved
ra w
Ġr ules
ĠW ould
Ġjack et
w here
Ġresp ons
Ġb low
ation s
Ġmov ie
Ġp op
ke nd
Ġpr ot
Ġp ass
a ir
Ġti m
The y
ĠW ill
Ġwh ite
Ġfo llow
Ġener gy
w ard
ĠS weetie
Ġp our
Ġcar rot
Ġc re
Ġwee k
Ġwee kend
Ġfro g
S o
Ġf ive
Ġwould n
Ġtri ed
es e
Ġhelp ed
Ġt ight
or ing
Ġsupp osed
Ġc hild
Ġex actly
Ġsk ate
Ġw ood
Ġm ad
Ġcom m
Ġsp ill
Ġpre sent
Ġs ide
Ġn ame
' .
Ġc ream
Ġcha ir
Ġhe alt
Ġspl ash
Ġl and
p o
Ġhu h
Ġl ost
c hen
Ġm ust
b r
Ġsnack s
ck s
d er
Ġse en
dd en
bb les
a x
Ġyour self
Ġthank s
Ġbea ut
ĠR ight
Ġl ooked
Ġadventure s
Ġc ow
Ġtea ch
Ġti ck
e w
Ġm oney
ound s
Ġto night
st y
Ġha ng
Ġm ilk
Ġne ighbor
g es
Ġm ine
Ġcom ing
Ġex p
Ġre m
in ts
ull y
Ġs ong
Ġr u
Ġb oo
Ġfa ce
Ġcolor s
Ġchi cken
Ġc astle
an e
Ġkit chen
Ġknow s
Ġ es
Ġb al
n ess
Ġsc ary
Ġhu ge
ĠH i
c o
Ġbr own
Ġcould n
d s
Ġa ge
Ġs y
Ġfor get
Ġpers on
Ġword s
Ġinterest ing
Ġbl ank
ap s
Ġm et
hir sty
Ġgu ys
ĠDo es
f ully
Ġhealt hy
.. ."
Ġt aste
Ġgra b
ut s
Ġg ave
Ġtri p
o g
a ur
i ch
en s
c hes
i ent
Ġsec ret
e m
Ġbo dy
Ġfe ed
Ġbl ack
u ff
Ġlea ve
Ġbu y
Ġk ick
Ġs er
Ġse ed
i ful
Ġf re
Ġd et
c ol
Ġsay ing
f l
at ure
Ġli ve
is y
Ġsa ve
Ġext ra
ĠB ecause
Ġm ind
ĠF or
Ġd anc
id es
Ġh or
B ye
âĢ Ķ
ĠS w
ll o
Ġw ild
ĠB ye
h ind
p es
Ġbuild ing
l s
Ġclot hes
Ġar t
Ġpu ppy
f orm
Ġpicture s
ĠA ny
ĠK eep
Ġf arm
Ġre p
Ġbab y
Ġmagic al
Ġc ir
ant s
Ġbook s
Ġw ipe
d ing
Ġf ar
Ġbr ight
Ġbe hind
hir t
Ġy et
Ġstart s
Ġbut t
it ion
Ġsee m
Ġbig ger
Ġbelie ve
ĠV room
k es
u it
ha nt
ent ion
Ġro ll
Ġresp ect
Ġm ath
Ġw all
Ġprot ect
Ġm ouse
Ġm ix
os aur
i o
He re
Ġb an
Ġsw eep
Ġbeaut iful
s p
Ġwe ird
T o
He lp
Ġsandw ich
u c
oo f
Ġdri ve
Ġp ower
c ess
eak ing
r ib
Ġst ore
Ġhappen s
Ġf ill
Ġp er
igg les
om ps
ĠF ine
Ġcl oud
Ġwr ong
ter s
id ent
Ġco ver
k in
Ġdo ggy
augh t
Ġp ig
as e
col ate
Ġtur tle
ap e
c hed
ĠTh omps
ĠThomps on
ort s
i ally
Ġsha ke
Ġ 2
Ġt reat
W ow
ul t
Ġkn ock
Ġbr ush
Ġth ree
H appy
Ġt hirsty
Ġe gg
o nd
Ġa nt
ou ble
Ġa m
Ġf eet
eet h
Ġclean ing
y cle
Ġf it
ĠW ant
ffe ct
ĠM ore
Ġcl ear
Ġsuperher o
ĠW ho
il s
Ġv ide
A ll
l ight
Ġs hirt
ic ed
Ġche ese
Ġt akes
Ġb owl
Ġexpl ore
ill y
ri c
Ġb at
Ġpir ate
ur n
ĠRea lly
u de
Ġle ft
cc er
ĠP erfect
Ġco zy
Ġdream s
ough t
Ġpie ces
Ġf oot
ĠC ome
an ger
d o
Ġar g
Ġl ate
Ġhop e
ar s
Ġhor se
ie ld
b er
hi e
ow s
Ġbu bbles
Ġrun ning
Ġt eeth
Ġo lder
Ġgr ass
Ġlisten ing
Ġapp les
o om
Ġbal ance
Ġy ear
e en
Ġtr ue
s m
an g
Ġup set
Ġt est
Ġsm ile
Ġm ap
Ġin v
g r
Ġe mp
M ore
i ling
ĠT ell
u es
Ġco ll
Ġs ign
Ġcho colate
il es
Ġfeel s
Ġsp oon
p ec
ard s
ĠW here
t o
M e
u gg
d le
Ġwind y
Ġha ir
al ked
is hed
Ġquest ion
Ġpro per
p hant
Ġfor t
Ġno ise
Ġpre ss
a le
p ri
art s
Ġcho ice
Ġstu dy
ĠA l
el s
S ee
Ġv is
an a
Ġso ccer
Ġdin osaur
Ġflow er
Ġph one
Ġra bb
in es
pec ially
Ġp ic
Ġes pecially
Ġc ute
M aybe
on t
Ġw ake
- -
f et
iz z
Ġblank et
Ġquick ly
re ci
ri ed
Ġhe ro
it ies
Ġc ake
e ver
i me
u al
Ġst re
mm er
le x
Ġwork s
Ġcon s
Ġl au
Ġch oose
Ġj o
Ġme et
Ġhi dden
ĠC lean
ĠS ome
. )
Ġtell ing
ut es
Ġbu mp
l ue
ra l
ĠEvery one
Ġm ed
Ġc ry
Ġcl ap
Ġcom pl
L ike
Ġof ten
ll en
n o
ĠS ounds
Ġhand le
Ġapp reci
Ġare n
Ġc and
Ġvide o
Ġm atter
m ing
Ġm ist
ea ther
ear ch
Ġd ress
Ġn ear
Ġbre ad
Ġidea s
ĠHe lp
read y
Ġre f
ĠG randma
Ġd el
Ġseed s
id er
i pp
re ct
Ġpo nd
Ġal right
ve l
Ġk iss
Ġeas y
Ġdi st
Ġpl aces
ĠT eddy
Ġen v
Ġtra ck
u ce
Ġal ready
Ġc or
z e
Ġp ast
Ġd anger
Ġc ouch
N ight
ver s
Ġc amp
re w
h h
ount ain
I f
f ast
Ġnot iced
ir on
Ġf ield
i mp
Ġtri ck
Ġbutt on
i fe
Ġkeep s
il ity
iron ment
k et
Ġb oring
! '
e red
S ure
Q u
H ow
Ġt ough
ĠB ig
ĠSha ring
Ġs illy
Ġno isy
Ġenv ironment
f ly
Ġg lass
Ġmin utes
Ġgi ant
izz a
Ġp ri
ra p
Ġg ar
Ġas s
ll s
g est
Ġpu zz
at or
um ent
Ġn am
ĠG o
out h
Ġcont ro
C lean
Ġsk ill
Ġfast er
Ġappreci ate
Ġt er
Ġtr ouble
e ed
ut ion
ĠB u
Ġneed ed
Ġus ually
it ing
Ġbed time
or d
ot h
k s
Ġele phant
Ġexcit ed
r r
Ġy ard
Ġwait ing
Ġli ving
ĠN ext
a us
ra c
W hy
Ġke y
fet y
Ġcomm un
Ġt ummy
Ġ ve
Ġex amp
Ġtim es
Ġhe y
Ġc al
Ġrabb it
Ġf ight
k ing
Ġg randpa
n ack
at her
Ġexcit ing
Ġs ea
Ġmon key
Ġair pl
on es
Ġbig gest
Ġp ol
he t
Ġ ed
D o
Ġcarrot s
Ġin ter
Ġl a
Ġb ike
ure s
O ne
Ġdir t
his k
Ġemp ty
Ġcon f
Ġm ot
ĠH old
Ġe vent
Ġput ting
e finitely
Ġp us
u mb
Ġimag ine
Ġto t
Ġdro p
Ġco at
Ġser ious
b all
Ġtick le
Ġcare fully
Ġc ap
Thank s
P arent
Ġread ing
Ġs hip
Ġb ag
uff y
augh ty
Ġs oup
Ġas leep
Ġwant s
Ġ owl
re n
Ġbec ome
in ce
Ġbreak fast
Ġanim al
Ġfly ing
Ġcra ck
n ect
Ġquest ions
Ġp ur
st em
ĠC ool
Ġm ountain
Ġsha r
Ġcre ate
Ġask ing
ĠT r
Ġh our
Ġle g
a j
Ġso ap
Ġnot hing
Ġwatch ing
Ġf ing
Ġy eah
Ġgi ving
ĠS am
Ġcha se
Ġc u
ĠW ith
Ġyour s
le w
Ġchan ce
Ġpl ate
Ġno se
s ing
Ġp arent
Ġso il
Ġe ff
Ġp izza
Ġsur pri
hisk ers
Ġre ach
Ġb reat
Ġslow ly
Ġcha llen
Ġmom ent
ĠHe llo
R ea
l ine
Ġj ell
er t
Ġrespons ib
Ġt y
Ġwor ked
Ġf act
bo ard
ĠA h
Ġli on
Ġar ms
Ġph ot
m at
Ġt ear
Ġball oon
u nt
ĠF irst
Ġs me
Ġduck s
ast ic
ĠPl ease
Ġcray ons
Ġde finitely
Ġlau g
Ġevery where
Ġexplain ing
A fter
Ġtr ash
ĠE at
Ġbas ket
id ing
id ge
Ġm id
Ġmo ving
E at
Ġbot tle
g an
Ġp et
lo gy
Ġsp read
Ġpart s
B ig
on ger
Ġal ong
Ġacc ident
Ġpu dd
Ġmy self
Ġp ool
Ġf ell
Ġin cl
Ġat e
in ation
Ġ âĢ
Ġbe ans
Ġbot t
ĠTh ink
Ġmo d
Ġl ad
a it
Ġcon c
Ġbutter fly
Ġgl ue
Ġdanger ous
iz ed
ĠW hiskers
he ad
ab ly
s ed
) :
Ġb and
Ġbec ame
ul ar
ig er
ĠT V
u d
Ġproble ms
Ġbr ought
if ic
Ġpain ting
Ġs imp
Ġsh ot
ou n
Ġm outh
Ġwalk ing
Ġf ree
Ġnice ly
Ġhapp ily
Ġshe lf
op e
Ġn aughty
Ġgo ld
Ġshare d
Ġm ar
Ġexamp le
Ġp ack
Ġwind ow
Ġte ch
i a
N ow
he art
l ves
ater ial
ĠGood night
i qu
g ing
ment s
Ġp ill
Ġcon nect
Ġpuzz le
a h
Ġp anc
Ġpresent ation
ĠY ummy
at ive
Ġairpl ane
k ins
Ġrem ind
gr ound
Ġc aught
Ġyou ng
augh s
Ġm ark
Ġto ast
V ery
ur t
Ġd eep
Ġz oo
Ġele ct
u h
Ġg lo
Ġb uck
Ġbas e
Ġlea d
Ġcloud s
b ably
o h
Ġc ur
ĠA w
Ġcand y
Ġm aterial
Ġv o
st arts
Ġfr uit
Ġtot ally
Ġkid do
Ġgr oup
Ġfind ing
Ġhe art
Ġke pt
Ġturn ed
Ġsn eak
Ġparent s
D eal
Ġre t
Ġac ross
ir l
Ġsh o
Ġv ol
Ġcha rac
u ral
Ġless on
u mber
Ġcray on
Ġst ra
Ġdad dy
Ġsupp ort
Ġway s
Ġeas ier
Ġtow el
ĠBe ing
Ġp ump
Ġv al
het ti
ĠW ils
oo p
Ġst raw
ĠWils on
ist er
ĠM ax
Ġen g
it ch
Ġli ft
b it
Ġkn ew
Ġman age
Ġaw ake
Ġkind a
g iggles
g ed
ce pt
. '
ĠâĢ ĵ
l ic
ag hetti
Ġp ar
y ard
Ġday s
aj am
Ġl ose
l and
Ġhu nt
ĠSam my
B ear
ir th
Ġl aw
ĠH igh
Ġnam ed
Ġk ing
Ġt ast
ick s
Ġd r
art h
p ic
c rib
Ġmod el
Ġsee k
Ġwood s
w alk
Ġtr ust
Ġp ee
ĠE arth
se lves
Ġl ine
Ġd ig
ĠH a
Ġc orn
Ġpro bably
mon str
Ġs ink
Ġin c
Ġtow n
Ġvis it
ĠP ark
on y
ĠW atch
Ġr ound
an ut
Ġshould n
Good night
Ġsol ve
Ġdanc ing
Ġre g
Ġc ard
Ġs ort
Ġsh ort
Ġf ut
k y
w een
Ġo ce
ad es
ĠM ake
n ic
c al
ĠD efinitely
id y
Ġdes ign
ic ing
Ġcra zy
Ġcha r
Ġban ana
Ġa ffect
pl ash
Ġset ting
Ġli ck
Ġr an
Ġsu b
H i
c ked
Ġle gs
Ġproper ly
op s
Ġarg ument
Ġr oo
er tain
N ot
Ġegg s
Ġimp ro
Ġd ump
Ġfut ure
b ra
ĠC ar
Ġor gan
** .
Ġt ale
a pp
Ġc ase
Ġhur ry
Ġde f
g ar
Ġdo ct
u ess
Ġhi ding
en tle
Ġn ature
lo g
Ġdiffere nce
Ġmid dle
Ġcons ider
Ġfor m
Ġl augh
Ġsnow man
Ġqu ack
' ,
ic hes
Ġsafe ly
Ġres earch
Ġo h
Ġback yard
Ġh um
Ġgrow ing
Ġsa fety
Ġme l
ĠSp eaking
i ves
ail s
ter day
Ġw ings
Ġsp aghetti
Ġshow s
Ġbott om
er ms
R ight
Ġpro cess
Ġt ape
Ġto oth
irth day
Ġt idy
Ġrespons ible
ajam as
S w
or row
Ġsimp le
et e
Ġagain st
h ouse
ĠH appy
y c
oo th
Ġfix ed
p ect
Ġf lew
Ġe qu
Ġ ess
ĠS ay
Ġr ob
Ġho le
Ġass ign
Ġsandw iches
iqu e
i an
il t
Ġb in
Ġdel ic
ĠY ep
ĠC ould
bo x
Ġyear s
Ġb ar
Ġmo ves
Ġsec ond
Ġj ar
Ġfor g
Ġstra ight
Ġhave n
Ġfl uffy
Ġgi ves
Ġbu gs
Ġst ea
at s
ĠA n
Ġgar age
Ġs ince
oo sh
Ġsee ms
Ġsy stem
er v
Ġhe al
Ġ Qu
u le
anc y
Ġl uck
Ġplay time
Ġpig gy
W as
l aughs
Ġexper ience
in ess
ho ld
Ġche st
Ġsl ices
Ġbo y
ĠY um
lock s
er ing
Ġbet ween
Ġmu d
Ġm ach
M y
Ġhi ll
Ġpe anut
c om
ĠAw esome
ĠIs n
Ġshe ep
Ġal one
Ġe ye
ĠS h
Ġint ense
Ġe pic
Ġfre sh
Ġcal m
Ġp ay
ie w
Ġde er
iss ors
Ġstraw ber
m it
ĠS orry
Ġcontro l
Ġg irl
Ġco st
Ġc ertain
Ġbu g
in ed
ot e
Ġkit ten
po ints
Ġshar p
Ġb room
Ġfor ward
ĠC l
Ġcreat ive
Ġpen gu
b ow
Ġn umber
Ġdis cus
Ġwr iting
Ġt ack
d ies
Ġc ere
Ġn at
ĠP e
Ġad v
ĠC he
Ġcolor ful
Ġp ajamas
f ort
Ġl ay
Ġh on
er a
ol ved
Ġyes terday
is es
ĠE n
Ġatt ention
Ġn uts
Ġsit ting
Ġme mor
Ġpract icing
Ġt alked
Ġkeep ing
s c
ĠAny time
H old
Ġshow ing
b oo
Ġri p
Ġf as
St ory
Ġeff ort
Ġpr in
ag es
Ġbea ch
Ġfin ished
Ġsme ll
o ons
Ġ ow
Ġmess y
Ġb irthday
p h
Ġar m
Ġpot at
gu ing
S ha
Ġ ent
Ġin form
Ġz oom
s w
Ġswing s
Ġm ention
Ġg erms
Ġear s
s es
Ġm ain
Ġpot ty
Ġoce an
Ġbe e
Ġp ea
Ġpic nic
n ch
Ġst o
Ġle vel
Ġre as
Ġfl ag
Ġboo ts
Ġv ill
B unny
Ġp ants
Ġcir cle
Ġp eas
F ine
Ġg randma
it ten
u per
Ġlike d
Ġsp ark
C l
Ġt iger
Ġar guing
Ġtow ards
Ġfing ers
Ġt ail
Ġag ree
c orn
Ġsc ar
Ġpre p
v o
Ġne ck
Ġlight s
Ġjell y
ho es
Ġc am
Ġg as
ust r
Ġrock s
Ġswim ming
Ġcharac ter
monstr ates
ĠW hi
Ġab le
Ġt ag
Ġsw ea
Ġstre et
c ycle
Ġdes crib
Ġdo ll
Ġs al
p ack
Ġcoll ect
Ġcamp ing
Ġmist akes
Ġsk in
d a
Ġon to
Ġf ancy
ĠS a
Ġskill s
Ġplay ground
Ġdoct or
Ġas ked
Ġp ath
ĠG ive
Ġpat ient
Ġstr ate
Ġimp ress
Ġbuck et
c ing
Ġt ext
H mm
t a
Ġ Z
Ġp rom
ĠM ine
Ġexper im
Ġdec ide
A bsolutely
Ġli kes
Ġsweet heart
Ġtack le
Ġcommun ity
Ġpill ow
Ġfr ont
Ġare a
P erfect
ĠE ven
r uck
ore s
Ġnat ural
Ġw eather
Ġgr ades
Ġrob ot
Ġsp end
Ġact ion
Ġso cks
Ġro ad
Ġlea st
Ġplan et
ci ent
Ġis s
ast er
Ġstart ing
Ġt un
Ġe c
en ces
ist s
Ġd ep
c ise
Ġhold ing
Ġchan ges
Ġstay s
s it
Ġw at
The re
Ġsit u
Ġin s
Ġshow ed
Ġtoo ls
Ġforg ot
-- -
Ġexp ect
Ġpick ing
Ġ ---
Ġsc are
Ġfore ver
Ġbo ard
ĠU n
Ġla mb
Ġf ence
l ide
ĠSw eet
Ġcom b
Ġmed ic
Ġo b
Ġe v
c ed
Ġc ous
Ġsm ooth
B ecause
Ġsc issors
m er
le nt
Ġst ir
Ġsc r
ant ly
Ġre v
in ing
Ġw ar
Ġstick s
e le
i est
ĠN ight
Ġag o
it her
t ed
ĠT om
Ġfriend ly
Ġdec is
ĠPe ople
s er
ĠV ery
Ġh y
n ow
Ġjump ing
Ġwo lf
Ġsha pe
ove l
Ġs ister
Ġbea t
ĠG uess
Ġwear ing
ĠEn joy
S nack
Ġlaug hed
Ġb ead
hold s
Ġcook ing
Ġexplore r
Mom my
Ġso c
Ġpo or
gg ies
Ġcu ri
re ed
Ġrain bow
if y
Ġsu mmer
Ġon line
i ed
Ġgi ra
ĠU p
Ġt ract
ĠO r
Ġglo ves
Ġsc hed
ĠA lex
Ġclean ed
F un
ap tain
ag ed
ĠJ en
ĠAl ways
Ġsleep ing
Ġri ver
Ġto mat
Ġre act
ĠB lue
ĠB ear
c in
ĠO n
Ġpump kin
ĠW ait
Ġcl own
Ġsmall er
Ġa p
ood les
ab les
Ġsl ipp
Ġo ven
ĠP ush
ĠTo day
Ġd ough
Ġhelp ful
Ġwor ried
I n
f er
Ġess ay
Ġsee ing
Ġun f
Ġlo ves
ore d
Ġbu ilt
Ġcont in
Ġassign ment
Ġp ony
Ġlove ly
Ġcere al
cl aps
Ġst ri
Ġwas hing
Ġb ur
S leep
ĠPark er
Ġback pack
iz ing
a ger
Ġcount ry
Ġstor m
Ġm is
Ġty pe
Ġmaterial s
Ġw alked
ho st
Ġbath room
ĠWe re
Ġact iv
Ġteam work
ĠO ur
om es
Ġimag ination
Ġfact s
i led
Ġpo ints
ĠC aptain
Ġfr idge
Ġc aus
Ġkn ee
am ie
Ġpo ster
Ġmin ute
Ġcous in
ell ing
Ġmach ine
Ġsched ule
sm iles
c il
Ġ ou
Ġp aw
Ġsp rink
b oy
Ġgra pes
Ġf ur
Ġpir ates
Ġbra in
B u
Ġnap kin
H ug
Ġb unch
Ġeas ily
l ife
Ġlea f
Ġg rand
Ġpengu in
e mp
Ġw aste
Ġsa uce
air s
Ġresponsib ility
Ġspl as
Ġper form
o ver
U p
ke ys
u ice
Ġm eat
Ġa head
Ġl onger
Ġtrick y
Ġc ause
Ġfor k
Ġmedic ine
Ġin d
Ġincl ude
c ha
l m
Ġhar m
Ġplan ning
u me
is m
Ġs alt
Ġst e
Ġen c
Ġimpro ve
Ġso da
Ġan n
Ġsu gar
G o
Ġfas cin
Ġt ou
Ġe ffect
Ġfin ally
Ġheal th
ell o
Ġd am
ic ated
Ġsp in
Ġst one
Ġdi rect
c an
Ġtract or
le ct
Ġo pp
Ġcha mp
ung le
Ġpop corn
Ġst ress
Ġear ly
T eddy
Ġg host
h ood
Ġm eas
Ġrec yc
Ġm ail
ĠS c
Ġsp eed
ĠWho a
Ġcam era
Ġter m
b ook
Ġpanc akes
I s
Ġr ad
Ġco nd
Ġgr own
Ġapp ro
Ġsp aces
Ġgot ta
The n
Ġwin ning
Ġc le
Ġc ave
Ġjo in
Ġconf us
Ġc lock
Ġan cient
Ġbe g
Ġz e
Ġtim er
Ġa vo
n ed
r up
Ġfr ustr
Ġcrack ers
Ġr oof
ob b
Ġinst r
Ġsurpri se
Ġdrag ons
Ġtr ans
Ġinform ation
b ble
ic le
is ed
Ġhi g
Ġelect ric
ĠH is
Ġb atter
Ġha lf
Ġun ique
Ġ er
ĠU h
Ġpic ked
Ġv ac
l et
Ġcomp ut
Ġf eather
Ġpro g
ho se
Ġp lent
Ġk ite
Ġp atter
S he
a pping
Ġbus y
V room
Ġha mmer
ĠJ amie
os y
l k
il ities
end s
Ġbird ie
r on
Ġs hi
Ġquiet ly
Ġflo at
Ġmon ster
ick y
Ġn ut
c y
ac hes
Ġsc ient
Ġj ungle
Ġr id
Ġfascin ating
B ook
ur ch
u se
Ġswea ter
Ġgu ide
Ġsun light
Ġhour s
Ġle mon
ĠT ime
Ġgo al
Ġstep s
Ġexperim ent
Ġplent y
!' "
j ust
Ġpur p
ro ll
Ġbe es
Ġall ig
ĠC ook
Ġjump ed
Ġt ent
Ġclimb ing
Ġcle ver
ur ns
Ġfill ed
Ġcomp romise
f y
Ġh ose
Ġsp r
Ġ* (
Ġb io
om p
Ġhard er
it er
Ġte mp
Rea lly
Ġc ross
Ġtw ist
en ter
Ġsh ovel
Ġfo x
Ġc art
Ġdec or
Ġhat e
Ġwor ries
Ġdraw er
pp le
Ġsuperher oes
ĠHa ha
ap t
n et
ĠR ed
ĠA s
ess ion
Ġdelic ious
Ġri s
Ġc ity
Ġhe at
Ġtur key
et ter
Ġwor th
Ġru le
Ġlad der
Ġgira ffe
e ms
Ġbreat h
ele br
Ġche m
Ġcompl ete
og urt
Ġwall s
Ġscar f
Ġn oodles
Ġcor rect
Ġou c
B lue
Ġmot or
ct ually
ĠW ater
Ġpop s
Ġbreak s
Ġchi lly
Ġtruck s
ha nd
Ġclimb ed
ĠE ach
Ġfeeling s
Ġve ggies
Ġs ent
Ġplay er
D uck
n ock
Ġc elebr
Ġn est
Ġcreat ures
p ed
Ġact ions
To ddler
Ġmu ff
Ġdinosaur s
Ġby e
ĠF l
Ġt en
Ġfix ing
fl ies
im ics
Ġsome where
i ff
Ġvo ice
Ġwat ched
Ġsp eaking
str on
Ġpea ce
Ġt aught
Y ummy
ist en
S m
ou ra
Ġm oose
Ġdiscus s
Ġpotat o
Ġme ant
ĠN ice
lic op
Ġs our
Ġchi ps
fort able
Ġf ant
S p
) *
ĠS nack
ĠA r
ar ing
Ġa ut
Ġdanc ed
Ġj our
Ġchallen ge
ink le
Ġdist ract
ĠS at
Ġsur v
t akes
ic ally
Ġsing ing
co ver
Ġfl a
Ġtri cks
Ġis land
Ġan sw
ĠSp ark
Ġdescrib e
Ġb ake
ĠS plash
Ġli br
w o
Ġimp act
Ġt ap
is hing
Ġvol can
ĠJen kins
Ġw ide
es ides
u ch
Ġun s
it am
W ash
an y
Ġcha lk
d om
Ġs led
ĠS leep
Ġch urch
H ello
Ġg ather
ĠU gh
Ġl amp
Ġs eas
ĠT hose
ar r
ĠB ook
Ġke ys
ĠL ast
are ful
Ġ ign
ve red
Ġch ores
mb ered
Ġbear s
Ġo bs
Ġan g
Ġdet ect
Ġstudy ing
ĠTr ue
ĠJ ake
Ġsho e
Ġmention ed
Ġra is
Ġlet ting
Ġwa ves
Ġu nd
Ġg oose
Ġaccident ally
ret ruck
me mbered
Ġmist ake
ro p
Ġstu d
itten s
l ace
Ġcom mon
ĠS uper
ĠT eacher
Ġin sp
c les
Ġm atch
Ġw igg
Ġc oun
Ġfall ing
Ġreas on
Ġdon key
Ġcap tain
Ġsto pped
w w
C ar
Ġit self
Ġhist or
Ġstea dy
Ġcuri ous
Ġpress ure
Ġcow boy
Ġn orm
Ġbead s
t les
Ġs unny
ĠSt ory
Ġwin ter
Ġs ize
ent ial
Ġvill age
Ġfl at
Ġn ail
Ġimport ance
Ġmov ies
Ġre membered
Ġa stron
Ġcomp et
Ġn eat
ĠF un
Ġsitu ation
Ġpro d
o x
Ġperson al
r ate
Ġsc en
Ġow ie
p icks
an as
Ġcir cus
Ġd ue
ors es
Ġdet ails
Ġbe nch
Ġpol ice
Ġcompl icated
c he
Ġd ust
ĠE x
R ed
ĠB y
Ġl an
Ġpus hing
Ġlo cal
au ce
Ġco vered
Ġchild ren
Ġplay s
Ġrock et
Ġsn ake
Ġtr ad
Ġed uc
T his
l ar
Ġrecyc ling
ĠB unny
u gs
Ġd ish
Ġy ogurt
no ds
Ġphot o
g en
Ġhe licop
ri ll
B e
G ot
Ġp age
Ġwa ve
Ġbo ss
ĠK ind
Ġchan ged
Ġpower ful
Ġze bra
c ake
ick le
Rea dy
Ġpudd ing
Ġgu y
Ġgr ade
Ġlaw n
Ġcomput er
Ġc ult
Ġp an
im my
Ġwhe el
Ġsl ip
Ġplan ets
Ġstand ing
Ġhig her
Ġthrow ing
ĠM akes
Ġexp ress
Ġlate ly
r own
Ġ" **
Ġstre ng
Ġbat tle
Ġfall s
id ents
Ġb ib
Ġneighbor hood
ra m
Ġsol ution
Ġlibr ary
Ġroo ster
S hoes
g ain
ĠJ ump
Ġbel ong
Ġec osy
Ġplant ing
Ġhur ts
Ġfl ash
Ġve get
Ġlad y
Ġsc reen
br ush
Ġallig ator
Ġco ach
Ġfast est
et ch
Ġavo id
Ġs at
Ġgam ing
Ġclot h
at t
ce ll
Ġro le
pp er
Ġthem selves
Ġcl ub
Ġfla vor
Ġy um
Ġpen cil
s ha
ve lo
Ġsp eak
Ġg ear
Ġstay ing
f a
ct ion
Ġdis app
J ust
Ġe ither
Ġsa il
Ġsc ore
Ġcho ices
aus es
Ġst ation
Ġstr onger
l ike
ob s
Ġmet al
Ġad just
Ġbro ke
ot s
hi on
Ġr ough
cc ess
n ies
Ġhe n
Ġnorm al
l ier
ĠW he
and s
Ġyou nger
Ġst ack
ĠP re
ugg le
W alk
Ġc oup
Ġpre d
Ġglass es
Ġremind s
Ġmiss ing
Ġc row
ĠJ oh
Ġs end
i os
Ġfi retruck
lo se
it ty
u nd
v i
Ġsomet ime
Ġany way
Ġv an
Ġmeas ure
ĠL ove
Ġresponsib ilities
o ke
Ġpo ll
Ġl ines
at ors
mag ine
og rap
Ġadv ice
Ġhon est
H igh
Ġbo dies
up s
Ġspec ific
re es
Ġcool er
Ġp or
Ġear lier
i red
st ers
un k
Ġfant astic
C ook
Ġsha pes
Ġun c
Ġsol id
Ġlemon ade
t hank
it ions
Ġkn ife
Ġpen ny
Ġam ount
Ġann oy
W hen
ĠG entle
o or
Ġs earch
ff ee
Ġcut ting
Ġrad io
Ġv itam
Ġhelicop ter
Ġso ck
Ġtale nt
l ish
ĠJoh ns
Ġwo ke
Ġtrain ing
u its
sm iling
Ġsu dden
ne y
Ġsa ved
ĠT ake
Ġbu bble
N ice
Ġhe lm
Ġap art
c ul
f ra
Ġe mb
Ġstrawber ries
Ġfish y
Ġsong s
ipp er
Ġ 3
ĠAny way
ĠS it
Ġneck lace
Ġmot ion
ĠJohns on
A t
igh ter
Ġpret z
Ġtop ic
Ġarg ue
Ġm ittens
Ġfeather s
Ġcoup le
h oo
ain t
W ho
l i
Ġs orts
Ġdro pped
Ġstrate gy
Ġto ng
Ġr iding
Ġgen er
Ġval u
Ġeng ine
al es
Ġvolcan o
Ġus es
ou nce
ll ip
Ġseem ed
D on
hi ck
Ġli ves
ĠThe se
u nder
ill a
Ġshow er
L ove
om ed
Ġbutter flies
h or
ic ate
Ġpl astic
Ġband age
e ans
Ġha bit
ag ing
am a
Ġturn ing
Ġrel ax
ĠA t
erv ous
h uh
u um
v y
ĠH uh
uct antly
Ġpo ss
Ġret urn
a ut
ĠI magine
Ġlaug hing
Ġh orses
Ġour selves
Ġcr unch
Ġinstr uct
Ġtri es
e k
ĠS lide
Ġsc rew
Ġlan gu
Ġt utor
Ġall ow
Ġbot her
Ġafter ward
Ġphot os
Ġs im
Ġn ervous
Ġknight s
emp ts
Ġclo ser
Ġpus hed
Sha re
R e
Ġco ins
ret ty
Ġac orn
rr r
Ġprom ised
B all
ĠB esides
ip s
Ġdis c
Ġpanc ake
Ġstreng th
Ġwere n
Ġw ise
led ge
ur ger
Ġover he
Ġswing ing
)* :
Ġs le
Ġm ay
it al
Ġst y
Ġdo gs
ist ic
Ġto es
Ġstay ed
Ġchi ll
Ġmel on
ĠD in
Ġclo set
Ġcor ner
Ġhappen ing
Ġso fa
Ġsa ving
Ġbel t
oura ge
Y our
Ġl ar
Ġp ile
Ġtomat oes
cell ent
id ence
Ġnot es
Ġmon keys
Ġst ove
Ġsw itch
ow ers
n oon
Ġf its
Ġc ri
ur day
Ġwh oosh
Ġcomp lex
Ġdress ed
Ġvalu able
v al
Ġbeg in
Ġst ret
Ġch oo
ĠSat urday
ap ers
Ġafter noon
Ġbreat he
Ġprin cess
en ny
Dad dy
ĠC ha
Ġjour ney
ra g
Ġb aking
Ġvac uum
m o
er ios
Ġn on
Ġgu ard
Ġserious ly
fra id
ri ve
id s
Ġsh orts
Ġsu ccess
Ġsp orts
Ġknow ing
Ġb orrow
S ounds
um s
ĠTo ddler
ĠSpark y
i en
Ġso ld
ur se
ĠBu ddy
Ġnumber s
Ġfam ous
Ġtoo l
Ġinterest ed
Ġunf air
er m
Ġbe ha
i ver
ĠT immy
Ġfollow ing
ĠB all
ĠM iss
Ġres olved
Ġreg ular
b age
i pping
Ġwhat ever
Ġhistor ical
ĠW ash
Ġsal ad
cise ly
Ġl ab
Ġking dom
v ity
mb ol
Ġche w
Ġtreasure s
ĠW ork
Ġsk ating
Ġcall ing
Ġmiss ed
Ġevent s
Ġtast y
D ry
b ack
k ab
Ġmountain s
Ġbio logy
re sent
Ġcomm it
T akes
Ġouc hie
Ġc ell
Ġf ries
Ġin f
ĠB locks
Ġspot s
Ġban anas
Ġstr ing
ious ly
ĠAl so
C ome
ĠT ry
Ġteach ing
ĠWhi ch
Ġelectric ity
Ġeduc ation
Ġv iew
Ġcont ext
Ġdri ving
Ġco in
dd ing
Ġmon th
Ġcr umb
Ġsol ar
ty cake
ire s
Ġant s
Ġconc er
kab oo
Ġnot e
Ġcra ft
Ġti ss
Ġpro f
Ġside walk
Ġtun a
Ġsoc ial
w ater
Ġb lo
Ġsa fer
Ġtell s
Ġfing er
Ġm op
ĠF in
Ġho pped
Ġwhe els
om ing
Ġmu ddy
Ġm eal
Ġpl ates
ish y
ro d
Ġhu gs
Ġpops icle
ĠS hh
g o
ol ution
ous es
Ġrec ipe
ea m
Ġti e
gg ie
Ġsy mbol
Ġclo sed
Ġes c
ac hed
Ġlo llip
Ġpur se
Ġre pl
ff ic
Ġclass room
Ġsand box
Re member
Ġtri cycle
Ġph ys
Ġa fraid
ic ation
ĠP ut
Ġskate board
ĠQu ack
Ġl ake
Ġblow ing
Ġhang ing
Ġsc ra
omed ay
Ġspaces hip
Ġbe lly
U h
Ġr ub
Ġmiss ion
Ġpor ch
Ġg randparent
Ġpo sit
** !
p auses
Ġt as
Ġw ip
Ġsoft ly
Ġ1 0
Ġs ides
Ġs ell
Ġs ect
Ġre ward
Ġtra vel
e y
low s
Ġstrawber ry
Ġco ffee
Ġdis cover
Ġl ed
pen s
mb urger
Ġjell o
Ġfor ce
Ġfocus ed
' ."
ow nt
Ġpart ic
hi c
Ġte le
Ġspill ed
Ġj eans
Ġball s
Ġfight ing
Ġw his
Ġw ore
Ġpre vent
anc hes
l ook
Ġa po
re ak
Ġin fl
Ġcow s
Ġsneak ers
Ġs omeday
Ġz ip
Ġrep ort
Ġflash light
Ġb er
Ġmy ster
D raw
p r
Ġde velo
P ush
Ġtong ue
B locks
Ġa ud
ph one
Ġstop s
Ġp air
ĠS m
ver n
Ġlearn s
Ġhelm et
t ure
ĠB ird
Ġwas hed
it ed
m iss
ĠJ ac
Ġpass ion
Ġdecis ions
ic y
Ġacc idents
Friend s
Ġcompet ition
Ġscen e
Ġun cle
Ġnot ice
Ġsquirrel s
Ġpull ed
ĠJac obs
Ġw and
ĠE ng
Ġbr anches
ĠChe erios
ĠB l
Ġun ex
Ġroo ts
C o
N ap
n am
Ġg um
ĠY up
Ġlangu age
an ch
Ġdrink ing
Ġru bb
Ġadventure r
Ġpar rot
Ġiss ue
Ġcomplete ly
Ġhi lar
Ġmuff in
Ġsudden ly
Ġv ar
Ġapples auce
Ġst ream
ers on
Ġtr ay
Ġins ane
o dy
Ġwe ight
Ġveget ables
s uit
ĠA ctually
Ġno ises
Ġapp ly
Ġl os
Ġfair y
Ġopen ed
Ġhilar ious
c ause
Ġhe llo
Ġst airs
ĠSa fety
ĠSw ing
Ġf ear
Ġinstruct ions
Ġf old
is hes
Ġb ic
Ġn ob
Ġbreak ing
w he
Ġha mburger
Ġsha ll
Ġr out
To day
ĠOn ly
h oosh
s igh
Ġb urn
Ġnap kins
Ġfr uits
Ġl ow
Ġcom fortable
de monstrates
Ġte en
f or
i pped
it ude
ir ty
Ġchallen ges
Ġc ent
Ġi mm
Ġti ps
iet y
Ġhum an
Ġgarden ing
Ġtouch ing
Ġcrow d
a a
us hes
T h
er ve
pp les
ownt own
B ed
Ġli ons
Ġear th
Ġmess age
Ġiss ues
Ġdi aper
Ġde b
Ġchicken s
ĠP romise
in al
ĠH ug
ĠD raw
Ġrep resent
D ance
Ġbe ep
ĠR o
Ġwalk s
ĠU nder
Ġ earn
Ġwill ing
ol ve
Ġstr uct
Ġrun s
G entle
Ġpaw s
Ġmail man
' !
y ing
Ġtr ade
Ġval ue
Ġcoun ter
Ġor der
ĠEvery thing
Ġh omes
Ġz ipper
Ġperfect ly
Ġgar bage
Ġcu dd
Ġactiv ity
Ġchi p
Ġed ge
M mm
k ate
l ies
o nderful
Ġw rap
Ġpat ience
G iggles
Ġl ucky
Ġknow ledge
Ġsurpri sed
i mate
Ġcont rib
Ġsur f
ĠBu ild
Ġvitam ins
Ġ [
ĠD ry
Ġstory t
Ġho les
Ġtooth brush
ke ep
roll er
Ġpick le
Ġgra vity
ĠTom my
Ġj ew
ĠF ast
Ġfire man
ul ts
Ġbr anch
Ġeven ing
Ġenjoy ing
S it
g ently
ĠA unt
P ark
H a
Ġf our
ro c
Ġbab ies
ĠL earn
Ġstick er
Ġju d
Ġlet ters
f ish
Ġf il
Ġmeet ing
er iously
Ġh ouses
anc ed
S plash
Ġmo der
ĠIn side
Ġpudd les
r un
it ar
Ġe m
Ġcon so
Ġreal ize
Ġcontro ll
Ġconc ert
us hing
Ġappro ach
A n
Ġj am
Ġany where
Ġres our
Ġtech no
Ġlollip op
or ies
ĠD uck
ĠJ ack
ol ving
ĠWhi le
Ġroll ed
Ġbl ood
Ġend ed
Ġtemp er
Ġannoy ing
Ġs ip
Ġp ink
Ġexpl oring
ĠPre cisely
Ġp ad
Ġcl a
uct ion
Y um
ĠS now
Ġst ones
om an
Ġr ings
Ġan al
Ġche er
Ġbox es
Ġfro gs
Ġansw er
p ants
ou lder
un nies
il ar
Ġmove d
Ġsweep ing
Ġcr ib
Ġtake n
Ġwater ing
Ġref lect
Ġbic ycle
Ġw ra
se ct
Ġman aged
Ġcrack er
ĠN ap
Ġfin al
Ġplan e
Ġwor se
Ġfollow ed
Ġtight s
Ġconso le
Ġc enter
mb le
Ġcount ing
ch y
ch oo
Ġcool est
Ġweek s
Ġmotor cycle
i um
Ġab s
Ġwhen ever
Ġbus iness
Ġm ass
at ic
ĠO pen
pl ay
Ġmy st
Ġsm iles
anc es
d ow
Ġg ross
ri st
Ġad apt
Ġde monstrates
ĠU se
Ġpers pect
Ġchar ge
Ġimpress ive
Ġsurv ive
S c
b ear
Ġ ing
Ġhelp ers
ur b
Ġproject s
Ġtech n
Ġg e
J ump
Ġm ill
Ġd ive
Ġstr ange
Ġleg end
Ġsho pping
Ġadd ing
Ġcelebr ate
Ġposit ive
H op
Ġm ower
Ġbr idge
Ġrain ing
Ġstory time
Ġpo st
Ġduck ling
Ġcreat ing
t on
Ġi ll
ac ked
Ġbed room
Ġperform ance
Ġr ather
ĠJ uice
Ġd owntown
Ġchan ging
Ġru in
Ġsect ion
H ot
Ġgo vern
ĠD ance
Ġbit es
iv al
.' "
Ġcon cept
Ġtra ve
Ġreact ion
a ves
Ġal ive
walk ing
e ge
Ġthought ful
Ġsprink ler
i ers
r or
all ing
be l
Ġs eat
ĠEng lish
Ġmus cles
S h
ee ze
ol ves
Ġfro ggy
Ġp in
Ġg low
Ġdam age
ĠC o
Ġecosy stem
Ġl ock
lo ad
Ġob ject
hand s
Ġdon ut
ĠSh ould
Ġdecis ion
S hh
b u
Ġin de
ĠSha re
Ġhero es
Ġinc red
ĠB enny
end ing
Ġbring ing
b y
Ġboat s
Ġpurp ose
Ġmatter s
in ate
Ġs ens
ck et
Ġsl ides
Ġtra il
Ġnam es
Sleep y
Ġcaus ing
ĠB etter
Ġsim ilar
Ġsu gg
Ġsugg est
o ff
ĠZ oom
c ra
Ġm at
um ents
Ġwait ed
Ġb are
Ġsh ine
Ġbeha vi
Ġtiss ue
ort un
ue l
Ġhold s
Ġmin i
c on
t he
Ġst roller
Ġeat s
ĠR un
Ġcr uc
Ġmix ed
ter n
Ġhit ting
Ġfarm er
Ġelephant s
gg ed
Ġli qu
Ġsw ord
Ġcruc ial
Ġin vent
Ġsc oop
fl ict
Ġtrad ition
Ġw obb
E nd
b l
Ġb i
Ġc op
ĠH ot
ĠW alk
Ġpat tycake
Ġblank ets
ugg les
Ġvan illa
Ġinde ed
Ġcon se
i ate
p id
Ġto e
Ġcoll ege
in ary
Ġkind s
ump y
Ġmyst ery
Ġt hick
om b
ic ked
Ġsp ring
Ġbutt ons
Ġref ers
sigh s
Ġpick s
Ġhead s
ĠSt ay
ĠTom orrow
Ġpatter ns
Ġign ore
g reed
ĠL ily
Ġac cept
" ?
Ġw ea
ĠL isten
Ġsh oulder
Ġwild life
J uice
al ity
Ġdraw ings
Ġent ire
Ġdevelo p
W ait
ou b
Ġco l
ĠP u
arr ass
it es
Ġl oose
Ġdo c
iv ity
Ġo il
ak er
Ġdrink s
aw ns
Ġpot ential
p ill
Ġc us
Ġto r
Ġfor th
ĠSh ow
re aches
ĠG reen
ĠF ix
Ġexp lo
Ġconnect ed
m imics
Ġspl it
Hold s
Ġtou ched
Ġball oons
Ġbase ment
c ip
ess ert
Ġsand c
Ġopp ortun
Ġprog ress
Ġc ards
Ġsh op
os p
Ġtall est
pect ed
Ġteen ager
e g
t ub
w r
Ġhe sit
Ġkn own
Ġstick ers
ation al
ĠTo gether
Ġslipp ery
Ġgood night
hi es
ĠT w
Ġst age
Ġcon flict
Ġcost ume
Ġrais ins
Ġmoder n
n el
Ġl iter
ut h
pl aces
Ġstrate g
Ġhear ing
Ġwalk er
Bu ild
Ġ Older
ang le
Ġtechno logy
Ġb ank
st ems
Ġcup s
stand ing
Ġconfus ed
Ġdetect ive
Ġw ing
Ġr ot
ul ate
Ġpri v
s on
Ġgold en
Ġtemper ature
B ird
Ġra cing
Ġlunch time
Ġcre ep
Ġbasket ball
re s
Ġn et
Ġn urse
Ġsl ice
Ġwr ote
e er
Ġbe nd
Ġconsider ate
Ġst ate
ĠD rink
Ġplan s
Ġg y
Ġapo log
Ġb ul
Ġv ib
Ġen ter
Ġact ing
Ġinv olved
W ater
Ġdet erm
Ġdelic ate
Ġp il
Ġgu itar
Ġemb arrass
Ġcrunch y
D efinitely
r ound
ater pill
ur ry
Ġrev iew
Ġsent ence
Ġconse qu
ut side
Ġo ak
Ġo pt
Ġst at
Ġne g
Ġwo nder
Ġatt itude
ĠM s
Ġunex pected
i ences
Ġdis hes
Ġcre w
Ġposs ible
Ġd at
Ġland ed
F ast
ĠS oft
Ġli d
Ġpro p
Ġcar p
k le
Ġoff ic
ĠO ops
Ġm as
Ġne cess
Ġdri lls
w e
Ġf ab
Ġb oun
Ġc oo
Ġcom fy
Ġd essert
Ġab ove
Ġlea der
ĠLearn ing
Ġ 5
Ġd est
Ġcat s
Ġpro v
Ġag reed
Ġfood s
c ue
ea st
ĠY ellow
Ġwant ing
ro ken
Ġunder pants
Ġsqu are
a fe
ay s
Ġsme lls
Ġpudd le
ĠWork ing
Ġex er
Ġbring s
Ġdry er
Ġcount ries
Ġcreat ure
Ġsty le
Ġb unnies
Ġare as
Ġmean ing
Ġsupp lies
Ġpill ows
, '
Ġpu pp
Ġsp ell
ĠF r
Ġde v
Ġcr it
ĠS eriously
ri pt
Ġjack ets
W ant
a id
Ġhy d
ĠAr ms
ĠG ar
Ġun p
Ġpaint ed
Ġpull ing
Ġho pping
Ġtast es
Ġprep ared
Ġs ight
re st
ot ally
Ġdi v
Ġcontin ues
row s
Ġatt ract
Ġin sect
les c
Ġj oy
Ġv ine
Ġche ating
ĠSw im
ce ed
uck les
Ġmark et
u ding
Ġp un
Ġput s
Ġcatch ing
Ġexper iences
Ġfab ric
ĠS qu
Ġhim self
Ġfl ies
Ġconsequ ences
or ds
Ġmyster ious
Ġs ession
Ġb ounce
Ġnew s
St icky
Ġing red
nd ry
Ġpretz el
Ġp ets
Ġr ust
Ġbird house
Ġgi ft
Ġpatter n
Ġber ries
Ġr ush
Ġpre s
Ġsub ject
Ġc aterpill
Ġsk ates
Ġp ages
Ġplay ers
ro ps
Ġhi d
Ġmom ents
ĠQu iet
Ġfind s
Ġstuff ed
Ġb le
ĠO w
Ġcontin ue
Ġd ouble
Ġor ig
iv il
Ġfrustr ating
a z
Ġw ag
Ġbec oming
Ġad ject
Ġprep are
Ġc hat
Ġd ead
Ġmemor ies
re nt
Ġnut ri
Ġesc ape
hi ps
Ġd umb
ĠS un
ar ah
Ġbath tub
Ġcarry ing
Ġsha king
Ġlea ving
Ġdist ance
ont in
o int
oo ps
Ġcrumb s
ea ble
Ġun b
Ġhat s
co a
Ġlau ndry
ĠTr uck
mat ic
Ġmag n
Ġte lesc
Ġrespect ful
Ġc ast
Ġc ape
Ġp apers
Ġcar ried
Ġun w
ĠSa fe
C old
i ents
Ġpri or
Ġcard board
b on
low ers
Cl aps
Ġresour ces
ĠC old
ĠR ead
Ġfl ip
ĠFl uffy
H ome
ĠE ww
Ġfl our
Ġclear ly
m en
r ange
Ġw ha
Ġstu dies
Ġset tle
h ite
Ġbe an
Ġsing le
P u
Ġ vers
ook y
Ġspec ies
ĠTr ust
com ing
Ġlet ter
Ġlos ing
Ġsandc astle
Ġc ab
ĠS low
Ġdo ggie
ĠC h
St arts
Ġsour ces
Ġw iz
im als
g ra
m ies
Ġli ps
bor n
Ġsn uggle
ge bra
Ġch in
m in
re ts
Ġcon vers
Ġart ist
Ġmain tain
ea vy
Ġrec ycle
Ġbehavi or
Ġa im
on om
ĠPl ants
Ġdifferent ly
Ġconc ent
an es
Ġd rew
Ġre ached
Ġth rew
Ġact ual
Ġtreat s
Ġorgan ize
Ġscr atch
Ġcreep y
Ġw eak
Ġf uel
Ġcomp any
Ġtr uth
Ġgl itter
Ġac hie
, "
A w
ĠW ar
ust er
Ġgy m
Ġover whe
Ġcon st
Ġpretend ing
Ġdr um
ĠA d
ĠA pple
Ġwhe ther
Ġan kle
Ġstruct ure
Ġsurf ace
ĠF ound
Ġjew els
Ġd ea
Ġwind ows
Ġse lf
Ġcolor ing
Ġmass ive
igg ing
Ġdist urb
erv ation
Ġtomat o
Ġadject ive
is ible
est s
Ġbec omes
Ġconfus ing
Ġseas on
Ġre qu
Ġcon v
ĠF ro
Ġnutri ents
Ġthink s
Ġreal ized
Ġche f
Ġcond itions
G randma
x y
Ġt uck
Ġincl uding
ou ches
Ġuse ful
Ġbuild ings
S oft
r it
Ġcont ain
To gether
ugg ling
Ġevent ually
ĠWith out
Ġcharac ters
Ġtele phone
R un
Ġche ek
Ġse w
b lows
ĠH ome
ind y
ent al
g le
Ġnow here
Ġaw are
ĠUn cle
n ers
o cked
Ġd ate
ir ing
Ġrem ove
Ġinfl u
Ġdat a
Ġn av
st orm
Ġfigure s
Ġdr ank
Ġsold iers
Ġcry ing
Ġincred ible
Ġg ri
rup t
ep ar
Ġa ce
Ġfl ap
To ys
Ġpee l
Ġbatter ies
C he
Ġbas ics
Ġcir c
G randpa
igg ling
Ġev idence
a mb
ove red
No ds
Ġrec ess
Ġenvironment al
Ġsmooth ly
Ġcarp et
F irst
Ġt our
Ġg re
ĠL ight
sc reen
Ġsplas hing
i ving
Ġd igging
Ġra ins
Ġpo s
gg ing
Ġdes k
f ather
Ġour s
ĠE ating
Do ggy
Ġpus hes
Ġactiv ities
l ers
Ġp owers
Ġhe ld
Ġcl ues
iz ation
Ġpotat oes
C areful
f ire
Ġf east
Ġkn ocked
Ġsl iding
Ġrel ated
Ġdesign ed
Ġeffect ive
c ut
c alling
d les
u ri
Ġw oof
Ġb lew
Ġm ult
ir m
Ġsp ort
Ġs epar
Ġend ing
Ġneighbor s
Ġinter net
Ġbare ly
w are
ĠI ce
Ġsw am
Ġrock ing
Ġfrustr ated
Ġnob ody
ab y
ĠO uch
Ġchair s
Ġbat tles
Ġty pes
Ġwigg le
Ġgovern ment
Ġr ing
Ġem ot
i lder
t ries
it ive
Ġd ed
Ġg rew
ĠC atch
ĠM mm
Ġsm oke
Ġsec ure
Ġpurp le
Ġ Child
Ġt ank
ch uckles
Ġsm iling
as on
Ġup d
rand om
Ġschool work
Ġexplorer s
Ġc ourage
Ġal gebra
Ġstu pid
Ġgr umpy
ĠSt icky
Ġmet ho
ĠT eam
ion al
th ink
Ġtree house
Ġsnow suit
Ġdro ps
Ġastron aut
c han
Ġmag net
Ġ random
Ġgo als
ab ility
Ġro ar
Ġvol unt
Ġang le
ĠA greed
Ġjob s
Ġtall er
Ġdoc ument
H ide
Ġg ate
ĠY ucky
Ġe ma
ĠR ide
Ġbas ed
hie ld
Ġliqu id
f it
Ġlisten er
Ġmark ers
i ans
Ġb ush
ĠT oy
Ġbu ll
Ġmu se
Ġru ined
Ġscr ub
o log
Ġg un
Ġbus hes
Ġteacher s
ontin ues
b its
in se
Ġrec ord
ĠI nd
Ġfire f
Ġatt ic
Ġjo ke
ĠBu bbles
Ġpos ition
oo s
ake d
ĠTh row
Who a
r ay
r iger
Ġdis ag
Ġhur ting
iv id
Ġser v
Ġperspect ive
get s
Ġorgan ized
Ġprod uct
S omet
ĠC areful
Ġmess ed
Ġec onom
i able
Ġb ought
ip es
Ġmess ing
Ġaud ience
W ill
ĠS n
Ne w
Ġlaw s
Ġshi ps
k nock
Ġbe ne
ĠM on
rel uctantly
Ġlet s
Ġcreat ivity
Ġer up
Ġstret ch
p uts
om s
Ġsp ooky
Ġcha sing
o e
Ġc lassmate
end er
Ġal b
Ġen s
Sm iles
Ġcl ea
av a
Ġsneak y
Ġrubb er
r ation
Ġtra ins
Ġpour ing
C ha
et ic
Ġoff er
Ġtra cks
Ġfam il
l t
Ġc ooked
Ġm ic
ĠS arah
ci a
Ġvo ices
Ġreas ons
Ġt ales
Ġlisten ed
Ġpass ed
B etter
Ġsh oo
Ġsec rets
Qu ack
G reen
m aking
r ated
Ġhit s
Ġpred ict
it ting
ĠB uster
Ġgrow th
ĠSomet hing
ren ch
A pple
e f
Ġ ver
Ġtea mm
ci pl
Ġris k
che ck
Ġprof ession
pens ive
ĠGar cia
Ġteamm ates
p in
lp h
Ġsh oot
ĠP oor
Ġsign ific
** ?
Ġsp ee
Ġhi king
ĠPlay ing
Ġpol it
Ġa ff
Ġfa ces
Ġter ms
Ġpeace ful
Ġrout ine
d ri
h us
Ġo cc
ell er
Ġcl apping
Ġag rees
Ġown er
Ġsign s
ĠT ickle
Ġco de
Ġco coa
Ġshe l
Ġcorrect ly
Ġwobb ly
ĠL ittle
Ġra re
Ġjump s
Ġdri ver
z zy
ĠN e
Ġdra ma
Ġbott les
? '
A gain
F or
ĠB o
ur ate
am s
Ġwiz ard
S lide
b les
c ar
Ġbe ll
Ġr ib
Ġcommun icate
Ġconf ident
miss ion
is on
Ġmo ist
Ġpu b
Ġapolog ize
Ġingred ients
Ġtelesc ope
H oney
Ġs ang
ĠC lose
Ġcour t
og n
Ġharm ful
p ort
hus i
Ġc a
ig ate
Ġun com
Ġpu ff
Ġprin cip
N ope
ic als
Ġb ones
an ges
Ġth under
Ġsh out
ac ing
Ġaffect s
Ġmemor y
ĠBird s
v est
Ġthe me
mb led
Ġri pped
Ġcaterpill ar
F ind
T w
Ġha unt
ir t
ri f
Ġscient ists
Ġstud ents
Ġdisapp ear
Somet imes
T ank
ĠD ream
Ġthough ts
ĠSt ar
Ġmon sters
Ġinsect s
Y ucky
g ives
p ers
Ġf ra
Ġli e
Ġti p
Ġcar ing
Ġend s
Ġlo g
Ġu m
ĠN ah
Ġgra bb
Ġcont est
Ġdisag ree
Ġw ished
igg le
Ġfigure d
Ġref riger
ĠCl imb
W ith
a fter
Ġs hield
or ld
Ġsh ining
side red
ĠSt op
Ġmost ly
Ġinf o
Ġp atch
Ġcon sidered
Ġshe ll
Ġ Friends
ĠSp ot
Ġvine gar
v room
Ġf eat
Ġpl eas
Ġfre nch
Sw ing
ĠTeam work
Ġmuse um
Ġm aster
Ġin j
all ow
Ġk ill
Ġbo om
Ġhar sh
Ġspr ay
Ġconvers ation
u ry
Ġt ar
ĠP retty
Ġno ds
Ġapp ear
Ġfeed er
Ġbag s
ĠS hoes
ĠA gain
ĠO ver
Ġsa le
Ġex pensive
ĠF ish
sh ine
Ġpast a
Ġent husi
Ġk icked
ĠThe ir
Ġshe d
Ġspill s
Ġspark ly
Ġsoc iety
Ġstress ed
p ret
s ion
ĠW et
Ġsu it
Ġdistract ed
O n
S ad
Ġred uce
anc ing
Ġdirect ion
b ed
u lp
Ġr inse
Ġra cc
Ġstick ing
Ġchallen ging
Ġste pping
Ġeffect s
Ġchem icals
Ġg ad
Ġr hy
Ġhi ke
Ġtw inkle
Ġrec ogn
Ġsub st
Ġbar n
E very
P o
m ed
or ms
Ġh un
Ġsun screen
ĠBe fore
nd red
ĠH ist
Ġhu ndred
Ġbelie f
Ġbal anced
Ġbase ball
m ates
s y
he llo
ĠP ull
Y ep
Ġth in
A h
Ġst ood
ĠP at
Ġstand s
Ġd oub
Ġbu ried
Ġsuper p
Ġsearch ing
Ġlar ge
ĠM any
ĠD one
pl ease
Ġmove ment
Ġpoll ution
Ġpil ot
G uess
Ġpro ve
if ied
Ġpop ular
Ġcoo per
z ed
he lp
ĠT wo
Ġcl imate
Ġcur rent
Ġdecor ate
ĠG et
os ity
Ġatt ack
Ġpuzz les
c er
as y
Ġsp oons
Ġkick ing
Ġcollect ion
P icks
t e
Ġf und
ee per
Ġconsider ing
Ġhum ans
ĠCl ap
Ġcell s
a way
i ens
Ġal ien
Ġex cellent
Ġsol ving
Ġscient ist
Ġdro ve
Ġcry st
Qu iet
Ġcal cul
Ġwhis per
0 0
C ause
Ġcomp ost
Ġacc urate
ĠBl ack
Ġdeb ate
i ppy
re r
ig gy
ĠD a
Ġsl ipping
ip ment
Ġres cue
N ext
a uts
f all
ach ing
Ġpo cket
ĠOr ange
R o
S am
ĠN ew
Ġm er
Ġed ges
Ġsitu ations
bel ie
B l
W et
Ġin it
Ġstu b
ĠIn st
Ġproper ty
ph ones
Ġstud ent
Y ellow
Ġflo ating
Ġequ ipment
f rown
in ting
en ed
Ġst omp
ĠO k
Ġdra matic
ĠSha ke
Ġcertain ly
Ġsp ent
Ġcl ue
Ġpass ing
Ġpee kaboo
k er
mp ty
Ġse es
sh m
Ġinter act
Ġdam aged
Ġstrateg ies
Ġema il
T wo
Ġ &
Ġw ires
enter ing
Ġcart oon
Ġc ust
Ġm unch
ig ers
Ġv ase
Ġf ri
en ing
Ġinv isible
Ġs il
Ġf ishing
as hing
ac y
keep er
Ġc ycle
Ġth rill
ĠM an
Ġwood en
Ġcudd le
D in
ĠU m
Ġfre ed
ĠAl most
O pen
ĠW anna
ĠA pples
Ġsu c
Ġus ual
Ġdis cipl
hi cken
Ġpre c
Ġper io
Ġspend ing
Ġacorn s
Ġit ems
Ġli f
Ġcom ic
Ġid ent
Ġde monstr
Ġroll ing
Ġsuc ceed
A s
E ven
F ix
Ġc ot
is ion
Ġbu d
Ġri vers
Ġairpl anes
Ġeff ic
Sw eep
oo o
Ġdo lph
Ġexc ite
St uck
Ġcount s
Ġrel ig
Ġdef ense
Ġtas ks
p ot
Ġm ature
ĠS ort
ĠW onderful
out s
ĠH ide
Ġun st
xy gen
F i
m ade
Ġs ear
ĠB ed
Ġqu een
Ġrem ote
Ġrespect ing
Ġvide os
O w
Ġl ava
ee kaboo
Ġsqu eeze
A ctually
T r
g rand
** '
Ġqu ality
Ġdi ffic
Ġbump ed
T ruck
Ġp ause
ie ce
Ġbeaut y
Ġtick les
dri ver
Ġstub born
T om
Ġtou ches
ĠCha se
Ġspee ch
ĠHist ory
Ġto n
Ġri ch
Ġvol ume
Sw im
W here
Ġt ub
Ġw ins
Ġs us
art ing
Ġsw ear
Ġal iens
Ġcha p
F ish
u bb
is ing
ĠSleep y
Ġorig inal
H ungry
R ead
a iled
ĠB abysitter
P retty
T oy
c are
m es
ĠS kate
Ġfor ks
ie val
Ġcon str
Ġplant ed
Ġper mission
Ġmar shm
Ġpay ing
H at
n ot
Ġ ...
Ġsp ong
Ġplan ned
Ġexamp les
ĠCook ie
Ġphys ical
S afe
Ġb eak
Ġn ails
ft s
ust ain
Ġad ult
Ġbelie ved
Ġachie ve
ra ck
ag ic
Ġsun shine
Ġcomp ass
Ġincl ud
ĠDin ner
t ies
Ġpract iced
Ġstri pes
ut ions
Ġpri ce
Ġmel t
Ġsprink le
Ġabs or
Ġo pin
Ġha ll
ĠH ungry
ĠM ost
Ġsha ped
Ġquiet er
Ġkiss es
F ly
Ġo xygen
ick ing
il it
Ġclass mates
zz le
ĠWhe ee
ograp hy
on ed
ĠW ipe
ĠB rrr
Ġat h
Ġkind ness
Ġsupp ose
ĠK itty
Ġopp os
Ġe mer
p ing
eas es
Ġpol ite
Ġcab in
P ull
T ickle
W arm
he red
Ġopen ing
Ġless ons
Ġsneak er
Ġslipp er
Ġdecor ations
Ġcontrib ute
Ġn om
ĠA nt
Ġgood bye
ĠJ ason
Ġadd ed
Ġscrew driver
Ġpub lic
K itty
Ġf est
ĠT otally
ĠS ing
ĠB ack
ĠDo ggy
Ġun re
Ġass ist
Ġhaunt ed
Ġ 4
Ġb ark
Ġp it
Ġst om
ĠU mm
M ine
o ss
Ġd a
ĠH er
Ġche ering
Ġsl ipped
Ġgrow s
Ġmed ieval
Ġbatter y
Ġb orn
igh ters
ce p
art y
ast ing
ĠTo ys
Ġremind er
' !"
s n
z er
Ġc as
Ġab and
Ġrefriger ator
Ġexcite ment
u ra
Ġor d
Ġres olving
ĠSw eep
o d
z en
ha r
Ġd ude
at ory
ed s
Ġcl ums
Ġduck y
Ġvers ion
p hic
Ġst eal
id ay
ĠM ar
ĠF ly
Ġcr ash
Ġopen s
Ġcont ent
Ġsur round
Ġcult ures
in a
ĠO ther
Ġtur tles
Ġcl aps
Ġpull s
Ġimag in
Cook ie
Ġpassion ate
S un
Ġcl ay
Ġw ad
ul a
Ġlea ding
Ġknock ing
to ddler
Ġdiscus sing
Ġris ky
Ġallow ed
Ġopportun ity
ou ps
Ġb ill
Ġre ly
Ġbu ilder
ne w
Ġsqu ishy
Ġcheck ing
Ġinc re
Ġcult ure
sha kes
At t
Ġconcent rate
w y
Ġt ab
Ġs ix
Ġb ri
Ġl ower
Ġas pect
ĠP aint
Pl ease
Ġrel ie
bu ild
Ġuncom fortable
N igh
Ġto ss
Ġp ed
Ġn ic
all ows
Ġco ke
ĠP en
mm a
ĠAny thing
Ġspread ing
Ġaut hor
Ġshel ter
or ate
Ġfa ult
Ġres ist
Ġslipp ers
C atch
n al
Ġl ying
Ġh obb
Ġthrow s
Ġcra w
pri ate
Ġastron auts
Ġprofession al
r ush
ur tle
ĠP ro
Ġcha in
Ġprotect ing
pr oof
Ġfra me
C lose
w ord
Ġb ored
Ġf us
ĠWhat ever
Ġworry ing
Ġeng aging
Ġchem ical
Ġaff ord
B ox
l ist
w aves
in j
un e
ĠF ind
Ġsleep s
Ġtw ice
bo ys
U n
u ate
Ġw ishes
ĠC ho
ĠM ond
ob ble
Ġany time
um es
Ġkid d
look ing
Ġtechn ique
Ġor anges
Ġas ide
Ġche cked
Ġdin o
Ġfocus ing
Ġpengu ins
ify ing
ĠWhe e
Ġsear ched
Att empts
** ?"
Ġre he
ang led
Ġf lex
ĠD ude
Ġset up
Ġsetting s
Ġequ ation
Cl ap
Ġbeg ins
ĠUnder standing
W ould
h ow
Ġb ac
Ġg roc
W ipe
c r
he st
et er
Ġlight ning
Ġlead ers
Ġmove ments
Ġstoryt eller
Ġy ay
as hion
un a
us hed
and y
Ġble nd
Ġerup t
P uts
i ra
in ct
ĠH op
Ġstea m
D one
L oud
b ird
Ġli mit
ic les
Ġsl id
Ġgr ad
Ġgr oups
Ġle ve
aw n
do or
ber ries
Ġimpress ed
Ġtext book
mer ic
ĠMond ay
C ool
D irty
Sha ke
Ġwith in
Ġme mber
ĠP o
Ġju icy
ĠK nock
Ġexer cise
us ic
Ġnear by
ĠHelp ing
Ġcuri osity
Ġspin ning
iver se
Ġnecess ary
S low
c ils
ut ter
Ġsw ish
Ġad m
Ġtw eet
ac ed
Ġwip ing
e ve
Ġm other
Ġtow ers
Ġcho se
Ġsy rup
Ġmed ia
Ġmach ines
Ġdiffic ult
P oor
re asure
Ġg iggles
Ġv ict
Ġv ote
ber ry
een ager
Ġdef end
Ġste pped
Ġhabit at
Ġrepl ace
F ull
f act
Ġs ustain
ar n
Ġsc ulp
Ġar mor
Ġpr int
ĠAn imals
Ġdisc overed
Ġskateboard ing
m ind
re sp
ĠW i
ĠD rag
ĠDad a
friend ly
Ġbas ically
Ġbuy ing
Ġrhy th
Ġfreed om
r ong
** ."
Ġsn iff
Ġro de
Ġun iverse
St op
Ġlo c
Ġblow s
Ġang ry
ĠDa isy
u ed
hi er
Ġl one
low er
Ġadd s
Ġcoat s
Ġbegin ning
Ġalb um
E x
Ġw ire
Ġre aches
Po ints
Ġs ile
ist ry
sh ows
Ġsplas hed
Ġchoo sing
Ġpupp ies
Ġsepar ate
A re
as m
Ġsnow ball
Ġarg uments
Ġconnect ion
Ġcaus es
Ġkidd os
D ark
ra in
Ġdi p
Ġhop ing
Ġinv est
Ġshot s
Ġprog ram
Ġpretz els
Ġcommit ment
bear d
Ġh ook
Ġme chan
Ġfamil ies
ĠInst ead
O ops
S orry
Ġi mit
ĠW hoosh
Ġst able
Ġr um
ood le
Ġsit s
S ing
c hild
c ontinues
t uce
ĠWe ren
Ġdi ag
Ġclass es
Ġdream ing
Ġansw ers
K iss
ar ter
ĠB ath
Ġth ro
Ġfig uring
Ġexper t
Ġtor n
Ġstom ach
Ġf an
Ġp ort
ot ic
ag ger
We re
Ġpred ators
r ite
Ġcart oons
Ġtas k
Ġp acked
Ġu h
ĠA meric
Ġbr ushing
Ġpract ical
uc hie
app ro
Ġhon or
Ġprom ises
Ġpriv ate
Ġdest ro
Ġc ivil
Ġst ink
Ġpoint less
Ġrais in
Ġcla im
Ġp ow
Ġdis aster
Ġdes ert
ĠL e
Ġra mp
Ġpick les
Ġadd ress
ha ps
Ġf etch
Ġg rill
Ġsk ip
Ġbro ad
Ġ2 0
Ġsplas hes
Ġblo om
Ġlif es
M oon
e my
y awns
hir ts
Ġow e
Ġallow ance
Ġmult ip
Ġp ant
ea th
Ġhi lls
Ġdi et
Ġrabb its
Ġcap ture
Ġmill ion
S uper
ĠO ld
ain s
Ġad mit
Ġtast ed
Ġdirect ly
Ġecosy stems
Sc ared
Ġsha dow
Ġint rod
Ġde m
run s
p ress
y ond
ĠL ong
ure d
Ġstory book
Ġres ults
d own
ĠL oud
Ġstr uggling
Ġpract ices
Ġhesit ate
Ġprov ide
Ġit chy
Ġpen cils
Co zy
Ġperio d
Ġrhyth m
Ġa unt
Ġb one
st ood
Ġsa iling
Ġal arm
Ġrel ease
Ġtot al
heart ed
Ġscient ific
Ġracc oon
om en
Ġha bits
Ġr ope
Ġhu gged
Ġla unch
Ġcla pped
Ġaccept ed
a ver
in ter
ul ation
Ġwhi st
Ġdet ail
Ġdoct ors
Ġequ ations
Ġsurv ival
cep ts
Ġaband oned
Ġlone ly
M imics
u be
v able
Ġ Ġ
st airs
ĠS chool
ĠM o
ort h
Ġshe et
Ġtea ches
Ġsqu ish
ĠK ick
f ill
Ġb ow
Ġm aj
Ġright s
Ġsc ales
Ġsign al
Ġleve ls
ib ility
Ġe co
Ġgive n
Ġland s
Ġmix ing
Cl imb
Ġouc hies
Ġbac ter
re me
er g
Ġlet tuce
us ion
ff es
Ġen emy
Ġbooks he
Ġspong e
v olution
Ġc red
Ġbe yond
ĠRo ar
Ġshoo ting
A pp
B ath
L ong
g a
Ġd eeper
Ġsha de
Ġvo c
Ġwha le
ĠT oo
Ġmagic ian
Ġdes c
Ġspark ling
ĠEx cellent
Ġembarrass ing
Ġmarshm allows
t ouches
Ġo per
Ġso re
Ġun if
Ġinv ite
Ġmark er
Ġinsp ire
Ġwe bs
Ġsa c
Ġsha d
Ġfa il
Ġbit ing
Ġcomp are
uc ked
Ġconcer ned
Ġsil ver
a ff
re act
hi ons
Ġf urn
ĠT urn
en g
ver t
Ġth read
ĠO utside
Ġclean up
Ġcar bon
Ġsound ed
Ġrain ed
ens ive
Ġfre aking
Bu bbles
look s
H ands
w ash
hi ll
Ġm aps
Ġo ct
ĠS and
Ġst ing
ch o
Ġad ults
Ġph ones
Ġdoub t
H and
Ġt rop
ig s
ĠW arm
Ġ3 0
Ġstat ue
Ġbookshe lf
F l
P aint
f ashion
ea red
Ġfield s
ĠCook ies
Ġbi kes
Pu ppy
Ġcust om
or p
Ġdo ors
Ġti ed
Ġexpl an
Ġmess ages
ĠSt and
Ġcus hions
F in
f r
ĠN ope
op es
Ġsc rib
um mies
Ġcon qu
Ġbas ic
Ġexperim ents
ĠKind a
Ġstoryt elling
osp here
Ġbul b
Ġbene f
Ġp ace
Ġre in
ri al
Ġr ug
ft ing
Ġwr itten
Ġgra pe
rot s
Ġac he
Ġret urns
Ġlay er
Ġn inj
ir cle
ĠH urt
Ġpre ser
aw s
m ar
Ġha y
Ġab ility
ĠC ut
Ġplay d
Ġsk etch
Ġhead phones
Ġcur tain
Ġess ential
Ġearn ed
Ġobject s
W onderful
Ġ Friend
Ġm ood
ra ve
Ġall ows
Ġsu ff
Ġgra phic
Ġam ong
Ġfas hion
Ġtour nam
grand father
fashion ed
b ug
end ed
ĠN ature
ĠD own
Ġcon cl
Ġra ise
Ġdesign s
Walk ing
Ġemer gen
er ves
ro g
Ġfun ction
ĠP ick
ĠE w
Ġnew sp
Ġcha sed
Ġbelief s
w ow
ĠT aking
Ġlike ly
ĠD irty
ĠP et
Ġcon cepts
ĠF air
ump s
aw r
Ġatt ach
Ġprot e
Be ing
Ġgad gets
S now
m age
Ġu r
Ġsp o
Ġju gg
B o
Ġd iss
Ġex hi
Ġreal istic
Ġcomp an
Ġpri ze
Ġlar ger
Ġvoc ab
ee l
ĠC ow
ul ous
Ġtow els
Ġact ive
Ġdis play
Ġinterest s
Ġacc ount
Ġcamp fire
Ġgrabb ed
t urns
Ġt igers
Ġd ates
Ġoff ice
ugg led
Ġlick ing
Ġsle pt
Ġchap ter
Ġbacter ia
n eath
ger s
Ġfollow s
ĠSqu irrel
Ġdiscipl ine
A l
Ġp al
as ket
Ġhe a
ĠYou nger
Ġsm iled
dd les
Ġpretend ed
Ġtim ing
Ġeff orts
Ġcaus ed
Ġcond ition
l ines
Ġl oop
ĠB low
Ġpass word
Sw eet
Ġphys ics
H urt
b reak
st op
ar row
ĠH end
Ġclass ic
ens ion
Ġimpro ving
p iece
Ġl ect
ĠP our
Ġsoon er
Ġcra b
Ġsol utions
Ġelect ron
Ġm ice
st ac
ĠS ir
ar ies
Ġst ur
ĠD is
Ġtreat ed
Ġoverhe aring
Ġpartic ip
ilit ary
D rink
K nock
P our
d ge
l a
om m
oo ts
ur s
Ġsl ight
Ġcir cles
Ġscra pe
ĠFr iday
Ġserv ice
* .
Ġs elling
ha w
ĠM ama
ĠR ock
Ġun less
ĠSt ories
Ġloud er
Ġrel ations
r ible
re g
ĠF ull
Ġclose ly
Ġban g
gra bs
Ġconv in
T iny
h ugs
it or
us ed
Ġpr ank
Ġacc ess
Ġcommun ication
ĠCar ry
Ġthro at
u als
it ure
Ġsp ider
ĠG ra
ĠP ir
Ġra ces
Ġfin ishing
L ater
m ark
Ġf is
Ġm ut
Ġn arr
as hed
Ġti re
Ġat m
ĠSome one
ert il
cra ft
Ġinflu ence
Ġoppos ite
H eavy
S ay
ĠT ank
ĠB roken
Ġtri pped
Ġstar ing
Ġcompl ain
Ġorgan izing
Ġdep ends
ĠHend erson
Ġt hir
Ġbu zz
Ġover p
Ġche ss
Ġtalk s
Ġse qu
Ġpar ade
Ġfloat ies
or ning
ĠT ower
Ġre new
Ġclean er
Ġover react
Ġmuff ins
ĠShh h
Ġcontain er
S n
Ġf ol
ĠC ars
No isy
Ġtra p
Ġfro zen
Ġmind ful
Ġghost s
Ġopt ions
frown s
Ġcot ton
N ana
Ġs lo
Ġf ake
ul ti
Ġpo llen
Ġman aging
Ġpain ts
Ġtradition al
ĠTw inkle
Ġenter tain
j o
Ġm ama
Ġp ha
Ġg oo
ĠM ilk
Ġar ri
ĠF o
Ġrest ing
mon y
osaur s
Ġassign ments
Ġstri ct
ĠNe ighbor
Ġbud get
Tom orrow
) **:
l ming
u ly
ot ty
Ġi r
ir ls
ĠB oth
Ġpr ince
boo s
Ġobs ervation
or se
Ġn igh
Ġsh ut
op ens
Ġar c
Ġfeed ing
Ġshar k
Ġob stac
Ġbrain storm
Ġwea p
Ġdocument ary
O ld
Ġf at
ĠBut ter
ro ke
Ġhand y
Ġwater fall
iz er
Ġfl ood
ĠRe volution
Ġdescrib es
Ġenc ourage
ĠRo ll
Che ese
v iew
or rect
ea ch
ĠN ame
hes is
Ġ1 5
Ġmet ap
Ġpig s
Ġvisit ed
Ġcop y
Ġemot ions
A ny
b ell
d raw
u ries
Ġt hie
Ġs ippy
Ġr ow
ĠL ee
Ġea gle
Ġwarm er
uct ive
ur ning
Ġcha os
Ġun l
Ġcomp ared
Ġoverwhe lming
Ġmic ro
ĠT iny
Ġth reat
pp ers
Ġsc ored
Ġqu iz
ĠR ain
Look s
Ġjo kes
Ġcost umes
Ġchem istry
Ġm ir
ri p
ri ct
am es
br as
Ġsort ed
Ġind ivid
Ġatm osphere
s its
or ation
ant age
Ġplay ful
ĠG old
Ġgr ay
Ġdri es
ĠCar ter
Ġwigg ly
Ha ha
oss ible
Ġw akes
ĠB rown
Ġbl ast
Ġliter ally
S qu
b al
k n
ĠW all
ur ity
Ġpart ies
Ġshe lls
Ġbab e
Ġcand le
Shh h
Ġfurn iture
K ick
O utside
Ġl apt
om pl
ĠM ars
Ġsn ap
St ay
Ġext reme
ĠFin ish
Ġtournam ent
B rrr
W atch
Ġm ilitary
ul ary
Ġex agger
Ġeng ines
Ġfil m
z ard
ĠC on
Ġsc ale
Ġstu mbled
Ġun ic
iz es
no v
Car ry
Ġcontroll er
Ġens ure
C ut
Ġm ig
Ġm all
Ġp ian
at o
Ġpe pper
Ġbra very
Ġstir ring
Ġgrand child
Ġind ust
Ġpartic ular
Ġtab let
Ġa mb
Ġex am
Ġex ist
Ġfa cing
ho e
Ġfur ther
Ġcus hion
Tw inkle
Ġdestro y
P romise
i ar
z es
ĠS ad
Ġsp ins
ĠG en
Ġsurpri ses
Ġmar ine
Ġoverhe ar
Ġvocab ulary
p ull
Ġs ke
Ġc her
Ġd en
Ġha m
Ġr at
ĠD rive
ep end
dd le
Ġcall s
ĠAre n
Ġdri ed
Ġrep air
fy ing
Ġlifes aver
h m
m aker
u ing
Ġn one
Ġwor ms
Ġwork ers
Ġv et
Ġimp ossible
Ġsm o
Ġlea ds
bo at
Ġfire s
Ġkick s
Ġconf idence
Ġsour ce
Ġlapt op
ĠH and
Ġout line
Ġcl ick
m ic
ll ie
Ġsh ook
ĠP er
Ġeven ly
Ġchi ck
Ġlay ers
e es
Ġt ax
Ġf ought
ight s
ct ar
al y
am ond
Ġgu id
Ġbit s
Ġdet ailed
ĠAunt ie
Ġanal y
Ġfiref ighters
Ġt ucked
he w
Ġy arn
at ches
ce l
Ġrel uctantly
Ġshar ks
Ġsto pping
Ġcri sp
ĠJack son
Ġcast les
Ġsignific ant
t hy
Ġc aps
Ġl ighter
Ġp itch
ĠW hite
Ġh orn
ĠA m
au nt
ĠF ire
Ġatt empts
Ġdanc er
ang ar
Ġroad s
Ġenc hant
Ġflavor s
L isten
it ize
Ġf er
ar ily
ĠC hoo
Ġne ctar
Ġal tern
ĠP op
Ġplan es
Ġappro priate
Ġwra pped
Ġded ication
i ant
w hat
Ġt it
han ge
ĠM usic
Ġsn akes
ĠF lowers
Ġfl u
Ġmetho ds
care fully
Ġfus s
B ack
g ins
ck ets
ĠB est
ĠN ana
ell y
ress ive
ĠSuper her
Ġsat is
Ġhonest ly
Ġnic er
Ġwhist le
Ġg al
om y
ed iate
Ġin k
ĠSo on
Ġunder water
Ġfound ation
ĠSt art
Ġloud ly
ĠSha ll
Ġinv ited
Ġjud ge
i ft
Ġf ed
Ġin fect
ĠM ike
am m
Ġhand ling
Ġtr unk
Ġpr oof
Ġfull y
ĠSt ick
Ġleg al
iqu es
ĠSc ience
p ut
s l
ing o
ra ms
ce ful
Ġsa iled
Ġspill ing
Ġrid dle
ĠDuck s
Ġocc as
i vers
Ġt umb
Ġt ables
Ġf irm
ĠC ount
Ġpre fer
Ġcom fort
Ġche at
Ġinst ance
Ġequ al
ĠChe ck
Ġsuccess fully
Cha se
M on
Ġt ummies
in ning
Ġm en
Ġcan s
Ġi mage
Ġli m
Ġro ast
Ġreal ity
Ġmess es
Ġprotect ed
Ġdig est
Ġdig ital
Ġspark le
Ġinsp iring
Ġafterward s
Ġmonth s
I ce
M r
i us
Ġ 8
Dad a
ĠB ox
Ġhigh light
Ġlo ad
ĠWas n
do ors
Ġris ks
Ġimm ediate
Ġflex ible
Ġvict ory
Ġmaj or
u bs
Ġp y
Ġwe eds
Ġexp and
Ġrep rod
Ġter rible
Ġsecond s
Ġprod uce
Ġdea ling
Ġnav igate
Ġenthusi asm
E n
O uch
W hoosh
m other
w i
Ġn ib
le phant
ĠT rees
Ġh osp
Ġad ap
uc ing
Ġdisapp oint
Ġdemonstr ate
S kate
b et
Ġs hirts
it ates
ĠW orld
Ġe h
ack et
Ġsp y
el come
Ġoff ering
Ġmin er
Ġsy stems
Ġcover s
Ġmemor able
Ġmetap hor
Ġs eal
ĠH oney
ro pe
Ġsp elling
Ġgu est
Ġtw ink
Ġforest s
Ġdel iver
Ġhunt ing
Ġdust y
Ġhyd rated
Ġunic orn
Ġguid ance
H ard
ea ves
ch ing
ĠH ard
ĠO uchie
ĠHe he
Ġtre nd
ist ent
Ġhas n
ĠWould n
Ġabsor b
P ick
f ield
o gy
o cul
s ive
Ġti pt
Ġco ast
Ġex cept
Ġar range
Ġmo le
Ġcreat es
Ġtest s
Ġneg ative
Ġsustain able
c ast
d ed
Ġa qu
Ġf ertil
Ġm ow
Ġd ug
ĠPir ates
p an
ĠD ump
ract ice
ĠK iss
ĠSt uck
St ars
Ġcat ches
Ġtight ly
Ġvis ual
Ġreg ret
Ġadv antage
Ġcomb ine
Ġsettle d
ĠInd eed
Ġcompan ies
b ling
s is
y al
ĠB reak
Ġth umb
ak y
Ġsw amp
im ent
Ġpre cise
Ġdis eases
ĠChe ese
Ġwat ches
Sm iling
att empts
Ġdeterm ination
an ana
ĠM oon
Ġover come
Ġtop ics
Ġhealt hier
Ġcow boys
Ġdiscuss ion
help s
L ast
W indy
c hie
ĠB aby
Ġv i
Ġfa ced
Ġdi amond
Ġcr ust
Ġch op
Ġpack age
Sp eaking
Ġdetect ives
Th row
Ġcol ored
D own
o c
Ġdo lls
fe w
im on
Ġun us
Ġcont act
Ġtrain ed
Ġpan els
E mpty
w ise
on ic
Ġd ice
Ġneed le
Ġwor n
op us
Ġsn uggled
ĠF it
Ġset s
Ġsun f
ree k
ire ct
Ġfar away
Ġclown s
Ġuns ure
ĠAd venture
c use
Ġ" *
Ġre ce
ĠHow ever
Ġpr ide
head ed
Ġgira ffes
Ġoverwhe lm
Ġstur dy
Ġpian o
M an
e ze
Ġre build
Ġsp ices
ĠD i
ĠF rench
Ġsoft ware
Ġpen nies
Ġbump s
Ġste er
Ġcirc uit
Ġfest ival
hi le
hi cal
ĠN eed
Ġne ither
ĠM oo
fe re
Ġgarden er
Ġanal ogy
Ġord inary
Ġrehe ars
D oes
G ive
H es
Ġc e
Ġc y
Ġm im
Ġl ung
ĠS ky
ĠH at
Ġth or
Ġk angar
ĠM agic
Ġchan nel
Ġdri ll
Ġdro pping
B ad
E ww
L aughs
M ake
k ick
r ig
w ood
Ġt ails
Ġc able
as hy
ir ation
ĠH eavy
Ġremember ing
Ġac id
Ġresearch ing
Ġshad ows
H ave
Ġ x
Ġw olves
ĠB oom
lass es
ĠP aper
Ġdra ft
Ġstr ings
ĠLook s
Ġtear ing
Ġcur few
Ġdef eat
c ent
ay ing
Ġi rr
ck ing
Ġsw ung
Ġcr own
Ġhig hest
ĠDin osaurs
Ġreward ing
Aw ake
Ġmagnet ic
m akes
er ving
Ġl at
Ġg ain
ĠT ouch
as p
Ġfor ms
Ġpl ug
ack ing
ess ions
ĠE gy
ĠR ec
Ġar ch
Ġtr uly
Ġle an
Ġchan ces
str uggles
sn iff
Ġoct opus
Ġslight ly
Any time
F ishy
p re
Ġso ak
Ġdown load
Ġun pl
Ġstrong est
Ġri pe
Ġrecyc led
Ġrust y
Ġpolit ical
h ol
ea ts
Ġout fit
Ġsha kes
ĠR ace
Ġar ti
Ġres olve
Ġexc use
Ġcand les
Ġfree ze
Ġcollect ing
Ġsuperp owers
Ġdesc ript
D ump
T hirsty
a ze
Ġl end
Ġpl acing
ĠD ark
mb ling
Ġfl ight
Ġsun set
Ġtooth p
Ġrev olution
Ġobs erve
M ilk
d rop
p ushes
Ġl ap
ant ic
ate ful
ĠG l
Ġea ger
ĠNo isy
Ġar my
ĠDoes n
Ġbur ning
Ġcult ural
Ġjud ges
Ġpad s
Ġdeterm ined
Ġoffic ial
Ġsile nt
v ious
Ġt angled
Ġto ns
Ġn u
Ġst ool
ir us
Ġsa ves
Ġsnow y
ĠClean ing
Ġmark s
Ġap ron
Ġbur st
Ġcrit ical
Ġconstr uction
Ġb ound
Ġd u
Ġr ides
ĠR ub
Ġmot iv
Ġlaugh ter
Ġzoom ed
Ġproduct s
Ġp aid
Ġg all
Ġgot ten
Ġad vent
ĠF ood
Ġtri ps
Ġtea ms
Ġcra z
Ġcreat ed
Ġtear s
Ġvib r
Ġpres ident
Ġeffective ly
Ġcred it
O range
Ġ $
Ġd ut
le v
ĠS l
ĠC ute
Ġwor st
Ġbo nd
Ġfo ss
Ġincre ase
A way
A pples
C ute
W elcome
e ers
Ġwe dding
ĠL ife
ep t
Ġche ered
th rows
Ġpot s
Ġmed ical
Ġexpress ion
Ġbelong s
for ce
ĠLight ning
Ġrelig ious
Ġinclud es
L ight
b id
i or
w his
ĠI nt
Ġd om
ĠH ouse
am ing
Ġsc rap
Ġmis under
Ġcond uct
Ġlegend ary
Ġtrave led
Ġwonder ing
Ġdiv ide
Aw esome
ĠFro gs
Ġimagin ations
Ġp ure
Ġme ow
ĠO ff
Ġvill ager
Ġchamp ions
Ġlab el
Ġrenew able
Ġf rag
Ġgo d
us ing
Ġbra vest
ĠSweet heart
?' "
resp ect
" .
on ies
Ġd ie
Ġst eep
ĠC hicken
ĠR es
Ġsm oot
Ġgl ide
Ġconcer n
Ġoverwhelm ed
J acket
i k
al ance
ur ous
Ġout sm
ĠG r
Ġqu ad
ĠSc ared
Ġprior itize
ĠPen gu
Ġgraphic s
T ired
b ee
Ġw ool
er ies
Ġi ron
Ġu mb
ry ing
ol i
fore st
Ġtra ffic
Ġart icle
Ġrid dles
Ġupd ate
A r
w ear
ck y
ĠP ractice
Ġhapp ier
Ġpo sters
Ġcomp ar
Ġele ments
Ġopportun ities
Ġunus ual
G ives
c ial
ow el
is a
Ġsn ee
Ġro les
ac he
Ġhobb y
ocul ars
u ous
v in
ter ing
ag on
Ġback ground
Ġpart ner
Ġhat ch
Ġland ing
Ġtun nel
er ia
Ġsun b
Ġboy friend
Ġshi ver
Ġtechn iques
Ġill eg
think s
pret ends
Ġrecogn ize
Ġcryst al
Ġthrill ing
Ġexplan ation
Ġplayd ough
B ite
N A
R ide
s ister
Ġw rist
Ġp ou
ll a
se ek
Ġr ul
ul ations
ĠP ress
ĠR eal
Ġfriends hip
th s
Ġdis p
Ġenjoy ed
ĠBe es
Ġadventurer s
Ġvar iety
Ġinit i
Ġeffic ient
Ġemergen cy
s en
Ġc ro
ing er
ut ed
ĠT alk
Ġth ous
Ġsp icy
Ġsy mp
Ġbat s
Ġvill ain
Ġrobot s
Ġath let
Ġtoothp aste
e ves
h ot
t ered
Ġa v
it ate
st arting
ĠT hirsty
ĠC r
Ġbl ink
Ġmus cle
Ġdel ight
Ġcap able
Ġpath s
Ġmetho d
S ick
Z oom
l ead
y ou
it ation
ha ppy
Ġy elling
Ġpo em
Ġdis rupt
Ġrel iable
Ġser ve
Ġroll s
ang les
Ġinv olves
Ġpainting s
Ġcross ed
Ġyum m
Ġcrowd ed
Ġclea rer
Ġprincip al
Ġpant ry
press es
G ently
H urry
T ell
d oo
Ġg iggle
Ġstor ms
Ġtra mp
Ġgen es
bb y
Ġwip ed
Th ink
ĠJack et
Bl ack
Ġfol ks
Ġmir ror
d es
Ġ 7
Ġ ouch
le y
ib ly
Ġro yal
Ġtri angle
Ġreact ions
Ġind epend
Ġchamp ion
Ġvib e
Ġexer c
Ġninj a
W oof
ve re
ĠW oof
ĠC ivil
Ġdon uts
ur p
Ġag es
ĠGood bye
Ġact s
Ġwo nd
aw k
Ġcup board
Ġroll er
Ġowl s
Ġbreat hing
Ġvitam in
Ġsymbol s
ĠPu ppy
Ġhosp ital
ons ider
Ġslow er
Ġcover ing
Ġimprove ment
H ugs
p our
id ers
ib bit
ĠL isa
Ġbin oculars
Duck s
I nd
T ower
a ld
e gr
ĠT eenager
ar ium
ri er
Ġkn ot
Ġbu bb
Ġbre eze
Ġlea p
Ġgarden s
log ical
ĠSat urn
Ġgri p
Ġvolunt eer
b ag
b and
in ty
ut ing
ĠB eep
ver se
Ġmag az
Ġow ies
Ġbelong ed
ograp h
Ġembarrass ed
Ġbenef its
Ġce iling
F ood
U gh
a f
Ġ -
Ġ 6
Ġa st
Ġl ens
Ġd ent
ĠS k
ĠE llie
Ġcare s
Ġhad n
ere al
Ġthank ful
co at
Ġchar m
Ġesc ap
Ġcurtain s
P at
c row
f ight
m eal
Ġt ender
ĠS u
ĠB ring
Ġkn ees
ĠP ret
ĠP izza
Ġra w
But ter
Ġcut s
Ġrock ets
Ġinv olve
Ġref er
Ġreach ing
Ġvar ious
Ġpow der
Y awns
a pped
Ġl eng
Ġr unny
ĠB at
Ġcare er
pl ace
Ġsqu ished
Ġwarm th
Ġstar ving
Ġpretend s
Ġart work
Ġspoon ful
ud ge
ĠJen ny
Ġinstr ument
Ġtrans port
Ġcomput ers
Cook ies
Ġglow ing
we ight
Ġaware ness
Ġdolph in
Ġlect ure
ĠM ark
Ġout l
Ġsa p
Ġpo pped
ump er
Ġun n
Ġsqu eak
Ġdis respect
Ġnap s
Ġtick led
fet eria
rac y
Ġinform ed
Ġgear s
Ġadm ire
Al most
T ime
e or
it antly
ha ble
ay lor
Ġn arrow
Ġo ink
Ġbe gan
Ġsome how
us ive
ap or
ĠP eekaboo
Ġbr ushes
Ġv ag
red ict
Ġheav ier
Ġbuck le
Ġdep ending
Sm ile
ox ide
Ġtrave ls
Ġrequ ires
Ġca feteria
Ġcompar ison
k ward
t able
Ġb esides
Ġup stairs
be gins
Ġsc ript
Ġgr ateful
ĠSt ars
Ġsign als
Ġinter view
walk s
Ġexpect ed
Ġver b
Ġgroc eries
Ġunif orm
Ġadvent urous
Ġb aa
ed e
ĠC omp
ic ulous
Ġsp i
Ġro ses
Ġfl uff
Ġgl ug
Ġdis co
ĠU sing
Ġhead ing
Ġdrive way
Ġwar ning
Ġallig ators
Ġfiref ighter
Ġvillager s
Ġumb re
b ows
s qu
ou l
ĠS unny
art ment
am ed
Ġhome made
Ġapp s
Ġfall en
Ġri se
Ġfact ors
ific ation
Ġcost s
Ġopin ion
ĠCho colate
i ation
o logy
w oman
he nt
Ġc ong
Ġm ate
Ġsm arter
Ġsk ater
Ġdis ease
Ġrest ed
Ġlo cked
Ġconnect ions
Ġtar get
ĠPet erson
B rush
P op
c ase
Ġm ulti
as es
ri s
lo s
ĠJ ones
Ġres et
aw a
Ġprotect s
Ġsmell ed
Ġsold ier
Ġnecess arily
Din ner
Ġnarr ative
Ġoverreact ing
y ear
Ġw itch
Ġm ead
ro b
Ġsh in
lo ses
Ġsc ream
Ġdra in
Ġv irus
ho le
Ġpo ke
Ġresp ond
Ġtight en
Ġdanc es
Ġexcited ly
Ġtrad itions
att ered
Ġtrop hy
A d
W he
W hite
b one
Ġm ental
Ġd un
at ives
un ate
ĠG arden
Ġpret ti
el ess
Ġman e
Ġwr ink
Ġtra ps
Ġaw kward
Ġmouth s
Ġhy p
b re
w eed
Ġw ow
Ġs essions
it ches
Ġb rand
Ġg irls
ck er
ĠW indy
Ġpl ain
Ġso fter
Ġche e
Ġwip es
B ump
Ġw is
ĠA ir
ĠL ater
ĠO ut
is ms
ic ial
ĠD NA
Ġeat en
Ġgr ant
Ġsupp ly
Ġsol ved
Ġacc ompl
Ġfoot pr
Ġcoll age
Ġaffect ing
Ġbee f
belie ve
Ġconqu er
Ġfrag ile
T ree
Ġt act
Ġa er
or ter
en ess
Ġsw ap
est y
Ġsn ug
Ġen ters
ol ine
Ġra iny
Ġfarm ers
ajam a
Ġrepresent s
Ġconst ell
Ġw omen
le n
ter m
Ġso ggy
Ġdon ate
Ġsh ock
Ġlight ing
ĠSha dow
ĠBu y
Ġfree zing
Ġfree zer
Ġaspect s
Ġindivid ual
Ġlat est
Ġw oman
Ġc age
Ġc aut
Ġl it
ĠW rite
ĠC ake
Ġkn itting
Ġwho se
Ġdec iding
Ġsnow s
ĠCook ing
Ġign oring
Ġspeak er
Ġpin ch
Ġelectron ics
C up
C over
Ġ era
he ll
Ġf ract
Ġf ather
ĠT urns
as hes
Ġr opes
ĠE mma
ĠSo ccer
Ġunder stood
Ġstr uggle
Ġres il
Ġgra bs
po logy
ugg ing
Ġpol ar
Ġcoun cil
Every one
Ġlim its
Ġmole c
Ġpou red
B lows
M oo
P eas
S oup
d ling
f ree
l ete
r atic
t ail
in ated
Ġs ch
Ġf art
on nect
ĠB ad
ĠC oke
ĠC andy
Ġsw eat
ĠE u
Ġag g
Ġapp lic
up iter
Ġexplain ed
Ġrel ate
Ġprot est
Ġobs erv
etch up
Ġstack ing
Ġsens itive
Ġfeat ures
Ġoutsm art
R ain
Ġs an
Ġc w
ĠI I
Ġf ountain
ĠA cc
Ġsh y
Ġsa ils
ĠJ upiter
Ġz ipped
ĠAw ake
Ġdep end
Ġtrans form
Ġsent ences
Sp oon
Ġpartic les
Ġdevelop ment
Ġboun cy
Ġdisagree ment
Ġhun ters
Ġrelie f
Ġlung s
g reen
g iggling
Ġ et
Ġb aker
Ġg n
ĠS ick
ĠM ath
ĠSp ace
ugg ed
Ġla zy
Ġgener ations
Ġbother ing
l in
er n
Ġd amp
Ġo dd
ĠW on
âĢ Ŀ
Ġmo ld
Ġra ind
pen se
Ġsy n
aus ing
Ġdirect ions
Ġopp on
Ġmyster ies
wr iting
Ġmaster piece
Ġdolph ins
ĠDrag ons
Ġwebs ite
Ġthor ough
Ind eed
F r
T urns
u ation
w atch
Ġc ash
Ġg iggling
ĠT urtle
ĠW ind
." \
ee e
Ġsw allow
Ġse ver
Ġpass es
Ġpump kins
Ġtwist y
Ġfear s
e ys
i ently
Ġw obble
Ġc ities
ot ion
Ġbe nt
Ġfor ces
Ġpl us
ĠL ots
Ġun cover
Ġcook s
Ġnight s
Ġrec over
Ġrep eat
Ġknock s
Ġtoast er
Ġpee k
Ġsort ing
Ġdep th
Ġsew ing
Ġsuperp ower
Ġthir d
U nder
c hi
s olving
t w
Ġm iles
or able
ad dle
ĠB oo
ĠE m
Ġbed s
Ġswim suit
ĠâĢ ľ
Ġsprink les
Ġtwist ed
Ġrubb ing
Ġperspect ives
Ġrot ten
Ġwag on
Ġclums ily
Ġiniti ative
Ġ est
Ġy aw
Ġall erg
op h
Ġad op
Ġpo ckets
na w
Ġde ck
ĠNot hing
St ar
Ġfeed back
Ġdistract ions
Ġnote book
Fin ish
ĠEu rope
R ex
b a
se c
ĠF lo
Ġche ap
Ġchi r
Ġwear s
Ġlight ly
Ġdream land
Ġsec urity
ock s
Ġfill ing
Ġaffect ed
cha ble
Ġguard ed
lev ant
p aper
Ġ ven
Ġm oo
Ġg at
ĠN ever
Ġhapp iness
Ġv ast
ĠJ oe
Ġher bs
Ġadv anced
osy nt
Ġscrew s
Ġmay or
Ġeducation al
Ġspo il
L ittle
R el
g entle
r l
Ġb ars
or ding
et te
Ġr ushing
qu ack
Ġaw ful
Ġle ver
Ġforg ive
Ġmeas uring
Ġtemp or
Ġkangar oo
D e
M ad
T urn
at meal
en cy
ra ce
ĠH ear
Ġsp ect
Ġtra its
Ġsoft est
Ġproper ties
Ġform ula
ĠCo zy
Ġliter ature
Ġcrisp y
Ġtit le
Ġgal ax
b ugs
c ious
g randpa
he aring
Ġl ack
et ah
Ġn ana
Ġhe arts
Ġdo ggies
Ġgo gg
Ġme lo
ger y
Ġgood s
ec ess
Ġbr ighter
Ġdi al
Ġlea k
Ġrun ner
Ġnight light
Ġteddy bear
Ġnear ly
fort unate
Ġspark led
Ġjour nal
Ġang les
Ġmagn ifying
D ude
F it
T otally
g hing
l ong
o de
Ġt end
st ep
Ġin door
id dle
Ġe p
Ġk etchup
ast ics
ipp ers
Ġskill ed
Ġchar t
yc les
Ġze bras
Ġavo iding
Ġmeal s
Co at
Ġfil ter
Ġfund ra
Ġfri s
Ġassist ant
Ġarc ade
kn own
C hoo
c akes
w ich
Ġ 9
ig ning
Ġbe low
Ġst itch
?" \
ct ic
ust le
ĠC lassmate
ur ance
Ġbra ce
Ġdes p
Ġbal ancing
Ġart ists
Ġsail or
Ġhabit ats
Ġunp redict
Ro ll
P ut
P arty
v ie
w et
Ġt ension
in o
Ġl ink
Ġg irlfriend
ĠS ince
ĠW o
is c
Ġback up
Ġv ivid
Ġche es
Ġimag es
co hol
ber n
Ġstre ets
Ġstea ling
Ġagree ment
Ġspr out
Ġsubject s
Ġeconom y
Ġopin ions
Ġconvin ced
osynt hesis
B rown
C h
e olog
r ub
Ġw asting
Ġp ep
ow wy
Ġv ot
Ġbo ys
Ġtr ib
Ġsuper v
Ġenjoy able
Ġrest aur
Ġrep ut
oop y
Ġreason able
Ġtutor ing
Ġcraft s
Ġscra ps
Ġber ry
Ġpriv acy
Ġmultip ly
Ġexhi bit
Ġexerc ises
R ace
g ood
l ate
s chool
ar ian
ĠB ug
ĠL ead
ell a
ĠP iggy
Ġgen ius
ail able
Ġcomm and
Ġtick ling
Ġbright est
rap h
Ġpee king
Ġcelebr ation
ĠEx cuse
the y
Ġdev ice
Ġident ify
Ġpit cher
Ġda ily
ĠSuperher oes
Ġnib ble
Ġquad ratic
hent ic
Ġgat hered
f ive
r at
Ġm imics
ri se
Ġpl ot
is er
Ġhapp iest
ish ment
Ġsn apping
Ġsn eeze
Ġint rig
Ġdi zzy
pl ane
ĠDid n
Ġse ven
work s
Ġlunch box
Ġtick ets
Ġcons ervation
Ġpack ing
Ġinsp ired
Ġtool box
ĠBo at
Ġsurround ings
Ġmember s
Ġsculp ture
ĠAmeric an
P e
l iness
er o
Ġm ac
or ous
Ġp ests
ea ut
ling s
Ġsc oring
Ġover night
Ġinst all
sh op
rot ect
Ġsleepy head
Ġflag s
Ġtun e
Ġhalf way
Ġinsp iration
Ġcontroll ed
ĠSnow ball
Ġdisappoint ed
H is
L unch
Ġc ough
Ġd im
ĠT aylor
Ġso lo
ĠO oh
ite ct
Ġpre y
Ġdi str
Ġbl ades
Ġdry ing
St rong
Ġside kick
Ġmind s
uc umber
rif ied
Ġilleg al
O pens
k icks
r ons
t hen
u x
Ġthe r
ea ting
ar a
Ġwor m
Ġro se
Ġz one
Ġ1 9
igg ies
eas ed
Ġac ade
Ġsibling s
Ġinter rupt
Ġdr one
Ġsub t
Ġannoy ed
Ġnewsp aper
P ret
g n
t op
Ġs on
Ġm ast
Ġd rib
Ġp ra
Ġj er
al ty
Ġsh ines
Ġas se
Ġsw ords
ĠR awr
Ġred irect
ĠRe mind
Ġflo ats
Ġfre aked
Ġfoot ball
Ġcons istent
Ġsupport ing
ĠZ e
ĠShould n
think ing
Ġrib bit
c et
p op
Ġy ell
Ġl oos
Ġhe ight
Ġj unk
Ġbu nd
ring s
Ġfre ak
Ġprotect ion
Ġcor al
Ġfact ory
Ġeng age
Ġcere mony
cha r
Ġrid iculous
Ġaut om
Ġsend ing
Ġexplo de
Ġrib bon
Tr ue
appro aching
Ġprote in
ĠPengu ins
Ġw eal
Ġb on
Ġto x
at able
Ġst ew
ri ving
Ġout come
Ġsa mp
ink y
ick er
Ġex act
Ġdec ides
St and
Ġlo ss
Ġev il
Ġstruct ures
Ġclums y
Ġsequ ence
Ġpy ram
b ound
r ance
w og
w orld
Ġc ucumber
es ter
as ed
ĠIt s
ri fying
Ġsu mm
Ġcar ries
Ġbo iling
Ġbl ame
Ġtra pped
ĠGot cha
Ġmus ical
Ġjo ining
Ġprec ious
Ġfris bee
C ake
C ho
F ound
z el
Ġb oot
Ġf ib
Ġf al
Ġl itter
Ġh oo
ust y
ĠC ol
Ġbr rr
Ġche etah
Ġse lect
Ġz omb
cept ion
Ġmemor izing
Ġprin ter
Sha ring
Ġtext ure
Ġenc oura
Ġtiss ues
Ġsignific ance
G et
M akes
c est
j umps
ow y
Ġwe igh
Ġin nov
Ġr ate
Ġor bit
Ġevery day
mm ing
Ġ1 2
Ġmus hy
Ġsea ts
Ġcur ve
Ġdiscus sed
Sh iny
Ġsubst ances
Ġarti fact
Ġrul er
Ġunn ecess
Ġcw eam
m ons
r um
Ġs ite
Ġs outh
st it
ĠB us
Ġun like
Ġdis miss
Ġdri ves
Ġglo be
ĠBook s
Ġcol on
Ġconv ince
Ġyumm iest
Ġchee ks
M ouse
S ky
Ġ X
Ġw rench
ed y
Ġdo lly
ĠB ump
ĠB alance
Ġup side
ro lls
ĠP M
Ġgu ests
Ġmo at
Ġroom s
Ġsnow fl
Ġdes erve
Ġrequ ire
Ġcryst als
fere nce
Ġcraz iest
M I
S ome
s crib
Ġg em
Ġhi bern
ain ed
ĠE lephant
Ġsn ail
Ġbo il
Ġru de
Ġbump y
Ġret ri
ĠCar rots
Ġcalm ly
In side
Ġborrow ed
Ġ10 0
ĠOw ls
Ġcalcul ate
Ġgoo ey
Ġsmoot hie
Ġdistr ib
o id
r s
ĠS und
ĠB irthday
Ġth rive
ĠG u
Ġqu al
Ġfa iling
ĠF rom
ĠF red
ac hie
Ġcho sen
Ġchar ity
Ġprep aring
ĠDin o
ĠSm ile
An imals
Ġmas k
pull s
Ġumbre lla
D ream
O r
R a
i mber
l ot
Ġt ube
Ġc rops
ea ling
Ġn um
st ick
ĠS oup
Ġre ass
ĠB ee
ĠH ands
Ġco aster
ĠP anc
Ġtw irl
cc oli
Ġ1 8
Ġac rob
Ġmoon light
ĠKeep ing
Ġtest ing
Ġcamp s
Ġform al
Ġbar be
Ġexpect ing
Ġob vious
Ġwise ly
Ġcri me
Ġself ish
ĠHome work
Ġpleas ure
Ġcraw l
eaut iful
le nd
Ġo atmeal
ess ed
Ġclean s
ĠE mpty
Ġfo am
ĠSt rong
Ġant ic
Ġmar ried
Ġfrustr ation
Ġgather ing
Ġregular ly
Ġeconom ic
t ock
Ġs en
re et
er ie
Ġc av
ing u
ĠA way
Ġkn ack
Ġkn ives
ĠR oman
Ġcl ar
Ġcl imber
Ġv irt
Ġshe lves
Ġpo inty
iz ations
Ġapp l
ress ed
Pl aces
Ġbath s
Ġsweet s
Ġmix ture
Ġsho el
Ġinc orp
Ġtutor ial
Ġoverhe ard
Ġoffic er
Ġpun ct
Ġprior ities
Ġath lete
Ġimmediate ly
Ġcaut ious
* "
D MI
S illy
i as
Ġl as
Ġd y
ĠS ound
ar c
Ġst ates
Ġh ost
un ky
ĠC are
Ġk ings
Ġshe ets
Ġstr uggles
Ġsl im
Ġhor ror
sha ped
Ġmoist ure
Ġarch itect
Ġraind rops
Ġunnecess ary
P auses
d en
Ġs ilk
hi de
Ġb id
ĠT una
Ġh ood
ĠH DMI
lp ha
Ġsh ore
Ġco sm
ĠP ol
Ġex cus
Ġgreat est
Ġdi oxide
Ġra il
Ġsl ime
Ġse m
ĠK n
Ġoce ans
ĠTw eet
As leep
Ġresist ance
Ġrum ors
Ġrelations hip
F ive
c ies
f ied
Ġw aking
Ġc it
Ġf u
on est
hat e
ed ing
Ġi cky
se ll
ĠM ind
Ġsp are
Ġsc oo
Ġint ell
Ġunder ground
Ġfi ction
ist ics
Ġman ual
Ġsqu ee
Ġrain forest
Ġforget ting
Ġsimp l
Ġgas es
Ġer ror
Ġvac ation
Ġbake d
Ġgener ous
Ġvolunt eers
Ġoccas ion
Ġvi ol
M ax
N ah
d rops
f i
g ent
ck now
ĠB r
Ġschool s
ĠK ing
Ġweekend s
urt les
Ġtou g
Ġconcer ns
ĠSm art
Ġtumb le
ĠRemind s
D rive
H ouse
ar ch
un ks
ĠC at
Ġsu cks
ĠE nd
Ġunder neath
Ġsm oo
Ġkit es
Ġgen etic
Ġboo st
Ġvis iting
Ġwar ri
Ġmis chie
Ġwad dle
Ġpreser ve
Bo at
C ow
r ors
s hip
Ġ oo
Ġw iggles
Ġli cked
Ġre levant
ĠB ite
ĠB rush
ĠB ingo
ĠR u
âĢ ¦
hy d
Ġdi ary
old s
Ġlong est
Ġclo sing
Ġwin ner
Ġpot ion
Ġant lers
Ġmel ting
Ġspr ints
Ġgener ation
Ġcrit ic
mes ter
Ġrestaur ant
T ouches
t r
Ġl aughs
Ġg ap
ar f
Ġgo bble
ĠM orning
ĠD e
Ġsu bs
ĠR ip
Ġstu nt
Ġlift ing
Ġcorn ers
Ġdef ensive
ĠSpark le
Ġview s
Ġabs olutely
Ġtrave ling
Bird s
Ġinclud ed
Ġerupt ion
Ġanaly ze
P eekaboo
W ork
n igh
v ia
hi st
en ch
ab e
Ġe ight
lo c
Ġcl uck
Ġpo ison
Ġun cl
Ġbra ins
ĠTh ree
Ġsmile y
Ġhair cut
Ġter rit
Ġmel ts
Ġent rance
Ġsoc iet
Ġelectric al
Ġaut hentic
Ġund erest
Ġboss y
Ġveget able
Ġguard ing
min ute
Ġmim ic
Ġunpredict able
c ock
g reat
g ull
er ce
Ġr om
Ġplay list
ate ll
ĠM oose
hing s
Ġsc ent
Ġsn eaking
Ġlearn er
Ġclo ses
ans hip
em ies
Ġstore s
Ġvis ion
Ġval ues
Ġkitten s
Ġsal ty
cient ists
Ġshi ft
Ġcooper ation
Ġweap on
ĠPer haps
Ġchampions hip
Ġcamps ite
F eed
N aughty
c oon
ha pp
Ġin doors
ĠY uck
ĠA pp
Ġis ol
Ġab ilities
ee ling
Ġe cho
ĠC over
ry pt
ĠM ia
Ġal ign
Ġint egr
Ġcom ics
ĠJ ens
Ġen emies
eal ous
Ġfin ishes
Ġland sc
Ġblank ie
Rea ches
Ġharm less
Ġspr int
Ġnest s
Ġdistract ing
Ġmat ches
Ġshoulder s
Ġmagn ets
mind ed
ĠJens en
e ven
p at
ĠI mp
Ġd ense
st alk
Ġr ou
Ġneed ing
Ġpo inting
Ġrain bows
ĠSt ir
ĠSt ill
Ġatt ached
Ġbelie ving
Ġprotect ive
Ġconnect ing
Ġdump ed
Ġrout e
Ġsubst ance
ura ble
whis pers
Ġav ailable
Ġsever al
T able
d oodle
g l
Ġc ables
ĠT hings
en ters
ĠC rack
im al
Ġsn ip
Ġswim s
Ġbro ccoli
Ġser ies
Ġcontro ls
Ġphot osynthesis
Ġspread s
Ġstrength s
Ġsuccess ful
ĠSnow man
Ġlock er
Ġstate ment
Ġneg lect
W hile
Z ip
er ate
ĠT reasure
Ġcan n
ĠB ike
ĠL eg
Ġan cest
Ġsh orter
ent y
fe red
ĠE gg
Ġunderstand s
Ġred ucing
Ġse mester
Ġteam mate
Ġexc hange
Ġrec ipes
Ġmor al
po int
Ġsupport ive
Ġhy pot
ĠSm all
Ġhamburger s
for ward
we an
Ġgogg les
lpha bet
A hh
C ircle
E mma
U mm
â Ļ
Ġa mp
Ġy awn
on i
et ics
Ġli p
Ġli zard
Ġgo at
Ġup coming
ĠG ira
ĠE d
Ġex ams
Ġcar ve
ĠJ o
Ġdi ving
Ġbl ind
iss y
Ġfl ips
Ġfair ies
Ġcr ank
ĠMe ow
het ic
Ġstri ke
ĠSc issors
Ġpops icles
Ġge ese
Ro ar
Ġprec ision
ĠDrag on
T urtle
Ġl ame
Ġl akes
ot ch
Ġin her
Ġdo d
ĠC ats
ic nic
ĠM aking
Ġkn it
ort hy
Ġno ses
Ġsc i
Ġbr ut
Ġfa ith
Ġsleep over
Ġman sion
ĠTh umper
Ġpen s
Ġdust pan
Ġbelong ings
ĠFin ny
ura lly
Ġham ster
Ġenchant ed
Ġdisco very
Ġpretti est
c at
d ry
f us
l im
w ind
an n
Ġf right
Ġm ent
Ġp iggies
ĠW ood
ra st
Ġh ustle
Ġpl at
Ġal cohol
Ġcon es
Ġra ke
stand s
dd er
work ing
Ġstar ters
Ġlift ed
Ġtast ing
Ġou ter
li fts
Ġreturn ed
Ġguard ian
Ġconflict s
Ġinj ury
O ver
c hant
p ausing
Ġd ull
Ġit em
st e
ĠS imon
Ġof fered
ĠH ate
Ġsw oop
am ent
Ġbo l
ĠF ive
ĠF eed
Ġtea sing
Ġmind set
Ġclear ing
Ġsea gull
Ġmid night
Ġmar ath
Ġeng aged
ĠCl own
Ġmail box
Ġscen es
Ġcommit ments
Ġhun ter
Ġminer als
rl ie
âĻ ª
v as
Ġc ub
ig ation
Ġre ef
Ġso ar
Ġme ets
Ġti res
Ġgu ards
Ġbo ld
ol a
Ġlea ther
Ġwind s
Ġdream ed
ĠWas hing
oun ter
Ġval id
rup ting
Ġjew el
Ġconcl usion
Ġdisrespect ful
T aste
r ition
r ang
Ġa cknow
er al
Ġd ots
ĠT ired
ĠB aa
us ions
um n
Ġblue berries
augh ter
Ġri pping
Ġrespect ed
Ġdress ing
Ġcamp a
Ġfight s
Ġsimp ler
sc ope
Ġunf or
Ġgrand k
Ġsle eves
Ġnob le
Ġaqu arium
B low
M agic
S and
r ys
t ra
Ġs ooo
Ġto pp
Ġp ies
Ġn ovel
Ġst ro
ys is
ĠC up
ĠP eas
ob y
Ġcon ven
Ġstr anger
mm ed
ĠU nt
Ġfore head
Ġref res
Ġsurpri sing
Ġzoo keeper
Ġhon k
Ġinflu en
Ġenthusi astic
Ġintrod uce
Ġarri ves
Ġdent ist
B eep
I mit
d is
ea ter
ĠS cientists
ĠM ouse
ĠM uch
ĠM hm
Ġv apor
Ġfr own
Ġsur gery
ball s
hold ing
Ġstud ied
Ġlady bug
Ġopt ion
Ġcrit ically
Ġbene fit
ĠMon key
Ġsac rif
ĠFo llow
Ġloos en
Ġbarbe cue
T ake
c ont
m aster
Ġb rill
er ved
et ry
st one
ve y
Ġj itter
Ġj ars
Ġan ge
ill s
ast y
Ġcool s
Ġman ners
Ġrec ently
cl imb
Ġele ment
Ġmet eor
Ġfre qu
sw eep
Ġill ustr
knock s
draw s
Ġagg ressive
Rel uctantly
Ġreput ation
m as
Ġ âĻª
Ġthe ater
Ġto il
Ġp ear
Ġp ipes
Ġg est
Ġr oot
ĠH am
ĠL ions
pp ies
Ġtime line
get ting
op en
Ġco lder
Ġmo de
Ġun lock
Ġapp oint
Ġtri al
Ġrest rict
read ing
Ġgrand mother
Ġstress ful
Ġinstr uments
Ġund ers
ĠOw ie
Ġjugg ling
Ġtwink ling
Ġsunf lower
Ġathlet es
d og
r ough
Ġto dd
Ġm ush
et ed
at ched
Ġre ct
her n
Ġbear d
ĠF ore
Ġle mons
Ġkit ties
Ġask s
Ġsmall est
Ġch lor
ank et
eat able
Ġboo th
Ġtrans fer
ĠWhe ther
Bird ie
Ġparticip ate
Ġwond ers
ĠAcc idents
Ġtempor ary
Ġbrut al
A nt
C ould
T ry
ou fl
in ating
Ġc reek
st icks
ĠT ear
ad o
Ġhe ated
Ġhe ns
Ġh oop
ĠB ella
ĠH o
ĠD eer
ob ody
Ġsn uck
ĠF arm
Ġpo le
Ġfl ick
Ġde mo
Ġthrough out
Ġpen is
cl oth
Ġfarm ing
Ġstraight forward
Ġnat urally
Ġrev eal
ĠBuild ing
ĠZoom y
Ġinteract ive
Snow man
Ġobstac les
C ontinues
v ate
** !"
Ġb es
Ġb atch
or der
Ġp sy
ra oh
ĠA b
ĠD uring
ul f
lo p
Ġfun n
act ive
Ġun it
Ġgi ants
Ġrec o
Ġfro st
Ġinter pret
Ġcap ital
Ġband s
Ġgener al
Ġcent uries
Ġreflect s
Ġstat us
Ġpuff y
Ġunst uck
Ġgroc ery
Ġgrill ed
Ġmultip le
Ġwis dom
ĠSund ay
b an
c ons
Ġn orth
se mble
Ġli ly
ĠN orth
Ġv io
Ġwa ving
Ġfi erce
Ġpo pping
Ġtw enty
Ġblue berry
Ġadd ition
ĠSt raw
Ġenvironment s
Ġla id
sing ing
Ġpar ag
Ġreg ion
Ġgrand father
Sp ace
ograp hic
Ġhelm ets
Ġdea th
Ġloc ation
Ġobstac le
Ġthie f
Ġcaps ule
G ra
O oh
T reasure
b aa
d ream
r oud
Ġw ars
st ops
!" \
se l
Ġh ol
Ġso aked
ĠG erms
lo ves
Ġhand led
Ġar cha
Ġbr u
He he
Ġbo ing
ffere nt
Ġfl ashy
ma id
Ġpain ful
dden ly
Ġremind ed
ĠEx pl
mo ves
Ġmaintain ing
Ġinit ial
Squ irrel
Ġrehears al
Ġdesp ite
Ġslim y
Ġmarath on
Imit ates
L ick
d led
m oo
w orms
Ġw rest
Ġb ins
ĠA f
ct or
Ġsh ove
Ġsh hh
Ġpro s
ĠE asy
per ing
Ġfl ipping
Ġcr u
Ġgra ph
Ġquick er
So ap
ĠSw ish
Do ggie
Ġty p
Ġhum or
Ġpan el
Ġcent ury
Ġearth qu
Ġfoss il
ĠRu fus
Ġcampa ign
f o
w orm
Ġm amm
Ġg lor
ĠT urtles
ad y
Ġsa f
ĠG ame
Ġlook out
Ġar rive
Ġwater s
ĠSo ap
Ġover s
Ġdi apers
pl ant
Ġrec ords
Ġcand ies
Ġdiag ram
Ġsmo king
B oth
F ro
W ake
g in
Ġt eet
it chen
Ġg ummy
ust ed
Ġsw ept
Ġsu g
ĠP ipp
Ġcar n
Ġcar ving
Ġv ines
Ġro d
Ġgen e
What ever
Ġstand ard
Ġclot hing
Ġvac c
Ġexpress ing
Ġsail ors
li fting
Ġexplo sion
Ġded icated
Ġthous ands
ĠCr unch
De monstrates
Ġfundra iser
happ ily
Ġbrill iant
P re
T eenager
e led
p ro
Ġf au
Ġl oy
on ight
ĠT ooth
Ġre ck
Ġr ays
ĠL unch
Ġstor age
ag ging
ĠP ot
uck le
Ġcl aws
vent ually
igg ly
Ġmet als
Ġpri ces
Ġchar ged
Ġsal es
Bu y
Ġcross ing
Ġhonest y
Ġrelax ing
ĠCha rlie
Ġflashlight s
Ġwand ered
Ġ5 0
Ġshout ing
Ow ie
Ġdiamond s
Ġmolec ules
ĠFred dy
B roken
R ip
c up
Ġs id
Ġs atell
Ġthe ory
Ġb obs
Ġm ale
ea f
ĠS outh
Ġbe et
ĠWe lcome
ap se
ĠYes terday
Ġv all
Ġover do
ĠF all
Ġra ced
Ġres ult
Ġinst inct
Ġrec ent
Ġdes erves
Ġpresent s
Ġfarm s
Ġpol icy
Ġpet un
Ġdump ing
Ġswea ty
Ġsle dding
Ġpupp et
ĠAnt s
Ġstink y
lend id
Ġexcus es
F all
g iving
l it
s k
s low
an uts
Ġf ry
on se
or gan
ĠS alt
id ges
ir cus
ĠH urry
ro l
Good bye
Ġgr ind
Ġtri m
Ġher self
ors ie
Ġimag ined
Ġhor iz
Ġcoll ar
Me ow
ĠQu est
Ġforgot ten
Ġtor to
wr ite
ĠFro ggy
uri ous
Ġfeat ure
Ġmead ow
Ġoppon ent
wet ty
f ind
w hoosh
Ġs ends
ĠW ish
Ġst iff
Ġin ha
ĠD rop
Ġout door
Ġat oms
qu al
Ġfun g
ĠE ver
Ġex ha
ĠR ibbit
Ġsupp orts
Ġart icles
Ġzoom ing
Ġguide lines
Ġdecor ation
Ġadjust ing
Ġsle eve
Ġge ography
Ġboun ced
Ġsurround ed
Ġsuff er
Ġindepend ent
Ġspect ac
scrib bles
* :
T alk
he et
Ġc act
Ġp ec
ĠT ur
ad ed
Ġj ealous
ct ions
ĠC all
Ġne ut
Ġshow ers
Ġpe ck
Ġgr an
ree ze
Ġexper ts
Ġfort ress
Ġvis uals
Ġpet als
crib e
Ġhum id
Ġimit ate
Ġfis her
Ġa x
Ġto ne
Ġto ddles
an anas
Ġd are
Ġgo ds
ĠC orrect
ate g
ĠM ad
ĠD ay
Ġbu dd
ho g
Ġspirit s
Ġri ce
Ġclimb s
po d
Ġrem o
Ġru ining
Ġcor d
ustr ated
ele ct
Ġwigg led
Ġge omet
Ġhall way
Ġdem and
Ġtopp ings
Z oo
g randma
Ġw it
it able
ri m
ĠH allow
Ġe y
and al
Ġpro b
Ġsc atter
ĠR a
Ġgu ides
Ġen velo
ĠDo gs
Ġgen etics
Ġcatch y
Ġdri ft
gu ard
Ġworld s
Ġshort cut
ĠCl oud
Ġprog ra
ĠAr t
Ġneat ly
Ġhyd ro
ĠRead ing
ĠMon keys
Ġinj uries
Ġcas es
Ġpha raoh
Ġrece ive
A greed
b roken
f rom
u ces
w oof
Ġt an
Ġto ot
Ġl un
ar se
Ġbe neath
Ġst ain
ĠG ently
au ghing
il ize
Ġco ck
Ġsc ores
ump kin
Ġstr ay
Ġapp eared
Ġoff ense
Ġfair ness
so ci
Ġde g
Ġlo gs
Ġfig ur
Ġdress es
Ġvan ished
Ġengine ering
Ġstret ches
Ġpil ots
ĠCh rist
Ġserv ices
Ġcabin et
Ġleaders hip
fr ont
ĠSquirrel s
Ġleng th
Ġfu zzy
Ġparag raph
G en
m ers
Ġ vent
Ġg reed
ĠW inning
Ġr it
ro ve
ĠJ ul
Ġpe anuts
Ġsk ipping
Ġche ated
Ġfo g
Ġdec ent
ret e
Ġgra ins
Ġcomp ete
Ġsweet est
Ġimag inary
og ue
Ġper man
Ġcap t
Ġmod els
Ġdef ine
Ġbur ger
emp t
Ġstret ched
Ġneg ot
ĠTruck s
ĠEgy pt
Ġconstell ations
Ġmelo dy
B oots
u ddle
Ġb irth
Ġl in
Ġn ational
Ġha ss
ĠM ag
ĠM oney
ap es
Ġpro ced
Ġthing y
Ġad orable
Ġbl urry
Ġfi zz
Ġsun rise
ma le
amp ing
ĠK now
erest ing
Ġbuck ets
Bed time
keep ing
Ġincred ibly
Ġwhisper ing
Ġhobb ies
Ġprote ins
Ġsunb urn
Ġantic ip
Ġpetun ias
Ġtorto ise
D is
M ess
a its
c op
c hick
k a
t ext
w ell
an ish
es tern
Ġwe b
ĠT ape
Ġr ange
ĠL E
qu e
qu iet
Ġqu it
Ġcl ams
Ġen han
Ġtri angles
Ġres olution
time y
Ġsky d
Ġdist ances
cal ming
Ġimpro v
Ġorgan isms
ĠBear s
Ġprog rams
Ġwra pper
Ġsculp t
Ġsac red
Ġcomplain ing
Ġtipt oe
oufl age
ĠHallow een
B est
W o
l on
Ġt aps
ou dy
Ġyou th
Ġm aze
as her
ĠW ake
Ġdo dge
ce ler
ĠH y
Ġth orn
ic a
ĠM ed
Ġco ord
ĠE lect
ĠR ep
ĠR est
Ġmo ons
Ġfin s
Ġel bow
Ġrec omm
Ġrel ay
Ġtreat ing
Ġtreat ment
Ġpress ing
Ġmed al
Ġpee ling
Ġform ed
ĠPe anut
Ġimpress ion
Ġnut rition
Ġdistract ion
Ġsaving s
Ġapo logy
Ġcustom ers
Ġweap ons
Ġgalax y
Ġbrace let
Ġsociet ies
ĠAf ric
Ġfau cet
Ġbudd ies
D rag
T ouch
W rite
Ġ Q
Ġt in
Ġp onies
ĠT ap
ĠT oby
ĠS illy
Ġst amp
Ġu l
Ġh ung
Ġmy t
ic ating
Ġsp it
Ġsp lendid
Ġsu its
Ġtur b
ĠSo da
Ġcr ush
Ġspot ted
Ġsign ed
ĠBu gs
Ġcent ip
Ġdev ices
Ġdestroy ed
wi ends
Ġresil ience
Ġchees y
P en
c lean
p ark
al f
ack s
ĠM art
ie lder
ĠR ound
Ġday dream
Ġsk ated
os ition
Ġresp onse
Ġexc ess
St owy
ĠTo ast
Ġpresent ing
Ġter rifying
Ġequ ally
Ġev olved
Ġfant asy
Ġreflect ion
ĠOw l
Ġgun s
ĠPro bably
Ġhea ling
Ġfis hies
Ġvag ina
Ġshoel aces
Ġtodd lers
Ġfunn iest
Ġarcha eolog
S l
ð Ł
re sh
er as
or al
se e
ĠL ope
Ġsh h
ĠP ar
Ġread er
Ġwa ved
Ġtri pping
Ġtow ns
Ġpr on
Ġpract ically
Ġswim mer
Ġland fill
Ġmar ig
Ġmemor ize
ĠSa id
let on
Ġburn ed
Ġhid es
Ġconst ant
Ġgad get
Ġimagin ative
ĠCho co
Ġsnowball s
Ġindust rial
sniff les
Ġdut y
Ġyaw ned
Ġhass le
ĠLope z
A ir
K ind
P ress
g lue
t ee
t his
he at
Ġa lphabet
Ġs ire
Ġc oop
Ġd ot
ot al
ĠB rit
ĠB rave
ĠL o
ĠM ove
Ġsp iders
Ġhi er
Ġsw ay
Ġsu ck
Ġbu ry
Ġgr asp
Ġkid ding
de red
Ġgra mm
Ġhead ache
Ġsing er
uff in
Ġlive ly
Ġcompl iment
Hold ing
ĠSnack s
Ġvolcan oes
itam ins
Ġrelax ed
Ġwand er
Ġbusiness es
Ġglow ed
frown ing
Ġrat tle
Ġbound aries
Ġbubb ly
Ġfluff iest
Ġfart her
Ġdy nam
Ġscoo ter
Ġappoint ment
Ġn ons
ĠN om
Ġal ert
Ġbr ushed
Ġfi st
Ġde fin
Ġlisten s
Ġexc l
bo dy
Ġconnect s
Ġglo ve
Ġsub mit
Ġexperiment ing
Ġimm une
keep ers
Ġanal ysis
Ġcheer ful
Ġweak ness
ubb ing
ĠGarden ing
Ġsan ct
Ġsnowfl akes
? !
g ue
Ã ©
hi gh
Ġb ail
Ġp hi
Ġgo lf
Ġco al
Ġsu nd
ĠE mp
Ġwork shop
Ġtr oub
Ġpo ly
Ġsk it
Ġun sc
Ġfin als
ract or
Ġres c
Ġju g
ret urns
ĠK night
Ġflo ppy
Ġmiss ions
uff le
ord inary
Ġcommun ities
Ġsme lly
Ġlift s
Ġbeha ve
Ġseat bel
Ġnet work
Ġboun cing
Ġfamil iar
Ġrelig ion
Ġbark ing
ĠLe go
Ġconcl usions
ĠSu ddenly
Ġsch ol
Ġintell ig
M orning
S eriously
W ish
n els
p ats
u ary
er ry
Ġc akes
Ġn ative
Ġst roke
ĠA pology
ĠL a
ak ers
Ġas soci
Ġco coon
Ġmight y
Ġun in
Ġfe male
read s
Ġfire works
ĠSp oon
uff s
Ġbowl s
ĠBu zz
Ġmar ble
Ġpar ach
Ġseas ons
Ġlangu ages
Ġhesit antly
Ġadap ting
g ment
h um
t ical
v ous
w ah
Ġf ul
Ġd ar
Ġp eak
Ġe erie
un s
get ic
il ty
ĠP arty
Ġfind ings
Ġcl ip
Ġover d
os es
Ġflow s
Ġfair ly
Ġch ore
ĠTh urs
Ġpaint brush
Ġfire men
Ġatt end
less ness
Ġpat s
uff les
Ġglo bal
sha ke
Ġcommit ted
go ing
Ġvar iable
Ġlos es
Ġdevelop ing
Ġstrateg ic
Ġchat ting
Ġscrib ble
pour s
Ġvirt ual
Ġtoil et
ĠThurs day
B oo
B ib
G l
G ame
P aper
Y up
f at
n ces
w arm
y cl
z zing
Ġw ound
Ġs hat
re p
Ġc ore
Ġg oof
ĠT able
Ġi cy
ri age
ĠB ang
ĠN obody
Ġar rang
Ġcl oudy
Ġdraw n
ĠShe ep
Ġcont ract
Ġdark er
cl ap
ĠDon key
ĠSp anish
Ġpers ist
Ġama zed
Ġam use
Ġjo ined
Ġmanage ment
Ġtrust y
Ġins ight
Ġdisapp eared
ĠTry ing
Ġpolit ics
Ġinj ured
Ex cellent
Ġnewsp apers
fortunate ly
Ġep is
b read
Ġt ul
Ġm ant
ĠT ri
ĠB et
ĠH en
am ental
Ġar rows
Ġag ent
ĠF ishy
Ġdiffere nces
Ġgl ued
Ġthr own
Ġclo ak
Ġflo ated
str uggling
Ġrem ain
Ġrem ains
Ġstreng then
Ġtalent ed
Ġchill ing
Ġlab els
Ġdiscover ing
Ġcontroll ing
Ġtemperature s
ĠAd ams
Ġmic row
ga zing
Ġfertil izer
Ġadop t
B w
o le
p ea
p aw
Ġn erves
ig ator
ĠT ree
Ġst em
Ġin put
ust ing
Ġnot icing
ic ies
Ġstor my
mb ly
Ġsha ker
Ġcom ment
No se
Ġshare s
Ġun h
os ing
Ġwr iter
Ġtra ils
Ġend urance
Ġwall et
ric al
yc lo
com es
Ġwigg ling
ĠBall oon
Ġmas hed
Ġprincip les
Ġstro kes
ĠPipp a
B oom
M hm
g ly
t hat
Ġ ðŁ
it ched
ing ers
Ġl ull
et ing
st ra
ĠT aste
ĠL ick
Ġsha me
Ġwa x
Ġpr ay
Ġnight time
Ġbea st
Ġpol icies
Do or
hor se
Ġinvent ion
Ġreview ing
Ġaim ing
Ġdisturb ing
Ġupd ated
ĠAmeric a
Ġrelations hips
Ġaltern ative
Hes itantly
Ġfootpr int
Ġrou ter
? !"
b eat
w in
Ġs or
Ġd itch
Ġp iles
ar ry
Ġcan cer
ot t
Ġr anger
ur pri
im id
Ġback s
Ġbr on
Ġbo lt
Ġpo les
Ġred o
Ġthan ked
Ġdark ness
Ġho ver
ric ate
Ġshar pen
Ġprin ting
Ġscare crow
Ġlamb s
over hearing
Ġunc on
Ġemot ion
Ow l
Ġjugg le
Ġmig rate
ĠElephant s
Ġjewel ry
C are
b ut
c ook
i ac
o vers
u v
Ġa f
it ious
Ġb omb
er cial
Ġc ateg
an illa
Ġf id
Ġl oops
Ġd er
Ġp unch
at hy
ĠW his
Ġout d
ap an
ĠP otty
ĠR ab
Ġtw ir
Ġtri ke
Ġfavor ites
sh h
cl ear
Ġdes ire
Ġdel i
Ġve hi
Ġmar ked
Ġobs erving
Ġwha les
Ġintrig uing
Ġterrit ory
" !
D rop
b ur
m al
n ame
t ell
Ġt ense
it age
Ġb ald
le ment
Ġre un
ri sh
ĠB ananas
Ġsp ice
ĠG ames
ul um
Ġhand ful
ĠJ apan
Ġhar vest
Ġlea sh
Ġcr ashing
Ġju ic
Ġsad dle
Ġcheck s
ĠSp aghetti
no dding
Ġleg it
Ġphot ography
Ġdr ums
Ġent ered
Ġsuggest ion
Ġwea ve
ĠThrow ing
P ushes
S owwy
c uts
e ering
w ipes
y on
Ġa id
Ġw id
Ġs ips
Ġn oodle
ight y
ĠL eaves
Ġplay house
ro ad
ast les
Ġwork out
Ġgu iding
Ġun known
ug al
Ġpoint ed
str uct
uc ed
Ġjo king
Ġorgan ic
Ġcam eras
Ġrais ing
Ġspecific ally
Ġtong ues
whe el
Ġentire ly
Ġpun ishment
ĠMo vie
fr ustrated
ĠFo cus
Ġthreat ened
Ġadap ted
ĠDi fferent
Ġallerg ic
Ġcit iz
Ġgreed y
Ġc er
le nce
ĠT ra
ĠA M
Ġr ushed
ĠL ion
ĠC omm
cher s
ĠG rand
lo at
Ġqu arter
Ġsm ud
Ġdi or
Ġdi ed
Ġdi vers
Ġblock ing
Ġsl acking
Ġapp et
Ġman ager
Ġpark s
Ġflo ors
bo ards
Ġexper ien
ops icle
app er
Ġadv ance
Ġessay s
Ġgoal ie
ĠAs leep
mo d
Ġteenager s
belie ver
Ġped al
Ġimit ates
Mon key
Ġreprod uce
Ġfract ions
Ġtox ic
Ġincorp orate
onest ly
P itty
f oot
w ee
Ġa ster
Ġw hisk
on al
Ġn ine
ĠC orn
Ġan ch
ĠM ay
ill ed
Ġsa x
Ġback ward
Ġqu ant
Ġqu art
Ġwater proof
Ġuse less
Ġlot ion
Ġtw itch
Ġbuild s
Ġgra in
Ġextra ordinary
to gether
Ġbump ing
Ġdist ant
Ġinc ident
Ġstraight en
ĠQu ick
Ġcam ouflage
Ġboun ces
Ġprior ity
Ġcirc um
Ġbull et
Ġmoist uri
Ġpleas ant
Ġappear ance
ĠPat ience
Ġunif orms
En tering
Ġmisunder standing
Ġmagaz ine
achie ver
Ġlandsc ape
H ear
T all
W ind
Ġs ex
ld o
ing le
Ġl aces
Ġst rap
Ġth ump
Ġsp oke
ĠD ancing
Ġpro cra
Ġint ently
Ġbl u
Ġtw igs
Ġflow ing
ave d
ĠSt reet
sh ot
Ġfew er
air y
Ġcream y
osaur us
Ġvis ible
Ġmar bles
box ing
Ġscar ing
ograp her
Ġdoc uments
Ġrelie ved
Ġlimit ed
Ġrom antic
Ġprocra st
C wean
P iggy
a ving
s pl
Ġp and
Ġg or
ĠS ea
Ġre nt
me ow
Ġpl un
ĠC hill
ĠC ircle
Ġk i
ĠD ec
ĠG randparent
op hy
ag eable
ĠP wetty
ĠE ventually
Ġsc attered
Ġover all
ol ic
Ġfix es
int age
Ġground ed
Ġant ib
Ġfact ories
ĠZ iggy
Ġcous ins
Ġstret chy
Sh ow
olog ical
Ġprincip le
Ġdiss olve
Ġencourage ment
Ġcucumber s
ĠLE D
Ġsire n
R ound
a ft
p ee
p ti
p erson
Ġs oo
Ġs izes
Ġc ried
Ġf ool
Ġl ux
st ri
Ġha l
Ġst ance
Ġh us
ro aching
Ġkn ob
ĠP ri
um in
ol t
el on
os al
Ġgen u
Ġclass ical
Ġspirit ual
Ġcomp on
Ġmin im
Ġcir cul
sp ring
Ġhero ic
Ġtag ged
Ġspaces hips
Ġpersonal ity
Be fore
Ġwhis pers
Ġcaterpill ars
Ġgym n
Ġracc oons
ĠEgy pti
Ġdelight ful
Ġacade mic
ĠFore st
Ġcact us
Ġtroub les
Ġepis ode
M ama
W awa
c atch
k ind
r ont
t es
t aking
Ġw ine
Ġd ared
ter y
Ġpl ugged
ĠA ma
ĠA hh
ĠD ucky
est ic
Ġex ec
Ġcare less
Ġint imid
Ġover f
Ġshare r
Ġid eal
gg le
Ġcho co
Ġph r
Ġele g
Ġhit ch
pe red
Ġbus es
Ġrep ack
Ġstri p
Ġmeas ures
Ġconfus ion
Ġtele port
Ġresour ceful
Ġingred ient
Ġsuit able
Din o
Ġcivil izations
Ġconvin cing
ĠPop corn
Ġsubt ract
B reak
B anana
B eautiful
O ff
O ther
S ock
a iling
c ot
c ited
f rog
s ome
z ip
Ġt att
in c
Ġb apt
ha s
or ange
Ġo x
Ġst ab
ĠB anana
Ġwas hes
al ine
Ġti lt
ĠD es
Ġas p
Ġfi le
Ġhu gging
Ġbad ly
St ir
Ġmin us
Ġpass age
Ġwood pe
Ġtick et
ew wow
Ġpri m
Ġresponsib ly
log ist
ĠZ ip
Ġaut umn
Car rot
Ġcompet itive
Ġsty les
Sh ows
amb oo
Ġproduct ive
ĠPret end
Ġshin iest
Ġgn ome
yclo ped
aft ig
b ig
c loses
i vor
p ass
r ant
s oft
Ġw ider
re al
ha l
Ġc ou
Ġm it
Ġp ound
Ġg el
ut tered
Ġcan vas
Ġhe dge
Ġre use
ant astic
Ġup per
ill ow
im itates
ĠOh h
Ġbr idges
ĠJ ello
Ġmo squ
Ġguess ing
Ġwhi z
Ġsqu irt
Ġrain coat
ĠSha kes
Ġrel atable
Ġpour s
ĠWho ever
Ġcoll ab
Ġconf irm
Ġbar rel
Ġspark les
Ġste ering
Ġwhis pered
Ġfold ing
Ġcent ral
Ġcudd les
Ġspell s
Ġcalcul ator
Ow ange
Ġtramp oline
Ġsamp les
Ġinfluen ced
3 0
5 0
E w
F o
O ut
P otty
U m
W eee
c key
g lasses
Ġd orm
Ġo l
ĠS et
ot hes
Ġhe ats
Ġpl astics
ĠC om
Ġmy ths
Ġan ger
Ġpro ceed
Ġint ention
Ġtheir s
Ġmu ral
Ġhard est
Ġdri vers
av y
ĠSha r
Ġrel eases
Ġcomm otion
gr own
Ġcoll apse
Ġdist inct
Ġdeep ly
ertain ly
Ġbur gers
Ġdiscuss ions
Ġpan ic
Ġamount s
Ġcontrib uting
Ġbehavi ors
On ly
Ġcooper ative
ĠOther wise
Ġbri cks
break er
Ġdom in
Ġsymp t
tw eet
Ġchir p
Ġasse mbly
Ġperman ent
C ol
M o
c ross
k iss
an ic
on k
ea ten
le vel
ĠS y
ĠS pl
ot y
ĠH orse
ĠG lue
ast ers
Ġal m
Ġar row
pl ets
Ġher itage
ti mate
Ġduck ie
Ġdec omp
cl ip
ĠSp ill
Ġmiss es
Ġpass en
Ġfit ting
urn ed
Ġinv as
Ġconf ront
oun ced
Ġdr own
Be ans
Th ree
wr itten
bird s
Ġsile nce
ĠCow boys
Ġcontact s
Ġoutl ining
Ġtact ics
Ġwarri or
Ġmischie vous
Pre cisely
ĠAfric a
Ġmarig olds
Ġmicrow ave
pea re
Ġoutd ated
Ġdior ama
C lass
E gg
c ular
c ycles
f are
g ien
m et
er man
Ġst ock
Ġdo ck
Ġea st
lo y
Ġclean est
ĠP ony
Ġgu ilty
Ġun he
Ġun happy
ave nger
Ġtable cloth
pt ic
Ġret urning
land s
Ġob l
Ġev ap
Ġev olution
Bu ddy
Ġenc ounter
Ġastron omy
Ġapply ing
Ġwra ps
Ġpres ence
ĠPat tycake
Ġeffic iently
Ġachieve ments
ĠMar vin
Ġentertain ment
Ġdut ies
Ġpra ise
Dream s
ĠPanc akes
Ġancest ors
ĠBrit ish
ĠShakes peare
J amie
P icnic
R ock
a zz
p ower
w orthy
Ġs ir
Ġb ass
ĠS ec
Ġr h
ĠH itting
abys it
Ġne cks
Ġjust ice
Ġcare d
ĠR ome
Ġv intage
Ġcha ins
Ġde w
Ġwarm ing
ere r
if ully
Ġleft over
ĠBig ger
Ġoce lot
Ġchar ging
Ġimpro ved
ĠSh iny
Ġdoll ars
Car rots
Ġlollip ops
sigh ing
roc het
Ġpad dle
Ġmill ions
Ġhundred s
ĠPo lly
appro priate
ĠButter flies
bre vi
ĠEm ily
C hick
t alk
Ġm ob
Ġg ig
Ġpl aced
ĠH ugs
ĠN oodles
ĠC ows
ĠC ereal
Ġcha otic
Ġun lo
Ġoff ers
ac c
Ġpark ing
ress ion
Ġchi cks
Ġstar gazing
Ġrec har
Ġhide out
Look ing
Ġbeaut ifully
Ġrem ark
ane ous
ord an
Do ll
Ġleg ends
Ġprocess es
Ġgrand d
Ġsplas hy
Ġer as
Ġuns afe
ien cy
Ġsymbol ize
Ġwand ering
Ġcontroll ers
ĠPu ppies
Ġdead line
Ġconcent ration
ubb er
Ġdefend ers
Ġindust ry
Ġcher ry
Ad venture
Ra ises
Ġenhan ce
Ġamuse ment
Ġlull aby
Ġgenu ine
m us
m anship
o pp
r ous
Ġb itter
Ġb ait
Ġm ur
Ġn it
ĠT igers
Ġin ch
Ġh oops
ce ive
Ġgo ats
Ġthem es
ul ating
Ġwh ine
and er
and el
Ġpro ps
Ġsound ing
Ġsm ash
Ġcon vent
Ġwhere ver
ac ious
Ġfl apping
ead s
Ġfly ers
Ġcho ke
cl apping
po ke
ens ity
Ġmix es
Ġcons erve
Ġmeet ings
Ġkiss ed
Ġpri son
Ġret ro
Ġdr oopy
Ġinform ative
Ġer rors
Ġeduc ate
bl ood
Ġbul bs
Ġdest r
Ġmunch ing
Ġrein force
Ġsunf lowers
Ġdescript ion
Ġmagaz ines
Ġdun no
B read
C at
D ucky
o cc
r id
s plash
w ire
Ġt ac
Ġc omet
Ġf le
at ural
Ġi con
Ġre fe
Ġre arr
Ġr ig
ro st
Ġti l
is in
ĠG P
ent ially
be ing
ĠP icture
Ġwho ever
Ġbet ray
Ġher b
Ġbird ies
Ġunt angle
Ġcomp artment
Ġcont am
St ick
Ġcame l
Ġper haps
Ġsoap y
Ġremind ing
ĠAw w
Ġvo cal
Ġdescrib ed
ĠZ oo
Ġer ase
Ġdevelo ped
ĠSm ith
Ġsens es
Ġfri ction
Ġdiag rams
App roaching
Ġarri ved
Ġlean ing
B aby
H er
N om
a iting
c old
n es
r ad
Ġl ined
ĠT utor
Ġha il
ĠA ye
ĠM ik
Ġsh ri
Ġout f
us able
ink er
Ġbu ff
Ġun imp
Ġhard ly
Ġchi li
Ġstar ry
Ġbea ts
Ġrec ycl
Ġskate park
Ġtick ly
og en
To ast
sm ith
Ġworks heet
Ġcap es
Ġpee ked
Ġsto le
Ġdecor ating
Ġcoun se
sha dow
Ġimm ig
Ġwobb les
Ġrust ling
Ġped als
Butter fly
Ġcentip ede
N oodles
P way
p atter
Ġt ug
Ġl y
Ġn ick
Ġn ug
ĠT ummy
Ġst aff
Ġli king
ĠA ust
ĠL una
Ġti es
Ġar ts
Ġad s
Ġad vert
Ġover board
Ġbl aming
Ġra lly
Ġpo etry
Ġhar mony
Ġcha mber
Ġgra ceful
Ġcho ir
Ġloud est
Ġpen alty
Ġexplore d
Ġdanger s
Ġcollect ed
ĠUn ited
Ġev ac
Ġtract ors
Is n
Ġprod uction
Ġscreen s
Ġposit ions
Ġjam mies
Ġmas ks
build ing
Ġur ban
watch ing
Ġfal se
Ġhibern ate
ĠGu ys
Ġstranger s
ĠJul ie
Ġul timate
Ġtul ips
B us
F w
R awr
b eep
c het
n ap
er ts
Ġc one
Ġp ipe
ĠT all
ad dles
ĠW est
Ġst itches
se ver
ĠB and
un cle
ĠN eat
ĠN aughty
ĠC lass
ak ery
ĠP ool
Ġsc avenger
Ġgu lp
Ġcl iff
Ġv ig
Ġover coming
Ġtri cked
ĠSt ates
Ġdri p
Ġcra cked
Ġcre aky
Ġban ner
Ġinc on
Ġsub mar
Ġswea ters
ĠZ zz
Ġwar n
Ġwide ly
ĠCha ir
ĠDrink ing
Ġupd ates
Ġident ity
Ġpyram ids
A lex
C r
C andy
r ubs
v et
in ters
Ġw ast
Ġf ans
Ġp airs
Ġli mb
Ġout doors
Ġat om
omet er
Ġback st
Ġra iling
Ġra ised
Ġtra it
Ġaw aits
ave nder
Ġgl am
Ġcr ump
ĠU ns
Ġcheck list
ĠV en
Ġcup cakes
Ġmusic ian
iv able
Ġfre s
Ġpet ition
Ġbar rier
Ġagree ing
rup ted
Ġign ored
Ġscra mbled
Ġsect ions
Ġbenef icial
ĠFair y
Ġsyn c
step s
Ġviol in
Ġdeg rees
B rave
c ap
f old
o f
p ie
u ver
w ashing
ou rish
re ck
ĠT onight
ar i
Ġhe ater
Ġu gly
Ġin ner
ĠN uts
ro ar
Ġwor ship
get table
ĠR el
ĠR usty
Ġsn ag
Ġra ck
ĠPl an
Ġwhi p
Ġche aper
Ġtow ard
Ġfore cast
Ġhop s
Ġswim mers
ĠSt ep
Ġele v
Help s
Ġcontro vers
Ġsea weed
Ġcur ved
ĠAn other
Cl oud
Ġcomb ination
Ġhy gien
isten cy
Ġcudd ly
Ġsurf aces
ĠCo ffee
Ġclea ts
Cha ir
Ġclaim ed
Super her
Ġrein for
jo ining
Ġdisrupt ive
Ġzomb ie
Ġartifact s
Ġreco very
B asket
D i
L i
L eaves
c areful
l aces
r ust
u ity
he lls
Ġa ver
Ġs out
it as
Ġto re
Ġp ale
Ġg ust
ĠT ick
Ġj ail
ĠB oots
all s
ic ine
Ġad min
... '
Ġen zy
Ġtr unks
ĠF our
ĠPl ant
ac hable
Ġown ers
Ġend less
Ġexpl oration
Ġslow s
ĠSt omp
Ġspace craft
br ushes
Ġass ume
Ġed iting
Ġmel ted
yc ling
vo ke
Ġenc ycloped
Ġjud gment
Ġmeaning ful
Ġble nder
Ġclea red
Ġpolit ic
Ġgrabb ing
Ġunre al
Ġhea ven
Ġdu pl
Ġrefres hing
Ġloy al
Ġsor ce
Ġwoodpe cker
) **
F unny
W ed
n ee
s ized
v il
w ing
Ġs ou
Ġs oul
hi ft
Ġb amboo
Ġd urable
Ġg ang
ad der
Ġhe ating
ĠW ild
Ġst ere
Ġyour selves
Ġj og
ĠYou T
ind er
ur f
Ġor g
Ġas h
ap h
Ġsha ping
Ġhand ing
um m
Ġpe ppers
ign ed
Ġju j
ĠAfter ward
Ġpack et
Ġstra in
Ġfla pped
Ġobs essed
Ġbeep s
ĠFro g
Ġdemonstr ation
Ġbuilder s
ĠTurn ed
Ġninj as
Ġvibr ations
Ġscrap ed
Ġconduct or
Ġapplic ations
Fr uit
Ġbes ide
Fro ggy
Ġwit ness
Ġmosqu it
p ow
r as
Ġt ease
Ġa uction
Ġ** (
Ġb akery
Ġd aring
Ġp ajama
ad ing
Ġcan cel
Ġst eel
ĠB illy
han ging
ent ive
act ic
Ġsc an
Ġra cer
Ġfo il
Ġel k
Ġimag ining
Ġland mark
Ġcoll aps
Ġsign ature
Ġform ation
com b
ĠStory time
Ġgrandparent s
Ġdiscover ies
ĠBird ie
Ġweight s
Ġwea ken
Ġbend s
Ġprov ides
Ġfeat hered
Ġsus p
Ġbroad ly
Sn uggle
Ġarchitect ure
Ġvall ey
Ġsanct uary
Ġphi los
Ġsax oph
B each
D og
F ork
P anc
] ,
w it
w ait
Ġ ut
Ġt ee
Ġt ents
Ġs is
ha bit
Ġwe ep
ĠW ed
Ġj ot
Ġgo bl
ee k
ĠN on
ear ing
Ġti ll
us es
Ġfun ctions
ĠP art
ĠP ower
ĠR en
Ġv ital
Ġint ricate
ff le
ĠF unny
Ġbl ade
ĠLook ing
Ġun co
Ġbra gging
Ġfly er
Ġhot el
ĠU s
Ġbea ting
Ġri ps
Ġcra bs
Ġener getic
Ġkick fl
io logy
light s
Ġfort une
umb le
ĠHa ving
Ġscar ves
Ġstress ing
Ġadapt able
Ġthick er
Ġemot ional
Ġcooper ate
Ġassist ance
Ġcas ual
Ġbri ef
Ġmechan ical
asket ti
ĠAdventure s
Ġfoss ils
Ġobserv ations
Ġtutorial s
Ġunfor gettable
Ġgran ola
Ġparach ute
Ġdeli very
Ġjuic iest
B r
C loses
S its
T ur
b ers
e ch
r ating
hi b
Ġm al
or ant
oo ster
Ġbe n
Ġu mm
Ġin no
Ġre usable
ĠM et
ĠD r
ĠG erman
Ġco pper
Ġpre cip
ĠNo se
Ġqu ote
Ġv ary
hes itantly
Ġplan k
Ġse vere
Ġcr ot
ĠYour s
ank ie
Ġfro ze
Ġac celer
Ġweird est
ric s
Eat s
pic ally
Ġtrust ed
Ġprep ar
Ġfur ry
Ġmeasure ments
Ġdisc onnect
Ġord ers
Ġbri ck
Ġgrad ually
Ġwebs ites
Ġpreser ving
Ġdelight ed
Whe e
Ġdial ogue
Ġinher it
P ool
T hose
b ar
e ffic
m is
r oot
s u
u racy
Ġd ab
Ġst eak
Ġfor ming
Ġr ink
ct urn
ĠH it
ĠO ink
Ġsh ops
Ġsa v
ĠP h
ame l
Ġv eter
Ġtr ig
Ġwa ist
el ic
Ġact or
Ġrec ording
eat ed
Ġdro plets
Ġpop ulation
Ġmot ions
ative ly
Ġexpect ations
Ġbur row
Ġperform ing
roll ed
Ġslip s
Ġrot ate
Ġcot t
Ġscrib bles
Ġaltern atives
Ġinfect ion
Ġmulti pl
Ġwrink ly
Ġencoura ging
Ġisol ate
Ġgrandk ids
Ġreck less
Ġneut ral
Wo lf
A unt
C rack
H app
j ud
s orry
Ġs ed
Ġc ens
or ize
Ġd w
Ġp ap
ct ors
ust rial
ur ses
ĠM ust
Ġsp at
Ġneed les
ĠG ross
am ic
ĠP ig
Ġbu zzing
Ġqu e
Ġdi ff
Ġsk ies
Ġplan ks
Ġz ero
ĠTh under
Ġrec onsider
ĠV e
cl uck
Ġcount ed
Ġmusic ians
Ġbus hy
Ġpress es
Ġcu bby
era ld
Ġbur p
Ġspeed y
Ġbreath s
Ġstream ing
Ġbul ldo
Ġremove d
Ġstretch ing
Ġens uring
Ġsuff ering
ĠGold ie
aunt ed
ĠBreak fast
ĠGl ug
Ġsnee zed
Pe anut
Ġweal th
Ġunderest imate
Ġsid est
Ġarrang ed
Ġanch or
Ġsympt oms
cturn al
T rees
d in
n is
o inting
w a
Ġ etch
Ġg ur
Ġg erm
Ġg inger
le g
ĠT reat
ĠS ame
ad ays
ra ble
Ġab brevi
are s
is her
Ġkn ots
Ġhow l
Ġsha llow
Ġbu lly
ĠR ob
low ing
Ġ( *
Ġcon vert
Ġold est
Ġwr ites
Ġhurt ful
Ġsand y
ail man
Ġext ract
Ġrel ates
Ġrel eased
Ġcre aking
Ġfill s
Ġflower bed
Ġinter n
umb ered
Ġpur s
Ġpet ting
Ġpack ages
Ġann ounce
Ġer os
Ġund o
Ġtrad ing
Ġspeak ers
for ms
Ġsens ors
Ġtrail er
con nect
ĠPu dding
Ġdea f
Ġpleas ed
Ġappear s
Ġconstr uctive
Ġinvest igate
Ġpepper oni
Ġshiver ing
Ġjer se
ĠUnt il
Ġsatell ite
Ġrecomm end
S hoe
T ear
T owel
c lass
p ost
t ake
** )
Ġb iz
Ġc rochet
Ġf iles
Ġm int
ke red
Ġh orsie
Ġj azz
ĠH um
ĠN ut
Ġsh own
Ġsh rink
ĠG reek
ul ated
Ġor che
au d
est ed
Ġsu pers
Ġun even
Ġtw ee
Ġstar fish
Ġfe ver
ug ar
Ġacc ording
sp ec
sp reads
Ġgar lic
Ġty pically
Ġchar ger
Ġpeace fully
Ġpoll ute
Ġwra pping
Ġenter ing
Sam my
Ġtorn ado
ĠGr ass
fight ing
ĠWo lf
Ġunsc rew
Ġappet ite
ĠGP S
ĠAust ral
D eer
E lephant
c lose
e ous
g un
w hile
Ġt art
Ġt apping
Ġs ings
Ġb row
Ġd andel
Ġp uck
Ġp ave
ig ators
ĠS pe
Ġha zard
ot es
ra ises
Ġj et
ĠB asket
Ġwas her
ĠH eal
ĠH orses
ĠM ade
ĠD et
ĠD ip
us s
ĠP ass
Ġex cel
Ġsn uggles
ven ge
Ġro aring
Ġfriends hips
Ġfl ames
ĠWhen ever
ress ing
Ġthr one
Ġmin or
Ġlo ving
Ġext inct
Ġcal f
Ġstraw s
Ġhy per
Ġmis lead
Ġenc rypt
Ġtrans ition
ĠFl uffles
Ġcontrib utes
Ġinvent ions
Ġorig in
Ġbean stalk
ĠBo ing
Ġkill er
Ġrecogn izing
ĠBed time
Ġmechan ic
Ġemergen cies
ĠCow boy
ĠGra pes
Ġpha se
Ġske leton
Ġbond s
Ġhyp not
Ġaccompl ish
ĠFlo ppy
Ġhypot hesis
Ġmush room
Ġfrost ing
Ġgeomet ry
Ġplun ger
Ġcounse lor
G een
H am
S ort
t ick
ou st
in i
Ġw hiskers
Ġc ale
Ġm a
Ġl ob
Ġd ing
Ġg ut
Ġg ems
st ate
ĠT iger
Ġst am
se ls
ĠL amb
ĠC omb
ĠG oose
im ed
ort ion
Ġex pense
Ġad ren
Ġdown stairs
Ġtre sp
Ġcon vey
Ġmo ck
Ġsuper glue
os h
ict ion
Ġfl ame
Ġfl utter
Ġgreen house
Ġbas es
alt ed
Ġac qu
ĠIn ter
Ġext ension
Ġext ingu
Ġkick boxing
form ed
Help ing
Ġinv iting
Ġkey board
Ġtrust ing
Ġpee led
Ġreg ard
Ġsmell ing
Ġtun es
Ġinsp ect
Ġprincess es
Ġaud io
Ġstream ers
Ġill ness
Ġliqu ids
Ġaccept able
Ġoffic ially
Tw eet
Ġdisagree ments
ĠClimb ing
Ġbrainstorm ing
Ġunpl ug
Ġther m
Ġsmoo ther
ĠEd uc
Ġhitch hi
kiss es
Li fts
Ġorg ans
Ġcale nd
Ġtresp ass
. \
C orn
L a
M usic
O uchie
p ipe
he avy
re ate
Ġl aps
on ing
om ers
ar re
en er
Ġh int
ĠC ray
Ġout comes
ess or
qu et
ĠP r
Ġbu mmer
Ġsc amp
Ġint ent
Ġsk ys
Ġstr um
Ġpick y
ti le
Ġreal izing
ĠBe ans
Ġmon itor
Ġacc used
ĠTr ash
Ġcur ren
Ġvisit ors
Ġequ als
Ġtrans l
Ġimpact s
Ġsty lish
Ġmat he
rest ed
Ġconst antly
Ġgre y
Ġexplan ations
Ġtax es
Ġdescript ive
esty le
Ġbund led
Ġconven ient
climb s
ĠAb out
Ġearthqu ake
Ġnug gets
Ġeros ion
H orse
P ony
P ajama
g ling
g ame
i ance
n ics
s hirt
Ġt ed
Ġt ighter
Ġs her
re c
Ġc ass
Ġto ck
Ġf oo
ĠW aiting
ri fy
ant ed
ĠB aking
ĠH ead
ee m
Ġk ay
Ġan x
Ġday time
Ġstu mp
Ġhu ff
th rough
Ġman ageable
Ġdis g
ĠDon ut
Ġcomm ercial
âĢĶ "
ult ure
Ġed it
Ġconc rete
Ġstra ps
Ġpar all
Ġdep artment
roll ing
ĠFl ap
Ġpoll ination
Ġlab or
Nap kin
Ġcudd led
ĠCo ll
Ġbend ing
Ġmas cot
Ġcontain ers
Ġgre ase
olog ist
Ġkill ing
Ġoverp rotect
Ġir re
Ġflu id
Ġvisual ize
Ġvibr ant
ĠBat tle
Ġcrank y
Ġrect angle
Ġspectac le
Ġprogra mming
Ġseatbel t
B ee
H ate
b ath
f ace
m akers
Ġf wog
Ġm ort
Ġn ort
ck led
Ġst im
Ġli es
Ġh oot
ab ies
ri ers
Ġr ider
ear s
Ġtime less
cher y
mb r
lo af
ain ting
ag n
ĠP enny
im i
ort ed
Ġnew t
Ġgr oo
Ġtw eak
Ġown ed
Ġfo lder
Ġsnow ing
Ġfire flies
if ier
Ġacc uracy
Ġho g
Ġleg acy
Ġsto len
Ġgas oline
Ġreact s
Ġbur ns
Ġghost ly
ĠSc rub
Ġspeed s
Ġshi mmer
pr int
Ġparrot s
Ġwag ging
Ġdiscipl ined
Ġbeak s
sniff ling
Ġfootpr ints
Ġweal thy
Ġretri eve
Ġtoug her
Ġmamm als
ĠMik o
Ġcalend ar
? \
D w
P izza
i ator
w ords
Ġw iring
Ġc ure
Ġc ope
Ġc aves
Ġ" ...
or ic
Ġd ye
Ġn ailed
st rip
ed er
ĠH alf
ear ches
ul ty
Ġsn apped
Ġro am
ject ing
Ġsk ull
Ġun int
os is
Ġoff ensive
Ġstuff y
ange red
ĠSt one
co nd
ens es
Ġant en
Ġdel ay
Ġcere mon
Ġneck laces
Ġprom ising
Ġdam aging
Ġlibr arian
Ġlab eled
ĠFin ally
Ġcent aur
Ġtechn ical
Ġsquare s
Ġdiv ided
Ġwag ged
Ġtelesc opes
Ġchef s
te ch
Tr ash
Ġauthor ity
Ġrum or
Ġelectron ic
ĠSuperher o
Ġthous and
Pret ends
Ġintegr ity
ĠCrack ers
ĠJo ey
Ġtyp ical
Ġbeet le
Ġrechar ge
Ġque ens
C ereal
F eet
F lowers
S arah
b ul
c end
i ot
t ight
w addles
z ards
Ġt row
in nam
Ġs in
re aching
Ġf ade
Ġm ul
Ġm ax
Ġl avender
Ġd il
Ġg az
Ġn ation
at ile
ar chy
Ġst ages
Ġli c
ĠB read
Ġme mbr
ĠC hange
Ġout n
uck et
Ġhand c
Ġbo d
ĠJ immy
Ġtr oops
ĠDo ing
ĠF ingers
Ġhar mon
Ġhar ming
iz ers
Ġdin ing
Ġman ner
Ġrun ners
Ġsun glasses
Ġbra g
Ġstar tle
ten ance
Ġph on
Ġcreat ion
Ġchild hood
Ġdanc ers
sp ect
Ġemp ire
Ġpar as
Ġlay ing
Ġlay out
back s
Ġreward s
Ġpost ed
Ġcop ies
Ġsus pic
Ġdem ol
Ġpal m
ĠRock s
Ġsnee zing
Ġven om
Ġhoriz on
Fo llow
Ġremark able
Ġaver age
Ġbiz arre
innam on
H ead
S hirt
T iger
f ix
i otic
p her
p ane
Ġc rink
ea by
Ġn asty
Ġli cks
Ġin ex
Ġin ches
id al
Ġre ti
ab ber
ĠB unnies
al ize
ĠH oo
Ġplay room
Ġsp ine
ĠD av
Ġor bits
ful ness
ĠE l
Ġmean ings
Ġread s
Ġread ers
Ġcl im
Ġover shadow
ĠF ork
Ġwait s
Ġsl ack
Ġunt r
Ġho llow
Ġpop ulations
Ġdel ete
Ġtoast y
Ġelect ion
sc otch
Ġbur nt
Sp ill
Ġisland s
oor ay
Ġchew ing
Ġaud ition
Ġrout es
ĠPu zzle
Ġscratch y
ĠSing ing
Ġcraw ling
Ġintrod uction
Ġplayd ate
Ġmicro scope
Ġmow ing
Ġtransport ation
Ġdrib ble
ĠGira ffe
Ġreef s
Ġexperien ced
nes day
F wiends
R ibbit
a ired
b rings
f lowers
h op
o ed
w k
Ġt roll
Ġw est
Ġs oot
Ġthe sis
ha ir
at in
ib ber
Ġre app
Ġh om
un ct
ĠC ons
Ġplay fully
Ġwhe e
our n
ĠM is
Ġevery body
Ġhand writing
Ġcl ips
ss y
pl ate
Ġra cket
Ġsl ither
Ġsqu ir
Ġlast s
bo om
br own
Ġpig e
Ġpuzz led
Ġhum ming
vo c
Ġappro aches
obb y
Ġflat ten
Ġbattle field
Ġinvent or
round ed
Ġstat ues
Ġocc ur
Ġcurrent s
Ġwad dled
resp ons
Ġprank s
Ġsatis fying
Ġminer al
ĠChicken s
Ġlas er
Ġclams hell
Ġprim ary
ĠWed nesday
A ww
T eeth
c ur
l ater
p ick
Ġm oth
Ġn ee
Ġn oun
at is
ĠY ogurt
Ġsh one
Ġor char
ĠP rot
ĠR os
ĠJ elly
ĠDo g
Ġdi ction
Ġun set
Ġduck ies
Ġgl itch
Ġcr ooked
Ġlight house
Ġcomp rom
Ġrain water
Ġcut est
Ġpers u
Ġwood car
Ġkick er
Ġter rified
Ġhum il
Ġjelly fish
Ġsal iv
Ġtext ing
Ġtemp ting
Ġcart on
Ġdisapp ointing
Ġvan ish
Ġengine er
Ġengine ers
Ġcraft ing
Ġrepl aced
ey ow
Ġwra ppers
Ġsuggest ed
Ġprop osal
Ġoffic ers
Ġmig ration
Hes itates
ĠInt eresting
Ġdrib bling
Ġsimpl ify
Ġoo h
ĠWood s
Ġacknow led
Ġenvelo pe
Ġful fill
Ġalm ond
opp able
sever ance
ĠYouT ube
ĠUs ually
* ,
B at
C hicken
K eep
M oose
P roud
T ight
T ape
h oot
u ke
Ġt a
Ġt ide
Ġp up
st ar
st ill
st uck
ot or
Ġst ash
ĠH onestly
ate red
ic eable
ĠM ac
Ġsp ies
Ġsee king
lean s
Ġsw ell
Ġsc outs
Ġsn oo
Ġen jo
Ġdi verse
Ġfi zzy
Ġhu mble
de f
Ġde hyd
Ġend angered
Ġjump er
Ġunt ou
Ġch rys
Ġri sing
ci um
raw ls
Ġcre ak
Ġmilk shake
Ġexp ed
Ġper f
Ġmed ium
Ġinter nal
Ġinter rupting
Ġalong side
Ġelect rons
Ġcur ric
Sha kes
Ġtun nels
cha in
Ġmatch ing
li ft
Ġrepl ant
Ġwea ving
Ġexplo sive
ĠInd ustrial
Ġeffic iency
Fl uffy
Ġsketch ing
Ġfunction al
Ġsmo ky
Ġbund le
Ġhoo ves
Ġdistrib ute
Ġcosm ic
Ġpsy ch
Ġinstinct s
Ġfisher man
Ġgramm ar
Ġintellig ence
Ġtrow el
I nt
S led
t ling
Ġ ig
er able
Ġc locks
Ġc innamon
Ġf aint
st ream
at he
ĠT owel
Ġpl ush
ĠB lock
ĠH ope
ĠC am
Ġwhe at
Ġal g
am ine
Ġsha ky
Ġcar ouse
Ġwa vy
ip ing
Ġsad ness
Ġbad ge
ĠK ids
Ġri ses
Ġdri pping
Ġcut ter
Ġrec on
Ġpat iently
Ġrep eating
Ġant ique
Ġpress ed
Ġcu be
Ġmoment um
Ġphot ograph
Ġbuck led
Ġcur se
Ġpump ed
Ġorgan ism
ĠAn na
Ġcharacter istics
Ġste ms
Ġrad iation
Ġlady bugs
Ġtalent s
Ġswitch ing
Ġstream s
Ġfear less
Ġadapt ations
bl ack
wr iter
Ġmagn ific
ĠCh urch
Ġgre ater
Ġfund amental
Ġperio ds
har d
Ġmechan ism
Ġscrib bling
Whe ee
Ġdod ging
sweep s
Ġhol iday
ĠTur key
ĠMed icine
Ġdiction ary
. âĢĿ
B ike
C ount
C aw
S urpri
W aves
b ump
d ers
z on
z ers
ha pe
Ġd ying
Ġn umb
at ical
Ġo vere
ĠT ea
ra ined
Ġj an
Ġe ject
un ction
ĠM id
ent ed
Ġno cturnal
ĠDo ctors
ac ken
Ġcr itter
Ġcra cks
Ġacc us
Ġho ll
Ġmet ers
og ly
Ġrep et
Ġstore d
Ġemp athy
ale nt
Ġstre ak
Ġcur led
Ġpay s
Ġtext s
Ġhelicop ters
hoo ting
Ġsim ulate
ĠSnow y
Ġlock s
Ġdest ination
Ġtoss es
Ġtrop ical
Ar m
ĠWo ah
Ġtrib e
Ġzomb ies
Ġnum er
Ġstunt s
Ġfrequ ency
ĠStraw berries
Ġproced ure
hum an
Ġcontrovers ial
Ġorchar d
Ġcurric ulum
N uts
g lass
Ġs ill
Ġc el
Ġm il
om atic
at oes
as ing
Ġi cing
ra ge
Ġdo able
ir s
ĠB w
ĠBut ton
Ġnot ices
ĠM ud
ĠHe licop
us hy
fe ed
Ġhow ling
am ily
Ġback drop
Ġgu ilt
ue en
Ġen force
ĠThanks giving
ĠF i
ĠF er
Ġun ity
We ren
Ġair port
Ġrec onnect
ĠV itamins
Ġser ved
Ġhope fully
gr ad
ugg ish
Ġdel ive
Ġreg ulations
ĠSay s
Ġtack ling
Ġrobot ics
Ġdirect or
Ġcelebr ated
Ġsandc astles
Pu dding
Pu zzle
Ġgre asy
Ġthunder storm
Ġattack s
Ġtub es
ubb y
Ġwad dles
Ġhea led
ĠFire man
oc ate
Ġqual ities
ĠPol ice
Ġillustr ate
Ġsug ary
Ġremo ving
C w
C uddle
P ot
k ers
y p
Ġw ig
it ant
Ġf ue
Ġl ent
ig her
at a
ĠS ave
Ġst air
Ġh orm
Ġj ay
Ġan at
Ġdon keys
ĠM eat
ĠM iddle
ĠM imi
Ġsp ar
Ġea se
Ġwh it
ĠP opsicle
im eter
Ġsha ve
ĠR et
Ġtur keys
Ġv es
Ġv oy
ĠF eet
Ġstr ut
iz zy
Ġdis gu
Ġri pen
Ġcat tle
Ġpat ri
Ġcons istency
Ġjo gging
Ġcommun icating
Ġcap ti
Ġdef ending
Ġmain tenance
llip op
Ġblo oming
ĠFin ley
miss ions
ĠSqu eak
Ġgift s
Ġconvers ations
har m
Ġcustom er
ivers ary
Ġdigest ive
Ġspi kes
Ġallerg ies
stit ution
Ġcann on
Ġwrest ling
Ġtan gy
ĠKnow ing
Air plane
Ġincon ven
Happ ily
Ġadren aline
ĠEduc ation
B C
B ring
F oot
Z e
a very
c ool
c lock
d ark
g row
g les
m ill
p ron
s leep
v io
w ar
ing e
Ġ" '
or ch
Ġd ash
Ġd awn
Ġp iv
Ġin e
me le
ĠL ift
ĠO ri
ul s
Ġtr ump
Ġover l
ĠF aster
ss ss
Ġbl ess
Ġbl own
Ġra pid
ho sp
Ġsl ot
Ġsl am
Ġact ed
Ġres on
Ġrest art
Ġdeal s
Ġri val
gr ade
Ġchar ts
Ġrob in
Ġscr atches
ĠBlue beard
Sm all
Ġsuggest ions
ĠRun ning
Ġdeterm ine
ĠFr ance
amb ling
Ġunst oppable
Ġmarshm allow
Ġcapture d
Ġexagger ated
Ġsatis fied
Ġfirm ly
Ġescap ed
Pat tycake
Cho co
Ġbol ts
Ġenthusiastic ally
Ġvacc ines
ĠChrist mas
Ġschol ars
Ġquart z
Ġcompon ents
Ġpound ing
Col or
Ġnick name
Ġevac uate
Superher o
B ug
C on
H it
R ub
f ull
g ot
l est
m inal
o cr
p et
İ ¶
it ating
Ġb un
er c
Ġto ps
Ġm ating
Ġm att
or ating
Ġg a
ĠIt aly
ĠB abe
Ġup ward
ĠM ill
ĠD ef
ĠP inky
Ġint ro
Ġdi ct
Ġra g
Ġhear s
Ġfi ery
Ġpo d
Ġdraw s
Ġcome back
Ġfl ush
Ġnight m
Ġhouse hold
Ġbra kes
Ġcont rast
ĠSt ore
ĠSt ack
pt ical
Ġte ens
fin ed
Ġsick ness
Ġext end
Ġener g
Ġper severance
Ġpic nics
Ġcal ming
Ġfact or
Ġgold fish
Ġseek er
Ġreg ions
ĠJen na
Ġfascin ated
Ġcelebr ating
und ers
Ġcri minal
Ġblo cked
Ġvar i
ĠDraw ing
Ġvib rate
Ġunw ind
Ġnav ig
Tom my
Un cle
Ġrefer ring
Ġapplic ation
Ġvot ing
ĠCol or
ĠGira ffes
Ġshove ls
qual ified
Drag on
Ġcitiz ens
Ġsmud gy
Ġrearr ange
Ġkickfl ip
M uffin
T ummy
i kes
m ine
s earches
w ith
in ch
in ic
Ġw oo
Ġw al
Ġs issy
Ġb ay
Ġp ouch
ea dy
Ġo val
ar ters
igh s
Ġst ations
se ed
Ġre en
Ġre write
ex cited
Ġj ag
ĠC ong
ĠG loves
mb o
il ot
Ġpre gn
Ġcar go
Ġcl icked
Ġbo ards
ĠJ ane
ĠDo lly
pl aced
Ġsk et
ump t
Ġgr at
Ġact ors
Ġhur ric
Ġpain ter
Ġclo gged
Ġlight en
Ġperfect ion
Ġbat on
mat ched
ĠâĢ ĺ
Ġzoo keepers
Ġsink ing
Ġshort cuts
Ġdef ender
Ġskin ny
Ġrev ol
Ġsalt water
Ġann iversary
She ep
Sm art
Ġuns ha
Ball oon
Ġchew y
Ġreview s
Ġmult itas
Ġbill s
ĠSand wich
Ġexam ine
Ġrehears als
Ġcy cl
Ġgall ery
Ġspi ky
Fr idge
Ġacrob ats
Ġvio lent
Ġdivers ity
Ġki wi
ivor ous
Ġpassen gers
Ġintern ational
ĠAustral ia
2 0
G iggling
H en
M ittens
] .
b ones
h ors
j ack
m ilk
w ide
w hite
Ġt et
Ġw ilt
it ated
hi ve
Ġc ork
Ġf oul
Ġm es
om in
le en
le gged
ĠS ub
ĠS ister
ar riving
Ġcan oe
ot ive
Ġst akes
Ġst ability
ib ilities
Ġre verse
un gy
Ġnot iceable
Ġmake up
Ġsp ons
ain ted
ĠP igs
Ġag ric
Ġover crow
Ġro ared
Ġpart ners
ol k
Ġdi ver
Ġstu mble
Ġunderstand able
Ġcha ses
Ġun ivers
Ġwr it
Ġfl aw
ĠIs land
Ġcr ashed
Ġdec re
Ġsand paper
Ġflo ss
Ġri f
eas ing
Ġspot light
ĠAll igators
po nd
Ġref ract
Ġed ible
Ġpur r
Ġchallen ged
ops ided
Ġmeant ime
Don key
Ġcomplex ity
Ġbegin ner
Ġlos er
Ġsurvive d
bu ry
Ġinvent ed
uri ze
ĠApples auce
ĠMost ly
ĠHer oes
Ġafford able
ga e
ĠGold en
Ġproof read
Ġindepend ence
bre aking
Ġpyram id
Ġsem i
Ġoccasion ally
ĠBr other
ĠEgg s
Ġplat form
Ġpersist ence
Cr unch
Ġprepar ation
Ġcurren cy
' âĢĶ
G u
G arden
G ween
O ur
c ards
g ie
g randparent
h ouses
n ut
t ay
y ellow
Ġt ad
Ġa ye
Ġm end
Ġm ash
Ġl ord
Ġl ining
Ġg aps
Ġn er
Ġwe l
ĠW olves
Ġli zards
ight ed
Ġre ject
Ġre bell
me lon
ri ch
Ġth ri
ĠC ry
Ġup right
ĠD ep
Ġout run
Ġhow ever
ap le
Ġco des
ove n
ĠR ules
ĠF ill
Ġfin anc
Ġsl ug
Ġsl avery
ring e
Ġgl ands
Ġgarden ers
Ġri pples
ĠV anilla
Ġprotect or
sp oon
Ġant i
Ġclear s
Ġjo ins
Ġpri ck
Ġcur l
Ġsink s
ĠCar rot
Ġbar ked
Ġexpect s
Ġscr atched
Ġunf old
cha se
hand ed
Ġten nis
Ġseas ick
Ġlan tern
Ġwobb ling
Ġprov iding
Ġsubst it
Ġaccurate ly
Ġimit ating
Ġclaim s
Ġmut ual
Ġentertain ing
Ġindivid uals
Ġexagger ating
Ġtipt oed
Ġmim icking
Ġast ro
Ġacknow ledge
Ġvio lence
Ġbobs le
elect ric
ĠQ ueen
Ġmyt ho
Ġhier ogly
ĠKnight s
Ġgoof y
Ġrefe ree
Ġwast ed
Ġhygien e
Ġenjo ys
Ġmagnific ent
C ircus
F ire
J elly
L ife
P ee
W ee
c ence
l aughing
o ly
p ar
u dy
Ġt us
Ġw ife
Ġs ling
ha p
Ġc ling
Ġc ops
or ke
Ġp acing
ll ect
Ġn ag
at ically
Ġu mp
id ays
Ġr ank
ĠH ar
ĠH air
Ġso ared
Ġmy th
is it
han e
ĠM ountain
Ġsh uffle
lo om
Ġal gae
Ġco ding
Ġsha dy
um ed
Ġv ul
Ġcom ments
Ġunder achiever
ss es
ma il
Ġsqu iggly
Ġgreen s
rel ated
Ġ1 1
aw ake
Ġcra mp
igg led
orm al
Ġmorning s
Ġstand ards
Ġexplain s
Play ground
Ġpat ches
Ġmust ard
Ġfoot age
to ddles
Ġsimp ly
Ġmar riage
Ġreg ional
Ġwar fare
Ġtemp le
Ġcompet ing
Ġgener ate
Ġge ology
Ġpost s
Ġpost ure
ĠCo at
Ġcoo ling
Ġunb eatable
Ġocc up
ĠGet ting
Ġrehe arse
Ġsniff ing
Ġmotiv ated
Ġouch y
Ġconstell ation
Ġsuperv ision
Ġunderest im
Ġbol ted
Gra bs
ĠAma zon
Ġencycloped ia
B ub
B aa
C hill
G ar
L eg
M other
P ajamas
T ick
a ire
b lue
d ec
h ook
o ids
p icking
Ġ +
Ġw atered
it is
Ġto ad
Ġy awns
Ġl ag
or ious
Ġp iling
Ġg uts
st rap
le m
le eve
ĠT old
ĠS eed
ot tle
Ġfor ced
Ġpl umber
al m
al is
ĠH ose
ĠC astle
ass o
Ġsw ipe
uck ling
Ġsc ri
Ġday light
... ?
Ġother wise
ĠF antastic
ne ys
Ġaw ard
Ġde mon
Ġgl ac
ret urning
Ġsnow men
Ġlo go
pe ople
Ġatt empt
ĠSp ain
ire ction
Ġmiss p
br idge
Ġtick ing
Ġgrass ho
Ġemp has
rap y
Ġcal cium
Ġconf id
Ġcur sed
Ġdr ugs
Ġorgan ization
Ġdoll ar
Ġwaste ful
Sp wash
ĠAr m
Ġadapt ation
Ġcop ying
Ġpupp ets
Ġachie ver
Ġeconom ics
Ġca ution
Ġsus pense
Ġconstr uct
ĠGra vity
Ġmen u
Ġroast ed
ĠAir plane
Ġresil ient
Under standing
Ġglor y
Ġsaf ari
Ġexcess ive
ophy ll
effic ient
Ġmultipl ication
! âĢĿ
B own
F rown
F rog
P er
b owl
Ġd aughter
ĠT rain
ĠS owwy
Ġin appropriate
Ġre form
Ġh ula
ĠA BC
ĠB ats
ĠL ess
ĠN igh
ĠO bs
Ġall i
ĠM ess
ĠG e
ĠG oo
mb les
Ġhi ve
am orp
Ġint est
Ġremember s
Ġpe er
Ġpo etic
Ġsk id
Ġmom s
Ġmom mies
ti f
Ġdis asters
Ġhot ter
ĠK itchen
Ġbel ts
sh hh
Ġmon arch
Ġsmart est
Ġtreat ments
Ġfoot steps
Ġcons cious
Ġla un
Ġty ing
board ing
Ġelect roc
Ġpar ad
Ġran ch
Ġfresh water
ĠCl ara
Ġind ig
ĠAs k
Ġmotor cycles
iff y
Ġlawn m
Ġcommit tee
Ġphys ically
Ġtank s
ĠSn uggles
Ġshoo ts
Ġfail ure
Ġparticip ating
ĠGra b
ĠCon f
Ġske ptical
Ġblink ing
Ġast h
Ġscream ing
Ġhyp hen
ĠZe bras
Ġsamp le
Ġfib ers
Ġpoison ous
ĠCloud s
Mess y
Ġhus band
Ġeleg ant
Ġmax im
respons ible
Ġjan itor
Ġreen act
A pology
C astle
S unny
T op
a e
a ult
b at
f lower
g eable
k now
t aps
w indy
Ġt id
Ġt ame
Ġw art
Ġc ig
Ġto mb
Ġl ure
Ġl act
Ġp ease
Ġp ins
ea ve
Ġn apping
Ġn orms
oo per
ĠS hirt
Ġha re
ab out
ĠA stron
ĠB ake
ee haw
Ġti pping
ĠCan yon
Ġsw oosh
il ized
Ġsc out
Ġover c
ĠDo ll
ss ip
Ġtw ists
als a
Ġmakes hift
Ġfl atter
rink les
bb ed
Ġwarm ed
Ġfore ign
Ġthank fully
cl ick
Ġdoor bell
Ġru ins
Ġart istic
Ġrep len
ont ail
Ġjo int
.) *
Ġsea led
Ġfree zes
Ġsub tle
ĠUn ion
Ġhy ped
Ġap rons
Ġstri ps
wo ken
Ġrepl ica
ĠBl anket
omb ie
Ġvers atile
Ġcirc ular
Ġded icate
Ġrecogn ized
Ġsees aw
Ġmechan ics
sl ides
Ġlens es
Ġescap ing
Ġsqueak y
Ġsen ior
Over hearing
Ġbobs led
Ġrit ual
ĠRab bit
Ġintimid ating
Ġrecycl able
Ġorche stra
ĠFi retruck
E m
a ling
d ro
l ets
p are
r ide
v ised
z a
Ġp oof
Ġo ils
ĠT op
Ġon ions
ĠB iology
ĠC hi
ĠC ertainly
are t
are ly
is ins
ĠG ween
Ġkeep er
Ġdi pl
Ġra ft
able d
But ton
Ġred es
Ġpr ints
ti er
iss ance
Ġfl ippers
Ġde fl
Ġlight weight
Ġcomp elling
St omp
Ġlo lly
Ġexp osed
Ġforget s
ched ule
Ġleft overs
ual ity
Ġfree ly
Ġpee ls
Ġinc orrect
bra ined
ĠUn fortunately
Ġinstruct or
Ġdisc ount
Ġsymbol ism
Ġunex pl
Ġpun ish
rit ious
Ġrhy me
Ġmer chant
Ġmer maid
Ġprice less
Ġmicro phone
Ġparticular ly
aunt ing
Apples auce
Ġsnows hoe
Lunch time
Ġcav ities
ĠHam mer
ĠComm un
ĠEgypti ans
Ġly rics
ĠVen us
Panc ake
Ġoverprotect ive
Ġmembr ane
Ġmatt ress
grandparent s
K eys
K itchen
R et
c ript
t ic
he m
Ġs ulf
Ġl atch
Ġl umber
Ġd art
ow ing
ad a
as per
Ġbe lls
Ġst ats
se x
ĠA po
al p
ĠL and
Ġe clip
ro be
Ġsp e
ĠD illy
ĠG um
ul as
Ġnow adays
am ous
Ġco b
ĠP hew
ĠP hot
Ġbu oy
ĠE ar
ong ue
Ġsc he
ĠR ex
Ġbr at
Ġproject or
Ġche ater
Ġcha mele
Ġlea gue
Ġman ages
iss ue
Ġgrow ling
Ġfo ggy
Ġdis m
Ġch or
Ġswim my
Ġbas il
Ġsmart phone
Ġpat io
Ġside ways
ĠAny one
Ġpri me
Ġconf use
ĠTr ans
Ġhunt s
Ġspin ach
Ġhistor ian
Ġpred ator
Ġtravel ers
Ġinfl ate
Ġill usion
Ġdocument aries
Ġachieve ment
Ġsniff ed
Ġthread s
ĠInt o
ĠSk ating
Ġraw hide
Ġest ab
Ġclar ify
ĠExpl ore
Ġprob ability
Ġpharaoh s
Ġthorn s
ĠðŁ İ¶
Ġfid get
Ġenzy mes
Ġcrot chet
R oom
c ro
d on
l an
l ast
u fact
v is
v ag
w ease
Ġt iring
Ġt haw
Ġb ust
er gy
Ġl opsided
Ġp es
Ġp ion
ke ye
ĠT ech
ĠS led
ĠS ugar
Ġha ird
ĠW ee
me ll
ĠB iting
ver b
un ning
ur rect
Ġpro active
Ġtry outs
Ġsn orke
Ġcom edy
Ġcon ver
ĠF ries
Ġcr ater
Ġch omp
Ġslow ing
Ġspl atter
alt hy
St r
Ġdes per
Ġcount rys
Play ing
mon ade
Ġfire place
Ġwood working
Ġmix er
ĠGo ing
Ġinter fere
Ġmar ch
Ġbuck s
Ġsupport ed
oop ing
Sw ish
Ġassign ed
Ġlay s
Ġzoom s
Ġins ult
ĠOr anges
Ġfox es
Ġscen ar
che ese
Ġexpress ions
Ġunc ertain
Ġnon fat
Ġcrumb ly
Ġblo nd
Ġbare foot
Ġapolog ized
Ġprop ose
Ġvolunt eering
00 0
Ġcompost ing
ĠBlack beard
Ro lls
Tr ust
Ġcompass ion
Ġsketch y
Al ways
reg ular
Ġexagger ate
Ġinfect ed
Ġcomfort ably
Mon keys
Ġseal s
Ġtrend s
ĠRec ycling
Ġmotiv ation
Ġgall op
Ġscrap book
ĠTalk ing
Ġleap frog
Ġacade m
Ġcolon ial
Ġswoop ed
ĠWhis pering
Ġadvert ise
...' "
Ġsou ven
Ġsaxoph one
ĠSpe edy
Ġcountrys ide
d ough
n on
r idge
r ann
t ap
u rist
Ġs ake
Ġs choo
it ary
Ġto ler
an ned
Ġm itten
Ġd unk
Ġp m
Ġp eep
Ġg au
Ġg ender
om mod
ĠT ues
ĠS im
ad venture
Ġhe ir
Ġfor bid
ĠY ewwow
Ġpl ag
ly ing
Ġsp un
am as
ĠP ajamas
Ġbu ds
Ġsc andal
irst y
ge on
Ġimp at
ĠJ ew
Ġdown s
Ġsm udge
Ġhands ome
Ġbl ot
Ġpe cking
dd led
Ġbook mark
Ġun belie
Ġsl urp
Ġsit es
ĠU nd
Ġcho col
Ġsy nt
Ġhorse y
Ġhorse back
Ġtrack ing
Ġter ror
Ġpol ish
Ġsho cked
Sw ings
Ġforg iving
Ġluck ily
Ġpea cock
Ġev olve
Ġbackpack s
Ġperform ers
Ġnut ritious
Ġdecor ated
ĠTeacher s
Ġpoll ut
Ġconcer ts
Ġprof essor
Th rows
Ġmoder ation
ĠWalk ing
Ġdead lines
Ġbud ge
Ġresist ant
Ġgrad uate
Ġfol k
Ġamb ul
Ġinfect ions
Ġoccas ions
Ġswamp ed
Ġwond ered
Ġskater s
Ġgrant ed
Ġbon us
ĠPanc ake
Ġ18 00
Ġacrob at
lim its
Ġjitter bug
text ing
Br other
Ġsuspic ious
Ġchrys alis
Ġcarouse l
Ġscri mm
Ġalli ances
ĠTues day
G r
L ion
M eat
P oint
S imon
T eam
c ers
g um
i lo
i ated
l ant
r int
s ions
t ish
w est
w asher
y ucky
in et
Ġm ol
Ġm ile
st ant
ĠT en
ĠT ractor
ĠS hoe
ĠW in
Ġst all
me red
Ġpl op
Ġso d
Ġth unders
Ġk art
Ġall ey
ass y
ĠG inger
ell ed
Ġ* [
ag ious
Ġpre heat
Ġcl ubs
Ġimp lic
ĠSo cks
Ġag gra
ĠDo ctor
Ġfi ft
Ġsk i
ffe ine
Ġbre ast
Ġsl ang
os c
ac les
Ġset tles
Ġcr un
Ġdis in
Ġclo s
Ġcomp ound
Ġbea ms
ĠK e
Ġbrother s
Pl ate
Ġgam er
gu in
ric ed
izz le
Ġass ass
ific ations
Ġlaw y
Ġmel ons
ĠCould n
Ġscare s
emp ty
Ġroof s
Ġtrans mit
Ġshi m
Ġnorm ally
Ġprod uces
Ġwheel b
Ġdisc oura
mo king
Ġfinal ize
off s
Ġwiz ards
Bl anket
Ġfest ive
Bo ken
Ġir responsible
Ġtax i
Ġcoast al
Ġmisunder stood
ĠPret zel
Cho colate
Ġinnov ation
chant ed
Ġcarn ival
Ġreceive d
ĠLo llipop
Ġassoci ated
Ġinsight ful
Ġvehi cles
Ġsubmar ine
Ġanten na
bul b
ĠOri on
Ġga mble
Ġlawnm ower
A R
H ops
J ello
M iss
P umpkin
d rink
f ound
f ighters
i w
p han
z oom
re nd
Ġm ild
Ġp i
Ġp hew
Ġp harm
Ġg room
ea ked
Ġn erve
ĠT im
ot ed
Ġst ead
ĠA c
Ġr ash
Ġab st
Ġso aring
ur l
ĠM ix
ĠM ittens
ink s
Ġgood ness
ĠP atter
ĠP ants
ĠP umpkin
Ġqu ir
Ġsn ore
Ġgu ided
Ġover thinking
ĠF oot
Ġbl and
Ġhard hat
Ġgl iding
Ġpu bl
Ġthr ust
Ġchi me
Ġgra ce
Ġbea m
Ġhop scotch
sh ore
Ġbas k
Ġrec reate
Ġhat ed
Ġsmart phones
eas y
eas ant
Ġho lder
Ġblack smith
Ġdet er
form ation
Ġcons ist
Ġcamp us
umb ling
Ġbar f
ĠChe w
Ġmention ing
Ġins ist
Ġdetect or
ccess fully
Ġsell s
play s
ĠSlow ly
ĠSn eak
Ġsuit case
Ġpal ace
ĠWall s
aly ze
Ġexpand ing
Ġreprod uctive
Ġnu cle
ĠRub y
ern els
Ġappl ause
Ġphr ase
Ġoutf its
spec ially
Ġstam ina
D ress
N urse
P h
T ries
c ount
d uper
d irty
f ood
k ill
l ut
n ish
s ings
v iously
Ġw its
Ġthe ories
er ries
Ġy a
Ġf ellow
Ġp ine
ea sh
ig z
Ġo ats
Ġhe als
ck lace
Ġst rand
Ġu lt
Ġr ows
ĠB ase
Ġgo dd
ĠC ont
ĠM elon
Ġea ves
ag ram
be y
ĠP ickle
im ental
Ġpro ving
ort ant
Ġen lar
Ġover grown
Ġcon j
Ġpo king
Ġsk im
Ġhar ness
Ġstr uck
Ġdraw ed
Ġun ac
Ġtri ump
Ġold en
Ġres erve
Ġdin er
pen ses
Ġcr uel
Ġcr ashes
St ore
Ġspot ting
Ġground s
der n
Ġseed pod
col ored
fl aps
to e
Ġcons um
Ġcand id
ren ces
Ġbreat hed
Ġmar vel
ĠWatch ing
log ies
Ġcalm ed
Ġscr ubbing
Ġstri ker
Ġappro val
Sp aghetti
Ġaut ograph
Ġposs ibility
Ġcraft sm
Ġprof it
Co coa
ĠUnder stand
Ġtrave ler
tern al
Ġrot ation
ĠSwim ming
Ġrequ ired
Ġsepar ated
Ġtar p
Ġinvest ment
wow ew
Ġur gent
Ġaccess ible
Ġslo bb
Ġhorn s
En joy
Ġtender hearted
Ġvirus es
Ġwrink led
Ġoutsmart ed
Ġcritic ism
ĠLeg os
Ġfigur ine
Ġanticip ate
ĠEmp ire
Ġsoo thing
Ġgrandd ad
Ġadmin ist
Ġstere oty
Ġlandmark s
Ġgobl in
Ġtrump et
Ġthunders h
* )
C ars
E yes
E asy
I mp
L eaf
L aughing
T rain
h ugging
i ating
m out
n ip
p ent
r us
s he
t oot
Ġs ie
Ġc ite
an ny
Ġp amp
ig ner
ĠT y
ĠS uch
ĠS issy
Ġha wk
Ġha irsty
en ous
Ġst ains
Ġdo ve
ĠB ib
ĠH ang
ĠC lo
ĠC hip
ĠC amping
Ġk ernels
Ġsh ined
Ġsp ear
Ġea gles
ell e
op ic
Ġafter life
Ġsc ab
Ġhand ed
ine z
Ġwork load
Ġwater melon
Ġover ly
The se
ial ize
Ġdraw bridge
Ġbre ed
ĠSee ms
Ġsl ouch
os ure
Ġdis or
bb a
Ġlast ing
Ġfe min
Ġrest ore
Ġquest s
Ġproud ly
Ġacc ommod
Ġatt entive
Ġho gging
Ġinv ade
Ġinv olving
Ġquestion ing
Ġvis its
llen ge
Ġter rain
Ġve nd
Ġinter connect
Ġaffect ion
Ġess ence
Ġperform er
Ġseas hells
che m
Ġadjust ments
Ġpoll inate
Ġoverhe at
Ġreflect ing
Ġopt im
Ġcoo led
Ġdev ast
Ġglitter y
Ġalb ums
Ġspee ches
Ġlif estyle
Ġtoss ed
ira ffe
Ġsustain ability
Ġoper ate
Ġamb itious
Ġcher ish
Ġdisp ose
loc ate
Ġchlor ophyll
Ġskyd iving
ĠMart inez
Ġfool ish
Ġgymn astics
Ġunhe althy
ĠPower Point
Ġpurs ue
Ġdandel ion
Ġsher iff
Ġtad po
C ry
C omb
H uh
M any
S ave
T una
Y ogurt
c art
d ump
e very
h it
s ick
s hirts
Ġ om
Ġt ang
Ġt hicken
he e
Ġw estern
Ġb ore
Ġto ll
Ġf ried
Ġd ies
ll i
ea led
Ġo p
ĠS ilk
ar ant
ĠW awa
Ġst acked
Ġli mp
Ġj iggle
ĠB each
al a
Ġso aking
Ġgo ssip
Ġup load
Ġdon ation
is ure
ĠD izzy
ie l
ĠG eor
ink ing
Ġwh oos
Ġsw ir
il ts
Ġfun eral
ĠP ea
ĠP ainting
Ġno on
Ġhand made
Ġbr ib
Ġdra fting
Ġfast en
Ġwhi r
Ġstrong ly
Ġgl isten
Ġclo ver
Ġbra ke
bb ing
Ġinst ant
Ġmagic ians
Ġwarm s
Ġgentle man
Ġhot cakes
Ġcomp aring
Ġcra ving
Ġspot less
Ġacc use
Ġprot ests
Ġhang s
co d
Ġsecret ive
Ġfarm hand
Help er
Ġfoot work
Ġref ill
Ġref lex
Ġcor ro
Ġequ ality
Ġbar riers
ule nt
com fort
sc issors
Ġswea ting
Ġsal ute
Ġcomb ining
Ġev al
Ġmis d
Ġmis con
Ġmeat balls
Ġze ba
Ġtrans late
ĠAr ctic
Ġvolcan ic
Ġhistor ic
att ie
Ġrough ly
Ġemb race
Ġcri sis
Ġscra mble
Ġweight lifting
Ġfil ters
we igh
Ġprofession als
Ġbell ies
ĠStar light
Ġbill ion
Ġtextbook s
Ġsatis fact
Ġmetaphor ically
Ġvi ral
Ġhatch ling
Ġgalax ies
Ġpunct uation
tr ans
ste pping
Ġcub es
Ġgrandk id
Ġgest ure
ĠFarm ers
Ġnegot iate
Ġsculpt ures
ĠElect ric
Ġshat ter
Ġdomin ant
Ġphilos op
Ġmislead ing
Ġovere x
Ġvari ables
Ġconfid ently
ĠKe vin
C ray
P illow
S hoo
b lowing
c racy
g ic
h ound
i i
i ors
p ad
s ub
u ro
Ã ±
it i
ha med
Ġl umpy
Ġp H
Ġp s
Ġp est
Ġp hen
st icky
at cher
ed ient
ad or
ad ers
Ġin n
ra ft
Ġre el
Ġre load
Ġre think
her s
ch oes
ĠA rrr
ĠB as
ĠB ounce
ee red
ee ls
ĠC D
pp ling
Ġsh r
ell ers
Ġco bb
Ġsc am
Ġsc old
ĠR om
Ġfirst hand
Ġmak er
Ġtr ink
Ġmo ss
ĠF resh
pl anes
ho les
Ġpe bbles
Ġcha nt
Ġtea pot
Ġfl ute
Ġgrow l
Ġclass ify
Ġsand bag
Ġslow poke
Ġ1 6
cl oud
Ġsweet er
Ġru bs
Ġes cal
ens itive
Ġrep airs
Ġkiss ing
Ġglo omy
Ġval ve
Ġdr ool
Ġinc ub
Ġform ulas
Ġbee hive
ĠSa ving
Ġprom ote
Ġrev isit
Ġpaw paw
Ġimprove ments
Ġtrans p
Ġcaptain s
Ġposs ibly
ody nam
Ġseat ed
con f
Ġpriv ile
Ġgri m
Ġgre et
knock ing
Sweet heart
Ġoverp ower
Ġslo pe
Ġtwink led
Ġcraz ier
urp le
Ġvag ue
Ġet hic
Ġoppon ents
Ġlitter ing
Cow boy
Ġdar ken
Ġjuj ube
Ġinno cent
ĠGerman y
Ham mer
iot ics
Ġhorm ones
b ars
n atural
t reasure
u pp
v ies
z one
Ġw ilder
re hen
er ous
Ġc ine
Ġy uck
Ġp ist
Ġg ambling
st ret
ĠS ide
Ġst are
ab ol
Ġpl ump
ĠB ra
ĠH attie
ĠL ost
Ġne on
ur st
ĠM in
Ġsp aced
Ġsw ab
be ha
ive l
Ġbu lls
ĠE specially
Ġqu ilt
Ġar chery
Ġcom bo
Ġpo ked
Ġun load
Ġlea ky
hes ive
Ġtri pod
Ġman ufact
Ġhigh way
Ġlast ed
Ġunt h
Ġch ords
Ġz ap
ors hip
Ġ1 7
St ep
Ġdes igning
Ġmin ty
Ġlo af
Ġsur real
Ġfire fly
ĠMe an
Ġpresent ations
po ll
co vers
Ġbright en
Ġcoll ide
rap hic
Ġve ggie
Do ctor
head s
Ġelect rom
Ġcorn fl
Ġdescrib ing
Ġleaf y
Ġdish washer
mo ving
Ġcrumb le
Ġprevent ing
pr ints
run ning
Sc arf
Ġdiv ision
Ġpun ished
Ġnav igation
Ġhun ger
Bl ankie
Ġmunch kin
Ġthrill ed
grand mother
Ġgrad uation
ĠLe o
Ġramp s
Ġoper ation
Ġdigest ion
Ġreprod uction
whis pering
Ġcro ak
Ġmane uver
Ġintrig ued
Ġwarri ors
Ġmischie f
Ġange ls
Ġteet hing
Ġfung us
ugal ug
Ġjerse y
Ġpave ment
Ġmushroom s
ĠDav is
Ġexped ition
Ġfue ls
Ġfinanc ial
Ġeclip se
ĠPatter son
C amping
H ung
L amb
M oney
O S
T uck
Z ombie
d igs
f icial
k i
t age
v ol
**: \
in os
Ġb log
Ġf w
Ġf ences
Ġm umm
Ġp ier
Ġg er
om as
om bs
Ġit ch
Ġn oo
st ore
st roke
ig rate
ĠT each
ĠS il
ĠS ew
Ġst alk
Ġli ber
Ġfor ts
Ġre dd
Ġh ump
Ġpl uck
ĠB ar
ĠB owl
ĠH igher
ĠL ady
Ġth riving
ĠN ooo
ĠC ircus
ĠM ight
Ġout s
lo cked
Ġclean liness
ĠP itter
Ġpro voke
Ġcar ved
Ġsn oring
Ġcl uttered
Ġcl inic
Ġv andal
Ġsm ock
Ġsuper ior
Ġche ers
Ġapp ealing
Ġfl air
Ġfl ipped
Ġunt ie
Ġch rist
Ġz igz
Ġsky writing
Ġhop eless
Ġrec ount
ĠV is
most at
Ġac ing
ĠHmm m
ross ed
Ġcow ard
Ġrep aint
Ġappreci ated
Ġship w
Ġpur red
Ġconc ise
ud es
Ġvill ains
Ġcomb ined
Snack s
Book s
Ġbio logical
Ġgener ally
Ġposs ibilities
Ġprof ile
water ing
Ġblo b
Ġslides how
ĠStay ing
Ġprop ag
Ġspell ed
Ġring master
olog ists
Ġport ion
Ġbroad er
Ġexhi lar
la unch
ompl ete
Ġenchant ing
Ġdeliver ing
Ġkangar oos
Ġmisunder stand
Ġobserv ant
Ġthorough ly
Ġautom atically
Ġsquee zing
ĠClown s
Ġgest ures
Ġbru ise
Ġsaf est
Ġhumid ity
Ġturb ines
Ġadvance ments
umin um
Ġminim um
Ġobl ig
Ġmosquit oes
Ġintent ions
Ġsoot he
Ġuntou ched
Ġprick ly
Ġscrimm age
Ġthundersh ower
G erms
M ud
P ig
S chool
W his
W uv
a issance
b ad
b ons
b ench
c our
d ep
e an
t est
u ddy
it ution
Ġy ak
Ġd airy
Ġp out
Ġp ars
Ġp omp
Ġp elic
et ime
ke e
Ġo ve
Ġhe ck
ĠW ave
Ġre w
ĠA ut
al actic
ĠL in
ĠL amp
ĠC a
ur ches
ĠM ist
Ġsp ew
ĠD el
ĠG lass
ul sive
Ġor phan
Ġhi re
Ġsw eeper
il er
act or
Ġex otic
Ġar gu
Ġv est
Ġint r
ĠJ ordan
Ġsm ashed
ĠF eel
Ġbl acken
Ġun app
Ġun att
Ġsl ay
Ġapp lies
Ġres chedule
ac co
Ġbox ing
ne red
Ġfix er
Ġfl am
ps y
Ġch ord
Ġpaint brushes
bo ats
ĠSp ider
Ġpass ions
Ġsecret ly
Ġtest ed
Ġappreci ation
Ġmist rust
Ġass ure
gest ures
Ġcrack ing
Ġdef rost
Ġcollect ive
Ġstri ve
cha ir
ĠSc oop
ĠFl ag
Ġunc ont
Ġfold ed
Jump s
Ġsens or
Ġscoop ing
Ġliter al
Ġhyd rate
ĠCh in
Ġnav al
ĠBo ats
Ġdisappear ing
Ġfund s
Ġabsor bs
ira ble
Ġdestro ying
Fl ap
Ġunicorn s
chie f
Ġtransform ation
Ġet hical
Ġredirect ing
Ġseagull s
Ġearthqu akes
Ġbackward s
occ up
urf ing
ĠRen aissance
Ġcott ontail
Ġted dies
Ġcrink ly
Ġholl er
grad able
Ġdelive red
excited ly
B abe
C all
F air
H ooray
I magine
L o
M ost
S ide
T reat
d ist
i per
p ons
t iny
v it
w oo
y um
Ġa mm
Ġw ishing
Ġb ash
Ġb abysit
Ġc ul
an qu
Ġf ats
Ġf ram
Ġg ent
Ġn urt
Ġn urs
Ġwe ed
Ġha mm
ot ing
ĠW r
Ġh ull
Ġh ooked
ĠA ges
ĠB elt
ĠB elly
al ry
Ġup s
Ġti pped
ic ator
ill ion
Ġout let
ĠG row
op oly
Ġal t
ag net
ĠP roc
Ġbu ys
Ġno dding
Ġpre hist
Ġsc oops
Ġhand ic
Ġcl aw
Ġimp er
Ġunder wear
ĠDo or
ĠF ort
ho sis
Ġshe pher
Ġhu ddle
Ġun sp
Ġhur ried
Ġher d
mm et
Ġhigh ly
ath olic
Ġle op
Ġgra ve
Ġair craft
Ġcomp osition
Ġdream t
zz ling
zz les
Ġdear s
Ġpass ages
Ġpass words
Ġwood craft
Ġbright ness
ang ling
Ġmap le
gr oup
Ġpri est
ert ie
Ġret race
Ġsub mer
ĠFl ash
Ġdisc ourage
Ġlar gest
Ġmat ri
Ġmat urity
Ġattract ive
Ġstructure d
ĠMon ster
Ġlog ical
Ġchap ters
Ġincre asing
Ġdesc end
Ġaccount s
Ġunpl easant
Ġcro cod
Ġathlet ic
Pop corn
Ġtrib es
Ġappl ied
Ġaddition al
Ġcru ise
Ġvacc ine
Ġhydro gen
Ġimprov ise
Ġturb ine
Ġdynam ic
Ġdar ling
Door bell
ĠTra ins
Ġtil ted
Ġfres hen
Ġsorce rer
Ġsaliv a
Ġmytho logy
Ġabst ract
ĠGeor ge
Ġnurs ery
F O
F wog
G one
G loves
G iraffe
P enny
S auce
c eable
m un
n ge
n ity
o llen
p rod
w ed
w iches
w atches
Ġ oops
Ġs igning
er k
Ġy ards
Ġf anc
Ġm ea
Ġp ans
Ġp izz
ig ious
at y
ĠS auce
as semble
Ġhe li
ĠW ay
ĠW ords
ra pt
Ġfor mat
Ġre using
Ġre organ
Ġwith stand
ĠB el
ĠB abies
al ian
Ġe lder
ĠN ative
Ġne igh
ur ring
ĠM op
ĠM ult
ĠM erc
ĠD ig
ul k
Ġor nam
lo ve
qu is
ag na
ob ic
ĠThank fully
Ġgu arant
Ġfa ils
Ġfa iled
Ġpe bble
Ġun a
Ġres ort
Ġbird seed
Ġfl aps
Ġfl ashing
Ġde od
Ġel ab
Ġcont agious
Ġbea ches
Ġrest ring
Ġflo p
ĠBe hind
Ġcup cake
Ġpot tery
Ġdes erts
fin ish
ĠIn c
Ġsur vey
ĠDon keys
if ies
Ġho ckey
Ġhang out
Ġrem atch
ult ural
Ġam ul
Ġdist rict
Ġcor p
Ġenvironment ally
Ġpri zes
Ġcur ly
Ġcur sive
Ġheart beat
Ġret al
Ġcard inal
sc ript
Cl own
Cl apping
Ġann ual
ĠAr guing
Ġfiretruck s
Ġrepl acing
bl own
ĠFr uit
Ġfabric s
Cha lk
ĠNe igh
Ġpub lish
ĠDream s
Ġtar gets
App oo
Ġthir ty
ĠButter cup
Ġmir rors
agon ist
lead er
onsider ate
Ġbubb ling
Ġspi ral
Ġchir ping
Ġlink s
Ġcheetah s
Ġneglect ing
Ġsacrif ices
Ġdemo cracy
Ġcapital ize
Ġhol idays
Ġrit uals
Ġvehi cle
Ġreun ion
Ġaster oids
spl ashes
Ġinvas ive
Ġtrig ger
Ġorigin ally
Ġinconven ient
Ġasth ma
Ġdesper ate
M wah
O k
S ong
S ister
S ighs
c rap
c rawls
d iv
g oes
p read
s hoes
s kate
t al
t hirsty
u led
w urst
Ġt um
Ġt ester
in fl
Ġw ard
re eable
it als
Ġb rist
Ġl ane
et ho
om ic
ĠT er
ĠS imp
Ġhe x
ĠW oo
Ġst atic
Ġst etho
Ġli fet
Ġre sell
Ġwith draw
ir c
Ġpl iers
ĠL uck
ĠN urse
ĠC art
ind ing
ack er
ĠD ist
ĠD irt
ĠG host
ĠG lasses
Ġea ter
ĠE mber
Ġno d
Ġpre m
Ġqu acked
ĠR iver
Ġhands ha
Ġbl ur
Ġhar bor
Ġdraw ers
Ġsl ap
Ġsl aves
Ġhard ware
hes itates
Ġtea spoon
Ġstick iness
ĠRe f
Ġsqu awk
Ġdis comfort
ĠU FO
Ġsoft en
Ġcont emp
Ġdes ks
Ġcount y
Ġsweet en
iv ores
Ġcomm ands
Ġmoney making
rib bit
Ġbat he
do gs
gr ounds
Ġcompl eted
Ġhandle bars
land er
Ġchest s
ĠChe er
Ġscr unch
Ġcelebr ity
Ġsurv iving
Ġign orant
gen ic
ĠJump ing
Ġpoll uting
Ġsports manship
Ġbi king
Ġcirc uits
Ġbull fighting
Ġca ffeine
Ġshield s
Ġprec aut
Ġabsor bed
utter ing
Ġloc als
inter jecting
Ġthie ves
Ġthumb s
Ġodd s
isc overed
Ġvot es
Ġjer k
Ġhood ie
Ġrainforest s
Ġsubs cribe
ĠCrack er
Ġconven ience
Ġsacrif ice
ĠHo ppy
Ġremain ing
Ġtwir ling
Ġtwir led
Ġaster oid
Ġevap oration
pow ered
Ġprecip itation
Ġdisg usting
Ġnort hern
Ġwoodcar ving
Surpri se
Ġhurric ane
Ġgrassho pper
Ġredes ign
Ġelab orate
! *
B ir
B lock
C aptain
D ig
F loat
P ir
R est
h unt
m int
t aste
u ating
w er
w hip
Ġ xy
in x
Ġm alt
or ith
Ġd ood
ll is
st ay
Ġst ale
Ġj ester
ĠB room
ly mp
ĠC hips
Ġnot orious
Ġan k
ic o
ĠM ic
ĠG as
ĠG iving
Ġor dered
Ġsw ollen
Ġbu mmed
Ġpre vious
Ġpre launch
Ġex penses
Ġcl icks
Ġcom ed
ff iti
Ġtr ot
Ġsm uggle
Ġbl ues
dd ed
Ġche erios
Ġcha ri
ist ers
Ġres ear
Ġhur dles
Ġfl aky
Ġfl inch
Ġle isure
Ġclo g
ĠU S
Ġch ug
orm ous
gu age
ĠSp in
Ġprot agonist
Ġchild ish
sp ace
Ġemp loy
to sses
no logy
Ġcor als
Ġcor rupt
Ġtrick ier
Ġty ping
Ġtrust worthy
ony m
Ġtidy ing
Ġhon ored
Ġpea ch
Ġer rand
Sp ark
Ġflavor ful
Ġsail boat
Don ut
Ġbother s
ĠEng land
Ġorder ly
Ġgovern ments
the med
Ġapolog izing
Ġwonder fully
Ġattract ed
Ġunw anted
Ġcooper ating
Ġcust oms
Ġport able
Ġpreser ved
Ġslo ppy
Ġpha ses
ĠPengu in
Ġwrink les
Ġaccompl ishment
Ġcav alry
Ġcritic ize
Ġdod ged
Ġfright ening
Ġment ions
Sand wich
Ġrestrict ions
ĠRa isins
Drag ons
Ġmyt hical
Ġnons ense
Ġhedge hog
Ġglam orous
Ġreinfor cing
Ġben ches
Ġsav anna
ĠCray ons
Ġcomprom ising
Ġcritter s
Ġanat omy
Ġrif le
Ġambul ance
mout hed
ĠWr iting
Ġlifet ime
' -
* !
6 0
C orrect
G oo
M ed
S ink
S alt
T ap
b ite
d ress
f air
l ining
l iest
n ighter
r ays
v ation
v ated
w ipe
Ġ eter
Ġl ee
Ġl ace
Ġp act
Ġp ork
Ġg ator
ut ton
ĠT it
ad io
as ize
Ġst ern
Ġre b
Ġre vers
Ġre wash
Ġre nov
ex p
ab s
ri son
ĠB right
ĠC onsider
Ġall ergy
ĠM ex
ĠD ress
ĠG een
ul iar
ide o
Ġor chi
Ġhi p
Ġsw erve
ool s
ĠP ump
Ġsn eaked
Ġint act
les h
Ġag ility
Ġover r
Ġro ars
ĠF ox
Ġra p
Ġbit ten
Ġball et
Ġun m
Ġlea ks
Ġsl uggish
Ġwatch ful
Ġpr un
Ġsun ken
ount ered
Ġstar ter
Ġgra vy
Ġch ubby
Ġch urches
Ġz ones
aw ning
ĠTh omas
Ġrec he
ĠV ol
Ġmin es
Ġlo com
Ġbelie ves
zz z
po ss
Ġmet amorp
Ġfre aky
Ġcal ib
Ġsea m
Ġmid field
Ġlad ders
ud ed
app le
Ġrob bers
ĠCl ucky
sw im
Ġcomb at
Ġunf reeze
Ġcontin uous
Ġstri pe
Ġenc ountered
Ġris king
Ġbreath taking
Ġflash cards
Ġclub house
Ġmeasure d
Ġcri mes
Ġscra pes
Ġteen age
Ġduckling s
cra ck
Ġshop keeper
Ġdat ab
az ed
Ġrequ est
Ġrecess ive
Ġring ing
Ġstomp ing
Ġprice y
Ġincre ases
ĠLe monade
Ġmaj estic
Ġconqu ering
Ġlect ures
Ġanaly zing
Ġnib bling
Ġcy mb
Ġnu clear
Ar ms
Ġmate y
Rain bow
Ġcommand er
Ġredirect ed
Ġinnov ative
Ġclimber s
Ġfiction al
ste in
Ġfrown ing
Ġjitter y
find s
Ġlandfill s
warm ing
Ġspat ula
Ġsidest roke
Ġtwee zers
Ġparall el
Ġceremon ies
Ġalg orith
Ġreplen ish
Ġchamele on
ĠMean while
Ġstetho scope
ĠCheer io
: **
A m
H eaby
K ids
M op
b as
b ank
e lf
h orn
i ary
l ittle
p it
r atory
s afe
w n
Ġ vel
Ġa h
in er
Ġb acked
ha che
Ġto pple
Ġf ame
Ġf aded
Ġm ira
Ġm ourn
or ical
Ġd ign
ut o
oo oo
Ġo y
Ġst ings
end ers
Ġfor ge
Ġre pt
Ġre ference
ĠA I
ĠB al
Ġme g
Ġe missions
all ic
ĠC ra
is hable
ind eer
ur ation
ur ated
Ġal ter
Ġal uminum
Ġco bble
ĠP icnic
Ġpro c
ĠE aster
Ġdra gging
Ġint ended
Ġpo se
ked addle
Ġbest est
Ġsun s
Ġsqu ash
Ġbra ver
Ġch ow
Ġch uck
Ġz ippers
aw son
Ġri m
St icker
Ġcat al
Ġear m
ĠSp ec
less ly
Ġpresent ed
po inting
Ġmust n
ens ions
Ġfeed ers
Ġhope ful
ord ers
Ġorgan izations
ĠEn chanted
Ġent ry
Ġins ulation
Ġhy pe
Ġstri ped
Ġspin ner
let ter
Ġtap est
ĠEx cept
Be gins
Walk s
Ġcrow s
Ġpoll in
ĠCha lk
ĠRo ad
Ġtechno logies
play ing
res ist
Ġvib es
Ġcontain s
Ġnav y
Ġpuff ed
Ġspray ed
ĠMar cus
Ġrely ing
Ġdiag n
Ġstorybook s
App o
Ġcher ries
ĠFire fighters
Ġfer ry
sl aps
Ġrul ers
Ġsymp at
ĠComp romise
Ġpretti er
Ġaer odynam
Ġsnows hoes
Ġven ue
good night
ero le
Ġsumm ar
Ġange l
Ġspectac ular
Ġresc ued
Ġprocrast ination
Ġgor ge
Ġlux ury
Ġbapt ism
Ġevap orate
Ġeras er
Ġdestr uctive
Ġtac os
Fw end
ĠRel ax
Ġweep ing
Ġabbrevi ate
Ġtrespass ing
Ġacknowled ging
Ġta ill
Ġdisgu ise
vio lent
Ġsubstit ute
Ġtrink ets
Ġfram es
B elly
E ating
L earn
P et
S oon
T ow
W hiskers
b ies
c a
f ant
g irl
i ators
j u
l ore
l aw
p hew
w ake
Ġt ink
Ġw are
Ġw ither
Ġs arc
Ġb ou
Ġb ombs
Ġy ield
ĠI D
an guage
Ġp aste
Ġn agging
Ġcan ned
Ġst ow
Ġre venge
Ġr ates
ct iv
Ġth y
Ġdon ations
ĠM ice
ĠM ighty
Ġsp ike
Ġare na
ĠG ree
ĠG ertie
ink able
ell es
lo or
qu ality
Ġsw aying
am il
Ġco ating
Ġback bone
Ġsc aly
ĠR ose
ĠR oom
Ġwill ow
ĠJ am
ĠJ osh
ĠJ asper
ach y
Ġover look
Ġcon sp
Ġbl ub
Ġmu g
ĠPl uto
ace ous
Ġun ite
Ġun man
Ġun its
other mal
Ġtw ig
Ġman ip
Ġaw e
Ġde ceive
Ġgl imp
Ġcr ushed
Ġsqu aw
Ġclass ics
Ġz aftig
ock ing
ĠMe mor
Ġbelie vable
Ġcomm end
ints ize
Ġban ners
Ġref ine
rr rr
Ġcal ms
ud ging
Ġeng ra
Ġpar amed
Ġshort en
Ġchar ming
ĠSay ing
Ġtun ing
Ġdep art
Ġev apor
Ġmis placed
Ġpaw n
Ġavo c
velo p
Ġmeasure ment
Ġallow ing
Ġsalad s
Ġcoin c
play er
Ġill um
Ġpin keye
bl ind
Ġwag gle
Ġseason ing
Ġpredict able
ĠInst agram
Ġrelig ions
Ġoppos ing
Ġflex ibility
ĠPo ll
Ġcivil ization
Ġbow ling
Ġshad es
itor ium
Ġoverp riced
Ġir regular
Ġthie ving
Ġtipt oes
ĠGl ad
Ġinterview s
Ġmulti level
Ġfart hest
Ġredirect s
Ġunlike ly
Ġsen iors
Ġlas agna
Ġcann ons
Ġpear l
Ġcarving s
sk ull
slow ly
Ġcoord ination
Ġantib iotics
catch ing
Ġtatt oo
Ġcass erole
Ġkay ak
Ġoutn umbered
Ġrepet itive
Ġdecre ase
Ġvul ner
Ġacadem ics
Ġsouven ir
Ġclos est
Ġbask ets
Ġshipw reck
Ġargu ed
Ġshepher d
ĠMerc ury
Ġprecaut ions
H ose
M ailman
P icture
P ants
P ickle
P hew
P asketti
b urger
c atches
c kered
d ly
f ielder
g ator
i rac
l uck
l ished
n om
o ink
p erer
t own
v ating
Ġ 0
Ġw ring
Ġs alsa
Ġd uc
Ġp oop
et y
ut ate
Ġwe bbed
as is
ra pped
Ġon going
Ġre se
Ġj un
Ġj aw
ĠH m
Ġso lder
ĠD ipper
arent ly
ast a
Ġsw ift
il ate
ĠP illow
ĠE yes
Ġgu mb
Ġbo ast
ĠSo l
ĠJ eans
Ġguess ed
Ġkind est
Ġshe ars
Ġsk irt
Ġdec ay
Ġsqu eal
Ġrest ack
Ġsnow storm
ĠSt udy
eas ure
erest ed
gu ides
po or
po ken
Ġtick lish
Ġser ves
Ġdet our
col n
Ġbright ly
Ġemp er
Ġpus hy
Ġphot ographer
Ġband ages
Ġelect ions
Ġchar ges
Ġdef enses
Ġbottom s
ĠCl othes
Ġcreative ly
Ġcollect or
Ġhy po
Ġcond ens
Ġspr ays
Ġcompet itions
Ġeduc ated
sha re
Ġunc log
Sh ovel
Ġsuggest ing
cra per
Ġble eding
Ġerup ted
Ġattack ing
Ġmer ry
Ġped aling
ĠFind ing
Fl aps
Ġexagger ation
Ġflu ids
Ġfed eral
Ġdescript ions
ĠRes pons
Ġsymp h
Ġroyal ty
Ġcong rat
Ġshock ing
Ġmold y
Ġuncover ing
Ġinstall ed
Ġpear ls
Ġpsy cho
Ġinterpret ation
Ġsatell ites
Ġunin v
Bw oo
Ġaf loat
Ġblu ep
Ġdistinct ive
Ġmob ile
Aunt ie
Ġmathe mat
Per haps
Ġdipl om
Ġshim mered
Ġcraftsm anship
Ġinterconnect ed
Ġzigz ag
ĠLin coln
Ġreche ck
Ġglimp se
B elt
K ay
P ol
a cher
b ea
c ard
d ra
g us
l ac
o dies
t urn
t rack
v an
w hoo
in stein
hi des
Ġb usted
er ic
Ġc ents
Ġf et
Ġm ummy
Ġm ummies
Ġp ent
Ġn urses
ĠT ook
ĠW earing
Ġj ingle
ys ical
ĠL ea
Ġso ci
Ġe choes
un ci
ĠC w
ĠO lymp
is or
ĠM ain
ĠM wah
Ġkn ead
ess ie
ast es
Ġat tain
Ġsw irl
il ant
ĠP ink
Ġsha mp
Ġcar amel
Ġsc ents
Ġsn atch
Ġsn ails
ff in
Ġfa cil
ho pping
Ġsleep walking
Ġun fast
Ġun fortunately
Ġbre eding
ist y
Ġbreak able
Ġtra ce
Ġlisten ers
Ġdis pen
Ġdis order
Ġmess en
Ġrest less
Ġhead less
ĠSt ones
Ġwin ners
Ġspl otch
Ġice ber
man like
Ġcount down
Ġac ids
zz ly
str ong
Ġpat ients
Ġrespons es
fl ips
Ġupset ting
rac ing
cept ive
Ġdr ug
Ġroo ft
com ed
ĠSh ower
ĠEn c
Ġagree ments
Ġmedic ation
lm et
ĠSc ary
Ġsent imental
Ġund es
Ġund ef
Ġflat worm
Ġspeak s
Ġbubble gum
Ġcri ss
Ġaud itorium
Ġrubb ed
Ġcontrib utions
Ġsens ible
Ġmini ature
ĠGar bage
Ġrust ed
Ġwha ck
Ġscratch ing
Ġupd ating
Ġerup ts
Ġpredict ions
Ġdiffic ulty
Ġprint ed
Ġport ra
ĠSand wiches
Ġparticip ation
Sn iff
Ġunl eash
Ġchop sticks
Hes itant
Ġdefeat ed
Ġtramp led
Think s
Ġther mostat
Pret zel
ĠZe bra
Ġsnowfl ake
Ġclar ity
Ġsquee zed
Ġflick ering
Ġunin habit
Ġpray er
Ġcou ghing
Mo vie
blood ed
Ġfle e
Ġsusp ended
Ġparas ites
Ġagric ulture
Ġovercrow ded
Ġtus ks
Ġchor us
ĠExplore rs
ĠRom ans
A rrr
B right
F ore
G apes
J am
J ordan
M s
N illa
P ro
T ea
W ood
c rying
f ig
m oon
p ay
p ol
s ol
t ear
t ie
Ġt u
in ations
it z
Ġb unk
Ġc ad
Ġc em
Ġto ken
Ġy east
an ked
Ġf ilt
Ġn ets
Ġha ul
as cal
Ġcan yon
en e
Ġst en
se en
se ction
Ġli ver
Ġre e
Ġre wind
Ġh ous
ĠN one
Ġne phew
ill as
Ġsh utter
ion age
ĠG ent
lo ved
am ation
Ġfun ky
ĠP arent
ĠE v
Ġex its
Ġcl icking
Ġfi red
Ġwon ky
Ġfound er
os ol
Ġfl aming
Ġdec ades
Ġsqu ared
Ġinst antly
Ġpaper making
self ish
int egr
Ġri cher
Ġdri ppy
Ġcra bby
Ġpot ions
Ġpot ted
Ġdad a
fin ished
Ġacc using
Ġfloor boards
Ġsupposed ly
Ġexp osure
Ġmet abol
Ġwild flowers
uc ose
Ġper m
mmer se
Ġcap ac
ren ched
Ġpack aging
Ġyoung est
Ġheart warming
Ġbroom s
Ġswea ts
Ġsal mon
Ġins ert
Ġins ights
Ġbur g
Ġind icate
Ġtou rist
Ġshi fts
Ġspr outs
Ġseas hell
Ġtrad ed
Ġexpress ive
Ġsim mer
Ġguard ians
Ġmeal time
Ġsymbol ic
Ġwilling ness
Ġcontrib uted
Ġjud ging
Ġcenter piece
Sc rub
cra cker
Ġspring s
Ġcol onies
ĠFix ing
Ġprop ortion
Ġmagn ify
ĠInd ia
Ġposition ing
ĠSn akes
Ġpuff s
Ġinit ially
Ġnic est
Ġhook s
ĠStand ing
mar ked
Ġbuzz er
Ġextreme ly
ĠCon stitution
Ġfer ment
ĠStick er
Ġdu o
Ġyumm ier
ĠAir planes
ĠEurope an
ĠFlo at
Ġencoura ged
Ġrail way
ĠKn ee
loc ation
ĠStraw berry
Ġpec uliar
Ġdaydream ing
Ġarchaeolog ist
Ġweakness es
Gl ug
Ġmant le
Ġhal ve
Ġrig id
Ġlic ense
Ġbod ys
Ġaccus ation
ocr ine
Ġpollut ants
Ġconsist ently
Ġphen omen
ĠBas ically
Ġelectrom agnet
Ġpelic an
Ġamul et
! *"
A choo
B ag
G row
M uch
P urse
a que
e qu
f ro
f irst
f ighter
g ive
n ate
n ice
o pped
s omet
t or
v a
w iggles
x ic
Ġa ah
Ġw icked
Ġs ank
Ġthe ore
Ġb aw
Ġc ider
Ġf lock
Ġl am
on er
Ġd us
Ġd ownt
Ġd ensity
ll ey
Ġg ro
Ġg usty
es y
Ġo zone
ĠT H
ĠS ong
ĠS ail
Ġha ck
Ġhe d
Ġhe m
Ġst er
Ġst ared
Ġst ung
Ġin come
ra bb
ĠY eyow
Ġre ap
me mor
Ġpl ow
Ġr att
ĠB ull
ĠB eads
ĠB ucket
ver bal
ĠC ent
ĠC uddle
Ġk in
mp er
ul ates
Ġor ient
Ġwh ites
ĠP ushing
Ġpro ven
Ġback ing
Ġwork er
Ġwork bench
Ġwater y
Ġag ile
ĠF eeling
Ġbl imp
el ike
Ġstr uggled
ip her
Ġoff end
Ġres urrect
Ġher mit
Ġbed bugs
Ġbed spring
ict ive
Ġroom mate
Ġsqu ad
ung les
Ġtower ing
ĠShe lly
Ġgra ffiti
Ġlight bulb
Ġch urn
ans w
.* "
Ġdes igner
fin ity
ĠAll igator
Ġrel ies
Ġcomm ute
Ġboo ster
Ġboo kend
ĠSw ings
Ġrespect fully
Ġinv itation
Ġinv inc
Ġinv aders
Ġvis ually
Ġref reeze
ĠGo d
Ġpar ked
Ġreg ulate
mit es
ĠCl ick
Ġreas semble
Ġspark s
Ġtag s
Ġcollect s
In ter
Ġcontin ued
Ġappro ve
Ġtwist ing
Ġlamp s
Ġprod uced
Ġsle ek
Ġblo oms
Draw s
ĠPu ddles
Ġdev il
Ġweak er
ĠFro sty
Ġema ils
ĠSn uggle
Ġdisappear s
Truck s
Ġsus hi
ubb ery
Ġvict ories
Sing ing
reg ation
ĠFire men
ift y
Ġexcept ion
Ġfertil ize
Ġdom inate
Ġsmoot hies
Ġaccompl ished
Ġnibble d
ĠZe ba
Ġbon fire
Ġtox ins
Ġhibern ation
Ġreass ured
Ġrail road
ĠHen ry
Ġquant ity
Ġpand a
Ġrh inos
Ġmur ky
ĠClass ic
Ġvig orous
Ġregard less
Ġreapp ear
ĠMid night
Ġwheelb arrow
Ph one
Ġenlar ge
Ġwilder ness
ĠProc rast
Ġprehist oric
crap ers
C hi
C am
H air
L amp
O AR
P ats
W ave
W ipes
d ate
k able
l ay
l ots
Ġt ut
it ous
hi ves
Ġb am
Ġl air
Ġd arts
Ġp ac
Ġp hosp
Ġn aked
Ġwe ld
ĠT ag
Ġha lls
ot o
Ġst ake
Ġr ounds
ĠB en
ĠB oy
ĠL anguage
ĠC ouch
ro gen
ic ulate
art ial
Ġsp out
Ġsp ont
ĠG obble
Ġas hes
Ġsw arm
ĠP il
ĠP ac
Ġcar bs
um mer
Ġad j
Ġtake off
ĠJ ay
Ġcon fet
Ġbot an
Ġstr ide
Ġun r
Ġun kind
ise ptic
Ġoff spring
ons ense
Ġhur dle
th row
Ġlist ing
Ġend ings
Ġmag ma
Ġpu lp
Ġdis qualified
Ġunt angled
Ġcomp ose
Ġcra m
owl ark
Ġcount less
Ġlife guard
Ġpers istent
Ġcre pt
co ats
Ġdet ention
Ġdet erg
Ġban ish
Ġflower ing
umb ing
Ġband it
Ġband its
Ġmar ry
Ġtech nic
Ġinc onsiderate
Was n
Ġmedic ines
Ġrev olve
Ġwar ned
Ġcontin uing
Ġtent acles
Ġhistor ians
Got cha
Ġpor po
Ġnob les
Ġdeb ates
ĠUnder stood
Ġfil ming
Ġpin ec
Ġlock et
Ġsens ation
Ġexplo sions
Ġbend y
Ġprop he
Ġdiv isible
Ġble ed
Ġcast ing
Che erios
Ġrecord ed
Ġclea rest
Ġshout ed
Ex cuse
Fl ag
fr uit
omm un
reg ate
Ġfer tile
Ġunpl ugged
ĠGl itter
Ġfract ion
Ġgraph s
Ġsid et
Ġfung i
ĠRa isin
ĠKnow ledge
Ġpron ounce
Ġsoo oo
Ġrh ino
Ġconvent ion
Ġsout hern
Ġpolitic ians
Ġtherm ometer
Ġdemol ish
Ġpige ons
atis fied
ĠHope fully
Frown s
ĠAstron auts
Ġmol ten
Ġnucle us
Ġwhoos hing
Ġmira cle
Ġware house
Ġshamp oo
Ġconfet ti
C ouch
E ye
H ang
O tay
] !
] *:
b ased
h ungry
j ay
r ase
s and
s ize
Ġa is
Ġa vi
it izing
hi l
an ing
Ġm aid
on a
Ġd ummy
Ġp ix
Ġn ourish
st ro
st orms
Ġwe d
Ġo d
Ġo k
ĠT ight
as leep
Ġbe er
ra il
ra ged
Ġre wire
ĠIt alian
me l
ir ts
ab el
ĠA dd
Ġr asp
ĠH as
ĠL ou
Ġe lf
ĠC al
ĠC ard
Ġwhe ee
ĠM us
Ġsa us
omet ric
Ġco y
ĠP way
ĠP rotect
and age
ĠE ast
Ġex ceed
Ġex ternal
Ġsc ur
Ġsc urry
Ġday care
Ġcl unky
Ġint ensity
ĠSo lar
ff ff
Ġtre mble
Ġover cook
Ġmo cking
ĠF amily
pl ug
Ġsuper st
el ine
Ġsk ipped
Ġpick led
Ġtri via
th ough
ict ed
rink le
Ġdec l
Ġdec line
Ġsqu int
Ġchi mp
Ġchi ef
Ġju ices
Ġcho pping
Ġz ing
ĠK id
Ġrest arting
Ġspl at
Ġhide ous
Ġmin ing
Ġho ly
Ġpat ron
Ġpat rol
uc y
ric ular
ang ular
ont al
Ġass ert
Ġve ins
Ġmar ac
Ġpack s
Ġline up
Ġhum mus
Ġarm ies
Ġstreet lights
ta iled
Ġob viously
Ġrev ealing
Ġshi pping
Ġimpact ful
Ġund one
Ġcommon ly
Ġprod ucing
Ġdish onest
ograp hical
Ġsle igh
ĠCha llenge
Ġunfair ly
Ġinf est
Ġrepresent ed
Ġpin wheel
Ġprov ided
Ġmarket place
Che w
Ġkill ed
Ġmer rier
Ġclue less
Ġunre p
Ġcas hier
ĠOther s
ĠPo le
Ġadm ired
Ġoper ations
Ġconqu ered
Ġstur d
Ġexist ing
Ġawkward ly
Ġyell ed
Ġdistrib ution
Ġsilk y
Ġsmoo ch
Ġamp l
cons cious
Ġvall eys
Ġlun ar
Ġstamp s
Pen guin
ĠMart in
Ġdynam ics
ott om
ĠEgypti an
Ġoverf low
Ġcollab orate
ĠShar ks
Ġshri mp
ĠBand age
Ġcrump led
Ġskys craper
Ġanx ious
Ġsnoo ze
Ġnightm are
Ġindig enous
Ġcig aret
Ġlact ose
ĠApo log
Ġimpat ient
Ġaccommod ate
Ġtadpo les
Ġexhilar ating
occup ied
Ġtapest ry
Ġpollin ators
Ġdispen ser
! âĢĶ
B woken
C ra
F lower
H ist
J eans
P aw
P resent
S pl
S ocks
W in
b lock
b ring
d ery
d ips
d rag
d ivers
e ving
j ump
l oud
m ow
m ur
v iet
Ġt inker
hi re
Child ren
ĠI d
Ġl asso
et ers
st al
ĠT ele
as ps
ib erate
ri a
Ġr ins
ĠWe ird
ĠBut t
ĠO ven
ĠM uffin
ĠM aple
Ġout grow
Ġknow led
reat ening
est r
ĠP ete
Ġcare t
ĠR uss
Ġwater col
Ġdown play
Ġshow case
Ġover fill
Ġcon form
ĠF lower
Ġsleep walk
Ġche ats
ial s
Ġun able
Ġun cha
Ġun lace
Ġun fortunate
Ġlea king
Ġred ec
Ġle ans
Ġdis like
Ġjump y
Ġgra vel
Ġfr on
Ġri cket
Ġsnow drop
ĠTh ought
sh r
Ġsmart s
orm an
St ories
Ġpot luck
Ġcat hed
Ġfire wood
Ġatt acked
llow s
Ġcre st
Ġtight rope
po x
Ġbrown ies
Ġsy ll
ĠSw eater
Ġpig headed
Ġglass making
Ġkey chain
Ġmod ify
Ġelect ed
Ġelect ro
Ġdump s
Sha r
Ġins ul
ced e
Ġmeat loaf
Ġenc los
Ġhammer ing
Ġcross es
Ġaut hors
Ġgather ings
Ġign ite
ĠEx p
ĠEx tra
reak able
Ġbic ycles
Ġimm ers
Ġjam med
Ġing en
Ġmini at
Ġhesit ant
Ġprop eller
ĠFr idge
Ġprepare s
Ġunb reakable
Ġdisturb ed
Ġident ical
not icing
cep ting
Ġloc ate
Ġalarm s
Ġoper ator
Drink s
Ġshirts leeve
ĠSu pp
Ġfal con
Ahh h
Ġloy alty
Ġinha ler
Ġarchaeolog ical
Ġgramm atical
Gl ad
Ġtwitch y
Ġpand as
Ġmit ts
Ġdestr uction
ĠPlan ning
hib ition
Ġencrypt ion
Ġshimmer ing
Ġstartle d
Ġpersu as
Ġperf ume
Ġsket ches
ĠSeed s
ĠGoo gle
Ġskid oo
Ġsche me
ĠTech nology
Str uggles
Ġlawy er
Ġslobb ery
Ġsatisfact ion
Ġredd ish
Ġhex agon
ĠMex ico
Ġrept iles
Ġknowled geable
Ġricket y
C ock
D y
L e
T oof
T onight
W hoo
b es
b ooth
c lo
e ful
h ou
i ww
o ard
s ighted
t rying
u esome
y our
Ġs ab
Ġs ly
re pre
it ic
Ġb order
ha le
Ġm ous
Ġl ou
Ġl umps
Ġd renched
Ġp um
Ġg lows
Ġg aze
et erm
st ic
st ring
at al
at ics
Ġo t
Ġo stri
ĠT ail
ĠT illy
ed es
Ġcan ce
ck le
ĠW iggle
ĠW uv
ri pe
Ġr uck
ust ery
ĠN um
ĠC le
ĠC ock
ĠC oming
Ġk er
is ance
ic ations
ĠM otor
Ġsp an
op ter
reat ed
reat ive
Ġco s
Ġsu cc
ĠP un
ĠP roud
ob i
im m
im ited
Ġbu mble
ĠE mb
ĠE ag
ĠE instein
ĠR oof
ĠSo viet
Ġshow down
Ġtre ad
Ġfa c
ĠF elt
Ġbot hered
Ġra wr
Ġshe er
Ġpo et
Ġstr ang
Ġsl oth
ist ence
ac le
Ġred eem
Ġset back
ne igh
Ġblue bird
ma ids
Ġfo al
Ġgl ance
Ġsqu ishing
Ġch oral
Ġbea ver
Ġhead set
Ġri ff
Ġexc han
Ġrec ite
man e
Ġcat fight
Ġac hes
fin ishes
if orm
Ġground out
Ġmilk weed
Ġexp ands
Ġru mble
Ġkick ball
Ġrep ay
Ġbaby ish
Ġpast ries
Qu ick
Ġass ess
Ġpet ted
Ġyoung sters
Ġinc omplete
Ġroo sters
ete er
Ġbar bed
Ġent repre
Ġpeas ants
Ġsal am
Ġstir red
Ġhy m
Ġhy en
Ġclown ish
Ġperform ances
ĠSc ra
rup ts
Ġbio logist
Ġund ec
Ġflat worms
cul ate
Ġnon believer
ĠBall oons
Ġcontext s
Ġblo omed
ĠFin n
Co v
Ġhyd ration
Ġunp eel
Ġvers ions
Ġconst rict
Ġseason ed
Ġgri zzly
Ġbull pen
ĠSn ip
Fi retruck
Ġaband on
Ġbri e
Ġgrad ual
Ġintrod uced
ĠRoar rr
Ġmut ations
Ġthir st
Ġden y
Mr s
Ġrebuild ing
Ġburst s
Ġmeow ing
Ġtact or
Ġyaw ning
Ch uckles
Ġsumm ary
Ġselect ion
Ġintegr ate
Ġrefres hed
Ġoverdo ing
Ġcapt ures
ĠMag ical
Ġdefin ition
Ġcer amic
Ġol ive
Ġgrandd aughter
Ġimmig rate
Ġbulldo zer
Ġextingu ish
Ġskys crapers
ĠHelicop ter
Ġreenact ment
Ġheir loom
Ġplag iar
Ġunbelie vable
Ġhairsty le
Ġeval uate
ĠSil ver
ĠBal ancing
Ġburg lar
Ġdeterg ent
Ġentrepre ne
! \
2 3
F arm
G oose
L ost
S u
V itamins
f olk
g onna
k art
n uts
p here
p osed
p retty
r out
s hi
s un
v als
he ss
he aster
Ġw re
Ġs ig
it zy
Ġb w
ing les
Ġm un
Ġl oot
Ġd re
Ġd ens
Ġp all
Ġp ry
Ġp ounds
Ġg own
et ery
et ta
ow els
ea pple
st ones
ig ent
ut ches
ĠS is
ar ine
Ġhe ights
Ġbe w
end a
Ġli lac
Ġre indeer
her it
Ġj ungles
Ġpl umbing
ĠB own
ĠL ib
Ġe go
ĠC lock
Ġk az
Ġup tight
Ġall eg
ic er
ĠM ary
ĠM ailman
mp h
fe lt
qu er
op ening
Ġsw ivel
Ġco con
Ġsu nt
im ents
im icking
Ġus er
ty pe
Ġpre fe
Ġsc orp
ĠR iding
ĠR ooster
Ġwork outs
Ġwork space
um ing
Ġbr ittle
ĠSo ck
ĠSo fa
Ġen light
Ġen ormous
Ġcon ference
ĠF w
Ġdi ets
Ġguess es
Ġsk unk
Ġcha u
Ġun rel
Ġun know
Ġbre wing
os it
de gradable
Ġfl akes
Ġwind ing
Ġchan nels
Ġgl ucose
Ġfish bowl
Ġunt ied
Ġstar light
here nt
Ġcomp os
Ġrest s
Ġpot entially
cl othes
Ġcat cher
Ġforget ful
Ġtrip le
Ġrep ent
Ġ2 00
pec ial
ĠAl ong
Ġcons c
Ġcry pt
Ġdel iberate
Ġpond s
Clean ing
Ġmid fielder
Ġincl usive
Ġmar oon
Ġess entially
com pl
Ġsheep dog
sw eet
nch ron
Ġcomb ed
Ġunf ro
Ġmis beha
Ġrad ar
Ġfloat y
Ġcross walk
Ġund iscovered
Ġapart ment
Ġrelax ation
Ġsty l
Ġconcer ning
Ġdeb ris
Ġrepresent ation
Ġhomes ick
Sh ower
Ġsuggest s
Ġinvent ors
oub t
Ġexplo ded
Ġnews letter
Ġunb utton
Ġunw ell
Ġwindows ill
Run s
rif ic
help ing
Ġda zzle
Ġchess board
Ġoverreact ed
Ġshut tle
Ġthor ny
Ġsnee zes
Ġ6 0
Ġmead owlark
Pe ople
Ġselect ive
Ġgem stone
Ra isin
Ġintell ect
Ġcru ci
Ġnegot iation
Ġproced ures
Ġanticip ation
Press es
Ġskit tish
Ġintellig ent
Ġcitiz en
Ġquarter back
ĠSpl ish
Ġinvas ion
Ġelev ator
Ġdupl icate
Ġsorce ress
Crack er
Ġcel ery
Ġrebell ion
Ġlolly g
Ġdiscoura ged
Ġtoll booth
Ġove reat
Ġbrist les
Ġuninhabit ed
Ġcem etery
Ġspont aneous
Ġkaz oo
E ar
F our
G um
M ia
P ic
R es
S ec
T immy
Y uck
d rum
h urry
m outh
p end
p ite
t ack
u k
w all
w estern
Ġt angles
re f
re nder
Ġthe rapy
hi ze
Ġb op
Ġf en
Ġm attered
or ish
or ial
ll as
ut en
oo h
oo ling
Ġi c
ĠW ear
ĠW eee
Ġin finite
Ġre n
Ġh inge
ĠB in
ĠB essie
ĠN ib
all ed
ĠC ap
ĠAnd y
ic ken
Ġout ing
ĠG obb
ul king
Ġea ster
lo ss
Ġhi pp
Ġhi cc
ob ile
Ġsha ving
ĠE ye
Ġno zzle
Ġsc or
Ġhand les
Ġsn atched
Ġhis s
Ġbl asting
Ġra gged
Ġsuper natural
el ix
Ġgr ouch
Ġred uces
ment al
Ġanim ated
Ġflow ery
Ġwind mill
Ġwarm ly
Ġstar ve
ĠGot ta
Ġcomp ounds
Ġhead aches
aw ful
Ġpull ey
Ġac oust
Ġac cepting
Play time
ĠAll en
ĠTo e
Ġacc um
Ġacc ord
ub es
Ġhoney comb
iv als
Ġext ends
po le
po ds
Ġru mbling
Ġes p
Ġfeed s
ĠKeep s
Ġrep ell
sp rinkles
Ġant hill
Ġcheese burger
Ġref use
Ġed ition
Ġinter lock
Ġty rann
Ġdr ones
Ġcorn bread
Ġoce lots
bra in
ĠQu ite
ĠSh orts
ĠCl apping
pack ing
ĠAlex ander
Ġtype writer
Bu zz
Ġpurp oses
Ġclever ness
Ġaut o
Ġansw ering
ĠPre sent
Ġcomplex ities
Ġem erald
Ġreflect ed
Ġbi ased
ĠPu zzles
Ġhesit ating
Ġunp op
rest rial
Ġdead ly
Ġunb uckle
rit ical
Ġrandom ly
ĠMon opoly
Ġpredict ing
cipl ine
Ġshel ve
Ġca vern
list ens
Ġreplace ment
Ġstink bug
Ġshadow y
ĠButter fly
Ġindust ries
cel ets
Ġload ed
Ġpresident ial
Ġtramp le
Ġfears ome
ĠEm erald
Ġchees ec
Ġfib er
Ġshoel ace
Ġtoug hest
Ġrom ance
Ġbru ised
Ġexha ust
Ġpoly g
Ġsharpen er
Ġphr ases
ĠShar p
Ġshri vel
ĠBand it
ĠDet ect
Ġhandc uff
Ġdehyd rated
Pot ato
urist ic
toot hed
Ġmiscon ception
ĠSew ing
Ġunapp reci
Ġreorgan ize
ĠLuck ily
ĠUS B
Ġmetamorp hosis
Ġbou quet
Pol ice
ĠPac ific
Ġsturd ier
Ġruck us
B ang
B enny
B rings
B arely
D wy
F rom
O O
P wease
T ext
W iggle
Y ewwow
a hh
b in
b ition
d ler
f ed
l asting
l eaves
l ady
p ose
p ilot
u u
z o
Ġ venture
in ent
in ous
re ep
ha b
Ġy ank
ĠI gn
Ġf ont
Ġf lesh
or ice
Ġp end
Ġg ren
et h
om er
ea ming
ea rest
st age
ĠT ights
ĠS al
ĠS up
ad ium
ad dling
Ġbe friend
en cies
Ġin fer
Ġh ind
ri min
ch uck
ce an
Ġr ook
Ġr ang
ĠB eautiful
Ġab oard
Ġso p
ly ard
ĠN ee
ĠN urses
all ant
Ġk lut
ro ck
Ġsp oof
mp t
ĠG ig
ĠG onna
ĠG irl
ĠG rrr
lo qu
ater al
am er
ĠP ic
ĠP urple
Ġfind er
Ġthing am
Ġhand written
Ġqu otes
Ġsn aps
ge y
Ġdra mat
Ġcl utter
Ġover feed
Ġbear ded
Ġnew er
Ġro cked
ĠF lor
pl ugs
ho lder
Ġfi ves
Ġstr at
Ġun av
Ġun friendly
Ġhard working
ract ors
Ġres eal
iny l
Ġwr iggle
Ġrun away
ne ck
ĠRe g
Ġtra gic
Ġcr ane
Ġsqu id
Ġclo p
Ġbra id
Ġwarm est
eak er
ĠK eys
Ġglad iators
mag ing
Ġele vate
Ġrel ish
Ġfollow ers
Ġser ver
Ġser ving
Ġseed lings
Ġant iseptic
Ġpast ure
Do lly
Ġpur ring
Ġmouth ful
ah k
Ġcur vy
Ġheart less
Ġret ake
Ġpump s
Ġpar an
bra id
log ists
Ġbar gain
ĠCl uck
sc ent
emp ting
Ġnut ty
Ġbio degradable
Ġdecor ative
Sp ot
Ġjour neys
Ġpor cup
Ġunc ap
Ġunc overed
Ġchew ed
ĠUnder pants
An other
Ġresour ce
Ġabs ence
Ġgovern or
Sh orts
Ġdiv ine
ĠSqu ish
oint ed
ĠCh ina
min als
Ġbull se
Ġver tical
Ġca f
Tr ans
Ġsus pect
Ġbill ions
Ġhonor able
Ġpow dery
Ġwhist ling
Ġexhi bition
break s
ĠRock y
Ġmut ate
Ġarc hives
Ġrow ing
ĠRain bow
Ġaqu atic
iment ary
Ġsap ling
Ġdisco vers
Ġrespond ing
Ġstitch ing
Ġmast ering
Ġautom atic
Ġincorp orating
hist icated
Ġlandsc apes
fo il
Ġinha le
Ġexha usted
Ġey el
Ġcapt uring
ĠJapan ese
Ġeleg ance
Ġnit rogen
Ġunimp ortant
Ġlimb s
Ġcrump le
pie ces
Di aper
ĠPlant ing
Ġginger bread
Ġemphas ize
Ġparad ise
lan tern
Ġpes ky
Ġschoo lyard
Ġpars ley
vit ational
Ġuna fraid
Ġearm uffs
Ġvulner able
Ġgumb all
Ġinvinc ible
? *"
B owl
C ertainly
F ill
G alactic
M elon
T oo
a led
d uck
h ro
h onk
j udge
l ical
l if
l ude
n ob
p ush
p oon
t ag
t rap
** *
he ating
Ġa ids
Ġs itter
Ġs kedaddle
hi ch
er lin
Ġc ries
Ġc iv
Ġm ars
Ġm ats
Ġl ub
Ġd ork
Ġp imp
Ġp ounce
Ġn earest
Ġo ily
Ġo ars
ĠS ur
ot he
Ġre ception
ĠA corn
ver ted
ĠH ad
ĠH orsie
ĠL adder
Ġk il
Ġnot ep
Ġnot ifications
ĠM outh
ĠD J
Ġsa pp
ĠP lop
im sy
ort al
Ġbu gging
Ġpre v
Ġpre cisely
Ġpre jud
Ġsc roll
Ġimp lement
Ġkeep ers
Ġtr ough
Ġsm other
ol er
ĠF eather
ĠF elix
Ġdi mp
Ġra c
Ġra id
ĠPl ate
ho ly
Ġgr id
Ġtw el
Ġapp eal
Ġapp li
Ġres ize
Ġman go
Ġdec imal
Ġwalk way
Ġsqu ire
Ġbra celets
Ġchi lls
Ġelse where
Ġpaper work
hir p
Ġbel ch
St ill
Ġac ed
Ġsweet ness
gu ess
Ġpat ty
Ġcre aked
Ġpresent able
co al
co gn
Ġwild est
Ġrep orts
Ġstore keeping
ident ial
Ġ2 4
gr asps
Ġemp ires
Ġvis or
Ġref resh
Ġpri sm
Ġdeep est
cept ible
Ġdr ought
Ġround ish
Ġchar coal
Ġhum ility
Ġequ ator
Ġeye b
Ġpay ment
Ġcost ly
Ġscar ce
Ġtext ed
sit ting
Ġwar ped
Ġcle nch
ĠAs ia
Ġund ist
Ġview ers
Ġscra ppy
Ġwhis perer
Ġprevent s
Co vers
Ġsurf ing
Sc issors
Sh op
Ġpin eapple
Ġsens ational
off ers
Ġsplit ting
Ġmarket ing
Ġunb eaten
Ġunw rap
Ġglitter ing
Ġmuse ums
Ġens l
Ġrib bons
Ġlog ic
Ġinteract ion
Din osaurs
Ġunre ason
Ġcraw led
cr um
cr ash
cr atic
ĠCut ting
Ġmood y
Ġcompan ion
Knock s
Ġcomplain ts
Ġrow dy
Ġunl imited
ĠBrown ie
Ġske let
Ġappropriate ly
Ġmetaphor ical
Ġcrust s
Ġrece ip
Ġarti ficial
ĠRes pect
forest ation
Ġumbre llas
Ġbrand s
Ġaer osol
term inate
Ġgn omes
Ġsuperv ise
Ġqual ified
Ġsimpl est
Gra pes
Ġseatbel ts
Ġbron co
Ġwid th
Ġcircum st
Ġsex ual
Ġlux urious
Ġcircul ate
Ġetch ing
Ġhitchhi ke
ĠRos a
Ġves sels
Ġscholars hip
Ġjag ged
Ġwel coming
Ġbobsle dder
Ġoverc ame
Ġdism ount
Ġcornfl akes
Ġhamm ers
Ġvel vet
Ġevapor ates
Ġjun ior
Ġcondens ation
Ġais le
Ġenclos ure
mane uver
A cc
B ounce
D rops
G lasses
I Y
M ar
P ond
S pecial
T V
T ent
U nt
U ns
b ler
b oth
c os
d el
j amas
t ooth
w ig
w wo
z ew
in ery
it ors
ha m
Ġc ease
Ġf ishes
Ġm ount
Ġl ur
Ġl oon
or ide
Ġd ome
Ġp estic
Ġg ums
Ġg iggled
et ect
ke ning
st uff
at ize
Ġo v
Ġcan e
Ġin ject
id dy
ĠY ikes
Ġre bel
Ġre but
Ġre group
Ġdo ork
Ġj eep
ir atory
ver ty
ĠH on
ĠL ucky
ft y
ee zes
ĠC astles
Ġup grade
ĠO per
is ions
ur g
Ġsh rub
ĠD eep
ĠD ere
ĠD IY
Ġout class
Ne cklace
Ġhi ker
op at
Ġknow how
Ġsw ishy
be es
am arine
and a
ĠR aw
Ġgu ll
Ġcl one
Ġv om
les law
ĠJ ess
Ġover hand
Ġover bid
Ġbl uff
Ġbl essed
Ġhome less
Ġcha l
Ġbest sell
Ġun mas
Ġun finished
Ġun answ
Ġgr iddle
Ġact ress
ac er
ac ter
ac uum
Ġfl unk
Ġfo nd
Ġdec ont
Ġdec aying
Ġdrink able
Ġch rom
Ġz zz
ank ing
ĠK icking
Ġhop ed
ans ion
Ġdark est
Ġcheck ers
Ġeas iest
ĠV el
ĠV ideo
ĠIn v
Ġfocus es
Ġpat ting
Ġwood cut
Ġmilk y
Ġbal ances
Ġperson ally
em aker
Ġfit ness
Ġinv it
Ġcons ult
Ġcons ume
Ġjo ints
Ġcompl eting
Ġcor ds
Ġcamp er
rac ked
Ġleg is
Ġbreat hes
oun ge
Ġmark ing
Ġvol tage
Ġmel ty
Ġrob ber
Ġcalm er
Ġhon king
Ġscar iest
Ġdep ress
ĠUn like
Ġcomb ing
Ġmis l
Ġann oun
Ġann ounced
ĠSc arf
ĠDin osaur
Ġborrow ing
Ġchew s
Ġview points
pens ate
Ġcontrib ution
Ġpad ding
Ġcol ony
Ġjoy ful
Ġinflu ences
ĠSn ows
Ġshel ters
Ġdoub ts
As k
Ġbark s
Ġrehe at
Ġsculp ting
Ġport ray
Ġsilver ware
aff y
ĠPick les
Ġprince ly
Ġunl ucky
Ġaltern ate
Ġirr itate
Ġnu isance
Ġmotiv ate
Ar t
Ad ven
Ġrequire ments
achie ve
Ġswims uits
Ġancest or
Ġsug ars
ĠChrist ian
Ġarchaeolog ists
Ġexcl ude
Ġcollab oration
mus ical
ĠZzz zip
pow der
Tur key
su ccessfully
ĠNut ty
Ġtart ar
ĠHeal thy
tick les
Ġmathe matic
Ġgroo ve
Ġreti red
ĠFer ris
Ġoverl ooked
Ġrapid ly
Ġdict ate
Ġpregn ant
Ġmultitas k
Ġunderestim ating
Ġimplic ations
Ġquir ky
Ġstrand ed
Ġmarvel ous
Ġcine ma
ĠVis ual
Ġpizz as
Ġhandsha ke
ĠTit anic
ĠPump kins
Ġduc hess
Ġsymph ony
Ġbrie fly
Ġconsc ience
zew inning
C om
D ips
F antastic
G onna
G lue
P ink
P opsicle
S k
c ite
c ooked
c ups
e ye
f u
g ri
l as
m als
n oo
n ib
n ual
p ace
p ets
p itched
z aftig
Ġa hh
Ġs ow
it udes
hi bit
Ġf ighter
Ġf urious
Ġl ords
on ite
Ġd ating
Ġg ates
Ġg oopy
Ġn ach
ut able
ve e
ed ly
id dling
Ġre tain
Ġre jo
Ġre weigh
Ġh oses
ĠA lly
ĠB ench
Ġab ol
ft ime
abys itting
ro id
Ġall e
ĠM unch
Ġgood y
own ess
Ġas hamed
il ateral
Ġco ve
Ġclean se
Ġsu cked
ove ls
Ġex it
Ġex cell
Ġqu arters
Ġimp rison
Ġag enda
Ġpo ems
Ġpo inters
Ġbook store
Ġid ol
Ġun read
Ġun just
Ġbre w
Ġlea ped
Ġtri als
th ought
Ġown s
Ġrun way
na il
Ġgl uing
Ġhouse plant
Ġel im
Ġfe ud
Ġgra vitational
Ġresp iratory
Ġsoft hearted
Ġwet lands
Ġclimb able
Ġdes erved
Ġcame ls
oot strap
Ġlife long
Ġrel earn
Ġtrain er
Ġpat ent
Ġside lines
Ġmilk shakes
Ġrem ix
Ġrem ained
Ġboo gie
Ġmet e
Ġhor rible
Ġpig let
Ġam using
ugg a
ĠAl gebra
ĠHelp er
imp l
Ġmar ching
Ġvo lley
Ġret ry
cept able
Ġpee ler
Ġvisit or
Ġprocess ed
Ġbar ge
Ġstea mbo
Ġmach inery
ĠChe ating
Ġarm ed
uper vised
Ġdoll house
Ġsched ules
Ġmis pron
ĠSc r
Ġpage ant
Ġdisapp ro
Ġunc lean
Ġbegin ners
Ġblo ss
Ġinfl atable
Ġfold s
Ġcop ter
Ġliter ate
Ġliter ary
Ġguitar ist
Ġstat istics
Ġcourage ous
Ġpuff ing
Ġkill s
te br
Ġspong es
Ġtoss ing
Ġfus sy
cr unch
Ġseparate ly
Ġdiag onal
Ġpow ered
Ġgrill ing
Ġcred ible
Ġaccount able
ĠPir ate
Ġexist ed
Ġrat io
Ġswamp y
Ġrevolution ary
Ġbond ing
ĠGr an
Ġast on
Ġinstrument al
sec ute
Ġpunct uate
ĠKn ives
Ġlip reading
Ġinher ited
Ġfright ened
Ġment ally
ĠWashing ton
Ġrestrict ed
Ġcarn ivorous
Ġprogra mmed
Ġful crum
Ġcer tif
Ġmoisturi zing
Ġmoisturi ze
Ġminim ize
ĠSec ret
Ġmosquit o
Ġcollaps es
Ġut ens
Ġillness es
Ġmil itar
Ġvoy age
Ġmes mer
Gu ys
Ġner dy
Ġump ire
Ġcrater s
Ġscenar io
Ġsod ium
count ry
Ġsie ge
Ġmisunderstand ings
Ġward robe
Ġbluep rint
divers ity
gey man
Ġbullse ye
Ġcaf Ã©
Ġtwel ve
B un
C lo
C oke
G irl
T ato
W all
a vor
b ro
b utter
c aster
c overed
d ee
d rive
e v
g han
l oo
l ative
m ich
o ch
r ome
r ary
s av
t urned
u ling
Ġt hi
Ġt al
Ġt inkle
Ġw ack
Ġs isters
re m
Ġb ir
er ative
Ġc ulti
Ġm irac
Ġg our
ea u
Ġn ailing
st ained
oo ch
ĠT uck
ĠT oes
ĠT eeth
ĠS out
ĠS urpri
ad v
Ġi mmerse
ter ns
Ġre ign
Ġre read
me g
Ġj iffy
ab ilities
ri ci
ĠA dding
ĠB ens
Ġab sent
ĠH ee
ĠH aunted
ĠC ri
Ġk o
Ġne ur
Ġti les
ur r
ic ient
Ġsp wash
ĠD owntown
ie re
ĠG ri
ent ry
ul sion
ast rous
Ġsw elling
ĠP E
ĠP ee
ĠP red
ĠP aw
ob o
Ġsha man
ish op
ĠNo ise
Ġcare ers
Ġqu izz
um ines
Ġcl ump
Ġimp lies
No ise
Ġover use
Ġover weight
Ġsm ashing
Ġpart icle
Ġbl ustery
Ġra ises
Ġpo kes
Ġpo verty
Ġid eolog
Ġun ion
Ġres hape
th ump
Ġreal ign
ner y
ner gy
Ġfl ea
Ġfl imsy
Ġgen ie
anc ip
Ġdis ob
Ġel ks
Ġch unks
imb le
Ġcomp act
Ġslow ed
Ġcont rad
Ġrain storm
Ġhead qu
ock et
ĠTh rough
Ġcra mming
sh ow
Ġcreat ions
Ġama ze
Ġrem ed
Ġru ral
Ġboo ths
Ġsy nchron
uff led
To e
uc er
Ġant im
All igator
Ġtest ify
Ġmist y
Ġref used
ipp ered
umb s
Ġpur chase
Ġmar in
Ġpack ets
aterial ize
Ġheart y
Ġpump ing
Ġtast iest
Ġdig s
Sw eater
ĠSh ovel
ph s
Ġscar ier
Ġbur rit
Ġgrand son
Ġfloat ie
Ġtemp o
che cked
Ġpan icked
Ġposs ession
Ġdogs led
Ġrout ines
Ġfour th
itar ian
Ġinvent ive
Ġexplo des
ĠTw ist
Ġrot ates
Ġpres chool
Ġprior itizing
Ġdrum mer
Ġalb ino
Ġens ures
Ġenthusi ast
Ġcalcul ations
Ġsucceed s
Ġunst able
Ġunst eady
ĠHer o
Ġblend ing
resp ass
Ġscientific ally
ĠMo vies
Ġoct agon
Ġbuzz ard
Ġflood ing
Ġsatis fy
Ġmajor ity
Ġexcept ions
Ġarrange ment
Ġfertil izers
Ġofficial s
Ġdu et
Ġcong r
Ġscream ed
Ġamp hib
Ġfossil ized
Ġey ep
Kind a
Ġdot ted
Ġhier archy
Ġfist s
Ġcompon ent
Ġtroubles hooting
ĠAma zing
Ġreinfor ces
wit ted
ĠHeal th
Ġextingu isher
Ġstim ulate
Ġmul ch
Ġpige on
Ġalmond s
Int eresting
Ġsill iest
Ġspar ked
Ġpiv ot
Ġhierogly phic
Ġintest ine
Ġsulf ur
Ġbrat wurst
Ġbust ling
Ġsnorke ling
Ġchocol aty
Ġgodd ess
Ġreflex es
Ġmanufact uring
Ġavoc ado
Ġcoinc idence
Ġemper or
Ġkin etic
ĠPil ots
Hist ory
ĠGig i
ĠBens on
' ...
B room
B eads
B erries
D ish
G old
H onestly
L ily
M ow
c hicken
d ad
e gg
f low
f ork
f ires
h our
l eaf
p outs
s a
t oo
t oes
ou ris
in als
in ator
Ġw arty
Ġb akes
Ġb ony
Ġto b
Ġf ate
Ġl ep
on gh
Ġd aunting
Ġp intsize
st all
st are
st ool
ĠS er
Ġhe ctic
Ġi ced
Ġbe loved
en n
Ġst roll
Ġst ained
ĠY eehaw
Ġre awake
Ġdo zen
Ġj aws
Ġj oust
ĠA ss
ĠB un
ĠB ark
ĠL ay
Ġe mit
pp led
Ġsh re
Ġsh ingles
Ġsp arrow
ass ium
ĠD V
us her
Ġwh iny
dy nam
il ch
am us
ĠP y
ĠP ers
ĠP ippy
and ing
ort ing
Ġsn oop
Ġar rested
Ġsure ly
ĠJ ames
ĠMom o
Ġtr anqu
Ġnew sw
Ġbl amed
Ġkind ly
Ġpe ers
Ġwait er
Ġun selfish
Ġsl inky
ip toe
iz able
ract ed
ac hache
ne qu
iss or
iss ion
Ġfl or
Ġfl uct
ost le
Ġde ce
Ġdec on
Ġel astic
cus sion
ret ri
Ġch unk
Ġch ugalug
Ġz ipping
Ġdream y
Ġrain coats
Ġsnow drops
ĠSt r
ĠSt airs
av ored
Ġfam ished
Ġcut ters
Ġrec ip
ĠV R
ci ful
St icks
Ġdes ired
Ġeyes ight
ub a
Ġcars ick
Ġrel atives
Ġrel easing
ĠWill ow
Ġcomm as
Ġbal m
Ġmet allic
Ġmind less
Ġrep el
Ġsweep s
Ġper pet
Ġtreat y
Ġhorse whip
Ġref und
Ġdist illed
Ġtrack er
Ġinter ference
Ġconf ess
Ġmot ors
Ġpool s
Ġglo ssy
Not hing
Ġsecond hand
ĠChe f
Ġmain ly
Ġdep ut
Ġap hi
Bu bba
Ġrad iator
Ġappro ached
Ġgoal post
Ġworth less
ĠFl at
Ġuns addle
ww y
Ġdue l
Ġboss es
Ġveget arian
Ġvan ishing
Ġunc ons
Ġmonth ly
Ġsell er
ey ed
ĠBl ood
ĠSwing ing
Ġstoryt ellers
Ġpink ish
Ġcop ied
Ġabove ground
Ġunb end
gra ceful
Ġsew er
Ġinflu ential
Ġgri pping
chan ging
lph ins
Ġrecogn ition
Ġoppos ition
Ġpolite ly
Ġstom achache
Ġsteal th
Ġrelie ve
Ġnic ke
Ġbored om
Ġdem ands
Ġessential s
la im
Ġaccess ories
Ġslo pes
Ġflood s
Ġmicro sc
Ġthreat s
Ġgrandchild ren
Ġoccas ional
Ġmen str
ĠDi aper
pre p
Ġsoak s
Ġgall on
Ġhatch lings
Ġsunb athe
ĠComp ost
Ġmolec ule
Ġcrafts man
Ġcolon ists
Ġretri eves
Ġbid ding
Ġalign ed
gl ug
Ġneglect ed
Ġsacrif icing
ĠExpl ain
Ġtyp ho
fo llows
Ġbeet les
Ġdemand ing
Ġey eless
Ġgel atin
ĠSet ting
Ġsubmar ines
Ġphilos ophy
Ġdw arf
Ġsidest ep
Ġbrow se
Ġhazard ous
Ġhypnot ize
uke warm
leen ex
Ġwrit ers
Ġcaution ary
Ġspe ckled
Ġpion eers
Ġgau ge
Ġeaves dro
Ġpamp h
Ġbrib e
Ġps yc
Ġrew rap
ĠMist akes
Ġblacken ed
Ġsweats hirt
ĠProcrast ination
Ġsidet racked
iww el
Ġprefe rences
lif etime
Ġvolley ball
Ġremed ies
? âĢĿ
C hip
F ort
F ries
H oo
M ove
R ec
T ights
W ide
b ic
b reat
b anana
f est
g obble
h ome
j ar
l ive
l ava
n ormal
p eekaboo
t ur
t ower
t iness
t urning
u ated
w l
w ish
y lon
Ġt ux
Ġt affy
Ġs eah
re ne
Ġb ob
Ġb ale
Ġb obb
ha ired
on ist
on ize
Ġd uper
et tle
Ġn ab
Ġn iece
Ġn ifty
at tle
at hing
at ops
ed own
ĠS ink
ar ial
Ġcan ine
Ġi mb
en erate
Ġst adium
Ġin fra
Ġin finity
Ġre ins
Ġre eds
Ġre type
Ġh itter
ĠA ct
Ġr ating
ĠB erry
al ism
ĠH awa
ĠL ooked
Ġso le
ĠC omet
ĠC hanging
ro ach
is ive
ic able
ic ious
ĠM ount
ill e
ill ing
art ments
ĠD ri
Ġout maneuver
ĠG al
il ated
Ġco ax
Ġco aches
ĠP urse
Ġar ctic
Ġcl ash
Ġint end
ff y
ĠJ u
Ġag ents
Ġunder cover
Ġnew ts
Ġmo les
Ġimportant ly
Ġbl ab
Ġche ckered
Ġhu ddled
Ġun roll
Ġun easy
Ġfin ances
Ġhard en
Ġher s
Ġbird watching
Ġanim ation
Ġrun g
ps hooting
Ġse mic
anc id
Ġcr an
Ġclo aking
Ġfly trap
Ġwo ck
rel ess
Ġcomp artments
Ġz esty
ank y
ĠK ite
Ġdeal t
Ġrec ap
Ġcheck mate
St ands
Ġsol ves
Ġmin ers
ub ble
raw berry
Ġrep acking
hant om
kin etic
Ġleft y
Ġmap making
Ġter mites
ĠHold ing
Ġcap ed
Ġremind ers
Ġdeep water
Ġret ell
Ġsho emaker
Ġeng ulf
lic ity
Ġreg enerate
Ġdef y
Ġform ations
Ġsince re
Ġsheep her
mit ive
Ġbee keeper
Ġsal on
Ġins urance
Ġob tain
Ġmis hap
Ġspeed ing
Ġtrans m
She lf
Ġbio diversity
Ġcelebr ations
Ġmuff led
Ġuns inkable
itam in
Ġhistor ically
Ġscen ery
ĠPre pare
ograp hed
Ġinstruct ion
Ġcraft y
Ġinfl ated
Ġhuman ity
An i
Ġpin point
bu ilder
Ġdevelop ers
Ġattract ing
Ġattract ion
az a
az zy
rent ial
Ġbull fighter
ĠSn ap
car ry
Ġuncom pl
Ġpleas ing
Ġspray ing
Ġinteract ions
Ġfri zzy
ubb ed
Ġhall uc
ĠFly ing
ĠPro ve
Ġfus sing
Ġspo iled
Bo ing
Ġfat al
Ġmig ratory
Ġdisappoint ment
Ġirr itating
Ġescap es
Ġplot ting
Ġcav ity
Ġappl aud
Ġlas ers
arc iss
cat cher
cont rolled
Ġchlor ine
Ġregion als
Ġwrest le
Ġreck on
ĠPot ato
Ġbullet proof
Ġblu ish
Ġprocrast inating
Ġgor illas
Ġhal ftime
Ġol ives
Ġintention al
Ġdecomp ose
Ġreinforce ment
Ġcontam inated
Ġbackst ory
Ġpolitic ian
Ġpuck er
Ġstrum ming
ibber ish
Ġhumming bird
Ze ba
Ġenerg ize
Ġnavig ating
Ġjag u
Ġunivers al
Ġrefract ion
Gar age
ĠObs erving
Ġsnowshoe ing
Ġski ing
Ġpharm ac
Ġadminist ration
poll uted
ĠSimp le
Ġcymb al
udging ly
ĠOlymp ics
Ġrooft op
Ġdownt ime
Ġcaret aker
Ġfac ility
Ġcheesec ake
Ġmathematic ian
sav vy
1 0
A T
C ah
P ie
P eel
T idy
T ongue
b red
b unch
b etter
c astle
c ontin
e mb
f ights
g re
h ore
m ia
r ans
r oof
s aving
t here
in th
Ġw ides
Ġw reck
re he
Ġthe at
Ġc ue
ing ly
an j
Ġf use
Ġl ary
or ative
Ġd uct
Ġd ashed
es ar
om ial
Ġn udge
Ġn ovels
ut ch
ĠS us
ad s
ad er
ar ctic
end ent
Ġin ning
id a
Ġh ors
Ġpl aster
ĠA ge
ĠA choo
ĠB erlin
Ġe g
ĠN aps
Ġk ettle
ro cess
Ġmake over
ĠCan ada
ĠM ow
ĠM aj
Ġsp ool
il ation
am i
Ġfun fair
est ial
Ġco bra
Ġco leslaw
ĠP onies
Ġbu m
ĠE ars
Ġcar rier
Ġhand stand
Ġhand print
ĠR aa
Ġwork book
Ġsn appy
Ġar k
Ġad hesive
Ġwho les
Ġbo k
Ġag reeable
Ġen amel
Ġfa ulty
Ġgreat ness
ĠF ree
Ġra ffle
Ġun braid
Ġbre eds
gg ling
Ġfin ale
other mic
Ġcour ts
Ġsl aps
Ġgr uesome
Ġcook book
Ġman nequ
Ġplan ner
Ġend anger
Ġdis able
Ġdis sect
Ġdis assemble
Ġquiet est
Ġinst alling
ĠShe lf
aw ed
Ġsnow p
ĠSt ret
Ġrec ital
Ġspl inters
St one
Ġmor ale
Ġcat ap
mon ic
Ġlife less
if iable
Ġacc ent
ub lic
onna ise
Ġtall ish
Ġskate boards
Ġwood chuck
Ġmet er
Ġextra cur
Ġbutt a
sp ill
Ġper ceive
Ġdress y
Ġdress er
ĠHelp s
Ġpri zed
Ġskill et
Ġter r
Ġsea water
Ġpol ished
umb les
sing ly
itch hi
walk er
Ġreg ister
Ġhurry ing
Ġconsider ation
Ġstea my
ĠPe pper
Ġpea ches
Ġskin care
Ġrev ealed
Ġwar p
Ġstri kes
Ġbur gl
Ġsprink lers
cha ses
Ġenc oun
ĠSc ot
Ġaut obi
Ġuns olved
ĠEx press
Ġemb ark
Ġcri cket
Ġbeha ves
Ġforce ful
Ġdevelo ps
Ġfil ms
Ġblood root
Ġpad dling
bu ried
Ġbank er
Ġchat ter
Ġvers us
ĠCh oose
Ġsew ed
Ġsepar ating
Ġgun powder
check ing
Ġcourt room
Ġfri zz
Ġident ifying
Ġemer ge
Ġfest ivals
Ġda zzling
Ġauthor ities
Ġcraw ls
Ġbroad cast
inter rupting
Ġsting y
Fin ishes
Ġfashion able
Ġtournam ents
Ġpal p
Ġcondition ing
oots y
ĠRock et
Ġnarr ate
Ġthie ve
Ġcandle light
Ġfer n
amm ers
put ting
Ġtumb led
Ġload s
Ġhosp itals
bet h
Ġcoast ers
Ġacid ic
Ġgain ing
Ġvibr ates
Ġlazy bones
Ġmast ers
Ġacrob atic
Ġpec an
Ġgeomet rical
Ġdodge ball
ĠPar is
Ġunh ook
iac al
Ġquant um
Ġantib odies
ĠDes pite
Ġpassen ger
Ġcliff s
ĠVe ggies
ĠHum ans
Ġsupers ize
ĠCray on
Ġanx iety
cond uct
Ġoutn umber
Ġphotograph s
Ġreson ate
Ġhierogly phs
Ġsling shot
Gr ass
Ġcandid ate
Ġcobb ler
Ġincub ator
Ġsummar ize
amil iar
Fore st
Ġvigorous ly
Ġcathed ral
Ġintellect ual
Ġinvit ations
Ġtob acco
A S
A b
B ucket
C ean
D ay
I I
L ellow
W ite
W inning
W hich
b ang
c ine
e ges
f our
f angled
h its
o col
s earch
s ips
t wo
u gh
Ġs ift
it led
it ties
nd airy
Ġb ison
Ġb ailed
Ġb abysitting
ha zard
Ġc ycles
Ġf ighters
Ġm alf
Ġd ual
Ġp int
Ġn ook
Ġwe an
le ng
ĠS mell
Ġha voc
ar ate
ar ity
ar rel
ot hy
Ġhe e
Ġi ma
Ġst ap
Ġfor cing
Ġre work
Ġre lent
Ġh ing
Ġdo om
Ġdo ze
ab ra
ri ages
ys ics
ĠB i
ĠB ible
ĠB less
al ib
ĠL as
ĠL ars
ĠN ail
ĠN ept
ĠC or
ĠC aterpill
ĠAnd erson
ĠM ister
ĠM od
Ġout rage
ĠG a
one l
Ġwor my
omet ers
lo pe
qu est
be an
be ans
be ls
Ġco il
uck oo
uck led
im eters
Ġus age
Ġsha ck
Ġno sy
act ion
Ġsc ree
Ġhand off
Ġread able
Ġar rog
Ġbr ook
Ġbr ide
Ġdra stic
Ġwater bed
Ġwater wheel
Ġv inyl
Ġcom memor
ĠJ ar
Ġover load
Ġnew found
Ġro amed
oy ed
ol ate
Ġmo pping
ĠF ace
Ġstu mbles
Ġstr ongh
Ġsl ash
os cop
Ġtw ins
Ġtri mming
ract ical
Ġres ha
up set
Ġkid na
ict a
Ġflow ed
Ġaw ait
Ġfo cal
Ġdis adv
Ġgra ze
Ġch ron
Ġcomp lement
Ġcomp rehen
Ġbea vers
int ry
ĠBe an
Ġdri ps
Ġmon ument
Ġmus cular
Ġpot ent
bo iled
fin ing
Ġear thy
Ġsur render
Ġfire proof
Ġjack rabb
ĠSp y
set tles
Ġho log
Ġext r
br id
br rr
Ġbeaut ify
uff ling
Ġdet ach
Ġextra vag
Ġban ging
sp in
sp ot
Ġper forms
ident ally
Ġegg plant
Ġam used
gr udgingly
Ġcons erving
Ġref ight
Ġdist ingu
Ġenv y
Ġcamp ers
Ġtrick ing
Ġtough ness
Ġdrop kick
Ġfing ert
Ġglo ss
Ġcur ves
itch ing
Ġcorn stalk
Ġfut uristic
Ġsub way
log ic
Ġquack ing
Ġwings pan
Ġeye ing
Ġfas c
sw ish
Ġtext ures
Ġev olving
Ġrev ise
Ġreact ing
ĠBlue y
Ġperform ed
Ġrad ios
Ġvac cin
Ġfeather y
iter ally
Ġtemp t
Ġcross word
Ġmistake n
Ġstud io
Ġpressure d
ĠJump y
Ġadjust ed
ĠPre s
Ġunc ooked
Ġemb ed
ĠAt t
Ġcri ckets
ĠCha r
ĠMiss ion
rod uce
Ġreward ed
Ġinfl amm
ĠBl ankie
Co ffee
Ġnob ility
Ġbeep ing
Ġanal og
ĠNap kin
bu y
ĠGreen y
Ġhesit ated
Ġstrateg ize
Ġprop ort
Ġdev oted
Ġadject ives
Ġnutri ent
Ġunw ire
Ġcab bage
Ġgri eve
olog ue
Ġsubst ant
Ġmer c
Ġdemonstr ating
Ġsus pens
not ices
ustain able
Ġ4 00
Ġframe work
Ġvict im
Ġexpert ise
Ġclaim ing
erg art
mar ish
rave ling
Ġbang tail
Ġunl atch
kn ife
Ġflu oride
Ġgain ed
Think ing
Ġleng then
Ġoutl ive
hell ed
Ġest imate
Ġadop ted
Ġtempor arily
Ġfundra ising
Ġmultiply ing
Ġsubt otal
top ic
stit ute
stit ious
Ġouter wear
tra ining
Ant s
Ġovers ized
Ġovers impl
Ġax is
Ġdeg ree
cop ter
Ġcoord inate
ĠBrave beard
Ġdefin es
Ġexcl usive
Ġcateg orize
ĠRab bits
Ġexperien cing
ĠLED s
Ġdomin oes
Egg s
Ġbuff et
ogen ic
Ġunreal istic
Ġgobl ins
Ġneutral ize
Ġdiff er
Ġannounce ment
Ġjerse ys
ĠBasket ball
Ġkay aking
Ġreti re
ĠFork s
ĠCam era
Ġnumb skull
Ġpatri otic
ĠMill er
Ġpregn ancy
Ġtet her
Ġcanoe ing
Ġspons or
Ġunderestim ated
Bub ble
Ġelectroc uted
Ġcob we
Ġestab lished
ĠJew ish
osc ope
Ġstead ily
Ġdisor dered
Ġswir ling
Ġwhir lp
Cray on
stret ches
Hung wy
Ġchrist en
ĠCa esar
Ġcul inary
Ġsubmer ge
Ġcrocod ile
Ġdeod orant
Ġorchi d
Ġchow der
resist ant
Ġcommend able
Ġillum inate
somet hing
Ġmarac a
Ġingen uity
Ġcocon ut
Ġeaster n
Ġaccord ion
Ġcircumst ances
Ġnach os
ĠDV D
Ġima gery
ĠLars on
ĠNept une
oscop ic
8 0
B in
B ake
B abysit
C al
C omp
D ec
E l
F loor
J ake
K n
K ite
N um
P eng
P asta
R ep
S et
a ids
a imed
b ing
b ie
f ine
h on
j acks
l amp
l ined
l ists
l asm
m eter
n ine
t ent
t elling
t lers
u et
v ial
w ave
w ashed
x ious
Ġa mate
in ny
in ked
in cess
Ġs omers
it ime
Ġb ind
Ġb ung
ha lt
Ġc ues
Ġc rop
Ġf abled
Ġm alted
Ġm artial
Ġl agging
or ary
Ġg ains
Ġg rove
es ent
om ercial
ay ed
Ġha lt
ar cha
ar oni
Ġcan not
id ity
Ġj ab
ir ly
ir ting
Ġpl um
Ġr ushes
al anced
ĠH ush
ĠH ens
ĠH eaby
Ġgo sh
ust ible
ĠC reat
ĠC atholic
Ġk arting
Ġne uro
pp ery
Ġti ppy
ur ities
ĠM or
ĠHe h
Ġsp ooked
ĠD ing
ĠG ama
hank ful
Ġat las
Ne ver
ater restrial
est one
ec d
Ġno is
Ġsc oot
Ġsc rolling
ge ant
Ġcl amp
ĠSo ld
ff od
... ?"
Ġunder line
Ġover see
Ġsm ack
Ġbl ister
Ġra cet
Ġmu le
Ġpe g
Ġsleep less
Ġhu b
Ġun bury
Ġsl ick
Ġgr in
Ġtalk ative
Ġman ly
Ġset backs
ne um
na v
Ġle v
Ġspecial ized
Ġde formed
Ġse g
Ġwalk ie
Ġpu ke
Ġdis rupts
Ġmess aging
Ġgreen est
eak y
Ġch ugging
Ġrest rain
ĠTh ough
Ġmon ologue
Ġrec reat
oup e
Ġhat es
Ġmor bid
more d
Ġfire work
iv isible
Ġext ras
Ġrel uct
raw ny
Ġpop ulate
So da
Ġmust ache
br other
ĠRight s
Ġru ff
Ġbal es
rib ute
Ġper ch
Ġper ception
ffect ive
ber t
Ġinv al
Ġcompl et
Ġpri zewinning
Ġtrouble maker
oun ces
Ġheart broken
Ġret reat
Ġreg al
Ġbar ley
Ġstea ms
ĠAn cient
com p
sc oops
Ġpea chy
Ġev olves
Ġpoor ly
Ġind ex
Ġhealth care
Ġgoal keeper
Ġspr inting
Ġheat hen
Ġimpact ed
Ġuns upervised
Ġchalk board
Ġreason ing
Ġastron omers
che st
Ġlan terns
cell aneous
Ġvacuum ing
Ġnon violent
Ġcommit ting
Ġinf ielder
Ġblo bby
Ġvar ies
Ġdeb t
run ken
An kle
Ġabs olute
Ġtor ch
ĠSun screen
Ġconst itution
Ġgre m
Ġfra gr
ĠSkate boarding
not ch
Ġ4 0
Ġ4 5
Ġda is
Ġwad dling
Ġgrad ed
Ex tra
Ġinvest ig
Ġthro bbing
ĠAmeric ans
ĠMo ist
ĠMo dern
App uh
Ġcustom ize
Ġblast off
bal ance
Ġwarning s
lin er
Ġreput able
Pret end
ĠGu ard
Ġreass ess
ĠKn ife
Ġgap ing
Ġsociet al
Ġhypot hal
cont rol
Ġtransfer red
Ġreco llect
Fro gs
Ġvent ri
ĠMag n
Ġranger s
Care fully
Ġcateg ory
bur g
Ġrepack age
Ġstab ilize
Ġunlo cked
Ġtil ts
Ġheaven ly
Ġinno cence
Ġgur gling
Ġclim ax
ĠHelicop ters
Ġstair case
Ġves sel
Ġpiv otal
Ġmultitas king
Ġastro logy
Fire man
Ġglac ier
Em ily
ĠCommun ication
Ġcompassion ate
ĠSim ilar
Ġassass ination
ĠElectric ity
Ġunatt ended
Ġalt itude
Ġleop ard
Ġguarant ee
ĠWoo lly
Ġdatab ase
Ġpsycho logy
Ġtourist s
Ġtheore tical
Ġphosp hor
ona ise
Ġfron tier
Ġpersuas ive
hab ilit
Ġklut zy
ĠFlor ida
Ġpestic ides
ĠDere k
Adven cha
Ġquizz es
Ġwides pread
Ġterr arium
Ġencoun ters
Ġracet rack
B et
C ir
C alm
G as
H ee
H ush
I S
K nee
M ath
M uddy
R ubs
S ub
T aking
T ooth
T aylor
Y ear
a unch
b acked
c hill
d i
d one
e vable
f ers
f ession
m imes
y awning
Ġt apped
he l
Ġa pes
ou f
in ant
in ction
Ġw imp
Ġw intry
re x
it imate
it aire
Ġf eline
Ġm ates
Ġg ibberish
Ġn imble
st o
st aff
at ivity
Ġo asis
ĠT ee
ĠT ric
ad abra
se cut
Ġli vest
out hy
Ġre locate
Ġh ints
Ġh obble
ir y
ant ry
Ġr idge
ext ends
ĠN oooo
ĠO cean
Ġan ecd
ur ge
ic ular
ic idal
Ġsp ines
ie ve
Ġkn ick
ĠG aming
ul se
ul ge
omet own
qu ent
Ġsw itches
Ġclean ers
ĠP ease
Ġpro ved
ort ic
Ġsha ken
ard ed
ard ust
Ġback board
Ġpre st
ĠR oo
Ġbr ood
Ġv amp
Ġsound track
Ġen rich
Ġover nighter
Ġnew born
Ġsm ugg
ĠDo lphins
ol id
Ġwhi rl
Ġlot tery
Ġche ep
Ġstr angle
Ġun musical
ĠSee ing
Ġsl ushy
ac eable
Ġher m
Ġred raw
ti a
ti ed
Ġle vers
rink ler
Ġde forestation
Ġgen res
ave lin
Ġdec ipher
Ġpain less
ved ig
Ġsand ing
Ġsand als
Ġfe isty
Ġbad ges
Ġpaper clip
Ġthought fully
rel igious
Ġfr uity
ĠSt ri
Ġrock y
Ġrec urring
alt ies
St art
Ġcount able
Ġdad dies
Ġear less
Ġmov able
Ġext ent
Ġpass ive
Ġexp ose
ase ment
Ġtest ament
Ġhair s
Ġhair less
Ġmed als
ĠTeddy bear
Ġcor rel
Ġpol ka
Ġpol onaise
Ġinter pre
Ġleg ally
Ġjell ied
Ġty po
Ġelect rici
Ġglo b
Ġawake n
Ġdr oop
crib ed
Ġinc oming
ony ms
Ġtooth less
Ġtooth brushes
Ġrob ins
Ġbirthday s
Ġprom pt
Ġscr uffy
Ġunf amiliar
Ġstri king
Ġmis in
Ġmis matched
Ġsalt ed
Ġtrans cend
Ġplent iful
Ġmotor ized
wo lf
Ġobs erved
Ġund ock
Be es
att ish
Ġtalent less
val uate
Ġtray s
whe els
Ġtechno logical
res pond
Ġunp ick
ĠSqu eeze
Ġsubject ive
Ġdea ctiv
Ġself less
Ġseason al
Che ck
amb our
Ġrefriger ate
Ġpatch y
Every thing
Ġcryst all
Ġcalcul ated
ĠPro hibition
Ġlimit less
Ġcivil ians
Ġbroad en
mar ry
Ġdiss olves
Ġhandy man
Ġske w
Ġtit les
ĠCount ries
Ġtrend y
Ġtrend set
Ġexcept ional
Ġdug out
Ġswamp s
Ġrece iver
Ġcong ress
ĠHear t
Ch urch
Ġasse mble
Ġclar inet
Ġcosm os
ĠEnd ed
ĠLeg end
ĠJo an
Ġnoble man
Ġunders ea
Ġinha bit
Ġax e
Ġlun ge
Ġcock pit
Ġlin ked
Ġskyd ive
Ġschol ar
Ġarrang ing
ĠðŁ ĺ
Ġhover craft
Ġcateg ories
Ġmoisturi zer
ĠSec ond
Ġrecycl ables
Cloud s
Ġenzy me
Ġcollaps ed
mis phere
Crack ers
Ġgur gle
Ġscamp er
Ġdelay ed
Ġphon ograph
Ġvenom ous
Ġcel estial
Ġguilt less
Ġcapti vating
umpt ion
omin able
Ġintest ines
Ġtomb s
Ġblond e
Ġsynt hetic
Ġfolk lore
ĠBase ment
Ġunac ceptable
Ġtriump h
Ġvandal ism
Ġheli um
Pir ates
hunt ing
Ġchari ot
ĠSpec ial
Ġgorge ous
Wood s
Ġbodys urfing
Ġweld ing
Ġscorp ion
Ġgrouch y
reep y
Ġsop histicated
Ġnotep ad
Ġunreason able
Ġchal ky
Ġaphi ds
Ġsheepher der
ĠScot land
B ic
B urger
B ingo
C ay
C rib
F ree
M is
M ag
S aw
T ri
U se
W atches
c ision
c ocks
d ressed
g as
g ather
g inal
i ral
l ind
l oose
m eat
n x
n able
p aying
r an
s kin
v ory
w hy
w ho
Ġt ambour
Ġw ease
Ġw omb
Ġb ingo
ĠI ll
ĠI mm
Ġm arm
Ġl acking
Ġl ukewarm
or c
or ked
Ġd ys
Ġp iss
et rate
es ame
es ium
om ize
ig e
ig ible
ed ed
ed ge
ĠS even
se um
Ġli ds
Ġin so
ra ising
Ġre bury
Ġre bels
Ġh ush
ri ves
Ġpl atter
Ġpl aque
Ġme llow
ĠC ur
ĠC alling
Ġk arate
Ġup front
Ġan est
ic it
ĠM al
Ġtime out
Ġsa ggy
mb iotic
Ġwh ining
op ia
Ġsw an
Ġal together
ĠP ost
ĠP ets
im er
Ġpro spect
Ġbu rial
Ġpre med
Ġcar b
Ġcar av
Ġhand ker
Ġqu ills
Ġqu arrel
ĠR ad
Ġbr ig
Ġwater sp
Ġcl ipp
Ġint oler
Ġtre k
Ġeven ings
Ġro gue
ĠDo ggie
ĠF old
Ġdi als
Ġdi ps
Ġdi pped
ject ory
Ġkind ergart
Ġhar p
ffe ur
Ġbook let
Ġid i
Ġun gr
Ġun har
Ġun zip
Ġun matched
ract ion
Ġtea chable
Ġres olves
utor y
Ġpr aying
Ġbed ding
Ġcolor less
Ġde eds
Ġpu d
Ġdis astrous
Ġunt hankful
Ġgra vedig
Ġcho pped
Ġz ippered
Ġsnow boarding
Ġquick sand
Ġrec order
Ġglad iator
ĠV ict
mag ic
St airs
Ġsol itary
Ġones elf
pe ck
Ġatt aching
Ġfloor board
iv ided
Ġmoon less
raw l
Ġtight ening
po ons
Ġru ling
Ġsy mmet
Ġfarm land
Ġrep aired
Ġban ned
Ġweird er
Ġper mit
anger ine
Ġemp at
izz ard
Ġfield strip
fly ing
ord inated
rac adabra
Ġevent ful
Ġheart felt
Ġcorn c
ian nual
Ġstea ming
Ġins ign
Ġins ensitive
Ġlemon y
iter ate
Ġhate ful
Ġfant asize
ĠAr c
Ġsled s
Ġeduc ating
Ġdish washing
gen cy
rill ed
Ġveget ation
Ġscore less
ĠJoh n
Ġpoll uted
Ġsock less
Ġ3 50
li ver
Ġmay onnaise
Ġstring y
Ġfinger prints
Ġaud itions
erson al
Ġteen y
Ġcent imeters
Ġearth worms
run o
Ġapproach ing
An imal
Ġmyst ical
ĠCo los
tern ational
Ġspring y
Ġcarp entry
ĠGar age
Ġunb alance
Ġunw illing
ĠLight s
chan ger
Ġvolunt eered
med iate
Ġattack ers
Ġfund ing
Ġsil hou
Ġfreed oms
ĠBack yard
Ġloc ust
Ġdiss olved
Ġprank ster
Ġoverp op
Ġentertain ed
pull ing
Back yard
Ġtables poon
En ters
Ġtwink ly
ĠDi apers
Ġsteep le
squ eezes
Ġsnows uits
free ze
Ġdepend able
Ġmac aroni
Ġ19 20
Ġpra ir
Ġweigh s
Ġcolon ize
Ġsen ator
Ġtoug hen
Ġoo ze
Ġlip stick
Ġblind fold
Ġsurprising ly
Ġpear ly
Ġbru ises
Ġtoot hy
Ġfigur atively
Ġrecomm ended
Air pane
Ġsuck le
struct ure
ĠPri or
Ġexec ution
Ġtablecloth s
Ġvocal ize
Ġbackst age
Ġadmin ister
Ġstrain er
Ġveter inary
ĠMust ang
ĠVe get
Ġhitchhi king
Ġharmon ica
atis fact
Ġnightm ares
Ġcycl ist
irection al
Ġdefl ate
cript ion
Ġestab lish
Team work
Ġfemin ine
Ġlimp ing
Ġprivile ges
Lo lli
Ġamm o
Ġank les
Ġresear ched
Ġeter nity
Ġtink ering
ĠSol ving
Ġcriss cross
Ġportra it
Ġassert ive
Ġporcup ine
Ġunmas k
ĠVel cro
Ġutens ils
Ġideolog ies
Ġhieroglyphic s
Ġuncons cious
Ġnicke l
Ġsnowp low
Ġstrongh old
ĠSold iers
Ġdais ies
Ġmisin formation
Ġhandker chief
ĠColos seum
B aw
C oo
C hange
C leen
D ing
E ars
H aunted
H ungy
T ail
a vers
b est
b ands
c iting
d umps
e ology
f un
f irm
f eeling
g hetti
h p
h ush
i atory
l ip
m imicking
o cal
s uper
t ul
t ruck
t owel
w ax
Ġ utter
Ġt angle
Ġt aunt
ou g
Ġw ands
Ġs lew
Ġs assy
Ġs izzle
Ġb art
ha ki
Ġc uff
Ġy og
Ġf rying
Ġ" [
Ġm and
Ġm ute
Ġl acked
Ġl ounge
Ġd ee
Ġp eal
Ġp asketti
ll ing
Ġg ay
Ġn ylon
st acks
at ri
at chable
ĠT ongue
ĠS hi
ĠS en
ar ound
as ha
ot ional
igh ing
ĠW ise
ĠW ars
ĠW hoo
ĠW orse
Ġst ag
Ġst unning
Ġin sec
out ing
ra ps
Ġre hyd
Ġre occ
Ġh ometown
ab by
ri sm
Ġpl y
Ġpl eated
ĠB oop
al ot
Ġab d
ĠH onk
ĠL ance
ĠL awson
ĠL ucy
Ġso y
Ġme ga
ly mouthed
Ġk leenex
Ġup beat
Ġplay lists
ro cket
our ning
Ġdon ated
ur d
ic he
ic ip
ĠM other
ĠM ilo
Ġsp erm
Ġsa m
Ġstor ing
lo de
lo phone
Ġhi red
Ġal ike
Ġfun nel
ĠP ay
ĠP ip
ĠP rop
ob ia
Ġex ists
Ġcar wash
um ul
Ġar mored
Ġcl ack
Ġcl apper
Ġtake away
Ġshow off
Ġen for
Ġtre llis
Ġfa x
Ġover run
Ġro asting
Ġhis sing
Ġcon ve
leep ing
ĠF as
vent ional
Ġmu cus
ĠPl ane
ho ck
Ġpe w
Ġwhi pped
Ġsl ate
Ġgr ate
Ġgr ants
Ġhas h
Ġpick up
Ġapp o
Ġtri mmer
Ġbuild up
Ġres eat
ac ulate
Ġever green
Ġown ing
Ġfl irting
Ġtra um
Ġnight marish
Ġblue bell
Ġse ism
Ġcr iter
Ġcold est
Ġsqu ashy
Ġbra ces
bb er
Ġunt amed
Ġgreen ery
ĠSt re
Ġmon arc
Ġrec all
Ġspl its
Ġpen gin
Ġhat ched
St ack
Ġmor onic
Ġsol itaire
cl ink
Ġdes ires
Ġear drum
Ġear plugs
ĠIn s
Ġspot ty
pe ed
Ġheav ily
Ġdoor step
Ġdog fish
Ġext ending
Ġweek ly
Ġexp ansion
Ġru ffle
og ram
Ġhor rifying
Ġclothes line
Ġrep h
ention al
Ġrespect s
ouble d
anger ous
Ġinv ites
to xic
Ġnoise less
Ġcompl icate
Ġed gy
Ġpur blind
Ġcu bs
lew eed
Ġmar itime
cept ions
Ġdr ooping
Ġcorn field
Ġround ed
Ġround table
cal yp
ĠAn kle
Ġheal er
ĠChe ers
vo id
Ġrobot ic
Ġsched uled
Ġmis gu
Ġspin al
Ġtrans itions
Ġspr ite
Ġspr inter
Ġsurv ivor
Ġansw ered
Ġund etect
Ġcommon ers
Ġcoun ters
ĠEx per
Ġwave leng
sha ft
Ġpor ridge
Ġemb ry
Ġtong s
Ġoverhe ated
Ġcri minals
Ġsymbol izes
Ġrepl ay
Ġrepl icate
Ġcent rif
Ġjew eled
cra cks
Ġmat ador
Ġcol umn
Ġwing less
Ġembarrass ment
ĠFr uits
Ġdiv iding
Ġattract s
Ġrust le
Ġunb alanced
ĠCh op
Ġaim ed
Ġtruth ful
Ġmult ic
Somet hing
Ġeconom ies
Ġver bal
ĠBo ys
Ġthunder cloud
Ġthin ner
ĠDa ffy
Ġcust od
Ġsil ic
ĠAnt arctic
cr umbs
Ġdiet ary
App a
Ġsting ing
Ġtrop hies
mar ried
Ġexhi bits
ĠDis cipline
Ġcandle lit
Ġamb ass
Ġamb ition
Ġchick ie
Ġpitch ing
Back pack
Ġcomfort ing
Ġhighlight s
ĠHehe he
Ġflight less
Ġnu ances
Ġoutsm arting
lead s
Ġtact ic
Ġraind rop
Ġwobble d
Ġrecover ing
Ġ9 0
char ge
Ġautom otive
Ġreass uring
ĠPol ar
arch s
Ġgap es
Ġuncl ear
Ġisol ated
Ġecho ed
ĠFeed ing
ĠCrunch y
ĠPot atoes
Ġhoriz ontal
Ġexha usting
Ġremo ves
Ġskyd iver
Ġtiptoe ing
ĠHy p
Ġnons moking
Ġsund ial
Ġreun ite
Ġcircul atory
Ġcou gar
Ġdorm ouse
Ġunlo vable
acc identally
Ġadvert ising
Ġsaxoph onist
ĠPh one
Elephant s
Ġtherm os
Ġted ious
Ġhuff y
Ġgaz elle
Ġlic orice
Ġnumer ic
Ġvoy ages
Ġgrat itude
ĠDep ression
Ġoverc ooked
Ġunexpl ained
drink s
Ġpubl ished
Ġstereoty pes
ĠSide walk
Ġoblig ations
Ġoverr ule
Ġengra ving
Ġmathemat ical
unci ation
Ġpinec one
Shar p
Ġstrang est
ĠNib bles
Ġreceip t
Ġdoork nob
Ġvom it
Ġthi mble
Ġcontrad ict
Ġeyep iece
fession al
Ġclipp ings
* ."
4 0
A M
B y
B erry
C alling
L ist
L ady
N ail
N ature
O ink
R eal
R ooster
S ir
T oot
T og
V anilla
Y eyow
b olt
d eep
f ry
f ol
f ives
h ops
j acket
l antic
p ins
r ates
t ri
t ys
t ly
t ho
t ails
t ickle
u ddles
v ine
w ong
w iping
z els
Ġ âĢĶ
Ġ ought
Ġt int
Ġt amed
he ast
in is
in ative
Ġw reak
it ative
Ġb icker
er us
Ġc ello
Ġc unning
an ies
Ġm ales
Ġm outhy
Ġp itter
Ġp ane
Ġn ur
Ġn arciss
ig inal
Ġo sm
ĠT ractors
Ġhe ll
Ġhe el
ĠW aves
Ġst oop
Ġst alls
ra ise
ĠY o
Ġre bu
Ġre name
ex pl
Ġh unch
Ġj inx
Ġr ation
Ġr ascal
ĠB runo
ĠH ook
ĠL atin
un c
ĠC hick
ĠC uri
Ġk ib
Ġk ale
ĠYou ng
Ġnot ify
tle d
Ġsh uck
ass es
ĠD ra
ĠD em
ess ive
fe eding
Ġhi ked
rom antic
be wwy
am ma
uck er
Ġpre set
Ġcar riage
Ġsc issor
Ġke en
Ġhand rail
ĠR ot
Ġdra gged
Ġcl ink
ven e
ven ging
Ġimp ol
ĠSo cial
Ġshow y
Ġunder arm
Ġunder dog
Ġover joy
Ġover achiever
Ġover take
ol et
ĠF ertil
Ġdi pping
Ġra king
Ġsuper stitious
ĠPl ace
ous in
Ġun ident
Ġun pack
Ġcour ses
Ġsl it
Ġapp rent
Ġres ume
Ġman ually
Ġfix able
Ġfl ourish
Ġtra pping
Ġtra pe
Ġtra jectory
Ġplan ter
eep ing
Ġde ed
Ġgl azed
Ġgl eaming
Ġdec rypt
Ġdis o
Ġdis reg
Ġdis pense
Ġunt rained
Ġhot dog
Ġopen er
Ġbea ten
ail ability
Ġenjoy ment
ĠK itties
Ġhead band
Ġhop es
Ġfro sty
ci le
mag es
Ġsing ular
ix ed
Ġsweet ies
Ġlife like
Ġho ss
Ġho edown
Ġpop gun
Ġprot ocol
Ġchild proof
Ġmad ness
po pping
Ġmust ached
Ġrem edy
Ġru gged
Ġser pent
fl ake
Ġdanc eable
âĢĶ '
Ġrep eats
Ġbutt ocks
Ġrespect able
Ġweird ly
Ġper cent
Ġper imeter
ond ria
Ġant iques
Ġhorse man
Ġinv ading
Ġhair y
no isy
Ġappreci ative
Ġbread crumbs
Ġinter sect
Ġinter rupted
Ġshar per
ĠSam mich
Ġdeep en
Ġcur ses
Ġpar ab
Ġcorn rows
Ġform ally
Ġequ iv
Ġmud pack
com mun
ĠCl ear
Ġadv ocate
ĠChe m
Ġhon oring
Ġmemor ial
sc ill
Ġtail or
Ġcollect ible
Ġdep ths
Ġdep osit
Ġins ides
Ġscare dy
Ġap ric
Ġcontin ent
Ġbur rows
Ġbur ping
Ġmis judge
Ġknee l
Ġind irect
Ġdirect ional
Ġavo ided
Ġtemp ted
ĠAs king
Ġrule book
Ġchem ist
Ġnest ing
licop ter
Ġuns poken
Ġastron omer
Ġdust er
ĠEx t
Ġlan es
Ġsat ir
Ġadjust s
vi or
vi ate
Ġpoll inating
Ġunc han
Ġsim ulation
ital ize
Ġbelt less
Ġkingdom s
ĠSm iles
Ġunex p
Ġblood stream
Sc ary
Ġpositive ly
Ġmat ched
Ġcop ier
Ġunexpected ly
Ġmas ked
Ġdev iled
Ġpres ervation
Ġchat ty
onom ic
Ġconcent rating
Ġdrum ming
Che ek
Ġships hape
Ġpredict ed
Ġpredict ion
Ġgrabb er
Po inting
Ġdoub ting
ĠGet tys
Ġfund ament
Ġmer ciful
pot ato
Ġbeak er
ĠMar vel
Ġstink s
Ġpant y
Ġbone less
fill ed
Ġlands lide
Ġshad ed
Hand ing
ĠFair ness
Ġspo ken
Ġdisplay ed
la very
Ġmut ation
Ġsequ ined
Ġexist ence
Ġhorn ed
ĠStick ers
Ġtumb leweed
Ġ8 00
oc ious
Ġirr itable
lev ance
Ġtender ize
Ġdun es
Ġchee ky
Ġdim mer
Ġvirt ue
ĠDe b
ĠApp o
Ġecho location
Ġfrequ encies
Ġhumid ifier
Ġtin iest
Ġalphabet ize
Ġoverd ue
Ġmant is
Ġgymn astic
Ġexec ute
pass es
Ġupper most
Ġbarrel s
ĠCom fy
oty pe
Ġchamber s
Ġcopper plate
Ġdandel ions
Ġlob ster
Ġphon etic
Ġclim ates
Ġmoth s
Ġig u
Ġig loo
Ze bra
ĠCong ress
Ġmaxim um
Ġincorrect ly
Ġfidget y
Ġpion eer
Ġscenar ios
Ġgallop ing
Ġchocol ates
Ġpi Ã±
Ġgrace fully
Ġdisor ient
Ġcorro sion
Ġshr ine
Ġunth reatening
Ġger b
Ġnurt uring
Ġfanc ier
Ġornam ental
ĠVol unt
Ġalgorith m
Ġdign ity
Ġferry boat
Ġtaill ess
ĠGree ce
ĠStudy ing
ĠLea ving
Ġattain able
Ġiceber g
Ġtoken s
ĠGent oo
Ġdus k
ĠTH IS
Ġcance led
Ġdens er
Ġlub ric
Ġburrit o
Ġreawake n
ĠHawa ii
search ing
Ġmalf unction
Ġhing es
Ġlivest ock
Ġtambour ine
Ġgravedig ger
Ġreph rase
calyp se
Ġoverjoy ed
ĠGettys burg
9 0
B ush
B ottle
D ip
F ends
H ides
H onk
M ark
M ix
M outh
S y
Y eehaw
b uck
b aby
b asket
c ounter
d ict
d ancing
g ee
g ivable
i at
l ins
m om
v ast
w art
Ġ =
** ):
Ġt amp
ou ns
Ġw oven
re y
hi est
Ġb ick
Ġb awk
Ġb ailing
Ġb orders
Ġc uckoo
Ġy ap
an za
Ġf ec
Ġf wiends
Ġm eek
Ġl on
or ated
or ations
Ġd angle
Ġp le
Ġp ics
Ġg ills
st ery
st omp
ut her
le pt
Ġo int
ĠT ow
ĠT ut
ĠS na
ĠS em
ar ad
ar ag
Ġcan on
Ġi vory
Ġin ver
Ġin ky
Ġre fined
Ġre levance
ex press
Ġj iggled
Ġj avelin
ĠA bs
ĠA lphabet
Ġr ancid
ĠB ow
ĠH ooray
ĠL iving
ĠL eaf
Ġme me
Ġme mes
Ġe ww
ĠN ort
ĠC han
ic ill
ĠM el
ĠHe lmet
Ġsp acious
ĠD ish
ĠD iss
Ġout age
Ġsa ppy
Ġkn uckle
ĠG iggles
ĠG iant
Ġsome what
ul u
bor ne
Ġwor thy
lo getic
Ġhi ck
qu ish
ain ty
Ġas y
am om
est ing
Ġco d
Ġco ex
Ġco ag
Ġco efficient
im me
im ens
ort ex
ĠE nt
ĠE ither
Ġcar riages
Ġsc uff
Ġcl unk
Ġtre eless
Ġbear like
hy l
ol ished
ol umines
ĠF ancy
Ġra ll
Ġsuper int
Ġsuper nov
Ġstu mbling
Ġblock age
Ġfi zzle
Ġpo ds
Ġun ob
Ġun appro
Ġun used
Ġun related
Ġgr it
Ġapp arently
Ġcook er
ract ive
ac hi
arm ed
Ġbird bath
Ġbird houses
th ouse
ment ed
ti re
Ġfl icker
Ġdis pl
Ġdis believe
Ġchi kin
cus ed
Ġcomp ress
Ġhead ed
Ġri chest
Ġdri ven
Ġstop watch
Ġbutter y
Ġcheck er
Ġcheck out
alt ry
Ġpot assium
Ġcat nip
Ġlo an
Ġbath mat
gu es
Ġlife line
Ġless en
Ġfire arm
Ġdoor way
Ġrel ative
Ġpat ched
Ġweek day
Ġhang ar
Ġrem ake
Ġru led
Ġru dder
Ġboo p
Ġ2 5
Ġbat hing
Ġemp ress
Ġrabb et
Ġstre w
Ġbump er
no xious
Ġappreci ates
Ġdress maker
Ġref uel
Ġhour glass
Ġsimp licity
oun cing
Ġmar ion
Ġeng rossed
Ġtast eless
cal cul
Ġdesign ated
ĠCar n
Ġhum ane
Ġbottom less
yc led
box es
Ġpay check
Ġcere br
ĠChe ek
sw ing
Ġsal v
Ġcollect ors
Ġplanet arium
Ġtun er
Ġdep ressing
Ġwat cher
Ġmedic inal
Ġsprink led
Ġenc lose
Ġappro ved
Ġshi very
net t
Ġpeace maker
Ġaut ographed
ĠLast ly
Ġund ress
Ġund ivided
Ġadjust ment
li ament
Ġvalu ed
Ġinf omercial
Ġscra mbling
Ġrubb ery
Ġimm o
Ġimm ob
Ġimm ature
Ġdeb ater
Ġrepresent ing
Ġearn ing
Ġtemper amental
ĠNap kins
ĠCo coa
Ġtor t
Ġunp rep
Ġunb uckled
Ġmagnet ism
ĠMon sters
Ġinteract ing
Ġunst ring
Ġoriginal ity
Ġspong y
rack ing
Ġord eal
Ġsteal thy
ĠMar co
Ġincre ased
une iform
ĠPo llen
Ġloc ations
Ex p
Ġinvest ing
Ġinvest igation
Ġrum maging
Ġaddress ing
Ġintrod ucing
erg ic
Ġoper ating
Fin ally
Ġlect uring
jo ins
Ġfat ten
Ġrepair ing
Ġanaly tical
Ġfer ns
Ġcrust y
Ġrehears ing
ĠSl iding
Ġgod like
Ġgod father
Ġrefer red
ĠComp anies
Ġprotest ing
sec ret
Ch in
rat ulations
ĠCol ors
Ġreass ure
Ġcann ib
Ġglor ious
Ġpec ked
Ġsculpt or
Ġcentip edes
Ġparach utes
Ġunh itch
Ġbeast ly
Ġaf ar
ckey ed
Ġproceed s
Ġgig antic
Ġgenuine ly
Ġbetray ed
Ġdupl icator
Panc akes
Ġcrot che
Ġveter in
Ġcens or
Ġbulldo ze
Ġregard ing
Ġtransl ator
Ġgroo vy
Ġcentaur s
Ġgaz elles
Ġhandc uffs
Ġovershadow ed
Ġalg inate
Ġpatri ot
Ġbless ing
Ġrevol utions
Ġlaun ched
ooper ative
Ġaggra vate
Ġvend or
Ġsandbag s
Ġcoward ly
Ġyak s
Ġpomp ons
Ġimper ial
Ġretal iate
infl ated
Float ies
Ġaerodynam ic
Ġsolder ing
ĠRespons ibility
Ġcongrat ulate
Ġmetabol ism
ĠSail ors
Ġratt ling
Cam era
Ġrins ing
ĠButt ah
Ġwatercol ors
Toof brush
Ġfen cing
Ġdimp led
Ġannoun cer
Ġmete ors
Ġbloss oms
Ġaston ishing
ĠPaw paw
Ġheadqu arters
prep ared
Ġinfra structure
Ġrelent less
Ġarrog ant
Ġwhirlp ool
Bic ycle
Ġpud gy
Tog eder
ĠpiÃ± ata
Ġsuperint endent
Ġunprep ared
1 5
B ew
B andage
C R
C art
C rawls
D ink
D el
H y
J ar
L ad
P ease
S eed
T actor
b us
c ars
c lop
d ie
n it
p a
p arent
s ea
s ided
t eacher
t ree
t ale
t astes
u ric
v ironment
w ha
w id
w ine
Ġt ens
Ġt high
in side
Ġw i
Ġs i
Ġs ack
Ġs iding
Ġthe ft
hi z
Ġb ane
Ġb aff
Ġf iring
Ġf umes
Ġl l
Ġl ush
Ġl ash
on ial
Ġd ental
Ġd ashing
es se
Ġn ud
Ġn eaten
st arch
le ments
ĠT ons
ĠT idy
ĠT urning
ĠS e
ĠS ac
ĠS hopping
ad just
Ġha ha
Ġha mper
ar ians
Ġcan tal
Ġi amb
ĠW estern
Ġst if
Ġst aple
Ġst ardust
Ġin just
Ġre nd
Ġre used
Ġj iggly
ri ous
ch lor
ĠB amb
ĠB erries
al ike
Ġab ide
ĠH arry
ĠL ind
ĠL uther
un king
ĠN ational
ĠC ub
Ġbut ler
Ġup gr
ĠO ak
ĠO ffic
Ġplay pen
ro ved
Ġall ies
ĠM ulti
Ġright y
ĠHe lo
ĠHe li
Ġsp ores
Ġout stare
ĠG ulp
rom pt
Ġsw at
Ġsw ash
Ġsw apping
am eter
est ab
Ġco on
Ġsu m
ĠP in
ĠP ant
ĠP ie
ĠE nergy
Ġpre occupied
ong s
Ġex terminate
Ġcare free
Ġcar pen
ĠR ing
Ġread ings
Ġsn obby
Ġbr ass
Ġdra ins
Ġad ul
Ġcl am
Ġv ind
Ġcom bs
Ġdown ward
Ġen ri
lf ish
Ġover w
Ġover conf
Ġover achieve
Ġcon sent
Ġmo lasses
ĠF wog
Ġra bid
Ġra bies
vent ion
Ġshe ar
Ġhome own
ous al
Ġsk ins
eal thy
Ġun chain
Ġun seen
Ġun polluted
Ġcour thouse
Ġsl icer
ble m
Ġpick ax
ac qu
ac cess
Ġstuff ing
Ġbreak through
Ġred s
ment ion
Ġdin os
Ġman made
Ġsit com
mor al
Ġde celer
pen ny
Ġdec oy
Ġsqu el
Ġsqu irm
Ġdis lo
Ġdis please
Ġdis eased
Ġdis rupting
Ġdis integr
Thank fully
Ġfish less
Ġspirit ed
Ġel bows
Ġnap time
Ġchi c
Ġchi l
Ġchi val
Ġju mbled
Ġcho ppy
Ġplace ment
Ġbea rable
ĠK ings
aw are
sh oo
Ġmon archy
Ġrec l
Ġspl inter
orn s
Pl ant
St roller
Ġpush cart
Ġcat aly
Ġsick bed
iv irus
Ġcray fish
Ġboat sw
Ġmoon lit
Ġblow er
Ġland locked
po kes
po iled
ax y
sty le
Ġbrown ish
aur us
Ġser geant
ĠSw immy
Ġart iculate
ition al
uit ive
Ġwall paper
Ġper oxide
Ġant e
Ġant if
Ġam oe
Ġgrass y
Ġcoll eges
Ġvis c
Ġmed iate
Ġnear sighted
ipp ery
Ġcamp out
Ġglass y
umb ly
Ġshar pshooting
Ġmid size
Ġaccident al
Ġmark ets
ĠHa pp
Ġinc ap
Ġshort cake
Ġmel amine
Ġluck less
Ġtack y
Cl uck
ĠZ ipper
Ġprom oting
Ġdep ict
Ġdep ended
Ġexpect ant
Ġob edient
ĠTom atoes
ser ious
Ġbead work
Ġmis haps
Ġrad ius
hand ing
Ġcelebr ities
ĠNice ly
Ġsour dough
Ġuns ung
Ġflat bed
Ġwheel chair
Ġdisapp rove
Ġscore board
ĠWhe els
Ġgener ator
Ġdisc rim
Ġoverhe ating
Ġchoo ses
mo dynam
Ġnon verbal
Ġbeha ving
Ġcraft ed
Ġtele g
nam ed
Bed room
Ġbeep ed
Ġchip m
An na
oman ia
Sc oop
urb ed
Ġge othermal
Ġbank s
Ġwing ed
Ġcreep ing
Ġgy ro
Ġopt ical
Ġjoy stick
Ġpun ches
Ġsecure d
Ġserv ant
ĠNe ck
Ġcalcul us
Ġunre el
Ġda ffod
Ġcivil ized
Ġlaunch ing
Ġspo kes
Ġpal ette
mark et
Ġoverp ay
Ġsequ ins
Sn ake
kn eeling
Ġfilm strip
Ġfer ocious
Ġink pad
Ġload er
Ġaqu amarine
Ġpride ful
Ġce ment
Ġdownload ing
bag s
Ġspoonful s
Ġwitch y
Ġrespond s
Ġdun geon
Ġtransform ed
Ġswallow ed
chi ming
Ġmelo dies
Ġdesp air
cohol ic
rotect ed
Ġdim witted
Ġmast od
Cho c
Ġsouth bound
Ġdismiss ing
Or an
Ġuncl asp
Ġshift ed
gl ued
Ġfright en
Ġment or
Ġplat forms
Ġunlock ing
Ġsug ared
Ġgrind ing
Ġdare s
Ġlun ches
Ġpron ounced
Ġalphabet ical
Ġassoci ate
Ġshat tering
Ġshat tered
Ġcomment ary
Ġshame less
Ġditch ing
spl at
Ġwine making
Ġintimid ate
Mo ves
cross es
Ġinch worm
Ġtac o
Ġfle et
Ġcontam inate
Ġvig ilant
Ġworship ful
Ġowners hip
Ġjuj ubes
Ġacceler ate
Ġacceler ation
Ġdeaf en
Ġaccording ly
Ġgut ters
state ment
Ġfoo ting
Ġuntr oubled
Ġpersu ade
ĠMac beth
Ġpsych ological
Ġcycl one
Ġner d
Ġthri ft
ĠMountain s
Ġcramp ed
Ġlag oon
Ġuncertain ty
Ġpubl ishing
Ġult ra
Ġconsum ers
cour se
Ġpout y
Ġuncont rolled
Ġgrave yard
Ġelder ly
irc um
Ġxy lophone
poss ess
Ġoy sters
Ġsympat hize
Ġsquaw king
Ġparamed ic
Ġgaze bo
Ġsunt anned
Ġunrel iable
Ġinterlock ing
ĠDetect ive
OO M
Ġthingam aj
Ġdork y
Ġwoodcut ting
Ġrejo ice
Ġsteambo at
Ġdisob edient
Ġnewsw orthy
Ġtux ed
rehe nd
Ġoutrage ous
Ġextr aterrestrial
Ġextravag ant
Ġfingert ips
Ġinflamm ation
Ġsuspens ion
Ġcobwe bs
Ġcarav an
Ġunhar med
Ġsilhou ette
Ġcriter ia
ĠBamb i
7 0
C amp
E ventually
F aster
L eans
L ips
L ights
N oo
S up
T en
U M
V e
b irth
c or
e op
e velop
i wi
l isten
m il
n as
o ys
p eak
r ade
t one
t ouch
u pl
u ci
w ill
w eet
w ots
w racking
he ated
in f
in ates
Ġw ien
nd own
Ġc au
Ġc ringe
Ġy olk
Ġf um
on to
Ġd read
Ġd itzy
Ġg ee
Ġg ory
ay er
at urated
ĠT rip
ĠT erry
ed uc
ĠS ib
ĠS ip
ĠS cal
ad le
as ka
Ġcan al
Ġbe ets
ck les
Ġli me
ra ld
ra ken
ra pping
Ġon shore
ĠY ork
Ġh mm
Ġdo do
Ġj azzy
ch uckling
ĠA er
Ġr ind
Ġr ats
ĠB ro
Ġwas hable
Ġab usive
ĠH ill
ĠH oot
ĠH itchhi
ĠL ake
Ġk ook
Ġplay book
Ġdon ating
ill ary
Ġsh uffling
Ġsp here
Ġsp rained
ĠD rum
Ġout shine
Ġout going
ĠG ray
ĠG imme
gh ouse
ul atory
Ġat tire
lo in
Ġhi der
ain able
op y
ĠP ort
ĠP eep
ĠP uff
Ġpro st
Ġno ndairy
Ġpre ach
Ġpre pping
Ġsc uba
ĠR OAR
per se
Ġar th
Ġdra fts
Ġad ore
Ġad vers
He wwo
Ġbo gus
Ġbet ting
Ġfa cial
Ġnew sc
Ġby pass
ĠF act
pl ish
Ġbl each
Ġbl inked
Ġbl izzard
Ġgame play
Ġra ven
Ġsuper star
Ġpe ppy
Ġfast ened
Ġstr addle
Ġcha nd
Ġhu gg
Ġun as
Ġbre e
Ġfin icky
Ġcour ty
Ġsl ink
Ġsl ider
Ġhard ened
Ġtw in
Ġtw eaking
Ġtw eeze
hes es
hes ize
hes itant
But t
Ġtea sed
Ġhur l
Ġbox er
Ġspec ify
Ġset tlers
Ġfl unky
ĠRe in
so il
so cial
rink led
Ġkit s
Ġde val
cc ane
anc er
Ġgl and
Ġgl aze
ount able
Ġsqu at
Ġsqu inting
Ġdis rupted
Ġbra chi
Ġunt idy
Ġunt imed
Ġstar lit
Ġfe m
ret te
ĠU V
Ġgra ves
Ġgra cious
Ġch unky
Ġz ippy
Ġz oning
Ġz ilch
Ġdream like
Ġhead stand
Ġbro il
Ġrec line
ĠV ag
mag net
Ġsing ers
Ġstand off
Ġatt itudes
ĠSp orts
Ġblow fish
ew able
Ġblack out
Ġseed ling
fl apping
Ġwall ow
sp ins
Ġbat ting
ang ut
ĠAl though
ĠAl aska
Ġjo ked
Ġappreci ating
Ġcor rid
Ġglass house
Ġgar gle
Ġass uming
ĠBu bba
Ġcommun ism
Ġve gan
Ġleg less
Ġcu lp
Ġparent less
Ġfact oring
Ġwoods man
Ġcorn starch
Ġinc omp
Ġshort ly
Ġsub urb
Ġbar ny
Ġbug le
Ġbroom stick
ĠChe ss
Ġmain stream
Ġpea ceable
Cl ick
Ġsal ts
Ġwat chable
Ġob noxious
ĠBear d
Ġap ost
Ġunf eeling
Ġactiv ists
Bu bb
Ġste ward
Ġtou rism
obb ish
Duck ie
Ġund ressed
Ġpoll inated
Ġapart ments
Don ald
Ġcri ppled
mo j
Ġinfl ation
Ġcheer leader
Ġinvent ing
ĠFix ed
Ġrot ting
Ġbul ky
ĠFr ank
Ġdev ote
Ġunp olished
Home work
Ġsettle ment
Ġcontain ed
Ġgre eting
irm ish
Ġsecure ly
ĠChild ren
chan ge
ĠSn ake
Ġshoo ter
Ġsignific antly
Ġaff l
Find s
Ġhun ky
Ġmer ge
Ġinteract s
Pull s
ĠMar ie
Ġsurround ing
Ġbill fold
Ġtab lets
ĠPen cil
Ġbac on
Kiss es
Ġpow dered
Ġlifes aving
Ġadmit ting
omen ess
fill s
Ġcred ibility
Ġur ge
Ġthroat y
Ġfat ig
Squ iwwel
Ġexam ining
amm able
Ġlim ous
Ġload ing
rig ger
Ġeager ly
Ġmolec ular
Ġsan it
Ġest ate
Ġdizzy ing
Ġrose b
Ġinterrupt ions
Ġloss es
Ġboot strap
Ġinnov ate
Ġdistrib uted
Ġpunct ure
ĠKn itting
Ġstunt man
Ġfaith ful
ann oyed
Ġment hol
rast ate
Ġplat yp
Ġwinds hield
Ġcact i
Ġimprov is
Ġnutrition al
Ġsubmit ted
Ġresc u
Ġbron zed
Ġhover ing
Ġder ive
Ġwid en
Ġquart et
Hear t
Ġbapt ized
Ġasp ir
Ġchirp y
ĠSpl ashy
Ġeast bound
Ġoutf ielder
Ġglam our
ĠPlan ets
wit ness
Ġunco ordinated
Ġben ched
Ġprecip itate
Ġdisconnect ed
su pp
Ġding y
Ġcass ette
Ġirre levant
Ġuntr uth
Ġeject or
Ġrepet ition
Ġstair well
Ġnavig ated
Ġflaw ed
Ġoccup y
Gar bage
Ġmissp ell
ĠMess y
Ġparad ox
vag ina
Ġterror ize
Ġeaves drop
Ġtriump hant
she ep
Ġslouch ing
Cray ons
Ġscold ed
Ġescal ate
Ġethic s
Whis pers
ĠTer rified
ĠFox y
Ġprun ing
Ġlocom otive
ju ven
Ġsarc astic
Ġuninv ited
Ġunfast en
Ġmessen gers
ĠFloat ies
Ġbotan ical
Ġunr uly
Ġbumble bee
Ġhyen a
Ġundec ided
uten ant
ĠIgn oring
Ġsapp hire
Ġappli ances
Ġtal c
Ġeavesdro pping
Ġmannequ in
Ġcatap ult
Ġstap ler
Ġproport ions
archa l
Ġventri loqu
Mag ical
Ġwatersp out
ĠVeget ables
Ġyog a
Ġfundament als
Ġbick ering
Ġoint ment
Ġmarion ette
ĠLind a
Ġcarpen ter
Ġhugg able
A dd
B unnies
C atches
F is
F amily
H ugging
J o
J u
N obody
S lo
S crib
T er
T ractor
W anna
b urn
c alls
c ritical
i ability
j ug
k illed
l ation
m ath
m unch
m obile
n aughty
p ity
p ath
p aint
s peed
s aurus
t ighty
v ision
x id
y ummy
Ġ eel
Ġa chy
Ġw itches
re cha
Ġc ay
Ġf ades
Ġf eared
or ters
Ġd ow
Ġd ine
Ġd rows
Ġg unk
es ters
hat ter
Ġn ar
st s
st ack
st omps
ut ters
Ġo bey
ĠT ig
ĠT ext
ĠT imes
ĠT aught
ĠS P
ĠS aw
ĠS eas
ĠS ara
ad ds
Ġha nger
Ġha cking
Ġhe rald
Ġbe ware
en co
ĠW ag
ĠW addle
Ġst owy
se y
se mb
ib rill
ib ern
Ġre enter
Ġh oof
her ic
Ġj unky
ri ka
Ġpl unk
ch rist
ĠA p
Ġr ans
ĠB ottle
ver ber
al ien
ĠH arm
ĠL osing
un ge
ĠN illa
ĠN az
Ġup pity
are lla
Ġan ointed
Ġjust ify
is ibility
ic ide
ic ates
ĠNow adays
Ġout ward
Ġout do
Ġout raged
ĠG apes
ger headed
ell ar
lo e
Yes terday
Ġhi ps
Ġhi lly
qu ered
reat ment
Ġput ter
Ġsw irls
est ri
Ġco hesive
Ġsu ction
ĠP ap
ĠP ew
and ex
and ers
Ġpro verb
Ġsha ding
ĠE ve
ty ch
Ġback handed
Ġex ter
Ġsc ram
Ġsc rawny
Ġqu o
um ns
Ġsn out
Ġsn oopy
Ġar ty
Ġbr oth
Ġdra pe
Ġimp ulsive
Ġbo asting
Ġag ing
Ġunder age
Ġtre mbling
Ġover time
Ġover hanging
Ġsm uggling
ation ary
Ġpart ly
Ġpart ial
ĠF ri
ĠF wowew
Ġra ge
Ġra cial
Ġbeing s
el comed
right eous
Ġun en
Ġun fl
Ġun horse
Ġun believer
Ġgr ump
Ġgr unt
Ġgr umble
ble d
os ers
Ġtw irls
als o
Ġwatch dog
Ġred irection
Ġanim ations
Ġdin ners
Ġfood less
Ġkid neys
Ġfl as
Ġfl oral
Ġlist ed
Ġsun n
Ġwind storm
Ġwind breaker
Ġlong hair
Ġlong haired
ost ic
Ġde form
Ġtruck er
Ġdis place
Ġbra cket
Ġunt angling
Ġchi pper
ious ness
Ġair force
Ġopen ly
ĠPlay time
Ġfr ig
Ġrest ful
Ġri pple
Ġsnow ed
Ġadd ictive
ĠSt rate
Ġexc av
Ġcut ie
Ġforest ed
Ġgam ers
cl utches
Ġcat fish
Ġmin imal
ub stant
uct ory
Ġho lly
Ġext inction
Ġground hog
zz arella
Ġcomm onsense
Ġexp el
Ġexp elled
Ġseed pods
Ġfre ckled
Ġfre ckles
Ġdet ox
fl ash
Ġrep ly
uc ers
Ġpig ment
Ġant ivirus
ang ing
Ġemp ower
Ġcons erv
Ġsea food
Ġed itor
Ġtot em
Ġbag p
Ġbag gy
Ġconnect ible
Ġmark ings
Ġglo ved
Ġstra pped
Bear s
Ġdr unk
Ġinc idents
Ġreg ain
cal m
Ġdesign ers
Ġrob bed
ĠAn imal
Ġadv isor
Ġhon ked
sw ings
Ġsto pper
Ġvill ages
Ġpath way
Ġweather man
ĠUn w
Ġscr ubber
Ġscr ubbed
Ġwar like
Ġwar rant
ĠOr gan
Ġriver bank
Ġloves ick
Ġactiv ate
Ġpaw ns
Ġbrain less
Ġind ie
ĠSc ott
Ġrid ers
Ġcart wheel
Ġmuff le
Ġuns us
Ġobs ession
Ġcompet itors
sha king
Ġsail fish
ĠWhe el
Ġunc aught
Ġunc url
Ġunc rossed
li hood
aut hor
Ġmay o
Ġchoo sy
Ġprof ound
Ġsidewalk s
Ġsocial ize
Ġmop ing
Ġrub ric
Ġwhis king
Ġdeb ating
Ġdeb ug
ĠDuck ie
Ġblood y
Ġpost ing
Ġscoop ed
omb re
Ġcol umns
Ġexplo it
osp heric
Ġspell b
Ġunp re
Ġunw ashed
Ġunw atched
Run ning
uri ate
Ġbull ies
Ġposition ed
Ġver ve
Ġver bs
car ries
Ġthunder storms
Ġtar ant
pret ending
Ġpopular ity
help ful
ura i
ĠBath s
Ġstomach s
inter pret
Ġbow legged
App ow
Ġrein it
Ġsketch book
wow d
reg nate
Ġnarr atives
Ġrenew ed
ĠMilk y
Ġbudget ing
Ġshut ting
Ġflood ed
Ġmetap hors
Ġthreat ening
Ġamb ush
ĠPer cy
Ġgal ore
Ġdigest ible
Ġpy th
Ġabsorb ent
ĠSky d
ĠBoom er
Ġirr itated
Ġbound ary
Ġwrist band
Ġexerc ising
Ġleng thy
Ġmold s
Ġtrib al
Ġencoura ges
stit ial
Ġsquee zes
Ġoo zy
Ġsubs crib
Ġterrit ories
Ġauthentic ity
Ġblind ing
Ġange lfish
Ġmeteor ite
Ġpros per
organ isms
ĠMove ment
Ġfist ic
Ġaf ghan
Ġcer ti
Ġspiritual ity
Ġteleport ing
Ġtatt oos
Ġox id
Ġstab il
Col ors
Ġconvent ional
Ġprison er
Ġprison ers
Ġimmig ration
vet ail
Ġsout heaster
Ġsignature s
Ġinherit ance
Ġsteak s
Ġma ize
ĠLamb s
Ġscamp ered
Ġmanner ly
Ġparas ite
ĠRos ie
Ġwoodcar ver
Cw imb
vio lence
Ġintro spect
Ġwoo zy
Ġwilt ed
Ġagric ultural
Ġunivers ity
Ġglac iers
Ġmissp elled
Ġmaxim ize
ĠChi kin
Ġbuoy ancy
Ġconver ts
Ġconsum er
Side walk
ĠGhost s
Ġoy ster
Tow ah
ĠMemor ial
Ġcapac ity
Ġferment ation
Ġgro an
Ġhed ger
Ġrasp berry
Ġcoy ote
Ġredec orate
Ġminiat urize
Ġot ters
Ġhym nal
Ġchau ffeur
Ġmisbeha ve
ĠGobb les
Ġhicc ups
Ġunpop ular
Text ing
Ġeyeb rows
ĠOper ation
Clo set
Ġwholes ome
Ġamate ur
Ġreluct ant
secut ed
Ġinterpre ting
Ġprair ie
arag us
icill in
Ġcantal oupe
Ġboatsw ain
" ,
B ench
C lock
G O
G lass
G ames
H o
K itten
N est
O ven
P ffff
T urtles
a ah
b iting
c ri
c ute
d ove
d ows
e ur
e qual
f ac
f its
f riger
g over
k it
k id
l ice
l ays
m ast
m and
m ering
n osis
o ffic
p ig
s lide
t ler
u ent
u able
u clear
w eeping
Ġ ome
Ġt ep
Ġt aunting
Ġt amer
Ġa lp
Ġw inker
Ġs ult
Ġs ought
Ġs log
Ġs ipping
Ġb oulder
er tia
Ġc aw
Ġto m
ĠI ron
Ġf ootsy
Ġm ne
Ġl ump
on aut
or a
or izing
Ġp el
Ġp ail
Ġp ausing
Ġp uls
Ġp neum
Ġp altry
Ġg irly
Ġn ope
ig hed
ĠT emp
ĠT issue
ed ience
as al
ot ted
Ġi vy
Ġst un
Ġli vable
Ġin ertia
id ian
ib les
Ġre habilit
ch oke
ant a
ĠA st
Ġr ant
ĠB uck
ĠB ets
ĠB umpy
ĠH ouses
Ġso ph
Ġgo bb
Ġme re
Ġe cc
Ġe moj
un w
un ter
Ġth ud
Ġnot ification
ear th
Ġall y
ĠM ail
ĠM ocking
ill ery
ĠD y
ĠD al
ĠD ave
Ġout back
Ġsa mm
ĠG y
Ġwor sen
Ġor angut
Ġwh oo
op lasm
reat h
ap o
ap ing
Ġput t
il ight
am inate
way on
Ġbu ccane
ĠE lm
ĠE llis
nder ing
Ġex othermic
Ġsc alp
per form
Ġar ter
Ġgot cha
Ġv ets
Ġv ars
Ġwho pping
Ġcom ma
Ġen ig
Ġover st
Ġnew est
Ġnew fangled
Ġro ds
Ġsm ug
Ġmo an
Ġmo isten
Ġmo sa
ĠF re
ĠF oss
pl ink
pl ants
Ġbl urt
ho ver
Ġkind er
Ġpe ppery
eal s
ump h
Ġmom ma
Ġid iotic
Ġhu mbling
Ġun ass
Ġun not
ĠSee k
os itive
Ġtw ine
Ġtri ll
ac uate
Ġwatch tower
Ġfl ights
Ġwind less
Ġchan ne
eep y
Ġsaw mill
Ġcold hearted
Ġsqu iggle
Ġdis pers
Ġdis abled
Ġjump ers
Oh h
Ġstar less
Ġwo eful
Ġgreen er
Ġgreen ish
ĠShe ll
Ġfore ns
Ġcho king
Ġair pane
Ġtouch down
Ġplace mat
amp a
Ġsupp lement
Ġrain maker
ĠK iwi
Ġhead achy
Ġwish ful
Ġsec uring
ock ets
pt ion
Ġbro ch
Ġcut off
Ġpen alties
ĠV ik
Ġhat less
Ġsmart en
St arting
Ġsense less
eas ible
man ly
Ġdad s
Ġsick ly
ĠSp read
Ġbab ble
Ġrel ied
Ġcream s
Ġrem inis
Ġru ndown
Ġfre estyle
Ġhor rid
Ġrep urp
Ġrep orter
Ġban ning
sp end
sp ray
sp ionage
Ġstore keeper
Ġper ks
Ġ2 1
Ġant ics
Ġam end
sm ir
gr ass
Ġemp lo
Ġflower less
Ġjo ggle
Ġdel ve
Ġkiss able
Ġcor respond
Ġpri mitive
Ġcal ories
Ġinter cept
Ġinter tw
Ġla z
Ġpur plish
Ġhour ly
Ġfact ual
Ġtear y
Big ger
Ġconc eal
Ġband stand
ific ant
Ġbuck toothed
Ġinc entive
cal ms
Ġhum orous
pect ing
Ġbar ber
Ġeye ball
Ġeye witness
Ġgirl ish
Ġforward s
ĠCl ark
ĠCl imate
Ġsto ked
Ġflag pole
Ġspark plug
Ġtag ging
Ġdep ressed
Ġcomb inations
Ġob ese
Ġrev ised
Ġcontin ents
Ġind is
Ġtou can
let ale
Ġbusy work
ĠFl appy
cover able
Ġuns igned
Ġuns helled
dom inant
Ġpersonal ize
Ġscen ic
che ting
Ġexpress ed
Ġsat urated
Ġscore r
Ġgener osity
Ġcloset ful
Ġnon f
Ġcell ar
go d
Ġblood stained
Ġpad ded
Ġreflect ive
Ġadapt ability
Ġpost p
Ġobject ive
Ġinvent ory
bl ub
Ġbi olumines
res hing
Ġconsequ ence
Ġhyd rant
Ġorig ins
ĠSun light
Pu ppies
Ġachie ving
Ġachie ved
Ġgri me
Ġsepar ates
Ġver ify
Ġocc urs
Ġcourt eous
ĠNew ton
Ġmature ly
Ġsus ceptible
Ġda isy
Ġped dle
Ġgrad ing
Ex pl
Ġrum ored
inter rupted
ĠMo lly
Ġhay stack
rave led
Ġcondition er
ĠRoll ing
Ġcher vil
Ġden im
Ġden omin
Ġrat tles
wi end
Ġabsorb ing
ĠKiss es
Ġneedle point
Ġrece ives
Ġirr igation
Ġnu zzle
Ġdu ke
ĠSl urp
Ġchampions hips
Ġgod ly
ĠRes earch
ĠSk irmish
Pat ty
Ġleng ths
Ġscript ural
Ġmulti player
Ġcaut iously
Ġdepend ent
Ġsyn cing
Rel ax
ĠLead ers
Ġpitcher s
Ġsumm it
Ġblame less
Ġhood ed
Ġuncl ip
Ġscent ed
vas ive
Ġunfor giving
Ġdemo cratic
ĠExpl oring
Ġcampaign s
ĠPot ter
Ġfisher men
Ġperman ently
ĠHy dro
ĠAfric an
Ġtowns folk
Ġcoop ed
Ġoverd one
Ġuncon ventional
but ton
Ġlegit imate
umin ous
Ġoverf lowing
Ġdrown ing
Ġunlo ved
Ġmur der
ĠPicture s
ogen ous
ĠTick les
Ġwitness ed
ĠRob o
Ġfever ish
Ġacqu ire
Ġwhee zy
Ġhumil iated
Ġfulfill ing
def ensive
Ġdehyd ration
Ġspar rows
Ġwal nut
Ġwal rus
Ġflaw less
Frown ing
ĠLess on
Ġhyphen ated
Ġdism ant
Ġtoler ate
Ġpeep hole
Ġbookmark er
ĠSneak ers
Ġconj ure
Ġwestern most
Ġgentleman ly
Ġprivile ge
Ġdarken ed
cour t
Ġclaw less
Ġleop ards
Ġtum or
Ġprem iere
Spark y
Ġalgorith ms
Ġmourn ful
Ġmeg aw
bea rer
Ġtu ft
Ġphenomen a
Ġporpo ise
Ġprophe cy
Ġod or
Ġsaus age
Ġcigaret tes
ĠApolog ize
Cra b
Paw ty
Ġostri ch
Ġplagiar ism
Ġunfro ze
Ġic icle
Ġesp ionage
Ġrook ie
Ġundist urbed
Ġskelet al
Ġabol ition
tebr ates
och ondria
Ġmirac ulous
Ġgour met
Ġantim atter
Ġtypho on
Ġpharmac ist
Ġdisadv antage
Ġjackrabb it
Peng in
loose y
Ġwease l
Ġkindergart en
arad erie
ĠNort hern
Ġchil id
Ġthingamaj ig
Ġcourty ard
Ġfem ales
Ġplatyp us
Ġhedger ow
ĠBets y
Ġsoph om
Ġvars ity
ĠVik ings
) .
6 5
A C
C hips
G obble
P awk
R ules
S ame
T asty
U nd
a im
b ore
b right
b ase
c asting
d r
g on
g age
l ion
m ad
r ants
s al
s eas
s hips
t ry
t rot
Ġt rom
Ġt ends
he ets
Ġa le
Ġa rom
Ġa jar
Ġw ick
Ġw ield
ld ron
it ars
Ġb ount
Ġb isc
er ad
ha el
Ġc arts
Ġc ycling
Ġto pping
ĠI r
an ine
Ġf are
Ġm ourning
Ġl ingu
Ġd ess
Ġd ows
Ġp row
Ġp iled
Ġp oodle
Ġg ast
ay ered
ea ters
Ġn ations
Ġn ippy
st irs
ut ching
Ġwe eding
oo vy
Ġo scill
ĠS ty
ĠS ens
ĠS ssss
ad ian
Ġha lo
as ma
Ġhe ave
Ġbe hold
ra ut
ra vel
id gin
Ġre dden
Ġdo ves
ri ver
Ġpl ugs
ch ugga
ĠB lo
ĠB atter
Ġwas p
nt y
Ġab ominable
ĠL awn
ĠL ulu
Ġme ows
ĠN et
ĠC ross
ĠC run
ĠC wean
ĠC opter
Ġbut cher
ĠO b
ĠO il
ĠO liver
Ġplay grounds
Ġwhe eze
our ce
ack a
ĠM ap
ound er
ound ed
Ġsp iffy
Ġout standing
Ġout cast
Ġout guess
ĠG one
ĠG ats
ast ard
us cular
omet ry
fe rential
qu ick
ain e
il ayered
am aged
Ġfun ereal
est ant
Ġclean ser
Ġsu cking
Ġpro secute
ĠE lly
Ġpre ference
Ġpre acher
Ġcar riers
Ġqu itting
Ġbr unch
Ġbr idal
Ġgu itars
Ġtur bo
Ġcom pensate
Ġtre et
Ġover water
Ġeven s
Ġro ster
ĠF ashion
pl acing
Ġra ils
vent ilated
Ġmu ggy
Ġball er
Ġhome like
ous ers
Ġun li
Ġun ited
Ġun eaten
Ġun ripe
Ġun holy
Ġlea ked
Ġsl iced
Ġgr umbling
ist ed
Ġpick er
Ġtri vial
Ġher ds
th ree
Ġwr inkle
ne got
Ġfl irt
Ġwind break
Ġaw ards
Ġde fect
Ġcr us
Ġel ves
Ġmagic ally
Ġchi sel
Ġteam ing
Ġhot cake
Ġhot test
Ġju ry
Ġsad ly
Ġgra zing
imb urse
ere spionage
Ġz oned
Ġsupp ress
Ġ1 4
aw d
Ġlunch room
av ow
sh iny
Ġbutter milk
Ġpen icillin
Ġcup ful
Pl ants
Ġpot pie
cl ips
Ġdes erving
ĠIn ternational
Ġsur m
Ġfire power
Ġjack pot
uct ible
Ġpat hetic
So f
Ġcow hand
Ġneighbor ing
co cc
Ġsy mbiotic
Ġmet hane
Ġtrip tych
Ġwild cat
io logical
sp aghetti
uc ible
uc opia
Ġper ched
Ġper isc
ident al
Ġtreat ies
Ġant it
Ġshirt less
Ġgrass lands
Ġinv ig
Ġquestion able
Ġmed itate
Ġcompl iments
Ġenv ious
Ġglass ware
aus ed
Ġve lo
Ġconf ine
Ġship mate
Ġband ole
ud gy
Ġpack able
urt ail
Ġelect rify
Ġcur ling
Ġeng ages
Ġreg ist
Ġsub lim
Ġsub div
Ġtooth some
ooth s
ĠSh ort
Ġadv ise
sc ra
sc rew
Sha dow
ĠZ ap
Ġspend s
Ġcomb ust
ser ve
Ġsister ly
Ġbead ed
Bu gs
Ġsugar less
Ġspeed boat
Ġcond ense
ron ome
Ġfox hound
ĠFl ip
Ġpeace making
Ġuns alted
Ġchurch yard
Ġmatch less
ox y
Ġtrad ers
Ġbib li
Ġunc lo
ĠAt hen
ĠAt lantic
Ġrepl aceable
Draw er
Ġunex citing
nam es
Ġhouses it
Ġpad lock
Ġabs urd
Ġbusiness man
aker oot
Ġexplo ding
wr ites
Ġprop ellers
Ġpres cribe
Ġorig inated
Ġwag s
Ġunb roken
Pu ddles
Ġflap jacks
ĠCatch ing
Ġalgebra ic
chan ical
Ġrandom ness
car rots
Ġinj ure
ulp hide
ĠHist or
Ġtub er
Ġhall ways
Ġcas hew
Ġtab s
ĠPen nies
Ġerupt ions
Ġadm irable
Ġsyrup y
Ġdefend ed
Ex cited
ĠBath room
Ġperiod ic
ĠMo ving
Climb s
rog ram
rog ressive
mage m
Ġur inate
ĠBlow ing
haw k
ĠGra pe
Sn ows
Ġslo gan
Ġir ony
draw n
Ġfertil ization
oc ating
Ġirr igate
Ġdownload ed
Ġunpl anned
ĠGr oup
Ġcong ested
Whe els
bre ast
Ġest im
sec rated
ĠFlo or
Ġgogg le
Ġsumm ers
Ġhost ile
Ġbid der
Ġamp utate
Ġswoop ing
Ġunfor givable
Ġfrequ ently
Ġreveal s
Ġscatter brained
Ġdrift wood
Ġfigur ines
Ġunh ors
Ġbacks eat
Ġtroubles hoot
Ġteleport ation
Ġsubtract ion
Ġtatt letale
Ġalm ighty
Ġunhe ated
talk ies
Ġcomet s
Ġicon ic
Ġbetray al
Superher oes
Ġencycloped ic
Ġsusp enders
Ġunco il
Ġpap rika
Ġpurs uing
ĠHum an
Ġbrow sing
Ġlob ot
Ġflutter ing
Ġacqu is
Ġunint erested
Follow s
ĠEl iz
unct ious
ĠMac Donald
Ġuntou chable
lem n
ĠConf idence
Ġwart ime
Ġsod as
Ġaggra vated
Ġfift h
Ġfift een
Ġdisin fect
Ġpharm acy
ĠSneak y
Ġdevast ated
Ġtang ible
Ġmumm ification
Ġpropag anda
Ġnurt ure
Ġcrocod iles
script ion
Ġxy lem
ĠMic hael
Ġrevers ed
Ġproc ure
ĠEaster n
Ġcatal og
Ġsympat hetic
Ġaerodynam ics
ĠPoll ution
Ġboast ful
Ġmessen ger
Ġundef eatable
Ġundef eated
sol ver
Ġelectromagnet ic
ĠBull fighting
Ġtut u
Ġker nel
ĠEag les
Ġunknow able
Ġlollyg agging
Ġragged y
Ġunappreci ative
Ġpasture land
Ġparan oid
ĠFeather s
Ġunansw ered
Com fy
Ġexcell ence
Ġfeud al
ancip ation
Ġjoust ing
Ġpamph let
Ġlary nx
ĠLas er
ĠPres ident
Ġsteams hip
Ġungr ateful
atisfact ory
Ġsam urai
Ġbluebell s
Ġcustod ian
ĠAntarctic a
List ens
Ġnur sing
Ġosm osis
Ġdiso bey
Ġcoex ist
Ġsupernov a
Ġdaffod ils
Ġbarny ard
Ġlimous ine
Ġsanit izer
Scrib bles
ĠScott ish
ĠGats by
Ġperisc ope
5 8
B ow
B one
B asement
C ows
D owntown
F ower
G ama
L augh
N on
N ee
T inkle
U sing
Y awn
b ri
b awk
b ootstrap
c ow
c ony
d ens
e ck
g one
l ea
m ake
m ines
m ills
n um
p art
p atch
p aws
r ushed
s ible
s nack
t os
t urtle
u ble
u pper
w aits
Ġt aut
Ġt ato
Ġt rolls
Ġt attle
Ġt angerine
Ġa mber
Ġa iling
Ġa rise
Ġw iry
Ġs ard
Ġthe saurus
Ġb or
Ġc umul
Ġm ime
Ġl en
on ant
Ġd aw
Ġp on
Ġp orts
ea ke
Ġn eater
st en
le e
ĠS on
ĠS ale
ar ic
ar rr
Ġhe ist
ĠW orms
ter ge
Ġin ocul
ra pe
ra ls
Ġre mor
Ġre fining
her om
Ġdo omed
Ġj ig
Ġj ets
ri um
Ġpl ink
Ġpl ops
Ġpl ains
ĠA im
ĠA gent
ĠB re
ĠB oring
ĠB arely
Ġab use
Ġab dom
ĠH ung
ĠH ibern
ĠL ine
Ġgo ver
Ġgo alt
Ġgo fer
ee lm
un l
ĠC P
ĠC our
ĠC ell
ĠC rib
Ġhelp less
ĠO llie
Ġnot ch
is ine
han ger
ĠM i
Ġsp ook
Ġsp ouse
Ġsp ying
[...]
