{
  "version": "1.0",
  "truncation": null,
  "padding": null,
  "added_tokens": [
    {
      "id": 0,
      "content": "<|endoftext|>",
      "single_word": false,
      "lstrip": false,
      "rstrip": false,
      "normalized": false,
      "special": true
    },
    {
      "id": 1,
      "content": "<UNK>",
      "single_word": false,
      "lstrip": false,
      "rstrip": false,
      "normalized": false,
      "special": true
    }
  ],
  "normalizer": null,
  "pre_tokenizer": {
    "type": "ByteLevel",
    "add_prefix_space": false,
    "trim_offsets": true,
    "use_regex": true
  },
  "post_processor": {
    "type": "ByteLevel",
    "add_prefix_space": true,
    "trim_offsets": false,
    "use_regex": true
  },
  "decoder": {
    "type": "ByteLevel",
    "add_prefix_space": true,
    "trim_offsets": true,
    "use_regex": true
  },
  "model": {
    "type": "BPE",
    "dropout": null,
    "unk_token": null,
    "continuing_subword_prefix": "",
    "end_of_word_suffix": "",
    "fuse_unk": false,
    "byte_fallback": false,
    "vocab": {
      "<|endoftext|>": 0,
      "<UNK>": 1,
      "!": 2,
      "\"": 3,
      "#": 4,
      "$": 5,
      "%": 6,
      "&": 7,
      "'": 8,
      "(": 9,
      ")": 10,
      "*": 11,
      "+": 12,
      ",": 13,
      "-": 14,
      ".": 15,
      "/": 16,
      "0": 17,
      "1": 18,
      "2": 19,
      "3": 20,
      "4": 21,
      "5": 22,
      "6": 23,
      "7": 24,
      "8": 25,
      "9": 26,
      ":": 27,
      ";": 28,
      "<": 29,
      "=": 30,
      ">": 31,
      "?": 32,
      "@": 33,
      "A": 34,
      "B": 35,
      "C": 36,
      "D": 37,
      "E": 38,
      "F": 39,
      "G": 40,
      "H": 41,
      "I": 42,
      "J": 43,
      "K": 44,
      "L": 45,
      "M": 46,
      "N": 47,
      "O": 48,
      "P": 49,
      "Q": 50,
      "R": 51,
      "S": 52,
      "T": 53,
      "U": 54,
      "V": 55,
      "W": 56,
      "X": 57,
      "Y": 58,
      "Z": 59,
      "[": 60,
      "\\": 61,
      "]": 62,
      "^": 63,
      "_": 64,
      "`": 65,
      "a": 66,
      "b": 67,
      "c": 68,
      "d": 69,
      "e": 70,
      "f": 71,
      "g": 72,
      "h": 73,
      "i": 74,
      "j": 75,
      "k": 76,
      "l": 77,
      "m": 78,
      "n": 79,
      "o": 80,
      "p": 81,
      "q": 82,
      "r": 83,
      "s": 84,
      "t": 85,
      "u": 86,
      "v": 87,
      "w": 88,
      "x": 89,
      "y": 90,
      "z": 91,
      "{": 92,
      "|": 93,
      "}": 94,
      "~": 95,
      "¡": 96,
      "¢": 97,
      "£": 98,
      "¤": 99,
      "¥": 100,
      "¦": 101,
      "§": 102,
      "¨": 103,
      "©": 104,
      "ª": 105,
      "«": 106,
      "¬": 107,
      "®": 108,
      "¯": 109,
      "°": 110,
      "±": 111,
      "²": 112,
      "³": 113,
      "´": 114,
      "µ": 115,
      "¶": 116,
      "·": 117,
      "¸": 118,
      "¹": 119,
      "º": 120,
      "»": 121,
      "¼": 122,
      "½": 123,
      "¾": 124,
      "¿": 125,
      "À": 126,
      "Á": 127,
      "Â": 128,
      "Ã": 129,
      "Ä": 130,
      "Å": 131,
      "Æ": 132,
      "Ç": 133,
      "È": 134,
      "É": 135,
      "Ê": 136,
      "Ë": 137,
      "Ì": 138,
      "Í": 139,
      "Î": 140,
      "Ï": 141,
      "Ð": 142,
      "Ñ": 143,
      "Ò": 144,
      "Ó": 145,
      "Ô": 146,
      "Õ": 147,
      "Ö": 148,
      "×": 149,
      "Ø": 150,
      "Ù": 151,
      "Ú": 152,
      "Û": 153,
      "Ü": 154,
      "Ý": 155,
      "Þ": 156,
      "ß": 157,
      "à": 158,
      "á": 159,
      "â": 160,
      "ã": 161,
      "ä": 162,
      "å": 163,
      "æ": 164,
      "ç": 165,
      "è": 166,
      "é": 167,
      "ê": 168,
      "ë": 169,
      "ì": 170,
      "í": 171,
      "î": 172,
      "ï": 173,
      "ð": 174,
      "ñ": 175,
      "ò": 176,
      "ó": 177,
      "ô": 178,
      "õ": 179,
      "ö": 180,
      "÷": 181,
      "ø": 182,
      "ù": 183,
      "ú": 184,
      "û": 185,
      "ü": 186,
      "ý": 187,
      "þ": 188,
      "ÿ": 189,
      "Ā": 190,
      "ā": 191,
      "Ă": 192,
      "ă": 193,
      "Ą": 194,
      "ą": 195,
      "Ć": 196,
      "ć": 197,
      "Ĉ": 198,
      "ĉ": 199,
      "Ċ": 200,
      "ċ": 201,
      "Č": 202,
      "č": 203,
      "Ď": 204,
      "ď": 205,
      "Đ": 206,
      "đ": 207,
      "Ē": 208,
      "ē": 209,
      "Ĕ": 210,
      "ĕ": 211,
      "Ė": 212,
      "ė": 213,
      "Ę": 214,
      "ę": 215,
      "Ě": 216,
      "ě": 217,
      "Ĝ": 218,
      "ĝ": 219,
      "Ğ": 220,
      "ğ": 221,
      "Ġ": 222,
      "ġ": 223,
      "Ģ": 224,
      "ģ": 225,
      "Ĥ": 226,
      "ĥ": 227,
      "Ħ": 228,
      "ħ": 229,
      "Ĩ": 230,
      "ĩ": 231,
      "Ī": 232,
      "ī": 233,
      "Ĭ": 234,
      "ĭ": 235,
      "Į": 236,
      "į": 237,
      "İ": 238,
      "ı": 239,
      "Ĳ": 240,
      "ĳ": 241,
      "Ĵ": 242,
      "ĵ": 243,
      "Ķ": 244,
      "ķ": 245,
      "ĸ": 246,
      "Ĺ": 247,
      "ĺ": 248,
      "Ļ": 249,
      "ļ": 250,
      "Ľ": 251,
      "ľ": 252,
      "Ŀ": 253,
      "ŀ": 254,
      "Ł": 255,
      "ł": 256,
      "Ń": 257,
      "**": 258,
      "Ġt": 259,
      "he": 260,
      "Ġa": 261,
      "**:": 262,
      "ou": 263,
      "Ġ**": 264,
      "Ġ\\": 265,
      "in": 266,
      "Ġw": 267,
      "Ġs": 268,
      "re": 269,
      "Ġthe": 270,
      "ld": 271,
      "it": 272,
      "nd": 273,
      "hi": 274,
      "Ġb": 275,
      "er": 276,
      "ha": 277,
      "Ġc": 278,
      "Ġto": 279,
      "ing": 280,
      "Ġy": 281,
      "Ġyou": 282,
      "hild": 283,
      "Child": 284,
      "ĠI": 285,
      "an": 286,
      "Ġf": 287,
      "Ġ\"": 288,
      "Ġm": 289,
      "Ġl": 290,
      "on": 291,
      "or": 292,
      "Ġd": 293,
      "'s": 294,
      "Ġp": 295,
      "ll": 296,
      "Ġg": 297,
      "et": 298,
      "es": 299,
      "om": 300,
      "Ġit": 301,
      "ay": 302,
      "hat": 303,
      "ow": 304,
      "ke": 305,
      "ea": 306,
      "Ġn": 307,
      "Ġand": 308,
      "st": 309,
      "ig": 310,
      "ut": 311,
      "Ġwe": 312,
      "ve": 313,
      "at": 314,
      "le": 315,
      "oo": 316,
      "Ġo": 317,
      "ĠT": 318,
      "ed": 319,
      "ĠS": 320,
      "ad": 321,
      "Ġha": 322,
      "ar": 323,
      "as": 324,
      "Ġcan": 325,
      "ot": 326,
      "!\"": 327,
      "Ġhe": 328,
      "Ġi": 329,
      "Ġbe": 330,
      "igh": 331,
      "en": 332,
      "ck": 333,
      "ĠW": 334,
      "Ġst": 335,
      ".\"": 336,
      "Ġu": 337,
      "end": 338,
      "ter": 339,
      "se": 340,
      "Ġli": 341,
      "Ġin": 342,
      "out": 343,
      "ra": 344,
      "id": 345,
      "Ġon": 346,
      "Ġfor": 347,
      "Ġyour": 348,
      "ĠY": 349,
      "Ġthat": 350,
      "ling": 351,
      "ib": 352,
      "?\"": 353,
      "ight": 354,
      "'t": 355,
      "Ġre": 356,
      "Ġof": 357,
      "ex": 358,
      "Ġh": 359,
      "Ġlike": 360,
      "ĠIt": 361,
      "me": 362,
      "ibling": 363,
      "her": 364,
      "Ġdo": 365,
      "ĠSibling": 366,
      "ith": 367,
      "Ġj": 368,
      "Mom": 369,
      "Ġwith": 370,
      "ir": 371,
      "ab": 372,
      "Dad": 373,
      "ri": 374,
      "Ġpl": 375,
      "ch": 376,
      "ys": 377,
      "ant": 378,
      "ce": 379,
      "ĠA": 380,
      "Ġr": 381,
      "ĠB": 382,
      "ct": 383,
      "ext": 384,
      "ver": 385,
      "Ġwas": 386,
      "ake": 387,
      "nt": 388,
      "al": 389,
      "Ġis": 390,
      "Ġab": 391,
      "ĠH": 392,
      "ĠL": 393,
      "'ll": 394,
      "ft": 395,
      "Ġso": 396,
      "Ġgo": 397,
      "Ġabout": 398,
      "itter": 399,
      "lder": 400,
      "ee": 401,
      "Ġme": 402,
      "his": 403,
      "abys": 404,
      "abysitter": 405,
      "ome": 406,
      "Ġe": 407,
      "un": 408,
      "ly": 409,
      "Older": 410,
      "Ġth": 411,
      "ust": 412,
      "ĠN": 413,
      "all": 414,
      "ĠC": 415,
      "Babysitter": 416,
      "Ġk": 417,
      "Ġbut": 418,
      "'re": 419,
      "ood": 420,
      "Ġhave": 421,
      "oft": 422,
      "Ġget": 423,
      "<|": 424,
      "|>": 425,
      "Ġ<|": 426,
      "endoft": 427,
      "endoftext": 428,
      "lp": 429,
      "ĠWe": 430,
      "ĠThe": 431,
      "Ġup": 432,
      "are": 433,
      "Ġne": 434,
      "ook": 435,
      "ĠBut": 436,
      "Ġhelp": 437,
      "ure": 438,
      "ĠYou": 439,
      "Ġmy": 440,
      "ore": 441,
      "ĠO": 442,
      "Ġwant": 443,
      "Ġplay": 444,
      "pp": 445,
      "kay": 446,
      "riend": 447,
      "Ġnot": 448,
      "ĠThat": 449,
      "ro": 450,
      "ould": 451,
      "ear": 452,
      "Ġti": 453,
      "Ġwhe": 454,
      "Ġan": 455,
      "our": 456,
      "Ġjust": 457,
      "Ġmake": 458,
      "ate": 459,
      "Ġthis": 460,
      "Ġlet": 461,
      "tle": 462,
      "Ġdon": 463,
      "is": 464,
      "ĠAnd": 465,
      "Ġall": 466,
      "ĠCan": 467,
      "ry": 468,
      "ind": 469,
      "ur": 470,
      "ĠLet": 471,
      "Ġthey": 472,
      "han": 473,
      "ack": 474,
      "ic": 475,
      "ĠM": 476,
      "Ġright": 477,
      "ill": 478,
      "ound": 479,
      "Ġtime": 480,
      "Ġtoo": 481,
      "rand": 482,
      "very": 483,
      "art": 484,
      "Ġsh": 485,
      "hing": 486,
      "ĠHe": 487,
      "Ġsp": 488,
      "Ġwhen": 489,
      "ĠNow": 490,
      "Ġneed": 491,
      "mp": 492,
      "'m": 493,
      "ass": 494,
      "Ġwhat": 495,
      "ĠD": 496,
      "Ġout": 497,
      "ittle": 498,
      "Ġlittle": 499,
      "ion": 500,
      "randp": 501,
      "Ġsa": 502,
      "Ġare": 503,
      "ep": 504,
      "ie": 505,
      "cher": 506,
      "Ġkn": 507,
      "Ġthem": 508,
      "eacher": 509,
      "Ġbig": 510,
      "ĠG": 511,
      "one": 512,
      "Ġsee": 513,
      "Ġsome": 514,
      "Ġstor": 515,
      "Ġour": 516,
      "ent": 517,
      "gh": 518,
      "ul": 519,
      "mb": 520,
      "ak": 521,
      "hank": 522,
      "bor": 523,
      "arent": 524,
      "ide": 525,
      "ess": 526,
      "lass": 527,
      "ighbor": 528,
      "ast": 529,
      "Ġwor": 530,
      "Ġdid": 531,
      "us": 532,
      "ink": 533,
      "..": 534,
      "ger": 535,
      "Teacher": 536,
      "Ġone": 537,
      "Ġthere": 538,
      "Ġat": 539,
      "Ġif": 540,
      "omet": 541,
      "Ġea": 542,
      "fe": 543,
      "get": 544,
      "ĠWhat": 545,
      "Ne": 546,
      "ally": 547,
      "Ġor": 548,
      "ell": 549,
      "Neighbor": 550,
      "Ġnow": 551,
      "randparent": 552,
      "lo": 553,
      "You": 554,
      "Ġgood": 555,
      "Ġhow": 556,
      "Grandparent": 557,
      "Yes": 558,
      "Ġhi": 559,
      "ick": 560,
      "qu": 561,
      "ain": 562,
      "own": 563,
      "Ġwh": 564,
      "au": 565,
      "dy": 566,
      "ater": 567,
      "lean": 568,
      "op": 569,
      "Ġknow": 570,
      "Ġsomet": 571,
      "reat": 572,
      "ice": 573,
      "Ġstory": 574,
      "rom": 575,
      "gether": 576,
      "Ġ'": 577,
      "Friend": 578,
      "Ġas": 579,
      "ap": 580,
      "Ġmore": 581,
      "Ġthen": 582,
      "Ġput": 583,
      "Ġsw": 584,
      "ool": 585,
      "Ġtogether": 586,
      "mate": 587,
      "Ġ*": 588,
      "Ġal": 589,
      "il": 590,
      "ag": 591,
      "be": 592,
      "lassmate": 593,
      "Ġlook": 594,
      "am": 595,
      "Ġfun": 596,
      "Classmate": 597,
      "est": 598,
      "Ġco": 599,
      "Ġclean": 600,
      "Ġsu": 601,
      "ĠYes": 602,
      "ĠP": 603,
      "ful": 604,
      "uck": 605,
      "ob": 606,
      "way": 607,
      "im": 608,
      "aybe": 609,
      "nger": 610,
      "Ġus": 611,
      "fter": 612,
      "Ġhapp": 613,
      "my": 614,
      "mber": 615,
      "Younger": 616,
      "and": 617,
      "Ġcould": 618,
      "ive": 619,
      "ĠThank": 620,
      "eet": 621,
      "Ġpro": 622,
      "Ġsomething": 623,
      "That": 624,
      "Ġevery": 625,
      "ort": 626,
      "Ġokay": 627,
      "ove": 628,
      "ite": 629,
      "Ġeat": 630,
      "eah": 631,
      "member": 632,
      "ec": 633,
      "Ġfind": 634,
      "Ġsha": 635,
      "Ġbu": 636,
      "ers": 637,
      "ect": 638,
      "ĠE": 639,
      "ard": 640,
      "ies": 641,
      "Ġfrom": 642,
      "ĠThey": 643,
      "ough": 644,
      "ty": 645,
      "Ġjob": 646,
      "ish": 647,
      "Ġthink": 648,
      "ause": 649,
      "Ġthing": 650,
      "Ġno": 651,
      "act": 652,
      "Ġback": 653,
      "Ġpre": 654,
      "ong": 655,
      "ĠNo": 656,
      "Ġtry": 657,
      "ame": 658,
      "ĠOh": 659,
      "nder": 660,
      "Ġex": 661,
      "Ġbec": 662,
      "Ġcare": 663,
      "ĠOkay": 664,
      "Ġafter": 665,
      "Ġcar": 666,
      "Ġsc": 667,
      "Ġke": 668,
      "Ġhand": 669,
      "Ġsay": 670,
      "ine": 671,
      "Ġqu": 672,
      "ĠR": 673,
      "Ġany": 674,
      "ĠHey": 675,
      "row": 676,
      "per": 677,
      "Ġwill": 678,
      "irst": 679,
      "Ġmean": 680,
      "Ġhere": 681,
      "Ġread": 682,
      "Ġwork": 683,
      "Ġgoing": 684,
      "um": 685,
      "Ġhad": 686,
      "Ġway": 687,
      "Ġreally": 688,
      "Ġsn": 689,
      "Ġar": 690,
      "ge": 691,
      "Ġbr": 692,
      "âĢ": 693,
      "Ġgot": 694,
      "Ġday": 695,
      "ny": 696,
      "Ġdoes": 697,
      "Ġgu": 698,
      "Ġdra": 699,
      "Ġtur": 700,
      "alk": 701,
      "'ve": 702,
      "Ġwater": 703,
      "Ġad": 704,
      "Ġstart": 705,
      "Ġsure": 706,
      "Ġcl": 707,
      "side": 708,
      "Ġtake": 709,
      "ven": 710,
      "Ġuse": 711,
      "Ġv": 712,
      "Ġfirst": 713,
      "Ġwho": 714,
      "Ġint": 715,
      "He": 716,
      "Ġimp": 717,
      "earn": 718,
      "actly": 719,
      "ue": 720,
      "Ġbecause": 721,
      "Ġsound": 722,
      "Ġcool": 723,
      "ike": 724,
      "ĠYeah": 725,
      "Ġbo": 726,
      "Ġcom": 727,
      "ĠHow": 728,
      "Ġkeep": 729,
      "Ġremember": 730,
      "low": 731,
      "ĠSo": 732,
      "les": 733,
      "Ġfriend": 734,
      "ff": 735,
      "Ġlearn": 736,
      "ther": 737,
      "ĠJ": 738,
      "Ġdown": 739,
      "Ġbet": 740,
      "...": 741,
      "eetie": 742,
      "Ġvery": 743,
      "Ġag": 744,
      "Ġwould": 745,
      "Ġthings": 746,
      "ĠDad": 747,
      "Ġshow": 748,
      "Ġen": 749,
      "ĠMom": 750,
      "atch": 751,
      "ach": 752,
      "ark": 753,
      "Ġunder": 754,
      "ĠMaybe": 755,
      "Ġlove": 756,
      "Ġtre": 757,
      "Ġ(": 758,
      "Ġfa": 759,
      "Ġmak": 760,
      "ting": 761,
      "ĠThanks": 762,
      "No": 763,
      "Ġtell": 764,
      "lf": 765,
      "Ġtr": 766,
      "Ġturn": 767,
      "Ġover": 768,
      "Ġbear": 769,
      "xactly": 770,
      "Ġeven": 771,
      "Ġnew": 772,
      "âĢĻ": 773,
      "day": 774,
      "Ġro": 775,
      "Ġhis": 776,
      "Okay": 777,
      "Ġsm": 778,
      "Ġcon": 779,
      "Ġfee": 780,
      "hy": 781,
      "Ġby": 782,
      "Ġwere": 783,
      "lock": 784,
      "Ġgreat": 785,
      "ation": 786,
      "Ġimport": 787,
      "leep": 788,
      "Ġpart": 789,
      "oy": 790,
      "ĠDo": 791,
      "ol": 792,
      "Ġother": 793,
      "Ġmo": 794,
      "Ġmight": 795,
      "Ġimportant": 796,
      "Ġpret": 797,
      "Ġhands": 798,
      "ĠF": 799,
      "Ġnice": 800,
      "Ġdi": 801,
      "Ġhappy": 802,
      "ss": 803,
      "Ġbetter": 804,
      "pl": 805,
      "Ġbl": 806,
      "Ġcareful": 807,
      "Ġbot": 808,
      "ĠGood": 809,
      "Ġgame": 810,
      "thing": 811,
      "Ġra": 812,
      "Ġagain": 813,
      "Ġtheir": 814,
      "vent": 815,
      "Ġmu": 816,
      "ĠLike": 817,
      "Ġguess": 818,
      "fore": 819,
      "ject": 820,
      "Ġnext": 821,
      "The": 822,
      "Ġshould": 823,
      "ves": 824,
      "Ġbeing": 825,
      "Ġsuper": 826,
      "Ġbefore": 827,
      "Ġwa": 828,
      "Ġinto": 829,
      "el": 830,
      "ways": 831,
      "ĠDid": 832,
      "Ġbit": 833,
      "ild": 834,
      "ĠPl": 835,
      "ho": 836,
      "Ġtoys": 837,
      "Ġstu": 838,
      "Ġblock": 839,
      "Ġball": 840,
      "Ġkind": 841,
      "Ġwhere": 842,
      "Ġshare": 843,
      "Ġshe": 844,
      "ving": 845,
      "Ġtoy": 846,
      "Ġhome": 847,
      "ade": 848,
      "Ġpe": 849,
      "Ġfast": 850,
      "Ġproject": 851,
      "Ġaway": 852,
      "Ġgive": 853,
      "stand": 854,
      "able": 855,
      "Ġwhi": 856,
      "Ġhear": 857,
      "ous": 858,
      "ird": 859,
      "Ġfeel": 860,
      "ull": 861,
      "Ġfi": 862,
      "Ġsounds": 863,
      "Ġpo": 864,
      "Good": 865,
      "Ġalways": 866,
      "Ġsk": 867,
      "unny": 868,
      "ease": 869,
      "Ġeveryone": 870,
      "Ġhappen": 871,
      "Ġlot": 872,
      "ople": 873,
      "eal": 874,
      "Ġsleep": 875,
      "Hey": 876,
      "Ġunderstand": 877,
      "dd": 878,
      "ĠWell": 879,
      "Ġhar": 880,
      "Ġche": 881,
      "ial": 882,
      "oach": 883,
      "ump": 884,
      "Ġwait": 885,
      "ose": 886,
      "Ġtoday": 887,
      "Ġstr": 888,
      "ffe": 889,
      "Ġdraw": 890,
      "ĠExactly": 891,
      "ĠLook": 892,
      "Ġfriends": 893,
      "Ġcha": 894,
      "ace": 895,
      "ked": 896,
      "ance": 897,
      "right": 898,
      "Ġmom": 899,
      "Ġbook": 900,
      "Ġsweetie": 901,
      "Ġbest": 902,
      "Ġsafe": 903,
      "Ġstill": 904,
      "Ġmuch": 905,
      "venture": 906,
      "oud": 907,
      "Ġid": 908,
      "old": 909,
      "Ġhu": 910,
      "ye": 911,
      "Ġoutside": 912,
      "Ġwon": 913,
      "Ġsnack": 914,
      "ĠJust": 915,
      "Ġun": 916,
      "Ġbre": 917,
      "Ġpeople": 918,
      "Ġready": 919,
      "Ġadventure": 920,
      "Ġwhy": 921,
      "gg": 922,
      "Ġdidn": 923,
      "Ġboth": 924,
      "Ġfin": 925,
      "ĠSee": 926,
      "other": 927,
      "Ġidea": 928,
      "Ġlea": 929,
      "Ġcour": 930,
      "Ġsl": 931,
      "ise": 932,
      "Ġgr": 933,
      "ist": 934,
      "Ġtalk": 935,
      "Ġhas": 936,
      "Ġfound": 937,
      "Ġaround": 938,
      "ble": 939,
      "red": 940,
      "ip": 941,
      "ouse": 942,
      "os": 943,
      "Ġhim": 944,
      "Ġcourse": 945,
      "Ġplaying": 946,
      "Ġhard": 947,
      "Ġtw": 948,
      "room": 949,
      "Ġmeans": 950,
      "hen": 951,
      "ĠIf": 952,
      "hes": 953,
      "But": 954,
      "Ġpick": 955,
      "Ġthese": 956,
      "Ġmade": 957,
      "iz": 958,
      "Ġapp": 959,
      "Ġstay": 960,
      "Ġcook": 961,
      "Ġoff": 962,
      "Ġtri": 963,
      "ummy": 964,
      "Ġtow": 965,
      "Ġcome": 966,
      "ract": 967,
      "Ġbuild": 968,
      "ĠMommy": 969,
      "Ġmaybe": 970,
      "Ġplant": 971,
      "Ġtea": 972,
      "ĠWhy": 973,
      "Ġact": 974,
      "als": 975,
      "Ġblocks": 976,
      "Ġplease": 977,
      "Ġold": 978,
      "ons": 979,
      "Ġres": 980,
      "Ġmakes": 981,
      "ac": 982,
      "Ġbunny": 983,
      "Ġdone": 984,
      "Ġhur": 985,
      "ning": 986,
      "lright": 987,
      "ush": 988,
      "Ġher": 989,
      "Ġever": 990,
      "Ġstuff": 991,
      "arm": 992,
      "utor": 993,
      "Ġbird": 994,
      "age": 995,
      "Ġlater": 996,
      "Ġbeen": 997,
      "up": 998,
      "Ġwatch": 999,
      "nce": 1000,
      "Ġbreak": 1001,
      "Ġred": 1002,
      "Ġpretty": 1003,
      "night": 1004,
      "Ġpr": 1005,
      "th": 1006,
      "mm": 1007,
      "It": 1008,
      "imes": 1009,
      "Ġown": 1010,
      "Ġbed": 1011,
      "ment": 1012,
      "ts": 1013,
      "Ġanim": 1014,
      "Ġbox": 1015,
      "Ġthough": 1016,
      "iny": 1017,
      "ffere": 1018,
      "Ġdin": 1019,
      "chool": 1020,
      "ream": 1021,
      "ĠHere": 1022,
      "randpa": 1023,
      "eddy": 1024,
      "ash": 1025,
      "ity": 1026,
      "Ġsomeone": 1027,
      "hed": 1028,
      "Ġdiffere": 1029,
      "Ġthose": 1030,
      "Tutor": 1031,
      "Coach": 1032,
      "Ġman": 1033,
      "Ġsit": 1034,
      "ms": 1035,
      "ring": 1036,
      "ti": 1037,
      "ually": 1038,
      "Ġfood": 1039,
      "Ġkid": 1040,
      "de": 1041,
      "Ġspec": 1042,
      "ĠMr": 1043,
      "Ġdoing": 1044,
      "Ġsaid": 1045,
      "Ġwr": 1046,
      "Ġreal": 1047,
      "ner": 1048,
      "Ġset": 1049,
      "Ġschool": 1050,
      "Ġstick": 1051,
      "Ġhigh": 1052,
      "ict": 1053,
      "Ġrun": 1054,
      "ĠDaddy": 1055,
      "ne": 1056,
      "iss": 1057,
      "Ġfix": 1058,
      "Ġfl": 1059,
      "Ġdoesn": 1060,
      "lor": 1061,
      "ence": 1062,
      "Ġfinish": 1063,
      "ute": 1064,
      "ĠSure": 1065,
      "ĠRe": 1066,
      "Ġtra": 1067,
      "Ġwithout": 1068,
      "Ġwhile": 1069,
      "Ġtwo": 1070,
      "Ġflow": 1071,
      "Ġlist": 1072,
      "Ġplan": 1073,
      "ĠMy": 1074,
      "Ġnight": 1075,
      "Ġfair": 1076,
      "asure": 1077,
      "'d": 1078,
      "ead": 1079,
      "Ġsun": 1080,
      "ath": 1081,
      "ouch": 1082,
      "Ġwind": 1083,
      "Ġstrong": 1084,
      "Ġaw": 1085,
      "ions": 1086,
      "iet": 1087,
      "irlf": 1088,
      "irlfriend": 1089,
      "Ġblue": 1090,
      "Ġwent": 1091,
      "Ġlong": 1092,
      "na": 1093,
      "mor": 1094,
      "Ġeverything": 1095,
      "Ġgrow": 1096,
      "Ġdrag": 1097,
      "Ġle": 1098,
      "ma": 1099,
      "Ġmaking": 1100,
      "Ġcolor": 1101,
      "so": 1102,
      "Ġtreasure": 1103,
      "Girlfriend": 1104,
      "Ġchan": 1105,
      "Ġfo": 1106,
      "ork": 1107,
      "reen": 1108,
      "Ġspecial": 1109,
      "eep": 1110,
      "ost": 1111,
      "ĠRemember": 1112,
      "rink": 1113,
      "Ġkit": 1114,
      "fect": 1115,
      "ĠIs": 1116,
      "Ġcall": 1117,
      "Ġdifferent": 1118,
      "Ġask": 1119,
      "Ġhappened": 1120,
      "Ġduck": 1121,
      "friend": 1122,
      "Ġde": 1123,
      "akes": 1124,
      "ler": 1125,
      "ory": 1126,
      "Ġhurt": 1127,
      "Ġsaw": 1128,
      "unch": 1129,
      "Ġend": 1130,
      "ps": 1131,
      "Ġgen": 1132,
      "ily": 1133,
      "erfect": 1134,
      "Ġpract": 1135,
      "Ġpark": 1136,
      "Ġanimals": 1137,
      "ave": 1138,
      "cc": 1139,
      "Ġhelping": 1140,
      "Ġse": 1141,
      "anc": 1142,
      "ppy": 1143,
      "pen": 1144,
      "ĠThen": 1145,
      "gy": 1146,
      "Ġinside": 1147,
      "Ġdry": 1148,
      "Ġsmall": 1149,
      "Ġgl": 1150,
      "Ġcr": 1151,
      "ĠOf": 1152,
      "Boy": 1153,
      "Boyfriend": 1154,
      "Ġmag": 1155,
      "Ġtrying": 1156,
      "icture": 1157,
      "Ġwash": 1158,
      "Ġlisten": 1159,
      "oes": 1160,
      "ount": 1161,
      "arden": 1162,
      "Ġgetting": 1163,
      "Ġstories": 1164,
      "esome": 1165,
      "Ġdec": 1166,
      "Ġroom": 1167,
      "Ġwalk": 1168,
      "ken": 1169,
      "Ġcold": 1170,
      "ĠWhen": 1171,
      "Ġpu": 1172,
      "Ġpicture": 1173,
      "aper": 1174,
      "Ġword": 1175,
      "Ġgarden": 1176,
      "We": 1177,
      "Ġtruck": 1178,
      "Ġdragon": 1179,
      "Ġhold": 1180,
      "Ġisn": 1181,
      "ĠGrandpa": 1182,
      "augh": 1183,
      "Ġsqu": 1184,
      "Ġhouse": 1185,
      "work": 1186,
      "weetie": 1187,
      "ĠThis": 1188,
      "ress": 1189,
      "Ġdis": 1190,
      "Ġpain": 1191,
      "ins": 1192,
      "Ġthan": 1193,
      "Ġthr": 1194,
      "Ġclo": 1195,
      "Ġclass": 1196,
      "Ġdinner": 1197,
      "Ġupon": 1198,
      "oney": 1199,
      "Thank": 1200,
      "Ġanything": 1201,
      "Ġexpl": 1202,
      "Ġmess": 1203,
      "Ġjump": 1204,
      "ĠPlus": 1205,
      "Ġpie": 1206,
      "Ġalso": 1207,
      "Ġbra": 1208,
      "vor": 1209,
      "Ġanother": 1210,
      "Ġsoon": 1211,
      "Ġquiet": 1212,
      "bb": 1213,
      "What": 1214,
      "Ġfish": 1215,
      "Ġthrough": 1216,
      "Yeah": 1217,
      "ared": 1218,
      "romise": 1219,
      "Ġlast": 1220,
      "Ġfall": 1221,
      "irit": 1222,
      "Ġinst": 1223,
      "ary": 1224,
      "Ġspirit": 1225,
      "Ġproble": 1226,
      "morrow": 1227,
      "ĠThere": 1228,
      "Ġtomorrow": 1229,
      "Ġel": 1230,
      "Ġtree": 1231,
      "ĠAlright": 1232,
      "ung": 1233,
      "time": 1234,
      "Ġteddy": 1235,
      "ĠYay": 1236,
      "Ġfly": 1237,
      "ddler": 1238,
      "bs": 1239,
      "Ġmagic": 1240,
      "Ġnap": 1241,
      "ree": 1242,
      "Ġyummy": 1243,
      "Ġits": 1244,
      "Ġeach": 1245,
      "Ġgi": 1246,
      "Ġlooks": 1247,
      "Ġunt": 1248,
      "ng": 1249,
      "joy": 1250,
      "Ġwarm": 1251,
      "Ġchi": 1252,
      "Oh": 1253,
      "Ġgentle": 1254,
      "Ġteam": 1255,
      "And": 1256,
      "Ġtower": 1257,
      "Ġdir": 1258,
      "Ġsometimes": 1259,
      "oon": 1260,
      "ign": 1261,
      "ved": 1262,
      "Ġelse": 1263,
      "Ġtable": 1264,
      "led": 1265,
      "Ġstar": 1266,
      "Ġsand": 1267,
      "Ġfe": 1268,
      "here": 1269,
      "Ġhot": 1270,
      "Ġju": 1271,
      "Ġwo": 1272,
      "Ġsad": 1273,
      "Ġwear": 1274,
      "Ġdrink": 1275,
      "ense": 1276,
      "Ġbad": 1277,
      "Ġpaper": 1278,
      "Ġwee": 1279,
      "ĠRea": 1280,
      "Ġgreen": 1281,
      "Ġbring": 1282,
      "Ġmove": 1283,
      "cus": 1284,
      "ret": 1285,
      "Ġonly": 1286,
      "Ġawesome": 1287,
      "ĠU": 1288,
      "Ġfavor": 1289,
      "Ġflowers": 1290,
      "eak": 1291,
      "ĠShe": 1292,
      "Ġfore": 1293,
      "ious": 1294,
      "Ġgra": 1295,
      "Ġlight": 1296,
      "Ġactually": 1297,
      "Ġused": 1298,
      "Ġthought": 1299,
      "orry": 1300,
      "ĠGreat": 1301,
      "ĠGot": 1302,
      "Ġch": 1303,
      "Ġuntil": 1304,
      "Ġgets": 1305,
      "self": 1306,
      "Ġcho": 1307,
      "Ġresp": 1308,
      "gs": 1309,
      "Ġair": 1310,
      "Ġswing": 1311,
      "hir": 1312,
      "Ġfavorite": 1313,
      "Ġopen": 1314,
      "rel": 1315,
      "imb": 1316,
      "Ġpretend": 1317,
      "ience": 1318,
      "ĠYour": 1319,
      "Ġpractice": 1320,
      "Ġlearning": 1321,
      "ere": 1322,
      "Ġcomp": 1323,
      "Ġslow": 1324,
      "Ġtouch": 1325,
      "Ġsharing": 1326,
      "bye": 1327,
      "Ġplace": 1328,
      "Ġsoft": 1329,
      "Ġz": 1330,
      "ĠPlay": 1331,
      "ces": 1332,
      "Ġhelps": 1333,
      "Ġcont": 1334,
      "Ġwanted": 1335,
      "Ġbea": 1336,
      "ates": 1337,
      "aking": 1338,
      "Ġtiny": 1339,
      "amp": 1340,
      "Ġsupp": 1341,
      "lly": 1342,
      "Ġplants": 1343,
      "ange": 1344,
      "Exactly": 1345,
      "Ġthank": 1346,
      "Ġscared": 1347,
      "int": 1348,
      "Ġwell": 1349,
      "ail": 1350,
      "Ġsky": 1351,
      "Ġenjoy": 1352,
      "Ġdance": 1353,
      "ors": 1354,
      "ĠOne": 1355,
      "Ġdream": 1356,
      "ank": 1357,
      "Ġslide": 1358,
      "Ġhist": 1359,
      "Ġfr": 1360,
      "Ġinstead": 1361,
      "Ġrain": 1362,
      "ĠK": 1363,
      "Ġrest": 1364,
      "Ġloved": 1365,
      "Ġmommy": 1366,
      "Ġdeal": 1367,
      "ently": 1368,
      "Ġflo": 1369,
      "ddy": 1370,
      "Ġhead": 1371,
      "Ġ1": 1372,
      "Great": 1373,
      "ĠBe": 1374,
      "ten": 1375,
      "Ġwish": 1376,
      "Ġhop": 1377,
      "ating": 1378,
      "Well": 1379,
      "Ġsec": 1380,
      "Ġpromise": 1381,
      "aw": 1382,
      "Ġcatch": 1383,
      "Ġri": 1384,
      "Ġsuch": 1385,
      "Ġproblem": 1386,
      "Ġwet": 1387,
      "cle": 1388,
      "irrel": 1389,
      "Ġswim": 1390,
      "Ġsnow": 1391,
      "Ġfull": 1392,
      "ans": 1393,
      "ĠAre": 1394,
      "Ġthrow": 1395,
      "Ġclimb": 1396,
      "Ġgoes": 1397,
      "Ġlunch": 1398,
      "Ġlooking": 1399,
      "Ġnever": 1400,
      "ock": 1401,
      "Ġadd": 1402,
      "Ġheard": 1403,
      "ungry": 1404,
      "Ġquick": 1405,
      "ellow": 1406,
      "ĠSt": 1407,
      "Ġdri": 1408,
      "ĠTh": 1409,
      "Ġloud": 1410,
      "Ġwhole": 1411,
      "Ġwhich": 1412,
      "Ġstarted": 1413,
      "Ġwin": 1414,
      "Ġkids": 1415,
      "zy": 1416,
      "ucky": 1417,
      "Ġtoddler": 1418,
      "Ġjuice": 1419,
      "Ġshoes": 1420,
      "Ġcra": 1421,
      "Ġhelper": 1422,
      "av": 1423,
      "pt": 1424,
      "Ġph": 1425,
      "Ġfam": 1426,
      "Ġquite": 1427,
      "Ġbrave": 1428,
      "Ġbel": 1429,
      "Ġpaint": 1430,
      "Ġsquirrel": 1431,
      "Ġstop": 1432,
      "sh": 1433,
      "Ġtop": 1434,
      "Ġbro": 1435,
      "ĠAfter": 1436,
      "Ġmon": 1437,
      "Ġdark": 1438,
      "Ġteacher": 1439,
      "Ġexc": 1440,
      "Ġcut": 1441,
      "read": 1442,
      "Ġbabysitter": 1443,
      "Ġbas": 1444,
      "**,": 1445,
      "Ġenough": 1446,
      "Ġrock": 1447,
      "ĠDeal": 1448,
      "Ġrec": 1449,
      "Ġspl": 1450,
      "igg": 1451,
      "pped": 1452,
      "Ġbutter": 1453,
      "Ġclose": 1454,
      ".*": 1455,
      "ĠNot": 1456,
      "Ġcheck": 1457,
      "Ġhistory": 1458,
      "come": 1459,
      "ated": 1460,
      "anna": 1461,
      "Ġmany": 1462,
      "Ġwrite": 1463,
      "Ġpen": 1464,
      "ize": 1465,
      "Ġforest": 1466,
      "Ġdirty": 1467,
      "Ġglad": 1468,
      "oose": 1469,
      "Ġeas": 1470,
      "Ġhomework": 1471,
      "Ġmus": 1472,
      "ĠV": 1473,
      "Ġperfect": 1474,
      "Ġbrother": 1475,
      "Ġfro": 1476,
      "oup": 1477,
      "Ġhat": 1478,
      "Ġsmart": 1479,
      "Ġhungry": 1480,
      "ery": 1481,
      "Ġcup": 1482,
      "nderful": 1483,
      "Ġspace": 1484,
      "Ġsorry": 1485,
      "Ġcalled": 1486,
      "olute": 1487,
      "orm": 1488,
      "owl": 1489,
      "Ġquest": 1490,
      "olutely": 1491,
      "Ġproud": 1492,
      "Ġfunny": 1493,
      "Ġyes": 1494,
      "Ġpull": 1495,
      "ci": 1496,
      "ries": 1497,
      "Did": 1498,
      "Ġice": 1499,
      "alt": 1500,
      "Once": 1501,
      "orn": 1502,
      "Pl": 1503,
      "Ġhaving": 1504,
      "Ġgam": 1505,
      "mag": 1506,
      "atter": 1507,
      "'?\"": 1508,
      "St": 1509,
      "ings": 1510,
      "Ġmor": 1511,
      "Ġlots": 1512,
      "ower": 1513,
      "Ġsense": 1514,
      "rot": 1515,
      "bsolutely": 1516,
      "Ġpot": 1517,
      "Ġsol": 1518,
      "Ġcookies": 1519,
      "aste": 1520,
      "Ġwanna": 1521,
      "Ġpush": 1522,
      "ile": 1523,
      "key": 1524,
      "Sweetie": 1525,
      "eas": 1526,
      "cl": 1527,
      "yes": 1528,
      "Ġdes": 1529,
      "Ġothers": 1530,
      "erest": 1531,
      "Ġpiece": 1532,
      "man": 1533,
      "Ġworking": 1534,
      "Ġyellow": 1535,
      "most": 1536,
      "Ġhide": 1537,
      "Yay": 1538,
      "Ġcount": 1539,
      "Ġsing": 1540,
      "Ġdad": 1541,
      "tain": 1542,
      "uring": 1543,
      "ets": 1544,
      "Ġcat": 1545,
      "Ġturns": 1546,
      "Ġones": 1547,
      "Ġmin": 1548,
      "pping": 1549,
      "Ġac": 1550,
      "ggy": 1551,
      "Ġeating": 1552,
      "Ġeyes": 1553,
      "Ġvroom": 1554,
      "Can": 1555,
      "Ġgently": 1556,
      "lcome": 1557,
      "Ġhug": 1558,
      "Ġsibling": 1559,
      "Ġmorning": 1560,
      "Ġte": 1561,
      "bo": 1562,
      "ible": 1563,
      "Look": 1564,
      "Ġstand": 1565,
      "Ġfine": 1566,
      "more": 1567,
      "fin": 1568,
      "ipe": 1569,
      "Ġcame": 1570,
      "Ġride": 1571,
      "Ġonce": 1572,
      "Ġear": 1573,
      "Ġlearned": 1574,
      "ĠIn": 1575,
      "Ġbuddy": 1576,
      "Ġwelcome": 1577,
      "Ġsick": 1578,
      "Ġele": 1579,
      "Ġhit": 1580,
      "Ġinterest": 1581,
      "Ġwonderful": 1582,
      "ix": 1583,
      "Ġrace": 1584,
      "Ġorange": 1585,
      "Let": 1586,
      "ided": 1587,
      "Ġanymore": 1588,
      "Ġlo": 1589,
      "Ġspot": 1590,
      "Ġleaves": 1591,
      "Ġbath": 1592,
      "Ġparty": 1593,
      "aces": 1594,
      "Ġchange": 1595,
      "ĠReady": 1596,
      "Ġfamily": 1597,
      "zing": 1598,
      "Ġmov": 1599,
      "Ġtired": 1600,
      "Ġsweet": 1601,
      "Ġwasn": 1602,
      "'?": 1603,
      "Ġstuck": 1604,
      "Ġexplain": 1605,
      "Alright": 1606,
      "ĠEvery": 1607,
      "Ġexcit": 1608,
      "Ġsandw": 1609,
      "Ġapple": 1610,
      "appy": 1611,
      "Play": 1612,
      "ster": 1613,
      "Ġcreat": 1614,
      "ĠCoach": 1615,
      "ĠAll": 1616,
      "mon": 1617,
      "oot": 1618,
      "Ġfig": 1619,
      "ical": 1620,
      "Ġtrees": 1621,
      "Ġsays": 1622,
      "gu": 1623,
      "ĠWow": 1624,
      "Ġsticky": 1625,
      "Ġthinking": 1626,
      "Ġbite": 1627,
      "Ġanyone": 1628,
      "Ġlife": 1629,
      "ecause": 1630,
      "pe": 1631,
      "Ġsur": 1632,
      "Ġfeeling": 1633,
      "Ġless": 1634,
      "randma": 1635,
      "ĠDon": 1636,
      "Ġfocus": 1637,
      "Ġfire": 1638,
      "ug": 1639,
      "Ġheav": 1640,
      "sent": 1641,
      "Ġdoor": 1642,
      "ĠTo": 1643,
      "if": 1644,
      "Ġacc": 1645,
      "Ġsame": 1646,
      "eat": 1647,
      "ĠMe": 1648,
      "Ġjack": 1649,
      "Ġkitty": 1650,
      "Ġatt": 1651,
      "Ġplayed": 1652,
      "Ġdog": 1653,
      "Ġpoint": 1654,
      "Ġusing": 1655,
      "finite": 1656,
      "elt": 1657,
      "Ġcomes": 1658,
      "Of": 1659,
      "Ġdecided": 1660,
      "Ġfloor": 1661,
      "Ġalmost": 1662,
      "ub": 1663,
      "ĠSp": 1664,
      "finitely": 1665,
      "hip": 1666,
      "ooked": 1667,
      "Ġbirds": 1668,
      "Ġcars": 1669,
      "Ġtaking": 1670,
      "Ġgames": 1671,
      "Ġmusic": 1672,
      "Ġmost": 1673,
      "Ġhoney": 1674,
      "set": 1675,
      "Ġimag": 1676,
      "Ġpers": 1677,
      "Ġclot": 1678,
      "Ġheavy": 1679,
      "iv": 1680,
      "ilk": 1681,
      "Ġunderstanding": 1682,
      "ĠSomet": 1683,
      "ĠWas": 1684,
      "Ġstep": 1685,
      "ĠOnce": 1686,
      "Ġstars": 1687,
      "uct": 1688,
      "Ġho": 1689,
      "less": 1690,
      "Ġfelt": 1691,
      "Ġbroken": 1692,
      "llow": 1693,
      "Ġdro": 1694,
      "Ġyucky": 1695,
      "Ġtalking": 1696,
      "Ġext": 1697,
      "Ġtold": 1698,
      "Ġneeds": 1699,
      "ents": 1700,
      "Ġfigure": 1701,
      "Ġbelie": 1702,
      "ns": 1703,
      "its": 1704,
      "Ġbab": 1705,
      "ĠHmm": 1706,
      "astle": 1707,
      "Ġduring": 1708,
      "ire": 1709,
      "Ġmiss": 1710,
      "Ġgone": 1711,
      "Ġcookie": 1712,
      "Ġpir": 1713,
      "Ġground": 1714,
      "ules": 1715,
      "ĠSha": 1716,
      "Ġfew": 1717,
      "Ġama": 1718,
      "Ġsleepy": 1719,
      "Ġcarry": 1720,
      "Ġrel": 1721,
      "ier": 1722,
      "zz": 1723,
      "onna": 1724,
      "ĠHave": 1725,
      "Ġcray": 1726,
      "Ġsuperher": 1727,
      "str": 1728,
      "Ġknight": 1729,
      "Ġtrain": 1730,
      "Ġexper": 1731,
      "Ġworry": 1732,
      "ics": 1733,
      "Ġscience": 1734,
      "Ġpat": 1735,
      "Ġshiny": 1736,
      "Ġboat": 1737,
      "Ġamazing": 1738,
      "osed": 1739,
      "Ġbus": 1740,
      "Ġener": 1741,
      "Ġtall": 1742,
      "ĠMrs": 1743,
      "Ġdrawing": 1744,
      "ĠAbsolutely": 1745,
      "cken": 1746,
      "ices": 1747,
      "Ġdear": 1748,
      "Ġtook": 1749,
      "ĠSometimes": 1750,
      "Ġgonna": 1751,
      "Ġworld": 1752,
      "ross": 1753,
      "Ġmoon": 1754,
      "Ġlived": 1755,
      "raw": 1756,
      "Ġrules": 1757,
      "ĠWould": 1758,
      "Ġjacket": 1759,
      "where": 1760,
      "Ġrespons": 1761,
      "Ġblow": 1762,
      "ations": 1763,
      "Ġmovie": 1764,
      "Ġpop": 1765,
      "kend": 1766,
      "Ġprot": 1767,
      "Ġpass": 1768,
      "air": 1769,
      "Ġtim": 1770,
      "They": 1771,
      "ĠWill": 1772,
      "Ġwhite": 1773,
      "Ġfollow": 1774,
      "Ġenergy": 1775,
      "ward": 1776,
      "ĠSweetie": 1777,
      "Ġpour": 1778,
      "Ġcarrot": 1779,
      "Ġcre": 1780,
      "Ġweek": 1781,
      "Ġweekend": 1782,
      "Ġfrog": 1783,
      "So": 1784,
      "Ġfive": 1785,
      "Ġwouldn": 1786,
      "Ġtried": 1787,
      "ese": 1788,
      "Ġhelped": 1789,
      "Ġtight": 1790,
      "oring": 1791,
      "Ġsupposed": 1792,
      "Ġchild": 1793,
      "Ġexactly": 1794,
      "Ġskate": 1795,
      "Ġwood": 1796,
      "Ġmad": 1797,
      "Ġcomm": 1798,
      "Ġspill": 1799,
      "Ġpresent": 1800,
      "Ġside": 1801,
      "Ġname": 1802,
      "'.": 1803,
      "Ġcream": 1804,
      "Ġchair": 1805,
      "Ġhealt": 1806,
      "Ġsplash": 1807,
      "Ġland": 1808,
      "po": 1809,
      "Ġhuh": 1810,
      "Ġlost": 1811,
      "chen": 1812,
      "Ġmust": 1813,
      "br": 1814,
      "Ġsnacks": 1815,
      "cks": 1816,
      "der": 1817,
      "Ġseen": 1818,
      "dden": 1819,
      "bbles": 1820,
      "ax": 1821,
      "Ġyourself": 1822,
      "Ġthanks": 1823,
      "Ġbeaut": 1824,
      "ĠRight": 1825,
      "Ġlooked": 1826,
      "Ġadventures": 1827,
      "Ġcow": 1828,
      "Ġteach": 1829,
      "Ġtick": 1830,
      "ew": 1831,
      "Ġmoney": 1832,
      "ounds": 1833,
      "Ġtonight": 1834,
      "sty": 1835,
      "Ġhang": 1836,
      "Ġmilk": 1837,
      "Ġneighbor": 1838,
      "ges": 1839,
      "Ġmine": 1840,
      "Ġcoming": 1841,
      "Ġexp": 1842,
      "Ġrem": 1843,
      "ints": 1844,
      "ully": 1845,
      "Ġsong": 1846,
      "Ġru": 1847,
      "Ġboo": 1848,
      "Ġface": 1849,
      "Ġcolors": 1850,
      "Ġchicken": 1851,
      "Ġcastle": 1852,
      "ane": 1853,
      "Ġkitchen": 1854,
      "Ġknows": 1855,
      "Ġes": 1856,
      "Ġbal": 1857,
      "ness": 1858,
      "Ġscary": 1859,
      "Ġhuge": 1860,
      "ĠHi": 1861,
      "co": 1862,
      "Ġbrown": 1863,
      "Ġcouldn": 1864,
      "ds": 1865,
      "Ġage": 1866,
      "Ġsy": 1867,
      "Ġforget": 1868,
      "Ġperson": 1869,
      "Ġwords": 1870,
      "Ġinteresting": 1871,
      "Ġblank": 1872,
      "aps": 1873,
      "Ġmet": 1874,
      "hirsty": 1875,
      "Ġguys": 1876,
      "ĠDoes": 1877,
      "fully": 1878,
      "Ġhealthy": 1879,
      "...\"": 1880,
      "Ġtaste": 1881,
      "Ġgrab": 1882,
      "uts": 1883,
      "Ġgave": 1884,
      "Ġtrip": 1885,
      "og": 1886,
      "aur": 1887,
      "ich": 1888,
      "ens": 1889,
      "ches": 1890,
      "ient": 1891,
      "Ġsecret": 1892,
      "em": 1893,
      "Ġbody": 1894,
      "Ġfeed": 1895,
      "Ġblack": 1896,
      "uff": 1897,
      "Ġleave": 1898,
      "Ġbuy": 1899,
      "Ġkick": 1900,
      "Ġser": 1901,
      "Ġseed": 1902,
      "iful": 1903,
      "Ġfre": 1904,
      "Ġdet": 1905,
      "col": 1906,
      "Ġsaying": 1907,
      "fl": 1908,
      "ature": 1909,
      "Ġlive": 1910,
      "isy": 1911,
      "Ġsave": 1912,
      "Ġextra": 1913,
      "ĠBecause": 1914,
      "Ġmind": 1915,
      "ĠFor": 1916,
      "Ġdanc": 1917,
      "ides": 1918,
      "Ġhor": 1919,
      "Bye": 1920,
      "âĢĶ": 1921,
      "ĠSw": 1922,
      "llo": 1923,
      "Ġwild": 1924,
      "ĠBye": 1925,
      "hind": 1926,
      "pes": 1927,
      "Ġbuilding": 1928,
      "ls": 1929,
      "Ġclothes": 1930,
      "Ġart": 1931,
      "Ġpuppy": 1932,
      "form": 1933,
      "Ġpictures": 1934,
      "ĠAny": 1935,
      "ĠKeep": 1936,
      "Ġfarm": 1937,
      "Ġrep": 1938,
      "Ġbaby": 1939,
      "Ġmagical": 1940,
      "Ġcir": 1941,
      "ants": 1942,
      "Ġbooks": 1943,
      "Ġwipe": 1944,
      "ding": 1945,
      "Ġfar": 1946,
      "Ġbright": 1947,
      "Ġbehind": 1948,
      "hirt": 1949,
      "Ġyet": 1950,
      "Ġstarts": 1951,
      "Ġbutt": 1952,
      "ition": 1953,
      "Ġseem": 1954,
      "Ġbigger": 1955,
      "Ġbelieve": 1956,
      "ĠVroom": 1957,
      "kes": 1958,
      "uit": 1959,
      "hant": 1960,
      "ention": 1961,
      "Ġroll": 1962,
      "Ġrespect": 1963,
      "Ġmath": 1964,
      "Ġwall": 1965,
      "Ġprotect": 1966,
      "Ġmouse": 1967,
      "Ġmix": 1968,
      "osaur": 1969,
      "io": 1970,
      "Here": 1971,
      "Ġban": 1972,
      "Ġsweep": 1973,
      "Ġbeautiful": 1974,
      "sp": 1975,
      "Ġweird": 1976,
      "To": 1977,
      "Help": 1978,
      "Ġsandwich": 1979,
      "uc": 1980,
      "oof": 1981,
      "Ġdrive": 1982,
      "Ġpower": 1983,
      "cess": 1984,
      "eaking": 1985,
      "rib": 1986,
      "Ġstore": 1987,
      "Ġhappens": 1988,
      "Ġfill": 1989,
      "Ġper": 1990,
      "iggles": 1991,
      "omps": 1992,
      "ĠFine": 1993,
      "Ġcloud": 1994,
      "Ġwrong": 1995,
      "ters": 1996,
      "ident": 1997,
      "Ġcover": 1998,
      "kin": 1999,
      "Ġdoggy": 2000,
      "aught": 2001,
      "Ġpig": 2002,
      "ase": 2003,
      "colate": 2004,
      "Ġturtle": 2005,
      "ape": 2006,
      "ched": 2007,
      "ĠThomps": 2008,
      "ĠThompson": 2009,
      "orts": 2010,
      "ially": 2011,
      "Ġshake": 2012,
      "Ġ2": 2013,
      "Ġtreat": 2014,
      "Wow": 2015,
      "ult": 2016,
      "Ġknock": 2017,
      "Ġbrush": 2018,
      "Ġthree": 2019,
      "Happy": 2020,
      "Ġthirsty": 2021,
      "Ġegg": 2022,
      "ond": 2023,
      "Ġant": 2024,
      "ouble": 2025,
      "Ġam": 2026,
      "Ġfeet": 2027,
      "eeth": 2028,
      "Ġcleaning": 2029,
      "ycle": 2030,
      "Ġfit": 2031,
      "ĠWant": 2032,
      "ffect": 2033,
      "ĠMore": 2034,
      "Ġclear": 2035,
      "Ġsuperhero": 2036,
      "ĠWho": 2037,
      "ils": 2038,
      "Ġvide": 2039,
      "All": 2040,
      "light": 2041,
      "Ġshirt": 2042,
      "iced": 2043,
      "Ġcheese": 2044,
      "Ġtakes": 2045,
      "Ġbowl": 2046,
      "Ġexplore": 2047,
      "illy": 2048,
      "ric": 2049,
      "Ġbat": 2050,
      "Ġpirate": 2051,
      "urn": 2052,
      "ĠReally": 2053,
      "ude": 2054,
      "Ġleft": 2055,
      "ccer": 2056,
      "ĠPerfect": 2057,
      "Ġcozy": 2058,
      "Ġdreams": 2059,
      "ought": 2060,
      "Ġpieces": 2061,
      "Ġfoot": 2062,
      "ĠCome": 2063,
      "anger": 2064,
      "do": 2065,
      "Ġarg": 2066,
      "Ġlate": 2067,
      "Ġhope": 2068,
      "ars": 2069,
      "Ġhorse": 2070,
      "ield": 2071,
      "ber": 2072,
      "hie": 2073,
      "ows": 2074,
      "Ġbubbles": 2075,
      "Ġrunning": 2076,
      "Ġteeth": 2077,
      "Ġolder": 2078,
      "Ġgrass": 2079,
      "Ġlistening": 2080,
      "Ġapples": 2081,
      "oom": 2082,
      "Ġbalance": 2083,
      "Ġyear": 2084,
      "een": 2085,
      "Ġtrue": 2086,
      "sm": 2087,
      "ang": 2088,
      "Ġupset": 2089,
      "Ġtest": 2090,
      "Ġsmile": 2091,
      "Ġmap": 2092,
      "Ġinv": 2093,
      "gr": 2094,
      "Ġemp": 2095,
      "More": 2096,
      "iling": 2097,
      "ĠTell": 2098,
      "ues": 2099,
      "Ġcoll": 2100,
      "Ġsign": 2101,
      "Ġchocolate": 2102,
      "iles": 2103,
      "Ġfeels": 2104,
      "Ġspoon": 2105,
      "pec": 2106,
      "ards": 2107,
      "ĠWhere": 2108,
      "to": 2109,
      "Me": 2110,
      "ugg": 2111,
      "dle": 2112,
      "Ġwindy": 2113,
      "Ġhair": 2114,
      "alked": 2115,
      "ished": 2116,
      "Ġquestion": 2117,
      "Ġproper": 2118,
      "phant": 2119,
      "Ġfort": 2120,
      "Ġnoise": 2121,
      "Ġpress": 2122,
      "ale": 2123,
      "pri": 2124,
      "arts": 2125,
      "Ġchoice": 2126,
      "Ġstudy": 2127,
      "ĠAl": 2128,
      "els": 2129,
      "See": 2130,
      "Ġvis": 2131,
      "ana": 2132,
      "Ġsoccer": 2133,
      "Ġdinosaur": 2134,
      "Ġflower": 2135,
      "Ġphone": 2136,
      "Ġrabb": 2137,
      "ines": 2138,
      "pecially": 2139,
      "Ġpic": 2140,
      "Ġespecially": 2141,
      "Ġcute": 2142,
      "Maybe": 2143,
      "ont": 2144,
      "Ġwake": 2145,
      "--": 2146,
      "fet": 2147,
      "izz": 2148,
      "Ġblanket": 2149,
      "Ġquickly": 2150,
      "reci": 2151,
      "ried": 2152,
      "Ġhero": 2153,
      "ities": 2154,
      "Ġcake": 2155,
      "ever": 2156,
      "ime": 2157,
      "ual": 2158,
      "Ġstre": 2159,
      "mmer": 2160,
      "lex": 2161,
      "Ġworks": 2162,
      "Ġcons": 2163,
      "Ġlau": 2164,
      "Ġchoose": 2165,
      "Ġjo": 2166,
      "Ġmeet": 2167,
      "Ġhidden": 2168,
      "ĠClean": 2169,
      "ĠSome": 2170,
      ".)": 2171,
      "Ġtelling": 2172,
      "utes": 2173,
      "Ġbump": 2174,
      "lue": 2175,
      "ral": 2176,
      "ĠEveryone": 2177,
      "Ġmed": 2178,
      "Ġcry": 2179,
      "Ġclap": 2180,
      "Ġcompl": 2181,
      "Like": 2182,
      "Ġoften": 2183,
      "llen": 2184,
      "no": 2185,
      "ĠSounds": 2186,
      "Ġhandle": 2187,
      "Ġappreci": 2188,
      "Ġaren": 2189,
      "Ġcand": 2190,
      "Ġvideo": 2191,
      "Ġmatter": 2192,
      "ming": 2193,
      "Ġmist": 2194,
      "eather": 2195,
      "earch": 2196,
      "Ġdress": 2197,
      "Ġnear": 2198,
      "Ġbread": 2199,
      "Ġideas": 2200,
      "ĠHelp": 2201,
      "ready": 2202,
      "Ġref": 2203,
      "ĠGrandma": 2204,
      "Ġdel": 2205,
      "Ġseeds": 2206,
      "ider": 2207,
      "ipp": 2208,
      "rect": 2209,
      "Ġpond": 2210,
      "Ġalright": 2211,
      "vel": 2212,
      "Ġkiss": 2213,
      "Ġeasy": 2214,
      "Ġdist": 2215,
      "Ġplaces": 2216,
      "ĠTeddy": 2217,
      "Ġenv": 2218,
      "Ġtrack": 2219,
      "uce": 2220,
      "Ġalready": 2221,
      "Ġcor": 2222,
      "ze": 2223,
      "Ġpast": 2224,
      "Ġdanger": 2225,
      "Ġcouch": 2226,
      "Night": 2227,
      "vers": 2228,
      "Ġcamp": 2229,
      "rew": 2230,
      "hh": 2231,
      "ountain": 2232,
      "If": 2233,
      "fast": 2234,
      "Ġnoticed": 2235,
      "iron": 2236,
      "Ġfield": 2237,
      "imp": 2238,
      "Ġtrick": 2239,
      "Ġbutton": 2240,
      "ife": 2241,
      "Ġkeeps": 2242,
      "ility": 2243,
      "ironment": 2244,
      "ket": 2245,
      "Ġboring": 2246,
      "!'": 2247,
      "ered": 2248,
      "Sure": 2249,
      "Qu": 2250,
      "How": 2251,
      "Ġtough": 2252,
      "ĠBig": 2253,
      "ĠSharing": 2254,
      "Ġsilly": 2255,
      "Ġnoisy": 2256,
      "Ġenvironment": 2257,
      "fly": 2258,
      "Ġglass": 2259,
      "Ġminutes": 2260,
      "Ġgiant": 2261,
      "izza": 2262,
      "Ġpri": 2263,
      "rap": 2264,
      "Ġgar": 2265,
      "Ġass": 2266,
      "lls": 2267,
      "gest": 2268,
      "Ġpuzz": 2269,
      "ator": 2270,
      "ument": 2271,
      "Ġnam": 2272,
      "ĠGo": 2273,
      "outh": 2274,
      "Ġcontro": 2275,
      "Clean": 2276,
      "Ġskill": 2277,
      "Ġfaster": 2278,
      "Ġappreciate": 2279,
      "Ġter": 2280,
      "Ġtrouble": 2281,
      "eed": 2282,
      "ution": 2283,
      "ĠBu": 2284,
      "Ġneeded": 2285,
      "Ġusually": 2286,
      "iting": 2287,
      "Ġbedtime": 2288,
      "ord": 2289,
      "oth": 2290,
      "ks": 2291,
      "Ġelephant": 2292,
      "Ġexcited": 2293,
      "rr": 2294,
      "Ġyard": 2295,
      "Ġwaiting": 2296,
      "Ġliving": 2297,
      "ĠNext": 2298,
      "aus": 2299,
      "rac": 2300,
      "Why": 2301,
      "Ġkey": 2302,
      "fety": 2303,
      "Ġcommun": 2304,
      "Ġtummy": 2305,
      "Ġve": 2306,
      "Ġexamp": 2307,
      "Ġtimes": 2308,
      "Ġhey": 2309,
      "Ġcal": 2310,
      "Ġrabbit": 2311,
      "Ġfight": 2312,
      "king": 2313,
      "Ġgrandpa": 2314,
      "nack": 2315,
      "ather": 2316,
      "Ġexciting": 2317,
      "Ġsea": 2318,
      "Ġmonkey": 2319,
      "Ġairpl": 2320,
      "ones": 2321,
      "Ġbiggest": 2322,
      "Ġpol": 2323,
      "het": 2324,
      "Ġed": 2325,
      "Do": 2326,
      "Ġcarrots": 2327,
      "Ġinter": 2328,
      "Ġla": 2329,
      "Ġbike": 2330,
      "ures": 2331,
      "One": 2332,
      "Ġdirt": 2333,
      "hisk": 2334,
      "Ġempty": 2335,
      "Ġconf": 2336,
      "Ġmot": 2337,
      "ĠHold": 2338,
      "Ġevent": 2339,
      "Ġputting": 2340,
      "efinitely": 2341,
      "Ġpus": 2342,
      "umb": 2343,
      "Ġimagine": 2344,
      "Ġtot": 2345,
      "Ġdrop": 2346,
      "Ġcoat": 2347,
      "Ġserious": 2348,
      "ball": 2349,
      "Ġtickle": 2350,
      "Ġcarefully": 2351,
      "Ġcap": 2352,
      "Thanks": 2353,
      "Parent": 2354,
      "Ġreading": 2355,
      "Ġship": 2356,
      "Ġbag": 2357,
      "uffy": 2358,
      "aughty": 2359,
      "Ġsoup": 2360,
      "Ġasleep": 2361,
      "Ġwants": 2362,
      "Ġowl": 2363,
      "ren": 2364,
      "Ġbecome": 2365,
      "ince": 2366,
      "Ġbreakfast": 2367,
      "Ġanimal": 2368,
      "Ġflying": 2369,
      "Ġcrack": 2370,
      "nect": 2371,
      "Ġquestions": 2372,
      "Ġpur": 2373,
      "stem": 2374,
      "ĠCool": 2375,
      "Ġmountain": 2376,
      "Ġshar": 2377,
      "Ġcreate": 2378,
      "Ġasking": 2379,
      "ĠTr": 2380,
      "Ġhour": 2381,
      "Ġleg": 2382,
      "aj": 2383,
      "Ġsoap": 2384,
      "Ġnothing": 2385,
      "Ġwatching": 2386,
      "Ġfing": 2387,
      "Ġyeah": 2388,
      "Ġgiving": 2389,
      "ĠSam": 2390,
      "Ġchase": 2391,
      "Ġcu": 2392,
      "ĠWith": 2393,
      "Ġyours": 2394,
      "lew": 2395,
      "Ġchance": 2396,
      "Ġplate": 2397,
      "Ġnose": 2398,
      "sing": 2399,
      "Ġparent": 2400,
      "Ġsoil": 2401,
      "Ġeff": 2402,
      "Ġpizza": 2403,
      "Ġsurpri": 2404,
      "hiskers": 2405,
      "Ġreach": 2406,
      "Ġbreat": 2407,
      "Ġslowly": 2408,
      "Ġchallen": 2409,
      "Ġmoment": 2410,
      "ĠHello": 2411,
      "Rea": 2412,
      "line": 2413,
      "Ġjell": 2414,
      "ert": 2415,
      "Ġresponsib": 2416,
      "Ġty": 2417,
      "Ġworked": 2418,
      "Ġfact": 2419,
      "board": 2420,
      "ĠAh": 2421,
      "Ġlion": 2422,
      "Ġarms": 2423,
      "Ġphot": 2424,
      "mat": 2425,
      "Ġtear": 2426,
      "Ġballoon": 2427,
      "unt": 2428,
      "ĠFirst": 2429,
      "Ġsme": 2430,
      "Ġducks": 2431,
      "astic": 2432,
      "ĠPlease": 2433,
      "Ġcrayons": 2434,
      "Ġdefinitely": 2435,
      "Ġlaug": 2436,
      "Ġeverywhere": 2437,
      "Ġexplaining": 2438,
      "After": 2439,
      "Ġtrash": 2440,
      "ĠEat": 2441,
      "Ġbasket": 2442,
      "iding": 2443,
      "idge": 2444,
      "Ġmid": 2445,
      "Ġmoving": 2446,
      "Eat": 2447,
      "Ġbottle": 2448,
      "gan": 2449,
      "Ġpet": 2450,
      "logy": 2451,
      "Ġspread": 2452,
      "Ġparts": 2453,
      "Big": 2454,
      "onger": 2455,
      "Ġalong": 2456,
      "Ġaccident": 2457,
      "Ġpudd": 2458,
      "Ġmyself": 2459,
      "Ġpool": 2460,
      "Ġfell": 2461,
      "Ġincl": 2462,
      "Ġate": 2463,
      "ination": 2464,
      "ĠâĢ": 2465,
      "Ġbeans": 2466,
      "Ġbott": 2467,
      "ĠThink": 2468,
      "Ġmod": 2469,
      "Ġlad": 2470,
      "ait": 2471,
      "Ġconc": 2472,
      "Ġbutterfly": 2473,
      "Ġglue": 2474,
      "Ġdangerous": 2475,
      "ized": 2476,
      "ĠWhiskers": 2477,
      "head": 2478,
      "ably": 2479,
      "sed": 2480,
      "):": 2481,
      "Ġband": 2482,
      "Ġbecame": 2483,
      "ular": 2484,
      "iger": 2485,
      "ĠTV": 2486,
      "ud": 2487,
      "Ġproblems": 2488,
      "Ġbrought": 2489,
      "ific": 2490,
      "Ġpainting": 2491,
      "Ġsimp": 2492,
      "Ġshot": 2493,
      "oun": 2494,
      "Ġmouth": 2495,
      "Ġwalking": 2496,
      "Ġfree": 2497,
      "Ġnicely": 2498,
      "Ġhappily": 2499,
      "Ġshelf": 2500,
      "ope": 2501,
      "Ġnaughty": 2502,
      "Ġgold": 2503,
      "Ġshared": 2504,
      "Ġmar": 2505,
      "Ġexample": 2506,
      "Ġpack": 2507,
      "Ġwindow": 2508,
      "Ġtech": 2509,
      "ia": 2510,
      "Now": 2511,
      "heart": 2512,
      "lves": 2513,
      "aterial": 2514,
      "ĠGoodnight": 2515,
      "iqu": 2516,
      "ging": 2517,
      "ments": 2518,
      "Ġpill": 2519,
      "Ġconnect": 2520,
      "Ġpuzzle": 2521,
      "ah": 2522,
      "Ġpanc": 2523,
      "Ġpresentation": 2524,
      "ĠYummy": 2525,
      "ative": 2526,
      "Ġairplane": 2527,
      "kins": 2528,
      "Ġremind": 2529,
      "ground": 2530,
      "Ġcaught": 2531,
      "Ġyoung": 2532,
      "aughs": 2533,
      "Ġmark": 2534,
      "Ġtoast": 2535,
      "Very": 2536,
      "urt": 2537,
      "Ġdeep": 2538,
      "Ġzoo": 2539,
      "Ġelect": 2540,
      "uh": 2541,
      "Ġglo": 2542,
      "Ġbuck": 2543,
      "Ġbase": 2544,
      "Ġlead": 2545,
      "Ġclouds": 2546,
      "bably": 2547,
      "oh": 2548,
      "Ġcur": 2549,
      "ĠAw": 2550,
      "Ġcandy": 2551,
      "Ġmaterial": 2552,
      "Ġvo": 2553,
      "starts": 2554,
      "Ġfruit": 2555,
      "Ġtotally": 2556,
      "Ġkiddo": 2557,
      "Ġgroup": 2558,
      "Ġfinding": 2559,
      "Ġheart": 2560,
      "Ġkept": 2561,
      "Ġturned": 2562,
      "Ġsneak": 2563,
      "Ġparents": 2564,
      "Deal": 2565,
      "Ġret": 2566,
      "Ġacross": 2567,
      "irl": 2568,
      "Ġsho": 2569,
      "Ġvol": 2570,
      "Ġcharac": 2571,
      "ural": 2572,
      "Ġlesson": 2573,
      "umber": 2574,
      "Ġcrayon": 2575,
      "Ġstra": 2576,
      "Ġdaddy": 2577,
      "Ġsupport": 2578,
      "Ġways": 2579,
      "Ġeasier": 2580,
      "Ġtowel": 2581,
      "ĠBeing": 2582,
      "Ġpump": 2583,
      "Ġval": 2584,
      "hetti": 2585,
      "ĠWils": 2586,
      "oop": 2587,
      "Ġstraw": 2588,
      "ĠWilson": 2589,
      "ister": 2590,
      "ĠMax": 2591,
      "Ġeng": 2592,
      "itch": 2593,
      "Ġlift": 2594,
      "bit": 2595,
      "Ġknew": 2596,
      "Ġmanage": 2597,
      "Ġawake": 2598,
      "Ġkinda": 2599,
      "giggles": 2600,
      "ged": 2601,
      "cept": 2602,
      ".'": 2603,
      "ĠâĢĵ": 2604,
      "lic": 2605,
      "aghetti": 2606,
      "Ġpar": 2607,
      "yard": 2608,
      "Ġdays": 2609,
      "ajam": 2610,
      "Ġlose": 2611,
      "land": 2612,
      "Ġhunt": 2613,
      "ĠSammy": 2614,
      "Bear": 2615,
      "irth": 2616,
      "Ġlaw": 2617,
      "ĠHigh": 2618,
      "Ġnamed": 2619,
      "Ġking": 2620,
      "Ġtast": 2621,
      "icks": 2622,
      "Ġdr": 2623,
      "arth": 2624,
      "pic": 2625,
      "crib": 2626,
      "Ġmodel": 2627,
      "Ġseek": 2628,
      "Ġwoods": 2629,
      "walk": 2630,
      "Ġtrust": 2631,
      "Ġpee": 2632,
      "ĠEarth": 2633,
      "selves": 2634,
      "Ġline": 2635,
      "Ġdig": 2636,
      "ĠHa": 2637,
      "Ġcorn": 2638,
      "Ġprobably": 2639,
      "monstr": 2640,
      "Ġsink": 2641,
      "Ġinc": 2642,
      "Ġtown": 2643,
      "Ġvisit": 2644,
      "ĠPark": 2645,
      "ony": 2646,
      "ĠWatch": 2647,
      "Ġround": 2648,
      "anut": 2649,
      "Ġshouldn": 2650,
      "Goodnight": 2651,
      "Ġsolve": 2652,
      "Ġdancing": 2653,
      "Ġreg": 2654,
      "Ġcard": 2655,
      "Ġsort": 2656,
      "Ġshort": 2657,
      "Ġfut": 2658,
      "ky": 2659,
      "ween": 2660,
      "Ġoce": 2661,
      "ades": 2662,
      "ĠMake": 2663,
      "nic": 2664,
      "cal": 2665,
      "ĠDefinitely": 2666,
      "idy": 2667,
      "Ġdesign": 2668,
      "icing": 2669,
      "Ġcrazy": 2670,
      "Ġchar": 2671,
      "Ġbanana": 2672,
      "Ġaffect": 2673,
      "plash": 2674,
      "Ġsetting": 2675,
      "Ġlick": 2676,
      "Ġran": 2677,
      "Ġsub": 2678,
      "Hi": 2679,
      "cked": 2680,
      "Ġlegs": 2681,
      "Ġproperly": 2682,
      "ops": 2683,
      "Ġargument": 2684,
      "Ġroo": 2685,
      "ertain": 2686,
      "Not": 2687,
      "Ġeggs": 2688,
      "Ġimpro": 2689,
      "Ġdump": 2690,
      "Ġfuture": 2691,
      "bra": 2692,
      "ĠCar": 2693,
      "Ġorgan": 2694,
      "**.": 2695,
      "Ġtale": 2696,
      "app": 2697,
      "Ġcase": 2698,
      "Ġhurry": 2699,
      "Ġdef": 2700,
      "gar": 2701,
      "Ġdoct": 2702,
      "uess": 2703,
      "Ġhiding": 2704,
      "entle": 2705,
      "Ġnature": 2706,
      "log": 2707,
      "Ġdifference": 2708,
      "Ġmiddle": 2709,
      "Ġconsider": 2710,
      "Ġform": 2711,
      "Ġlaugh": 2712,
      "Ġsnowman": 2713,
      "Ġquack": 2714,
      "',": 2715,
      "iches": 2716,
      "Ġsafely": 2717,
      "Ġresearch": 2718,
      "Ġoh": 2719,
      "Ġbackyard": 2720,
      "Ġhum": 2721,
      "Ġgrowing": 2722,
      "Ġsafety": 2723,
      "Ġmel": 2724,
      "ĠSpeaking": 2725,
      "ives": 2726,
      "ails": 2727,
      "terday": 2728,
      "Ġwings": 2729,
      "Ġspaghetti": 2730,
      "Ġshows": 2731,
      "Ġbottom": 2732,
      "erms": 2733,
      "Right": 2734,
      "Ġprocess": 2735,
      "Ġtape": 2736,
      "Ġtooth": 2737,
      "irthday": 2738,
      "Ġtidy": 2739,
      "Ġresponsible": 2740,
      "ajamas": 2741,
      "Sw": 2742,
      "orrow": 2743,
      "Ġsimple": 2744,
      "ete": 2745,
      "Ġagainst": 2746,
      "house": 2747,
      "ĠHappy": 2748,
      "yc": 2749,
      "ooth": 2750,
      "Ġfixed": 2751,
      "pect": 2752,
      "Ġflew": 2753,
      "Ġequ": 2754,
      "Ġess": 2755,
      "ĠSay": 2756,
      "Ġrob": 2757,
      "Ġhole": 2758,
      "Ġassign": 2759,
      "Ġsandwiches": 2760,
      "ique": 2761,
      "ian": 2762,
      "ilt": 2763,
      "Ġbin": 2764,
      "Ġdelic": 2765,
      "ĠYep": 2766,
      "ĠCould": 2767,
      "box": 2768,
      "Ġyears": 2769,
      "Ġbar": 2770,
      "Ġmoves": 2771,
      "Ġsecond": 2772,
      "Ġjar": 2773,
      "Ġforg": 2774,
      "Ġstraight": 2775,
      "Ġhaven": 2776,
      "Ġfluffy": 2777,
      "Ġgives": 2778,
      "Ġbugs": 2779,
      "Ġstea": 2780,
      "ats": 2781,
      "ĠAn": 2782,
      "Ġgarage": 2783,
      "Ġsince": 2784,
      "oosh": 2785,
      "Ġseems": 2786,
      "Ġsystem": 2787,
      "erv": 2788,
      "Ġheal": 2789,
      "ĠQu": 2790,
      "ule": 2791,
      "ancy": 2792,
      "Ġluck": 2793,
      "Ġplaytime": 2794,
      "Ġpiggy": 2795,
      "Was": 2796,
      "laughs": 2797,
      "Ġexperience": 2798,
      "iness": 2799,
      "hold": 2800,
      "Ġchest": 2801,
      "Ġslices": 2802,
      "Ġboy": 2803,
      "ĠYum": 2804,
      "locks": 2805,
      "ering": 2806,
      "Ġbetween": 2807,
      "Ġmud": 2808,
      "Ġmach": 2809,
      "My": 2810,
      "Ġhill": 2811,
      "Ġpeanut": 2812,
      "com": 2813,
      "ĠAwesome": 2814,
      "ĠIsn": 2815,
      "Ġsheep": 2816,
      "Ġalone": 2817,
      "Ġeye": 2818,
      "ĠSh": 2819,
      "Ġintense": 2820,
      "Ġepic": 2821,
      "Ġfresh": 2822,
      "Ġcalm": 2823,
      "Ġpay": 2824,
      "iew": 2825,
      "Ġdeer": 2826,
      "issors": 2827,
      "Ġstrawber": 2828,
      "mit": 2829,
      "ĠSorry": 2830,
      "Ġcontrol": 2831,
      "Ġgirl": 2832,
      "Ġcost": 2833,
      "Ġcertain": 2834,
      "Ġbug": 2835,
      "ined": 2836,
      "ote": 2837,
      "Ġkitten": 2838,
      "points": 2839,
      "Ġsharp": 2840,
      "Ġbroom": 2841,
      "Ġforward": 2842,
      "ĠCl": 2843,
      "Ġcreative": 2844,
      "Ġpengu": 2845,
      "bow": 2846,
      "Ġnumber": 2847,
      "Ġdiscus": 2848,
      "Ġwriting": 2849,
      "Ġtack": 2850,
      "dies": 2851,
      "Ġcere": 2852,
      "Ġnat": 2853,
      "ĠPe": 2854,
      "Ġadv": 2855,
      "ĠChe": 2856,
      "Ġcolorful": 2857,
      "Ġpajamas": 2858,
      "fort": 2859,
      "Ġlay": 2860,
      "Ġhon": 2861,
      "era": 2862,
      "olved": 2863,
      "Ġyesterday": 2864,
      "ises": 2865,
      "ĠEn": 2866,
      "Ġattention": 2867,
      "Ġnuts": 2868,
      "Ġsitting": 2869,
      "Ġmemor": 2870,
      "Ġpracticing": 2871,
      "Ġtalked": 2872,
      "Ġkeeping": 2873,
      "sc": 2874,
      "ĠAnytime": 2875,
      "Hold": 2876,
      "Ġshowing": 2877,
      "boo": 2878,
      "Ġrip": 2879,
      "Ġfas": 2880,
      "Story": 2881,
      "Ġeffort": 2882,
      "Ġprin": 2883,
      "ages": 2884,
      "Ġbeach": 2885,
      "Ġfinished": 2886,
      "Ġsmell": 2887,
      "oons": 2888,
      "Ġow": 2889,
      "Ġmessy": 2890,
      "Ġbirthday": 2891,
      "ph": 2892,
      "Ġarm": 2893,
      "Ġpotat": 2894,
      "guing": 2895,
      "Sha": 2896,
      "Ġent": 2897,
      "Ġinform": 2898,
      "Ġzoom": 2899,
      "sw": 2900,
      "Ġswings": 2901,
      "Ġmention": 2902,
      "Ġgerms": 2903,
      "Ġears": 2904,
      "ses": 2905,
      "Ġmain": 2906,
      "Ġpotty": 2907,
      "Ġocean": 2908,
      "Ġbee": 2909,
      "Ġpea": 2910,
      "Ġpicnic": 2911,
      "nch": 2912,
      "Ġsto": 2913,
      "Ġlevel": 2914,
      "Ġreas": 2915,
      "Ġflag": 2916,
      "Ġboots": 2917,
      "Ġvill": 2918,
      "Bunny": 2919,
      "Ġpants": 2920,
      "Ġcircle": 2921,
      "Ġpeas": 2922,
      "Fine": 2923,
      "Ġgrandma": 2924,
      "itten": 2925,
      "uper": 2926,
      "Ġliked": 2927,
      "Ġspark": 2928,
      "Cl": 2929,
      "Ġtiger": 2930,
      "Ġarguing": 2931,
      "Ġtowards": 2932,
      "Ġfingers": 2933,
      "Ġtail": 2934,
      "Ġagree": 2935,
      "corn": 2936,
      "Ġscar": 2937,
      "Ġprep": 2938,
      "vo": 2939,
      "Ġneck": 2940,
      "Ġlights": 2941,
      "Ġjelly": 2942,
      "hoes": 2943,
      "Ġcam": 2944,
      "Ġgas": 2945,
      "ustr": 2946,
      "Ġrocks": 2947,
      "Ġswimming": 2948,
      "Ġcharacter": 2949,
      "monstrates": 2950,
      "ĠWhi": 2951,
      "Ġable": 2952,
      "Ġtag": 2953,
      "Ġswea": 2954,
      "Ġstreet": 2955,
      "cycle": 2956,
      "Ġdescrib": 2957,
      "Ġdoll": 2958,
      "Ġsal": 2959,
      "pack": 2960,
      "Ġcollect": 2961,
      "Ġcamping": 2962,
      "Ġmistakes": 2963,
      "Ġskin": 2964,
      "da": 2965,
      "Ġonto": 2966,
      "Ġfancy": 2967,
      "ĠSa": 2968,
      "Ġskills": 2969,
      "Ġplayground": 2970,
      "Ġdoctor": 2971,
      "Ġasked": 2972,
      "Ġpath": 2973,
      "ĠGive": 2974,
      "Ġpatient": 2975,
      "Ġstrate": 2976,
      "Ġimpress": 2977,
      "Ġbucket": 2978,
      "cing": 2979,
      "Ġtext": 2980,
      "Hmm": 2981,
      "ta": 2982,
      "ĠZ": 2983,
      "Ġprom": 2984,
      "ĠMine": 2985,
      "Ġexperim": 2986,
      "Ġdecide": 2987,
      "Absolutely": 2988,
      "Ġlikes": 2989,
      "Ġsweetheart": 2990,
      "Ġtackle": 2991,
      "Ġcommunity": 2992,
      "Ġpillow": 2993,
      "Ġfront": 2994,
      "Ġarea": 2995,
      "Perfect": 2996,
      "ĠEven": 2997,
      "ruck": 2998,
      "ores": 2999,
      "Ġnatural": 3000,
      "Ġweather": 3001,
      "Ġgrades": 3002,
      "Ġrobot": 3003,
      "Ġspend": 3004,
      "Ġaction": 3005,
      "Ġsocks": 3006,
      "Ġroad": 3007,
      "Ġleast": 3008,
      "Ġplanet": 3009,
      "cient": 3010,
      "Ġiss": 3011,
      "aster": 3012,
      "Ġstarting": 3013,
      "Ġtun": 3014,
      "Ġec": 3015,
      "ences": 3016,
      "ists": 3017,
      "Ġdep": 3018,
      "cise": 3019,
      "Ġholding": 3020,
      "Ġchanges": 3021,
      "Ġstays": 3022,
      "sit": 3023,
      "Ġwat": 3024,
      "There": 3025,
      "Ġsitu": 3026,
      "Ġins": 3027,
      "Ġshowed": 3028,
      "Ġtools": 3029,
      "Ġforgot": 3030,
      "---": 3031,
      "Ġexpect": 3032,
      "Ġpicking": 3033,
      "Ġ---": 3034,
      "Ġscare": 3035,
      "Ġforever": 3036,
      "Ġboard": 3037,
      "ĠUn": 3038,
      "Ġlamb": 3039,
      "Ġfence": 3040,
      "lide": 3041,
      "ĠSweet": 3042,
      "Ġcomb": 3043,
      "Ġmedic": 3044,
      "Ġob": 3045,
      "Ġev": 3046,
      "ced": 3047,
      "Ġcous": 3048,
      "Ġsmooth": 3049,
      "Because": 3050,
      "Ġscissors": 3051,
      "mer": 3052,
      "lent": 3053,
      "Ġstir": 3054,
      "Ġscr": 3055,
      "antly": 3056,
      "Ġrev": 3057,
      "ining": 3058,
      "Ġwar": 3059,
      "Ġsticks": 3060,
      "ele": 3061,
      "iest": 3062,
      "ĠNight": 3063,
      "Ġago": 3064,
      "ither": 3065,
      "ted": 3066,
      "ĠTom": 3067,
      "Ġfriendly": 3068,
      "Ġdecis": 3069,
      "ĠPeople": 3070,
      "ser": 3071,
      "ĠVery": 3072,
      "Ġhy": 3073,
      "now": 3074,
      "Ġjumping": 3075,
      "Ġwolf": 3076,
      "Ġshape": 3077,
      "ovel": 3078,
      "Ġsister": 3079,
      "Ġbeat": 3080,
      "ĠGuess": 3081,
      "Ġwearing": 3082,
      "ĠEnjoy": 3083,
      "Snack": 3084,
      "Ġlaughed": 3085,
      "Ġbead": 3086,
      "holds": 3087,
      "Ġcooking": 3088,
      "Ġexplorer": 3089,
      "Mommy": 3090,
      "Ġsoc": 3091,
      "Ġpoor": 3092,
      "ggies": 3093,
      "Ġcuri": 3094,
      "reed": 3095,
      "Ġrainbow": 3096,
      "ify": 3097,
      "Ġsummer": 3098,
      "Ġonline": 3099,
      "ied": 3100,
      "Ġgira": 3101,
      "ĠUp": 3102,
      "Ġtract": 3103,
      "ĠOr": 3104,
      "Ġgloves": 3105,
      "Ġsched": 3106,
      "ĠAlex": 3107,
      "Ġcleaned": 3108,
      "Fun": 3109,
      "aptain": 3110,
      "aged": 3111,
      "ĠJen": 3112,
      "ĠAlways": 3113,
      "Ġsleeping": 3114,
      "Ġriver": 3115,
      "Ġtomat": 3116,
      "Ġreact": 3117,
      "ĠBlue": 3118,
      "ĠBear": 3119,
      "cin": 3120,
      "ĠOn": 3121,
      "Ġpumpkin": 3122,
      "ĠWait": 3123,
      "Ġclown": 3124,
      "Ġsmaller": 3125,
      "Ġap": 3126,
      "oodles": 3127,
      "ables": 3128,
      "Ġslipp": 3129,
      "Ġoven": 3130,
      "ĠPush": 3131,
      "ĠToday": 3132,
      "Ġdough": 3133,
      "Ġhelpful": 3134,
      "Ġworried": 3135,
      "In": 3136,
      "fer": 3137,
      "Ġessay": 3138,
      "Ġseeing": 3139,
      "Ġunf": 3140,
      "Ġloves": 3141,
      "ored": 3142,
      "Ġbuilt": 3143,
      "Ġcontin": 3144,
      "Ġassignment": 3145,
      "Ġpony": 3146,
      "Ġlovely": 3147,
      "Ġcereal": 3148,
      "claps": 3149,
      "Ġstri": 3150,
      "Ġwashing": 3151,
      "Ġbur": 3152,
      "Sleep": 3153,
      "ĠParker": 3154,
      "Ġbackpack": 3155,
      "izing": 3156,
      "ager": 3157,
      "Ġcountry": 3158,
      "Ġstorm": 3159,
      "Ġmis": 3160,
      "Ġtype": 3161,
      "Ġmaterials": 3162,
      "Ġwalked": 3163,
      "host": 3164,
      "Ġbathroom": 3165,
      "ĠWere": 3166,
      "Ġactiv": 3167,
      "Ġteamwork": 3168,
      "ĠOur": 3169,
      "omes": 3170,
      "Ġimagination": 3171,
      "Ġfacts": 3172,
      "iled": 3173,
      "Ġpoints": 3174,
      "ĠCaptain": 3175,
      "Ġfridge": 3176,
      "Ġcaus": 3177,
      "Ġknee": 3178,
      "amie": 3179,
      "Ġposter": 3180,
      "Ġminute": 3181,
      "Ġcousin": 3182,
      "elling": 3183,
      "Ġmachine": 3184,
      "Ġschedule": 3185,
      "smiles": 3186,
      "cil": 3187,
      "Ġou": 3188,
      "Ġpaw": 3189,
      "Ġsprink": 3190,
      "boy": 3191,
      "Ġgrapes": 3192,
      "Ġfur": 3193,
      "Ġpirates": 3194,
      "Ġbrain": 3195,
      "Bu": 3196,
      "Ġnapkin": 3197,
      "Hug": 3198,
      "Ġbunch": 3199,
      "Ġeasily": 3200,
      "life": 3201,
      "Ġleaf": 3202,
      "Ġgrand": 3203,
      "Ġpenguin": 3204,
      "emp": 3205,
      "Ġwaste": 3206,
      "Ġsauce": 3207,
      "airs": 3208,
      "Ġresponsibility": 3209,
      "Ġsplas": 3210,
      "Ġperform": 3211,
      "over": 3212,
      "Up": 3213,
      "keys": 3214,
      "uice": 3215,
      "Ġmeat": 3216,
      "Ġahead": 3217,
      "Ġlonger": 3218,
      "Ġtricky": 3219,
      "Ġcause": 3220,
      "Ġfork": 3221,
      "Ġmedicine": 3222,
      "Ġind": 3223,
      "Ġinclude": 3224,
      "cha": 3225,
      "lm": 3226,
      "Ġharm": 3227,
      "Ġplanning": 3228,
      "ume": 3229,
      "ism": 3230,
      "Ġsalt": 3231,
      "Ġste": 3232,
      "Ġenc": 3233,
      "Ġimprove": 3234,
      "Ġsoda": 3235,
      "Ġann": 3236,
      "Ġsugar": 3237,
      "Go": 3238,
      "Ġfascin": 3239,
      "Ġtou": 3240,
      "Ġeffect": 3241,
      "Ġfinally": 3242,
      "Ġhealth": 3243,
      "ello": 3244,
      "Ġdam": 3245,
      "icated": 3246,
      "Ġspin": 3247,
      "Ġstone": 3248,
      "Ġdirect": 3249,
      "can": 3250,
      "Ġtractor": 3251,
      "lect": 3252,
      "Ġopp": 3253,
      "Ġchamp": 3254,
      "ungle": 3255,
      "Ġpopcorn": 3256,
      "Ġstress": 3257,
      "Ġearly": 3258,
      "Teddy": 3259,
      "Ġghost": 3260,
      "hood": 3261,
      "Ġmeas": 3262,
      "Ġrecyc": 3263,
      "Ġmail": 3264,
      "ĠSc": 3265,
      "Ġspeed": 3266,
      "ĠWhoa": 3267,
      "Ġcamera": 3268,
      "Ġterm": 3269,
      "book": 3270,
      "Ġpancakes": 3271,
      "Is": 3272,
      "Ġrad": 3273,
      "Ġcond": 3274,
      "Ġgrown": 3275,
      "Ġappro": 3276,
      "Ġspaces": 3277,
      "Ġgotta": 3278,
      "Then": 3279,
      "Ġwinning": 3280,
      "Ġcle": 3281,
      "Ġcave": 3282,
      "Ġjoin": 3283,
      "Ġconfus": 3284,
      "Ġclock": 3285,
      "Ġancient": 3286,
      "Ġbeg": 3287,
      "Ġze": 3288,
      "Ġtimer": 3289,
      "Ġavo": 3290,
      "ned": 3291,
      "rup": 3292,
      "Ġfrustr": 3293,
      "Ġcrackers": 3294,
      "Ġroof": 3295,
      "obb": 3296,
      "Ġinstr": 3297,
      "Ġsurprise": 3298,
      "Ġdragons": 3299,
      "Ġtrans": 3300,
      "Ġinformation": 3301,
      "bble": 3302,
      "icle": 3303,
      "ised": 3304,
      "Ġhig": 3305,
      "Ġelectric": 3306,
      "ĠHis": 3307,
      "Ġbatter": 3308,
      "Ġhalf": 3309,
      "Ġunique": 3310,
      "Ġer": 3311,
      "ĠUh": 3312,
      "Ġpicked": 3313,
      "Ġvac": 3314,
      "let": 3315,
      "Ġcomput": 3316,
      "Ġfeather": 3317,
      "Ġprog": 3318,
      "hose": 3319,
      "Ġplent": 3320,
      "Ġkite": 3321,
      "Ġpatter": 3322,
      "She": 3323,
      "apping": 3324,
      "Ġbusy": 3325,
      "Vroom": 3326,
      "Ġhammer": 3327,
      "ĠJamie": 3328,
      "osy": 3329,
      "lk": 3330,
      "ilities": 3331,
      "ends": 3332,
      "Ġbirdie": 3333,
      "ron": 3334,
      "Ġshi": 3335,
      "Ġquietly": 3336,
      "Ġfloat": 3337,
      "Ġmonster": 3338,
      "icky": 3339,
      "Ġnut": 3340,
      "cy": 3341,
      "aches": 3342,
      "Ġscient": 3343,
      "Ġjungle": 3344,
      "Ġrid": 3345,
      "Ġfascinating": 3346,
      "Book": 3347,
      "urch": 3348,
      "use": 3349,
      "Ġsweater": 3350,
      "Ġguide": 3351,
      "Ġsunlight": 3352,
      "Ġhours": 3353,
      "Ġlemon": 3354,
      "ĠTime": 3355,
      "Ġgoal": 3356,
      "Ġsteps": 3357,
      "Ġexperiment": 3358,
      "Ġplenty": 3359,
      "!'\"": 3360,
      "just": 3361,
      "Ġpurp": 3362,
      "roll": 3363,
      "Ġbees": 3364,
      "Ġallig": 3365,
      "ĠCook": 3366,
      "Ġjumped": 3367,
      "Ġtent": 3368,
      "Ġclimbing": 3369,
      "Ġclever": 3370,
      "urns": 3371,
      "Ġfilled": 3372,
      "Ġcompromise": 3373,
      "fy": 3374,
      "Ġhose": 3375,
      "Ġspr": 3376,
      "Ġ*(": 3377,
      "Ġbio": 3378,
      "omp": 3379,
      "Ġharder": 3380,
      "iter": 3381,
      "Ġtemp": 3382,
      "Really": 3383,
      "Ġcross": 3384,
      "Ġtwist": 3385,
      "enter": 3386,
      "Ġshovel": 3387,
      "Ġfox": 3388,
      "Ġcart": 3389,
      "Ġdecor": 3390,
      "Ġhate": 3391,
      "Ġworries": 3392,
      "Ġdrawer": 3393,
      "pple": 3394,
      "Ġsuperheroes": 3395,
      "ĠHaha": 3396,
      "apt": 3397,
      "net": 3398,
      "ĠRed": 3399,
      "ĠAs": 3400,
      "ession": 3401,
      "Ġdelicious": 3402,
      "Ġris": 3403,
      "Ġcity": 3404,
      "Ġheat": 3405,
      "Ġturkey": 3406,
      "etter": 3407,
      "Ġworth": 3408,
      "Ġrule": 3409,
      "Ġladder": 3410,
      "Ġgiraffe": 3411,
      "ems": 3412,
      "Ġbreath": 3413,
      "elebr": 3414,
      "Ġchem": 3415,
      "Ġcomplete": 3416,
      "ogurt": 3417,
      "Ġwalls": 3418,
      "Ġscarf": 3419,
      "Ġnoodles": 3420,
      "Ġcorrect": 3421,
      "Ġouc": 3422,
      "Blue": 3423,
      "Ġmotor": 3424,
      "ctually": 3425,
      "ĠWater": 3426,
      "Ġpops": 3427,
      "Ġbreaks": 3428,
      "Ġchilly": 3429,
      "Ġtrucks": 3430,
      "hand": 3431,
      "Ġclimbed": 3432,
      "ĠEach": 3433,
      "Ġfeelings": 3434,
      "Ġveggies": 3435,
      "Ġsent": 3436,
      "Ġplayer": 3437,
      "Duck": 3438,
      "nock": 3439,
      "Ġcelebr": 3440,
      "Ġnest": 3441,
      "Ġcreatures": 3442,
      "ped": 3443,
      "Ġactions": 3444,
      "Toddler": 3445,
      "Ġmuff": 3446,
      "Ġdinosaurs": 3447,
      "Ġbye": 3448,
      "ĠFl": 3449,
      "Ġten": 3450,
      "Ġfixing": 3451,
      "flies": 3452,
      "imics": 3453,
      "Ġsomewhere": 3454,
      "iff": 3455,
      "Ġvoice": 3456,
      "Ġwatched": 3457,
      "Ġspeaking": 3458,
      "stron": 3459,
      "Ġpeace": 3460,
      "Ġtaught": 3461,
      "Yummy": 3462,
      "isten": 3463,
      "Sm": 3464,
      "oura": 3465,
      "Ġmoose": 3466,
      "Ġdiscuss": 3467,
      "Ġpotato": 3468,
      "Ġmeant": 3469,
      "ĠNice": 3470,
      "licop": 3471,
      "Ġsour": 3472,
      "Ġchips": 3473,
      "fortable": 3474,
      "Ġfant": 3475,
      "Sp": 3476,
      ")*": 3477,
      "ĠSnack": 3478,
      "ĠAr": 3479,
      "aring": 3480,
      "Ġaut": 3481,
      "Ġdanced": 3482,
      "Ġjour": 3483,
      "Ġchallenge": 3484,
      "inkle": 3485,
      "Ġdistract": 3486,
      "ĠSat": 3487,
      "Ġsurv": 3488,
      "takes": 3489,
      "ically": 3490,
      "Ġsinging": 3491,
      "cover": 3492,
      "Ġfla": 3493,
      "Ġtricks": 3494,
      "Ġisland": 3495,
      "Ġansw": 3496,
      "ĠSpark": 3497,
      "Ġdescribe": 3498,
      "Ġbake": 3499,
      "ĠSplash": 3500,
      "Ġlibr": 3501,
      "wo": 3502,
      "Ġimpact": 3503,
      "Ġtap": 3504,
      "ishing": 3505,
      "Ġvolcan": 3506,
      "ĠJenkins": 3507,
      "Ġwide": 3508,
      "esides": 3509,
      "uch": 3510,
      "Ġuns": 3511,
      "itam": 3512,
      "Wash": 3513,
      "any": 3514,
      "Ġchalk": 3515,
      "dom": 3516,
      "Ġsled": 3517,
      "ĠSleep": 3518,
      "Ġchurch": 3519,
      "Hello": 3520,
      "Ġgather": 3521,
      "ĠUgh": 3522,
      "Ġlamp": 3523,
      "Ġseas": 3524,
      "ĠThose": 3525,
      "arr": 3526,
      "ĠBook": 3527,
      "Ġkeys": 3528,
      "ĠLast": 3529,
      "areful": 3530,
      "Ġign": 3531,
      "vered": 3532,
      "Ġchores": 3533,
      "mbered": 3534,
      "Ġbears": 3535,
      "Ġobs": 3536,
      "Ġang": 3537,
      "Ġdetect": 3538,
      "Ġstudying": 3539,
      "ĠTrue": 3540,
      "ĠJake": 3541,
      "Ġshoe": 3542,
      "Ġmentioned": 3543,
      "Ġrais": 3544,
      "Ġletting": 3545,
      "Ġwaves": 3546,
      "Ġund": 3547,
      "Ġgoose": 3548,
      "Ġaccidentally": 3549,
      "retruck": 3550,
      "membered": 3551,
      "Ġmistake": 3552,
      "rop": 3553,
      "Ġstud": 3554,
      "ittens": 3555,
      "lace": 3556,
      "Ġcommon": 3557,
      "ĠSuper": 3558,
      "ĠTeacher": 3559,
      "Ġinsp": 3560,
      "cles": 3561,
      "Ġmatch": 3562,
      "Ġwigg": 3563,
      "Ġcoun": 3564,
      "Ġfalling": 3565,
      "Ġreason": 3566,
      "Ġdonkey": 3567,
      "Ġcaptain": 3568,
      "Ġstopped": 3569,
      "ww": 3570,
      "Car": 3571,
      "Ġitself": 3572,
      "Ġhistor": 3573,
      "Ġsteady": 3574,
      "Ġcurious": 3575,
      "Ġpressure": 3576,
      "Ġcowboy": 3577,
      "Ġnorm": 3578,
      "Ġbeads": 3579,
      "tles": 3580,
      "Ġsunny": 3581,
      "ĠStory": 3582,
      "Ġwinter": 3583,
      "Ġsize": 3584,
      "ential": 3585,
      "Ġvillage": 3586,
      "Ġflat": 3587,
      "Ġnail": 3588,
      "Ġimportance": 3589,
      "Ġmovies": 3590,
      "Ġremembered": 3591,
      "Ġastron": 3592,
      "Ġcompet": 3593,
      "Ġneat": 3594,
      "ĠFun": 3595,
      "Ġsituation": 3596,
      "Ġprod": 3597,
      "ox": 3598,
      "Ġpersonal": 3599,
      "rate": 3600,
      "Ġscen": 3601,
      "Ġowie": 3602,
      "picks": 3603,
      "anas": 3604,
      "Ġcircus": 3605,
      "Ġdue": 3606,
      "orses": 3607,
      "Ġdetails": 3608,
      "Ġbench": 3609,
      "Ġpolice": 3610,
      "Ġcomplicated": 3611,
      "che": 3612,
      "Ġdust": 3613,
      "ĠEx": 3614,
      "Red": 3615,
      "ĠBy": 3616,
      "Ġlan": 3617,
      "Ġpushing": 3618,
      "Ġlocal": 3619,
      "auce": 3620,
      "Ġcovered": 3621,
      "Ġchildren": 3622,
      "Ġplays": 3623,
      "Ġrocket": 3624,
      "Ġsnake": 3625,
      "Ġtrad": 3626,
      "Ġeduc": 3627,
      "This": 3628,
      "lar": 3629,
      "Ġrecycling": 3630,
      "ĠBunny": 3631,
      "ugs": 3632,
      "Ġdish": 3633,
      "Ġyogurt": 3634,
      "nods": 3635,
      "Ġphoto": 3636,
      "gen": 3637,
      "Ġhelicop": 3638,
      "rill": 3639,
      "Be": 3640,
      "Got": 3641,
      "Ġpage": 3642,
      "Ġwave": 3643,
      "Ġboss": 3644,
      "ĠKind": 3645,
      "Ġchanged": 3646,
      "Ġpowerful": 3647,
      "Ġzebra": 3648,
      "cake": 3649,
      "ickle": 3650,
      "Ready": 3651,
      "Ġpudding": 3652,
      "Ġguy": 3653,
      "Ġgrade": 3654,
      "Ġlawn": 3655,
      "Ġcomputer": 3656,
      "Ġcult": 3657,
      "Ġpan": 3658,
      "immy": 3659,
      "Ġwheel": 3660,
      "Ġslip": 3661,
      "Ġplanets": 3662,
      "Ġstanding": 3663,
      "Ġhigher": 3664,
      "Ġthrowing": 3665,
      "ĠMakes": 3666,
      "Ġexpress": 3667,
      "Ġlately": 3668,
      "rown": 3669,
      "Ġ\"**": 3670,
      "Ġstreng": 3671,
      "Ġbattle": 3672,
      "Ġfalls": 3673,
      "idents": 3674,
      "Ġbib": 3675,
      "Ġneighborhood": 3676,
      "ram": 3677,
      "Ġsolution": 3678,
      "Ġlibrary": 3679,
      "Ġrooster": 3680,
      "Shoes": 3681,
      "gain": 3682,
      "ĠJump": 3683,
      "Ġbelong": 3684,
      "Ġecosy": 3685,
      "Ġplanting": 3686,
      "Ġhurts": 3687,
      "Ġflash": 3688,
      "Ġveget": 3689,
      "Ġlady": 3690,
      "Ġscreen": 3691,
      "brush": 3692,
      "Ġalligator": 3693,
      "Ġcoach": 3694,
      "Ġfastest": 3695,
      "etch": 3696,
      "Ġavoid": 3697,
      "Ġsat": 3698,
      "Ġgaming": 3699,
      "Ġcloth": 3700,
      "att": 3701,
      "cell": 3702,
      "Ġrole": 3703,
      "pper": 3704,
      "Ġthemselves": 3705,
      "Ġclub": 3706,
      "Ġflavor": 3707,
      "Ġyum": 3708,
      "Ġpencil": 3709,
      "sha": 3710,
      "velo": 3711,
      "Ġspeak": 3712,
      "Ġgear": 3713,
      "Ġstaying": 3714,
      "fa": 3715,
      "ction": 3716,
      "Ġdisapp": 3717,
      "Just": 3718,
      "Ġeither": 3719,
      "Ġsail": 3720,
      "Ġscore": 3721,
      "Ġchoices": 3722,
      "auses": 3723,
      "Ġstation": 3724,
      "Ġstronger": 3725,
      "like": 3726,
      "obs": 3727,
      "Ġmetal": 3728,
      "Ġadjust": 3729,
      "Ġbroke": 3730,
      "ots": 3731,
      "hion": 3732,
      "Ġrough": 3733,
      "ccess": 3734,
      "nies": 3735,
      "Ġhen": 3736,
      "Ġnormal": 3737,
      "lier": 3738,
      "ĠWhe": 3739,
      "ands": 3740,
      "Ġyounger": 3741,
      "Ġstack": 3742,
      "ĠPre": 3743,
      "uggle": 3744,
      "Walk": 3745,
      "Ġcoup": 3746,
      "Ġpred": 3747,
      "Ġglasses": 3748,
      "Ġreminds": 3749,
      "Ġmissing": 3750,
      "Ġcrow": 3751,
      "ĠJoh": 3752,
      "Ġsend": 3753,
      "ios": 3754,
      "Ġfiretruck": 3755,
      "lose": 3756,
      "itty": 3757,
      "und": 3758,
      "vi": 3759,
      "Ġsometime": 3760,
      "Ġanyway": 3761,
      "Ġvan": 3762,
      "Ġmeasure": 3763,
      "ĠLove": 3764,
      "Ġresponsibilities": 3765,
      "oke": 3766,
      "Ġpoll": 3767,
      "Ġlines": 3768,
      "ators": 3769,
      "magine": 3770,
      "ograp": 3771,
      "Ġadvice": 3772,
      "Ġhonest": 3773,
      "High": 3774,
      "Ġbodies": 3775,
      "ups": 3776,
      "Ġspecific": 3777,
      "rees": 3778,
      "Ġcooler": 3779,
      "Ġpor": 3780,
      "Ġearlier": 3781,
      "ired": 3782,
      "sters": 3783,
      "unk": 3784,
      "Ġfantastic": 3785,
      "Cook": 3786,
      "Ġshapes": 3787,
      "Ġunc": 3788,
      "Ġsolid": 3789,
      "Ġlemonade": 3790,
      "thank": 3791,
      "itions": 3792,
      "Ġknife": 3793,
      "Ġpenny": 3794,
      "Ġamount": 3795,
      "Ġannoy": 3796,
      "When": 3797,
      "ĠGentle": 3798,
      "oor": 3799,
      "Ġsearch": 3800,
      "ffee": 3801,
      "Ġcutting": 3802,
      "Ġradio": 3803,
      "Ġvitam": 3804,
      "Ġhelicopter": 3805,
      "Ġsock": 3806,
      "Ġtalent": 3807,
      "lish": 3808,
      "ĠJohns": 3809,
      "Ġwoke": 3810,
      "Ġtraining": 3811,
      "uits": 3812,
      "smiling": 3813,
      "Ġsudden": 3814,
      "ney": 3815,
      "Ġsaved": 3816,
      "ĠTake": 3817,
      "Ġbubble": 3818,
      "Nice": 3819,
      "Ġhelm": 3820,
      "Ġapart": 3821,
      "cul": 3822,
      "fra": 3823,
      "Ġemb": 3824,
      "Ġstrawberries": 3825,
      "Ġfishy": 3826,
      "Ġsongs": 3827,
      "ipper": 3828,
      "Ġ3": 3829,
      "ĠAnyway": 3830,
      "ĠSit": 3831,
      "Ġnecklace": 3832,
      "Ġmotion": 3833,
      "ĠJohnson": 3834,
      "At": 3835,
      "ighter": 3836,
      "Ġpretz": 3837,
      "Ġtopic": 3838,
      "Ġargue": 3839,
      "Ġmittens": 3840,
      "Ġfeathers": 3841,
      "Ġcouple": 3842,
      "hoo": 3843,
      "aint": 3844,
      "Who": 3845,
      "li": 3846,
      "Ġsorts": 3847,
      "Ġdropped": 3848,
      "Ġstrategy": 3849,
      "Ġtong": 3850,
      "Ġriding": 3851,
      "Ġgener": 3852,
      "Ġvalu": 3853,
      "Ġengine": 3854,
      "ales": 3855,
      "Ġvolcano": 3856,
      "Ġuses": 3857,
      "ounce": 3858,
      "llip": 3859,
      "Ġseemed": 3860,
      "Don": 3861,
      "hick": 3862,
      "Ġlives": 3863,
      "ĠThese": 3864,
      "under": 3865,
      "illa": 3866,
      "Ġshower": 3867,
      "Love": 3868,
      "omed": 3869,
      "Ġbutterflies": 3870,
      "hor": 3871,
      "icate": 3872,
      "Ġplastic": 3873,
      "Ġbandage": 3874,
      "eans": 3875,
      "Ġhabit": 3876,
      "aging": 3877,
      "ama": 3878,
      "Ġturning": 3879,
      "Ġrelax": 3880,
      "ĠAt": 3881,
      "ervous": 3882,
      "huh": 3883,
      "uum": 3884,
      "vy": 3885,
      "ĠHuh": 3886,
      "uctantly": 3887,
      "Ġposs": 3888,
      "Ġreturn": 3889,
      "aut": 3890,
      "ĠImagine": 3891,
      "Ġlaughing": 3892,
      "Ġhorses": 3893,
      "Ġourselves": 3894,
      "Ġcrunch": 3895,
      "Ġinstruct": 3896,
      "Ġtries": 3897,
      "ek": 3898,
      "ĠSlide": 3899,
      "Ġscrew": 3900,
      "Ġlangu": 3901,
      "Ġtutor": 3902,
      "Ġallow": 3903,
      "Ġbother": 3904,
      "Ġafterward": 3905,
      "Ġphotos": 3906,
      "Ġsim": 3907,
      "Ġnervous": 3908,
      "Ġknights": 3909,
      "empts": 3910,
      "Ġcloser": 3911,
      "Ġpushed": 3912,
      "Share": 3913,
      "Re": 3914,
      "Ġcoins": 3915,
      "retty": 3916,
      "Ġacorn": 3917,
      "rrr": 3918,
      "Ġpromised": 3919,
      "Ball": 3920,
      "ĠBesides": 3921,
      "ips": 3922,
      "Ġdisc": 3923,
      "Ġpancake": 3924,
      "Ġstrength": 3925,
      "Ġweren": 3926,
      "Ġwise": 3927,
      "ledge": 3928,
      "urger": 3929,
      "Ġoverhe": 3930,
      "Ġswinging": 3931,
      ")*:": 3932,
      "Ġsle": 3933,
      "Ġmay": 3934,
      "ital": 3935,
      "Ġsty": 3936,
      "Ġdogs": 3937,
      "istic": 3938,
      "Ġtoes": 3939,
      "Ġstayed": 3940,
      "Ġchill": 3941,
      "Ġmelon": 3942,
      "ĠDin": 3943,
      "Ġcloset": 3944,
      "Ġcorner": 3945,
      "Ġhappening": 3946,
      "Ġsofa": 3947,
      "Ġsaving": 3948,
      "Ġbelt": 3949,
      "ourage": 3950,
      "Your": 3951,
      "Ġlar": 3952,
      "Ġpile": 3953,
      "Ġtomatoes": 3954,
      "cellent": 3955,
      "idence": 3956,
      "Ġnotes": 3957,
      "Ġmonkeys": 3958,
      "Ġstove": 3959,
      "Ġswitch": 3960,
      "owers": 3961,
      "noon": 3962,
      "Ġfits": 3963,
      "Ġcri": 3964,
      "urday": 3965,
      "Ġwhoosh": 3966,
      "Ġcomplex": 3967,
      "Ġdressed": 3968,
      "Ġvaluable": 3969,
      "val": 3970,
      "Ġbegin": 3971,
      "Ġstret": 3972,
      "Ġchoo": 3973,
      "ĠSaturday": 3974,
      "apers": 3975,
      "Ġafternoon": 3976,
      "Ġbreathe": 3977,
      "Ġprincess": 3978,
      "enny": 3979,
      "Daddy": 3980,
      "ĠCha": 3981,
      "Ġjourney": 3982,
      "rag": 3983,
      "Ġbaking": 3984,
      "Ġvacuum": 3985,
      "mo": 3986,
      "erios": 3987,
      "Ġnon": 3988,
      "Ġguard": 3989,
      "Ġseriously": 3990,
      "fraid": 3991,
      "rive": 3992,
      "ids": 3993,
      "Ġshorts": 3994,
      "Ġsuccess": 3995,
      "Ġsports": 3996,
      "Ġknowing": 3997,
      "Ġborrow": 3998,
      "Sounds": 3999,
      "ums": 4000,
      "ĠToddler": 4001,
      "ĠSparky": 4002,
      "ien": 4003,
      "Ġsold": 4004,
      "urse": 4005,
      "ĠBuddy": 4006,
      "Ġnumbers": 4007,
      "Ġfamous": 4008,
      "Ġtool": 4009,
      "Ġinterested": 4010,
      "Ġunfair": 4011,
      "erm": 4012,
      "Ġbeha": 4013,
      "iver": 4014,
      "ĠTimmy": 4015,
      "Ġfollowing": 4016,
      "ĠBall": 4017,
      "ĠMiss": 4018,
      "Ġresolved": 4019,
      "Ġregular": 4020,
      "bage": 4021,
      "ipping": 4022,
      "Ġwhatever": 4023,
      "Ġhistorical": 4024,
      "ĠWash": 4025,
      "Ġsalad": 4026,
      "cisely": 4027,
      "Ġlab": 4028,
      "Ġkingdom": 4029,
      "vity": 4030,
      "mbol": 4031,
      "Ġchew": 4032,
      "Ġtreasures": 4033,
      "ĠWork": 4034,
      "Ġskating": 4035,
      "Ġcalling": 4036,
      "Ġmissed": 4037,
      "Ġevents": 4038,
      "Ġtasty": 4039,
      "Dry": 4040,
      "back": 4041,
      "kab": 4042,
      "Ġmountains": 4043,
      "Ġbiology": 4044,
      "resent": 4045,
      "Ġcommit": 4046,
      "Takes": 4047,
      "Ġouchie": 4048,
      "Ġcell": 4049,
      "Ġfries": 4050,
      "Ġinf": 4051,
      "ĠBlocks": 4052,
      "Ġspots": 4053,
      "Ġbananas": 4054,
      "Ġstring": 4055,
      "iously": 4056,
      "ĠAlso": 4057,
      "Come": 4058,
      "ĠTry": 4059,
      "Ġteaching": 4060,
      "ĠWhich": 4061,
      "Ġelectricity": 4062,
      "Ġeducation": 4063,
      "Ġview": 4064,
      "Ġcontext": 4065,
      "Ġdriving": 4066,
      "Ġcoin": 4067,
      "dding": 4068,
      "Ġmonth": 4069,
      "Ġcrumb": 4070,
      "Ġsolar": 4071,
      "tycake": 4072,
      "ires": 4073,
      "Ġants": 4074,
      "Ġconcer": 4075,
      "kaboo": 4076,
      "Ġnote": 4077,
      "Ġcraft": 4078,
      "Ġtiss": 4079,
      "Ġprof": 4080,
      "Ġsidewalk": 4081,
      "Ġtuna": 4082,
      "Ġsocial": 4083,
      "water": 4084,
      "Ġblo": 4085,
      "Ġsafer": 4086,
      "Ġtells": 4087,
      "Ġfinger": 4088,
      "Ġmop": 4089,
      "ĠFin": 4090,
      "Ġhopped": 4091,
      "Ġwheels": 4092,
      "oming": 4093,
      "Ġmuddy": 4094,
      "Ġmeal": 4095,
      "Ġplates": 4096,
      "ishy": 4097,
      "rod": 4098,
      "Ġhugs": 4099,
      "Ġpopsicle": 4100,
      "ĠShh": 4101,
      "go": 4102,
      "olution": 4103,
      "ouses": 4104,
      "Ġrecipe": 4105,
      "eam": 4106,
      "Ġtie": 4107,
      "ggie": 4108,
      "Ġsymbol": 4109,
      "Ġclosed": 4110,
      "Ġesc": 4111,
      "ached": 4112,
      "Ġlollip": 4113,
      "Ġpurse": 4114,
      "Ġrepl": 4115,
      "ffic": 4116,
      "Ġclassroom": 4117,
      "Ġsandbox": 4118,
      "Remember": 4119,
      "Ġtricycle": 4120,
      "Ġphys": 4121,
      "Ġafraid": 4122,
      "ication": 4123,
      "ĠPut": 4124,
      "Ġskateboard": 4125,
      "ĠQuack": 4126,
      "Ġlake": 4127,
      "Ġblowing": 4128,
      "Ġhanging": 4129,
      "Ġscra": 4130,
      "omeday": 4131,
      "Ġspaceship": 4132,
      "Ġbelly": 4133,
      "Uh": 4134,
      "Ġrub": 4135,
      "Ġmission": 4136,
      "Ġporch": 4137,
      "Ġgrandparent": 4138,
      "Ġposit": 4139,
      "**!": 4140,
      "pauses": 4141,
      "Ġtas": 4142,
      "Ġwip": 4143,
      "Ġsoftly": 4144,
      "Ġ10": 4145,
      "Ġsides": 4146,
      "Ġsell": 4147,
      "Ġsect": 4148,
      "Ġreward": 4149,
      "Ġtravel": 4150,
      "ey": 4151,
      "lows": 4152,
      "Ġstrawberry": 4153,
      "Ġcoffee": 4154,
      "Ġdiscover": 4155,
      "Ġled": 4156,
      "pens": 4157,
      "mburger": 4158,
      "Ġjello": 4159,
      "Ġforce": 4160,
      "Ġfocused": 4161,
      "'.\"": 4162,
      "ownt": 4163,
      "Ġpartic": 4164,
      "hic": 4165,
      "Ġtele": 4166,
      "Ġspilled": 4167,
      "Ġjeans": 4168,
      "Ġballs": 4169,
      "Ġfighting": 4170,
      "Ġwhis": 4171,
      "Ġwore": 4172,
      "Ġprevent": 4173,
      "anches": 4174,
      "look": 4175,
      "Ġapo": 4176,
      "reak": 4177,
      "Ġinfl": 4178,
      "Ġcows": 4179,
      "Ġsneakers": 4180,
      "Ġsomeday": 4181,
      "Ġzip": 4182,
      "Ġreport": 4183,
      "Ġflashlight": 4184,
      "Ġber": 4185,
      "Ġmyster": 4186,
      "Draw": 4187,
      "pr": 4188,
      "Ġdevelo": 4189,
      "Push": 4190,
      "Ġtongue": 4191,
      "Blocks": 4192,
      "Ġaud": 4193,
      "phone": 4194,
      "Ġstops": 4195,
      "Ġpair": 4196,
      "ĠSm": 4197,
      "vern": 4198,
      "Ġlearns": 4199,
      "Ġhelmet": 4200,
      "ture": 4201,
      "ĠBird": 4202,
      "Ġwashed": 4203,
      "ited": 4204,
      "miss": 4205,
      "ĠJac": 4206,
      "Ġpassion": 4207,
      "Ġdecisions": 4208,
      "icy": 4209,
      "Ġaccidents": 4210,
      "Friends": 4211,
      "Ġcompetition": 4212,
      "Ġscene": 4213,
      "Ġuncle": 4214,
      "Ġnotice": 4215,
      "Ġsquirrels": 4216,
      "Ġpulled": 4217,
      "ĠJacobs": 4218,
      "Ġwand": 4219,
      "ĠEng": 4220,
      "Ġbranches": 4221,
      "ĠCheerios": 4222,
      "ĠBl": 4223,
      "Ġunex": 4224,
      "Ġroots": 4225,
      "Co": 4226,
      "Nap": 4227,
      "nam": 4228,
      "Ġgum": 4229,
      "ĠYup": 4230,
      "Ġlanguage": 4231,
      "anch": 4232,
      "Ġdrinking": 4233,
      "Ġrubb": 4234,
      "Ġadventurer": 4235,
      "Ġparrot": 4236,
      "Ġissue": 4237,
      "Ġcompletely": 4238,
      "Ġhilar": 4239,
      "Ġmuffin": 4240,
      "Ġsuddenly": 4241,
      "Ġvar": 4242,
      "Ġapplesauce": 4243,
      "Ġstream": 4244,
      "erson": 4245,
      "Ġtray": 4246,
      "Ġinsane": 4247,
      "ody": 4248,
      "Ġweight": 4249,
      "Ġvegetables": 4250,
      "suit": 4251,
      "ĠActually": 4252,
      "Ġnoises": 4253,
      "Ġapply": 4254,
      "Ġlos": 4255,
      "Ġfairy": 4256,
      "Ġopened": 4257,
      "Ġhilarious": 4258,
      "cause": 4259,
      "Ġhello": 4260,
      "Ġstairs": 4261,
      "ĠSafety": 4262,
      "ĠSwing": 4263,
      "Ġfear": 4264,
      "Ġinstructions": 4265,
      "Ġfold": 4266,
      "ishes": 4267,
      "Ġbic": 4268,
      "Ġnob": 4269,
      "Ġbreaking": 4270,
      "whe": 4271,
      "Ġhamburger": 4272,
      "Ġshall": 4273,
      "Ġrout": 4274,
      "Today": 4275,
      "ĠOnly": 4276,
      "hoosh": 4277,
      "sigh": 4278,
      "Ġburn": 4279,
      "Ġnapkins": 4280,
      "Ġfruits": 4281,
      "Ġlow": 4282,
      "Ġcomfortable": 4283,
      "demonstrates": 4284,
      "Ġteen": 4285,
      "for": 4286,
      "ipped": 4287,
      "itude": 4288,
      "irty": 4289,
      "Ġchallenges": 4290,
      "Ġcent": 4291,
      "Ġimm": 4292,
      "Ġtips": 4293,
      "iety": 4294,
      "Ġhuman": 4295,
      "Ġgardening": 4296,
      "Ġtouching": 4297,
      "Ġcrowd": 4298,
      "aa": 4299,
      "ushes": 4300,
      "Th": 4301,
      "erve": 4302,
      "pples": 4303,
      "owntown": 4304,
      "Bed": 4305,
      "Ġlions": 4306,
      "Ġearth": 4307,
      "Ġmessage": 4308,
      "Ġissues": 4309,
      "Ġdiaper": 4310,
      "Ġdeb": 4311,
      "Ġchickens": 4312,
      "ĠPromise": 4313,
      "inal": 4314,
      "ĠHug": 4315,
      "ĠDraw": 4316,
      "Ġrepresent": 4317,
      "Dance": 4318,
      "Ġbeep": 4319,
      "ĠRo": 4320,
      "Ġwalks": 4321,
      "ĠUnder": 4322,
      "Ġearn": 4323,
      "Ġwilling": 4324,
      "olve": 4325,
      "Ġstruct": 4326,
      "Ġruns": 4327,
      "Gentle": 4328,
      "Ġpaws": 4329,
      "Ġmailman": 4330,
      "'!": 4331,
      "ying": 4332,
      "Ġtrade": 4333,
      "Ġvalue": 4334,
      "Ġcounter": 4335,
      "Ġorder": 4336,
      "ĠEverything": 4337,
      "Ġhomes": 4338,
      "Ġzipper": 4339,
      "Ġperfectly": 4340,
      "Ġgarbage": 4341,
      "Ġcudd": 4342,
      "Ġactivity": 4343,
      "Ġchip": 4344,
      "Ġedge": 4345,
      "Mmm": 4346,
      "kate": 4347,
      "lies": 4348,
      "onderful": 4349,
      "Ġwrap": 4350,
      "Ġpatience": 4351,
      "Giggles": 4352,
      "Ġlucky": 4353,
      "Ġknowledge": 4354,
      "Ġsurprised": 4355,
      "imate": 4356,
      "Ġcontrib": 4357,
      "Ġsurf": 4358,
      "ĠBuild": 4359,
      "Ġvitamins": 4360,
      "Ġ[": 4361,
      "ĠDry": 4362,
      "Ġstoryt": 4363,
      "Ġholes": 4364,
      "Ġtoothbrush": 4365,
      "keep": 4366,
      "roller": 4367,
      "Ġpickle": 4368,
      "Ġgravity": 4369,
      "ĠTommy": 4370,
      "Ġjew": 4371,
      "ĠFast": 4372,
      "Ġfireman": 4373,
      "ults": 4374,
      "Ġbranch": 4375,
      "Ġevening": 4376,
      "Ġenjoying": 4377,
      "Sit": 4378,
      "gently": 4379,
      "ĠAunt": 4380,
      "Park": 4381,
      "Ha": 4382,
      "Ġfour": 4383,
      "roc": 4384,
      "Ġbabies": 4385,
      "ĠLearn": 4386,
      "Ġsticker": 4387,
      "Ġjud": 4388,
      "Ġletters": 4389,
      "fish": 4390,
      "Ġfil": 4391,
      "Ġmeeting": 4392,
      "eriously": 4393,
      "Ġhouses": 4394,
      "anced": 4395,
      "Splash": 4396,
      "Ġmoder": 4397,
      "ĠInside": 4398,
      "Ġpuddles": 4399,
      "run": 4400,
      "itar": 4401,
      "Ġem": 4402,
      "Ġconso": 4403,
      "Ġrealize": 4404,
      "Ġcontroll": 4405,
      "Ġconcert": 4406,
      "ushing": 4407,
      "Ġapproach": 4408,
      "An": 4409,
      "Ġjam": 4410,
      "Ġanywhere": 4411,
      "Ġresour": 4412,
      "Ġtechno": 4413,
      "Ġlollipop": 4414,
      "ories": 4415,
      "ĠDuck": 4416,
      "ĠJack": 4417,
      "olving": 4418,
      "ĠWhile": 4419,
      "Ġrolled": 4420,
      "Ġblood": 4421,
      "Ġended": 4422,
      "Ġtemper": 4423,
      "Ġannoying": 4424,
      "Ġsip": 4425,
      "Ġpink": 4426,
      "Ġexploring": 4427,
      "ĠPrecisely": 4428,
      "Ġpad": 4429,
      "Ġcla": 4430,
      "uction": 4431,
      "Yum": 4432,
      "ĠSnow": 4433,
      "Ġstones": 4434,
      "oman": 4435,
      "Ġrings": 4436,
      "Ġanal": 4437,
      "Ġcheer": 4438,
      "Ġboxes": 4439,
      "Ġfrogs": 4440,
      "Ġanswer": 4441,
      "pants": 4442,
      "oulder": 4443,
      "unnies": 4444,
      "ilar": 4445,
      "Ġmoved": 4446,
      "Ġsweeping": 4447,
      "Ġcrib": 4448,
      "Ġtaken": 4449,
      "Ġwatering": 4450,
      "Ġreflect": 4451,
      "Ġbicycle": 4452,
      "Ġwra": 4453,
      "sect": 4454,
      "Ġmanaged": 4455,
      "Ġcracker": 4456,
      "ĠNap": 4457,
      "Ġfinal": 4458,
      "Ġplane": 4459,
      "Ġworse": 4460,
      "Ġfollowed": 4461,
      "Ġtights": 4462,
      "Ġconsole": 4463,
      "Ġcenter": 4464,
      "mble": 4465,
      "Ġcounting": 4466,
      "chy": 4467,
      "choo": 4468,
      "Ġcoolest": 4469,
      "Ġweeks": 4470,
      "Ġmotorcycle": 4471,
      "ium": 4472,
      "Ġabs": 4473,
      "Ġwhenever": 4474,
      "Ġbusiness": 4475,
      "Ġmass": 4476,
      "atic": 4477,
      "ĠOpen": 4478,
      "play": 4479,
      "Ġmyst": 4480,
      "Ġsmiles": 4481,
      "ances": 4482,
      "dow": 4483,
      "Ġgross": 4484,
      "rist": 4485,
      "Ġadapt": 4486,
      "Ġdemonstrates": 4487,
      "ĠUse": 4488,
      "Ġperspect": 4489,
      "Ġcharge": 4490,
      "Ġimpressive": 4491,
      "Ġsurvive": 4492,
      "Sc": 4493,
      "bear": 4494,
      "Ġing": 4495,
      "Ġhelpers": 4496,
      "urb": 4497,
      "Ġprojects": 4498,
      "Ġtechn": 4499,
      "Ġge": 4500,
      "Jump": 4501,
      "Ġmill": 4502,
      "Ġdive": 4503,
      "Ġstrange": 4504,
      "Ġlegend": 4505,
      "Ġshopping": 4506,
      "Ġadding": 4507,
      "Ġcelebrate": 4508,
      "Ġpositive": 4509,
      "Hop": 4510,
      "Ġmower": 4511,
      "Ġbridge": 4512,
      "Ġraining": 4513,
      "Ġstorytime": 4514,
      "Ġpost": 4515,
      "Ġduckling": 4516,
      "Ġcreating": 4517,
      "ton": 4518,
      "Ġill": 4519,
      "acked": 4520,
      "Ġbedroom": 4521,
      "Ġperformance": 4522,
      "Ġrather": 4523,
      "ĠJuice": 4524,
      "Ġdowntown": 4525,
      "Ġchanging": 4526,
      "Ġruin": 4527,
      "Ġsection": 4528,
      "Hot": 4529,
      "Ġgovern": 4530,
      "ĠDance": 4531,
      "Ġbites": 4532,
      "ival": 4533,
      ".'\"": 4534,
      "Ġconcept": 4535,
      "Ġtrave": 4536,
      "Ġreaction": 4537,
      "aves": 4538,
      "Ġalive": 4539,
      "walking": 4540,
      "ege": 4541,
      "Ġthoughtful": 4542,
      "Ġsprinkler": 4543,
      "iers": 4544,
      "ror": 4545,
      "alling": 4546,
      "bel": 4547,
      "Ġseat": 4548,
      "ĠEnglish": 4549,
      "Ġmuscles": 4550,
      "Sh": 4551,
      "eeze": 4552,
      "olves": 4553,
      "Ġfroggy": 4554,
      "Ġpin": 4555,
      "Ġglow": 4556,
      "Ġdamage": 4557,
      "ĠCo": 4558,
      "Ġecosystem": 4559,
      "Ġlock": 4560,
      "load": 4561,
      "Ġobject": 4562,
      "hands": 4563,
      "Ġdonut": 4564,
      "ĠShould": 4565,
      "Ġdecision": 4566,
      "Shh": 4567,
      "bu": 4568,
      "Ġinde": 4569,
      "ĠShare": 4570,
      "Ġheroes": 4571,
      "Ġincred": 4572,
      "ĠBenny": 4573,
      "ending": 4574,
      "Ġbringing": 4575,
      "by": 4576,
      "Ġboats": 4577,
      "Ġpurpose": 4578,
      "Ġmatters": 4579,
      "inate": 4580,
      "Ġsens": 4581,
      "cket": 4582,
      "Ġslides": 4583,
      "Ġtrail": 4584,
      "Ġnames": 4585,
      "Sleepy": 4586,
      "Ġcausing": 4587,
      "ĠBetter": 4588,
      "Ġsimilar": 4589,
      "Ġsugg": 4590,
      "Ġsuggest": 4591,
      "off": 4592,
      "ĠZoom": 4593,
      "cra": 4594,
      "Ġmat": 4595,
      "uments": 4596,
      "Ġwaited": 4597,
      "Ġbare": 4598,
      "Ġshine": 4599,
      "Ġbehavi": 4600,
      "Ġtissue": 4601,
      "ortun": 4602,
      "uel": 4603,
      "Ġholds": 4604,
      "Ġmini": 4605,
      "con": 4606,
      "the": 4607,
      "Ġstroller": 4608,
      "Ġeats": 4609,
      "ĠRun": 4610,
      "Ġcruc": 4611,
      "Ġmixed": 4612,
      "tern": 4613,
      "Ġhitting": 4614,
      "Ġfarmer": 4615,
      "Ġelephants": 4616,
      "gged": 4617,
      "Ġliqu": 4618,
      "Ġsword": 4619,
      "Ġcrucial": 4620,
      "Ġinvent": 4621,
      "Ġscoop": 4622,
      "flict": 4623,
      "Ġtradition": 4624,
      "Ġwobb": 4625,
      "End": 4626,
      "bl": 4627,
      "Ġbi": 4628,
      "Ġcop": 4629,
      "ĠHot": 4630,
      "ĠWalk": 4631,
      "Ġpattycake": 4632,
      "Ġblankets": 4633,
      "uggles": 4634,
      "Ġvanilla": 4635,
      "Ġindeed": 4636,
      "Ġconse": 4637,
      "iate": 4638,
      "pid": 4639,
      "Ġtoe": 4640,
      "Ġcollege": 4641,
      "inary": 4642,
      "Ġkinds": 4643,
      "umpy": 4644,
      "Ġmystery": 4645,
      "Ġthick": 4646,
      "omb": 4647,
      "icked": 4648,
      "Ġspring": 4649,
      "Ġbuttons": 4650,
      "Ġrefers": 4651,
      "sighs": 4652,
      "Ġpicks": 4653,
      "Ġheads": 4654,
      "ĠStay": 4655,
      "ĠTomorrow": 4656,
      "Ġpatterns": 4657,
      "Ġignore": 4658,
      "greed": 4659,
      "ĠLily": 4660,
      "Ġaccept": 4661,
      "\"?": 4662,
      "Ġwea": 4663,
      "ĠListen": 4664,
      "Ġshoulder": 4665,
      "Ġwildlife": 4666,
      "Juice": 4667,
      "ality": 4668,
      "Ġdrawings": 4669,
      "Ġentire": 4670,
      "Ġdevelop": 4671,
      "Wait": 4672,
      "oub": 4673,
      "Ġcol": 4674,
      "ĠPu": 4675,
      "arrass": 4676,
      "ites": 4677,
      "Ġloose": 4678,
      "Ġdoc": 4679,
      "ivity": 4680,
      "Ġoil": 4681,
      "aker": 4682,
      "Ġdrinks": 4683,
      "awns": 4684,
      "Ġpotential": 4685,
      "pill": 4686,
      "Ġcus": 4687,
      "Ġtor": 4688,
      "Ġforth": 4689,
      "ĠShow": 4690,
      "reaches": 4691,
      "ĠGreen": 4692,
      "ĠFix": 4693,
      "Ġexplo": 4694,
      "Ġconnected": 4695,
      "mimics": 4696,
      "Ġsplit": 4697,
      "Holds": 4698,
      "Ġtouched": 4699,
      "Ġballoons": 4700,
      "Ġbasement": 4701,
      "cip": 4702,
      "essert": 4703,
      "Ġsandc": 4704,
      "Ġopportun": 4705,
      "Ġprogress": 4706,
      "Ġcards": 4707,
      "Ġshop": 4708,
      "osp": 4709,
      "Ġtallest": 4710,
      "pected": 4711,
      "Ġteenager": 4712,
      "eg": 4713,
      "tub": 4714,
      "wr": 4715,
      "Ġhesit": 4716,
      "Ġknown": 4717,
      "Ġstickers": 4718,
      "ational": 4719,
      "ĠTogether": 4720,
      "Ġslippery": 4721,
      "Ġgoodnight": 4722,
      "hies": 4723,
      "ĠTw": 4724,
      "Ġstage": 4725,
      "Ġconflict": 4726,
      "Ġcostume": 4727,
      "Ġraisins": 4728,
      "Ġmodern": 4729,
      "nel": 4730,
      "Ġliter": 4731,
      "uth": 4732,
      "places": 4733,
      "Ġstrateg": 4734,
      "Ġhearing": 4735,
      "Ġwalker": 4736,
      "Build": 4737,
      "ĠOlder": 4738,
      "angle": 4739,
      "Ġtechnology": 4740,
      "Ġbank": 4741,
      "stems": 4742,
      "Ġcups": 4743,
      "standing": 4744,
      "Ġconfused": 4745,
      "Ġdetective": 4746,
      "Ġwing": 4747,
      "Ġrot": 4748,
      "ulate": 4749,
      "Ġpriv": 4750,
      "son": 4751,
      "Ġgolden": 4752,
      "Ġtemperature": 4753,
      "Bird": 4754,
      "Ġracing": 4755,
      "Ġlunchtime": 4756,
      "Ġcreep": 4757,
      "Ġbasketball": 4758,
      "res": 4759,
      "Ġnet": 4760,
      "Ġnurse": 4761,
      "Ġslice": 4762,
      "Ġwrote": 4763,
      "eer": 4764,
      "Ġbend": 4765,
      "Ġconsiderate": 4766,
      "Ġstate": 4767,
      "ĠDrink": 4768,
      "Ġplans": 4769,
      "Ġgy": 4770,
      "Ġapolog": 4771,
      "Ġbul": 4772,
      "Ġvib": 4773,
      "Ġenter": 4774,
      "Ġacting": 4775,
      "Ġinvolved": 4776,
      "Water": 4777,
      "Ġdeterm": 4778,
      "Ġdelicate": 4779,
      "Ġpil": 4780,
      "Ġguitar": 4781,
      "Ġembarrass": 4782,
      "Ġcrunchy": 4783,
      "Definitely": 4784,
      "round": 4785,
      "aterpill": 4786,
      "urry": 4787,
      "Ġreview": 4788,
      "Ġsentence": 4789,
      "Ġconsequ": 4790,
      "utside": 4791,
      "Ġoak": 4792,
      "Ġopt": 4793,
      "Ġstat": 4794,
      "Ġneg": 4795,
      "Ġwonder": 4796,
      "Ġattitude": 4797,
      "ĠMs": 4798,
      "Ġunexpected": 4799,
      "iences": 4800,
      "Ġdishes": 4801,
      "Ġcrew": 4802,
      "Ġpossible": 4803,
      "Ġdat": 4804,
      "Ġlanded": 4805,
      "Fast": 4806,
      "ĠSoft": 4807,
      "Ġlid": 4808,
      "Ġprop": 4809,
      "Ġcarp": 4810,
      "kle": 4811,
      "Ġoffic": 4812,
      "ĠOops": 4813,
      "Ġmas": 4814,
      "Ġnecess": 4815,
      "Ġdrills": 4816,
      "we": 4817,
      "Ġfab": 4818,
      "Ġboun": 4819,
      "Ġcoo": 4820,
      "Ġcomfy": 4821,
      "Ġdessert": 4822,
      "Ġabove": 4823,
      "Ġleader": 4824,
      "ĠLearning": 4825,
      "Ġ5": 4826,
      "Ġdest": 4827,
      "Ġcats": 4828,
      "Ġprov": 4829,
      "Ġagreed": 4830,
      "Ġfoods": 4831,
      "cue": 4832,
      "east": 4833,
      "ĠYellow": 4834,
      "Ġwanting": 4835,
      "roken": 4836,
      "Ġunderpants": 4837,
      "Ġsquare": 4838,
      "afe": 4839,
      "ays": 4840,
      "Ġsmells": 4841,
      "Ġpuddle": 4842,
      "ĠWorking": 4843,
      "Ġexer": 4844,
      "Ġbrings": 4845,
      "Ġdryer": 4846,
      "Ġcountries": 4847,
      "Ġcreature": 4848,
      "Ġstyle": 4849,
      "Ġbunnies": 4850,
      "Ġareas": 4851,
      "Ġmeaning": 4852,
      "Ġsupplies": 4853,
      "Ġpillows": 4854,
      ",'": 4855,
      "Ġpupp": 4856,
      "Ġspell": 4857,
      "ĠFr": 4858,
      "Ġdev": 4859,
      "Ġcrit": 4860,
      "ĠSeriously": 4861,
      "ript": 4862,
      "Ġjackets": 4863,
      "Want": 4864,
      "aid": 4865,
      "Ġhyd": 4866,
      "ĠArms": 4867,
      "ĠGar": 4868,
      "Ġunp": 4869,
      "Ġpainted": 4870,
      "Ġpulling": 4871,
      "Ġhopping": 4872,
      "Ġtastes": 4873,
      "Ġprepared": 4874,
      "Ġsight": 4875,
      "rest": 4876,
      "otally": 4877,
      "Ġdiv": 4878,
      "Ġcontinues": 4879,
      "rows": 4880,
      "Ġattract": 4881,
      "Ġinsect": 4882,
      "lesc": 4883,
      "Ġjoy": 4884,
      "Ġvine": 4885,
      "Ġcheating": 4886,
      "ĠSwim": 4887,
      "ceed": 4888,
      "uckles": 4889,
      "Ġmarket": 4890,
      "uding": 4891,
      "Ġpun": 4892,
      "Ġputs": 4893,
      "Ġcatching": 4894,
      "Ġexperiences": 4895,
      "Ġfabric": 4896,
      "ĠSqu": 4897,
      "Ġhimself": 4898,
      "Ġflies": 4899,
      "Ġconsequences": 4900,
      "ords": 4901,
      "Ġmysterious": 4902,
      "Ġsession": 4903,
      "Ġbounce": 4904,
      "Ġnews": 4905,
      "Sticky": 4906,
      "Ġingred": 4907,
      "ndry": 4908,
      "Ġpretzel": 4909,
      "Ġpets": 4910,
      "Ġrust": 4911,
      "Ġbirdhouse": 4912,
      "Ġgift": 4913,
      "Ġpattern": 4914,
      "Ġberries": 4915,
      "Ġrush": 4916,
      "Ġpres": 4917,
      "Ġsubject": 4918,
      "Ġcaterpill": 4919,
      "Ġskates": 4920,
      "Ġpages": 4921,
      "Ġplayers": 4922,
      "rops": 4923,
      "Ġhid": 4924,
      "Ġmoments": 4925,
      "ĠQuiet": 4926,
      "Ġfinds": 4927,
      "Ġstuffed": 4928,
      "Ġble": 4929,
      "ĠOw": 4930,
      "Ġcontinue": 4931,
      "Ġdouble": 4932,
      "Ġorig": 4933,
      "ivil": 4934,
      "Ġfrustrating": 4935,
      "az": 4936,
      "Ġwag": 4937,
      "Ġbecoming": 4938,
      "Ġadject": 4939,
      "Ġprepare": 4940,
      "Ġchat": 4941,
      "Ġdead": 4942,
      "Ġmemories": 4943,
      "rent": 4944,
      "Ġnutri": 4945,
      "Ġescape": 4946,
      "hips": 4947,
      "Ġdumb": 4948,
      "ĠSun": 4949,
      "arah": 4950,
      "Ġbathtub": 4951,
      "Ġcarrying": 4952,
      "Ġshaking": 4953,
      "Ġleaving": 4954,
      "Ġdistance": 4955,
      "ontin": 4956,
      "oint": 4957,
      "oops": 4958,
      "Ġcrumbs": 4959,
      "eable": 4960,
      "Ġunb": 4961,
      "Ġhats": 4962,
      "coa": 4963,
      "Ġlaundry": 4964,
      "ĠTruck": 4965,
      "matic": 4966,
      "Ġmagn": 4967,
      "Ġtelesc": 4968,
      "Ġrespectful": 4969,
      "Ġcast": 4970,
      "Ġcape": 4971,
      "Ġpapers": 4972,
      "Ġcarried": 4973,
      "Ġunw": 4974,
      "ĠSafe": 4975,
      "Cold": 4976,
      "ients": 4977,
      "Ġprior": 4978,
      "Ġcardboard": 4979,
      "bon": 4980,
      "lowers": 4981,
      "Claps": 4982,
      "Ġresources": 4983,
      "ĠCold": 4984,
      "ĠRead": 4985,
      "Ġflip": 4986,
      "ĠFluffy": 4987,
      "Home": 4988,
      "ĠEww": 4989,
      "Ġflour": 4990,
      "Ġclearly": 4991,
      "men": 4992,
      "range": 4993,
      "Ġwha": 4994,
      "Ġstudies": 4995,
      "Ġsettle": 4996,
      "hite": 4997,
      "Ġbean": 4998,
      "Ġsingle": 4999,
      "Pu": 5000,
      "Ġvers": 5001,
      "ooky": 5002,
      "Ġspecies": 5003,
      "ĠTrust": 5004,
      "coming": 5005,
      "Ġletter": 5006,
      "Ġlosing": 5007,
      "Ġsandcastle": 5008,
      "Ġcab": 5009,
      "ĠSlow": 5010,
      "Ġdoggie": 5011,
      "ĠCh": 5012,
      "Starts": 5013,
      "Ġsources": 5014,
      "Ġwiz": 5015,
      "imals": 5016,
      "gra": 5017,
      "mies": 5018,
      "Ġlips": 5019,
      "born": 5020,
      "Ġsnuggle": 5021,
      "gebra": 5022,
      "Ġchin": 5023,
      "min": 5024,
      "rets": 5025,
      "Ġconvers": 5026,
      "Ġartist": 5027,
      "Ġmaintain": 5028,
      "eavy": 5029,
      "Ġrecycle": 5030,
      "Ġbehavior": 5031,
      "Ġaim": 5032,
      "onom": 5033,
      "ĠPlants": 5034,
      "Ġdifferently": 5035,
      "Ġconcent": 5036,
      "anes": 5037,
      "Ġdrew": 5038,
      "Ġreached": 5039,
      "Ġthrew": 5040,
      "Ġactual": 5041,
      "Ġtreats": 5042,
      "Ġorganize": 5043,
      "Ġscratch": 5044,
      "Ġcreepy": 5045,
      "Ġweak": 5046,
      "Ġfuel": 5047,
      "Ġcompany": 5048,
      "Ġtruth": 5049,
      "Ġglitter": 5050,
      "Ġachie": 5051,
      ",\"": 5052,
      "Aw": 5053,
      "ĠWar": 5054,
      "uster": 5055,
      "Ġgym": 5056,
      "Ġoverwhe": 5057,
      "Ġconst": 5058,
      "Ġpretending": 5059,
      "Ġdrum": 5060,
      "ĠAd": 5061,
      "ĠApple": 5062,
      "Ġwhether": 5063,
      "Ġankle": 5064,
      "Ġstructure": 5065,
      "Ġsurface": 5066,
      "ĠFound": 5067,
      "Ġjewels": 5068,
      "Ġdea": 5069,
      "Ġwindows": 5070,
      "Ġself": 5071,
      "Ġcoloring": 5072,
      "Ġmassive": 5073,
      "igging": 5074,
      "Ġdisturb": 5075,
      "ervation": 5076,
      "Ġtomato": 5077,
      "Ġadjective": 5078,
      "isible": 5079,
      "ests": 5080,
      "Ġbecomes": 5081,
      "Ġconfusing": 5082,
      "Ġseason": 5083,
      "Ġrequ": 5084,
      "Ġconv": 5085,
      "ĠFro": 5086,
      "Ġnutrients": 5087,
      "Ġthinks": 5088,
      "Ġrealized": 5089,
      "Ġchef": 5090,
      "Ġconditions": 5091,
      "Grandma": 5092,
      "xy": 5093,
      "Ġtuck": 5094,
      "Ġincluding": 5095,
      "ouches": 5096,
      "Ġuseful": 5097,
      "Ġbuildings": 5098,
      "Soft": 5099,
      "rit": 5100,
      "Ġcontain": 5101,
      "Together": 5102,
      "uggling": 5103,
      "Ġeventually": 5104,
      "ĠWithout": 5105,
      "Ġcharacters": 5106,
      "Ġtelephone": 5107,
      "Run": 5108,
      "Ġcheek": 5109,
      "Ġsew": 5110,
      "blows": 5111,
      "ĠHome": 5112,
      "indy": 5113,
      "ental": 5114,
      "gle": 5115,
      "Ġnowhere": 5116,
      "Ġaware": 5117,
      "ĠUncle": 5118,
      "ners": 5119,
      "ocked": 5120,
      "Ġdate": 5121,
      "iring": 5122,
      "Ġremove": 5123,
      "Ġinflu": 5124,
      "Ġdata": 5125,
      "Ġnav": 5126,
      "storm": 5127,
      "Ġfigures": 5128,
      "Ġdrank": 5129,
      "Ġsoldiers": 5130,
      "Ġcrying": 5131,
      "Ġincredible": 5132,
      "Ġgri": 5133,
      "rupt": 5134,
      "epar": 5135,
      "Ġace": 5136,
      "Ġflap": 5137,
      "Toys": 5138,
      "Ġpeel": 5139,
      "Ġbatteries": 5140,
      "Che": 5141,
      "Ġbasics": 5142,
      "Ġcirc": 5143,
      "Grandpa": 5144,
      "iggling": 5145,
      "Ġevidence": 5146,
      "amb": 5147,
      "overed": 5148,
      "Nods": 5149,
      "Ġrecess": 5150,
      "Ġenvironmental": 5151,
      "Ġsmoothly": 5152,
      "Ġcarpet": 5153,
      "First": 5154,
      "Ġtour": 5155,
      "Ġgre": 5156,
      "ĠLight": 5157,
      "screen": 5158,
      "Ġsplashing": 5159,
      "iving": 5160,
      "Ġdigging": 5161,
      "Ġrains": 5162,
      "Ġpos": 5163,
      "gging": 5164,
      "Ġdesk": 5165,
      "father": 5166,
      "Ġours": 5167,
      "ĠEating": 5168,
      "Doggy": 5169,
      "Ġpushes": 5170,
      "Ġactivities": 5171,
      "lers": 5172,
      "Ġpowers": 5173,
      "Ġheld": 5174,
      "Ġclues": 5175,
      "ization": 5176,
      "Ġpotatoes": 5177,
      "Careful": 5178,
      "fire": 5179,
      "Ġfeast": 5180,
      "Ġknocked": 5181,
      "Ġsliding": 5182,
      "Ġrelated": 5183,
      "Ġdesigned": 5184,
      "Ġeffective": 5185,
      "cut": 5186,
      "calling": 5187,
      "dles": 5188,
      "uri": 5189,
      "Ġwoof": 5190,
      "Ġblew": 5191,
      "Ġmult": 5192,
      "irm": 5193,
      "Ġsport": 5194,
      "Ġsepar": 5195,
      "Ġending": 5196,
      "Ġneighbors": 5197,
      "Ġinternet": 5198,
      "Ġbarely": 5199,
      "ware": 5200,
      "ĠIce": 5201,
      "Ġswam": 5202,
      "Ġrocking": 5203,
      "Ġfrustrated": 5204,
      "Ġnobody": 5205,
      "aby": 5206,
      "ĠOuch": 5207,
      "Ġchairs": 5208,
      "Ġbattles": 5209,
      "Ġtypes": 5210,
      "Ġwiggle": 5211,
      "Ġgovernment": 5212,
      "Ġring": 5213,
      "Ġemot": 5214,
      "ilder": 5215,
      "tries": 5216,
      "itive": 5217,
      "Ġded": 5218,
      "Ġgrew": 5219,
      "ĠCatch": 5220,
      "ĠMmm": 5221,
      "Ġsmoke": 5222,
      "Ġsecure": 5223,
      "Ġpurple": 5224,
      "ĠChild": 5225,
      "Ġtank": 5226,
      "chuckles": 5227,
      "Ġsmiling": 5228,
      "ason": 5229,
      "Ġupd": 5230,
      "random": 5231,
      "Ġschoolwork": 5232,
      "Ġexplorers": 5233,
      "Ġcourage": 5234,
      "Ġalgebra": 5235,
      "Ġstupid": 5236,
      "Ġgrumpy": 5237,
      "ĠSticky": 5238,
      "Ġmetho": 5239,
      "ĠTeam": 5240,
      "ional": 5241,
      "think": 5242,
      "Ġtreehouse": 5243,
      "Ġsnowsuit": 5244,
      "Ġdrops": 5245,
      "Ġastronaut": 5246,
      "chan": 5247,
      "Ġmagnet": 5248,
      "Ġrandom": 5249,
      "Ġgoals": 5250,
      "ability": 5251,
      "Ġroar": 5252,
      "Ġvolunt": 5253,
      "Ġangle": 5254,
      "ĠAgreed": 5255,
      "Ġjobs": 5256,
      "Ġtaller": 5257,
      "Ġdocument": 5258,
      "Hide": 5259,
      "Ġgate": 5260,
      "ĠYucky": 5261,
      "Ġema": 5262,
      "ĠRide": 5263,
      "Ġbased": 5264,
      "hield": 5265,
      "Ġliquid": 5266,
      "fit": 5267,
      "Ġlistener": 5268,
      "Ġmarkers": 5269,
      "ians": 5270,
      "Ġbush": 5271,
      "ĠToy": 5272,
      "Ġbull": 5273,
      "Ġmuse": 5274,
      "Ġruined": 5275,
      "Ġscrub": 5276,
      "olog": 5277,
      "Ġgun": 5278,
      "Ġbushes": 5279,
      "Ġteachers": 5280,
      "ontinues": 5281,
      "bits": 5282,
      "inse": 5283,
      "Ġrecord": 5284,
      "ĠInd": 5285,
      "Ġfiref": 5286,
      "Ġattic": 5287,
      "Ġjoke": 5288,
      "ĠBubbles": 5289,
      "Ġposition": 5290,
      "oos": 5291,
      "aked": 5292,
      "ĠThrow": 5293,
      "Whoa": 5294,
      "ray": 5295,
      "riger": 5296,
      "Ġdisag": 5297,
      "Ġhurting": 5298,
      "ivid": 5299,
      "Ġserv": 5300,
      "Ġperspective": 5301,
      "gets": 5302,
      "Ġorganized": 5303,
      "Ġproduct": 5304,
      "Somet": 5305,
      "ĠCareful": 5306,
      "Ġmessed": 5307,
      "Ġeconom": 5308,
      "iable": 5309,
      "Ġbought": 5310,
      "ipes": 5311,
      "Ġmessing": 5312,
      "Ġaudience": 5313,
      "Will": 5314,
      "ĠSn": 5315,
      "New": 5316,
      "Ġlaws": 5317,
      "Ġships": 5318,
      "knock": 5319,
      "Ġbene": 5320,
      "ĠMon": 5321,
      "reluctantly": 5322,
      "Ġlets": 5323,
      "Ġcreativity": 5324,
      "Ġerup": 5325,
      "Ġstretch": 5326,
      "puts": 5327,
      "oms": 5328,
      "Ġspooky": 5329,
      "Ġchasing": 5330,
      "oe": 5331,
      "Ġclassmate": 5332,
      "ender": 5333,
      "Ġalb": 5334,
      "Ġens": 5335,
      "Smiles": 5336,
      "Ġclea": 5337,
      "ava": 5338,
      "Ġsneaky": 5339,
      "Ġrubber": 5340,
      "ration": 5341,
      "Ġtrains": 5342,
      "Ġpouring": 5343,
      "Cha": 5344,
      "etic": 5345,
      "Ġoffer": 5346,
      "Ġtracks": 5347,
      "Ġfamil": 5348,
      "lt": 5349,
      "Ġcooked": 5350,
      "Ġmic": 5351,
      "ĠSarah": 5352,
      "cia": 5353,
      "Ġvoices": 5354,
      "Ġreasons": 5355,
      "Ġtales": 5356,
      "Ġlistened": 5357,
      "Ġpassed": 5358,
      "Better": 5359,
      "Ġshoo": 5360,
      "Ġsecrets": 5361,
      "Quack": 5362,
      "Green": 5363,
      "making": 5364,
      "rated": 5365,
      "Ġhits": 5366,
      "Ġpredict": 5367,
      "itting": 5368,
      "ĠBuster": 5369,
      "Ġgrowth": 5370,
      "ĠSomething": 5371,
      "rench": 5372,
      "Apple": 5373,
      "ef": 5374,
      "Ġver": 5375,
      "Ġteamm": 5376,
      "cipl": 5377,
      "Ġrisk": 5378,
      "check": 5379,
      "Ġprofession": 5380,
      "pensive": 5381,
      "ĠGarcia": 5382,
      "Ġteammates": 5383,
      "pin": 5384,
      "lph": 5385,
      "Ġshoot": 5386,
      "ĠPoor": 5387,
      "Ġsignific": 5388,
      "**?": 5389,
      "Ġspee": 5390,
      "Ġhiking": 5391,
      "ĠPlaying": 5392,
      "Ġpolit": 5393,
      "Ġaff": 5394,
      "Ġfaces": 5395,
      "Ġterms": 5396,
      "Ġpeaceful": 5397,
      "Ġroutine": 5398,
      "dri": 5399,
      "hus": 5400,
      "Ġocc": 5401,
      "eller": 5402,
      "Ġclapping": 5403,
      "Ġagrees": 5404,
      "Ġowner": 5405,
      "Ġsigns": 5406,
      "ĠTickle": 5407,
      "Ġcode": 5408,
      "Ġcocoa": 5409,
      "Ġshel": 5410,
      "Ġcorrectly": 5411,
      "Ġwobbly": 5412,
      "ĠLittle": 5413,
      "Ġrare": 5414,
      "Ġjumps": 5415,
      "Ġdriver": 5416,
      "zzy": 5417,
      "ĠNe": 5418,
      "Ġdrama": 5419,
      "Ġbottles": 5420,
      "?'": 5421,
      "Again": 5422,
      "For": 5423,
      "ĠBo": 5424,
      "urate": 5425,
      "ams": 5426,
      "Ġwizard": 5427,
      "Slide": 5428,
      "bles": 5429,
      "car": 5430,
      "Ġbell": 5431,
      "Ġrib": 5432,
      "Ġcommunicate": 5433,
      "Ġconfident": 5434,
      "mission": 5435,
      "ison": 5436,
      "Ġmoist": 5437,
      "Ġpub": 5438,
      "Ġapologize": 5439,
      "Ġingredients": 5440,
      "Ġtelescope": 5441,
      "Honey": 5442,
      "Ġsang": 5443,
      "ĠClose": 5444,
      "Ġcourt": 5445,
      "ogn": 5446,
      "Ġharmful": 5447,
      "port": 5448,
      "husi": 5449,
      "Ġca": 5450,
      "igate": 5451,
      "Ġuncom": 5452,
      "Ġpuff": 5453,
      "Ġprincip": 5454,
      "Nope": 5455,
      "icals": 5456,
      "Ġbones": 5457,
      "anges": 5458,
      "Ġthunder": 5459,
      "Ġshout": 5460,
      "acing": 5461,
      "Ġaffects": 5462,
      "Ġmemory": 5463,
      "ĠBirds": 5464,
      "vest": 5465,
      "Ġtheme": 5466,
      "mbled": 5467,
      "Ġripped": 5468,
      "Ġcaterpillar": 5469,
      "Find": 5470,
      "Tw": 5471,
      "Ġhaunt": 5472,
      "irt": 5473,
      "rif": 5474,
      "Ġscientists": 5475,
      "Ġstudents": 5476,
      "Ġdisappear": 5477,
      "Sometimes": 5478,
      "Tank": 5479,
      "ĠDream": 5480,
      "Ġthoughts": 5481,
      "ĠStar": 5482,
      "Ġmonsters": 5483,
      "Ġinsects": 5484,
      "Yucky": 5485,
      "gives": 5486,
      "pers": 5487,
      "Ġfra": 5488,
      "Ġlie": 5489,
      "Ġtip": 5490,
      "Ġcaring": 5491,
      "Ġends": 5492,
      "Ġlog": 5493,
      "Ġum": 5494,
      "ĠNah": 5495,
      "Ġgrabb": 5496,
      "Ġcontest": 5497,
      "Ġdisagree": 5498,
      "Ġwished": 5499,
      "iggle": 5500,
      "Ġfigured": 5501,
      "Ġrefriger": 5502,
      "ĠClimb": 5503,
      "With": 5504,
      "after": 5505,
      "Ġshield": 5506,
      "orld": 5507,
      "Ġshining": 5508,
      "sidered": 5509,
      "ĠStop": 5510,
      "Ġmostly": 5511,
      "Ġinfo": 5512,
      "Ġpatch": 5513,
      "Ġconsidered": 5514,
      "Ġshell": 5515,
      "ĠFriends": 5516,
      "ĠSpot": 5517,
      "Ġvinegar": 5518,
      "vroom": 5519,
      "Ġfeat": 5520,
      "Ġpleas": 5521,
      "Ġfrench": 5522,
      "Swing": 5523,
      "ĠTeamwork": 5524,
      "Ġmuseum": 5525,
      "Ġmaster": 5526,
      "Ġinj": 5527,
      "allow": 5528,
      "Ġkill": 5529,
      "Ġboom": 5530,
      "Ġharsh": 5531,
      "Ġspray": 5532,
      "Ġconversation": 5533,
      "ury": 5534,
      "Ġtar": 5535,
      "ĠPretty": 5536,
      "Ġnods": 5537,
      "Ġappear": 5538,
      "Ġfeeder": 5539,
      "Ġbags": 5540,
      "ĠShoes": 5541,
      "ĠAgain": 5542,
      "ĠOver": 5543,
      "Ġsale": 5544,
      "Ġexpensive": 5545,
      "ĠFish": 5546,
      "shine": 5547,
      "Ġpasta": 5548,
      "Ġenthusi": 5549,
      "Ġkicked": 5550,
      "ĠTheir": 5551,
      "Ġshed": 5552,
      "Ġspills": 5553,
      "Ġsparkly": 5554,
      "Ġsociety": 5555,
      "Ġstressed": 5556,
      "pret": 5557,
      "sion": 5558,
      "ĠWet": 5559,
      "Ġsuit": 5560,
      "Ġdistracted": 5561,
      "On": 5562,
      "Sad": 5563,
      "Ġreduce": 5564,
      "ancing": 5565,
      "Ġdirection": 5566,
      "bed": 5567,
      "ulp": 5568,
      "Ġrinse": 5569,
      "Ġracc": 5570,
      "Ġsticking": 5571,
      "Ġchallenging": 5572,
      "Ġstepping": 5573,
      "Ġeffects": 5574,
      "Ġchemicals": 5575,
      "Ġgad": 5576,
      "Ġrhy": 5577,
      "Ġhike": 5578,
      "Ġtwinkle": 5579,
      "Ġrecogn": 5580,
      "Ġsubst": 5581,
      "Ġbarn": 5582,
      "Every": 5583,
      "Po": 5584,
      "med": 5585,
      "orms": 5586,
      "Ġhun": 5587,
      "Ġsunscreen": 5588,
      "ĠBefore": 5589,
      "ndred": 5590,
      "ĠHist": 5591,
      "Ġhundred": 5592,
      "Ġbelief": 5593,
      "Ġbalanced": 5594,
      "Ġbaseball": 5595,
      "mates": 5596,
      "sy": 5597,
      "hello": 5598,
      "ĠPull": 5599,
      "Yep": 5600,
      "Ġthin": 5601,
      "Ah": 5602,
      "Ġstood": 5603,
      "ĠPat": 5604,
      "Ġstands": 5605,
      "Ġdoub": 5606,
      "Ġburied": 5607,
      "Ġsuperp": 5608,
      "Ġsearching": 5609,
      "Ġlarge": 5610,
      "ĠMany": 5611,
      "ĠDone": 5612,
      "please": 5613,
      "Ġmovement": 5614,
      "Ġpollution": 5615,
      "Ġpilot": 5616,
      "Guess": 5617,
      "Ġprove": 5618,
      "ified": 5619,
      "Ġpopular": 5620,
      "Ġcooper": 5621,
      "zed": 5622,
      "help": 5623,
      "ĠTwo": 5624,
      "Ġclimate": 5625,
      "Ġcurrent": 5626,
      "Ġdecorate": 5627,
      "ĠGet": 5628,
      "osity": 5629,
      "Ġattack": 5630,
      "Ġpuzzles": 5631,
      "cer": 5632,
      "asy": 5633,
      "Ġspoons": 5634,
      "Ġkicking": 5635,
      "Ġcollection": 5636,
      "Picks": 5637,
      "te": 5638,
      "Ġfund": 5639,
      "eeper": 5640,
      "Ġconsidering": 5641,
      "Ġhumans": 5642,
      "ĠClap": 5643,
      "Ġcells": 5644,
      "away": 5645,
      "iens": 5646,
      "Ġalien": 5647,
      "Ġexcellent": 5648,
      "Ġsolving": 5649,
      "Ġscientist": 5650,
      "Ġdrove": 5651,
      "Ġcryst": 5652,
      "Quiet": 5653,
      "Ġcalcul": 5654,
      "Ġwhisper": 5655,
      "00": 5656,
      "Cause": 5657,
      "Ġcompost": 5658,
      "Ġaccurate": 5659,
      "ĠBlack": 5660,
      "Ġdebate": 5661,
      "ippy": 5662,
      "rer": 5663,
      "iggy": 5664,
      "ĠDa": 5665,
      "Ġslipping": 5666,
      "ipment": 5667,
      "Ġrescue": 5668,
      "Next": 5669,
      "auts": 5670,
      "fall": 5671,
      "aching": 5672,
      "Ġpocket": 5673,
      "ĠOrange": 5674,
      "Ro": 5675,
      "Sam": 5676,
      "ĠNew": 5677,
      "Ġmer": 5678,
      "Ġedges": 5679,
      "Ġsituations": 5680,
      "belie": 5681,
      "Bl": 5682,
      "Wet": 5683,
      "Ġinit": 5684,
      "Ġstub": 5685,
      "ĠInst": 5686,
      "Ġproperty": 5687,
      "phones": 5688,
      "Ġstudent": 5689,
      "Yellow": 5690,
      "Ġfloating": 5691,
      "Ġequipment": 5692,
      "frown": 5693,
      "inting": 5694,
      "ened": 5695,
      "Ġstomp": 5696,
      "ĠOk": 5697,
      "Ġdramatic": 5698,
      "ĠShake": 5699,
      "Ġcertainly": 5700,
      "Ġspent": 5701,
      "Ġclue": 5702,
      "Ġpassing": 5703,
      "Ġpeekaboo": 5704,
      "ker": 5705,
      "mpty": 5706,
      "Ġsees": 5707,
      "shm": 5708,
      "Ġinteract": 5709,
      "Ġdamaged": 5710,
      "Ġstrategies": 5711,
      "Ġemail": 5712,
      "Two": 5713,
      "Ġ&": 5714,
      "Ġwires": 5715,
      "entering": 5716,
      "Ġcartoon": 5717,
      "Ġcust": 5718,
      "Ġmunch": 5719,
      "igers": 5720,
      "Ġvase": 5721,
      "Ġfri": 5722,
      "ening": 5723,
      "Ġinvisible": 5724,
      "Ġsil": 5725,
      "Ġfishing": 5726,
      "ashing": 5727,
      "acy": 5728,
      "keeper": 5729,
      "Ġcycle": 5730,
      "Ġthrill": 5731,
      "ĠMan": 5732,
      "Ġwooden": 5733,
      "Ġcuddle": 5734,
      "Din": 5735,
      "ĠUm": 5736,
      "Ġfreed": 5737,
      "ĠAlmost": 5738,
      "Open": 5739,
      "ĠWanna": 5740,
      "ĠApples": 5741,
      "Ġsuc": 5742,
      "Ġusual": 5743,
      "Ġdiscipl": 5744,
      "hicken": 5745,
      "Ġprec": 5746,
      "Ġperio": 5747,
      "Ġspending": 5748,
      "Ġacorns": 5749,
      "Ġitems": 5750,
      "Ġlif": 5751,
      "Ġcomic": 5752,
      "Ġident": 5753,
      "Ġdemonstr": 5754,
      "Ġrolling": 5755,
      "Ġsucceed": 5756,
      "As": 5757,
      "Even": 5758,
      "Fix": 5759,
      "Ġcot": 5760,
      "ision": 5761,
      "Ġbud": 5762,
      "Ġrivers": 5763,
      "Ġairplanes": 5764,
      "Ġeffic": 5765,
      "Sweep": 5766,
      "ooo": 5767,
      "Ġdolph": 5768,
      "Ġexcite": 5769,
      "Stuck": 5770,
      "Ġcounts": 5771,
      "Ġrelig": 5772,
      "Ġdefense": 5773,
      "Ġtasks": 5774,
      "pot": 5775,
      "Ġmature": 5776,
      "ĠSort": 5777,
      "ĠWonderful": 5778,
      "outs": 5779,
      "ĠHide": 5780,
      "Ġunst": 5781,
      "xygen": 5782,
      "Fi": 5783,
      "made": 5784,
      "Ġsear": 5785,
      "ĠBed": 5786,
      "Ġqueen": 5787,
      "Ġremote": 5788,
      "Ġrespecting": 5789,
      "Ġvideos": 5790,
      "Ow": 5791,
      "Ġlava": 5792,
      "eekaboo": 5793,
      "Ġsqueeze": 5794,
      "Actually": 5795,
      "Tr": 5796,
      "grand": 5797,
      "**'": 5798,
      "Ġquality": 5799,
      "Ġdiffic": 5800,
      "Ġbumped": 5801,
      "Truck": 5802,
      "Ġpause": 5803,
      "iece": 5804,
      "Ġbeauty": 5805,
      "Ġtickles": 5806,
      "driver": 5807,
      "Ġstubborn": 5808,
      "Tom": 5809,
      "Ġtouches": 5810,
      "ĠChase": 5811,
      "Ġspeech": 5812,
      "ĠHistory": 5813,
      "Ġton": 5814,
      "Ġrich": 5815,
      "Ġvolume": 5816,
      "Swim": 5817,
      "Where": 5818,
      "Ġtub": 5819,
      "Ġwins": 5820,
      "Ġsus": 5821,
      "arting": 5822,
      "Ġswear": 5823,
      "Ġaliens": 5824,
      "Ġchap": 5825,
      "Fish": 5826,
      "ubb": 5827,
      "ising": 5828,
      "ĠSleepy": 5829,
      "Ġoriginal": 5830,
      "Hungry": 5831,
      "Read": 5832,
      "ailed": 5833,
      "ĠBabysitter": 5834,
      "Pretty": 5835,
      "Toy": 5836,
      "care": 5837,
      "mes": 5838,
      "ĠSkate": 5839,
      "Ġforks": 5840,
      "ieval": 5841,
      "Ġconstr": 5842,
      "Ġplanted": 5843,
      "Ġpermission": 5844,
      "Ġmarshm": 5845,
      "Ġpaying": 5846,
      "Hat": 5847,
      "not": 5848,
      "Ġ...": 5849,
      "Ġspong": 5850,
      "Ġplanned": 5851,
      "Ġexamples": 5852,
      "ĠCookie": 5853,
      "Ġphysical": 5854,
      "Safe": 5855,
      "Ġbeak": 5856,
      "Ġnails": 5857,
      "fts": 5858,
      "ustain": 5859,
      "Ġadult": 5860,
      "Ġbelieved": 5861,
      "Ġachieve": 5862,
      "rack": 5863,
      "agic": 5864,
      "Ġsunshine": 5865,
      "Ġcompass": 5866,
      "Ġinclud": 5867,
      "ĠDinner": 5868,
      "ties": 5869,
      "Ġpracticed": 5870,
      "Ġstripes": 5871,
      "utions": 5872,
      "Ġprice": 5873,
      "Ġmelt": 5874,
      "Ġsprinkle": 5875,
      "Ġabsor": 5876,
      "Ġopin": 5877,
      "Ġhall": 5878,
      "ĠHungry": 5879,
      "ĠMost": 5880,
      "Ġshaped": 5881,
      "Ġquieter": 5882,
      "Ġkisses": 5883,
      "Fly": 5884,
      "Ġoxygen": 5885,
      "icking": 5886,
      "ilit": 5887,
      "Ġclassmates": 5888,
      "zzle": 5889,
      "ĠWheee": 5890,
      "ography": 5891,
      "oned": 5892,
      "ĠWipe": 5893,
      "ĠBrrr": 5894,
      "Ġath": 5895,
      "Ġkindness": 5896,
      "Ġsuppose": 5897,
      "ĠKitty": 5898,
      "Ġoppos": 5899,
      "Ġemer": 5900,
      "ping": 5901,
      "eases": 5902,
      "Ġpolite": 5903,
      "Ġcabin": 5904,
      "Pull": 5905,
      "Tickle": 5906,
      "Warm": 5907,
      "hered": 5908,
      "Ġopening": 5909,
      "Ġlessons": 5910,
      "Ġsneaker": 5911,
      "Ġslipper": 5912,
      "Ġdecorations": 5913,
      "Ġcontribute": 5914,
      "Ġnom": 5915,
      "ĠAnt": 5916,
      "Ġgoodbye": 5917,
      "ĠJason": 5918,
      "Ġadded": 5919,
      "Ġscrewdriver": 5920,
      "Ġpublic": 5921,
      "Kitty": 5922,
      "Ġfest": 5923,
      "ĠTotally": 5924,
      "ĠSing": 5925,
      "ĠBack": 5926,
      "ĠDoggy": 5927,
      "Ġunre": 5928,
      "Ġassist": 5929,
      "Ġhaunted": 5930,
      "Ġ4": 5931,
      "Ġbark": 5932,
      "Ġpit": 5933,
      "Ġstom": 5934,
      "ĠUmm": 5935,
      "Mine": 5936,
      "oss": 5937,
      "Ġda": 5938,
      "ĠHer": 5939,
      "Ġcheering": 5940,
      "Ġslipped": 5941,
      "Ġgrows": 5942,
      "Ġmedieval": 5943,
      "Ġbattery": 5944,
      "Ġborn": 5945,
      "ighters": 5946,
      "cep": 5947,
      "arty": 5948,
      "asting": 5949,
      "ĠToys": 5950,
      "Ġreminder": 5951,
      "'!\"": 5952,
      "sn": 5953,
      "zer": 5954,
      "Ġcas": 5955,
      "Ġaband": 5956,
      "Ġrefrigerator": 5957,
      "Ġexcitement": 5958,
      "ura": 5959,
      "Ġord": 5960,
      "Ġresolving": 5961,
      "ĠSweep": 5962,
      "od": 5963,
      "zen": 5964,
      "har": 5965,
      "Ġdude": 5966,
      "atory": 5967,
      "eds": 5968,
      "Ġclums": 5969,
      "Ġducky": 5970,
      "Ġversion": 5971,
      "phic": 5972,
      "Ġsteal": 5973,
      "iday": 5974,
      "ĠMar": 5975,
      "ĠFly": 5976,
      "Ġcrash": 5977,
      "Ġopens": 5978,
      "Ġcontent": 5979,
      "Ġsurround": 5980,
      "Ġcultures": 5981,
      "ina": 5982,
      "ĠOther": 5983,
      "Ġturtles": 5984,
      "Ġclaps": 5985,
      "Ġpulls": 5986,
      "Ġimagin": 5987,
      "Cookie": 5988,
      "Ġpassionate": 5989,
      "Sun": 5990,
      "Ġclay": 5991,
      "Ġwad": 5992,
      "ula": 5993,
      "Ġleading": 5994,
      "Ġknocking": 5995,
      "toddler": 5996,
      "Ġdiscussing": 5997,
      "Ġrisky": 5998,
      "Ġallowed": 5999,
      "Ġopportunity": 6000,
      "oups": 6001,
      "Ġbill": 6002,
      "Ġrely": 6003,
      "Ġbuilder": 6004,
      "new": 6005,
      "Ġsquishy": 6006,
      "Ġchecking": 6007,
      "Ġincre": 6008,
      "Ġculture": 6009,
      "shakes": 6010,
      "Att": 6011,
      "Ġconcentrate": 6012,
      "wy": 6013,
      "Ġtab": 6014,
      "Ġsix": 6015,
      "Ġbri": 6016,
      "Ġlower": 6017,
      "Ġaspect": 6018,
      "ĠPaint": 6019,
      "Please": 6020,
      "Ġrelie": 6021,
      "build": 6022,
      "Ġuncomfortable": 6023,
      "Nigh": 6024,
      "Ġtoss": 6025,
      "Ġped": 6026,
      "Ġnic": 6027,
      "allows": 6028,
      "Ġcoke": 6029,
      "ĠPen": 6030,
      "mma": 6031,
      "ĠAnything": 6032,
      "Ġspreading": 6033,
      "Ġauthor": 6034,
      "Ġshelter": 6035,
      "orate": 6036,
      "Ġfault": 6037,
      "Ġresist": 6038,
      "Ġslippers": 6039,
      "Catch": 6040,
      "nal": 6041,
      "Ġlying": 6042,
      "Ġhobb": 6043,
      "Ġthrows": 6044,
      "Ġcraw": 6045,
      "priate": 6046,
      "Ġastronauts": 6047,
      "Ġprofessional": 6048,
      "rush": 6049,
      "urtle": 6050,
      "ĠPro": 6051,
      "Ġchain": 6052,
      "Ġprotecting": 6053,
      "proof": 6054,
      "Ġframe": 6055,
      "Close": 6056,
      "word": 6057,
      "Ġbored": 6058,
      "Ġfus": 6059,
      "ĠWhatever": 6060,
      "Ġworrying": 6061,
      "Ġengaging": 6062,
      "Ġchemical": 6063,
      "Ġafford": 6064,
      "Box": 6065,
      "list": 6066,
      "waves": 6067,
      "inj": 6068,
      "une": 6069,
      "ĠFind": 6070,
      "Ġsleeps": 6071,
      "Ġtwice": 6072,
      "boys": 6073,
      "Un": 6074,
      "uate": 6075,
      "Ġwishes": 6076,
      "ĠCho": 6077,
      "ĠMond": 6078,
      "obble": 6079,
      "Ġanytime": 6080,
      "umes": 6081,
      "Ġkidd": 6082,
      "looking": 6083,
      "Ġtechnique": 6084,
      "Ġoranges": 6085,
      "Ġaside": 6086,
      "Ġchecked": 6087,
      "Ġdino": 6088,
      "Ġfocusing": 6089,
      "Ġpenguins": 6090,
      "ifying": 6091,
      "ĠWhee": 6092,
      "Ġsearched": 6093,
      "Attempts": 6094,
      "**?\"": 6095,
      "Ġrehe": 6096,
      "angled": 6097,
      "Ġflex": 6098,
      "ĠDude": 6099,
      "Ġsetup": 6100,
      "Ġsettings": 6101,
      "Ġequation": 6102,
      "Clap": 6103,
      "Ġbegins": 6104,
      "ĠUnderstanding": 6105,
      "Would": 6106,
      "how": 6107,
      "Ġbac": 6108,
      "Ġgroc": 6109,
      "Wipe": 6110,
      "cr": 6111,
      "hest": 6112,
      "eter": 6113,
      "Ġlightning": 6114,
      "Ġleaders": 6115,
      "Ġmovements": 6116,
      "Ġstoryteller": 6117,
      "Ġyay": 6118,
      "ashion": 6119,
      "una": 6120,
      "ushed": 6121,
      "andy": 6122,
      "Ġblend": 6123,
      "Ġerupt": 6124,
      "Puts": 6125,
      "ira": 6126,
      "inct": 6127,
      "ĠHop": 6128,
      "Ġsteam": 6129,
      "Done": 6130,
      "Loud": 6131,
      "bird": 6132,
      "Ġlimit": 6133,
      "icles": 6134,
      "Ġslid": 6135,
      "Ġgrad": 6136,
      "Ġgroups": 6137,
      "Ġleve": 6138,
      "awn": 6139,
      "door": 6140,
      "berries": 6141,
      "Ġimpressed": 6142,
      "Ġtextbook": 6143,
      "meric": 6144,
      "ĠMonday": 6145,
      "Cool": 6146,
      "Dirty": 6147,
      "Shake": 6148,
      "Ġwithin": 6149,
      "Ġmember": 6150,
      "ĠPo": 6151,
      "Ġjuicy": 6152,
      "ĠKnock": 6153,
      "Ġexercise": 6154,
      "usic": 6155,
      "Ġnearby": 6156,
      "ĠHelping": 6157,
      "Ġcuriosity": 6158,
      "Ġspinning": 6159,
      "iverse": 6160,
      "Ġnecessary": 6161,
      "Slow": 6162,
      "cils": 6163,
      "utter": 6164,
      "Ġswish": 6165,
      "Ġadm": 6166,
      "Ġtweet": 6167,
      "aced": 6168,
      "Ġwiping": 6169,
      "eve": 6170,
      "Ġmother": 6171,
      "Ġtowers": 6172,
      "Ġchose": 6173,
      "Ġsyrup": 6174,
      "Ġmedia": 6175,
      "Ġmachines": 6176,
      "Ġdifficult": 6177,
      "Poor": 6178,
      "reasure": 6179,
      "Ġgiggles": 6180,
      "Ġvict": 6181,
      "Ġvote": 6182,
      "berry": 6183,
      "eenager": 6184,
      "Ġdefend": 6185,
      "Ġstepped": 6186,
      "Ġhabitat": 6187,
      "Ġreplace": 6188,
      "Full": 6189,
      "fact": 6190,
      "Ġsustain": 6191,
      "arn": 6192,
      "Ġsculp": 6193,
      "Ġarmor": 6194,
      "Ġprint": 6195,
      "ĠAnimals": 6196,
      "Ġdiscovered": 6197,
      "Ġskateboarding": 6198,
      "mind": 6199,
      "resp": 6200,
      "ĠWi": 6201,
      "ĠDrag": 6202,
      "ĠDada": 6203,
      "friendly": 6204,
      "Ġbasically": 6205,
      "Ġbuying": 6206,
      "Ġrhyth": 6207,
      "Ġfreedom": 6208,
      "rong": 6209,
      "**.\"": 6210,
      "Ġsniff": 6211,
      "Ġrode": 6212,
      "Ġuniverse": 6213,
      "Stop": 6214,
      "Ġloc": 6215,
      "Ġblows": 6216,
      "Ġangry": 6217,
      "ĠDaisy": 6218,
      "ued": 6219,
      "hier": 6220,
      "Ġlone": 6221,
      "lower": 6222,
      "Ġadds": 6223,
      "Ġcoats": 6224,
      "Ġbeginning": 6225,
      "Ġalbum": 6226,
      "Ex": 6227,
      "Ġwire": 6228,
      "Ġreaches": 6229,
      "Points": 6230,
      "Ġsile": 6231,
      "istry": 6232,
      "shows": 6233,
      "Ġsplashed": 6234,
      "Ġchoosing": 6235,
      "Ġpuppies": 6236,
      "Ġseparate": 6237,
      "Are": 6238,
      "asm": 6239,
      "Ġsnowball": 6240,
      "Ġarguments": 6241,
      "Ġconnection": 6242,
      "Ġcauses": 6243,
      "Ġkiddos": 6244,
      "Dark": 6245,
      "rain": 6246,
      "Ġdip": 6247,
      "Ġhoping": 6248,
      "Ġinvest": 6249,
      "Ġshots": 6250,
      "Ġprogram": 6251,
      "Ġpretzels": 6252,
      "Ġcommitment": 6253,
      "beard": 6254,
      "Ġhook": 6255,
      "Ġmechan": 6256,
      "Ġfamilies": 6257,
      "ĠInstead": 6258,
      "Oops": 6259,
      "Sorry": 6260,
      "Ġimit": 6261,
      "ĠWhoosh": 6262,
      "Ġstable": 6263,
      "Ġrum": 6264,
      "oodle": 6265,
      "Ġsits": 6266,
      "Sing": 6267,
      "child": 6268,
      "continues": 6269,
      "tuce": 6270,
      "ĠWeren": 6271,
      "Ġdiag": 6272,
      "Ġclasses": 6273,
      "Ġdreaming": 6274,
      "Ġanswers": 6275,
      "Kiss": 6276,
      "arter": 6277,
      "ĠBath": 6278,
      "Ġthro": 6279,
      "Ġfiguring": 6280,
      "Ġexpert": 6281,
      "Ġtorn": 6282,
      "Ġstomach": 6283,
      "Ġfan": 6284,
      "Ġport": 6285,
      "otic": 6286,
      "agger": 6287,
      "Were": 6288,
      "Ġpredators": 6289,
      "rite": 6290,
      "Ġcartoons": 6291,
      "Ġtask": 6292,
      "Ġpacked": 6293,
      "Ġuh": 6294,
      "ĠAmeric": 6295,
      "Ġbrushing": 6296,
      "Ġpractical": 6297,
      "uchie": 6298,
      "appro": 6299,
      "Ġhonor": 6300,
      "Ġpromises": 6301,
      "Ġprivate": 6302,
      "Ġdestro": 6303,
      "Ġcivil": 6304,
      "Ġstink": 6305,
      "Ġpointless": 6306,
      "Ġraisin": 6307,
      "Ġclaim": 6308,
      "Ġpow": 6309,
      "Ġdisaster": 6310,
      "Ġdesert": 6311,
      "ĠLe": 6312,
      "Ġramp": 6313,
      "Ġpickles": 6314,
      "Ġaddress": 6315,
      "haps": 6316,
      "Ġfetch": 6317,
      "Ġgrill": 6318,
      "Ġskip": 6319,
      "Ġbroad": 6320,
      "Ġ20": 6321,
      "Ġsplashes": 6322,
      "Ġbloom": 6323,
      "Ġlifes": 6324,
      "Moon": 6325,
      "emy": 6326,
      "yawns": 6327,
      "hirts": 6328,
      "Ġowe": 6329,
      "Ġallowance": 6330,
      "Ġmultip": 6331,
      "Ġpant": 6332,
      "eath": 6333,
      "Ġhills": 6334,
      "Ġdiet": 6335,
      "Ġrabbits": 6336,
      "Ġcapture": 6337,
      "Ġmillion": 6338,
      "Super": 6339,
      "ĠOld": 6340,
      "ains": 6341,
      "Ġadmit": 6342,
      "Ġtasted": 6343,
      "Ġdirectly": 6344,
      "Ġecosystems": 6345,
      "Scared": 6346,
      "Ġshadow": 6347,
      "Ġintrod": 6348,
      "Ġdem": 6349,
      "runs": 6350,
      "press": 6351,
      "yond": 6352,
      "ĠLong": 6353,
      "ured": 6354,
      "Ġstorybook": 6355,
      "Ġresults": 6356,
      "down": 6357,
      "ĠLoud": 6358,
      "Ġstruggling": 6359,
      "Ġpractices": 6360,
      "Ġhesitate": 6361,
      "Ġprovide": 6362,
      "Ġitchy": 6363,
      "Ġpencils": 6364,
      "Cozy": 6365,
      "Ġperiod": 6366,
      "Ġrhythm": 6367,
      "Ġaunt": 6368,
      "Ġbone": 6369,
      "stood": 6370,
      "Ġsailing": 6371,
      "Ġalarm": 6372,
      "Ġrelease": 6373,
      "Ġtotal": 6374,
      "hearted": 6375,
      "Ġscientific": 6376,
      "Ġraccoon": 6377,
      "omen": 6378,
      "Ġhabits": 6379,
      "Ġrope": 6380,
      "Ġhugged": 6381,
      "Ġlaunch": 6382,
      "Ġclapped": 6383,
      "Ġaccepted": 6384,
      "aver": 6385,
      "inter": 6386,
      "ulation": 6387,
      "Ġwhist": 6388,
      "Ġdetail": 6389,
      "Ġdoctors": 6390,
      "Ġequations": 6391,
      "Ġsurvival": 6392,
      "cepts": 6393,
      "Ġabandoned": 6394,
      "Ġlonely": 6395,
      "Mimics": 6396,
      "ube": 6397,
      "vable": 6398,
      "ĠĠ": 6399,
      "stairs": 6400,
      "ĠSchool": 6401,
      "ĠMo": 6402,
      "orth": 6403,
      "Ġsheet": 6404,
      "Ġteaches": 6405,
      "Ġsquish": 6406,
      "ĠKick": 6407,
      "fill": 6408,
      "Ġbow": 6409,
      "Ġmaj": 6410,
      "Ġrights": 6411,
      "Ġscales": 6412,
      "Ġsignal": 6413,
      "Ġlevels": 6414,
      "ibility": 6415,
      "Ġeco": 6416,
      "Ġgiven": 6417,
      "Ġlands": 6418,
      "Ġmixing": 6419,
      "Climb": 6420,
      "Ġouchies": 6421,
      "Ġbacter": 6422,
      "reme": 6423,
      "erg": 6424,
      "Ġlettuce": 6425,
      "usion": 6426,
      "ffes": 6427,
      "Ġenemy": 6428,
      "Ġbookshe": 6429,
      "Ġsponge": 6430,
      "volution": 6431,
      "Ġcred": 6432,
      "Ġbeyond": 6433,
      "ĠRoar": 6434,
      "Ġshooting": 6435,
      "App": 6436,
      "Bath": 6437,
      "Long": 6438,
      "ga": 6439,
      "Ġdeeper": 6440,
      "Ġshade": 6441,
      "Ġvoc": 6442,
      "Ġwhale": 6443,
      "ĠToo": 6444,
      "Ġmagician": 6445,
      "Ġdesc": 6446,
      "Ġsparkling": 6447,
      "ĠExcellent": 6448,
      "Ġembarrassing": 6449,
      "Ġmarshmallows": 6450,
      "touches": 6451,
      "Ġoper": 6452,
      "Ġsore": 6453,
      "Ġunif": 6454,
      "Ġinvite": 6455,
      "Ġmarker": 6456,
      "Ġinspire": 6457,
      "Ġwebs": 6458,
      "Ġsac": 6459,
      "Ġshad": 6460,
      "Ġfail": 6461,
      "Ġbiting": 6462,
      "Ġcompare": 6463,
      "ucked": 6464,
      "Ġconcerned": 6465,
      "Ġsilver": 6466,
      "aff": 6467,
      "react": 6468,
      "hions": 6469,
      "Ġfurn": 6470,
      "ĠTurn": 6471,
      "eng": 6472,
      "vert": 6473,
      "Ġthread": 6474,
      "ĠOutside": 6475,
      "Ġcleanup": 6476,
      "Ġcarbon": 6477,
      "Ġsounded": 6478,
      "Ġrained": 6479,
      "ensive": 6480,
      "Ġfreaking": 6481,
      "Bubbles": 6482,
      "looks": 6483,
      "Hands": 6484,
      "wash": 6485,
      "hill": 6486,
      "Ġmaps": 6487,
      "Ġoct": 6488,
      "ĠSand": 6489,
      "Ġsting": 6490,
      "cho": 6491,
      "Ġadults": 6492,
      "Ġphones": 6493,
      "Ġdoubt": 6494,
      "Hand": 6495,
      "Ġtrop": 6496,
      "igs": 6497,
      "ĠWarm": 6498,
      "Ġ30": 6499,
      "Ġstatue": 6500,
      "Ġbookshelf": 6501,
      "Fl": 6502,
      "Paint": 6503,
      "fashion": 6504,
      "eared": 6505,
      "Ġfields": 6506,
      "ĠCookies": 6507,
      "Ġbikes": 6508,
      "Puppy": 6509,
      "Ġcustom": 6510,
      "orp": 6511,
      "Ġdoors": 6512,
      "Ġtied": 6513,
      "Ġexplan": 6514,
      "Ġmessages": 6515,
      "ĠStand": 6516,
      "Ġcushions": 6517,
      "Fin": 6518,
      "fr": 6519,
      "ĠNope": 6520,
      "opes": 6521,
      "Ġscrib": 6522,
      "ummies": 6523,
      "Ġconqu": 6524,
      "Ġbasic": 6525,
      "Ġexperiments": 6526,
      "ĠKinda": 6527,
      "Ġstorytelling": 6528,
      "osphere": 6529,
      "Ġbulb": 6530,
      "Ġbenef": 6531,
      "Ġpace": 6532,
      "Ġrein": 6533,
      "rial": 6534,
      "Ġrug": 6535,
      "fting": 6536,
      "Ġwritten": 6537,
      "Ġgrape": 6538,
      "rots": 6539,
      "Ġache": 6540,
      "Ġreturns": 6541,
      "Ġlayer": 6542,
      "Ġninj": 6543,
      "ircle": 6544,
      "ĠHurt": 6545,
      "Ġpreser": 6546,
      "aws": 6547,
      "mar": 6548,
      "Ġhay": 6549,
      "Ġability": 6550,
      "ĠCut": 6551,
      "Ġplayd": 6552,
      "Ġsketch": 6553,
      "Ġheadphones": 6554,
      "Ġcurtain": 6555,
      "Ġessential": 6556,
      "Ġearned": 6557,
      "Ġobjects": 6558,
      "Wonderful": 6559,
      "ĠFriend": 6560,
      "Ġmood": 6561,
      "rave": 6562,
      "Ġallows": 6563,
      "Ġsuff": 6564,
      "Ġgraphic": 6565,
      "Ġamong": 6566,
      "Ġfashion": 6567,
      "Ġtournam": 6568,
      "grandfather": 6569,
      "fashioned": 6570,
      "bug": 6571,
      "ended": 6572,
      "ĠNature": 6573,
      "ĠDown": 6574,
      "Ġconcl": 6575,
      "Ġraise": 6576,
      "Ġdesigns": 6577,
      "Walking": 6578,
      "Ġemergen": 6579,
      "erves": 6580,
      "rog": 6581,
      "Ġfunction": 6582,
      "ĠPick": 6583,
      "ĠEw": 6584,
      "Ġnewsp": 6585,
      "Ġchased": 6586,
      "Ġbeliefs": 6587,
      "wow": 6588,
      "ĠTaking": 6589,
      "Ġlikely": 6590,
      "ĠDirty": 6591,
      "ĠPet": 6592,
      "Ġconcepts": 6593,
      "ĠFair": 6594,
      "umps": 6595,
      "awr": 6596,
      "Ġattach": 6597,
      "Ġprote": 6598,
      "Being": 6599,
      "Ġgadgets": 6600,
      "Snow": 6601,
      "mage": 6602,
      "Ġur": 6603,
      "Ġspo": 6604,
      "Ġjugg": 6605,
      "Bo": 6606,
      "Ġdiss": 6607,
      "Ġexhi": 6608,
      "Ġrealistic": 6609,
      "Ġcompan": 6610,
      "Ġprize": 6611,
      "Ġlarger": 6612,
      "Ġvocab": 6613,
      "eel": 6614,
      "ĠCow": 6615,
      "ulous": 6616,
      "Ġtowels": 6617,
      "Ġactive": 6618,
      "Ġdisplay": 6619,
      "Ġinterests": 6620,
      "Ġaccount": 6621,
      "Ġcampfire": 6622,
      "Ġgrabbed": 6623,
      "turns": 6624,
      "Ġtigers": 6625,
      "Ġdates": 6626,
      "Ġoffice": 6627,
      "uggled": 6628,
      "Ġlicking": 6629,
      "Ġslept": 6630,
      "Ġchapter": 6631,
      "Ġbacteria": 6632,
      "neath": 6633,
      "gers": 6634,
      "Ġfollows": 6635,
      "ĠSquirrel": 6636,
      "Ġdiscipline": 6637,
      "Al": 6638,
      "Ġpal": 6639,
      "asket": 6640,
      "Ġhea": 6641,
      "ĠYounger": 6642,
      "Ġsmiled": 6643,
      "ddles": 6644,
      "Ġpretended": 6645,
      "Ġtiming": 6646,
      "Ġefforts": 6647,
      "Ġcaused": 6648,
      "Ġcondition": 6649,
      "lines": 6650,
      "Ġloop": 6651,
      "ĠBlow": 6652,
      "Ġpassword": 6653,
      "Sweet": 6654,
      "Ġphysics": 6655,
      "Hurt": 6656,
      "break": 6657,
      "stop": 6658,
      "arrow": 6659,
      "ĠHend": 6660,
      "Ġclassic": 6661,
      "ension": 6662,
      "Ġimproving": 6663,
      "piece": 6664,
      "Ġlect": 6665,
      "ĠPour": 6666,
      "Ġsooner": 6667,
      "Ġcrab": 6668,
      "Ġsolutions": 6669,
      "Ġelectron": 6670,
      "Ġmice": 6671,
      "stac": 6672,
      "ĠSir": 6673,
      "aries": 6674,
      "Ġstur": 6675,
      "ĠDis": 6676,
      "Ġtreated": 6677,
      "Ġoverhearing": 6678,
      "Ġparticip": 6679,
      "ilitary": 6680,
      "Drink": 6681,
      "Knock": 6682,
      "Pour": 6683,
      "dge": 6684,
      "la": 6685,
      "omm": 6686,
      "oots": 6687,
      "urs": 6688,
      "Ġslight": 6689,
      "Ġcircles": 6690,
      "Ġscrape": 6691,
      "ĠFriday": 6692,
      "Ġservice": 6693,
      "*.": 6694,
      "Ġselling": 6695,
      "haw": 6696,
      "ĠMama": 6697,
      "ĠRock": 6698,
      "Ġunless": 6699,
      "ĠStories": 6700,
      "Ġlouder": 6701,
      "Ġrelations": 6702,
      "rible": 6703,
      "reg": 6704,
      "ĠFull": 6705,
      "Ġclosely": 6706,
      "Ġbang": 6707,
      "grabs": 6708,
      "Ġconvin": 6709,
      "Tiny": 6710,
      "hugs": 6711,
      "itor": 6712,
      "used": 6713,
      "Ġprank": 6714,
      "Ġaccess": 6715,
      "Ġcommunication": 6716,
      "ĠCarry": 6717,
      "Ġthroat": 6718,
      "uals": 6719,
      "iture": 6720,
      "Ġspider": 6721,
      "ĠGra": 6722,
      "ĠPir": 6723,
      "Ġraces": 6724,
      "Ġfinishing": 6725,
      "Later": 6726,
      "mark": 6727,
      "Ġfis": 6728,
      "Ġmut": 6729,
      "Ġnarr": 6730,
      "ashed": 6731,
      "Ġtire": 6732,
      "Ġatm": 6733,
      "ĠSomeone": 6734,
      "ertil": 6735,
      "craft": 6736,
      "Ġinfluence": 6737,
      "Ġopposite": 6738,
      "Heavy": 6739,
      "Say": 6740,
      "ĠTank": 6741,
      "ĠBroken": 6742,
      "Ġtripped": 6743,
      "Ġstaring": 6744,
      "Ġcomplain": 6745,
      "Ġorganizing": 6746,
      "Ġdepends": 6747,
      "ĠHenderson": 6748,
      "Ġthir": 6749,
      "Ġbuzz": 6750,
      "Ġoverp": 6751,
      "Ġchess": 6752,
      "Ġtalks": 6753,
      "Ġsequ": 6754,
      "Ġparade": 6755,
      "Ġfloaties": 6756,
      "orning": 6757,
      "ĠTower": 6758,
      "Ġrenew": 6759,
      "Ġcleaner": 6760,
      "Ġoverreact": 6761,
      "Ġmuffins": 6762,
      "ĠShhh": 6763,
      "Ġcontainer": 6764,
      "Sn": 6765,
      "Ġfol": 6766,
      "ĠCars": 6767,
      "Noisy": 6768,
      "Ġtrap": 6769,
      "Ġfrozen": 6770,
      "Ġmindful": 6771,
      "Ġghosts": 6772,
      "Ġoptions": 6773,
      "frowns": 6774,
      "Ġcotton": 6775,
      "Nana": 6776,
      "Ġslo": 6777,
      "Ġfake": 6778,
      "ulti": 6779,
      "Ġpollen": 6780,
      "Ġmanaging": 6781,
      "Ġpaints": 6782,
      "Ġtraditional": 6783,
      "ĠTwinkle": 6784,
      "Ġentertain": 6785,
      "jo": 6786,
      "Ġmama": 6787,
      "Ġpha": 6788,
      "Ġgoo": 6789,
      "ĠMilk": 6790,
      "Ġarri": 6791,
      "ĠFo": 6792,
      "Ġresting": 6793,
      "mony": 6794,
      "osaurs": 6795,
      "Ġassignments": 6796,
      "Ġstrict": 6797,
      "ĠNeighbor": 6798,
      "Ġbudget": 6799,
      "Tomorrow": 6800,
      ")**:": 6801,
      "lming": 6802,
      "uly": 6803,
      "otty": 6804,
      "Ġir": 6805,
      "irls": 6806,
      "ĠBoth": 6807,
      "Ġprince": 6808,
      "boos": 6809,
      "Ġobservation": 6810,
      "orse": 6811,
      "Ġnigh": 6812,
      "Ġshut": 6813,
      "opens": 6814,
      "Ġarc": 6815,
      "Ġfeeding": 6816,
      "Ġshark": 6817,
      "Ġobstac": 6818,
      "Ġbrainstorm": 6819,
      "Ġweap": 6820,
      "Ġdocumentary": 6821,
      "Old": 6822,
      "Ġfat": 6823,
      "ĠButter": 6824,
      "roke": 6825,
      "Ġhandy": 6826,
      "Ġwaterfall": 6827,
      "izer": 6828,
      "Ġflood": 6829,
      "ĠRevolution": 6830,
      "Ġdescribes": 6831,
      "Ġencourage": 6832,
      "ĠRoll": 6833,
      "Cheese": 6834,
      "view": 6835,
      "orrect": 6836,
      "each": 6837,
      "ĠName": 6838,
      "hesis": 6839,
      "Ġ15": 6840,
      "Ġmetap": 6841,
      "Ġpigs": 6842,
      "Ġvisited": 6843,
      "Ġcopy": 6844,
      "Ġemotions": 6845,
      "Any": 6846,
      "bell": 6847,
      "draw": 6848,
      "uries": 6849,
      "Ġthie": 6850,
      "Ġsippy": 6851,
      "Ġrow": 6852,
      "ĠLee": 6853,
      "Ġeagle": 6854,
      "Ġwarmer": 6855,
      "uctive": 6856,
      "urning": 6857,
      "Ġchaos": 6858,
      "Ġunl": 6859,
      "Ġcompared": 6860,
      "Ġoverwhelming": 6861,
      "Ġmicro": 6862,
      "ĠTiny": 6863,
      "Ġthreat": 6864,
      "ppers": 6865,
      "Ġscored": 6866,
      "Ġquiz": 6867,
      "ĠRain": 6868,
      "Looks": 6869,
      "Ġjokes": 6870,
      "Ġcostumes": 6871,
      "Ġchemistry": 6872,
      "Ġmir": 6873,
      "rip": 6874,
      "rict": 6875,
      "ames": 6876,
      "bras": 6877,
      "Ġsorted": 6878,
      "Ġindivid": 6879,
      "Ġatmosphere": 6880,
      "sits": 6881,
      "oration": 6882,
      "antage": 6883,
      "Ġplayful": 6884,
      "ĠGold": 6885,
      "Ġgray": 6886,
      "Ġdries": 6887,
      "ĠCarter": 6888,
      "Ġwiggly": 6889,
      "Haha": 6890,
      "ossible": 6891,
      "Ġwakes": 6892,
      "ĠBrown": 6893,
      "Ġblast": 6894,
      "Ġliterally": 6895,
      "Squ": 6896,
      "bal": 6897,
      "kn": 6898,
      "ĠWall": 6899,
      "urity": 6900,
      "Ġparties": 6901,
      "Ġshells": 6902,
      "Ġbabe": 6903,
      "Ġcandle": 6904,
      "Shhh": 6905,
      "Ġfurniture": 6906,
      "Kick": 6907,
      "Outside": 6908,
      "Ġlapt": 6909,
      "ompl": 6910,
      "ĠMars": 6911,
      "Ġsnap": 6912,
      "Stay": 6913,
      "Ġextreme": 6914,
      "ĠFinish": 6915,
      "Ġtournament": 6916,
      "Brrr": 6917,
      "Watch": 6918,
      "Ġmilitary": 6919,
      "ulary": 6920,
      "Ġexagger": 6921,
      "Ġengines": 6922,
      "Ġfilm": 6923,
      "zard": 6924,
      "ĠCon": 6925,
      "Ġscale": 6926,
      "Ġstumbled": 6927,
      "Ġunic": 6928,
      "izes": 6929,
      "nov": 6930,
      "Carry": 6931,
      "Ġcontroller": 6932,
      "Ġensure": 6933,
      "Cut": 6934,
      "Ġmig": 6935,
      "Ġmall": 6936,
      "Ġpian": 6937,
      "ato": 6938,
      "Ġpepper": 6939,
      "Ġbravery": 6940,
      "Ġstirring": 6941,
      "Ġgrandchild": 6942,
      "Ġindust": 6943,
      "Ġparticular": 6944,
      "Ġtablet": 6945,
      "Ġamb": 6946,
      "Ġexam": 6947,
      "Ġexist": 6948,
      "Ġfacing": 6949,
      "hoe": 6950,
      "Ġfurther": 6951,
      "Ġcushion": 6952,
      "Twinkle": 6953,
      "Ġdestroy": 6954,
      "Promise": 6955,
      "iar": 6956,
      "zes": 6957,
      "ĠSad": 6958,
      "Ġspins": 6959,
      "ĠGen": 6960,
      "Ġsurprises": 6961,
      "Ġmarine": 6962,
      "Ġoverhear": 6963,
      "Ġvocabulary": 6964,
      "pull": 6965,
      "Ġske": 6966,
      "Ġcher": 6967,
      "Ġden": 6968,
      "Ġham": 6969,
      "Ġrat": 6970,
      "ĠDrive": 6971,
      "epend": 6972,
      "ddle": 6973,
      "Ġcalls": 6974,
      "ĠAren": 6975,
      "Ġdried": 6976,
      "Ġrepair": 6977,
      "fying": 6978,
      "Ġlifesaver": 6979,
      "hm": 6980,
      "maker": 6981,
      "uing": 6982,
      "Ġnone": 6983,
      "Ġworms": 6984,
      "Ġworkers": 6985,
      "Ġvet": 6986,
      "Ġimpossible": 6987,
      "Ġsmo": 6988,
      "Ġleads": 6989,
      "boat": 6990,
      "Ġfires": 6991,
      "Ġkicks": 6992,
      "Ġconfidence": 6993,
      "Ġsource": 6994,
      "Ġlaptop": 6995,
      "ĠHand": 6996,
      "Ġoutline": 6997,
      "Ġclick": 6998,
      "mic": 6999,
      "llie": 7000,
      "Ġshook": 7001,
      "ĠPer": 7002,
      "Ġevenly": 7003,
      "Ġchick": 7004,
      "Ġlayers": 7005,
      "ees": 7006,
      "Ġtax": 7007,
      "Ġfought": 7008,
      "ights": 7009,
      "ctar": 7010,
      "aly": 7011,
      "amond": 7012,
      "Ġguid": 7013,
      "Ġbits": 7014,
      "Ġdetailed": 7015,
      "ĠAuntie": 7016,
      "Ġanaly": 7017,
      "Ġfirefighters": 7018,
      "Ġtucked": 7019,
      "hew": 7020,
      "Ġyarn": 7021,
      "atches": 7022,
      "cel": 7023,
      "Ġreluctantly": 7024,
      "Ġsharks": 7025,
      "Ġstopping": 7026,
      "Ġcrisp": 7027,
      "ĠJackson": 7028,
      "Ġcastles": 7029,
      "Ġsignificant": 7030,
      "thy": 7031,
      "Ġcaps": 7032,
      "Ġlighter": 7033,
      "Ġpitch": 7034,
      "ĠWhite": 7035,
      "Ġhorn": 7036,
      "ĠAm": 7037,
      "aunt": 7038,
      "ĠFire": 7039,
      "Ġattempts": 7040,
      "Ġdancer": 7041,
      "angar": 7042,
      "Ġroads": 7043,
      "Ġenchant": 7044,
      "Ġflavors": 7045,
      "Listen": 7046,
      "itize": 7047,
      "Ġfer": 7048,
      "arily": 7049,
      "ĠChoo": 7050,
      "Ġnectar": 7051,
      "Ġaltern": 7052,
      "ĠPop": 7053,
      "Ġplanes": 7054,
      "Ġappropriate": 7055,
      "Ġwrapped": 7056,
      "Ġdedication": 7057,
      "iant": 7058,
      "what": 7059,
      "Ġtit": 7060,
      "hange": 7061,
      "ĠMusic": 7062,
      "Ġsnakes": 7063,
      "ĠFlowers": 7064,
      "Ġflu": 7065,
      "Ġmethods": 7066,
      "carefully": 7067,
      "Ġfuss": 7068,
      "Back": 7069,
      "gins": 7070,
      "ckets": 7071,
      "ĠBest": 7072,
      "ĠNana": 7073,
      "elly": 7074,
      "ressive": 7075,
      "ĠSuperher": 7076,
      "Ġsatis": 7077,
      "Ġhonestly": 7078,
      "Ġnicer": 7079,
      "Ġwhistle": 7080,
      "Ġgal": 7081,
      "omy": 7082,
      "ediate": 7083,
      "Ġink": 7084,
      "ĠSoon": 7085,
      "Ġunderwater": 7086,
      "Ġfoundation": 7087,
      "ĠStart": 7088,
      "Ġloudly": 7089,
      "ĠShall": 7090,
      "Ġinvited": 7091,
      "Ġjudge": 7092,
      "ift": 7093,
      "Ġfed": 7094,
      "Ġinfect": 7095,
      "ĠMike": 7096,
      "amm": 7097,
      "Ġhandling": 7098,
      "Ġtrunk": 7099,
      "Ġproof": 7100,
      "Ġfully": 7101,
      "ĠStick": 7102,
      "Ġlegal": 7103,
      "iques": 7104,
      "ĠScience": 7105,
      "put": 7106,
      "sl": 7107,
      "ingo": 7108,
      "rams": 7109,
      "ceful": 7110,
      "Ġsailed": 7111,
      "Ġspilling": 7112,
      "Ġriddle": 7113,
      "ĠDucks": 7114,
      "Ġoccas": 7115,
      "ivers": 7116,
      "Ġtumb": 7117,
      "Ġtables": 7118,
      "Ġfirm": 7119,
      "ĠCount": 7120,
      "Ġprefer": 7121,
      "Ġcomfort": 7122,
      "Ġcheat": 7123,
      "Ġinstance": 7124,
      "Ġequal": 7125,
      "ĠCheck": 7126,
      "Ġsuccessfully": 7127,
      "Chase": 7128,
      "Mon": 7129,
      "Ġtummies": 7130,
      "inning": 7131,
      "Ġmen": 7132,
      "Ġcans": 7133,
      "Ġimage": 7134,
      "Ġlim": 7135,
      "Ġroast": 7136,
      "Ġreality": 7137,
      "Ġmesses": 7138,
      "Ġprotected": 7139,
      "Ġdigest": 7140,
      "Ġdigital": 7141,
      "Ġsparkle": 7142,
      "Ġinspiring": 7143,
      "Ġafterwards": 7144,
      "Ġmonths": 7145,
      "Ice": 7146,
      "Mr": 7147,
      "ius": 7148,
      "Ġ8": 7149,
      "Dada": 7150,
      "ĠBox": 7151,
      "Ġhighlight": 7152,
      "Ġload": 7153,
      "ĠWasn": 7154,
      "doors": 7155,
      "Ġrisks": 7156,
      "Ġimmediate": 7157,
      "Ġflexible": 7158,
      "Ġvictory": 7159,
      "Ġmajor": 7160,
      "ubs": 7161,
      "Ġpy": 7162,
      "Ġweeds": 7163,
      "Ġexpand": 7164,
      "Ġreprod": 7165,
      "Ġterrible": 7166,
      "Ġseconds": 7167,
      "Ġproduce": 7168,
      "Ġdealing": 7169,
      "Ġnavigate": 7170,
      "Ġenthusiasm": 7171,
      "En": 7172,
      "Ouch": 7173,
      "Whoosh": 7174,
      "mother": 7175,
      "wi": 7176,
      "Ġnib": 7177,
      "lephant": 7178,
      "ĠTrees": 7179,
      "Ġhosp": 7180,
      "Ġadap": 7181,
      "ucing": 7182,
      "Ġdisappoint": 7183,
      "Ġdemonstrate": 7184,
      "Skate": 7185,
      "bet": 7186,
      "Ġshirts": 7187,
      "itates": 7188,
      "ĠWorld": 7189,
      "Ġeh": 7190,
      "acket": 7191,
      "Ġspy": 7192,
      "elcome": 7193,
      "Ġoffering": 7194,
      "Ġminer": 7195,
      "Ġsystems": 7196,
      "Ġcovers": 7197,
      "Ġmemorable": 7198,
      "Ġmetaphor": 7199,
      "Ġseal": 7200,
      "ĠHoney": 7201,
      "rope": 7202,
      "Ġspelling": 7203,
      "Ġguest": 7204,
      "Ġtwink": 7205,
      "Ġforests": 7206,
      "Ġdeliver": 7207,
      "Ġhunting": 7208,
      "Ġdusty": 7209,
      "Ġhydrated": 7210,
      "Ġunicorn": 7211,
      "Ġguidance": 7212,
      "Hard": 7213,
      "eaves": 7214,
      "ching": 7215,
      "ĠHard": 7216,
      "ĠOuchie": 7217,
      "ĠHehe": 7218,
      "Ġtrend": 7219,
      "istent": 7220,
      "Ġhasn": 7221,
      "ĠWouldn": 7222,
      "Ġabsorb": 7223,
      "Pick": 7224,
      "field": 7225,
      "ogy": 7226,
      "ocul": 7227,
      "sive": 7228,
      "Ġtipt": 7229,
      "Ġcoast": 7230,
      "Ġexcept": 7231,
      "Ġarrange": 7232,
      "Ġmole": 7233,
      "Ġcreates": 7234,
      "Ġtests": 7235,
      "Ġnegative": 7236,
      "Ġsustainable": 7237,
      "cast": 7238,
      "ded": 7239,
      "Ġaqu": 7240,
      "Ġfertil": 7241,
      "Ġmow": 7242,
      "Ġdug": 7243,
      "ĠPirates": 7244,
      "pan": 7245,
      "ĠDump": 7246,
      "ractice": 7247,
      "ĠKiss": 7248,
      "ĠStuck": 7249,
      "Stars": 7250,
      "Ġcatches": 7251,
      "Ġtightly": 7252,
      "Ġvisual": 7253,
      "Ġregret": 7254,
      "Ġadvantage": 7255,
      "Ġcombine": 7256,
      "Ġsettled": 7257,
      "ĠIndeed": 7258,
      "Ġcompanies": 7259,
      "bling": 7260,
      "sis": 7261,
      "yal": 7262,
      "ĠBreak": 7263,
      "Ġthumb": 7264,
      "aky": 7265,
      "Ġswamp": 7266,
      "iment": 7267,
      "Ġprecise": 7268,
      "Ġdiseases": 7269,
      "ĠCheese": 7270,
      "Ġwatches": 7271,
      "Smiling": 7272,
      "attempts": 7273,
      "Ġdetermination": 7274,
      "anana": 7275,
      "ĠMoon": 7276,
      "Ġovercome": 7277,
      "Ġtopics": 7278,
      "Ġhealthier": 7279,
      "Ġcowboys": 7280,
      "Ġdiscussion": 7281,
      "helps": 7282,
      "Last": 7283,
      "Windy": 7284,
      "chie": 7285,
      "ĠBaby": 7286,
      "Ġvi": 7287,
      "Ġfaced": 7288,
      "Ġdiamond": 7289,
      "Ġcrust": 7290,
      "Ġchop": 7291,
      "Ġpackage": 7292,
      "Speaking": 7293,
      "Ġdetectives": 7294,
      "Throw": 7295,
      "Ġcolored": 7296,
      "Down": 7297,
      "oc": 7298,
      "Ġdolls": 7299,
      "few": 7300,
      "imon": 7301,
      "Ġunus": 7302,
      "Ġcontact": 7303,
      "Ġtrained": 7304,
      "Ġpanels": 7305,
      "Empty": 7306,
      "wise": 7307,
      "onic": 7308,
      "Ġdice": 7309,
      "Ġneedle": 7310,
      "Ġworn": 7311,
      "opus": 7312,
      "Ġsnuggled": 7313,
      "ĠFit": 7314,
      "Ġsets": 7315,
      "Ġsunf": 7316,
      "reek": 7317,
      "irect": 7318,
      "Ġfaraway": 7319,
      "Ġclowns": 7320,
      "Ġunsure": 7321,
      "ĠAdventure": 7322,
      "cuse": 7323,
      "Ġ\"*": 7324,
      "Ġrece": 7325,
      "ĠHowever": 7326,
      "Ġpride": 7327,
      "headed": 7328,
      "Ġgiraffes": 7329,
      "Ġoverwhelm": 7330,
      "Ġsturdy": 7331,
      "Ġpiano": 7332,
      "Man": 7333,
      "eze": 7334,
      "Ġrebuild": 7335,
      "Ġspices": 7336,
      "ĠDi": 7337,
      "ĠFrench": 7338,
      "Ġsoftware": 7339,
      "Ġpennies": 7340,
      "Ġbumps": 7341,
      "Ġsteer": 7342,
      "Ġcircuit": 7343,
      "Ġfestival": 7344,
      "hile": 7345,
      "hical": 7346,
      "ĠNeed": 7347,
      "Ġneither": 7348,
      "ĠMoo": 7349,
      "fere": 7350,
      "Ġgardener": 7351,
      "Ġanalogy": 7352,
      "Ġordinary": 7353,
      "Ġrehears": 7354,
      "Does": 7355,
      "Give": 7356,
      "Hes": 7357,
      "Ġce": 7358,
      "Ġcy": 7359,
      "Ġmim": 7360,
      "Ġlung": 7361,
      "ĠSky": 7362,
      "ĠHat": 7363,
      "Ġthor": 7364,
      "Ġkangar": 7365,
      "ĠMagic": 7366,
      "Ġchannel": 7367,
      "Ġdrill": 7368,
      "Ġdropping": 7369,
      "Bad": 7370,
      "Eww": 7371,
      "Laughs": 7372,
      "Make": 7373,
      "kick": 7374,
      "rig": 7375,
      "wood": 7376,
      "Ġtails": 7377,
      "Ġcable": 7378,
      "ashy": 7379,
      "iration": 7380,
      "ĠHeavy": 7381,
      "Ġremembering": 7382,
      "Ġacid": 7383,
      "Ġresearching": 7384,
      "Ġshadows": 7385,
      "Have": 7386,
      "Ġx": 7387,
      "Ġwolves": 7388,
      "ĠBoom": 7389,
      "lasses": 7390,
      "ĠPaper": 7391,
      "Ġdraft": 7392,
      "Ġstrings": 7393,
      "ĠLooks": 7394,
      "Ġtearing": 7395,
      "Ġcurfew": 7396,
      "Ġdefeat": 7397,
      "cent": 7398,
      "aying": 7399,
      "Ġirr": 7400,
      "cking": 7401,
      "Ġswung": 7402,
      "Ġcrown": 7403,
      "Ġhighest": 7404,
      "ĠDinosaurs": 7405,
      "Ġrewarding": 7406,
      "Awake": 7407,
      "Ġmagnetic": 7408,
      "makes": 7409,
      "erving": 7410,
      "Ġlat": 7411,
      "Ġgain": 7412,
      "ĠTouch": 7413,
      "asp": 7414,
      "Ġforms": 7415,
      "Ġplug": 7416,
      "acking": 7417,
      "essions": 7418,
      "ĠEgy": 7419,
      "ĠRec": 7420,
      "Ġarch": 7421,
      "Ġtruly": 7422,
      "Ġlean": 7423,
      "Ġchances": 7424,
      "struggles": 7425,
      "sniff": 7426,
      "Ġoctopus": 7427,
      "Ġslightly": 7428,
      "Anytime": 7429,
      "Fishy": 7430,
      "pre": 7431,
      "Ġsoak": 7432,
      "Ġdownload": 7433,
      "Ġunpl": 7434,
      "Ġstrongest": 7435,
      "Ġripe": 7436,
      "Ġrecycled": 7437,
      "Ġrusty": 7438,
      "Ġpolitical": 7439,
      "hol": 7440,
      "eats": 7441,
      "Ġoutfit": 7442,
      "Ġshakes": 7443,
      "ĠRace": 7444,
      "Ġarti": 7445,
      "Ġresolve": 7446,
      "Ġexcuse": 7447,
      "Ġcandles": 7448,
      "Ġfreeze": 7449,
      "Ġcollecting": 7450,
      "Ġsuperpowers": 7451,
      "Ġdescript": 7452,
      "Dump": 7453,
      "Thirsty": 7454,
      "aze": 7455,
      "Ġlend": 7456,
      "Ġplacing": 7457,
      "ĠDark": 7458,
      "mbling": 7459,
      "Ġflight": 7460,
      "Ġsunset": 7461,
      "Ġtoothp": 7462,
      "Ġrevolution": 7463,
      "Ġobserve": 7464,
      "Milk": 7465,
      "drop": 7466,
      "pushes": 7467,
      "Ġlap": 7468,
      "antic": 7469,
      "ateful": 7470,
      "ĠGl": 7471,
      "Ġeager": 7472,
      "ĠNoisy": 7473,
      "Ġarmy": 7474,
      "ĠDoesn": 7475,
      "Ġburning": 7476,
      "Ġcultural": 7477,
      "Ġjudges": 7478,
      "Ġpads": 7479,
      "Ġdetermined": 7480,
      "Ġofficial": 7481,
      "Ġsilent": 7482,
      "vious": 7483,
      "Ġtangled": 7484,
      "Ġtons": 7485,
      "Ġnu": 7486,
      "Ġstool": 7487,
      "irus": 7488,
      "Ġsaves": 7489,
      "Ġsnowy": 7490,
      "ĠCleaning": 7491,
      "Ġmarks": 7492,
      "Ġapron": 7493,
      "Ġburst": 7494,
      "Ġcritical": 7495,
      "Ġconstruction": 7496,
      "Ġbound": 7497,
      "Ġdu": 7498,
      "Ġrides": 7499,
      "ĠRub": 7500,
      "Ġmotiv": 7501,
      "Ġlaughter": 7502,
      "Ġzoomed": 7503,
      "Ġproducts": 7504,
      "Ġpaid": 7505,
      "Ġgall": 7506,
      "Ġgotten": 7507,
      "Ġadvent": 7508,
      "ĠFood": 7509,
      "Ġtrips": 7510,
      "Ġteams": 7511,
      "Ġcraz": 7512,
      "Ġcreated": 7513,
      "Ġtears": 7514,
      "Ġvibr": 7515,
      "Ġpresident": 7516,
      "Ġeffectively": 7517,
      "Ġcredit": 7518,
      "Orange": 7519,
      "Ġ$": 7520,
      "Ġdut": 7521,
      "lev": 7522,
      "ĠSl": 7523,
      "ĠCute": 7524,
      "Ġworst": 7525,
      "Ġbond": 7526,
      "Ġfoss": 7527,
      "Ġincrease": 7528,
      "Away": 7529,
      "Apples": 7530,
      "Cute": 7531,
      "Welcome": 7532,
      "eers": 7533,
      "Ġwedding": 7534,
      "ĠLife": 7535,
      "ept": 7536,
      "Ġcheered": 7537,
      "throws": 7538,
      "Ġpots": 7539,
      "Ġmedical": 7540,
      "Ġexpression": 7541,
      "Ġbelongs": 7542,
      "force": 7543,
      "ĠLightning": 7544,
      "Ġreligious": 7545,
      "Ġincludes": 7546,
      "Light": 7547,
      "bid": 7548,
      "ior": 7549,
      "whis": 7550,
      "ĠInt": 7551,
      "Ġdom": 7552,
      "ĠHouse": 7553,
      "aming": 7554,
      "Ġscrap": 7555,
      "Ġmisunder": 7556,
      "Ġconduct": 7557,
      "Ġlegendary": 7558,
      "Ġtraveled": 7559,
      "Ġwondering": 7560,
      "Ġdivide": 7561,
      "Awesome": 7562,
      "ĠFrogs": 7563,
      "Ġimaginations": 7564,
      "Ġpure": 7565,
      "Ġmeow": 7566,
      "ĠOff": 7567,
      "Ġvillager": 7568,
      "Ġchampions": 7569,
      "Ġlabel": 7570,
      "Ġrenewable": 7571,
      "Ġfrag": 7572,
      "Ġgod": 7573,
      "using": 7574,
      "Ġbravest": 7575,
      "ĠSweetheart": 7576,
      "?'\"": 7577,
      "respect": 7578,
      "\".": 7579,
      "onies": 7580,
      "Ġdie": 7581,
      "Ġsteep": 7582,
      "ĠChicken": 7583,
      "ĠRes": 7584,
      "Ġsmoot": 7585,
      "Ġglide": 7586,
      "Ġconcern": 7587,
      "Ġoverwhelmed": 7588,
      "Jacket": 7589,
      "ik": 7590,
      "alance": 7591,
      "urous": 7592,
      "Ġoutsm": 7593,
      "ĠGr": 7594,
      "Ġquad": 7595,
      "ĠScared": 7596,
      "Ġprioritize": 7597,
      "ĠPengu": 7598,
      "Ġgraphics": 7599,
      "Tired": 7600,
      "bee": 7601,
      "Ġwool": 7602,
      "eries": 7603,
      "Ġiron": 7604,
      "Ġumb": 7605,
      "rying": 7606,
      "oli": 7607,
      "forest": 7608,
      "Ġtraffic": 7609,
      "Ġarticle": 7610,
      "Ġriddles": 7611,
      "Ġupdate": 7612,
      "Ar": 7613,
      "wear": 7614,
      "cky": 7615,
      "ĠPractice": 7616,
      "Ġhappier": 7617,
      "Ġposters": 7618,
      "Ġcompar": 7619,
      "Ġelements": 7620,
      "Ġopportunities": 7621,
      "Ġunusual": 7622,
      "Gives": 7623,
      "cial": 7624,
      "owel": 7625,
      "isa": 7626,
      "Ġsnee": 7627,
      "Ġroles": 7628,
      "ache": 7629,
      "Ġhobby": 7630,
      "oculars": 7631,
      "uous": 7632,
      "vin": 7633,
      "tering": 7634,
      "agon": 7635,
      "Ġbackground": 7636,
      "Ġpartner": 7637,
      "Ġhatch": 7638,
      "Ġlanding": 7639,
      "Ġtunnel": 7640,
      "eria": 7641,
      "Ġsunb": 7642,
      "Ġboyfriend": 7643,
      "Ġshiver": 7644,
      "Ġtechniques": 7645,
      "Ġilleg": 7646,
      "thinks": 7647,
      "pretends": 7648,
      "Ġrecognize": 7649,
      "Ġcrystal": 7650,
      "Ġthrilling": 7651,
      "Ġexplanation": 7652,
      "Ġplaydough": 7653,
      "Bite": 7654,
      "NA": 7655,
      "Ride": 7656,
      "sister": 7657,
      "Ġwrist": 7658,
      "Ġpou": 7659,
      "lla": 7660,
      "seek": 7661,
      "Ġrul": 7662,
      "ulations": 7663,
      "ĠPress": 7664,
      "ĠReal": 7665,
      "Ġfriendship": 7666,
      "ths": 7667,
      "Ġdisp": 7668,
      "Ġenjoyed": 7669,
      "ĠBees": 7670,
      "Ġadventurers": 7671,
      "Ġvariety": 7672,
      "Ġiniti": 7673,
      "Ġefficient": 7674,
      "Ġemergency": 7675,
      "sen": 7676,
      "Ġcro": 7677,
      "inger": 7678,
      "uted": 7679,
      "ĠTalk": 7680,
      "Ġthous": 7681,
      "Ġspicy": 7682,
      "Ġsymp": 7683,
      "Ġbats": 7684,
      "Ġvillain": 7685,
      "Ġrobots": 7686,
      "Ġathlet": 7687,
      "Ġtoothpaste": 7688,
      "eves": 7689,
      "hot": 7690,
      "tered": 7691,
      "Ġav": 7692,
      "itate": 7693,
      "starting": 7694,
      "ĠThirsty": 7695,
      "ĠCr": 7696,
      "Ġblink": 7697,
      "Ġmuscle": 7698,
      "Ġdelight": 7699,
      "Ġcapable": 7700,
      "Ġpaths": 7701,
      "Ġmethod": 7702,
      "Sick": 7703,
      "Zoom": 7704,
      "lead": 7705,
      "you": 7706,
      "itation": 7707,
      "happy": 7708,
      "Ġyelling": 7709,
      "Ġpoem": 7710,
      "Ġdisrupt": 7711,
      "Ġreliable": 7712,
      "Ġserve": 7713,
      "Ġrolls": 7714,
      "angles": 7715,
      "Ġinvolves": 7716,
      "Ġpaintings": 7717,
      "Ġcrossed": 7718,
      "Ġyumm": 7719,
      "Ġcrowded": 7720,
      "Ġclearer": 7721,
      "Ġprincipal": 7722,
      "Ġpantry": 7723,
      "presses": 7724,
      "Gently": 7725,
      "Hurry": 7726,
      "Tell": 7727,
      "doo": 7728,
      "Ġgiggle": 7729,
      "Ġstorms": 7730,
      "Ġtramp": 7731,
      "Ġgenes": 7732,
      "bby": 7733,
      "Ġwiped": 7734,
      "Think": 7735,
      "ĠJacket": 7736,
      "Black": 7737,
      "Ġfolks": 7738,
      "Ġmirror": 7739,
      "des": 7740,
      "Ġ7": 7741,
      "Ġouch": 7742,
      "ley": 7743,
      "ibly": 7744,
      "Ġroyal": 7745,
      "Ġtriangle": 7746,
      "Ġreactions": 7747,
      "Ġindepend": 7748,
      "Ġchampion": 7749,
      "Ġvibe": 7750,
      "Ġexerc": 7751,
      "Ġninja": 7752,
      "Woof": 7753,
      "vere": 7754,
      "ĠWoof": 7755,
      "ĠCivil": 7756,
      "Ġdonuts": 7757,
      "urp": 7758,
      "Ġages": 7759,
      "ĠGoodbye": 7760,
      "Ġacts": 7761,
      "Ġwond": 7762,
      "awk": 7763,
      "Ġcupboard": 7764,
      "Ġroller": 7765,
      "Ġowls": 7766,
      "Ġbreathing": 7767,
      "Ġvitamin": 7768,
      "Ġsymbols": 7769,
      "ĠPuppy": 7770,
      "Ġhospital": 7771,
      "onsider": 7772,
      "Ġslower": 7773,
      "Ġcovering": 7774,
      "Ġimprovement": 7775,
      "Hugs": 7776,
      "pour": 7777,
      "iders": 7778,
      "ibbit": 7779,
      "ĠLisa": 7780,
      "Ġbinoculars": 7781,
      "Ducks": 7782,
      "Ind": 7783,
      "Tower": 7784,
      "ald": 7785,
      "egr": 7786,
      "ĠTeenager": 7787,
      "arium": 7788,
      "rier": 7789,
      "Ġknot": 7790,
      "Ġbubb": 7791,
      "Ġbreeze": 7792,
      "Ġleap": 7793,
      "Ġgardens": 7794,
      "logical": 7795,
      "ĠSaturn": 7796,
      "Ġgrip": 7797,
      "Ġvolunteer": 7798,
      "bag": 7799,
      "band": 7800,
      "inty": 7801,
      "uting": 7802,
      "ĠBeep": 7803,
      "verse": 7804,
      "Ġmagaz": 7805,
      "Ġowies": 7806,
      "Ġbelonged": 7807,
      "ograph": 7808,
      "Ġembarrassed": 7809,
      "Ġbenefits": 7810,
      "Ġceiling": 7811,
      "Food": 7812,
      "Ugh": 7813,
      "af": 7814,
      "Ġ-": 7815,
      "Ġ6": 7816,
      "Ġast": 7817,
      "Ġlens": 7818,
      "Ġdent": 7819,
      "ĠSk": 7820,
      "ĠEllie": 7821,
      "Ġcares": 7822,
      "Ġhadn": 7823,
      "ereal": 7824,
      "Ġthankful": 7825,
      "coat": 7826,
      "Ġcharm": 7827,
      "Ġescap": 7828,
      "Ġcurtains": 7829,
      "Pat": 7830,
      "crow": 7831,
      "fight": 7832,
      "meal": 7833,
      "Ġtender": 7834,
      "ĠSu": 7835,
      "ĠBring": 7836,
      "Ġknees": 7837,
      "ĠPret": 7838,
      "ĠPizza": 7839,
      "Ġraw": 7840,
      "Butter": 7841,
      "Ġcuts": 7842,
      "Ġrockets": 7843,
      "Ġinvolve": 7844,
      "Ġrefer": 7845,
      "Ġreaching": 7846,
      "Ġvarious": 7847,
      "Ġpowder": 7848,
      "Yawns": 7849,
      "apped": 7850,
      "Ġleng": 7851,
      "Ġrunny": 7852,
      "ĠBat": 7853,
      "Ġcareer": 7854,
      "place": 7855,
      "Ġsquished": 7856,
      "Ġwarmth": 7857,
      "Ġstarving": 7858,
      "Ġpretends": 7859,
      "Ġartwork": 7860,
      "Ġspoonful": 7861,
      "udge": 7862,
      "ĠJenny": 7863,
      "Ġinstrument": 7864,
      "Ġtransport": 7865,
      "Ġcomputers": 7866,
      "Cookies": 7867,
      "Ġglowing": 7868,
      "weight": 7869,
      "Ġawareness": 7870,
      "Ġdolphin": 7871,
      "Ġlecture": 7872,
      "ĠMark": 7873,
      "Ġoutl": 7874,
      "Ġsap": 7875,
      "Ġpopped": 7876,
      "umper": 7877,
      "Ġunn": 7878,
      "Ġsqueak": 7879,
      "Ġdisrespect": 7880,
      "Ġnaps": 7881,
      "Ġtickled": 7882,
      "feteria": 7883,
      "racy": 7884,
      "Ġinformed": 7885,
      "Ġgears": 7886,
      "Ġadmire": 7887,
      "Almost": 7888,
      "Time": 7889,
      "eor": 7890,
      "itantly": 7891,
      "hable": 7892,
      "aylor": 7893,
      "Ġnarrow": 7894,
      "Ġoink": 7895,
      "Ġbegan": 7896,
      "Ġsomehow": 7897,
      "usive": 7898,
      "apor": 7899,
      "ĠPeekaboo": 7900,
      "Ġbrushes": 7901,
      "Ġvag": 7902,
      "redict": 7903,
      "Ġheavier": 7904,
      "Ġbuckle": 7905,
      "Ġdepending": 7906,
      "Smile": 7907,
      "oxide": 7908,
      "Ġtravels": 7909,
      "Ġrequires": 7910,
      "Ġcafeteria": 7911,
      "Ġcomparison": 7912,
      "kward": 7913,
      "table": 7914,
      "Ġbesides": 7915,
      "Ġupstairs": 7916,
      "begins": 7917,
      "Ġscript": 7918,
      "Ġgrateful": 7919,
      "ĠStars": 7920,
      "Ġsignals": 7921,
      "Ġinterview": 7922,
      "walks": 7923,
      "Ġexpected": 7924,
      "Ġverb": 7925,
      "Ġgroceries": 7926,
      "Ġuniform": 7927,
      "Ġadventurous": 7928,
      "Ġbaa": 7929,
      "ede": 7930,
      "ĠComp": 7931,
      "iculous": 7932,
      "Ġspi": 7933,
      "Ġroses": 7934,
      "Ġfluff": 7935,
      "Ġglug": 7936,
      "Ġdisco": 7937,
      "ĠUsing": 7938,
      "Ġheading": 7939,
      "Ġdriveway": 7940,
      "Ġwarning": 7941,
      "Ġalligators": 7942,
      "Ġfirefighter": 7943,
      "Ġvillagers": 7944,
      "Ġumbre": 7945,
      "bows": 7946,
      "squ": 7947,
      "oul": 7948,
      "ĠSunny": 7949,
      "artment": 7950,
      "amed": 7951,
      "Ġhomemade": 7952,
      "Ġapps": 7953,
      "Ġfallen": 7954,
      "Ġrise": 7955,
      "Ġfactors": 7956,
      "ification": 7957,
      "Ġcosts": 7958,
      "Ġopinion": 7959,
      "ĠChocolate": 7960,
      "iation": 7961,
      "ology": 7962,
      "woman": 7963,
      "hent": 7964,
      "Ġcong": 7965,
      "Ġmate": 7966,
      "Ġsmarter": 7967,
      "Ġskater": 7968,
      "Ġdisease": 7969,
      "Ġrested": 7970,
      "Ġlocked": 7971,
      "Ġconnections": 7972,
      "Ġtarget": 7973,
      "ĠPeterson": 7974,
      "Brush": 7975,
      "Pop": 7976,
      "case": 7977,
      "Ġmulti": 7978,
      "ases": 7979,
      "ris": 7980,
      "los": 7981,
      "ĠJones": 7982,
      "Ġreset": 7983,
      "awa": 7984,
      "Ġprotects": 7985,
      "Ġsmelled": 7986,
      "Ġsoldier": 7987,
      "Ġnecessarily": 7988,
      "Dinner": 7989,
      "Ġnarrative": 7990,
      "Ġoverreacting": 7991,
      "year": 7992,
      "Ġwitch": 7993,
      "Ġmead": 7994,
      "rob": 7995,
      "Ġshin": 7996,
      "loses": 7997,
      "Ġscream": 7998,
      "Ġdrain": 7999,
      "Ġvirus": 8000,
      "hole": 8001,
      "Ġpoke": 8002,
      "Ġrespond": 8003,
      "Ġtighten": 8004,
      "Ġdances": 8005,
      "Ġexcitedly": 8006,
      "Ġtraditions": 8007,
      "attered": 8008,
      "Ġtrophy": 8009,
      "Ad": 8010,
      "Whe": 8011,
      "White": 8012,
      "bone": 8013,
      "Ġmental": 8014,
      "Ġdun": 8015,
      "atives": 8016,
      "unate": 8017,
      "ĠGarden": 8018,
      "Ġpretti": 8019,
      "eless": 8020,
      "Ġmane": 8021,
      "Ġwrink": 8022,
      "Ġtraps": 8023,
      "Ġawkward": 8024,
      "Ġmouths": 8025,
      "Ġhyp": 8026,
      "bre": 8027,
      "weed": 8028,
      "Ġwow": 8029,
      "Ġsessions": 8030,
      "itches": 8031,
      "Ġbrand": 8032,
      "Ġgirls": 8033,
      "cker": 8034,
      "ĠWindy": 8035,
      "Ġplain": 8036,
      "Ġsofter": 8037,
      "Ġchee": 8038,
      "Ġwipes": 8039,
      "Bump": 8040,
      "Ġwis": 8041,
      "ĠAir": 8042,
      "ĠLater": 8043,
      "ĠOut": 8044,
      "isms": 8045,
      "icial": 8046,
      "ĠDNA": 8047,
      "Ġeaten": 8048,
      "Ġgrant": 8049,
      "Ġsupply": 8050,
      "Ġsolved": 8051,
      "Ġaccompl": 8052,
      "Ġfootpr": 8053,
      "Ġcollage": 8054,
      "Ġaffecting": 8055,
      "Ġbeef": 8056,
      "believe": 8057,
      "Ġconquer": 8058,
      "Ġfragile": 8059,
      "Tree": 8060,
      "Ġtact": 8061,
      "Ġaer": 8062,
      "orter": 8063,
      "eness": 8064,
      "Ġswap": 8065,
      "esty": 8066,
      "Ġsnug": 8067,
      "Ġenters": 8068,
      "oline": 8069,
      "Ġrainy": 8070,
      "Ġfarmers": 8071,
      "ajama": 8072,
      "Ġrepresents": 8073,
      "Ġconstell": 8074,
      "Ġwomen": 8075,
      "len": 8076,
      "term": 8077,
      "Ġsoggy": 8078,
      "Ġdonate": 8079,
      "Ġshock": 8080,
      "Ġlighting": 8081,
      "ĠShadow": 8082,
      "ĠBuy": 8083,
      "Ġfreezing": 8084,
      "Ġfreezer": 8085,
      "Ġaspects": 8086,
      "Ġindividual": 8087,
      "Ġlatest": 8088,
      "Ġwoman": 8089,
      "Ġcage": 8090,
      "Ġcaut": 8091,
      "Ġlit": 8092,
      "ĠWrite": 8093,
      "ĠCake": 8094,
      "Ġknitting": 8095,
      "Ġwhose": 8096,
      "Ġdeciding": 8097,
      "Ġsnows": 8098,
      "ĠCooking": 8099,
      "Ġignoring": 8100,
      "Ġspeaker": 8101,
      "Ġpinch": 8102,
      "Ġelectronics": 8103,
      "Cup": 8104,
      "Cover": 8105,
      "Ġera": 8106,
      "hell": 8107,
      "Ġfract": 8108,
      "Ġfather": 8109,
      "ĠTurns": 8110,
      "ashes": 8111,
      "Ġropes": 8112,
      "ĠEmma": 8113,
      "ĠSoccer": 8114,
      "Ġunderstood": 8115,
      "Ġstruggle": 8116,
      "Ġresil": 8117,
      "Ġgrabs": 8118,
      "pology": 8119,
      "ugging": 8120,
      "Ġpolar": 8121,
      "Ġcouncil": 8122,
      "Everyone": 8123,
      "Ġlimits": 8124,
      "Ġmolec": 8125,
      "Ġpoured": 8126,
      "Blows": 8127,
      "Moo": 8128,
      "Peas": 8129,
      "Soup": 8130,
      "dling": 8131,
      "free": 8132,
      "lete": 8133,
      "ratic": 8134,
      "tail": 8135,
      "inated": 8136,
      "Ġsch": 8137,
      "Ġfart": 8138,
      "onnect": 8139,
      "ĠBad": 8140,
      "ĠCoke": 8141,
      "ĠCandy": 8142,
      "Ġsweat": 8143,
      "ĠEu": 8144,
      "Ġagg": 8145,
      "Ġapplic": 8146,
      "upiter": 8147,
      "Ġexplained": 8148,
      "Ġrelate": 8149,
      "Ġprotest": 8150,
      "Ġobserv": 8151,
      "etchup": 8152,
      "Ġstacking": 8153,
      "Ġsensitive": 8154,
      "Ġfeatures": 8155,
      "Ġoutsmart": 8156,
      "Rain": 8157,
      "Ġsan": 8158,
      "Ġcw": 8159,
      "ĠII": 8160,
      "Ġfountain": 8161,
      "ĠAcc": 8162,
      "Ġshy": 8163,
      "Ġsails": 8164,
      "ĠJupiter": 8165,
      "Ġzipped": 8166,
      "ĠAwake": 8167,
      "Ġdepend": 8168,
      "Ġtransform": 8169,
      "Ġsentences": 8170,
      "Spoon": 8171,
      "Ġparticles": 8172,
      "Ġdevelopment": 8173,
      "Ġbouncy": 8174,
      "Ġdisagreement": 8175,
      "Ġhunters": 8176,
      "Ġrelief": 8177,
      "Ġlungs": 8178,
      "green": 8179,
      "giggling": 8180,
      "Ġet": 8181,
      "Ġbaker": 8182,
      "Ġgn": 8183,
      "ĠSick": 8184,
      "ĠMath": 8185,
      "ĠSpace": 8186,
      "ugged": 8187,
      "Ġlazy": 8188,
      "Ġgenerations": 8189,
      "Ġbothering": 8190,
      "lin": 8191,
      "ern": 8192,
      "Ġdamp": 8193,
      "Ġodd": 8194,
      "ĠWon": 8195,
      "âĢĿ": 8196,
      "Ġmold": 8197,
      "Ġraind": 8198,
      "pense": 8199,
      "Ġsyn": 8200,
      "ausing": 8201,
      "Ġdirections": 8202,
      "Ġoppon": 8203,
      "Ġmysteries": 8204,
      "writing": 8205,
      "Ġmasterpiece": 8206,
      "Ġdolphins": 8207,
      "ĠDragons": 8208,
      "Ġwebsite": 8209,
      "Ġthorough": 8210,
      "Indeed": 8211,
      "Fr": 8212,
      "Turns": 8213,
      "uation": 8214,
      "watch": 8215,
      "Ġcash": 8216,
      "Ġgiggling": 8217,
      "ĠTurtle": 8218,
      "ĠWind": 8219,
      ".\"\\": 8220,
      "eee": 8221,
      "Ġswallow": 8222,
      "Ġsever": 8223,
      "Ġpasses": 8224,
      "Ġpumpkins": 8225,
      "Ġtwisty": 8226,
      "Ġfears": 8227,
      "eys": 8228,
      "iently": 8229,
      "Ġwobble": 8230,
      "Ġcities": 8231,
      "otion": 8232,
      "Ġbent": 8233,
      "Ġforces": 8234,
      "Ġplus": 8235,
      "ĠLots": 8236,
      "Ġuncover": 8237,
      "Ġcooks": 8238,
      "Ġnights": 8239,
      "Ġrecover": 8240,
      "Ġrepeat": 8241,
      "Ġknocks": 8242,
      "Ġtoaster": 8243,
      "Ġpeek": 8244,
      "Ġsorting": 8245,
      "Ġdepth": 8246,
      "Ġsewing": 8247,
      "Ġsuperpower": 8248,
      "Ġthird": 8249,
      "Under": 8250,
      "chi": 8251,
      "solving": 8252,
      "tw": 8253,
      "Ġmiles": 8254,
      "orable": 8255,
      "addle": 8256,
      "ĠBoo": 8257,
      "ĠEm": 8258,
      "Ġbeds": 8259,
      "Ġswimsuit": 8260,
      "ĠâĢľ": 8261,
      "Ġsprinkles": 8262,
      "Ġtwisted": 8263,
      "Ġrubbing": 8264,
      "Ġperspectives": 8265,
      "Ġrotten": 8266,
      "Ġwagon": 8267,
      "Ġclumsily": 8268,
      "Ġinitiative": 8269,
      "Ġest": 8270,
      "Ġyaw": 8271,
      "Ġallerg": 8272,
      "oph": 8273,
      "Ġadop": 8274,
      "Ġpockets": 8275,
      "naw": 8276,
      "Ġdeck": 8277,
      "ĠNothing": 8278,
      "Star": 8279,
      "Ġfeedback": 8280,
      "Ġdistractions": 8281,
      "Ġnotebook": 8282,
      "Finish": 8283,
      "ĠEurope": 8284,
      "Rex": 8285,
      "ba": 8286,
      "sec": 8287,
      "ĠFlo": 8288,
      "Ġcheap": 8289,
      "Ġchir": 8290,
      "Ġwears": 8291,
      "Ġlightly": 8292,
      "Ġdreamland": 8293,
      "Ġsecurity": 8294,
      "ocks": 8295,
      "Ġfilling": 8296,
      "Ġaffected": 8297,
      "chable": 8298,
      "Ġguarded": 8299,
      "levant": 8300,
      "paper": 8301,
      "Ġven": 8302,
      "Ġmoo": 8303,
      "Ġgat": 8304,
      "ĠNever": 8305,
      "Ġhappiness": 8306,
      "Ġvast": 8307,
      "ĠJoe": 8308,
      "Ġherbs": 8309,
      "Ġadvanced": 8310,
      "osynt": 8311,
      "Ġscrews": 8312,
      "Ġmayor": 8313,
      "Ġeducational": 8314,
      "Ġspoil": 8315,
      "Little": 8316,
      "Rel": 8317,
      "gentle": 8318,
      "rl": 8319,
      "Ġbars": 8320,
      "ording": 8321,
      "ette": 8322,
      "Ġrushing": 8323,
      "quack": 8324,
      "Ġawful": 8325,
      "Ġlever": 8326,
      "Ġforgive": 8327,
      "Ġmeasuring": 8328,
      "Ġtempor": 8329,
      "Ġkangaroo": 8330,
      "De": 8331,
      "Mad": 8332,
      "Turn": 8333,
      "atmeal": 8334,
      "ency": 8335,
      "race": 8336,
      "ĠHear": 8337,
      "Ġspect": 8338,
      "Ġtraits": 8339,
      "Ġsoftest": 8340,
      "Ġproperties": 8341,
      "Ġformula": 8342,
      "ĠCozy": 8343,
      "Ġliterature": 8344,
      "Ġcrispy": 8345,
      "Ġtitle": 8346,
      "Ġgalax": 8347,
      "bugs": 8348,
      "cious": 8349,
      "grandpa": 8350,
      "hearing": 8351,
      "Ġlack": 8352,
      "etah": 8353,
      "Ġnana": 8354,
      "Ġhearts": 8355,
      "Ġdoggies": 8356,
      "Ġgogg": 8357,
      "Ġmelo": 8358,
      "gery": 8359,
      "Ġgoods": 8360,
      "ecess": 8361,
      "Ġbrighter": 8362,
      "Ġdial": 8363,
      "Ġleak": 8364,
      "Ġrunner": 8365,
      "Ġnightlight": 8366,
      "Ġteddybear": 8367,
      "Ġnearly": 8368,
      "fortunate": 8369,
      "Ġsparkled": 8370,
      "Ġjournal": 8371,
      "Ġangles": 8372,
      "Ġmagnifying": 8373,
      "Dude": 8374,
      "Fit": 8375,
      "Totally": 8376,
      "ghing": 8377,
      "long": 8378,
      "ode": 8379,
      "Ġtend": 8380,
      "step": 8381,
      "Ġindoor": 8382,
      "iddle": 8383,
      "Ġep": 8384,
      "Ġketchup": 8385,
      "astics": 8386,
      "ippers": 8387,
      "Ġskilled": 8388,
      "Ġchart": 8389,
      "ycles": 8390,
      "Ġzebras": 8391,
      "Ġavoiding": 8392,
      "Ġmeals": 8393,
      "Coat": 8394,
      "Ġfilter": 8395,
      "Ġfundra": 8396,
      "Ġfris": 8397,
      "Ġassistant": 8398,
      "Ġarcade": 8399,
      "known": 8400,
      "Choo": 8401,
      "cakes": 8402,
      "wich": 8403,
      "Ġ9": 8404,
      "igning": 8405,
      "Ġbelow": 8406,
      "Ġstitch": 8407,
      "?\"\\": 8408,
      "ctic": 8409,
      "ustle": 8410,
      "ĠClassmate": 8411,
      "urance": 8412,
      "Ġbrace": 8413,
      "Ġdesp": 8414,
      "Ġbalancing": 8415,
      "Ġartists": 8416,
      "Ġsailor": 8417,
      "Ġhabitats": 8418,
      "Ġunpredict": 8419,
      "Roll": 8420,
      "Put": 8421,
      "Party": 8422,
      "vie": 8423,
      "wet": 8424,
      "Ġtension": 8425,
      "ino": 8426,
      "Ġlink": 8427,
      "Ġgirlfriend": 8428,
      "ĠSince": 8429,
      "ĠWo": 8430,
      "isc": 8431,
      "Ġbackup": 8432,
      "Ġvivid": 8433,
      "Ġchees": 8434,
      "Ġimages": 8435,
      "cohol": 8436,
      "bern": 8437,
      "Ġstreets": 8438,
      "Ġstealing": 8439,
      "Ġagreement": 8440,
      "Ġsprout": 8441,
      "Ġsubjects": 8442,
      "Ġeconomy": 8443,
      "Ġopinions": 8444,
      "Ġconvinced": 8445,
      "osynthesis": 8446,
      "Brown": 8447,
      "Ch": 8448,
      "eolog": 8449,
      "rub": 8450,
      "Ġwasting": 8451,
      "Ġpep": 8452,
      "owwy": 8453,
      "Ġvot": 8454,
      "Ġboys": 8455,
      "Ġtrib": 8456,
      "Ġsuperv": 8457,
      "Ġenjoyable": 8458,
      "Ġrestaur": 8459,
      "Ġreput": 8460,
      "oopy": 8461,
      "Ġreasonable": 8462,
      "Ġtutoring": 8463,
      "Ġcrafts": 8464,
      "Ġscraps": 8465,
      "Ġberry": 8466,
      "Ġprivacy": 8467,
      "Ġmultiply": 8468,
      "Ġexhibit": 8469,
      "Ġexercises": 8470,
      "Race": 8471,
      "good": 8472,
      "late": 8473,
      "school": 8474,
      "arian": 8475,
      "ĠBug": 8476,
      "ĠLead": 8477,
      "ella": 8478,
      "ĠPiggy": 8479,
      "Ġgenius": 8480,
      "ailable": 8481,
      "Ġcommand": 8482,
      "Ġtickling": 8483,
      "Ġbrightest": 8484,
      "raph": 8485,
      "Ġpeeking": 8486,
      "Ġcelebration": 8487,
      "ĠExcuse": 8488,
      "they": 8489,
      "Ġdevice": 8490,
      "Ġidentify": 8491,
      "Ġpitcher": 8492,
      "Ġdaily": 8493,
      "ĠSuperheroes": 8494,
      "Ġnibble": 8495,
      "Ġquadratic": 8496,
      "hentic": 8497,
      "Ġgathered": 8498,
      "five": 8499,
      "rat": 8500,
      "Ġmimics": 8501,
      "rise": 8502,
      "Ġplot": 8503,
      "iser": 8504,
      "Ġhappiest": 8505,
      "ishment": 8506,
      "Ġsnapping": 8507,
      "Ġsneeze": 8508,
      "Ġintrig": 8509,
      "Ġdizzy": 8510,
      "plane": 8511,
      "ĠDidn": 8512,
      "Ġseven": 8513,
      "works": 8514,
      "Ġlunchbox": 8515,
      "Ġtickets": 8516,
      "Ġconservation": 8517,
      "Ġpacking": 8518,
      "Ġinspired": 8519,
      "Ġtoolbox": 8520,
      "ĠBoat": 8521,
      "Ġsurroundings": 8522,
      "Ġmembers": 8523,
      "Ġsculpture": 8524,
      "ĠAmerican": 8525,
      "Pe": 8526,
      "liness": 8527,
      "ero": 8528,
      "Ġmac": 8529,
      "orous": 8530,
      "Ġpests": 8531,
      "eaut": 8532,
      "lings": 8533,
      "Ġscoring": 8534,
      "Ġovernight": 8535,
      "Ġinstall": 8536,
      "shop": 8537,
      "rotect": 8538,
      "Ġsleepyhead": 8539,
      "Ġflags": 8540,
      "Ġtune": 8541,
      "Ġhalfway": 8542,
      "Ġinspiration": 8543,
      "Ġcontrolled": 8544,
      "ĠSnowball": 8545,
      "Ġdisappointed": 8546,
      "His": 8547,
      "Lunch": 8548,
      "Ġcough": 8549,
      "Ġdim": 8550,
      "ĠTaylor": 8551,
      "Ġsolo": 8552,
      "ĠOoh": 8553,
      "itect": 8554,
      "Ġprey": 8555,
      "Ġdistr": 8556,
      "Ġblades": 8557,
      "Ġdrying": 8558,
      "Strong": 8559,
      "Ġsidekick": 8560,
      "Ġminds": 8561,
      "ucumber": 8562,
      "rified": 8563,
      "Ġillegal": 8564,
      "Opens": 8565,
      "kicks": 8566,
      "rons": 8567,
      "then": 8568,
      "ux": 8569,
      "Ġther": 8570,
      "eating": 8571,
      "ara": 8572,
      "Ġworm": 8573,
      "Ġrose": 8574,
      "Ġzone": 8575,
      "Ġ19": 8576,
      "iggies": 8577,
      "eased": 8578,
      "Ġacade": 8579,
      "Ġsiblings": 8580,
      "Ġinterrupt": 8581,
      "Ġdrone": 8582,
      "Ġsubt": 8583,
      "Ġannoyed": 8584,
      "Ġnewspaper": 8585,
      "Pret": 8586,
      "gn": 8587,
      "top": 8588,
      "Ġson": 8589,
      "Ġmast": 8590,
      "Ġdrib": 8591,
      "Ġpra": 8592,
      "Ġjer": 8593,
      "alty": 8594,
      "Ġshines": 8595,
      "Ġasse": 8596,
      "Ġswords": 8597,
      "ĠRawr": 8598,
      "Ġredirect": 8599,
      "ĠRemind": 8600,
      "Ġfloats": 8601,
      "Ġfreaked": 8602,
      "Ġfootball": 8603,
      "Ġconsistent": 8604,
      "Ġsupporting": 8605,
      "ĠZe": 8606,
      "ĠShouldn": 8607,
      "thinking": 8608,
      "Ġribbit": 8609,
      "cet": 8610,
      "pop": 8611,
      "Ġyell": 8612,
      "Ġloos": 8613,
      "Ġheight": 8614,
      "Ġjunk": 8615,
      "Ġbund": 8616,
      "rings": 8617,
      "Ġfreak": 8618,
      "Ġprotection": 8619,
      "Ġcoral": 8620,
      "Ġfactory": 8621,
      "Ġengage": 8622,
      "Ġceremony": 8623,
      "char": 8624,
      "Ġridiculous": 8625,
      "Ġautom": 8626,
      "Ġsending": 8627,
      "Ġexplode": 8628,
      "Ġribbon": 8629,
      "True": 8630,
      "approaching": 8631,
      "Ġprotein": 8632,
      "ĠPenguins": 8633,
      "Ġweal": 8634,
      "Ġbon": 8635,
      "Ġtox": 8636,
      "atable": 8637,
      "Ġstew": 8638,
      "riving": 8639,
      "Ġoutcome": 8640,
      "Ġsamp": 8641,
      "inky": 8642,
      "icker": 8643,
      "Ġexact": 8644,
      "Ġdecides": 8645,
      "Stand": 8646,
      "Ġloss": 8647,
      "Ġevil": 8648,
      "Ġstructures": 8649,
      "Ġclumsy": 8650,
      "Ġsequence": 8651,
      "Ġpyram": 8652,
      "bound": 8653,
      "rance": 8654,
      "wog": 8655,
      "world": 8656,
      "Ġcucumber": 8657,
      "ester": 8658,
      "ased": 8659,
      "ĠIts": 8660,
      "rifying": 8661,
      "Ġsumm": 8662,
      "Ġcarries": 8663,
      "Ġboiling": 8664,
      "Ġblame": 8665,
      "Ġtrapped": 8666,
      "ĠGotcha": 8667,
      "Ġmusical": 8668,
      "Ġjoining": 8669,
      "Ġprecious": 8670,
      "Ġfrisbee": 8671,
      "Cake": 8672,
      "Cho": 8673,
      "Found": 8674,
      "zel": 8675,
      "Ġboot": 8676,
      "Ġfib": 8677,
      "Ġfal": 8678,
      "Ġlitter": 8679,
      "Ġhoo": 8680,
      "usty": 8681,
      "ĠCol": 8682,
      "Ġbrrr": 8683,
      "Ġcheetah": 8684,
      "Ġselect": 8685,
      "Ġzomb": 8686,
      "ception": 8687,
      "Ġmemorizing": 8688,
      "Ġprinter": 8689,
      "Sharing": 8690,
      "Ġtexture": 8691,
      "Ġencoura": 8692,
      "Ġtissues": 8693,
      "Ġsignificance": 8694,
      "Get": 8695,
      "Makes": 8696,
      "cest": 8697,
      "jumps": 8698,
      "owy": 8699,
      "Ġweigh": 8700,
      "Ġinnov": 8701,
      "Ġrate": 8702,
      "Ġorbit": 8703,
      "Ġeveryday": 8704,
      "mming": 8705,
      "Ġ12": 8706,
      "Ġmushy": 8707,
      "Ġseats": 8708,
      "Ġcurve": 8709,
      "Ġdiscussed": 8710,
      "Shiny": 8711,
      "Ġsubstances": 8712,
      "Ġartifact": 8713,
      "Ġruler": 8714,
      "Ġunnecess": 8715,
      "Ġcweam": 8716,
      "mons": 8717,
      "rum": 8718,
      "Ġsite": 8719,
      "Ġsouth": 8720,
      "stit": 8721,
      "ĠBus": 8722,
      "Ġunlike": 8723,
      "Ġdismiss": 8724,
      "Ġdrives": 8725,
      "Ġglobe": 8726,
      "ĠBooks": 8727,
      "Ġcolon": 8728,
      "Ġconvince": 8729,
      "Ġyummiest": 8730,
      "Ġcheeks": 8731,
      "Mouse": 8732,
      "Sky": 8733,
      "ĠX": 8734,
      "Ġwrench": 8735,
      "edy": 8736,
      "Ġdolly": 8737,
      "ĠBump": 8738,
      "ĠBalance": 8739,
      "Ġupside": 8740,
      "rolls": 8741,
      "ĠPM": 8742,
      "Ġguests": 8743,
      "Ġmoat": 8744,
      "Ġrooms": 8745,
      "Ġsnowfl": 8746,
      "Ġdeserve": 8747,
      "Ġrequire": 8748,
      "Ġcrystals": 8749,
      "ference": 8750,
      "Ġcraziest": 8751,
      "MI": 8752,
      "Some": 8753,
      "scrib": 8754,
      "Ġgem": 8755,
      "Ġhibern": 8756,
      "ained": 8757,
      "ĠElephant": 8758,
      "Ġsnail": 8759,
      "Ġboil": 8760,
      "Ġrude": 8761,
      "Ġbumpy": 8762,
      "Ġretri": 8763,
      "ĠCarrots": 8764,
      "Ġcalmly": 8765,
      "Inside": 8766,
      "Ġborrowed": 8767,
      "Ġ100": 8768,
      "ĠOwls": 8769,
      "Ġcalculate": 8770,
      "Ġgooey": 8771,
      "Ġsmoothie": 8772,
      "Ġdistrib": 8773,
      "oid": 8774,
      "rs": 8775,
      "ĠSund": 8776,
      "ĠBirthday": 8777,
      "Ġthrive": 8778,
      "ĠGu": 8779,
      "Ġqual": 8780,
      "Ġfailing": 8781,
      "ĠFrom": 8782,
      "ĠFred": 8783,
      "achie": 8784,
      "Ġchosen": 8785,
      "Ġcharity": 8786,
      "Ġpreparing": 8787,
      "ĠDino": 8788,
      "ĠSmile": 8789,
      "Animals": 8790,
      "Ġmask": 8791,
      "pulls": 8792,
      "Ġumbrella": 8793,
      "Dream": 8794,
      "Or": 8795,
      "Ra": 8796,
      "imber": 8797,
      "lot": 8798,
      "Ġtube": 8799,
      "Ġcrops": 8800,
      "ealing": 8801,
      "Ġnum": 8802,
      "stick": 8803,
      "ĠSoup": 8804,
      "Ġreass": 8805,
      "ĠBee": 8806,
      "ĠHands": 8807,
      "Ġcoaster": 8808,
      "ĠPanc": 8809,
      "Ġtwirl": 8810,
      "ccoli": 8811,
      "Ġ18": 8812,
      "Ġacrob": 8813,
      "Ġmoonlight": 8814,
      "ĠKeeping": 8815,
      "Ġtesting": 8816,
      "Ġcamps": 8817,
      "Ġformal": 8818,
      "Ġbarbe": 8819,
      "Ġexpecting": 8820,
      "Ġobvious": 8821,
      "Ġwisely": 8822,
      "Ġcrime": 8823,
      "Ġselfish": 8824,
      "ĠHomework": 8825,
      "Ġpleasure": 8826,
      "Ġcrawl": 8827,
      "eautiful": 8828,
      "lend": 8829,
      "Ġoatmeal": 8830,
      "essed": 8831,
      "Ġcleans": 8832,
      "ĠEmpty": 8833,
      "Ġfoam": 8834,
      "ĠStrong": 8835,
      "Ġantic": 8836,
      "Ġmarried": 8837,
      "Ġfrustration": 8838,
      "Ġgathering": 8839,
      "Ġregularly": 8840,
      "Ġeconomic": 8841,
      "tock": 8842,
      "Ġsen": 8843,
      "reet": 8844,
      "erie": 8845,
      "Ġcav": 8846,
      "ingu": 8847,
      "ĠAway": 8848,
      "Ġknack": 8849,
      "Ġknives": 8850,
      "ĠRoman": 8851,
      "Ġclar": 8852,
      "Ġclimber": 8853,
      "Ġvirt": 8854,
      "Ġshelves": 8855,
      "Ġpointy": 8856,
      "izations": 8857,
      "Ġappl": 8858,
      "ressed": 8859,
      "Places": 8860,
      "Ġbaths": 8861,
      "Ġsweets": 8862,
      "Ġmixture": 8863,
      "Ġshoel": 8864,
      "Ġincorp": 8865,
      "Ġtutorial": 8866,
      "Ġoverheard": 8867,
      "Ġofficer": 8868,
      "Ġpunct": 8869,
      "Ġpriorities": 8870,
      "Ġathlete": 8871,
      "Ġimmediately": 8872,
      "Ġcautious": 8873,
      "*\"": 8874,
      "DMI": 8875,
      "Silly": 8876,
      "ias": 8877,
      "Ġlas": 8878,
      "Ġdy": 8879,
      "ĠSound": 8880,
      "arc": 8881,
      "Ġstates": 8882,
      "Ġhost": 8883,
      "unky": 8884,
      "ĠCare": 8885,
      "Ġkings": 8886,
      "Ġsheets": 8887,
      "Ġstruggles": 8888,
      "Ġslim": 8889,
      "Ġhorror": 8890,
      "shaped": 8891,
      "Ġmoisture": 8892,
      "Ġarchitect": 8893,
      "Ġraindrops": 8894,
      "Ġunnecessary": 8895,
      "Pauses": 8896,
      "den": 8897,
      "Ġsilk": 8898,
      "hide": 8899,
      "Ġbid": 8900,
      "ĠTuna": 8901,
      "Ġhood": 8902,
      "ĠHDMI": 8903,
      "lpha": 8904,
      "Ġshore": 8905,
      "Ġcosm": 8906,
      "ĠPol": 8907,
      "Ġexcus": 8908,
      "Ġgreatest": 8909,
      "Ġdioxide": 8910,
      "Ġrail": 8911,
      "Ġslime": 8912,
      "Ġsem": 8913,
      "ĠKn": 8914,
      "Ġoceans": 8915,
      "ĠTweet": 8916,
      "Asleep": 8917,
      "Ġresistance": 8918,
      "Ġrumors": 8919,
      "Ġrelationship": 8920,
      "Five": 8921,
      "cies": 8922,
      "fied": 8923,
      "Ġwaking": 8924,
      "Ġcit": 8925,
      "Ġfu": 8926,
      "onest": 8927,
      "hate": 8928,
      "eding": 8929,
      "Ġicky": 8930,
      "sell": 8931,
      "ĠMind": 8932,
      "Ġspare": 8933,
      "Ġscoo": 8934,
      "Ġintell": 8935,
      "Ġunderground": 8936,
      "Ġfiction": 8937,
      "istics": 8938,
      "Ġmanual": 8939,
      "Ġsquee": 8940,
      "Ġrainforest": 8941,
      "Ġforgetting": 8942,
      "Ġsimpl": 8943,
      "Ġgases": 8944,
      "Ġerror": 8945,
      "Ġvacation": 8946,
      "Ġbaked": 8947,
      "Ġgenerous": 8948,
      "Ġvolunteers": 8949,
      "Ġoccasion": 8950,
      "Ġviol": 8951,
      "Max": 8952,
      "Nah": 8953,
      "drops": 8954,
      "fi": 8955,
      "gent": 8956,
      "cknow": 8957,
      "ĠBr": 8958,
      "Ġschools": 8959,
      "ĠKing": 8960,
      "Ġweekends": 8961,
      "urtles": 8962,
      "Ġtoug": 8963,
      "Ġconcerns": 8964,
      "ĠSmart": 8965,
      "Ġtumble": 8966,
      "ĠReminds": 8967,
      "Drive": 8968,
      "House": 8969,
      "arch": 8970,
      "unks": 8971,
      "ĠCat": 8972,
      "Ġsucks": 8973,
      "ĠEnd": 8974,
      "Ġunderneath": 8975,
      "Ġsmoo": 8976,
      "Ġkites": 8977,
      "Ġgenetic": 8978,
      "Ġboost": 8979,
      "Ġvisiting": 8980,
      "Ġwarri": 8981,
      "Ġmischie": 8982,
      "Ġwaddle": 8983,
      "Ġpreserve": 8984,
      "Boat": 8985,
      "Cow": 8986,
      "rors": 8987,
      "ship": 8988,
      "Ġoo": 8989,
      "Ġwiggles": 8990,
      "Ġlicked": 8991,
      "Ġrelevant": 8992,
      "ĠBite": 8993,
      "ĠBrush": 8994,
      "ĠBingo": 8995,
      "ĠRu": 8996,
      "âĢ¦": 8997,
      "hyd": 8998,
      "Ġdiary": 8999,
      "olds": 9000,
      "Ġlongest": 9001,
      "Ġclosing": 9002,
      "Ġwinner": 9003,
      "Ġpotion": 9004,
      "Ġantlers": 9005,
      "Ġmelting": 9006,
      "Ġsprints": 9007,
      "Ġgeneration": 9008,
      "Ġcritic": 9009,
      "mester": 9010,
      "Ġrestaurant": 9011,
      "Touches": 9012,
      "tr": 9013,
      "Ġlaughs": 9014,
      "Ġgap": 9015,
      "arf": 9016,
      "Ġgobble": 9017,
      "ĠMorning": 9018,
      "ĠDe": 9019,
      "Ġsubs": 9020,
      "ĠRip": 9021,
      "Ġstunt": 9022,
      "Ġlifting": 9023,
      "Ġcorners": 9024,
      "Ġdefensive": 9025,
      "ĠSparkle": 9026,
      "Ġviews": 9027,
      "Ġabsolutely": 9028,
      "Ġtraveling": 9029,
      "Birds": 9030,
      "Ġincluded": 9031,
      "Ġeruption": 9032,
      "Ġanalyze": 9033,
      "Peekaboo": 9034,
      "Work": 9035,
      "nigh": 9036,
      "via": 9037,
      "hist": 9038,
      "ench": 9039,
      "abe": 9040,
      "Ġeight": 9041,
      "loc": 9042,
      "Ġcluck": 9043,
      "Ġpoison": 9044,
      "Ġuncl": 9045,
      "Ġbrains": 9046,
      "ĠThree": 9047,
      "Ġsmiley": 9048,
      "Ġhaircut": 9049,
      "Ġterrit": 9050,
      "Ġmelts": 9051,
      "Ġentrance": 9052,
      "Ġsociet": 9053,
      "Ġelectrical": 9054,
      "Ġauthentic": 9055,
      "Ġunderest": 9056,
      "Ġbossy": 9057,
      "Ġvegetable": 9058,
      "Ġguarding": 9059,
      "minute": 9060,
      "Ġmimic": 9061,
      "Ġunpredictable": 9062,
      "cock": 9063,
      "great": 9064,
      "gull": 9065,
      "erce": 9066,
      "Ġrom": 9067,
      "Ġplaylist": 9068,
      "atell": 9069,
      "ĠMoose": 9070,
      "hings": 9071,
      "Ġscent": 9072,
      "Ġsneaking": 9073,
      "Ġlearner": 9074,
      "Ġcloses": 9075,
      "anship": 9076,
      "emies": 9077,
      "Ġstores": 9078,
      "Ġvision": 9079,
      "Ġvalues": 9080,
      "Ġkittens": 9081,
      "Ġsalty": 9082,
      "cientists": 9083,
      "Ġshift": 9084,
      "Ġcooperation": 9085,
      "Ġweapon": 9086,
      "ĠPerhaps": 9087,
      "Ġchampionship": 9088,
      "Ġcampsite": 9089,
      "Feed": 9090,
      "Naughty": 9091,
      "coon": 9092,
      "happ": 9093,
      "Ġindoors": 9094,
      "ĠYuck": 9095,
      "ĠApp": 9096,
      "Ġisol": 9097,
      "Ġabilities": 9098,
      "eeling": 9099,
      "Ġecho": 9100,
      "ĠCover": 9101,
      "rypt": 9102,
      "ĠMia": 9103,
      "Ġalign": 9104,
      "Ġintegr": 9105,
      "Ġcomics": 9106,
      "ĠJens": 9107,
      "Ġenemies": 9108,
      "ealous": 9109,
      "Ġfinishes": 9110,
      "Ġlandsc": 9111,
      "Ġblankie": 9112,
      "Reaches": 9113,
      "Ġharmless": 9114,
      "Ġsprint": 9115,
      "Ġnests": 9116,
      "Ġdistracting": 9117,
      "Ġmatches": 9118,
      "Ġshoulders": 9119,
      "Ġmagnets": 9120,
      "minded": 9121,
      "ĠJensen": 9122,
      "even": 9123,
      "pat": 9124,
      "ĠImp": 9125,
      "Ġdense": 9126,
      "stalk": 9127,
      "Ġrou": 9128,
      "Ġneeding": 9129,
      "Ġpointing": 9130,
      "Ġrainbows": 9131,
      "ĠStir": 9132,
      "ĠStill": 9133,
      "Ġattached": 9134,
      "Ġbelieving": 9135,
      "Ġprotective": 9136,
      "Ġconnecting": 9137,
      "Ġdumped": 9138,
      "Ġroute": 9139,
      "Ġsubstance": 9140,
      "urable": 9141,
      "whispers": 9142,
      "Ġavailable": 9143,
      "Ġseveral": 9144,
      "Table": 9145,
      "doodle": 9146,
      "gl": 9147,
      "Ġcables": 9148,
      "ĠThings": 9149,
      "enters": 9150,
      "ĠCrack": 9151,
      "imal": 9152,
      "Ġsnip": 9153,
      "Ġswims": 9154,
      "Ġbroccoli": 9155,
      "Ġseries": 9156,
      "Ġcontrols": 9157,
      "Ġphotosynthesis": 9158,
      "Ġspreads": 9159,
      "Ġstrengths": 9160,
      "Ġsuccessful": 9161,
      "ĠSnowman": 9162,
      "Ġlocker": 9163,
      "Ġstatement": 9164,
      "Ġneglect": 9165,
      "While": 9166,
      "Zip": 9167,
      "erate": 9168,
      "ĠTreasure": 9169,
      "Ġcann": 9170,
      "ĠBike": 9171,
      "ĠLeg": 9172,
      "Ġancest": 9173,
      "Ġshorter": 9174,
      "enty": 9175,
      "fered": 9176,
      "ĠEgg": 9177,
      "Ġunderstands": 9178,
      "Ġreducing": 9179,
      "Ġsemester": 9180,
      "Ġteammate": 9181,
      "Ġexchange": 9182,
      "Ġrecipes": 9183,
      "Ġmoral": 9184,
      "point": 9185,
      "Ġsupportive": 9186,
      "Ġhypot": 9187,
      "ĠSmall": 9188,
      "Ġhamburgers": 9189,
      "forward": 9190,
      "wean": 9191,
      "Ġgoggles": 9192,
      "lphabet": 9193,
      "Ahh": 9194,
      "Circle": 9195,
      "Emma": 9196,
      "Umm": 9197,
      "âĻ": 9198,
      "Ġamp": 9199,
      "Ġyawn": 9200,
      "oni": 9201,
      "etics": 9202,
      "Ġlip": 9203,
      "Ġlizard": 9204,
      "Ġgoat": 9205,
      "Ġupcoming": 9206,
      "ĠGira": 9207,
      "ĠEd": 9208,
      "Ġexams": 9209,
      "Ġcarve": 9210,
      "ĠJo": 9211,
      "Ġdiving": 9212,
      "Ġblind": 9213,
      "issy": 9214,
      "Ġflips": 9215,
      "Ġfairies": 9216,
      "Ġcrank": 9217,
      "ĠMeow": 9218,
      "hetic": 9219,
      "Ġstrike": 9220,
      "ĠScissors": 9221,
      "Ġpopsicles": 9222,
      "Ġgeese": 9223,
      "Roar": 9224,
      "Ġprecision": 9225,
      "ĠDragon": 9226,
      "Turtle": 9227,
      "Ġlame": 9228,
      "Ġlakes": 9229,
      "otch": 9230,
      "Ġinher": 9231,
      "Ġdod": 9232,
      "ĠCats": 9233,
      "icnic": 9234,
      "ĠMaking": 9235,
      "Ġknit": 9236,
      "orthy": 9237,
      "Ġnoses": 9238,
      "Ġsci": 9239,
      "Ġbrut": 9240,
      "Ġfaith": 9241,
      "Ġsleepover": 9242,
      "Ġmansion": 9243,
      "ĠThumper": 9244,
      "Ġpens": 9245,
      "Ġdustpan": 9246,
      "Ġbelongings": 9247,
      "ĠFinny": 9248,
      "urally": 9249,
      "Ġhamster": 9250,
      "Ġenchanted": 9251,
      "Ġdiscovery": 9252,
      "Ġprettiest": 9253,
      "cat": 9254,
      "dry": 9255,
      "fus": 9256,
      "lim": 9257,
      "wind": 9258,
      "ann": 9259,
      "Ġfright": 9260,
      "Ġment": 9261,
      "Ġpiggies": 9262,
      "ĠWood": 9263,
      "rast": 9264,
      "Ġhustle": 9265,
      "Ġplat": 9266,
      "Ġalcohol": 9267,
      "Ġcones": 9268,
      "Ġrake": 9269,
      "stands": 9270,
      "dder": 9271,
      "working": 9272,
[...]
