#version: 0.2
Ġ t
h e
o u
Ġ a
i n
r e
Ġ w
Ġ s
h a
o n
Ġ y
Ġt he
Ġ m
Ġy ou
Ġ b
e r
i t
in g
l l
Ġ d
i s
Ġ c
a n
Ġt o
Ġ f
Ġ g
o r
ha t
e n
Ġ l
. .
Ġ I
' s
e s
Ġ o
Ġ n
n d
Ġ p
v e
o w
o m
e d
o t
Ġ Ċ
a r
e t
Ġ he
a s
a t
u s
Ġt h
a y
Ġo f
Ġ it
Ġ h
Ġ ha
Ġ in
' t
l e
Ġb e
g h
Ġt hat
Ġm e
i d
Ġ on
Ġa nd
Y ou
Ġ k
Ġ is
i c
.. .
l d
Ġw e
u t
k e
i m
Ġ e
a l
o o
gh t
v er
Ġd o
a c
ou t
r i
Ġf or
Ġ re
T he
a d
om e
s e
Ġs t
Ġ u
Ġw as
Ġl i
Ġk n
us t
a m
Ġyou r
i ll
Ġth is
i r
Ġha ve
W e
H e
Ġm y
' m
l y
Ġn ot
Ġg o
it h
Ġa n
Ġkn ow
' re
e e
a ll
s t
en t
i on
ou ld
W hat
Ġ j
Ġw ith
an t
Ġa re
r o
Ġ S
e a
Ġc an
I t
Ġd on
Ġ M
he r
h o
Ġn e
h ing
u r
Ġw hat
e c
Ġ T
i f
Ġ A
t er
Ġ C
u c
Ġg et
r y
Ġa b
Ġa ll
' ll
Ġli ke
a ke
Ġj ust
N o
Ġhe re
Ġ out
p p
on e
Ġs o
Ġa s
Ġu p
u n
Ġa t
c e
in k
A nd
ha n
Ġh im
oo d
ou r
ri ght
Ġw ant
o p
oo k
r a
Ġ B
Ġab out
i ght
ac k
Ġd id
i l
o re
Ġs h
Ġ right
an d
Ġ D
Ġ G
ver y
i e
e ll
O h
Ġthe re
Ġw or
all y
Ġg ot
Ġhe r
g e
Ġth ink
in d
ea h
Ġ r
Ġ us
Ġn o
es s
h y
Ġ H
Ġon e
r om
ar t
Ġ W
T hat
u l
o d
Ġs ee
' ve
es t
i ve
en d
a in
Ġan y
Ġthe y
Ġb ut
c h
Ġw ill
Ġa l
Ġw he
u re
k ing
Ġ L
Ġl o
n a
is t
on g
i g
Ġd e
Ġ P
Y eah
im e
o l
B ut
u m
a b
â Ļ
er s
Ġ if
Ġs he
Ġs ome
o s
Ġn ow
Ġf rom
Ġs a
at e
Ġ R
as t
Ġp l
Ġh is
v en
Ġ J
am e
Ġs ay
ic e
r ou
k ay
âĻ ª
Ġgo ing
Ġw ho
We ll
Ġw ould
us e
Ġc om
at ion
in e
Ġm an
Ġb ack
T h
Ġ or
a re
Ġt ime
e ar
Ġ F
Ġe x
q u
Ġ O
Ġthe m
Ġc on
Y es
Ġwe re
S o
Ġl ook
w ay
ow n
ar d
as e
Ġne ed
n t
c t
Ġg u
Ġg ood
e m
Ġs p
Ġha d
e l
on na
ic k
Ġbe en
Ġc ould
om et
The y
Th is
Ġg onna
Ġto o
ec t
a use
ot her
it t
Ġa g
or t
Ġof f
Ġc ome
Ġth ing
han k
t hing
ou s
Ġ our
Ġp ro
f e
Ġ v
ac e
Ġ N
Ġt ell
Ġ E
re s
I N
' d
h i
Ġe very
c k
Ġha s
Ġwhe n
Ġt ake
a k
S he
He y
omet hing
id e
b le
a p
Ġw ay
uc k
H ow
re d
Ġin t
W he
Ġdid n
Ġme an
Ġd own
uc h
l f
Ġa m
Ġb y
Ġt r
re at
Ġha pp
Ġh ow
Ġt al
The re
a g
Ġre ally
I f
Ġ K
u d
Ġm ore
f f
Ġs omething
Ġp e
Ġo ver
Ġl e
Ġc l
Ġ "
W hy
D o
Ġc all
op le
Ġsh ould
Ġm ake
Ġl et
t h
le ase
Ġlo ve
Ġm o
b er
C ome
e p
itt le
o y
Ġ You
o se
or ry
v ing
it y
Ġd ay
Ġs u
Ġthe n
a it
ou nd
H E
L et
is s
t her
i es
od y
Ġbe c
D on
Ġb l
Ġne ver
Ġgu y
Ġpe ople
Ġl ittle
Ġsa id
Ġdo es
l p
Ġ qu
w o
Ġ 1
Ġwor k
ac t
b e
e w
Ġ very
Ġon ly
nd er
Ġ en
on d
Ġ ro
O U
Ġs e
re e
Ġs c
O kay
Ġc o
Ġhapp en
Ġb r
it e
ee p
A ll
Ġb et
Ġdo ing
ad y
0 0
se lf
IN G
p l
as s
ri end
u e
Ġag ain
ee l
Ġm uch
M y
ou ght
t ing
ou gh
a ge
Ġe ven
n ing
Ġ Y
T hank
is h
m ent
ir st
- -
Ġwhe re
i re
N ow
Ġa f
A N
at her
Ġhe lp
Ġk ill
Ġo ther
a u
Ġy ear
n y
Ġf ind
Ġw hy
Ġt wo
. "
Ġu nder
p er
Ġint o
Ġ What
Ġf eel
E R
Ġu n
t y
Ġa r
I s
Ġw r
re t
v es
g et
one y
or d
Ġp r
rou nd
Ġtal k
S t
Ġ im
f ore
n e
w n
b ody
Ġ âĻª
ad e
ur n
N ot
Ġg ive
Ġli fe
r ow
W ho
Ġbec ause
Ġst ill
u ll
L ook
a ve
o b
J ust
Ġs orry
A re
Ġl ea
Ġthe ir
Ġn ight
Ġany thing
Ġl ong
ir l
ay be
Ġwe ll
Ġne w
Ġf riend
f t
ac h
an g
Ġf irst
Ġh ome
Ġo kay
i z
Ġt ry
ic h
Ġth ought
Ġs ure
Ġbe l
is e
d ay
Ġt han
oo l
Ġm ust
Ġ No
Whe re
Ġc ar
Ġa way
res s
w e
Ġthe se
n g
Ġbe fore
ha r
an s
Ġw on
R E
A T
ĠM r
at er
I n
Ġp o
Ġha nd
p t
way s
Ġc han
Ġp art
i ous
Ġp ut
o g
Ġaf ter
Ġg irl
Ġw h
Ġc are
Ġas k
Ġ '
o ld
Ġa c
Ġw ait
en ce
Ġre m
Ġto ld
ab le
ou se
i a
Ġa ct
Ġs ec
Ġl ast
ĠG od
Ġyear s
Ġthing s
Ġst art
Ġk eep
Ġg reat
Ġc our
ar y
Ġf l
O N
Ġbet ter
an ce
Ġ He
Ġd r
Ġk id
i p
ie ve
Ġa round
Ġd is
he d
Ġal ways
ar k
Ġs m
Ġsh ow
l es
Ġa d
or y
f ul
Ġc ou
Ġc he
G ood
i ly
G et
on s
Ġm oney
Ġm in
Ġb u
ĠS t
Ġ 2
Ġth ose
ri ed
Ġk ind
os s
Ġpl ay
Ġp lease
Ġl ot
Ġn ame
Ġb ig
You r
Ġpl ace
Ġcon t
L L
he re
G o
Ġ V
in t
Ġb oy
Ġs ir
Ġdoes n
Ġnot hing
Ġo ld
a king
a v
i al
D id
Ġre al
Ġm ade
ist en
Whe n
u p
i gh
ll o
st and
ig n
Ġe ver
ic t
Ġ U
The n
ĠI t
i ke
Ġt e
or m
u b
a il
at h
e ver
ut e
ĠT HE
Ġbel ieve
x t
at ch
rou gh
Ġre s
ve d
Ġevery thing
ion s
C an
Ġp er
re n
Ġ Yeah
Ġdon e
Ġlea ve
Ġo wn
Ġguy s
p en
Ġha r
y e
Ġ id
Ġe l
Ġc r
Ġhe ar
Ġbe ing
p s
Ġst ay
Ġb ad
Ġwant ed
i an
Ġw om
Ġb it
Ġth rough
Ġunder stand
u ally
r an
p ort
Ġhe ad
Ġh ouse
Ġle ft
a w
m an
Ġwr ong
Ġs ha
ul t
Ġ Oh
ĠC h
at ed
Ġwor ld
Ġhappen ed
em ber
ĠY OU
Ġf am
Ġc ame
Ġg r
Ġm ight
Ġcom ing
Ġa pp
Ġcour se
P lease
Ġm ar
p ect
Ġst op
O R
au ght
Ġf ather
ers on
A R
s o
m er
u h
Ġ Yes
Ġr un
Ġme et
Ġ [
Ġm om
Ġs er
F or
at ter
m s
Ġis n
if e
o h
i x
Ġb us
s ide
Ġel se
Ġf ound
e k
Ġp h
Ġ ]
Ġre c
He re
l ing
Ġen ough
u g
in ce
o ll
Ġs ho
ot h
Ġtal king
Ġc hi
or s
re am
Ġde ad
Ġ end
m y
t ain
Ġt ra
Ġc h
Ġas s
Ġsu pp
i v
Ġsome one
ab y
Ġm other
n er
im es
Ġf un
S h
Ġan other
o ck
Ġd ec
at ing
Ġcom p
E S
he s
Ġc le
Ġ The
Ġs on
re st
o c
i ble
Ġget ting
Ġs ame
Ġs ur
ec ause
Ġ We
Ġf in
o st
Ġm ind
a h
ak es
Ġ ra
Ġm on
Ġat t
Ġlook ing
i ed
Ġs l
Ġm iss
Ġhar d
get her
Ġp erson
I S
m m
Ġth ree
t a
Ġj ob
U h
Ġw ent
Ġy eah
Ġt urn
Ġd if
Ġin v
Ġm or
Ġto day
Ġchi ld
ation s
M aybe
a ir
Ġp ret
Ġp re
Ġf ine
Ġm ay
Ġn ice
E N
p le
Ġu h
Ġpl an
E very
T o
Ġwas n
ĠA nd
Ġs w
Ġwh ich
Ġb re
Ġman y
Ġtry ing
Ġyour self
Ġw ar
re ady
Ġro om
Ġto gether
Ġb est
Ġsa w
I T
ĠT H
op e
Ġpro ble
le ep
d er
ing s
Ġp ol
ic al
Ġd es
on t
R e
Ġt hank
Ġy es
Ġhe ll
Ġh ur
A s
He llo
an na
u ff
Ġac c
Ġ -
Ġse en
Ġwe ek
hi le
o ve
Ġb o
al k
Ġal ready
ĠT O
Ġne xt
ar s
O n
Ġrem ember
B ecause
Ġfam ily
Ġli ve
Ġm atter
or row
is ter
Ġc ra
uc king
R ight
p e
Ġst r
Ġb aby
Ġmo st
Ġbr other
Ġ i
Ġh our
a z
in ess
Ġhe ard
s s
Ġid ea
Ġ 3
E x
d y
Ġc ha
Ġwould n
Ġkn ew
n ess
M r
Ġg l
id ent
Ġus e
Ġwor d
Ġm en
ow er
Ġo pen
Ġwith out
Ġmor ning
Ġwom an
er y
Ġus ed
W ait
Ġcall ed
ĠT hat
ot t
Ġwho le
an c
O ne
ch ool
i le
Ġcom m
Ġhe art
A S
Ġmo ve
Ġsec ond
as on
Ġtoo k
O W
Ġfriend s
a ut
am n
it ion
un g
t he
os ed
i ent
Ġp ay
g g
l ess
ir d
Ġy et
re nt
Ġw ife
ct or
Ġpret ty
en s
Ġsay ing
Ġqu est
Ġs et
pp ed
Ġday s
Ġmy self
an k
Ġre l
Ġre st
Ġbr ing
Ġf uck
in s
Ġd ri
on ight
Ġf r
Ġal so
i er
A l
i b
Ġdif fe
Ġag o
Ġe m
Ġl isten
Ġm aybe
a x
Ġs uch
Ġha ven
i ld
Ġgu ess
as h
ab ly
Ġcou nt
Ġw anna
t s
ut h
Ġal one
ea k
G H
Ġre ady
z y
Ġdr ink
Ġproble m
e y
Ġg one
O M
nt il
en se
H ave
w here
T ake
Ġg i
Ġs it
Ġf ar
A ny
Ġf ucking
Ġs chool
Ġkill ed
or n
aught er
Ġs leep
Ġm et
au gh
Ġf ace
Ġf ew
S ome
Ġ ent
Ġf ight
Ġd ie
w ard
ĠT h
L E
Ġ (
Ġ hat
Ġwor ry
O T
Thank s
Ġw hile
c use
Ġst and
Ġd ad
Ġsh it
Ġgot ta
S orry
Ġso on
Ġde al
Ġto m
Ġh old
y ing
Ġlo st
Ġe v
B e
Ġact ually
m ed
Ġ ...
Ġon ce
S ee
ve l
Ġwant s
Ġdo or
ou nt
Ġp ass
St op
Ġh ope
A n
Â ´
A h
ond er
Ġe at
Ġbus iness
Ġhapp y
Ġe as
Ġcould n
Ġbe aut
Ġc ase
O f
Ġt onight
O r
Ġl ate
Ġpo int
b ably
Ġany one
y es
Ġc har
iz e
Ġ ?
re w
E D
Ġp rom
Ġm us
H i
Ġmon th
a pp
O K
Ġsay s
Ġt er
at t
y ou
Ġb oth
Ġcom pl
ce pt
T ell
Ġs k
ĠB r
p r
f orm
i o
Ġc ho
al s
it her
Ġh um
i red
if ul
i et
Ġph one
A t
we et
Ġtom orrow
r ist
Ġbre ak
Ġs ince
Ġj o
l and
Ġst uff
W ith
Ġe ach
L ike
E T
Ġu ntil
or k
are d
Ġt ri
p h
Ġthink ing
Ġs ign
a j
Ġre t
ver s
ĠD o
oh n
ut es
Ġtr ue
as ter
e red
l ic
A Y
oll ow
act ly
Ġre ad
Ġp res
Ġha ving
Ġpol ice
c ess
s w
Ġw ater
is on
I C
Ġn um
F F
W h
Ġbl ood
Ġmin ute
en c
Ġw alk
Ġde ath
Ġhand s
Ġin c
Ġwor king
at es
e rest
Ġo b
Ġs ound
it s
Ġh ot
g ed
Ġche ck
Ġg ave
Ġyou ng
Ġm ess
Ġbe g
ĠH ow
um p
Ġli ght
Ġp oss
Ġl ater
Ġw onder
V E
Ġim p
f ect
d ing
Ġdiffe rent
Ġe yes
Ġe ar
he n
Ġ 5
s h
u nd
u al
Ġmin utes
l ed
are nt
Ġknow s
Ġex pl
Ġmom ent
Ġcra zy
et e
Ġin ter
Ġs ing
Ġin s
Ġchan ge
00 0
Ġevery one
uc t
ud e
ra id
Ġf e
E A
G ive
S T
et s
Ġf act
Ġl uck
Ġb ody
Ġb ro
Ġg un
hi p
m e
Ġcon f
at c
m ore
Ġmean s
c ome
Ġkid s
Ġa p
Ġ 4
ro ss
Ġpro bably
g er
n ed
Ġh it
b and
Ġim port
ĠM ar
Ġh uh
Ġlook s
Â ¶
a le
Ġbeaut iful
Ġm ur
Ġd ream
he ad
L isten
Ġh on
Ġ Hey
Ġsp ec
Ġt aking
ent ion
Ġde f
Ġs ide
t o
c o
Ġhur t
t e
Ġask ed
Ġa w
Ġchan ce
Ġt imes
Ġb ook
Ġaf raid
Ġp ower
Ġh igh
an y
H AT
Ġd aughter
Ġint erest
ĠI s
n c
us band
ĠA N
Ġp ick
Ġsh ot
Ġb ed
Ġf ire
ĠS o
Ġre ason
Ġin side
Ġc ut
Ġmus ic
is ed
Ġt rou
Ġs y
Ġm akes
Ġf ree
Ġm aking
Ġit s
in a
Ġcon s
i k
it ed
Ġimport ant
Ġm ine
Ġcom es
Ġle ast
us s
un k
Ġnew s
ent s
Ġst ory
Ġp ain
ĠI N
j ect
ĠT hank
Ġfor g
ious ly
e al
Ġsupp osed
Ġan sw
e g
m en
Ġagain st
Ġcl ose
U T
r ic
Ġw in
Ġf our
er tain
ol og
Ġh usband
un ch
m ost
Ġquest ion
Ġs weet
Ġpr ot
Ġc or
n ot
Ġa in
Ġt ou
ro p
Re ally
Ġf ollow
Ġw ish
am es
Ġhour s
ĠI T
ĠI n
b y
Ġsp eak
Ġcle ar
Ġl aw
ĠA l
ĠO kay
Ġpart y
ĠS he
Not hing
Ġwait ing
v ie
Ġs ent
en er
a id
Ġco ll
Ġstart ed
Ġin st
Ġ )
Ġin d
Ġs end
Ġw atch
it al
we en
Ġs ister
Ġany more
Ġf ive
Ġmar ried
am p
Ġab le
Ġf ull
out h
h ind
Ġle ad
W ill
C h
Ġf a
an e
ar r
se l
o on
Ġha lf
Ġle g
Ġqu ite
Ġre g
rou ght
Ġtr uth
Ġl ear
Ġ Well
Ġeas y
Ġfor get
i ence
Ġ #
en e
C K
Ġte am
ang er
Ġf ore
Ġa ir
l come
ĠD ad
mer ic
H is
Ġnum ber
Ġgo es
Ġf all
Ġst ud
Ġdo g
AN D
Ġto wn
Ġtr ust
Ġd ied
ĠD on
ĠC l
Ġex actly
us h
is hed
o k
up id
ak en
M e
ĠO K
on y
f ter
Ġget s
Ġfr ont
b s
u es
Ġbe hind
Ġv is
Ġde p
Ġgo d
c er
C H
Q u
Ex cuse
Ġg ame
Ġchild ren
t on
Ġb ra
Ġs im
o ot
Ġsho ot
ĠCh rist
er ing
d en
Ġbu y
i ec
Ġbet ween
Ġdis c
Ġ ri
Ġm ill
ĠA ll
Ġst re
at or
A M
B r
ĠO F
Ġse x
Ġb ar
ig ure
A L
Ġb rought
ĠA n
ro l
o or
Ġth ough
Ġex t
Ġsec ret
b r
ĠD r
G od
in es
Ġf il
Ġ es
Ġm ed
s on
Ġs n
ict ure
Ġtrou ble
Ġc ap
Ġc op
c l
Ġd et
Ġtell ing
Ġl and
ĠS h
Ġp ri
Ġt ried
Ġ Z
ĠA r
E ven
Ġbu ild
Ġd in
Ġoff ice
un t
o le
art h
ĠB E
i ate
l i
Ġme m
Ġm il
Ġf ell
ĠO N
Ġmonth s
ot e
ĠB ut
ĠW hy
Ġex pect
Ġcou ple
ĠW ho
Ġal ive
in c
Ġp at
Ġyour s
Ġ1 0
Ġgirl s
ĠS c
Ġl ine
ie f
T HE
Ġbec ome
in ed
Ġd ra
st er
Ġp icture
ent le
Ġd ist
ĠJ ohn
Ġcount ry
Ġneed s
ĠR e
I D
os p
ĠA meric
Ġare n
Ġsa fe
S ure
S E
Ġd est
ĠG ood
at s
Ġor der
Ġf igure
Ġp ull
ie ld
Ġwom en
â Ģ
Ġal most
Ġf ood
Ġp arent
Ġw ind
g r
le as
o ke
O ur
ĠC ar
Ġper fect
Ġst upid
Ġwe ar
Ġr id
The se
o e
U m
ter s
Ġs ort
Ġ2 0
Ġhat e
Ġm ad
Ġsee ms
I GH
Ġad v
Y OU
Ġre p
ĠN ew
Ġansw er
Ġl ess
omet imes
Ġc ool
? "
Ġtr ans
Ġst ra
ard s
Ġp ast
ĠM E
Ġret urn
Ġe le
W ould
it c
Ġg ra
Ġm ist
Ġm ag
Ġprot ect
Ġplay ing
Ġqu ick
Ġgr and
Ġal ong
Ġsm all
Ġsha ll
Ġsome body
Ġe ither
I M
e x
Ġde ar
m p
Do es
Ġt est
Ġhum an
m a
ic s
Ġa head
Ġf av
ran k
r act
Ġh or
A fter
Ġ !
f ort
Ġ $
Ġp ap
Ġdo ctor
itt ing
Ġu m
Ġbl ack
it ch
ĠG r
Ġlo se
Ġevery body
A U
Ġli ving
Ġs ick
ir th
Ġfeel ing
L D
k es
Ġboy s
Ġcle an
D ad
id ence
Ġout side
pp ing
ĠW here
ne y
le y
ic ally
Ġsa ve
Ġt aken
âĻ «
Ġfun ny
Ġsu b
ran ge
Ġc ity
ĠC ome
Ġre port
e re
ant s
e ad
Ġspec ial
om m
Ġatt ack
er t
Ġc ry
il ity
e ed
Ġha ng
Ġwhat ever
Ġex per
Ġad d
ĠS p
Ġrec ord
ou l
Ġhe y
um b
e f
ot s
U N
Ġd ou
Ġhim self
ĠTH AT
Ġstr ong
Ġc ertain
Ġp ar
Ġha ir
Ġs ix
Ġp iec
K E
Ġparent s
ĠN ot
Ġcompl ete
e v
M an
Ġd ire
Ġb all
l er
al m
ul ar
W ow
b ye
Ġcan not
Ġt w
igh s
Ġres p
Ġar t
Ġlea ving
ur ing
Ġrun ning
Ġl ady
Ġl augh
Ġoff ic
d le
E LL
Ġto p
Ġre f
Ġposs ible
sel ves
Ġli ves
k s
art ment
ĠB l
Ġd amn
am a
S ir
Ġne ar
el t
ist s
Ġs ell
ur y
on es
ĠH A
Ġin form
Ġsur pr
ĠTh is
it ing
ĠMr s
ep t
d uc
Ġprom ise
Wh ich
ro om
c ause
Ġdin ner
Ġex c
c le
Ġcont in
g y
C l
M om
Ġtou ch
G ot
Ġb irth
Ġcl ass
ĠM iss
R O
Ġw atc
Ġmill ion
Ġm id
Ġv o
ha ps
osp ital
Ġs ense
es us
id ed
T H
V ery
f ic
Ġsh ut
Ġhappen s
Ġd ress
Ġd anger
D r
I I
V ER
Ġser ious
A LL
Ġmeet ing
id es
ĠL et
et er
at ure
Ġany way
a ul
is ion
Ġli e
Ġ1 9
iz ed
Ġsc ared
Ġf ast
Ġthank s
t en
Ġas king
Ġim ag
ĠS e
j oy
ĠD O
Ġf re
Ġter ri
Ġsh ip
ĠA re
T ER
a i
Ġ 6
Ġg entle
et h
Ġshould n
ow s
Ġsee m
Ġcont rol
Ġk iss
" .
H old
Ġb ull
Ġco ld
ĠAN D
ĠM y
er v
Ġa ff
Ġso ld
Ġexpl ain
Ġdri ve
Ġst ar
Ġ --
Ġword s
ĠG O
K eep
W as
us ed
g an
b b
Ġc ol
T wo
ct ion
it ies
Ġs ong
S p
air s
ap tain
Ġb oss
Ġk ey
Ġt en
ol ute
Ġcomp any
c c
st em
ar ry
s y
Ġt reat
Ġh ospital
Ġbe at
Ġs us
Ġp ress
Every thing
ĠYou r
ĠM om
Ġf ool
Ġr u
F rom
Ġen g
Ġcl os
Ġp os
Ġ They
m ing
Ġb ag
U n
Ġlong er
Ã ©
Ġth row
Ġlo ck
Ġro ad
On ly
C he
ĠS T
enc y
ren ce
Ġbit ch
P e
Ġtra in
Ġph ot
y s
Ġinv est
ut ure
Ġf ly
Ġp ub
am er
ĠJ ust
z e
Ġbeg in
, "
Ġst ep
l o
ut ion
ap e
L Y
ĠI S
Ġf elt
Ġo h
Ġknow n
" ?
Ġb as
oo se
if t
Ġst ate
a ur
P ut
Ġ .
Ġmur der
Ġre d
Ġd ark
Ġb reat
Ġto t
ri es
F uck
s c
Ġs qu
ho se
Ġstra ight
P er
c es
Ġdis app
Ġgl ad
ill y
at ive
ac es
i ally
Ġ 9
if ic
C ould
Ġd i
Ġh oney
Ġent ire
B y
ro y
az ing
Ġ 7
Ġor d
f ess
G u
g es
in al
z z
Ġv ict
ad ies
Ġf ix
Ġm ark
le x
ir t
g ing
Ġes c
ver n
Ġf oot
om b
Ġfa ult
B ye
Ġother s
M ar
Ġwe ird
Ġcall ing
Ġf uture
ĠC har
d d
Ġg row
Ġlo c
A m
l ie
Ġe ye
T r
a ven
id er
Ġweek s
er c
Ġall ow
Ġc atch
Ġp ur
ĠD an
Ġw all
ĠC an
Ġab s
ra p
Ġwor th
Ġw ed
Ġsy stem
Ġser v
re en
Ġc reat
He lp
at ur
M m
ull y
Ġsh ort
Ġpr ison
Ġex p
Ġo pp
n ie
I R
ĠL ord
A b
Ġc ent
ff ee
Ġ 8
Ġchan ged
Ġr is
Ġr an
m it
Ġr ing
Ġany body
Ġro ck
e or
N ice
ĠC ha
n o
Ġd eep
Ġfe et
Ġcon d
IGH T
Ġsu per
Ġ ..
f er
Ġbo x
H er
Ġfav or
in ite
a e
Ġ There
Ġvo ice
Ġs un
Ġ *
olute ly
est y
Ġsome where
u ation
oo f
Ġde v
Ġlook ed
Ġdr ug
S omething
Ġso l
ĠJ ack
Ġme ant
Ġp leas
ke y
Ġwork ed
ea king
ur ry
Ġb ud
Ġd ate
H uh
ĠG o
ound s
Ġb ott
Ġturn ed
Ġb ur
Ġsee ing
l a
G reat
ĠT o
Ġr ad
ation al
ment s
Ġon es
s ing
od e
ec h
Ġhappen ing
b o
ar ling
A D
Ġ z
S c
Ġcl ot
Ġde m
Ġk ing
ea ve
F ine
e en
Ġfin ally
S ay
N e
Ġlear n
b ut
al t
ĠM an
Ġar ri
r ay
r u
en ny
Ġlove d
Ġt re
Ġm outh
Ġg ener
Ġd ance
uck les
Ġt ill
Ġpiec e
Ġt y
Ġg round
Ġr ather
Who a
Ġsp end
AN T
Ġt em
er ry
e le
ĠW ill
Ġgi ven
. '
an a
Ġwr ite
Ġmo ving
N ever
Is n
R em
re c
ĠE ng
Ġqu iet
Ġt akes
ĠH i
k ed
Ġwere n
r at
Ġquest ions
r on
i or
Ġwh ite
I E
ous and
o int
Ġc ur
or ies
ur ity
U R
Ġsm ell
Ġc ook
Ġwork s
n ect
b ers
ter day
T hose
el s
u k
Pe ople
E E
Ġcho ice
Ġpo or
ag es
Ġeven ing
i ans
P ro
w ell
St ay
Ġan g
Ġres pect
Ġar rest
ĠM aj
Ġe ff
ic ha
N OW
ick s
C ause
n ow
Ġo per
ĠW h
Ġen joy
... ?
H mm
i ot
Ġan im
Ġ er
il t
Ġpres ent
Ġ ve
Ġcon cer
Ġh ist
Ġluck y
B l
Ġwor ried
OM E
Ġam azing
ar a
I ON
Ġac cept
Ġwed ding
i ves
om an
if f
C E
Ġwe ap
Ġpre p
l ish
O D
er ve
Ġwatc hing
ill s
Ġear ly
Ġno body
b t
ĠT om
Ġneed ed
Ġc ell
ĠR o
Ġgi ving
M ay
el f
Ġf ail
Ġk ept
D amn
ĠP r
inite ly
Ġd ro
l et
Ġsound s
Ġco ver
Ġacc ident
t hat
Ġco ffee
l s
ĠH E
Ġmar ry
Ġn orm
Ġst o
F irst
Ġco st
Ġf ear
Ġh id
k y
Ġy a
ĠA d
ate ly
Ġperson al
Ġcour t
e an
ort h
k en
und red
Ġwe lcome
is m
Ġs uc
Ġmist ake
Ġf air
Ġdec ided
U ST
Ġm is
icha el
Ġpro per
Ġmo vie
Ġbus y
G r
Ġ ill
ber t
Ġmiss ing
T om
Ġs ad
Ġth ousand
Sh ut
Ġpri v
ud den
un ity
Ġm od
Ġh ung
Ġb ank
Ġl a
Ġj ud
Ġkid ding
Ġc re
A ct
b all
pp er
v iously
Ġbirth day
c hed
ĠW E
Ġcon v
om ing
Ġwor se
ure d
f ully
Ġdest roy
ĠE x
Ġhon est
ĠF OR
Ġclot hes
g o
Ġdo ll
w hat
Ġinform ation
r uct
Ġh op
Ġre qu
w ork
Ġbuild ing
Ġt ired
Ġc aught
rou p
augh s
Sh it
ĠL e
L eave
ri ll
Ġ1 5
ul es
R A
Ġ ed
C T
Ġmur d
I LL
Ġc ir
Ġp ack
ĠT V
i ol
Ġm a
Ġr ide
Ġrel ations
al king
U S
Ġinv ol
Ġwonder ful
Ġc a
ĠF or
Ġresp ons
Ġmess age
av id
c ed
A r
Ġgo ld
ĠB e
r or
ou d
o v
Ġb ast
Ġjo in
M ake
Ġev idence
Ġcomplete ly
S ha
h mm
Ġs ear
ĠG et
Ġvis it
f riend
ĠF r
Ġs oul
am ed
Every one
Some one
Ġsit uation
l ight
Ġpat ient
H O
ĠK ing
Ġstre et
he l
it er
ĠHe llo
Ġfor m
Ġ Q
Ġgo vern
Ġfin ish
ce ll
Ġbl ow
H a
M AN
Ġc amer
Ġc ross
Ġen em
Ġs ometimes
E n
ĠD id
ic es
Ġinvest ig
No body
Ġh undred
IT H
ĠS am
Ġtr ack
ĠW AS
Ġd iv
Ġt able
t ed
Ġsing le
Ġpub lic
Ġsw ear
ĠTH IS
ward s
m in
ĠY ork
s p
M iss
ĠH ER
Ġin f
Ġpe ace
Ġ1 2
Ġcare ful
Ġdanger ous
Ġf ing
ac y
ent y
ĠB ar
n i
Ġa ge
Ġd rop
Ġst range
qu e
res ident
Ġp op
Ġdif fic
Ġb urn
es e
id ge
lf riend
ir ty
Ġl ying
ir lfriend
Ġso c
ri age
att le
and er
Ġsur v
Ġf ish
ag ed
C all
g n
g u
Ġmid dle
Ġvict im
Ġc amp
Ġcon nect
Ġpap er
P l
c he
i us
ut s
Ġcont act
Ġcar ry
ON E
Ġun i
Ġoff er
Ġhas n
N A
Ġb orn
Ġs al
un e
ect ive
H urry
Ġbro ke
Ġs um
ĠF rank
Ġm ot
Ġ3 0
ac her
Ġhist ory
Rem ember
EN T
Ġac ross
h ow
Ġst ri
Ġex am
f or
Ġgentle men
Ġyes terday
v o
Ġc ard
Ġm ention
s et
re ad
AU GH
ure s
Ġb ath
Ġm ach
M ove
m as
ion al
Ġap olog
it ness
ur ch
Ġp aid
O H
ĠL I
um e
ĠI nd
Ġfin ished
Ġhe ro
ĠG u
Ġlet ter
Ġsl ow
Ġt ast
Act ually
u ri
Ġthink s
Ġpr act
Sh ould
at ic
Ġre ce
Ġtalk ed
rou d
Did n
Ġs il
i res
Ġs udden
.. ..
W E
re ct
Ġp ot
Ġj ump
Ġany where
in y
ear s
Ġv ill
Ġc at
Ġus ing
ĠS ha
ain s
Ġdiffic ult
ĠM Y
ĠC he
om p
What ever
Ġfl oor
Ġhand le
Ġfore ver
ag er
Ġsupp ose
r is
Ġbra in
Ġh ide
ĠO f
Ġro ll
i am
Ġl ist
ore d
ter n
Ġt ick
Ġsim ple
il i
ul ations
igh b
S ince
ĠM c
Ġst ation
Ġdr unk
Ġsupp ort
Ġs ea
Ġr ound
O k
Ġd uring
Ġl ab
iss ion
Ġbel ong
We lcome
ĠA m
ic king
oll y
u ge
Ġar m
R I
Ġtot ally
Ġs elf
ĠA s
uck s
u el
en n
Ġdire ct
Ġterri ble
Ġhur ry
Ġw ake
d o
Ġth reat
it ive
ĠR ight
vie w
ĠYOU R
Ġsa ved
r ing
Ġg irlfriend
Ġs itting
t le
ent ly
Ġag ree
Ġapp ro
O P
ho l
eor ge
c hing
n oc
ĠN OT
ĠP ar
st airs
Ġtri p
av y
oss ible
Ġnorm al
Ġst ick
O oh
Ġpo st
Ġb ought
Ġk ick
ow ers
a ld
Ġforg ot
Ġsp ace
ĠMaj esty
ll en
C ar
in o
Ġbl ue
OU LD
Ġt ur
Ġsec urity
R Y
Ġst eal
n ight
Ġne ighb
Ġv al
ĠK NOW
y er
Ġe arth
Ġ Â¶
ren ch
Ġare a
Ġgl ass
ĠP h
Ġd arling
Th ink
Ġproble ms
Ġf ield
ĠE d
Ġchar ge
ong rat
Ġdef initely
n s
Ġm ain
ĠHA VE
ul ous
Look s
Ġb other
Ġ ice
Ġfil m
Ġs at
Ġ1 00
Ġp roud
t ime
Ġcr ime
og n
Every body
Ġ ir
ĠC aptain
Ġsto pped
! "
Ġang ry
in ct
Th ree
re et
Ġsu ff
Ġe ight
Ġd are
ĠA b
Ġl unch
Ġwear ing
ast ic
ĠG er
Ġto r
Ġl ar
Ġinterest ed
Ġsm art
in ation
i um
o ly
Ġhor se
Ġf ill
Ġmiss ed
Ġg roup
Ġsu gg
Ġem p
Ab out
Ġhot el
Ġkill ing
Ġsugg est
g ent
Ġst ore
j ust
Ġinterest ing
Ġc ust
Ġg as
Ġcall s
am b
P P
n oon
Ġrelations hip
' ?
Ġl adies
ut y
ĠL ook
ou nc
N O
Ġb ase
Ġt ech
ut er
ĠM e
Ġch ick
Ġp un
Ġsc ream
S it
Ġg en
Ġimag ine
Ġfor ce
Ġbud dy
Ġem b
Ġpos ition
Ġmag ic
Ġo cc
ĠM in
ĠI f
ĠA t
Ġsc ene
Ġh y
Any way
T ry
o ver
OU T
id ay
Ġcl ub
o f
Ġpr ay
med iate
g ue
K ING
c ent
ug g
od ay
ĠE arth
Ġis s
or ing
Ġacc ount
ĠThank s
Ġcir c
Ġse ven
ĠC ol
ĠAmeric an
ĠP ro
Ġc as
ĠT r
ĠP resident
Ġe qu
Ġlove ly
Ġbo at
l in
Ġb ird
Ġim mediate
Ġboy friend
Ġ est
har d
ive d
Ġex cuse
Ġserv ice
Ġid iot
O pen
Ġse at
Ġf at
ou n
re ed
hy s
âĢ ĵ
Ġv iol
u ro
Ġinst ead
Ġsha re
Ġsc rew
Ġfor ward
a ff
Ġp al
anc y
Per haps
c ri
Ġgovern ment
Ġext ra
U CK
Ġmar riage
Ġap artment
a im
Ġsecond s
Ġstand ing
ĠM art
ĠN E
Ġplan e
J ohn
Ġc ause
Ġc alm
Ġdra w
Ġsus pect
Ġsp ent
Ġinvol ved
Ġapp rec
Ġbe ha
Ġpro p
ĠC omm
ĠS ir
ĠC on
ĠO n
ail s
l ine
Ġb omb
end ing
O ver
W atch
Ġw itness
one l
Ġt ea
Ġdisc uss
Ġmil es
Ġwind ow
Ġrec ogn
ĠAmeric a
h ood
On ce
L A
ĠE l
Ġro b
Ġsp ir
Ġsuc cess
itt en
ĠM ad
Ġquick ly
k a
Ġg ift
ir m
Ġm ir
ic a
Ġafter noon
Ġte le
Ġbast ard
Ġr ich
Ġsurpr ise
er n
Ġreal ize
Ġdou bt
ele br
Ġli ked
ĠW ITH
ff ic
y n
J esus
Ġb and
ĠP aul
ib ility
m b
Ġs ake
pt ion
L O
ĠM a
ĠB en
ĠU n
Ġb ill
Ġlo ves
Ġd ying
Ġl ow
ec ially
Ġd anc
ver se
ac ed
un ting
Ġde li
c ha
u it
Ġbec ame
Ġal right
is ing
i en
Ġpart ic
Ġli kes
he t
ge l
Ġimp ress
p or
' .
Ġp en
Ġjo ke
oo p
ĠJ im
b ed
Ġm aster
ĠN ow
l ike
ĠS H
ongrat ulations
Ġli ved
Ġan n
Ġfight ing
in ing
ĠW HAT
Ġfeel s
Ġhe al
Ġof ten
Ġbro ken
e ve
e ge
Ġj ail
Ġ5 0
ib ly
ĠB ob
B et
ĠD ON
Ġcl ient
Ġele ct
r al
ĠJ oe
Ġb le
Ġd a
if ied
C har
end ed
res h
Ġle vel
d amn
ain t
S er
Ġbe ar
Ġpro fess
gr am
ĠC AN
aj or
ĠHe re
Ġf ur
ĠM ay
Ġwr ote
Ġdec ision
Ġl ay
P S
Ġmo ved
ĠChrist mas
L ES
Ġt ree
Ġp sy
ĠO r
g ar
uth or
y le
ig g
ĠO ne
Ġhung ry
Ġup set
Al right
A d
en ry
Ġcom fort
Ġmach ine
Ġ1 8
Ġw alking
Ġbo ard
es ides
Ġwith in
if y
Ġcertain ly
Ġc elebr
ĠF ather
as y
Ġre ach
Ġatt ention
Ġw ood
âĢ İ
ĠH ar
Ġcon st
en g
Ġex ist
nc le
Ġpol it
l t
Ġd am
Ġdri ving
y a
uc e
Ġpres ident
W HAT
itc hen
Ġadd ress
Ġkill er
Ġplan et
C le
Ġl im
Ġne cess
Ġforg ive
* *
Ġh uge
ho le
Ġt ar
ĠW hen
pl oy
l or
Ġgu est
Ġor gan
Ġd ig
T HAT
it or
d uct
M ore
T oday
Ġne ck
ener al
n al
Ġar my
Ġbegin ning
Ġstart ing
pen s
ĠA RE
um ent
Ġpro ve
S ometimes
Ġm ount
Ġt ough
Ġe ating
ĠL O
w ise
ĠC H
HE R
Ne xt
Ġd ude
Ġy ell
Ġs ens
Ġc ab
he art
Ġp ark
Ġmiss ion
Ġm ass
Ġpriv ate
Ġcamer a
Ġid ent
Ġabs olutely
Î ¿
Ġs har
app y
Ġhon or
Ġpleas ure
Ġkn ock
l ier
re y
ha m
u ke
Ġper form
ĠJ esus
5 0
c hes
ĠM or
ĠS u
Ġwhe ther
ĠA h
M mm
Ġth ird
IS T
O ut
Mr s
ph one
Ġte ach
R UN
Ġc ow
Ġrad io
is hing
end s
Ġdiffe rence
Ġpro v
om es
Ġwe ak
Ġfe ed
Be fore
Ġimp ossible
ĠJ o
L ove
ĠU h
er gy
ak ed
3 0
Ġrem ind
it a
en ed
y ear
Ġlaw yer
b el
r am
ĠF ran
Ġcon vers
Ġn one
Ġj our
ĠE m
Ġcr ack
ĠG ET
ea red
Ġr ules
T urn
ar m
ic ated
N D
z a
c a
o x
Ġa ut
Ġm atch
Ġpart ner
G E
Ġhold ing
ĠO UT
Ġin noc
Ġbe ll
ĠF rench
ĠEng lish
Ġenem y
Ġst uck
Any thing
Ġoffic er
u zz
er m
Ġex cept
ord ing
Ġdes ign
Ġsp ot
Ġimmediate ly
y l
Ġexper ience
is es
Ġe gg
k i
Ġch oose
Ġtra vel
Ġfa ith
ro ll
L ING
Br ing
ĠW as
n el
Ġ ide
en a
Ġun c
Ġev il
D O
ge ant
Ġn amed
Ġ Ã
S O
o ff
Ġpass ed
l aw
Ġtr ick
Ġprom ised
Ġs ac
ho st
d e
Ġg ay
... "
Ġst e
Ġan t
duc e
b it
Ġstay ing
T O
p ly
St ill
ĠU S
Ġfin al
id s
Ġsho p
Ġpre c
Ġdream s
ER S
ic ide
Ġh i
u nder
Ġqu it
ut en
Ġcons ider
Ġv ide
Ġesc ape
Ġbl ock
f et
Ġup on
ĠD avid
Ġty pe
ond on
ĠH igh
b l
Ġn atur
Ġris k
Ġsho es
ic ulous
Ġw ine
at o
ac hing
Ġr ace
pp y
uck er
Ġbl ind
Ġcontin ue
in ary
se c
Ġ Qu
erv ous
Ġb ab
Ġwor st
Ġar ms
Ġc ash
Ġsp eaking
Ġcoll ege
ĠU P
Ġpicture s
B ack
Ġp hys
Ġk itchen
Ġte acher
Ġgi ves
C RE
Ġd irty
itt ed
Ġsu it
Ġapprec iate
A w
ĠChar lie
Ġl t
Ġo k
Ġwas te
ĠM ike
Ġb attle
S m
Ġ âĻ«
Ġs and
Ġsleep ing
Ġgu ard
Ġa ud
re me
un ts
it ary
Ġlisten ing
ic ed
er al
ie w
ap an
ue en
ĠRe ally
Ġcop s
Ġallow ed
ĠS er
Ġcor rect
os h
Ġpr ice
ĠA LL
Ġg ar
Ġpre gn
olog y
Ġlear ned
es ome
Ġwho a
Ġra in
Ġt ight
FF FF
Ġcomp uter
Ġm ate
Ġcry ing
Ġeng ine
w ood
Ġres ult
Ġe h
ac hed
Ġwar m
Ġhe aven
Ġput ting
A KE
Ġfor t
ur s
Ġsk y
Ġsk in
A B
Ġc ute
Ġcha llen
RUN T
Ġchar ac
Ġ1 1
Ġen ergy
Ġw ild
Ġcoll ect
L ast
Ġp iss
Ġrel ax
Ġopp ort
U M
Ġch urch
Ġour selves
Ġbu ilt
Ġord ers
Ġfeel ings
D an
Ġdrug s
Ġun cle
Ġh ost
il es
im ent
Ġper haps
Ġthem selves
vel op
Ġint ro
c an
Ġn ervous
ĠA B
ĠD e
n ers
AR T
iv il
Ġsw ord
p ing
Ġre v
as c
uten ant
iet y
ĠGr and
Ġhe llo
ĠJ ames
Ġe mer
Ġtr uck
A ah
Ġa uthor
ĠM ichael
Ġde l
Ġsp l
i ers
Ġcl aim
Ġtar get
Ġf ired
g ency
Ġbl ame
Ġcr im
y an
Ġpick ed
Ġweap on
A CK
W ant
Ġo we
ĠA T
ĠG eorge
arent ly
T oo
Ġ ,
Ġcl osed
ĠHER E
Ġevery where
Ġha ll
c king
Ġsear ch
ĠA S
Ġhad n
Ġs ight
Ġbook s
ĠW ait
b ing
Ġc al
Ġher self
Ġvill age
Ġn ames
and s
row d
Ġdoll ars
u le
Ġrem ain
ĠL ee
Ġcra p
Ġpress ure
g est
h ouse
Ġarri ved
c han
ro g
Some body
f ast
g in
IN D
ar ing
Ġh ol
C on
I L
ĠM m
ĠL uc
ad es
ĠS m
Ġv iew
ĠPar is
Ġear lier
M other
are t
ĠLI KE
im ate
Ġbig ger
Ġd en
ĠN O
F ather
Ġre se
ĠJ UST
u ly
Ġwill ing
For get
Ġpro gram
Ġis land
Ġser iously
Ġev ent
ott en
Ġtast e
p in
Ġm ajor
ic hard
ĠH is
Ġrest aur
Ġcust om
ĠJ ul
L e
anc es
Ġlaugh ing
Ġth r
Ġne g
ĠL ou
Ġt our
at a
g ain
Ġdec ide
ĠA lex
e ff
ĠS O
sh it
Ġact ion
ill e
d om
i ant
Ġc hat
Ġrid iculous
fort un
Ġc ast
Ġc red
ĠP lease
th ough
Ġcont ract
Ġjud ge
H as
f it
ol ice
H oney
ĠL ondon
Ġplay ed
Ġfur ther
Ġlock ed
Ġfing er
1 0
h uh
Ġf resh
as k
ce ed
Ġpl aces
Ġp ush
Ġhelp ed
Ġap art
ĠH ave
em ent
ic le
Ġdrink ing
er o
Ġf ol
Ġmo on
Ġf ant
Ġspir it
E M
Ġv ol
Ġbrother s
Ġcha ir
arr ass
s ighs
Ġway s
is a
U nder
ĠW ith
er k
an ing
Are n
st ood
Ġso ft
Ġpl ans
ip e
c ol
Ġmed ic
le ct
Ġstre ng
Ġf oc
ad s
Ġst ole
ang u
Ġf it
Ġpro ject
Ġinnoc ent
R un
c on
Ġfavor ite
Ġwr iting
EA H
ĠDad dy
Ġs le
ol f
in i
ep ar
Ġdes erve
ad ed
il ty
on ed
Ġnot ice
ĠR IGHT
og er
Ġfl ight
Ġleg s
Ġsum mer
Ġ4 0
Ġsw im
ĠDo ctor
Ġad m
Ġab ove
ĠBr it
v al
ĠP l
v a
Ġh ook
ĠG reat
Ġor ig
Ġun less
Ġbreat h
Ġinc red
Ġc up
ro at
Ġob s
Ġ Then
ĠP eter
ove red
Ġtech n
Ġsp eed
Ġbath room
y al
Ġb ri
ven ge
al y
Che ck
ĠS ure
J ack
ra ph
i ving
Ġf ac
Ġcomm un
T ime
Ġl ord
ent ed
ĠR uss
O RE
Ġp an
Ġfam ous
Ġsm oke
Ġemb arrass
Ġpregn ant
Ġcha mp
Ġp us
il ing
Ġsurpr ised
M a
Ġhid ing
Ġme at
Ġ 0
ĠM ary
Ġem ot
M or
Ġb unch
ĠC ity
Ġcomm on
Ġblood y
Ġtw ice
Ġus ually
ĠP ark
Ġhar m
Ġfigure d
Ġinter view
Ġu r
ĠF red
Ġre pl
âĻª âĻª
Ġcomm and
A pp
I G
b oy
Ġt ax
OU GH
Ġg ang
ar ah
Ġbe er
ĠJ apan
Ġhelp ing
Ġass ist
Ġp ig
Ġmem ory
S am
ĠS P
Ġv an
Ġloc al
O w
v ious
Ġit self
Ġdo c
Ġlo sing
C aptain
ar ch
et te
Ġsm ile
h h
h in
Ġhe avy
us ic
K ill
Ġd uty
ri ble
S H
Ġb ow
Ġsudden ly
Ġb ene
Ġst age
ant ic
ĠW ar
Ġde velop
Ġshow ed
Ġj ack
Ġemp ty
Ġbl ess
Ġanim al
Ġc rew
ad a
Ġv ac
Ġob ject
Ġrequ est
Ġdou ble
L AUGH
ard en
Ġan c
ie l
Ġnecess ary
B oy
et t
Ġob viously
Ġchick en
Ġam b
Ġkn ife
ess ion
Ġwr itten
Ġim m
Ġreg ret
ar i
ĠF l
Ġinc l
Ġsim ply
it z
Ġ2 00
ĠGer man
ĠP L
w h
us ing
Ġpro cess
O ther
Ġs epar
Ġh ole
d a
r ate
Ġsee med
Ġfollow ing
S u
e es
p a
Ġkeep ing
ĠS w
Ġqu ar
Ġlar ge
Ġvide o
r ick
o om
ĠM on
2 0
Ġclos er
ĠG OT
Ġkeep s
ĠW ANT
Ġad mit
Ġc ivil
am s
AR D
Ġopport unity
M ad
Ġdiv or
Ġcou n
Ġ1 6
l ow
c her
ho p
S ighs
el ess
Ġg host
ES T
Ġri ver
Ġread ing
ri ff
Ġcar s
Ġact ing
Ġstreng th
ru pt
S e
{ \
r ation
it ude
I F
Ġst at
Ġnot e
C ha
Ġr om
Sh ow
Ġturn s
Ġra ise
Ġre nt
G O
Ġmark et
Ġ X
ver t
Ġas leep
IN K
ĠC or
ak er
Ġstud y
Ġbreak fast
Ġpap ers
Ġrestaur ant
Ġg reen
Ġwonder ing
Ġmed ical
Br other
re g
F ive
em pt
Ġcomp et
Ex actly
Ġphot o
Sha ll
s he
Good bye
E r
end er
um ber
Ġbott om
s es
and a
p ic
Ġ ought
al ity
Ġ ign
Ġstart s
Ġexc ited
An other
eal ous
B UT
B ig
o ved
Ġno se
ĠR ay
enc es
O L
ĠH on
Ġgu ilty
augh ing
B oth
f ather
g ress
ir ing
Ġup stairs
Ġconvers ation
Ġd ue
IN E
bs olutely
C ongratulations
Dad dy
ĠS an
Ġnatur al
Ġm erc
Ġf ile
th is
M ost
Wh oo
Ġbott le
Ġw ound
Ġr out
U p
ĠW est
Ġse ver
Ġacc ess
Ġgun s
P r
Ġs illy
Ġf em
g round
v ent
Ġknow ing
and y
Ġhe ld
m ission
b ack
Ġm um
Ġu nd
Ġanim als
Ġrespons ible
Ġn ature
ĠH er
as ed
p ose
Ġam ong
Ġaw ful
Ġto w
ell y
k er
Ġcap tain
Ġhop ing
B esides
Ġshoot ing
Ġcontin ues
F ind
ld er
ĠC al
l ook
r it
ic o
Ġgot ten
ce an
ood y
Ġag ent
pect or
E L
S on
Ġpo ison
Ġs we
ap a
Ġcharac ter
Ġweap ons
We re
ay s
ĠN ick
Ġdad dy
Ġgod damn
Ġneighb or
ell ig
ap er
Ġman age
ol ution
Ġshow s
P re
as ps
Ġkey s
Ġpl ant
Ġsc r
cell ent
ri an
Ġnum bers
ĠS orry
ĠH enry
Ġtell s
Ġm ix
Ġb oo
Ġgreat est
Ġgra b
ĠB ill
Ġwh om
Ġapp ear
Ġem ploy
Ġfly ing
Ġp ath
Ġst ars
Ġpo ck
Ġsha me
Ġcond ition
Ġinvestig ation
itt y
ra b
fess or
Ġdog s
B I
or ld
H ING
ie utenant
U L
Ġl angu
y ond
ĠH ouse
Ġpartic ular
Ġlead er
Ġd ry
Ġh ig
us ion
Ġlight s
Ġen c
Ġb an
ĠA f
Ġmil itary
ĠAB OUT
a f
Ġth roat
Ġphot og
uro pe
Ġwho se
fe rence
ĠK im
Ġcor ner
P h
Ġp ants
ĠG eneral
HE RE
c H
Ġin j
ri e
H ang
Y ep
Ġbe yond
Ġst ories
Ġp ort
us es
Ġfell ow
Ġre act
Ġsho ck
ĠQ ueen
s ed
om ed
it ions
ĠSt op
om pl
Ġv ir
Ġplan ning
Ġpre fer
Ġs ize
ĠC o
Ġes p
Ġc ode
Ġn orth
ES S
Ġru le
ere r
Ġo pin
z en
Ġf le
ac hel
Ġtri al
Ġcheck ed
Qu ick
s en
Ġt aught
Ġweek end
Ġapolog ize
Ġaw are
Gu ys
Ġuni verse
Ġli ed
Ġsc are
ĠS ec
Ġ2 5
Ġfre ak
Ġsold iers
ĠM other
Ġc ult
Ġn ine
iv al
ĠE very
Ġadv ice
ĠR ob
ard on
Ġbring ing
F rank
r ant
Ġ Â
Ġc ous
ĠH IM
ĠYou ng
ĠA nt
Ġwalk ed
Ġlot s
Ġne ither
ur g
H appy
v an
ret ty
it es
ro ans
Ġprep ared
D ude
W hile
im p
Ġsing ing
F in
or a
Ġsp oke
Ġsp read
Ġco ck
Does n
U ntil
ol en
Ġ1 4
Ġsur g
Ġeff ect
Ġs our
Ġto wards
Ġsever al
Ġs am
ĠJ ew
em on
int s
. ,
Ġcare er
With out
Ġsub ject
Ġatt ract
Tom orrow
W H
a ire
b ec
il ar
Ġr ub
St and
Ġhear ing
Ġide as
Ġb are
ic y
Ġli es
Ġbig gest
uri ous
oun ce
ĠS ee
Ġlea ves
Ġarrest ed
Ġcomfort able
Ġa vo
ad ing
od ies
ĠR ed
Ġsc ient
I nd
ĠTHE RE
E l
ist inct
Ġo dd
out ing
ĠW OR
ĠSc ott
Ġsac ri
ons ense
âĢİ .
Ġhe at
ĠM ac
ors es
Ġaw esome
ĠPh il
Ġf ake
Ġo il
led ge
Ġdro pped
B E
Ġr ac
ul ation
Ġhang ing
ruct ion
K S
W ELL
Ġp et
Ġam ount
ar c
Ġpull ed
Ġmurd ered
G RUNT
ee ch
Ġcom b
Ġc ake
Ġj ealous
Ġsm o
En ough
Bet ter
ĠR EA
Ġfl owers
Ġ2 4
Ġra p
Ġhur ts
Ġpower ful
am ent
Ġfuck in
is c
Ġon to
HE N
Ġdev il
Ã ĺ
R OW
f ield
ect ion
Ġbet ray
Ġte xt
bo ard
Ġbeaut y
Ġsn ow
Ġfol ks
a es
ho ld
Ġend ed
Ġch ief
ĠB o
Ġde g
Ġser ve
Ġinv ited
ont in
Ġpay ing
a ult
oo per
ust ing
ud d
Ġdep artment
ur t
Ġdri ver
rill iant
AR S
Ġaff ord
Ġp ers
The ir
Ġfar m
Ġclear ly
ĠT ake
ĠS im
Ġen v
Ġsurv ive
N ew
Ġemer gency
in cess
ĠON E
k in
ac le
Ġsc ience
l aughs
Ġr ings
Ġkid na
Ġhor rible
Ġdestroy ed
Ġd umb
fortun ately
Ġl oud
ict ion
w ith
ĠNot hing
Ġconcer ned
Ġc ig
ur se
ĠM ag
Ġbeg an
k n
IC E
Ġposs ibly
Ġpur pose
Ġdanc ing
Ġass hole
I A
ĠC han
b ell
n es
ha l
as ure
re l
Ġold er
ines e
Ġd ump
ust ed
AN S
Ġcreat ed
A P
Ġex pens
ip s
gg ing
ĠM ark
Ġiss ue
Ġc ream
Ġmo v
Ġmil k
Ġw is
Ġsu icide
Ġbull et
ve red
Ġst ab
ev in
T alk
Ġball s
" ,
ĠE urope
Ġcred it
i pped
as hed
Ġst olen
Ġde lic
Ġmatter s
Ġsweet heart
Ġgener al
f ace
Ġt un
Ġext reme
u ed
Ġli ft
Ġdes cri
Ġcrim inal
Ġf an
ra g
S ec
p han
g ive
Ġdisapp ear
res ent
Re ady
Ġchallen ge
ter ing
Ġnear ly
A RE
ĠD ID
Ġs in
ha nd
ĠS U
ĠP al
ĠJ an
F our
Ġbelieve d
Ġeas ier
ĠF R
pl es
i j
id ing
arr ator
A IN
c ho
ĠT e
Ġm ater
Ġplay s
Ġhead s
Ġbre aking
et ective
Ġexp ress
S ho
Ġwe ight
Ġpract ice
Ġlo ss
L aughs
g ie
Ġm ap
S ounds
iz ation
N one
Ġlangu age
ĠC r
ĠC ON
Ġsh irt
Ġ1 7
as ons
Ġnot iced
Ġv ote
Ġfl at
Ġcap t
ĠP at
i ver
Ġs uck
ac he
ep s
m on
Ã Ļ
Ġpro duct
ent ial
iz ing
Ġcop y
Ġw a
Ġs na
Ġag reed
ĠU ncle
Ġsoc ial
d ie
Ġf aster
ĠM aster
Pro bably
d on
re ak
all ow
Ġres c
Ġter ror
Ġsell ing
Ġcl im
" ...
i ation
Ġsign al
Ġrecord s
Ġdress ed
Ġpr oof
Ġt ape
Ġpl enty
CRE AM
C ut
al f
un ny
Ġcre ate
gg ed
Ġpain ting
Ġheal th
Ġs ou
Ġent er
Ġst orm
Ġlet ting
J im
ĠC le
Y EAH
Ġreal ized
Ġexam ple
ĠB ig
Ġpro duc
Ġopin ion
Ġfre ed
Ġesp ecially
Ġab and
ĠL a
Ġman ager
Ġdef end
ort s
Ġte eth
Ġse es
Ġset tle
Ġpiec es
Ġstri ke
ĠPL AY
v is
ain e
ch uckles
ĠE n
Al ways
Ser iously
Ġd ick
ĠL ike
As k
g ly
ĠC ho
ĠP e
ĠR ome
ap t
Ġrespons ibility
oo ps
hing s
ĠCar l
Ġn uts
at ors
Ġr oof
ĠJohn ny
Ġrese arch
Ġc rowd
om as
ĠM aybe
Sh h
co ver
Ġmov ies
Ġb ucks
ON G
Ġproper ty
n et
ou g
Ġf und
Ġact iv
ĠCh ief
Ġble ed
p ir
Ġgr own
L adies
ĠS EE
b ook
he m
ĠM ax
Ġmean ing
Ġh orses
Ġre ve
ĠTHE Y
Ġrecogn ize
Ġsome how
Ġcol or
T w
Ġf ate
Ġbut t
AT E
Ġb odies
ĠA ny
Ġhard ly
Ġfall ing
Ġa v
Ġout ta
ĠH a
Ġdes k
ric a
Ġb right
Ġp il
Ġtr uly
Ġins ane
ĠDan ny
Ġt ong
Ġpoint s
Ġl one
Ġst aff
ĠC at
Ġstay ed
Ġpret end
Ġstud ent
B aby
s an
Ġf right
Ġwe ather
ĠB ye
uck y
fet y
Ġex ec
ud ing
Ġ1 3
ord er
Ġsurg ery
Y o
Ġh o
ĠR ichard
Ġsold ier
Un less
Ch uckles
M ust
Ġp red
Ġre pe
Ġbr idge
Ch rist
Ġn or
il s
Ġwh is
ĠTH INK
Ġmod el
alt hy
D e
ra w
ĠH an
ick ed
ĠH am
Ġtur ning
u x
the y
Ġrel ig
ash ion
Ġtrain ing
Ġbra ve
I VE
Ġf ed
ell e
Ġqu een
Ġopen ing
U gh
E P
Ġour s
ĠFr ance
1 1
f l
Ġbe ach
Ġjust ice
Ġforg otten
Ġmon ster
g un
se y
ĠA L
ist ic
Ġnow here
Ġse ason
ĠSc ot
Ġtick et
Ġn et
Ġscream ing
Ġcommun ic
Ġsle pt
A bsolutely
Ġdisapp eared
ĠE X
Ġoper ation
Ġto il
ĠM ex
Ġatt empt
Ġcompl ain
Ġrece ived
r ong
ĠS und
D ear
Ġeas ily
Ġcous in
S P
as ion
ĠB oy
y our
ly n
Ġbull shit
ict or
Ġtot al
Ġcan cer
R el
m o
Ġ ver
Ġopen ed
J o
dd ie
Ġo cean
Ġsc hed
Ġfail ed
Ġmem bers
Ġg ames
Ġl ines
om en
Ġincred ible
i od
ĠG ive
he ll
it ation
op h
Ġfind ing
Ġfoc us
Ġb orrow
Ġp ool
EN D
OU ND
ĠSt an
ĠW H
AS T
it o
Ġst one
Ġr ough
Ġshow er
S S
v in
ĠAN Y
Ġl iter
ate ful
Ġdra g
ĠS A
ud ge
Ġbreat he
aes ar
c ious
Ġm ent
Ġd ating
ress ed
IT T
ĠSh ut
Ġperfect ly
Ġdem on
Ġa st
N E
A cc
Ġfuck ed
it iz
Ġapp oint
ĠWh ite
Ġg ri
Gu ess
d own
Ġsp eech
vers ity
f ord
w ill
ĠK at
Ġth rew
ĠS ch
Ġcur rent
G l
Ġpro f
ĠRo bert
Ġpock et
B el
ĠJ ane
Ġfore st
Ġmem ber
ĠS ome
St art
Gr and
Ġintro duce
are n
Ġreal ity
L ittle
Ġe ars
Ġexpect ed
m other
art y
Ġs en
Ġus ual
Ġsp ell
ĠSt reet
Ġdist ur
1 2
l ause
IM E
VER Y
Ġb ite
ri b
Ġwas h
Ġfav our
Ġu gly
ER ING
Ġesc ap
B en
ur ance
ac hes
ĠG U
Ã ¶
Ġw et
is f
IGH S
Ġreturn ed
ĠM ic
Ġmater ial
Ġche st
Ġrec ently
Ġbre ad
Ġconnect ion
Ġdeli ver
Ġm ail
an o
ict ed
Ex cept
Ġca used
Ġb ang
) }
S weet
IC K
ĠS y
Ġdam age
C ol
om in
um my
m et
p es
ee z
g ic
han ge
ĠG ot
E d
P aul
Ġs omet
Ġint ellig
Ġbr ings
Ġfollow ed
Ġpri est
Ġord ered
ĠEng land
I RE
Ġs outh
ve y
C HE
m ail
US IC
r id
Ġn on
S w
Ġdo ors
Ġhead ing
ili ar
R AT
om s
Ġtr ad
C alm
en ing
Do ctor
Ġstr ugg
OM AN
op s
Ġtem per
' ,
ĠCh inese
Ġend s
re nd
ct ors
Ġdist ance
T e
Ġm ut
Ġgood bye
Ġar range
ank s
ĠBl ack
) :
F ire
d oor
Ġt ie
Ġco vered
Ġoffic ial
ĠM s
Ġmurd erer
F l
ag o
Ġfing ers
Ġjour ney
b orn
Ġt all
er ves
Ġlike ly
il ies
Tr ust
k o
Ġdisapp oint
v ision
ĠS outh
Char lie
ĠM AN
m ond
ĠH aw
Ġtre es
i pp
Ġc ards
Ġfor ced
Ġcare s
ĠSt ates
AU SE
I nt
Ġthe ory
Ġd ise
Ġlate ly
Ġlone ly
Ġno ise
E asy
Ġtrans fer
es h
out s
ĠT ell
Ġind eed
Ġb rilliant
Ġl ed
g s
ĠD ay
Ġgr ad
Ġthousand s
Ġb al
Ġsoc iety
Ġwood s
B ar
Ġn ation
Ġtor t
re es
Ġsa ving
W AY
Ġdisc overed
Ġtong ue
U D
w as
ON NA
Ġinc re
Ġpain t
Ġstre ets
ar ant
Ġbu ried
aur a
Ġfant astic
Ġre lease
ind a
Ġm ood
Ġl oose
ĠH y
Ġru ined
Ġr um
Ġexpect ing
L ong
c y
st it
ĠB ecause
Ġche ap
Ġimp ro
Ġinf l
Ġcl ock
Ġnews p
Ġg rew
hing ton
AN G
Ġcomm unity
ar ily
Ġkind a
Ġdire ctor
P retty
or ney
Ġbel ie
ch i
Ġde fe
OU R
Ġdet ails
Ġthought s
Ġcr it
atc hing
Ġsweet ie
Ġt iny
re ly
Ġre venge
il ed
an ish
om ach
Ġun it
Ġche ese
Ġed uc
Ġst yle
Ġgen ius
ĠL AUGH
Ġpart s
P oor
Ġsend ing
Ġleg al
ĠS un
ian o
Al though
Ġring ing
u j
ĠM ur
ĠC OM
ce l
ĠF BI
t here
ro ad
ie ur
ĠH arry
Ġsha d
Ġdes per
ĠJim my
Ġspl it
ll a
Ġsa fety
I m
Ġp ure
leas ed
Ġopp os
Ġwhe el
Ġfind s
Ġwar ning
Ġpun ish
ain ed
ons ieur
F ollow
Ġ Ġ
Ġb at
Ġins ist
Ġprofess ional
on a
Ġind ust
ĠUn ited
D own
Ġ vers
Ġe p
Ġmy st
Ġob vious
Ġcas es
Ġorig inal
ĠT ony
on nie
ell a
CH UCK
Ġs ite
ĠJ ess
Ġcent er
is p
Ġlet ters
A gain
I d
l im
Ġright s
Ġper iod
Ġper mission
il ities
Ġfam iliar
M ichael
if orm
cl ock
Ġloc ation
F OR
Ġj u
Ġv ot
Ġre ached
Ġhands ome
Ġattack ed
ĠMart in
Ġhol iday
Ġfreed om
ir a
ĠG l
Ġpr inc
mm a
Ġdrink s
m ber
Ġsc ary
ĠAn ge
Ġve h
ok en
Ġhid den
V EN
Ġg ate
ĠM al
Ġdis g
ĠWill iam
B LE
ing er
Ġbare ly
H oly
Ġexpens ive
B ob
c us
Ġp in
rom ise
ul ate
ĠJ eff
Ġrun s
Ġstud ents
Ġmention ed
ĠBrit ish
p o
ess ed
pl ace
Ġfun eral
Ġbed room
ir on
ĠB ra
ĠW ILL
ĠSt eve
ĠV al
Ġchan ges
Ġfam ilies
atur day
Ġvictim s
b a
Ġa unt
ing ing
Ġcomm it
R o
ĠS ant
ĠG ONNA
ast y
Ġsand w
Ġn onsense
ant ing
Ġreg ular
Ġexc iting
T hings
Ġat e
THE Y
ĠMin ister
C o
P ull
Ġl ink
ĠB ACK
ie v
oc king
Ġansw ers
A G
S ub
Ġan gel
ĠC L
ĠT ra
ĠC ent
ĠD NA
â Ķ
Ġsu gar
Ġunder stood
Ġmem ories
âĶ Ģ
Ġst omach
St ep
Ġru in
Cle ar
ĠS al
ĠSt ar
ream s
Ġsign ed
Ġfem ale
J ul
Ġre asons
ĠA gent
ĠN e
Ġshow ing
ĠAd am
For give
Ġresult s
O b
Ġf ought
Ġp age
ĠFr iday
b or
Ġc os
hi ld
AN K
so c
Ġmount ain
ha les
Ġn aked
Ġcare fully
ens ion
Ġgentle man
Ġsha pe
Al so
Ġconv inc
ĠSund ay
... !
ec k
Ġsp are
ĠCol onel
s pector
AT ION
ffic er
T onight
ha med
Ġco at
ream ing
An n
Ġbur ning
ĠEx cuse
e in
Ġt ap
Ġo w
ĠS on
iec e
Ġaff ect
OT H
Ġdi am
Ġtick ets
Ġdivor ce
F ucking
Ġt im
Ġh om
T en
Ġf irm
Ġnight s
Ġgr ateful
Ġcompl icated
Ġstate ment
A K
i est
H ad
S uch
ĠM at
Ġair port
Ġprep are
Ġanc ient
Ġavo id
Q U
Ġl ic
ĠN orth
ĠHon or
r ated
Ġc ere
Ġfore ign
he red
ĠD ep
Ġhapp iness
AM E
Ġart ist
Ġmedic ine
G irl
al i
ĠC O
How ever
bb ed
k ins
Ġg arden
ĠL ove
Any one
H on
ĠE ast
hi ps
ER E
ĠSu per
R ep
b les
ĠS arah
ick y
ĠGO ING
Ġgrow ing
Ġm ale
Ġby e
A lex
G AS
Ġd ies
He ll
Ġun iform
Ġbu ying
az z
ĠCar ol
Ġbreat hing
Ġh ired
Ġlo yal
Ġbec omes
At t
Ġbeha v
Ġp air
ul a
Ġrem em
TH IS
S ix
ĠFran c
w ho
Ġopen s
k et
Ġpass ion
Ġhum ans
C ool
Ġc art
LL Y
Ġfact ory
Ġegg s
H A
Ġb oring
Ġf if
th ur
entle men
Ġtoil et
d id
Ġdis p
Ġra ised
Ġperson ally
D avid
O Y
Ġf ancy
ĠB er
ul f
Ġgu arant
Ġcho se
Â Ŀ
Ġcour age
Ġad ult
Ġtou ched
Ġadv ant
sp ecially
Ġaud ience
Mor ning
Ġhig her
Ġcig aret
Ġp ill
Ġgo in
Ġknow ledge
Ġbro ad
Ġg ather
Ġsur round
Ġcirc um
het ic
Ġc itiz
be red
ING S
Ġstr ang
ile y
Ġexpl os
g en
Ġdes ert
Ġcent ury
al ter
Ġper cent
Ġsecret s
t hy
ack s
Ġless on
U H
t it
al se
ĠM O
ĠD a
Ġass ume
Ġh ug
Ġsuff er
Ġfill ed
Ġter ms
Ġt ear
Ġf ro
Ġhead ed
Ġsl ight
Ġphot os
s er
Ġj oy
ire ctor
sec ut
1 5
ar l
Ġmother f
ho lic
ĠA M
ry ing
Ġwait ed
Ġfl o
Ġmag az
S im
Ġme al
Ġpos itive
Ġbas ically
ĠScot land
ĠT y
ĠCh ris
a a
Ġl au
ĠS E
ab les
Ġsour ce
S ame
ar n
id a
Ġas hamed
ĠW il
ĠW HO
8 0
al es
ĠM il
ĠN at
ĠN OW
Ġbri ef
K n
f fe
or ter
ĠM o
ĠR oy
Ġbel ow
P eter
Â ¡
es se
ING ING
D es
Ġo pt
Ġp ee
ĠL E
Ġaw ake
Ġdire ction
b ar
ĠS OME
ĠR oman
Ġt it
Ġc urious
ol a
Ġbu zz
Ġdes p
ond ay
Ġres ist
Ġplan ned
Ġgi ant
Ġcompet ition
S HE
Ã ¡
ĠH IS
ĠP ete
Ġro le
Ġenem ies
i as
st ers
Ġsp ring
Ġpatient s
Ġp u
Ġpl ate
Ġfix ed
v y
v est
ĠP er
ail able
ĠB R
Ġjob s
Acc ording
F eel
Ġm ic
Ġin fect
ĠW ould
ĠN a
Ġill eg
P H
ĠL ieutenant
Ġbelong s
Ġst ock
ink ing
Ġcle ver
E ver
um s
Ġpro gress
bel iev
Ġrom antic
E h
Ġa h
um an
ĠSer geant
Ġdiam ond
im in
all ey
ĠB a
Ġr at
pl ay
RE AT
Ġrep resent
ĠPro fessor
Rel ax
e ven
Ġtr ade
Ġtra ve
E m
c ast
ar ies
ĠM el
Ġdirect ly
ĠHigh ness
g a
our t
Ġtra il
B oss
g ot
Ġa ch
Ġdo ctors
ĠT IME
ĠW OULD
ck s
AS E
L ife
Ġh ous
Ġj erk
iv id
Ġsus pic
Ġsat isf
Ġr ate
Ġche m
Ġdeal ing
m are
Ġacc ording
U RE
ather ine
Ġim age
ĠJapan ese
M ike
in n
Ġl ad
ĠC aesar
Ġn ational
ĠR ose
iz za
Ġbad ly
OW N
Ġreve al
Oh h
Ġyoung er
ĠTom my
ĠS il
Ġlo ver
enc ed
M O
Ġu nt
ble ep
K now
S IGHS
Ġm ort
Ġg ro
ĠI D
ĠB ur
Ġpolit ical
Ġb ound
ĠM ars
ra ft
per or
Ġdr own
Ġbas ed
f ire
if orn
Ġoff ered
Ġt ip
ĠR yan
ĠJ ake
Ġwall s
Ġconcer n
J ames
Ġd ish
Ġn urse
ĠB et
ĠR am
Ġsqu are
hol og
iron ment
Ġdo in
ĠL ady
Ġguest s
Ġsoon er
Ġsou p
1 00
C are
f ice
per ing
Ġhard er
Ġscrew ed
Ġcelebr ate
Ġj ury
C O
ĠT wo
ĠR os
Ġwin ter
H y
ĠS HE
ĠD ev
ĠW ay
U ncle
Ġb uck
Ġg or
ord on
# #
ri g
ri ve
Ġyour selves
Ġde b
ol s
Che ers
E specially
Ġplay er
Ġcomm itted
Ġdem and
r ict
s hip
ri al
her n
our s
Ġswe at
Ġsha ke
an ge
Ġf aces
Ġwatc hed
ĠChar les
ĠInd ian
Ġresc ue
B ER
Ġus eless
Ġwho re
Other wise
um ents
Ġche f
col ate
S end
Ġm ama
ĠS qu
iforn ia
Ġbec oming
Ġdise ase
i ven
ĠO FF
Ġassist ant
H ope
m ar
ĠS AY
ec ial
ĠAnd y
ĠPr ince
Ġd ata
Ġr ush
Ġun f
Ġstrong er
C OME
Ġh unt
Ġvac ation
C omm
Ġp ounds
Ġst ood
w are
al ian
ĠM um
ĠM ama
ĠWas hington
ĠFR OM
A H
il a
Ġbut ter
ĠY e
Ġins urance
Ġb i
Ġpop ular
believ able
Ġth ief
Ġfoot ball
4 0
W oman
Ġdec ent
Ġgra ve
ALL Y
Ġcarry ing
Ġneighbor hood
Ġmo b
Ġmo ves
Ġcr ash
Ġresp ond
E at
ir o
ĠA p
ĠD el
Ġtra p
Ġtele vision
N arrator
ĠR od
ĠK ore
LE T
Ġchar ges
L uc
ĠR eg
Ġcap able
Ġsuccess ful
W ake
Ġm aid
ik a
Ġtreat ment
OD Y
Ġslow ly
Ġsuff ering
u ary
or se
ĠE N
Ġkick ed
Ġfort une
Ġdelic ious
B ra
Ġdown stairs
Ġchan ging
P at
r ang
Ġsc reen
Ġconf used
Ġp icking
atc hes
M ark
b age
ho d
ur a
I P
b ie
r s
ĠIn tern
Ġadvant age
C oming
Ġinc ident
S ur
ge ous
Ġr ise
H it
b id
Ġw ire
Ġbird s
C or
ĠI F
Ġp owers
ant ly
ĠS a
end ent
ĠR E
ĠJ er
Ġvis ion
Ġmir acle
ĠPLAY ING
Ġcircum st
Ġsp o
Ġother wise
ĠAl ice
Ġcap ital
Ġburn ed
Ġto ast
Ġf alse
ĠC OULD
Ġwho ever
Ġest ab
M aster
P olice
ĠP RO
ag n
Ġfriends hip
p et
ed s
ĠD en
ret t
Ġrob ber
L ord
âĻ ¬
Ġche cking
ĠTHE M
ĠGO OD
Ġach ieve
ĠM ont
ĠC OME
ĠD ong
ĠP et
Ġass ign
Qu iet
ĠLO OK
ut ter
am ing
ĠV ir
Ġtrad ition
Ġre ck
R oger
st on
Ġex act
Ġown er
Ġval ue
kn own
Ġthe rap
Ġg y
Ġbe ating
Ġal co
ĠR O
ĠK en
Ġnight mare
Ġlaw s
Ġexper t
j a
Ġt ears
at ives
Ġgood ness
Ġapp arently
Ġmad am
Ġjour nal
App arently
Ġm ult
ĠA my
ĠC all
Ġse al
Ġco inc
Ġsacri fice
Sho ot
A IT
N AR
Ġl aid
ord in
Ġinv ite
ĠAl an
Ġinst ruct
Ġav ailable
Ġp ills
IS H
Ġbag s
ĠSm ith
J oe
M art
W OMAN
Ġw ise
ĠA ir
Ġsh r
W on
z o
Ġb ones
as hing
Ġdes ire
B u
Pl ay
Ġenv ironment
B ea
G ET
S ave
Ġd ust
Ġu na
ĠS aturday
So on
Ġiss ues
Ġt ail
Ġw ide
Ġhe althy
Ġproper ly
Ġglass es
l ock
Â ª
Ġre leased
Ġac qu
Ġcoll ea
Ġir on
o is
Ġb one
Ġf ra
ĠD ave
Ġcook ing
Ġbleed ing
Ġl at
us hed
ĠW orld
ĠR ock
ree k
ub lic
Ġ6 0
Ġhy p
Ġphys ical
he st
ĠJ ac
Do or
Ġdro ve
" !
Ġbr and
Ġset t
Ġdist ract
Ġp a
Ġsh ift
Ġcl oud
ip le
Ġsw itch
Ġescap ed
ep ing
ĠCh ina
M Y
u ries
ĠE ve
Ġrem ains
Ġrec omm
Ġsong s
Ġpal ace
ĠW ERE
ĠR a
Ġunder w
Ġcomp an
Ġfall en
Ġsim ilar
Ġdet ail
Ġtechn ology
ĠRuss ian
Ġt ied
Ġr ow
ĠL ittle
OU S
Ġcab in
Ġphotog raph
B ad
D rop
J ake
M c
ut iful
Ġsc ore
ounc er
Ġextreme ly
am i
ĠS l
ĠH olly
ĠK evin
uss y
a ign
e z
Ġfor ces
Ġtr oops
ag ne
Ġcr uel
Ġdet ective
Ġ ess
Ġlead ing
Ġbill ion
s it
Ġp ity
um a
Ġcha p
the n
Ġsex y
Ġoffic ers
Ġmod ern
F ran
R ed
Ġw oke
Ġb ike
Ġre ward
Ġsp in
Ġviol ence
Ġjack et
ud y
Ġjo king
ĠDo es
Per fect
am ie
Ġsex ual
u be
ĠR oger
ĠJ ones
Ġcon cl
iz z
Bel ieve
5 00
Ġheart s
ĠS hi
Ġpr ide
In st
Dr ink
Ġmyst ery
Ġsign s
Ġstud io
H OW
ĠT ur
Ġshot s
Ġtem ple
Ġdisg usting
M en
M any
U se
v ille
Ġw itch
Ġj ew
ĠH old
ĠR oss
c hy
ĠA R
Ġal arm
ĠE ll
Ġgr ant
Ġdet ect
y eah
ic ago
Ġent ertain
Ġprotect ion
Ġdeep ly
L I
b on
is ions
Ġman aged
H ar
Ġin it
Ġre b
Ġme l
eg as
u an
ĠJ in
ĠO VER
Ġapp ears
sh ot
Ġdet erm
ĠWho a
at ory
is ode
Ġha m
ul ance
ĠN ice
Ġtra pped
ĠSp anish
Ġarri ve
Cl ose
ill a
ĠF uck
ul ed
Ġche er
Ġgrand father
omed ay
Ġappoint ment
ha ve
ri pt
ur al
ĠH ol
us an
Ġmill ions
Ġsal es
Ġbab e
ĠT w
ĠB U
Ġsa il
ĠV ictor
Ġpiss ed
an n
ĠG old
Ġb ored
Ġg al
ot ic
ill er
ĠO R
Ġaff air
p lease
Ġdec l
ĠB y
ud dy
ĠTh omas
Ġhonest ly
p ed
Ġ :
he w
Ġmove ment
Ġfil es
Dan ny
Ġli ar
Ġdep ends
Ġtreat ed
D ef
Ã ³
Ġan ger
her ry
Ġlo ad
ĠP olice
Ġcamp aign
x y
y o
ill ed
ĠB illy
ĠR ep
Ġstop s
ra in
Go ing
alk er
et ch
ge on
Ġte en
app ing
te en
re m
Ġl ake
Ġl ack
Ġmet al
ertain ly
Ġliter ally
Ġveh icle
re ck
Ġtrans port
ĠM onday
Ġex ha
Ġtra ffic
E OP
Ġw ave
Ġb on
Ġp ump
Ġh unting
Ġst ress
Ġbr ide
Ġun us
Ġwar n
Ġreport s
Ġsur face
Ġbab ies
er ved
ĠM ed
Ġconnect ed
G entlemen
M um
s k
on se
Ġb ond
Ġst ret
ĠA ust
No pe
ak i
ĠBE EN
Ġocc ur
h oo
u f
ri l
ĠJ ose
Ġann oy
Ġneg ot
ĠFranc is
Ġsure ly
ĠSt ep
Ġmind s
Ġ3 00
OT HER
Ġsent ence
Ġship s
Ġvict ory
Ġeff ort
ĠMex ico
EOP LE
1 9
M s
Ã ±
Ġp iano
Ġatt orney
az e
Any body
Ġpull ing
Ġed ge
Ġb ail
Ġfor mer
ĠD oc
Ġsa le
ĠJ erry
be y
Ġexper i
Ġrece ive
G RO
Ġl ower
ĠW in
Ġtal ent
Ġind ivid
Ġstep s
Ġelect ric
Ġdesper ate
ĠP apa
qu es
Ġfin anc
Ġconf irm
Ġrev olution
Ġsepar ate
Ġw ow
ha s
ic an
Ġas ide
Ġatt itude
Ġsol ve
C r
ĠA unt
Ġdef ense
Ġmot or
Ġmir ror
Ġcoun ter
Ġb um
You ng
ĠL aw
Ġpr incess
ens ive
ĠAr my
RAT OR
ĠR on
) \
Ġput s
Ġstr anger
Be ing
Ġter m
Ġpres ence
Ġking dom
S n
t own
u z
ĠD E
Ġass um
Ġcho colate
ĠGU Y
E ither
on i
Ġc orn
ĠO UR
Ġag re
ag on
Ġdec e
Hon est
j o
ĠI ike
Al most
Ġbe ast
ĠO w
Ne ither
ontin ues
Ġsched ule
Ġlic ense
ĠE ddie
Ġ2 1
Ġra re
Ġear n
Un fortunately
Ġilleg al
, ...
N ah
W HO
Ġw est
Ġs ed
Ġcar ried
OM ET
ĠChrist ian
li ver
Ġamb ulance
ĠCal ifornia
ot ion
ĠC ount
Ġbut ton
Ġchan ces
Ġacc ompl
pr ise
Ġstar ing
Ġconvinc ed
m ark
Ġf ashion
ĠJ ae
og an
the w
ĠHA D
ĠV ery
ĠBr other
Ġexpl an
rop ri
itc hed
Ġthrow ing
Ġli ps
un ior
ĠE r
Ġsn eak
ĠAf rica
Ġgo al
ĠW ow
ĠL ight
ard o
Ġdest iny
Ġsmo king
ĠW AY
Ġsp oken
Ġun p
THE RE
Ġdark ness
f r
er a
Ġli qu
Ġcon side
ĠNE ED
Ġprec ious
Ġrepe at
L ou
ay lor
ic ate
all ed
ĠT im
Ġ5 00
Ġmist akes
Ġconside red
Ġw ha
Ġu lt
S l
Ġc y
Ġmy ster
qu ar
Ġtalk s
ĠU N
Ġfull y
6 0
s m
Ġt ank
it ar
Ġn ut
ar row
ĠM att
Ġinter n
Ġlead s
Ġembarrass ing
i ber
Ġsuc ceed
ro s
Ġas soc
ag ing
Ġad op
w hy
ur d
ur ning
Ġwhen ever
Ġwar rant
Ġspec ies
Ġref use
Ġpolit ics
Ġcustom ers
Ġp izza
ĠT ed
ĠD etective
Ġsc en
Ġsl a
Ġhat ed
Ġcho sen
TH ING
bb ing
m iss
Ġp atter
ĠO k
Ġsol ution
Ġs ew
Ġrem ove
ĠComm ander
Ġmount ains
Ġperform ance
M ama
l oe
ĠD es
ĠH uh
HE Y
Ġco ast
Ġsy mb
Ġwin ning
Ġexc hange
Ġsmell s
Pl us
Ġsteal ing
Ġp ie
ĠS and
Ġpr im
Ġass ault
ID E
Ġlo ving
Ġcon cent
ĠV egas
Ġra bb
Ġprov ide
E ng
m ate
Ġb order
Ġal ert
Ġpl us
hi a
Ġcont est
Ġrout e
r ance
Ġd irt
ĠO oh
Ġpleas ed
A meric
Ġg all
ĠD OWN
ĠIt alian
Ġsho pping
lic op
ĠIs land
Ġgod s
Ġaccept ed
Ġpan ic
CHUCK LES
a way
h m
st al
ĠD oug
ag ger
Ġfl ower
Ġequ ip
Fin ally
r ad
Ġf asc
ver age
Ġexper iment
Mom my
Ġant i
is her
Ġnot es
ĠF rom
Ġtr ace
ĠAmeric ans
umb ling
Ġclos es
ĠLe on
Ġhundred s
U E
sw er
Ġcircumst ances
ab e
Ġgu ards
Ġspend ing
Ġyell ow
Ġpus hed
H alf
Ġhe av
ĠC ap
Ġab ility
Ġf ab
un ter
NAR RATOR
B Y
F ree
Ġth in
ab eth
Ġfl ag
Ġord inary
Ġcamer as
2 00
al a
ĠS en
ĠF ine
Ġex cellent
Ġcon c
Ġconf ident
a ud
z ing
er able
Ġg ain
ĠJ ean
Ġsc ar
Ġcreat ure
Ġevent ually
Ġmerc y
Ġnet work
Ġsandw ich
l en
ut ation
ĠM i
Ġeat en
DO OR
Ġincl uding
l an
Â ł
om fort
ĠB uzz
ĠK y
Ġhelp s
Ġkind s
Ġreg ard
Ġclean ing
ĠT R
ĠE VERY
Ġar ch
Ġconv ince
cH FFFF
Ġwis hes
ĠS ighs
ĠA pp
ĠL isten
Ġsp y
Ġpart ners
gg er
Ġdoc ument
P ING
Ġsister s
Ġh orn
ell ing
Ġbl ast
Ġwh ist
Ġser ved
Ġatt end
Ġbra ins
Ġaband oned
Ġunus ual
B OTH
g as
in ting
Ġy o
Ġtr ash
ĠCl ark
GAS PS
P EN
Ġf ishing
ri er
ĠT ime
Ġcon ference
ĠGr ace
Ġrock s
Ġinfl u
M on
ha b
Ġm r
Ġst airs
ig er
Ġshould er
Ah h
ĠBr own
Ġjo ined
Ġest ate
ĠLou is
con om
Ġtemper ature
u i
w hen
Ġs ucks
Ġar med
ĠLe o
Ġsil ence
M ax
ha i
an ny
ĠS ay
ul se
Ġcl ue
Ġun s
Ġbre ast
Ġpass ing
W ork
Ġn ic
Ġj unk
Ġte aching
EA D
- (
C AUSE
M ight
t in
ap s
Ġset ting
Ġpar king
Ġz ero
Ġsc ript
Ġmay or
Y et
i ac
i ance
od d
Ġgr ade
anna h
Ġcha in
Ġwin ner
En joy
Ġmix ed
Ġbehav ior
ĠT ELL
ĠH OW
Ġint end
Ġinst r
Ġoppos ite
m usic
ab ility
ĠBob by
Ġpil ot
i pping
Ġw olf
or i
Ġon line
Ġar g
Ġeng aged
Ġprison er
Ġsil ver
Ġl it
Ġser ies
Ġequip ment
G eorge
L ight
Ġa im
ar o
ber g
Ġco ach
Ġele v
Ġentire ly
Ġmis under
tit les
- [
E ach
l ies
se qu
ne ver
Ġuse ful
AS S
Ġbas ket
r ade
le v
Th ought
Ġex erc
Ġrid ing
Ġcre ep
Ġthr own
Ġnewsp aper
f le
k now
Ġb ust
Ġha ck
op y
eep ing
ĠCh urch
cept ion
Ġmess ages
Ġins ult
Ġgrand mother
Ġdev ice
Ġsil ent
Ġble w
H enry
O ld
Ġe ast
ĠB ang
ĠP ol
Ġfl ash
ues day
ĠInd ia
omp any
Ġauthor ity
Ġme chan
ĠH ot
ĠMom my
Ġpur s
Ġprop os
Ġmass ive
H m
O ff
ĠH ug
Ġsee k
Ġde bt
Ġunderstand ing
Ġadv ance
Ġve get
Ġda wn
oph ie
Ġb atter
Ġpr int
OR T
Ġcoll ap
Ġmed ia
Ġterri f
Ġmagaz ine
S il
S low
S CREAM
Ġv amp
Ġpo et
LAUGH S
Ġdeg rees
Ġd ed
Ġf rank
Ġli br
Ġsh outing
Ġback ground
Th ough
ug s
Ġra il
Ġroom s
Ġbast ards
Ġappro ach
Ġguarant ee
b ly
Ġconf idence
ĠMaj or
Ġh ill
ĠB arry
ĠSt ate
Ġgar age
Ġexplan ation
b an
Ġc e
ĠT urn
res p
Ġcr own
Ġconf ir
g l
Ġc ure
ĠT ae
ul s
Ġpsy c
Ġemot ional
Ġquar ter
m ony
am in
ĠB el
ĠCh icago
Ch ief
ĠDan iel
Ġran ge
secut or
g ment
Ġ et
Ġm ile
Ġyou th
Ġit em
ic ian
ent ure
ĠM us
Ġcl in
A C
Ġs em
Ġs ons
Ġkn ees
Ġde light
Ġcl own
Ġbl ank
Ġtest s
Sp eaking
Ġtre asure
bec ca
re nder
See ms
Ġeng age
Ġident ity
l ished
ĠC HE
ĠB aby
ĠO ff
Ġsear ching
H aven
t han
Ġc ooper
at hy
ud es
Ġwall et
Ġremem bered
E X
F red
Ġ eter
Ġp ardon
ke ep
ind s
ian a
Ġapp lause
EA KING
Ġn ail
Ġk il
Ġst ink
ĠW es
Ġsa v
Ġcha se
R es
l aughter
Ġw ond
Ġb om
ll ing
Ġc ro
ong ress
Ġfr uit
Ġev ents
uk i
Ġpus hing
A in
Y ES
w hile
Ġre he
Ġact ual
Ġpot ential
he y
as ing
ĠB UT
Ġlo g
ĠJ on
Ġcou ch
A II
l iv
re r
Ġp unch
ow ing
Ġal ien
Ġhous es
as es
ĠM ORE
ĠH ill
uck ling
anc he
ĠCar ter
Ġmid night
Sp eak
Ġdefe at
A W
F E
ot ed
uc le
Ġbr own
Ġchild hood
Ġtele phone
Ġrobber y
i pl
Ġd ea
Ġp it
Ġth rill
ĠT or
ĠR i
ĠK eep
Ġsl ip
Ġpri or
Ġcoinc idence
N Y
Ġs an
ĠJ ason
Ġinter rupt
Â¶ Â¶
Ġresp onse
Ġfail ure
Ġcow ard
r ite
ĠS ing
It s
Ġno vel
Ġqu al
Ġbel oved
Ġbeg ins
GRUNT S
G un
Ġn a
ĠH arr
ĠL ET
ĠP a
ĠK elly
stand ing
Ġhur ting
Ġimpress ion
b ow
re ec
Ġan ni
Ġj e
Ġsec ure
Ġmag n
for ce
Ġknock ed
Ann ouncer
al th
ĠM eg
ĠG reen
Ġpl ain
OU N
Ġind ep
Ġ8 0
T ra
u a
Ã ¨
Ġsl ave
duc ed
Inst ead
I AN
Ġr ude
ag ine
ere my
Ġlaugh s
ic ing
ĠD am
ĠG ar
ĠN ational
ĠY ear
Ġconf ess
Ġhon our
Ġsecret ary
Ġtw ist
Ġsol id
Ġw ings
ĠM AKE
ĠB udd
Ġro yal
Ġhat es
M o
o kay
Ġn asty
Ġre ject
ĠG ary
Ġfl esh
urs day
Ġp unk
ĠM ount
Ġlo an
Ġche ating
Ġw id
im a
ĠM USIC
itt ee
ĠHe ad
Ġmoment s
Ġmotherf ucker
co ff
Ġtem por
ĠAb out
Ġocc asion
Care ful
Ġagre ement
N OT
as ha
ĠT ri
ist ry
An swer
Ġhigh ly
L a
O S
b ur
w ar
ack ing
Ġkill s
gg y
Would n
Ġann ounce
ĠLuc y
look ing
GRUNT ING
G eneral
Ġt end
Ġthe e
en ch
ĠD ick
Ġdep os
D ON
R ec
Ġh itting
ac on
ĠM id
ĠA G
ĠB u
Ġim pl
og rap
Ġcont ain
Ġstand s
Ġindust ry
Ġli ber
Ġstr uct
P ick
Ġto y
ase y
Ġrep utation
ĠME AN
Ġdisappoint ed
7 0
D el
Ġp ink
Ġwas ting
ĠE ric
iz abeth
Ġdis aster
Ġtun nel
Ġto ward
en ger
Ġth y
Ġj am
ĠC am
Ġfriend ly
Ġass ass
ost er
Ġfall s
ĠAn na
Ġclos ing
A p
ly ing
ĠO ut
ip al
Ġter rit
Ġposs ibility
Ġkiss ed
Ġsomet ime
b um
i ated
Ġwr iter
M oney
Ġ ing
us ive
id ering
Ġsh y
ĠR achel
ĠJ en
Ġcount ing
Ġmess ed
Ġsystem s
Ġstat us
ITT LE
l aughing
Ġhe licop
at ers
Ġpr ince
att oo
Ġla unch
Ob viously
Ġe conom
Ġdo zen
ĠL isa
Ġcont roll
OR N
IT Y
R ay
b es
Ġt ent
Ġs ides
Ġl s
Ġh omes
ĠB O
ord inary
Ġbel t
Ġmust n
TER ING
Ġintellig ence
if ts
Ġwar ri
Ġmark s
A dd
ĠT AKE
Ġro pe
Ġwar ned
Ġmost ly
Ġlat est
Ġt ask
Ġwhere ver
ĠBr ad
AL K
A ye
Ġwork ers
IS S
Ġcust ody
w a
an i
Ġh oly
ic les
ĠC oll
ĠC ourt
ĠH im
Ex cellent
Ġwind ows
h is
u is
ar ge
ad o
Ġreport ed
Ġpur se
H ands
r ish
ot o
Ġha bit
Ġar rang
ĠV an
As s
Ġfell a
gr unts
Ġden y
Ġcere mony
H ard
i able
ha ppy
Ġy ard
Ġf ulf
ĠF el
K im
ri el
vers ary
Ġtrust ed
gy pt
W O
in er
Ġli f
Ġr hy
Ġgr ass
Ġph il
Ġpol icy
Ġlear ning
Ġment al
c raft
ing o
ĠT ex
Look ing
RE N
ian e
Ġsk ills
Ġexec ut
Ġw reck
ad em
art s
ĠW oody
Ġpro ceed
Ġcor por
ĠBl ue
Ġl ung
ĠHe ll
Ġchat ter
D ER
M ag
P ass
l ig
am atic
ĠD AY
Ġfl u
Ġdis cover
= =
D is
Ġm at
ĠM u
Ġr ice
ĠH mm
Ġag ents
ap ers
ber ry
Ġsho e
Ġcir cle
ĠEm ily
A nt
ĠD ec
Ġtr unk
be at
Ġrem ote
Ġcle ared
Ġfact s
Ġleg end
ĠWh ich
Ġvir us
D arling
M ind
b re
Ġb esides
Ġpart ies
Ġstr ate
Ġref er
Ġm ask
us hing
Ġgo sh
ĠP ut
ĠJ osh
ĠREA LLY
ha ll
Ġhe l
ag ue
Ġ2 3
Ġass ure
Ġra pe
Ġbeat en
OMET HING
j i
p se
w oman
Ġth ick
Ġli fet
ug ust
Ġcomp lex
Ġcha sing
Ġlead ers
Qu ite
Ġfil ms
âĢ Ķ
ĠDep artment
ĠVir gin
ropri ate
B O
I ES
Ġm er
Ġcou nc
Ġdec isions
B o
ll y
as p
ter y
ĠB Y
Ġju ice
c ial
m ir
Ġb ump
Ġr ot
ĠH ank
ĠF irst
Ġmet hod
Ġbetray ed
coff s
Ġh ire
Ġe lder
ro ke
Ġtit le
D am
F riend
M usic
W HERE
b ird
u ate
Ġs alt
our se
Ġex it
Ġpro ced
Ġv ar
Ġmon key
Ġspec ific
Ġsto pping
Ġgold en
Ġbase ment
C ertainly
Ġn ucle
ĠB or
Ġtr icks
Ġcell s
ĠEm peror
yl an
Ġdel ay
J an
Ġn erve
Ġan x
ĠW oo
Ġsp orts
Ġro se
Ġun known
Ġfour th
ĠAt l
ffe red
1 4
N ick
Ġw ins
pp ers
Who ever
Ġ2 2
Ġstay s
ĠCh uckles
ĠGrand ma
c ar
Ġb es
om er
Ġfor th
ĠTh ree
ĠAr thur
Ġfre qu
Ġclos et
Ġcost s
Ġdeli very
Ġf uel
ĠH ay
ĠN ic
ĠN az
Ġcut ting
Ad am
Jim my
Ġalco hol
f ish
Ġ ou
Ġjo int
Bl ack
Ġpot ato
. !
M ary
f oot
k ward
Ġt attoo
Ġs omeday
Ġg ig
Ġg ear
ĠH all
ĠJ ung
Ġask s
up s
Ġgl o
Ġocc up
Bea utiful
Ġsett led
B reat
U s
m osp
Ġp ound
Ġar gue
Ġcr is
Ġwound ed
F ight
ĠR ad
Ġsc an
Ġsw ing
Ġref used
Sec ond
Ġrelig ion
G ee
u ous
Ġfor bid
um mer
ew is
Ġyell ing
Im agine
S ister
a ah
e er
Ġact or
Ġsupp ly
olog ical
Ġsn ake
Ġele phan
ĠBar b
Ġign ore
ĠSec ret
Ġfright ened
L ater
R ob
c ut
n on
u able
Ġf ever
im um
ĠM er
ĠD irector
Ġv ul
act ion
Ġres our
Ġgar bage
Ġclim b
Ġstrugg le
Ġshad ow
Ġrecomm end
ĠHA PP
erv ation
Ġeduc ation
g ers
in ner
ut ch
ĠA ng
ĠBr uce
Ġins p
Ġcast le
Ġvers ion
Ġchar ming
SE L
Ġty p
Ġpunish ment
i ar
ac ing
ĠT re
Ġwant ing
Ġun ion
Who se
Ġmin ister
ĠRo ad
Ġuni que
Ġjump ed
i os
Ġst ub
ĠN or
St upid
Ġstud ying
Pre p
Ġreact ion
ĠCON T
C AR
Ġp ow
Ġsu ffered
Ġsqu ad
Ġcult ure
ĠDID N
omfort able
N umber
P apa
as er
ĠL ITTLE
ven ue
are well
Ġsp ort
ian c
Ġgrand ma
John ny
Ġimpress ed
Ġchamp agne
Pre viously
Ġb ury
ĠI m
ĠN ever
Ġend ing
Ġcra w
Ġent ered
Ġtw enty
Ġmurd ers
Ġself ish
Ġp ussy
ĠL aura
Ġshe ll
ud ed
RE E
ub a
Ġaut om
Ã¶ u
Col onel
Ġlibr ary
t es
om a
and al
Ġsw allow
ĠIn spector
Ġspeak s
Ġthreat ened
um es
ĠK ate
ounc ed
Ġphotog rap
B ODY
J ess
p ting
Ġm ister
es ter
Ġsurv ived
Ro bert
W ar
Ġcon qu
Ġpre vent
Ġconcer t
Ġmain tain
Ġenc our
Ġlifet ime
S arah
m ans
r ating
Ġo ption
am m
Ġshe l
Ġhow ever
Ġ9 0
Ġviol ent
Ġshar p
Ġfinanc ial
K iss
N eed
Ġd ent
ĠA sh
ul ated
Me et
Tr ans
Su per
Ġmyster ious
Ġp le
Ġcan dy
ra zy
ĠW HEN
hi b
Ġprotect ing
Ġlim it
Ġswim ming
M ine
w in
Ġre view
Ġfell as
Could n
n ic
Ġg amb
ĠL uke
G rab
g irl
ĠW ant
ab or
Ġpro s
Ġrem ark
Ġ19 9
Ġcounc il
C ons
Ġg uts
Ġbe ef
al ty
ri a
ri v
ĠH it
Ġcon sequ
Ġgr ace
Ġjo kes
Ġheav ily
d am
Ġdec k
Ġcond itions
Ġcross ed
B ill
Ġto oth
ĠG reg
Ġri p
Ġfro zen
s hi
and om
ol ves
Ġqu ality
ĠCl aire
Ġuni versity
g ood
Ġpl astic
ĠO fficer
ord s
Ġgreat er
Ġmic ro
Honest ly
. ]
Ġpass port
God damn
ron ic
Ġwitness es
Ġbal ance
2 5
I V
M M
ĠW all
ĠU p
Ġur gent
Ġcoun sel
R et
T im
Ġth ou
han t
Ġshe riff
Ġsa uce
ĠK ang
pect ed
ĠAn n
Ġstar ving
Ġcris is
E ight
Ġd im
Ġh its
un te
ĠD or
Ġrec all
Ġsens itive
ĠÃ ¢
Tw enty
A GE
I mp
u ing
Ġs ection
ĠC ALL
av is
Mad am
in ating
ĠF our
Ġthem e
itc hes
ific ation
U P
Ġb id
Ġf est
Ġat mosp
Ġsh out
ĠH ong
ol o
Ġclient s
Ġprofess or
ĠLO VE
K ind
P romise
R ose
o ard
Ġw ra
Ġf iring
ve re
Ġan al
ĠG e
ĠP ort
Ġbl ond
Get ting
Ġtra ined
Ġfool ish
Ġrequ ire
Ġblow ing
cHFFFF FF
B ull
r un
is y
Ġg rou
ĠH al
Ġrem oved
ĠCh uck
OR D
Ġembarrass ed
S et
Â §
Ġno ble
ol ved
Ġsp ect
anc ed
Ġesc ort
ĠJack son
Kn ock
i per
Ġf urn
Ġp our
am ps
ĠT uesday
Ġus es
ĠP R
Ġcr imes
Ġcons cious
ĠGrand pa
Ġsurround ed
Ġsuspic ious
C ho
c oming
l ife
Ġsu its
Ġimag ination
Ġz one
Ġrac ing
Ġrehe ars
S ign
T er
Ġc ats
ĠM erc
ĠC AR
um n
Ġapp eal
Ġhum ili
Ġsymb ol
C ON
W onder
ĠO ur
Whe ther
atc hed
Ġpain ful
Ġsmo oth
ĠJac ob
ĠHolly wood
hat t
Ġst eel
st ein
ĠL ong
Ġlo ser
ER Y
iz ard
LE ASE
Ġaw kward
Ġtou ching
Ġcond uct
Ġrob ot
Ġimpress ive
Ġconst ruction
Ġdesign ed
Ġprec ise
Ġt a
Ġc ave
ar ian
Ġwas ted
Ġcom ed
Ġcomm ander
Ġland ed
Ġcustom er
Ġbene fit
ĠSA ID
Ġgy m
W ay
Ġt ag
ee ze
Ġab oard
Ġsh own
ĠH ome
Ġact ions
Ġbreak s
Ġcons c
Ġli on
ive red
Th row
ĠE gypt
ĠSh ow
Ġsat ell
Under stand
Ġparticular ly
ay a
Ġbe gging
se ll
ace y
iss a
uct ion
OUGH T
Ġinj ured
Ġnucle ar
D a
ĠK e
Ġpret ending
Ġbo ot
lo ad
Ġcal c
Ġgor geous
Ġtherap y
quar ters
P ar
T y
ro ck
ĠS CREAM
ĠL arry
Ġpre m
Ġrel ated
I O
Ġf ianc
Ġacc used
ott ed
Ġwalk s
A CH
P ardon
T A
Ã Ń
in als
or ious
And y
ĠB rian
Ġsh ield
ĠJ e
ĠTH ING
Ġmis erable
l ace
He h
ĠC ontinues
ĠH appy
Ġpl at
aw s
Ġinst inct
Ġanni versary
J ane
S y
S leep
Ġ âĢĵ
Ġt ab
ĠS n
ĠS ho
ĠW ed
ĠR ich
Ġsu itc
EA L
Ġcreat ures
Ġnorm ally
Ġextra ordinary
Ġsen ior
stit ute
Ġterrit ory
: $
ou ch
Ġb att
Ġf ence
Ġth or
Ġme as
ĠB ea
ore n
Ġv ic
Ġint ention
Ġdes erves
ĠTh ursday
Ġreg ist
Ġbull ets
bo x
Ġcitiz ens
d og
p os
Ġg e
Ġl un
Ġv irt
UR N
Ġequ al
Ġunc omfortable
Ġpsyc holog
Ġp orn
Ġal bum
ĠR es
AN CE
pen se
Ġval uable
Ġrepl ace
Ġtax i
Ġdistur b
ĠTex as
" "
b ast
g ues
i ots
n ew
Ġd ial
ĠN ight
Ġsign ific
Ġvo ices
ĠSe an
Ġserv ices
ĠMor gan
W omen
ĠP RE
ĠR ick
Ġmight y
Should n
Ġbase ball
O SE
v ity
Ġhe ight
ĠM U
ess a
ol t
Ġsm iling
IC H
Ġbow l
H ome
t r
Ġw ounds
od es
OR Y
Ġsur render
Ġinv ented
Ġattract ive
Ġbelie ves
Ġarrang ed
A V
C L
J eff
Ġb ot
ĠS oo
ĠTO O
Ġfr ust
ĠMar g
Ġpack age
A gent
D Y
F T
M ic
R ichard
Ġw ing
Ġthe ater
Ġst ake
ĠB ay
Ġpl aced
ott e
Ġprison ers
Tom my
Ġcigaret te
1 3
L IE
P ER
b ecause
ad or
ir k
Ġsp r
ix on
C hild
r ont
is hop
Ġf ans
Ġhe ck
at an
Ġnot hin
ĠHe aven
Ġrec ent
Ġcur se
Ġenjoy ing
Ġjud gment
ĠJul ia
ĠGerman y
Ġtow er
ĠEvery thing
K at
Ġm ax
Ġn ap
ĠT ok
ĠB L
ĠL os
Ġgu itar
iz es
Re al
Ġtrans form
Ġdou b
Was n
Ġweak ness
Ġvir gin
or king
ve ill
Ġne p
ounc il
Ġchem ical
ĠF e
ect ure
we red
og raph
Ġser geant
Ġph ones
Ġoffic ially
Ġlab or
Ġhelicop ter
s ome
Â Ĵ
ĠS ab
ore s
ĠP H
Ġreason able
Ġpat hetic
Ġstra w
Ġart icle
reet ings
Ġtort ure
xy gen
l am
w ife
Ġbeing s
Re g
Ġvol unte
B est
D uring
H igh
y ers
Ġ }
Ġw and
im ately
ĠD ean
ĠG irl
Ġlo aded
um ps
Ġbl ows
ANT ING
ĠNE W
Ġbeha ve
ĠMay or
Ġrout ine
Ġdeg ree
ĠCat holic
ĠWay ne
E CT
L ee
or able
Ġp itch
ĠT a
ĠG eor
ĠP O
Ġdr ank
Ġdream ing
Ġaw ait
Bra vo
F R
K ing
k ind
ĠS erv
ĠC ould
ĠH oly
Ġcom mer
ĠY E
Ġfun ction
ier ce
WH Y
Ġarg ument
C han
J UST
L emon
S a
Ġb ars
Ġto x
Ġp ra
ĠS OMETHING
Ġshe d
ĠK ong
Ġun like
Ġent rance
Ġsign ature
ik o
THE R
Ġappro aching
Ġrabb it
1 6
C ont
Ġm ath
her s
Ġor phan
Ġex cl
Ġche ering
Ġdevelop ed
g asps
p ro
Ġt one
ir ts
ĠM ore
ĠG al
ĠE mma
Ġplay ers
Ġcount ries
Ġchar ity
Ġtrans l
Ġchamp ion
Ġwa ves
ĠSant a
C omp
W anna
ĠC hi
ĠP EOPLE
ĠJ oo
ĠU ni
ĠHow ard
Ġimp act
ĠMc C
Ġfac ility
ĠWOR K
Ġbom bs
ĠS chool
Ġco ordin
St eve
Ġserv ant
Ġdoll ar
Ġconfir med
T ot
ing ton
Ġsh ine
ak a
ĠK ar
Ġfl ood
Ġproduct ion
j in
st one
ĠT er
Ġthr one
Ġbroad cast
Ġstub born
D ead
b i
Ġal tern
Ġbl own
ord an
Ġpres ents
Ġkiss ing
Ġfair y
b ble
ant e
ro aning
ĠH as
Ġal though
el ve
ĠE v
Ġrec on
Ġcompl et
ĠMar ia
Ġpri ze
Ġapolog y
Ġadm ire
Ġanc est
B reak
at han
im ents
ĠG RUNT
Ġr andom
ap h
ons cious
sc ar
Ġgener ation
Ġtrack s
ĠFrank ie
Ser geant
Ġcollect ion
nes day
veill ance
L ieutenant
u als
Ġl f
Ġth irst
al ie
Ġevery day
RY ING
m ind
ĠI nt
im ony
if er
ĠG a
Ġpl ot
Ġback up
az y
Ġteam s
Ġrecord ing
ĠDO OR
ys is
Ġpack ed
ĠRoy al
w r
ĠT aylor
ĠC ast
ol n
ĠR iver
ĠK a
ough ing
H and
Ġs ink
Ġp ed
ic ient
all s
ra h
ra ham
ĠH AS
ĠW alter
ĠJ enny
Yes terday
Ġbu g
AR K
ĠAnd rew
Re ad
chi at
Ġinstr ument
N ight
n am
re p
et ic
ĠJ i
Ġchi p
Ġacc ent
ĠAn nie
Ġgener ous
Ġenjoy ed
Car l
Ġsac red
Ġdel ivered
C I
F if
M ur
it ors
Ġof the
Got ta
Se ven
I FF
S ing
ou red
Ġw ore
st ant
ig an
ab el
os ing
ĠK yle
Ġse ats
ĠHe lp
Ġbo om
Ġsk ull
Ġdraw ing
Ġident ify
Ġincred ibly
Ġatmosp here
Ġnep hew
D etective
g roans
Ġf ond
Ġout fit
ĠH o
ĠR om
Ġact ress
Ġdis co
Ġapp le
Ġcons idering
Ġquiet ly
Ġpray er
Ġkidna pped
M el
T ony
Ġw ipe
Ġl ap
Ġj ung
ĠS ub
ĠA c
ĠW ater
ĠL ily
Ġsome place
Ġoff ering
Ġcr ush
ps on
ĠAn ne
Ġele ction
Ġdamn ed
Pro fessor
Ġfle w
ĠS ol
ĠF er
ĠF ar
Ġun its
ne ath
ĠU m
Ġapp ly
Ġterri bly
IR L
Ġinflu ence
M in
P ay
m ates
ke l
ĠB on
Ġres ign
Ġsy m
ĠMat thew
Ġreck on
Ġclin ic
G asps
r as
Ġme asure
ĠA ct
ĠB oss
ĠG ib
ĠF in
ĠV er
Ġdec or
Ġstr uck
Ġadd ition
Ġdro pping
Ha ving
Le ft
Ġneg ative
C om
Ġn ick
as hi
un a
ĠB ack
ĠG i
ĠP op
ĠF lor
Ġint ent
Ġmo le
Ġche at
Ġapp et
Ġinv ent
Ġtri gger
Ġland ing
Ġbox es
LAUGH ING
Ġto ss
as ant
ĠJ amie
Ġun happy
Ġ4 5
Ġpriv ile
Ġmot ion
Ġdemon st
Ġexha usted
Ġintern ational
Ġwor ries
Ġag ency
orm al
Ġplan es
Ġ3 5
Ġtri be
Ġbur st
ĠChe f
Ġorig in
o ice
Ġ ĠĊ
Ġa verage
Ġf old
ic ation
ĠC y
row s
ĠSt one
Ġlisten ed
Ġclass ic
ĠAt t
Ġshar k
Ġdump ed
Girl s
A c
Ġt on
Ġg ross
ra el
ĠB ell
Ġapp lic
ĠSh it
ĠST OP
IR ST
Ġconsc ience
' !
O F
u v
Ġp i
am ily
st eps
Ġwork er
Ġworry ing
ĠGo vern
Ġsuitc ase
H ot
Ġkn ee
ĠH O
Ġro bbed
Ġcomm ission
ĠMar cus
ĠCl iff
ony m
ĠBl ake
ĠNE VER
Ġaband on
ĠFrancis co
Ġexerc ise
W ater
Ġp ant
Ġlo b
ist an
Ġhome work
orm an
Ġthrough out
ĠEd ward
Ġast ron
. ?
B R
C opy
F ort
ĠC ole
ĠB ull
ig ning
qu is
ire n
Ġad just
OR RY
Ġsl ap
Ġgl ory
Ġtrou bles
Su pp
I LD
b oth
u its
se e
ĠM IN
Th rough
ĠO ver
AN ING
Ġbel ief
ĠU nder
Ġinform ed
Ġblock s
w ould
Ġb ills
se ct
ĠB ET
ĠCl ub
Ġsoul s
ĠTe am
L aughter
Ġs ch
Ġp ha
Ġre in
Ġst ones
He ar
Ġan s
Ġun ex
Ġche ek
ĠSh in
Ġdist rict
Ġsum m
Ġfield s
Ġdig ging
Ġdivor ced
ĠJew s
hell e
Ġvamp ire
M ENT
d les
Ġd om
Ġd iss
ĠC om
Ġr it
ol ve
Ġun believable
Ġret ire
Ġconf ession
Ġcost ume
Ġhop ed
Ġremind s
Quick ly
Ġexplos ion
Ġannoy ing
Ġindivid ual
E nd
v or
z ed
â Ħ
â Ĺ
Ġd ates
ĠG un
um i
ab out
ĠR em
ĠF ore
Ġsp ark
Ġob lig
ĠMor ning
Ġrap ed
Ġopt ions
âĦ ¢
âĹ ı
i pt
Ġc ert
Ġshe ep
Ġbr ut
Ġar gu
Ġsur f
ĠAr t
Ġless ons
ĠSec urity
Ġsam ple
Ġscient ists
Ġrelig ious
b al
Ġw ives
Ġl aughter
ĠM os
ĠW alker
ĠN ik
Ġpr ints
Ġmin or
ĠV en
ĠAn gel
Ġexp osed
ĠMad am
Ġlau nd
bast ian
Ġf o
ind er
ĠL aughs
Ġgu ide
ĠE mp
ob y
Ġreal ise
oc al
IT E
ef an
ĠQ U
Ġtim ing
E v
ir ring
ĠO PEN
oc r
ĠSH OULD
AB Y
Ġpers u
ĠPe ople
Ġc ried
ad ise
ĠS ea
Ġcan did
ĠM mm
ĠA ud
ĠC ouncil
Ġcom ment
Ġsm ok
Ġinv is
Ġbo ots
ĠTh or
pr ints
Ġcol onel
Ġtor n
ĠJew ish
Att ention
ĠKore a
i ens
Ġt une
ig s
aw a
yn am
t or
Ġn arrow
Ġen s
Ġac ce
ĠTHE N
Ġown s
att ered
Ġansw ering
ĠDO ES
Ġbas ic
Ġexist ence
Ġscr atch
Ġans wered
n ity
Ġwith d
ĠA PP
han e
ĠG reek
ĠO z
ĠY ep
Ġstr ict
Ġchar ged
Ġlaw yers
ĠJohn son
ĠCha nd
cell ency
ĠPark er
Ġsacri fic
Ġslight ly
Ġelev ator
R a
u art
ĠG ab
ĠL ea
ĠL eave
ĠK aren
Ġcare d
ail ing
Ġel imin
Ġcol our
De ath
isp ers
ĠIntern et
Mart in
Ġcompan ies
c les
Ð µ
Ġd iet
Ġc age
Ġf art
Ġo oh
Ġbe eping
ĠB oo
Ġstr ing
Ġneighb ors
IST IN
Ġemot ions
f ive
s ha
Ġan ge
if fe
Ġcon ce
Ġcon ven
Ġpro fit
Ġpo em
Ġset s
Ġret urning
umb o
Tr ue
Ġbell y
Ġjew el
Ġdeterm ined
Prep are
B ELL
L isa
Ġm al
Ġd uck
Ġg re
ĠO ld
Ġmake up
ang le
Ġdis hes
Ġche w
Ġser ving
Ġtra itor
Ġsur veillance
pe ed
Ġforg iven
Ġemot ion
Ġinstruct ions
b u
t wo
Ġd ough
ea re
ĠT em
ĠL y
Ġafter wards
Ġdr ama
ĠSt ay
ib ilities
Ġsy mp
Ġdra gged
Ġnear by
Ġ7 0
gu ard
ĠOn ly
Ġprofess ion
P resident
r ical
ho les
Ġgood s
ye ong
Ġch ir
Al ice
Ġmist aken
ĠSp ain
Ġbene ath
Ġgrou ps
Q ueen
S aid
T ING
y u
Ġm art
ic hi
ac les
Ġwas hed
st ra
Ġcan cel
ĠJ a
Ġun fortunately
Ġdr amatic
Ġrec over
OK AY
Ġclean ed
ĠTr ans
Ġhol es
Ġquar ters
ĠPal mer
Ġcapt ured
SEL F
S al
T Y
w ord
Ġw hi
or p
Ġo xygen
Ġli p
ĠJ ud
ĠO liver
Ġad min
pe ople
Ġbur den
enn is
LO S
wh ich
Ġhig hest
Ġpatter n
h ony
use um
Ġqu e
Ġchan nel
Ġapp eared
Ġtri es
Ġincre ase
Sub titles
Ġthor ough
N G
b ag
Ġw ard
ow ed
ĠD is
ĠK ent
th m
Ġsmall er
ĠST ART
Ġeff ective
C C
h u
ĠA ugust
ĠB ible
Ġper man
Ġdri ll
Ġsafe ly
ĠSe ok
EE P
Ġpract ically
Ġroll ing
Ġeffect s
J ean
M E
r in
r ary
y ard
ot a
Ġe ase
out hern
Ġgu ilt
orm ous
Be en
Ġadv enture
Ġbeha lf
Ġprof ile
Ġfra ud
m el
Ġn in
Ġin n
ous y
Ġstand ard
Ġdoc uments
ĠAp ril
Ġproced ure
A men
Ġag gress
eak s
Ġpleas ant
PH ONE
Ġtrave ling
Ġresour ces
D ep
l ers
ot hy
ĠV ERY
Ġid iots
Ġfoot age
Ġmeant ime
Ġpsy ch
J ac
K id
L ock
V ING
n old
ĠI nc
Ġp ad
ĠB at
ch ild
ĠL ewis
ia h
ON S
Ġdis miss
Ġsha red
ins on
ned y
Ġinterest s
Ġind istinct
ere k
noc king
Ġda ily
Ph il
Ġterror ist
Ġfed eral
4 5
M akes
R ad
e very
ri k
ĠD ar
ell s
Ġtra uma
Ġcount s
Ġhold s
Ġtrack ing
Ġpop ulation
Ġmach ines
G L
m es
Ġy Ã¶u
an ch
Ġgo lf
Ġcon cept
Ġprot est
Ġterri fic
Ġshock ed
Ġsatell ite
Ġcommer cial
M al
f its
l otte
Ġhe n
Ġst ates
ie ves
os hi
ĠF ive
Ġrel ieve
Ġbother ing
ĠAnge les
L aughing
Ã ¼
Ġw rap
Ġto ler
ĠC ass
ĠN ina
ĠY EAH
Ġmom my
Ġsing er
ĠOK AY
Ġprotect ed
Ġdescri be
ĠVirgin ia
Ġbes ide
m oon
t ies
Ġc atching
Ġin her
ĠP ac
ast e
Ġbit ter
Ġstat ue
Ph one
ĠSim on
Ġvot es
mir al
B B
L ady
j e
it ure
Ġp ipe
ĠM en
ĠD amn
ĠW on
ĠJ oy
ĠJ ang
el ia
AD E
iam i
Ġactiv ity
Ġwond ered
t hank
Ġp y
ĠS usan
ob al
ĠIt aly
Ġimpro ve
Ġstrang ers
H im
P art
Ġp ir
ĠD un
ĠH ard
Ġsc ale
Ġunder neath
Ġbeg un
Ġconf l
Ġfil thy
ĠHE L
Ġca using
Ġtech ni
Ġpun ished
Dan iel
Ġodd s
Lemon is
F unny
L o
t i
Ġm as
ack ed
and on
ect or
inc oln
ONE Y
ĠLAUGH ING
Def initely
ĠMU CH
h our
w ater
Ġs ab
es sel
Ġh mm
am an
ĠW ON
Ġex ists
Ġdown town
Ġpsy cho
Ġexpress ion
Ġcommunic ation
M AR
Ġl es
Ġp or
oo h
ĠS omething
ĠM et
ĠL at
Ġsp it
LE Y
Ġcho ices
Sure ly
Ġfre aking
ĠMart y
H arry
K ids
M USIC
W ITH
p oint
Ġf rag
Ġg ut
ĠS av
ct o
aught ers
Ġfe ather
ĠPr ime
ĠEx actly
Ġhop es
Ġpsy chiat
ut ies
all ing
han g
ĠD onna
Ġwor thy
Ġch ill
uff s
Ġpass es
inc ent
Ġinvestig ating
Ġhy d
Ġcow boy
Ġuna ble
Ġphil os
Ġelephan t
B uzz
d ies
hat tering
ĠD own
ĠD og
ĠW atch
Ġoff ense
ĠY u
Ġdis gr
ĠBr ook
Ġtre m
Ġinvestig ate
RI END
Ġorgan ization
Ġcrim inals
Ġfle et
Ġfavour ite
Ġloyal ty
Ġjung le
G ER
R ock
R yan
Ġm ud
as per
ri et
ĠA D
Ġor ange
ost on
Ġinter fe
olog ist
ĠCho i
Ġstrate gy
Ġconsequ ences
ISTIN CT
cto ber
C atch
K evin
R U
Y e
Ġf ee
le g
ĠS har
Ġpro b
th s
AT ER
og ue
ĠTH AN
ĠZ e
Ġintellig ent
Ġep isode
Ġoccur red
W HEN
g iving
Ġre ception
ĠC IA
ain ted
Ġfl av
Ġtra ged
Ġsl ut
ĠShe riff
Ġclass es
Ġ19 8
Ġang le
Ġmot ive
Ġgri ef
Ġsomet hin
ĠJose ph
F ore
r up
ĠS ung
ĠJ u
ĠJ esse
Ġpro duce
Ġpr ick
Ġact s
Ġguess ing
Ġear ned
Will iam
Ġcas ual
duct ion
Ġemploy ee
Ġinvis ible
] :
c r
d in
s u
Ġs ighs
ust y
Ġover w
ress ion
Ġact ive
Ġinv itation
Ġdeal er
Ġcons ult
Ġdest ruction
Ġgra bbed
Gl ad
ĠCent ral
ĠBudd ha
d ad
t ell
ĠM ir
un ning
ag ers
ĠK n
Ġpol ite
Ġ19 7
Ġhist or
ĠJo ey
ĠDe ath
Ġauthor ities
i xt
p ut
s ers
v ation
Ġc able
at hered
ĠM ake
ĠA w
op her
Ġpay s
erest ing
Ġmess ing
ĠJack ie
Ġscream s
Ġestab lish
E ric
S ON
s n
Ġo bey
al ph
ir man
Ġan k
ĠD i
Ġv essel
Ġmar ch
Ġpay ment
Ġev ac
An na
cl ass
Ġsepar ated
liv ia
ĠAG AIN
on er
ed er
os is
Whe never
ĠY oon
Ġpr ime
ang ers
Ġche ated
ren ces
Ġsl ipped
Ġchar m
Ġprot oc
Ġimag ined
Ġhero es
LA CE
Ġunderw ear
C os
M uch
n or
u ine
Ġc ities
ĠW HERE
AN N
Ġrec ru
Ġpat rol
Ġrep air
ĠSp ecial
Ġspir its
col m
ĠBer lin
Ġvul ner
O i
W alk
re ally
Ġs ust
ha w
Ġh ip
Ġpl ants
Ġpre vious
Ġprop ose
Ġneck lace
Ind eed
Ġdefend ant
Ġstruct ure
a ith
f rom
Ġc ott
al o
ĠW oman
Ġal ib
ĠP an
Ġman ner
ĠE ven
Ġfl ow
Ġacc ur
Ġpersonal ity
OH N
H ail
M S
R oy
he llo
Ġd ess
le m
ĠC os
ĠB IG
ĠG all
ell ow
Ġr otten
Ġcom in
ĠSt even
pr ing
Ġsound ed
Ġdream ed
Ġinst ance
Ġdep art
LO OK
Ġrom ance
- ...
A CE
H o
M A
M ed
p ower
w ant
re a
Ġs ession
Ġb usted
or age
Ġst able
He ad
Ġ2 8
Ġcr uc
Ġrel ative
Ġcons um
ĠON LY
Ġele ment
Ġbott les
Car ol
Ġfac ing
Ġcrit ical
Ġarch it
' '
D ev
m i
er ie
om i
ĠS ophie
ĠD iv
ist ent
iv ity
Ġsend s
Ġtast es
N ame
m ade
Ġt um
ri but
ĠS id
ĠF EE
Ġbr u
AT HER
Ġfr idge
Ġfool s
Under stood
ĠBrit ain
Ġscient ist
ĠHit ler
C OM
N or
S en
b ish
r ina
ha d
Ġto ols
ĠS k
ĠR and
Ġse qu
Ġlea k
uff y
ale b
Ġcor pse
Ġrep orter
kes p
ĠGer mans
Ġcigaret tes
Ġlaund ry
D ou
G ordon
J ason
T E
ĠM iller
ĠP ri
Ġcl icks
Ġtalk in
Ġdis ag
Ġcomp ass
Ġlevel s
ĠMus lim
2 4
n is
Ġs ke
ĠI ra
ĠS ept
ĠD ef
are s
Ġtal ented
Ġen ormous
Ġbu ff
Ġattack s
Ġdress ing
Ġtem pt
Ġfort un
kesp eare
B leep
J ose
J erry
W rong
Ġl end
Ġn igg
ĠA lf
Ġall ey
ĠG il
ĠG asps
ul ty
Ġpl ates
Ġsu e
ire ct
Ġres ident
Ġrequ ired
Ġpeace ful
Ġobs essed
Ġcollea gue
ĠTok yo
T ill
Z Z
Ġl n
ar ter
Ġj er
ea ble
ĠA rab
ĠP ot
Ġcha mber
ĠTh ink
Ġcons pir
Ġstud ies
ĠDO ING
Ġsol ved
Ġnatur ally
ĠJul ie
A unt
B ast
C ount
c ing
Ġd aughters
Ġc ongratulations
ic hes
os aur
Ġint r
Ġro ot
Ġco ff
av al
Ġbuild ings
ĠRe becca
Ġsal ad
Ġemp ire
Try ing
net ic
GRO ANS
Ġwarri or
b urg
r d
is hes
Ġbe ard
ri pp
ĠC ont
ĠD ark
ĠH oney
Ġal t
Ġ4 8
Ġdra wn
Ġblack mail
ĠBet ty
Ġliqu or
ĠHug hes
Ġengage ment
U ES
f ly
it ution
Ġn erves
ea u
ho e
Ġv ib
Ġad vert
Ġ2 7
ĠIN TO
ĠPr incess
Ġclaim s
ĠKat ie
Ġmob ile
n ame
Ġp enny
ra ight
Ġwhe els
Do c
iz zy
Ġob st
Ġpain ted
ject ion
Ġtest ing
ROW D
Grand ma
ĠRep ublic
keep er
ĠHAPP EN
1 8
M P
T S
Å ¡
Ġ x
Ġp ulse
se mb
ĠS ara
ook ie
Ġany time
Ġman s
Ġman ip
em et
ĠN ancy
oc key
Ġmor al
Ex pl
Ġins pect
Ġlock er
sc reaming
eng ers
ĠHarr is
F ar
b out
Ġf ag
Ġf its
ock s
EN CE
Ġmus cle
ĠSh ould
Ġsear ched
Ġthreat ening
Ġstab bed
Ġcapt ure
ograp hy
Ġfest ival
9 0
B oo
Ġp od
Ġme rely
ad ia
Ġthere fore
Ġdri ves
Ġpolice man
ĠGO D
Ġbur nt
ĠFred die
Ġcomb at
ĠKy ung
ĠHot el
Ġhel met
1 7
L ots
w ait
ou st
ly mp
ĠL aughing
ĠR oll
ĠCh loe
Ġfe ature
eal ing
Ġdep end
Ġabs olute
Ġnecess arily
Ġghost s
ĠWed nesday
Ġsym pt
Ġoverw hel
C LA
Ġd u
ent ially
ĠT WO
ĠG ordon
Ġhelp ful
Ġdri ven
Ġfr ame
Ġinter rog
Ġdest ro
Ġpaper work
Ġtransfer red
Ġdea f
B ro
f all
i i
ec ess
ĠT oo
Ġwor m
AT H
ier re
Ġsk ill
Ġcitiz en
ĠGUY S
F ound
Ġf ran
ĠS C
Ġr ats
os ity
Ġsp ray
itc hell
ĠEx cellency
Ġjoin ing
Ġstri p
Ġshel ter
Ġt ons
er g
it ter
Ġget tin
Ġr ack
ĠL ONG
el ine
ous ly
Ġv ast
ĠE VEN
Ġint ense
ĠK o
Ġser ial
Ġschool s
ĠAr m
** *
Ġcrit ic
G onna
G UN
L ucky
z i
Ġt ender
it i
Ġc ub
Ġp ic
Ġbe ars
Ġwe ed
ink y
el son
Ġse lect
Ġco al
Ġchi ps
Ġsur geon
Ġpur cha
Ġjump ing
Ġmedic ation
ĠEX P
Ġfif th
Ġcreep y
p ass
oo s
st ate
ĠM olly
Ġvis iting
Ġdep ressed
Ġfigure s
Ã© e
Ġcirc us
ĠMad ame
Ġpartic ip
LAUGH TER
Ġcollea gues
3 00
F TER
M att
c ase
Ġd rew
Ġbe eps
un ction
um ph
ĠF ort
Ġcomm ittee
Ġ4 00
ific ent
go ing
Ġsuspect s
Ġpu pp
Ġfurn iture
D one
J on
p ent
Ġ ut
Ġm atches
ke ys
Ġab use
ĠB ern
ĠH AND
ĠP o
ĠJ une
Ġmor on
AS H
Ġmet ers
Ġret reat
sh ine
Ġbar gain
Ġinj ury
c om
z ie
Ġw icked
Ġd read
Ġe c
Ġfor ms
Ġch oo
Ġrel ief
ĠIs n
Ch ris
ompl ete
E xt
F ORE
it able
Ġto ys
Ġn urs
im al
Ġlo vers
ĠP ope
ret e
Ġbit s
Ġrel atives
ĠDo or
Ġdeep er
Ġrequ ires
Ġaccount s
Ġide al
Ġpig s
ĠWil son
Ġassass in
Ġa id
ve t
Ġk icking
ĠM ove
ĠA fter
Ġro de
Ġsc ul
Ġfl ies
AR Y
Ġcomp ared
IS E
less ly
Ġmanage ment
Ġexperi enced
M eg
Ġa ward
im me
ĠT ak
ĠC HAT
ĠD iane
ell ed
ĠH annah
ĠR aj
ĠF ro
ĠO THER
res a
ĠU H
man n
Ġnice ly
Ġconvers ations
Ġscient ific
Ġsatisf ied
D ec
M ajor
b led
r ase
Ġ 00
Ġg reed
ĠT ALK
ul ating
Ġprom ises
Ġcreat ing
Bl ood
Ġmot iv
Ġwis dom
A g
A KING
M ade
M ister
Ġy e
ĠT erry
ĠH u
res pect
Ġar se
In c
Ġinter nal
ric an
Ġrecord ed
Ġground s
ĠPh ill
Ġbless ed
Boy s
adem y
D AY
r ot
Ġthe at
Ġp uzz
at i
Ġj et
ĠA g
ĠA WAY
ĠB ro
ĠW ood
ĠK enny
Ġshould ers
Ġdi ary
Ġburn s
Ġdam aged
Ġfeed ing
Ġdesp ite
ĠAust ral
ĠOff ice
A y
C ER
T ed
l ist
Ġd ign
.. "
ĠC art
ag le
Ġcent ral
sp eaking
NO CK
ĠUni versity
Ġtraged y
9 9
Ġm onsieur
es c
ir s
Ġup d
Ġag es
Ġpro secutor
Ġunder ground
Ġla un
Ġgen uine
Ġste ady
SP EAKING
Ġcloud s
Ġconcent rate
M aking
Ġs ins
Ġd omin
Ġg rill
Ġg ifts
ic ians
ri f
ĠL inda
ĠF IND
Ġlet s
Ġsc hol
Ġcar pet
Ġbit ches
gr unting
TH ANK
Ġsal ary
Ġhost age
ij u
ĠMic key
Ġconfl ict
K ate
M ac
b urn
Ġd at
Ġl eng
om y
Ġis ol
RE SS
Ġcho p
land s
ĠSe oul
Ġlar gest
A CT
I LY
z ard
Ġw ip
Ġare as
ĠW y
Ġal ike
ĠL A
ĠIs rael
Ġbud get
Ġgovern or
Ġunex pected
K en
U LL
» ¿
ï »¿
Ġp ages
Ġh ood
ant astic
ĠH or
ĠJ ordan
ĠF le
Ġun n
ĠHe e
ran ny
Ġmeet ings
Ġmon itor
Ġvis ual
Ġgra vity
Ġhuman ity
ĠRuss ia
GO OD
Ã± or
Ġpow der
B illy
O fficer
b ling
l on
Ġw are
Ġm ac
Ġl emon
ve mber
ust er
ĠM AY
St an
Ġra id
Ġfight er
Ġconf ront
Ġsy nc
Gr unts
Ġdanc er
Ġgal ax
Ġgo at
st e
ĠC amp
ear ch
Ġv ent
Ġar ts
ik es
Ġland s
Ġstret ch
Ġsignific ant
F ull
G ary
M i
e at
l ove
re ll
on ies
Ġc ore
Ġl azy
un s
ĠF IRST
ult ure
Ġcompl aint
Ġleg it
Ġcharac ters
Ġdevelop ment
Ġemploy ees
G roans
Ġd ive
Ġst ations
ĠP arty
el p
Ġsc andal
ia o
Ġbad ge
ĠTH OUGHT
Ġsurpr ising
Ġpen is
Love ly
asc al
ĠLa ure
Breat he
Ġgamb ling
u ated
Ġt rop
Ġn iece
ĠS aint
Ġher s
od ge
Al an
Ġent ry
An ge
Ġexpl ode
ĠSh h
Ġ19 6
Ġcent uries
Ġcover ing
Ġsurv ival
ĠWar ren
Grand pa
Ġham mer
Ġterrif ied
T ON
Ġt ub
Ġb ul
ĠM R
ĠC ab
Ġso il
Ġar rog
ĠThe se
IS P
Ġposs ess
Ġexpl o
Ġvis ited
Comm ander
Ġvulner able
z er
Â £
Ġf i
ĠS ally
ĠM AR
if ically
rou s
Ġsupp lies
ĠWe lcome
Ġri fle
Ġhoney moon
fortun ate
Ġprinc ipal
Ġbot hered
Ġalib i
Ġt its
Ġn est
ill ion
ck now
Ġint eg
av a
ran e
Ġfree ze
Ġmist ress
Ġpar ano
ĠEl ena
Ġwhist le
B us
C ROWD
M at
S qu
T old
W in
d s
Ġ âĻ¬
Ġd un
et a
as hes
ĠS it
ĠA k
ink le
Ġsh h
Ġr ul
Ġno on
ĠF O
Ġbl ah
Ġunder cover
ĠHe l
Ġdis play
ĠCan ada
Ġris ing
Ġpriv acy
work s
Ġmot el
Ġpred ict
Ġadop t
Ġfulf ill
t oo
Ġt ube
Ġf ox
at ra
st op
uck le
ass y
per ial
ĠTHE SE
Ġapp ropriate
Ġlar ger
Ġaud ition
Ġtow el
Ġtempor ary
Ã ¦
Ġc aut
Ġg um
ĠB ec
ĠD em
est ion
St ar
ars on
Wh ite
Ġstud ied
ĠSe o
Americ an
Ġwid ow
ĠIra q
t ake
t ail
Ġt act
Ġo ath
Ġst iff
if ying
ĠW ELL
Ġcom a
ĠTHE IR
Ġch uckles
hen s
ai i
Ġdem ands
ĠWh it
ĠFor ce
Ġlung s
L aura
W alter
Y up
ar io
ĠD avis
ĠG R
ĠL ex
Ġint ended
oy le
ree ze
Ġret ired
Ġfree zing
Ġroad s
Ġdi agn
Ġcreat ive
Ġrelations hips
Ġneighb our
Ġshar ing
Ġfant asy
Ġbuck et
Ġassign ment
C Y
l ied
ĠL ife
Ġid ol
Ġdead ly
Ġcha os
ĠDo e
enc ing
Ġmad ness
Ġtest imony
ĠGr ant
Ġtreat ing
udden ly
Ġsurv iv
ĠÃ ĺ
P ol
Ġt ires
Ġc ents
or ters
le ction
ight y
aught y
anc ing
Ġhum or
Ġgrand pa
Ġlie utenant
Ġdev ast
Ġill ness
ĠEl izabeth
Ġbless ing
Ġobject s
Ġbatter y
ĠMarg aret
F O
z il
Ġg reet
Ġst roke
st able
Ġr ounds
ĠO t
ĠV iet
Ġhead quarters
Ġeat s
Ġdisc ipl
Ġrece ipt
Ġspirit ual
ĠPat rick
O uch
T V
f ia
Ã ľ
Ġa x
re ction
Ġh ob
ell er
Ġsho re
Ġposs ession
Me an
yn n
Ġfoc used
ĠAnge la
Ġbasket ball
Friend s
Ġadmin ist
% .
E ddie
c i
j uss
l ord
p iece
ou ston
ĠA ri
ĠL and
There fore
Ġown ers
Ġcr ook
ian ne
Ġadd ed
Ġcent re
Ġsuper ior
Ġoper ate
ĠAb by
Ġconst antly
Er m
ĠScott ish
F air
t ra
Ġf ires
Ġth under
ĠS ister
ĠB ong
ĠW AIT
ul ting
Ġal iens
ĠL i
In spector
ĠU ND
Ġexpl ore
Sp ecial
Ġcook ed
Bl oody
Ġpen alty
Î¿ u
pir ation
Ġdess ert
b reak
Ġm erry
ut ers
ĠT al
ĠC ooper
ab s
Th omas
Ġem br
Ġair craft
li ament
ELL ING
ech n
Ġconst ant
Ġheaven s
Ġrap id
Ġunf air
ĠCONT IN
Ġthirst y
v iet
Ġm os
Ġb ay
Ġp ile
Ġwe ars
ĠB art
and ra
Ġr att
ĠK id
ough s
Ġent ering
Ġcry stal
Ġ15 0
Ġsens es
Ġnewsp apers
Ġspo il
Ġcomed y
F r
V al
on ly
Ġl ousy
us sell
Ġth ieves
Ġre ar
ur u
ĠA ss
pp a
Ġso ber
op sy
ĠB oth
Ġwor n
ĠW R
ĠL ake
ĠJ un
Ġv est
To gether
Ġsk ip
ĠMar ie
Ġpar adise
Ġrock et
Ġcurrent ly
Ġult imate
V ES
Ġl ecture
Ġo l
Ġwe alth
Ġst orage
ĠM ass
ĠC ra
ĠG REAT
ĠH ob
um m
ĠR en
ĠJ O
ort on
ort hern
Ġ2 6
Ġbre ed
Ġfight s
Ġdifferent ly
ĠSo on
Ġgrow s
Ġca uses
Ġdepos it
emet ery
K a
on io
Ġd er
ĠM iami
Ġout ra
ĠG y
ĠL iz
os ie
ĠF E
ak ers
igh ing
ient s
Ġref lect
Ġexplain ed
Ġinvest ment
Sc ott
Say s
Ġdrag on
C hange
M EN
d ess
it als
ve rend
end ence
ĠF RIEND
Ġlook in
oy d
Ġown ed
Ġabs urd
Ġer r
Em ily
Ġinterfe re
iju ana
D E
M il
W N
W ha
Ġg room
ad er
se x
Ġan aly
ĠB ert
ĠB oston
Ġman ners
ick et
ĠE un
Ġsc rap
Ġco in
Ġhead ache
Ġra ge
Ġri g
Ġeff orts
Ġer ror
Ġmarry ing
Ar t
ĠSha kespeare
Ġsuggest ing
Ġintro duced
N ine
f ree
Ġt ables
Ġd uties
is pering
Ġc attle
Ġo ven
Ġu pper
ĠM oon
ĠL en
ĠN am
Ġcl an
Ġperson nel
sh ots
ĠIn ter
CH ING
Ġpap a
Turn s
Ġvol can
Ġexec ution
Ġinfect ed
Wonder ful
Ġdisco very
C razy
U B
he im
Ġhe sit
id d
Ġan onym
ĠS ur
Ġso cks
ĠH allow
ĠP ART
Ġra ising
Ġsqu eeze
ĠCha mp
Ġcur tain
ĠLI FE
Ġrequest ed
ĠCOM P
Ġchir ping
B a
B on
} {\
om ic
Ġab road
ĠD ylan
od ka
end y
Ġback wards
ĠF ire
Ġhapp ier
Ġco c
ass es
Ġcheck s
Ġhalf way
ĠAll en
ĠGood bye
AD IO
Ġjud ges
ugg age
igg les
Ġste pped
Ġdescri ption
ĠJer sey
Ġtradition al
Ġgrant ed
Ġassum ed
fr z
Ġconspir acy
F UL
Ġg athered
ĠB ird
Ġv ice
Ġpe an
Ġqu ant
Ġgl obal
Ġbook ed
ĠAr k
sc reams
Char les
Ġappear ance
Ġdeb ate
Add ons
Ġcomplet ed
ĠEmp ire
Ġscul pt
P ush
S INGING
T aking
a us
p ite
Ġwas hing
Ġkn ocking
ee k
ĠS oc
ĠS weet
Be at
CH AR
ĠAr ch
Ġcol ors
Ġinit ial
Ġfab ric
2 2
D rive
S N
S ad
d ney
f ight
g hed
k un
l as
Ġs orrow
is er
am my
ĠS ky
ho s
ĠC ompany
ĠB i
and o
ĠL ogan
ĠK ID
Ġcl imate
ĠY ang
Ġun fortunate
Ġhome less
Ġbo ats
Ġfuck er
Gu y
Ġran ch
Ġty pes
Ġste am
lev ant
SCREAM ING
A ir
P R
Ġw olves
Ġc ripp
Ġf etch
Ġst eak
ĠT odd
Ġpro ved
Ġint im
Ġover night
Ġhand ed
pt on
Ġdes c
Ġprom otion
Ġimag es
Ar thur
Ġsuggest ed
Ġlim ited
Ġden ied
ĠEurope an
ĠCount y
Ġrhy thm
Child ren
I Z
b ra
j ob
m id
s a
s ho
ĠI l
ay ing
ĠG roup
ĠJ udge
ĠF ace
ĠF UCK
Ġsp ons
Ġhear s
OW S
ĠAl bert
Ġsus p
ĠRo om
lor ia
ĠPl an
Ġsam ples
ĠWH Y
Bob by
Ġfrank ly
Â Ļ
Ġt ire
it an
Ġd ated
Ġp ist
Ġli ver
ĠB ri
ĠE aster
ĠK now
Ġsc he
Ġcr ashed
Ġsk i
Ġins pector
ĠRe ady
Ġreturn s
Ġcook ies
Ġsuspect ed
UM B
Ġflo ating
A PP
Ã ¢
Ġy ards
Ġm our
Ġf og
Ġl y
ld on
Ġr he
ĠP en
ĠR INGING
ĠJ eremy
ĠE nd
IN S
ĠV O
Ġfin est
An nie
Ġadv anced
Ġpray ing
Ġteacher s
Ġcorrect ed
Ġinj uries
ĠEn ter
Ġrum ors
Ġglo ves
Ġange ls
ĠFEE L
Ġware house
J ump
S un
j u
n els
w an
is ha
Ġp ork
us ions
Ġha unt
ri ke
ĠG en
ĠG ene
Ġpl ed
ĠF air
Ġad orable
Ġmus ical
ok es
amer a
Ġoper a
Gr ace
Ġvisit or
ram atic
Ġcomb ination
Ġbuzz ing
D ong
P ete
p her
Ġp atch
ant ha
ĠG IVE
Ġr ank
ĠJ ay
ĠO pen
Ġsu bs
Ġpres cri
enc ies
Ġreg ion
Ġadv ise
ĠJust in
enn ifer
Ġsna p
Ġinfect ion
ĠHEL P
ĠUND ER
B AR
U FF
h us
w ind
Ġk it
est ic
um ble
Ġgr unting
Ġrec overed
Ġatt ached
to gether
Ġmem or
Ġshort ly
R achel
p ress
Ã ¤
Ġc ine
ay an
ri ver
ĠA lp
ood le
Ġv ag
ĠK ira
St e
RE D
head ed
Ġsort s
Ġtest ify
Ġinvol ve
ĠChe ers
ĠÂ £
ĠKore an
Ġwra pped
G old
L AUSE
P T
T a
c alled
ha ra
Ġh ills
Ġwe b
st ick
ĠB ank
od ed
Ġpat ience
Ġadd ict
ru ption
Ġdiv ine
Ġadm itted
ĠSU RE
ĠAny thing
reec hing
Ġanx ious
Ġdisgr ace
D R
b ro
Ġ ~
Ġm ug
Ġso re
Good night
Ġper f
Ġrec o
Ġdeath s
Ġclose ly
Ġri pped
Ġclos est
Ġworth less
Ġpack ing
Ġrecogn ized
Le on
Ġtax es
ĠLAUGH S
Ġdiamond s
ĠPH ONE
Ġancest ors
m itted
n ik
p ot
p isode
ind istinct
ĠW olf
ĠF ox
Ġv ault
ĠSt ill
Ġper mit
Ġcra b
Ġcra ft
az a
gg ie
Ġcount y
ĠCH UCK
Ġamong st
ĠStan ley
Ġpu ppy
Ġeter nal
Ġanal ysis
Ġpha se
Ġcert ific
A my
h ot
Ġd ynam
Ġl uggage
Ġp ip
Ġst icking
ĠT an
Ġsa fer
Ġun re
Ġact ed
Ġcompl iment
ĠBr ick
AM ES
let on
ĠComm ission
Ġrub bish
ĠJan et
Ġestab lished
Ġelectric ity
Free ze
B ec
D I
a ver
Ã §
Ġw aters
Ġm m
Ġj ohn
ĠD ur
ĠD ale
Ġman kind
Ġlea gue
Ġcr u
Ġtra gic
Ġmen u
LE D
Ġreg ister
Ġdress es
Ġbell s
Ġengine er
Ġbreast s
Ġinsp ired
3 4
A f
E mma
w on
Â ¿
Ġt ale
Ġg a
or us
Ġst ream
ee red
ĠS M
ĠW onder
ist ant
Ġim pr
pect ive
Ġsw eep
Ġfr act
Ġtest ed
Ġdiscuss ion
ERS ON
Ġrepl aced
ĠPhil ip
Ġ eth
Ġt ut
Ġt iss
Ġf oul
Ġl ame
st r
ĠD uke
ĠJ oon
ĠF L
ĠO lymp
ĠE s
ĠK han
Ġbl ade
atter ing
YOU R
Ġaff airs
ĠAd ams
Ġhop eless
Ġvisit ors
ĠGu ard
ĠAm anda
Ġign or
ĠCarl os
Ġadult s
Ġreveal ed
Ġvar ious
ĠYE ARS
Ġrit ual
H an
R ich
in ity
ĠS ar
ĠM onsieur
ĠG RO
ĠL ang
ĠL OT
har t
Ġdis gu
Ġsupp er
Ġmon sters
Ġstr ings
itc hing
Cl ark
Ġcommunic ate
c ard
Ġto ol
Ġbe am
ac ious
Ġst ew
Ġso lo
Ġso da
ĠR ES
ĠN ap
Ġhapp ily
Ġbl oke
Ġro ast
ĠBr idge
Ġquestion ing
Ġart ists
Ġdro ps
Ġdeli ber
Ġsoft ly
ĠMag gie
hand ed
Ġproduc ts
Cor rect
Ġargu ing
b ian
f a
Ġin qu
ac ity
se a
ĠC R
ive ly
ĠE L
Ġunderstand s
Ġra ining
Ġdist ant
Ġmag ical
Ġbas is
atur al
Ġprep aring
Ġpray ers
ĠSH OW
igg ling
Ġcelebr ation
ĠHer r
Te am
Ġmisunder standing
Ġpropos al
b ul
Ġthe r
Ġp ec
Ġe y
ĠS ix
ĠC hild
ink s
ak s
Ġbu bble
Ġcont rary
As h
Ġca f
Ġappro ve
Ġboo ze
WAY S
Ġsla ves
Ġtyp ical
Ġapplic ation
C at
J osh
R oll
S ex
b its
c ould
n im
Ġ ven
in ny
Ġm useum
Ġb old
Ġto es
es y
Ġwe bs
ad ays
Ġst icks
ĠM UST
ĠB US
ure au
ĠL incoln
Ġneed le
Ġv alley
ĠN umber
au er
Ġsm ugg
Ġ3 2
lo aded
ĠMex ican
Ġseal ed
Ġfasc inating
Ġastron aut
Mean while
A ng
G er
G osh
G reetings
M AY
i ples
Ġl oo
Ġl ux
id ers
ri p
st ance
ĠB ab
ĠH oll
ĠP LACE
um ming
Ġv ital
ĠN IGHT
ob ile
ress ing
ĠSt ation
AR M
AR ING
Ġpass engers
Ġlight ning
ĠMar ch
Ġcor rupt
Ġrad ar
uk a
Aw esome
Int eresting
Ġtort ured
Ġmagn ificent
Ġpotato es
w ang
Ġs ang
Ġd ug
Ġk ings
ĠA bsolutely
ĠC ongress
ĠP UT
ĠR INGS
ort ed
ĠNo body
har m
Ġsha king
Ġch rist
Ġinter p
Ġcons ent
Ġpar ade
ĠComm and
Ġlim its
Des pite
ĠKen nedy
Ġprior ity
G row
R OUGH
V ictor
d ed
ah n
Ġpre v
Ġinter net
bb ie
Ġdi pl
Ġer m
ĠBET TER
B S
H AL
Ġb end
Ġb ait
Ġf uss
Ġh unter
ic ip
Ġkn ight
os ure
ĠR icky
ear l
em ploy
ĠN avy
AT ING
Ġhar ass
Ġpass age
Ġbar king
Ġrep ay
ĠCha se
AD Y
Ġed itor
ĠJo an
Ġhook ed
IG N
Ġassist ance
ĠANY THING
ĠHaw k
Ġdefe ated
Co ffee
Ġphotograph s
Ġconcl usion
D irector
G U
is hi
ic ations
oo g
Ġcan dle
ĠB ran
ĠB eth
ĠD u
ĠW he
ĠO scar
ĠK IND
St range
ĠTH INGS
Ġinc hes
ĠST ILL
Ab by
Sc rew
Bet ween
Ġtap es
SCREAM S
B itch
D S
D ean
J enny
P ET
c s
Ġl ads
Ġin ch
Ġat h
ĠR ey
ĠK r
St raight
urn s
Ġworld s
uff led
Ġmark ed
Ġaccident ally
Ġclub s
ĠJess ica
ĠNat han
Ġindep endent
ĠMid dle
ĠServ ice
Ġcoordin ates
Tot ally
B less
S ean
Y a
Y ay
n arrator
w alk
Ġw ished
ĠS ORRY
ĠC ut
Ġup side
op ard
EN E
ale m
Ġdra ft
Ġexc uses
Ġexp and
Ġscrew ing
Ġident ified
Ġregist ered
iffe rent
Ġperman ent
Ġcoff in
B rian
P et
P op
S ound
S uddenly
i our
Ġ /
et he
ĠA venue
ĠC ool
ĠB ad
ĠG us
Ġsp otted
ag s
pl ane
ĠY o
-- ?
Ġwr ist
Ġhar sh
Ġcut s
ik i
Ġdest ination
ĠCha irman
Ġbank s
Ġlay ing
ĠFran ces
Ġpill ow
Sim on
Luc y
C AN
f sc
Ġw hip
Ġp hen
ur f
Ġso ap
ĠW izard
Ġche ers
ott o
Al ready
vel ous
Ġhum ble
Ġaw fully
Ġconcer ns
oop ing
Ġcoc aine
F aster
R est
T op
W rite
r ome
Ġc emetery
Ġn ails
ĠS i
ĠD ie
ĠH urry
ĠR EM
ĠO H
Ġam er
ĠK am
ĠV i
Ġmus h
Ġconv ention
ĠBe ach
Ġdirect ions
Ġtur key
Ġfill ing
ĠUn ion
Ġproduc er
Ġlau ghed
Ġscen es
ĠFlor ida
juss i
m at
w est
Ġ {
Ġb unk
Ġin ner
ac el
Ġre verse
Ġst are
ĠT en
Ġas semb
Ġsh ining
Ġpl ug
Ġmother s
ĠAl right
Ġforget ting
ĠChrist ine
Ġexc it
Ġeng ines
Am azing
Ġinsist ed
Ġfif ty
Ġentertain ment
Ġforbid den
K NOCK
M R
d ia
l by
p hy
Ġf ried
ac ter
ĠB OY
ĠG IRL
ĠO s
ort ion
Ġqu ote
ull en
ob bing
Ġpo le
Ġkid ney
iv a
Ġcomp uters
oc us
Ġwar s
See ing
Ġins piration
uro s
Ġfinger prints
ĠSw ed
Id iot
uf act
Ġcollap se
ĠAtl ant
ĠBarb ara
Ġexcl usive
3 5
J e
K e
P o
Ġt ies
ĠE li
ck ed
Ġle ather
Do ing
Ġmin i
Ġexplain s
Ġabs ence
Ġcond em
Ġarri ves
Ġcross ing
Ġlab el
Ġfol k
ĠMon ica
rag on
Ġitem s
Ġkil omet
ĠSecret ary
Ġremark able
Ġtechni que
Ġsympt oms
R on
Ġth irty
id el
ill ian
end a
ĠJ uan
ĠSt e
Ġgr at
Ġ3 6
Ġsit s
Ġrad iation
Ġunc onscious
AB LE
Ġpoison ed
Ġbelie ving
Ġhom icide
Ġmult iple
Ġaccur ate
A I
H ank
K I
N at
Ġp alm
le ans
Ġme lt
Ġre un
Ġgo ss
ĠA CT
ig oo
ĠK night
Ġfl ip
Ġsm ash
Ġcont ent
Ġgr ay
Ġhat red
head s
Ġcontin ued
Ġoper ations
Ġfair ly
ĠDid n
Ġremind ed
Ġcomplain ing
B ur
M olly
P D
a fter
i que
o ons
r idge
Ġm ouse
Ġd ict
Ġg ates
ĠL o
ick en
Ġhand led
Ġgl orious
Qu it
Ġsn iff
Ġten nis
Ġz omb
ĠSu z
bl ur
Ġclaim ed
Le o
Ġkidna pping
Ġthrill ed
Ġwithd raw
A VE
D eal
ing le
le e
Ġbe ans
ĠM ul
ĠR og
Ġcom ic
ĠF itz
Ġbr anch
Ġent it
ĠBr id
Ġcoll ar
ĠSp ider
Ġsix th
erc ules
Ġmass age
Ġshad ows
ĠAR OUND
Ġded icated
Ġblond e
C LE
S ch
] .
g han
Ġs ack
Ġc ries
im eter
ĠT imes
ĠT ower
Ġr ust
ig o
ĠF riend
Ġsp aces
ak in
ĠK ILL
Ġcar go
Ġinst ant
Ġcop ies
Ġmis ery
Ġconv icted
por al
rib ution
Jul ia
ĠHallow een
. :
M erry
S us
w right
w ide
Ġc am
Ġf u
Ġth umb
im o
Ġj unior
ĠS el
Ġlo ses
ĠO ctober
ct ic
ĠN ag
th ree
th rough
Ġsu p
Ġbu gs
Ġold est
Ġper pet
EA KS
Ġfil ming
Ġdin osaur
Ġball oon
Ġaff ection
Ġfool ed
LY N
ĠComm un
Ġpark ed
ĠBra zil
Ġcommit ment
Ġprecise ly
id o
Ġre hab
ĠS now
ĠG ra
Ġshe et
ĠR ud
ĠR alph
Ġpo inting
Ġres idence
Ġelse where
ĠCl ay
ball s
Ġmagic ian
Ġvol unt
ĠCarol ine
Ġprotoc ol
C ell
N ING
P ark
a ude
d ef
d ramatic
j our
j ack
Ġ utter
Ġa cknow
Ġc ul
Ġl amb
om ers
ar on
Ġbe ats
os ition
ĠO b
em o
AN GE
Ġph rase
Ġsl ide
Ġdes erved
Ġsol ar
oun ter
Ġdraw er
cha ir
Ġcelebr ating
ĠCr own
Ġaffect ed
ĠTy ler
Ġfab ulous
ĠSCREAM ING
P erson
l ets
u er
Ġf aint
ĠI rish
Ġhe els
Ġre ly
ĠM ONEY
ĠC atherine
Ġwor ship
ĠF at
ĠO per
ĠK an
Ġtown s
Ġfell ows
Ġprep ar
ĠRo ber
Ġthreat en
Sec ret
Ġtrail er
Ġfrequ ency
riv ate
Ġindistinct ly
B OY
K ay
P ANTING
l ong
ea rest
ĠM ess
ĠB ook
ĠB uck
ul u
ol i
ĠR uth
ĠK ill
ĠCh in
Ġrep res
Ġhor ror
Ġthreat s
Ġdestro ying
F all
V ED
Ġm all
Ġg est
Ġso ph
ĠW ild
ĠL eg
Ġfl ames
ĠIN D
ok i
Un believable
Ġoper ating
Ġla wn
ĠSha ll
ĠTr acy
Ġprov ided
âĻªâĻª âĻª
Ġpock ets
ĠSon ny
ĠSqu ad
Ġassign ed
Ġchap ter
hatt an
B ell
C al
Ġt id
Ġb ench
Ġf rog
Ġn i
Ġn av
Ġp ier
ed a
ent ine
Ġcan dles
Ġcom pens
ak o
ide on
In ter
ĠSt uart
Ġsha ve
Ġer a
ĠFrank lin
ĠThanks giving
Ġimm unity
Ġdelic ate
Ġblank et
Ġdoub ts
j ud
r r
Ġt iger
Ġdo pe
ee m
ĠM ADE
ĠC asey
ĠB al
ĠG re
ĠL as
ĠF il
Ġse ed
up reme
Ġdisc har
THE N
Ġtw ins
TER S
ĠWh oo
ION S
Ġform al
Ġpract ical
ĠHar vey
** **
Ġphys ically
ĠRuss ians
ontin ue
Ġactiv ities
Ġprivile ge
ĠBat man
ĠSept ember
Ġexcit ement
B ang
L uke
V D
V an
b aby
m aybe
Ð °
in et
Ġm aj
Ġf aced
Ġp anc
ri x
ĠM ason
ĠR ADIO
em an
Ġpo ker
Ġter min
any a
Ġsim pl
Ġext ract
Ġbelong ed
Ġremain ing
ĠLou ise
Mor gan
itz er
Ġborrow ed
Ġarrange ments
Bu y
Ġrelieve d
C over
D ave
E PS
G ROW
u ations
w he
re aking
ot ch
Ġhe ir
le en
ĠM OM
ĠT RA
ĠC RA
ell i
ĠL es
Ġsp ill
ĠY i
Ġwr ites
Ġpr on
ĠV alley
ĠAl i
Ġdet er
ĠSe bastian
CT OR
ĠAnt hony
Ġprinc iple
Ġadop ted
Sil ence
D ie
F antastic
H or
M et
M onsieur
T R
b et
d es
Ġf arewell
Ġn aughty
ĠD erek
ĠR UN
Ġex agger
ble m
ĠNo vember
In side
Ġreal ised
Cle an
Ġindust rial
Ġreb u
Ġtrem end
A IL
D est
L ea
O t
m ine
p anting
Ġy og
Ġb ald
ĠI re
Ġas hes
ge ons
ĠR ub
ĠN i
ĠE than
ass ador
Ġhand ling
ĠHe len
Ġri ot
ĠGr ay
Mar cus
Ġris ky
ĠPr ot
gn es
ĠOr leans
Ġgri p
Ġdistur bing
Ġresist ance
D ING
F ool
L S
ri fic
ĠC ross
Ġbr ush
ĠMar c
Ġbar n
ov a
Ġpost ed
Ġexcept ion
Ġplant ed
ĠHaw aii
AK ES
ĠMeg an
Ġconven ient
I X
T ook
d r
f ashion
v ia
er gic
Ġd ice
Ġk een
ac ement
ĠT own
ĠC ir
Ġso le
Ġman ufact
Ġcar bon
Ġpo ll
Ġac id
Ġcou ples
Ġinv asion
ph ine
gr ade
sc ape
OUT ING
Ġexist ed
Ġpainting s
ĠMal colm
Ġencour age
Ġens ure
Ġphilos op
H I
W il
g age
h ill
Ġw agon
Ġs aint
Ġb a
Ġg am
ĠM itchell
Ġde er
Ġse vere
ĠNo ah
AT CH
Ġdis respect
Ġkind ness
Ġsho ve
Ġsk ate
UT E
ĠLord s
sec ution
Ġtechn ical
Ġannounce ment
ocr acy
ĠPac ific
. âĻª
C arry
F at
S C
n ament
Ġa irl
ĠB urg
Ġr ash
ĠL am
Ġam ate
ĠK l
Ġsm arter
Ġsw itched
Ġdiv ision
ilar ious
ĠCHE ERING
ĠGRUNT ING
A LE
B as
F e
P a
R am
f our
on ent
st ar
Ġcan cell
Ġne at
ĠA FTER
ĠG AS
ell ect
end id
ĠL AST
ĠF ound
IN ESS
All ow
AN Y
iz er
ling s
az ar
Ġlight er
Ġsent iment
ĠGr unts
Bl ue
ĠBe ast
min ute
Ġdiscuss ed
ĠAlex ander
inds ay
Ġrehears al
Ġentit led
6 7
M erc
c at
g ia
u um
all el
ĠS her
un o
ch ief
ĠL in
ab outs
Ġbr acel
Your s
pen cer
Ġmeet s
Ġtom ato
Ġgrand son
ĠSe ven
Ġz oo
Ġconnect ions
Ġval ues
Ġcas ino
Ġorgan ized
Ġincl ude
Ġmum my
Ġintent ions
I VER
M ars
R IGHT
T AIN
d aughter
in ter
Ġw rest
is k
ĠI an
as ping
ĠP LEASE
IN T
Ġcr ushed
Ġass holes
br idge
Ġfaith ful
ĠTurn er
ĠFel ix
Ġdat ab
ĠCONTIN UES
D inner
R os
Ġm att
Ġe ager
Ġout er
ĠH OME
ĠL u
Ġse as
Ġcomp rom
Ġbre ach
amer on
Ġill usion
Ġsword s
IF E
ĠAf rican
BE CAUSE
Ġdelight ed
Ġtox ic
Bast ard
Ġschol ars
= -
A ud
G reen
L ive
S ant
r us
Ġw aking
ĠB ond
ĠH ung
ose x
Ġsm ashed
Ġarri val
Ġchamp ions
Frank ie
NE W
Ġdeterm ine
Ġappet ite
L aw
P ower
Ġ ll
Ġto e
im b
ri ot
Ġj azz
ĠH ad
ĠP ak
Ġsa us
Ġpro ven
Ġv ain
oy a
Ġbr at
AT ED
ps y
Ġra w
Ġpass enger
EA K
Ġele ments
Ġattack ing
EM BER
Ġdistract ed
Ġcontroll ed
Ġreco very
F ace
J eremy
V ir
e xt
Ġd orm
Ġdo d
ac ha
ĠT hose
ĠB ark
ĠR un
Ġv odka
Ġdec ades
ĠAnd erson
Ġsleep y
Ġtri umph
Ġhon ored
Ġfore ns
cri pt
ĠAS K
Ġattract ed
Ġjournal ist
Ġpoet ry
Ġcooper ate
Ġcertific ate
Ġtiss ue
Ġgoss ip
I LE
j amin
Ġm ast
Ġp ale
Ġhe h
Ġth us
ad ium
Ġmy th
ĠM iles
Ġall ergic
ĠD ist
ĠW ade
ĠP enny
ĠR el
Ġcl ar
pl ant
Ġwr it
ĠV ol
ĠV incent
ĠTH ROUGH
sh irt
Tr uth
Ġbud dies
Ġpers pective
rig inal
ĠStep hen
Ġliber ty
ĠAsh ley
Ġforgiven ess
Ġdign ity
Ġvolcan o
D eep
E arth
H am
R od
b our
e ous
r ades
Ġt anks
Ġc her
Ġwe e
ho b
ĠC uba
Ġr ic
ĠJ unior
Ġro ses
Ġsc ent
ans as
Ġdri ft
Ġhigh way
IM P
Ġreport ing
Ġloc ated
Ġris ks
Ġarri ving
ĠLuc as
Ġclim bing
lyn n
Ġstrugg ling
ĠMount ain
Ġpy ram
Ange la
L eg
R ub
Ġn er
im s
Ġre n
am y
ir ting
Ġne ut
ĠC LOS
Ġas h
ĠD IS
Ġr ang
Ġor che
ĠE VER
ang o
Ġact ors
Ġ2 9
ĠV ince
Ġtra ins
Ġmet eor
Ġpass word
Ġimport ance
br uary
ĠChar lotte
Ġfat al
Ġdescri bed
Ġmaterial s
ĠLeon ard
Ġcandid ate
E ar
p arent
Â ¤
Ã ĸ
re ls
an es
Ġme re
im m
ĠT EA
ĠC ons
ĠC arr
ul k
ĠF re
ĠO LD
Ġch in
ĠWe re
Ġtom b
ĠBE LIE
ĠEng ine
Ġimm ig
Ġattempt ed
ĠMic helle
Ġincre asing
ĠLea gue
Ġmart ial
Ġaggress ive
7 5
l ay
m ighty
o id
Ġt u
ing u
Ġf el
at ics
im ated
ĠA y
ĠA ah
ĠD ead
qu et
ĠK arl
so ever
Ġfil ed
Ġtrans mit
ĠDan ie
Ġheal ing
Ġtechn ically
Ġund erest
Ġterror ists
Ġdrown ed
Hope fully
Ġnegot i
Ġrail road
Rad io
Ġanonym ous
fashion ed
D en
L IN
m ble
w orld
Â Ħ
Î ¥
Ġt sk
he ro
Ġf ig
ut her
Ġre fe
Ġre ass
Ġst ir
ĠS us
ĠM ill
ĠB ABY
ĠP oint
AT T
Ġsl am
pe red
ok o
Ġrep ro
Ġfix ing
Ġbur gl
ĠAd miral
Ġhero in
ĠGu y
Ġroll ed
Ġant icip
Con f
Ġbene fits
Ġsched uled
ĠSome one
Ġbrut al
ĠAustral ia
mid t
A igoo
E VERY
K aren
R ick
s coffs
he nd
or ous
ĠI I
Ġe ld
ĠC herry
Ġr ug
ĠW ol
Ġoff ensive
ĠWhat ever
we ight
Ġres ent
Ġapp lied
Ġsl ice
Ġspec ifically
Br ad
Cl aire
Ġpub l
Ġviol in
Ġrecogn ise
Ġphys ics
ĠAL WAYS
Ġsandw iches
Ġindep endence
Ġconscious ness
Ġflav or
Dou ble
Ġsche me
O ops
W orking
Ġt ide
ll e
Ġd ings
Ġc ongress
Ġl aser
Ġe cho
ĠS ang
ĠB ee
ĠP y
reat hing
Ġsc um
Ġgr unts
Ġcomp romise
Al one
Ġsk irt
Ġ# #
Ġrep ly
Ġcontact s
Ġaccompl ish
Ġce iling
Imp ossible
Bull shit
Ġaltern ative
ĠBrook lyn
2 1
B i
L ily
O VER
v ention
Ġd ime
Ġd ull
ĠS ue
ĠL ow
ĠL EA
ĠP ER
ĠK ling
Ġle an
Ġsu ite
Ġar row
Ġdis order
oc rat
Ġpret t
az ed
Ġdeal s
ĠIs ab
ĠSc ots
AU L
Ġpub lished
ĠSha w
ĠMart ha
Ġperform ed
Sm all
Ġimm ort
Ġrub ber
Ġrac ist
Ġexpens es
ĠWilliam s
Ġlad der
ĠOw en
Ġreject ed
Ġeconom y
Supp ose
Ġsab ot
Ġarchit ect
C oll
S ort
S har
i y
r ise
he lp
on ica
Ġb ass
ĠM usic
Ġsh itty
ĠG ang
ĠG rey
ig ger
Ġde ploy
ĠR ita
Ġsp ite
Ġpro ves
ĠK EEP
Uh h
Ġent hus
Or der
Ġclot hing
Ġcook ie
Ġapolog ies
Pr ot
Ġscr ub
Ġvot ed
Ġgather ing
Ġmax imum
C asey
E LE
G en
it ate
Ġst amp
ill es
ĠB enn
Ġr uled
Th irty
Ġkill ers
St ick
Ġch icks
ens es
Ġmess enger
cle ars
Ġgrow th
Ġfear s
Ġir re
Ġaut opsy
Ġblock ed
Ġengine ering
ĠEvery body
Ġarrange ment
Int o
Ġdecl ared
GRO ANING
ĠWes tern
Ġexecut ed
Ġunn ecess
B C
B arry
D ID
D oug
F el
G ar
L ay
i ors
j un
Ġd izzy
Ġl oop
es tern
Ġp up
Ġre bell
Ġst all
Ġcan ce
ur b
ĠB all
ĠH ind
ĠR ain
Ġhelp less
Ġhard est
ĠBr andon
ĠNew s
bl ood
Mad ame
Ġban ana
ĠRob in
ĠSome body
Ġdece ased
Ġregard ing
Ġing red
Ġvolunte er
wr iting
Ġank le
A IR
D ay
E w
J OHN
L uck
Ġm ature
Ġd itch
Ġc ate
Ġc rop
or is
ar ms
ar med
Ġth read
Ġre aching
ĠB ren
ĠD ee
os er
ĠR anger
ĠE st
HE L
OU SE
Ġbet s
Ġcomp are
ĠWe b
Ġhope fully
Ġind ic
CH O
Ġdin ing
Ġwatc hes
Ġsun shine
Ġgen etic
ĠEm il
Ġcivil ians
Ġnote book
Ġholiday s
Us ually
Ġacce ler
B ri
L ess
S ab
g ans
Ġthe ft
Ġb ark
ac c
Ġj ur
ĠT ha
ĠC ongratulations
ĠD R
Ġint ellect
Ġun lock
ob s
Ġfl ame
iv an
Ġsw ell
Ġcha sed
Some where
ST AND
ĠSo viet
Ġcor rid
Ch loe
no x
Ġcrack ed
Sm ile
Ind istinct
Ġwhis key
Ġmotor cy
Ġcy cle
Ġtwist ed
Ġdent ist
Ġsust ain
elp hia
I K
I ER
N onsense
g il
s ix
z es
Â Ĭ
Ġ ==
in ated
Ġc ows
us alem
ad elphia
ĠR ec
ick ers
ud s
Ġover d
Ġcl o
Ġbl uff
eep s
Ġhand y
Ġche ss
int endent
Ġgr id
OR S
Ġcha ins
arr ing
ĠCha d
Ġsoc cer
Ġvill ain
Ġboard ing
Ġinher it
hoe be
Ġtheat re
Ġparano id
F ast
N a
g or
i ates
p ack
Ġp enc
ĠS ong
ĠC a
Ġas pect
op atra
ĠW itch
Ġshe ets
ĠF if
Ġun ited
Ġmon k
the m
Ġadv is
Ġum bre
Ġfool ing
bo at
Ġpract icing
Ġfund s
ĠSing h
J amie
S ol
k ill
v i
z el
Â ±
Ġs igning
Ġb acon
Ġc odes
ar ayan
et on
Ġin ev
Ġfor med
ĠT ucker
ĠB ow
ĠD VD
ĠH ouston
Ġlo gic
ist ics
Ġback s
ort y
Ġun employ
ĠV oice
gg s
pr int
Ġfire works
Ġpos itions
Ġ9 11
Ġ7 5
ĠMan ager
Ġcur sed
IST EN
Ġfarm ers
Sur prise
Ġspin ning
Ġjewel ry
Ġdisag ree
ĠWy att
h im
Ġg ren
Ġl ou
Ġl as
Ġha y
ĠT ry
ĠB AR
ĠL ast
ig ation
So ld
Ġneed n
ĠE ND
ĠK ay
Ġco ke
Ġmin us
Ġtw elve
CRE E
Ġskin ny
Ġofficial s
Clear ly
ĠNe xt
Ġwha le
ĠChand ler
Ġleng th
G reg
J eez
M ain
m ic
s un
Ġw ailing
es is
Ġbe ers
Ġbe ep
Ġdo ck
ac ular
ir ley
ĠS upreme
ĠD enny
ĠH ans
ĠH OP
ĠR an
Ġv i
ĠE van
Ġsl ipp
ont o
Ġ3 3
ead er
Ġpar ole
che ck
ili pp
Ġarm or
Ġann ounced
stit ution
Ġpa wn
Ġphotograp her
Ġconqu er
Ġmans ion
Ġpic nic
C ou
C am
m os
n an
Ġs ucker
ĠS L
ĠB uddy
ĠD AD
um per
ast ing
ĠE arl
ire ns
AN E
Ġpoint ed
not hing
Ġcol umn
Che f
Mar ie
Ġcontact ed
ĠHar old
Ġdesp air
ĠIntern ational
Ġbon us
mind ed
Ġpsychiat rist
B oom
H uman
r ity
he nt
om pson
ĠP ent
ĠJ uly
ag ging
Ġsc re
Ġsw ore
Ġbaby sit
Ġstand ards
Ġstuff ed
Ġleg ally
li est
Ġfre aked
ĠDev il
Ġcorpor ate
- =
m al
w orth
Ġw ret
on ing
ĠI r
st an
ĠT op
ĠT URN
ĠC ARE
Ġout s
end ar
ĠN elson
ĠE ar
Ġday light
Ġen force
ĠV iv
Ġcr ashing
Ġmus cles
Ġsign als
ĠBE FORE
ĠRe v
Ġfle e
Ġsour ces
ĠYe on
ĠVictor ia
Ġstink s
ĠAud rey
. )
J en
V IE
w en
Ġf oster
Ġin ject
al p
ver ted
ly de
st age
ro ve
ĠM ON
ĠG ina
od i
ĠF inn
ĠTH OSE
Ġsleep s
Ġhor iz
Ġpresent ation
Ġrece iving
Ġappro val
Ġcivil ization
Fin ish
Lou is
anche z
Ġcine ma
X T
Ġp oop
ic he
ĠS in
ĠM itch
ĠH at
od el
ĠL au
em pl
Ġv om
Ġover come
irst en
Ġrec ipe
ple asant
ild ing
Ġfollow s
Ġmed s
Cl ass
Ġbank rupt
Ġapolog ise
Ġsuggest ion
ĠTed dy
ĠAlf red
" '
A round
G INE
J IM
l ines
Ġo p
Ġe go
am as
ir it
Ġwhat soever
ĠT ar
ĠB ear
ĠD ennis
ell o
Ġr amp
ĠF IN
ĠK le
ily n
Ġmiss ile
Ġroom mate
Re lease
Ġgl am
Ġsk ies
cl aim
Ġbull y
Ġexp ed
Ġtre ason
Ġperf ume
2 3
C ap
N ic
S coffs
b ear
k nocking
m or
ĠI van
om o
ot ing
Ġwe l
ac o
ĠS ad
ĠC D
ĠD A
ĠH unter
ĠP am
Ġint el
ĠK er
ĠK al
ĠK ra
Ġfin ishing
Ġacc us
Be hind
Ġconf using
Ġcor ps
Ch uck
iff s
ĠInd istinct
âĢİ ,
Bar b
Ġaccompl ished
Ġconc rete
Ġconfident ial
ĠTre vor
Ġplat form
Ġintim id
ĠVO ICE
G R
L arry
c ont
m aker
s chool
Ġa uction
on ic
it is
Ġd ip
Ġc ongrat
Ġp ace
Ġh int
Ġh ockey
Ġha ul
ic i
Ġst unt
Ġj im
ĠC alm
il o
ĠH ON
ĠP ad
Ġpe pper
Ġpo ly
ign ed
Ġmar ijuana
Ġdec ides
Ġcomp ete
Ġshot gun
Ġ19 5
Ġpop s
ĠInd ians
Ġrepe ated
ĠSen ator
Ġveget ables
Ġelder man
E ll
I OUS
c ow
m om
m aking
n ia
u pp
ry stal
ĠH orn
ĠH EAD
Ġde ed
ĠP el
ĠR ams
Do g
ĠSt efan
Ġass ess
Ġrest ra
Ġsecret ly
Ġwind s
Ġexper iments
Ġstrong est
Ġref uge
la us
Ġearth qu
ĠCH AR
Ġopport un
Jo in
Ġtrave lling
Ġliqu id
Ġcollap sed
Ġmethod s
Ġsequ ence
Ġgalax y
C R
N ear
S ophie
g i
g ard
h ist
Ġt ense
Ġst ressed
ĠS ER
Ġcan non
ra ine
Ġcom rade
ĠF ield
Ġoff ended
ĠE le
HE S
Where ver
Ġcar n
Ġbus h
Ġend less
Ġdes ires
Ġcho pper
ĠIs lam
Ġbed s
Ġmed al
Mar ia
Ġhung er
eng ine
ĠPl ay
rup ting
Ġarrog ant
H ide
S ally
y ah
it ated
Ġd ummy
Ġf ug
il ton
ĠH ang
Ġpr ank
Ġhon esty
Ġserv ants
Ġelect rical
Ġsuit able
Ġmagaz ines
Ġnegot iate
Ġcompass ion
Jose ph
ĠViet nam
D iv
J udge
S AM
Ã £
Ġw ig
Ġb ore
Ġb art
ut o
im mer
am al
ĠM ans
ĠM ister
Ġall eg
ud a
act ive
Ġsc out
Ġapp les
Ġra rely
ĠTH RO
Ġinc ome
Ġconf essed
Ġtou g
Ġbar rel
Ġdra in
Ġdev oted
Ġmod els
Ġstore s
het ti
Ġcelebr ity
Ġswe ater
ĠWOR LD
ĠTur k
Ġcontroll ing
B uddy
C ourse
p ol
r ator
Ġt ips
Ġb iz
ic ious
Ġdon t
ĠC ell
ĠC ost
ĠH ope
ĠL enny
Ġnow adays
Ġtr ucks
Ġpe as
OU D
Ġfl our
oll ar
Ġsw orn
OW ER
Ġrel iable
Ġem peror
Ġev olution
Ġposs ibilities
ĠMan hattan
Ġrespect ed
ĠBe at
Ġhy ster
Ġwood en
Cha mp
WH ISP
ĠJess ie
Eng lish
I l
M ess
T ar
d ict
Ġf isher
Ġn ative
at hi
il ot
Ġr oo
hi bit
Ġhar vest
ss on
Ġem ail
ric s
ok ed
Ġball et
Ġcontrol s
aur ice
Ġir rit
Ġcirc uit
Ġtarget s
Ġdistur bed
Ġdish on
Ã³ n
ĠRad io
C HER
E st
G G
P L
P O
c rowd
m aid
m outh
in ea
st ep
ind ing
ĠP re
ĠR onnie
Ġsp ider
Don ald
Ġdr um
Ġtrou bled
ĠCar lo
Ġsurpr ises
Ġexp ose
ĠÂ¶ Â¶
ien na
Sweet ie
ĠDec ember
ĠGib bs
Ġwip ed
3 9
B urn
D ick
S W
d est
l ar
s omething
Ġt ension
is ation
Ġf iction
Ġg ard
Ġin k
Ġre ference
ĠS QU
ĠS atan
ĠA nc
ĠH ospital
ĠP ed
ĠO WN
Ġbl oom
Ġlea f
Ġfl ed
Ġmiss iles
Ġinv ention
Ġfar mer
vel ope
ric ulture
Me aning
Ġtw in
Ġbox ing
Ġconv ict
Ġcirc les
Ġguard ian
Ġcollect ed
Ġsubject s
Ġpers ons
Ġenv y
rib ute
CHE ERING
Ġgrad uate
Ġess ential
Ġassoc iate
ĠGovern ment
ĠEnter prise
Ġtremend ous
Ġdatab ase
4 00
D AN
J esse
g roaning
h r
h uman
i pper
l NG
p m
Ġ =
re al
Ġb arr
Ġg ently
id al
Ġan ch
ĠC ard
Ġall ows
Ġall iance
our age
ĠE va
Ġpr ices
Ġim per
Ġwait ress
int on
so ft
Ġfound ation
Ġsit es
LO CK
Ġtravel ed
ĠMike y
Ġhall way
achel or
Ġscare s
ĠChan g
Sweet heart
Ġdetect ives
Ġreb els
reec e
Ġbatt les
Ġpra ise
Ġsusp ended
Ġcru ise
Ġimpr ison
Ġwebs ite
ĠBELIE VE
P EOPLE
S i
T re
n in
Ġw ax
Ġd well
Ġf ry
at ically
Ġbe e
Ġme als
ut t
ut ions
The m
ro c
ter m
Ġso fa
ĠG ard
ĠP ass
Ġback yard
Ġv ig
ĠE ye
Ġbr ick
ĠBr ing
Ġinc omp
Ġdist ress
KE Y
Ġcontin ent
Ġ19 4
ĠGu ys
Ġdesign er
Ġeduc ated
ĠCOM ING
Jul ie
Ġeter nity
Cons ider
A hem
C ross
g row
Ġf urious
Ġp ension
un ty
un ters
ore t
ol in
em or
Ġsp oon
ĠN AME
Ġtr aces
ound ing
Just in
AT TER
Ġsm ack
Ġfather s
Ġwar p
OT T
Ġdeal t
Ġob tain
Ġinter cept
Ġdem ons
ĠFor get
Ġgas ps
Ġchair s
Ġvan ished
ĠRay mond
Ġboo bs
ĠRome o
Ġrum or
ĠSuper man
Rep eat
Ġna ive
Ġwand ering
Ġdom estic
child ren
Ġdismiss ed
) .
J a
W ish
W ILL
Ġy Î¿u
Ġf ries
Ġh ilarious
st rong
ur ai
ĠT ina
ĠC LE
ĠB auer
ĠD utch
ĠG ate
ĠW ong
ame l
ĠK ings
Ġcar ries
ĠSt and
ever ly
ĠTO LD
ats u
Pe ace
no v
Ġtre as
Sm art
cher s
ĠJan uary
Ġsuck ed
Ġfund ament
Ġtherap ist
Ġteen ager
Ġfortun ate
Ġlux ury
S ara
T RA
i at
x imately
Î ¤
Ġt ack
or f
Ġbe gg
... '
Ġwe althy
Ġdo omed
ac hi
ĠM un
ĠM ISS
ĠC are
Ġcl icking
Ġen velope
Ġsc reeching
ĠV ik
ub by
oc ate
AS ON
Ġinc on
und y
Ġpull s
ĠCar rie
Ġexper ts
Ġprop osed
Cle ars
rend a
ĠCent er
ĠLE GO
Ġmort al
Ġpuzz le
ĠRams ay
ĠTHRO AT
G ame
H um
b one
m aster
n ick
Ġc akes
Ġf er
Ġg ap
Ġp eak
Ġin sect
ic ity
Ġcan n
ĠA gain
ĠD w
ĠD ONE
ĠG roans
ĠH and
ĠH end
ig ail
ĠP retty
Ġam bit
Ġco vers
Ġun pleasant
Ġtheir s
Ġass es
Ġass ured
Ġdef ending
Ġri bs
Sha me
Ġdiscuss ing
Ġpen et
Ġshar ks
Ġaut ograph
Ġspread ing
ĠSil ver
ĠSqu are
mark et
sm ith
Ġprim ary
ĠBUS INESS
C U
W oody
b ad
j an
r ace
Ð ¾
ĠI ot
ĠI ce
im pering
Ġst im
ĠB eck
ĠD al
ĠH art
ĠO livia
ĠE llen
Ġco pper
Ġlea p
ach ine
Ġhand c
int o
Ġdef in
Ġext r
ĠME ET
ai ge
iff les
Ġuni vers
Ġcollect ing
Ġsoft ware
Ġcomplain ts
Ġdisp os
Ġenvironment al
Americ a
Ġinstinct s
Kat ie
ĠAtt orney
Ġcruc ial
Ġpist ol
Ġbracel et
N ancy
O G
Ġt ed
Ġw akes
Ġm ol
Ġl ac
Ġn arc
Ġp harm
oo ch
ĠM ack
ĠT alk
ĠD rive
est ed
ĠR oc
Ġor gans
Ġsp ine
el a
Ġpo ster
ĠV ice
ount ain
Ġ4 2
Ġele g
ĠJust ice
Sc reams
Ġgener ations
ele ct
Ġexam ine
Ġsuggest s
heart ed
Ġsettle ment
Ġbehav iour
Ġbond s
resp ond
Ġpant ies
ĠCHAT TERING
Ġphen omen
G imme
R oss
l est
Ġa er
Ġc ord
ac co
Ġli ons
am ma
if ies
ĠC raw
ĠW ard
ĠR ussell
are r
ak u
ĠK ey
Ġro ots
Ġpre y
ey ed
Ġsit uations
vel and
pr oof
ĠRe verend
ĠSp ace
atur ally
Ġca fe
light s
ĠNOT HING
Ġtur tle
Ġchick ens
Ġequ ally
reed om
Ġvide os
Ed ward
Ġpassion ate
ĠRock y
Fran ces
ĠLaw rence
Eng ine
Ġterrif ying
ĠDOES N
ĠRand all
Ġinteg rity
Ġinterp ret
B ird
E le
F arewell
L ear
N orm
c omp
h usband
r ust
Ġ venge
Ġb in
Ġg roans
Ġbe es
ent h
Ġj aw
ant ine
ĠT s
ĠH en
ĠH op
Ġcom rades
ĠO cean
Ġsp ots
hi re
eel a
we re
Ġmar velous
Ġ3 8
Ġdist inct
Ġrad ical
Ġtrick y
Ġrain bow
SH OT
ĠAnt onio
Ġbang ing
Hy ung
ĠLat in
Ġupd ate
B ased
F igure
F amily
G ra
J ACK
P ack
P LEASE
S k
f ucker
n ut
Ġc uri
ot he
ĠS W
ĠS at
Ġab duct
ĠB ry
ĠB ishop
ĠD aw
Ġr ans
ĠR y
ort hy
Ġplan ets
Ġ3 4
Ġfe ast
Ġbra kes
Ġshoot er
ĠSh outing
Ġloc ate
Ġer ase
Ġcre ation
ĠMon k
Ġfem in
Ġavo iding
Ġexecut ive
Ġmeas ures
N ER
b eth
v ous
Î Ĺ
Ġt v
in ch
Ġs ucking
Ġto re
Ġf et
Ġf ist
Ġl ust
Ġp eel
ot y
Ġh osp
ĠA v
ĠC OUR
ist ance
Ġsome what
Ġoff end
uck ers
Ġdr ums
Ġtri b
Ġcool er
Ġstrong ly
Ġrespect able
Ġpublic ity
Ġinnoc ence
Ġcontract s
Ġcock tail
icy cle
arc ia
Ġow es
Ġunderw ater
Ġrefer ring
Ġinstrument al
Ġelimin ate
Ġchoo sing
Ġembr ace
Ġrapid ly
MAY BE
Ġcancell ed
H aw
b ach
r ors
v ak
ĠI vy
ĠI MP
Ġha st
Ġfor k
Ġre nd
ĠS ak
ĠM all
ĠC ow
Ġso ck
un ately
Ġsee king
ĠP enn
ĠR s
ag a
ater rest
Ġinv iting
Ġbo oth
ens ions
Ġrest ore
Ġfact or
ĠCl aud
Ġmir acles
IG G
Sec urity
ĠEn ough
ĠNat alie
Ġopt im
Ã¡ n
Ġsuspic ion
Ġgreed y
Ġphilosop hy
G one
S pl
m uring
p ants
v ard
on o
Ġm and
Ġc ant
ar ke
as i
ĠA C
ĠP ower
Ġex pense
uck ed
ach t
Ġ3 1
Wait ing
Ġri val
Ġclass ified
Jack ie
ĠAf ghan
ĠEVERY THING
Ġnic er
ĠColl ins
Ġmat hem
Ġleaders hip
ĠAct ually
ĠGovern or
Ġdipl om
6 6
F oot
N ag
O liver
P E
S an
W oo
Ġn anny
Ġin ha
Ġdon ation
ĠM ia
Ġso d
ĠL or
ĠO l
Ġint imate
ud ding
IC T
Ġair plane
Ġdep uty
AL KING
irth day
ĠST AY
Ġbas es
esty le
Gr unting
Ġhost ages
Ġremain ed
Ġincl uded
ĠREA L
ĠBo oth
Ġremem bers
ĠBa iley
Ġchem istry
Ret urn
Ġlob by
pher d
H olly
S A
p erson
r ine
r ings
r ants
Ġto ps
Ġh ive
oo ke
ĠS HO
ea gan
ĠA ren
ĠB enny
rou ble
ĠO d
ĠK end
act or
Ġtry in
ĠNo pe
Ġfl irting
ug ar
Ġsl aughter
Ġacc use
ax i
Ġinst all
Ġind icate
Ġleg acy
Ġmag netic
Ġru ins
Sc reaming
Ġfail s
tern al
rog en
Ġbri be
ĠFl ash
Ġenc ounter
Ġnightmare s
Ġpatter ns
ĠAc ademy
ĠRem ember
ĠRog ers
D ylan
H op
S hi
S earch
h um
Ġ {\
in ations
on ia
Ġb our
Ġc row
Ġk ar
ro be
ĠM IGHT
Ġas pir
ra k
um bs
ĠF all
ĠF ind
Ġsp ook
Ġse vent
Ġfl aw
ye o
Ġmiss es
ib al
ĠMar io
Ġsn ack
ELL S
Ġabs or
ĠMan n
Ġform ula
ĠMc Cl
Ġhi pp
Ġrese ar
ĠJul iet
ĠEvery one
Ġimpro ved
Ġcabin et
Ġsales man
ĠCast le
Fif ty
Ġpersu ade
HAL ES
D ar
G AN
K elly
g ins
Ġm ode
or al
Ġo m
Ġp ose
if ting
And rew
ĠD oyle
ĠW alt
ĠL ance
Th or
Ġex cess
Ġam mo
Ġsc old
Ġcar ing
Ġres ervation
Ġhouse hold
Ġev al
ĠDon ald
Br uce
ĠAn other
Ġpat ron
Ġgra in
IM ES
Ġsell s
ten ance
ific ial
amb oo
Ġaut o
ĠHy ung
CO FF
LI KE
Ġteen age
bird s
Ġorigin ally
Ġdiscipl ine
C aesar
T han
h ma
Ġ ry
Ġd oo
Ġg oose
Ġp ony
ĠH ye
ain a
ĠP ing
Ġv oy
ĠN ed
lf are
Ġ1 000
Ġsha res
ax min
cl uding
Ġtop ic
room s
Gu ard
Ġtast y
Ġrelax ed
ĠÂ ¿
ĠVal entine
Ġexplos ives
Ġalco holic
Ġnick name
Ġfrag ile
Ġtum or
ĠPot ter
Ġhesit ate
ĠCommission er
Ġgest ure
Ġumbre lla
axmin arayan
C hi
D U
J ud
M ir
N ina
T ele
U ALLY
W ord
Ġ _
Ġ vel
Ġt roll
Ġd il
Ġc ong
an ne
Ġf ert
ent in
ĠS eth
ĠT roy
ĠB road
Ġr h
ĠW endy
est ing
Ġwho res
ĠF ab
ĠY an
Ġhand ful
Ġsho cking
Ġmor gue
Ġwar ming
Ġbo il
Ġmove ments
ild a
Some how
Ġquestion ed
Ġhair y
ows ki
Ġroll s
Ġhall uc
Ġcal endar
Ġfant as
ĠSU PP
ĠPal ace
Ġvers us
Ġachieve d
gas ping
ĠRom ans
Meg an
3 2
J O
J ay
P ad
h orn
Â ©
Ġy en
an or
Ġl apt
Ġp ent
et o
im it
ri ving
ion el
ro st
ĠM ust
ĠT oby
ĠC hattering
ood les
ĠH ercules
ist ory
Ġsa kes
Ġpl ague
Ġman ual
ĠE lect
ond a
ER IC
ĠNo lan
ĠGod s
Ġacc ompany
Ġlight ing
ric ia
olog ists
Ġdin er
Ġsil k
Ġval id
Ġwitness ed
Ġadm ir
Ġpan el
Ġpoison ing
ĠBoy s
Ġlink ed
ĠMil an
Ġexperi ences
ĠFe bruary
BB ING
Ġamate ur
osex ual
J i
c rying
t alk
Ġl amp
Ġk icks
oo oo
ri ger
ĠS aw
han ie
ĠB LA
ĠW AR
Ġlo ads
Ġman iac
ĠF eel
ĠF lynn
AR A
Ġsl ay
Ġ3 7
Ġrest less
Ġdri vers
Ġgirlfriend s
Ġpost p
ĠComm ittee
Ġelect ronic
Ġorgan ic
Ġprogram me
ĠCo ach
ĠSec ond
Ġdisappear ance
Ġproduc ed
Ġshr imp
Ġdea rest
Ġmole c
Ġnigg a
Ġfran cs
ĠCra ig
F un
G S
H ay
L ie
M u
T alking
c ony
t il
t ires
Ġc unt
ed eral
ĠA the
ĠC up
ĠD C
ĠD EAD
od ing
Ġal together
ĠL ab
um sy
ĠR EP
Ġman if
ĠF UN
Ġv ine
Ġsc aring
ord ers
Ġmin imum
Ġres olve
ens on
Ġposs essed
Ġconf usion
Ġsub way
Ġcol on
Ġru ining
Ġallow ing
ĠDan a
Ġrespect s
âĢİ ?
El izabeth
uj ah
Ġscen ario
Ġpurs ue
OUN CER
rish na
ĠRich ie
omplete ly
: )
G eor
c ourse
is le
Ġre tain
He art
Ġcan v
ĠB AD
ĠD ude
ĠW ork
ĠP as
She riff
ag hetti
ĠY ES
ress ive
In s
Ġpo pped
ĠU s
Ġend ure
ĠTH REE
Ġread s
Ġcap s
Ġsub stance
UN DER
Ġfail ing
Ġcost umes
ĠBe fore
ĠBar ney
ĠÃ Ļ
Ġphys ician
IND ISTINCT
Ġhook er
ĠPhil adelphia
Ġwheel chair
Ġbutter fly
Ġreck less
ĠWall ace
Ġinspect ion
CLA IM
Ġdread ful
E O
e qu
l oyd
m ons
p at
s ir
ï ¬
re hens
Ġs ings
Ġm i
Ġb reeze
ing ly
am ous
Ġbut cher
ch ran
ĠL ock
ĠR eal
ĠK itty
Ġcar riage
Ġdec ade
Ex hales
ered ith
Ġmess y
Ġbody guard
ĠIN TER
Ġbuy s
Ġcap acity
ĠBE ING
umb led
Ġpress ing
ĠFred dy
Ġregret s
Start ing
ĠSand ra
Bus iness
B eeping
C IS
F ly
F ix
M arty
P anting
R ather
b ury
d i
s l
he ast
Ġw oo
Ġm ates
le c
ut tering
Ġdo lp
Ġst ing
ĠM IND
Ġsh irts
ĠD ate
ĠG PS
est s
ĠL ane
Ġlo sers
ist icated
Ġor bit
ĠO ak
ĠK irk
Ġwhere abouts
ave l
we ed
Ġwh irring
Ġbu rial
Ġsince re
ph ones
Ġreg ards
Ġlear nt
Ã© s
ĠST R
Ġris es
Ġve ter
ĠFran co
off rey
Ġport ra
Ġpet ty
Ġbutt ons
Sw ing
Ġveh icles
ĠMO ST
resp ons
ĠDam on
Ġanx iety
hatt ered
Ġquant um
D A
E lect
G eez
J oy
K ar
L y
Â °
Ġb isc
hat ter
us hes
ic it
Ġj elly
ĠS N
ĠM ind
ĠA x
ĠA z
ĠG reece
ch uckling
ĠP erry
ĠR u
Ġcl iff
be ing
Ġbu bb
Ġkind ly
Ġres ort
ĠMy ung
Ġcamp us
che ering
Ġstri kes
Ġpot ion
Out side
Ġcivil ian
Ġcock s
Ġver dict
HA VE
ĠJer usalem
Ġhyp ot
Ġdecl are
Ġindivid uals
3 8
A lf
B EE
E vent
O O
V IS
W ARD
W AIT
d ale
e b
l ia
an ie
Ġf oss
ut ed
ill o
ir y
ĠS andy
ĠA CC
ĠC T
op en
ĠB as
ĠH ELL
ĠW ind
Ġpro stitute
ber ries
HE LL
Ġse ated
ĠY ong
ump ing
sh in
Ġdream t
Ġbar bec
Ġpartic les
Ġrepl acement
van ia
ĠSy dney
ĠEN OUGH
ĠNaz i
Fort unately
APP LAUSE
ĠDie go
C y
F ood
K ey
O per
R ON
R IE
S OME
k u
Ġs ector
Ġb ent
ot es
le one
Ġre bel
He ads
ĠB alt
ĠD ragon
ĠW at
ĠP A
ĠJ ennifer
th ink
Ġhar bor
Ah hh
Ġsweet s
Ġinst itution
ID S
Ġpur ple
ĠTom orrow
Ġconst ruct
Ġdig ital
Ġhost ile
Ġchair man
Pr ince
Ġprof ound
Ġassum ing
ĠHug o
ĠGab riel
ĠTem ple
Ġpir ate
Ġoverwhel ming
Ġmotorcy cle
3 7
A gh
C rowd
D onna
D ark
M er
S aw
l ene
m art
w ick
re ne
Ġs or
Ġd udes
ĠI d
We ren
ĠM ot
ĠC ur
ĠB re
ĠB urns
ĠP ierre
ard ed
Ġneed ing
Ġag enda
Ġoff ers
ĠY am
ĠV ar
form ation
With in
IC AL
br id
Ġdet on
Ġsub mar
umb ai
Ar gh
ĠChe ck
Ġaut hent
Ġrev ol
Ġpil ots
Ġcommunic ations
Ġconvinc ing
ĠShi va
ĠGold en
Ġdocument ary
Ġbatter ies
ĠIm perial
Ġspect acular
Expl ain
ĠFace book
Ġcomprom ised
Ġextr aterrest
B rought
H ur
H ouse
J in
d ong
z art
re hend
Ġp ul
Ġwe igh
Ġli king
ĠS ince
ĠG ROW
Ġr ascal
ĠW EE
Ġany ways
Ġal p
ĠR iley
Ġun w
oss ibly
Ġcont ains
av i
Ġres ur
oc a
Ġcount ed
Ġchar t
Wh ispers
arr ot
Ġes e
ĠHE AR
Ġcourt esy
Ġappro ved
ĠAb i
Ġste pping
vis or
Ġwhis per
Ġgrad uated
Ġfif teen
Ġflo at
Ġdrown ing
ĠYe o
ĠTur key
ĠJon as
OUN T
Ġcraw ling
Ġfrust rated
Ġcance led
F ear
S IDE
W ind
Ġw arden
Ġre duce
ĠC her
ĠC ec
ĠC aleb
Ġas c
ĠB RE
ĠL ola
ĠO riginal
AN NA
Ġper imeter
mer gency
Ġra v
Ġchild ish
app ropriate
Ġcons istent
ĠCl ass
Ġ9 9
Ġdi vers
Ġopp onent
Ġsuper hero
Ġgener ally
ĠWill ie
Pl an
Ġprec aut
Ġwa ist
Ġbal cony
Rep ort
BO B
Ġunlike ly
Mur der
Ġsymp athy
Ġgrat itude
ĠFriend s
C atherine
D i
l n
u u
Ġt in
Ġt am
Ġs arc
Ġf ame
ĠC AME
ĠC rane
ĠD I
ĠG host
ĠF ord
ĠE R
ning s
au ri
iz ations
Ġlot tery
Ġcomp ar
Ġaw hile
Ġshut tle
Ġdem ocracy
UR T
min ation
Ġroll er
Ġdirect ed
do es
Ġbother s
Ġtor ch
Ġshar ply
Ġneg lect
Ġinterview s
Ġlift ed
ĠSch midt
Ġgrad uation
Ġacqu aint
Ġhack ed
Ġflu id
ĠAtl antic
Ġhumili ated
Com rade
ĠIre land
Luck ily
2 6
D ance
E VER
d ra
Â ¢
Ġt el
he ard
Ġs ip
st ore
Ġj ar
if ully
ĠA ye
ĠB ud
and ed
ĠG loria
os es
ĠJ udy
Ġback ing
Th ird
IN CE
oy s
Ġguess ed
Ġprom ising
ĠBE CAUSE
Ġtrans mission
Ġquick er
Ġstate ments
uk o
ĠPar liament
ĠMin istry
Ġiss ued
ĠUn it
bel ix
Ġcorrect ly
Ġgang ster
Ġvac c
Ġspo iled
Slow ly
ĠDor othy
ĠFer r
GUN SHOT
Ġsurviv ors
Lea ving
Ġsaus age
Ġopportun ities
, '
C ontinue
G ab
H annah
J J
P ress
R oom
S usan
m un
m bers
p ow
r um
z ens
Ġw it
Ġd ing
Ġto b
ĠM ah
ĠT onight
ĠC ad
ĠC row
Ġright eous
ĠG aul
Ġr am
ĠH UH
ĠW al
ig i
Ġde leg
Ġsay in
ct ions
ick er
ud dle
Ġcl ues
Ġwait er
Ġres erve
Ġcr icket
ĠAnd rea
Ġmad ame
Ġstra in
Ġdi ab
ĠPr inc
iol et
ĠSam my
Ġinf o
ĠSha wn
Ġocc as
Ġbomb ing
Ġdanc ed
cha e
Ġpolit icians
Ġchallen ging
Ġamb ition
Ġstab il
CHUCK LING
ĠDa isy
Ġdeb ts
Ġshr ink
Ġcompan ion
ĠEll ie
Ġsucceed ed
Ġqual ified
Ġwarri ors
Ġpsycholog ical
ĠCliff ord
Ġrein force
Ġunnecess ary
Ġlapt op
2 8
A ction
A AH
K yle
M ON
Y ah
g us
s obbing
u ght
Ġs hattered
ha mm
Ġg er
Ġn earest
Ġp oo
Ġk in
ac cept
Ġst roll
ĠM I
ĠD et
Ġr ally
Ġr uth
ain ts
ig gy
Ġde fect
Ġshe lf
Ġmo ck
Ġse iz
Ġmin es
ial s
Sh in
Ġsub tle
ere z
Ġref riger
Ġeff icient
Car rie
Ġrent ed
Ġfright ening
Te acher
FOR D
Ġflo ors
ĠRod ney
Ġsla pped
Ġcraw l
Ġstrict ly
Jac ques
ĠWR ONG
Ġoutra geous
ĠAlp ha
Ġdeliber ately
ĠIND ISTINCT
ĠDist rict
Ġinev itable
B U
C rying
N eg
P rec
k ers
Ġ ic
Ġt an
Ġs outhern
Ġb ount
Ġg own
Ġp anting
ve ll
ar re
ill ery
ĠS ign
ĠS outhern
Ġcan s
ĠM ick
op er
ĠB and
ĠD iana
ĠL ena
ĠP ic
um ar
Th ousand
ĠO ri
Ġpro secution
ĠE M
ĠE ver
Ġtr ump
Ġbl oss
Ġse Ã±or
the l
Ġrest ing
Ġhat ch
app lause
Un like
Ġoper ator
Ġheal ed
erm aid
Ġswe ating
Ġmut ual
ĠTra vis
Ġuniform s
Ġgro aning
Ġhyp oc
Ġple ad
ĠEv ans
Ġretire ment
S at
f u
Ġd um
Ġc herry
Ġg rey
Ġl am
id ance
ad ian
ĠB ox
Ġr ushed
ab led
ĠJ ill
ĠJ asper
Ġmust ache
port s
ah ul
Ġmon keys
Ġbre w
Ġpres um
Ġdef ence
Ġsent enced
ĠRe id
Ġtrack ed
Ġrob ots
Ġperform ing
Ġtravel s
Ġtrick ed
Ġmajor ity
Ġjealous y
ĠHam mond
ĠBet ter
Ġlaws uit
Mag gie
Ġfeather s
ĠDiv ision
Ext ra
Ġlegit imate
5 5
B ab
C ur
C apt
E Y
F ur
G e
T odd
T ouch
l ad
ha ir
Ġn it
ar se
Ġin fer
ĠA bb
Ġsh red
ĠP ink
ame la
Ġcon vert
Ġam use
Ġover se
Ġqu id
Ġcour ts
ons ider
EN NY
Ġthank ful
Ġmusic ian
Ġimportant ly
Ġcor ruption
Ġcor respond
Ġdisc on
Ġref uses
Ġexplain ing
Am ong
Ġshort s
Car ter
Ġsuff icient
LES S
ĠWANT ED
arc hy
Ġcrowd ed
Ġsaving s
ĠNe il
Ġow ed
Ġslight est
fle et
ĠNic hol
Ġpros per
Ġlun atic
Ġsacrific ed
ĠSav age
eder ation
ĠPlan et
T ur
b ies
c ery
p ers
Ġthe ories
Ġb ounce
er ving
ĠI ron
He ard
ro d
ro ph
ĠS ult
ĠH ARD
ĠP art
Ġwere w
ĠE asy
ĠK atherine
Ġbl amed
pl ed
Ġfl ush
ĠSt ew
ict ory
air y
ric ane
Ġclear ing
rol og
Ġcol ony
Ġvill a
ĠNick y
Ġdesert ed
ĠMu lder
Ġtoler ate
ĠJO B
Ġneut ral
Ġcorrid or
Cou ple
M ill
R uss
T em
g al
g ra
Ġf eared
Ġg n
as ka
Ġre ign
st orm
ĠS ame
ĠS IR
ĠL iber
ĠP res
ol ph
ĠN eg
ĠN orman
Ġmo aning
Ġco con
ĠSt ud
up iter
An gel
Ġspeak er
Ġrep orters
Ġgrand daughter
Ġstar ve
Bl ow
Ġinf inite
ĠBar rett
RI ED
ĠCol umb
igg le
ĠMor ris
Ġrestaur ants
Ġchat tering
Ġur ge
AIT LYN
19 2
Ġcooper ation
Ġprob ation
Ġvenge ance
D un
F ocus
H u
P oint
T s
W ent
c all
e ged
n ormal
o ir
Ġm op
ay e
ur sing
ĠC as
Ġout come
han a
ĠG ul
od a
ĠL ynn
ĠP ay
Ġv it
ĠN ora
ak h
Ġcl ip
Ġcl erk
AT ES
Go vern
ĠCh itty
Ġch im
Ġch imes
aj i
ĠMar co
Ġvis ible
Ġmed ium
ole on
leas ure
Ġhang s
duc ing
Ġsqu ir
Ġopp osed
Ġsupport ing
ĠEd ith
Ġhy per
ĠHar riet
ĠCo ast
kn ock
Christ ine
fl ies
ĠPort ug
Ġvic ious
Ġnurs es
ĠLaure n
UMB LING
Ġhaunt ed
A aah
B abe
G iven
P A
P s
r ats
Ġc ured
an z
ed es
Ġh unch
ke e
st ream
ĠS ummer
ĠM oo
ĠT am
Ġher d
Ġr ushing
ĠL eader
ĠP ost
ĠF u
ĠN ixon
red ible
Ġam using
Ġsho ps
Ġcomp artment
ĠTh ompson
Ġdeal ers
Ġbusiness man
Ġtou ches
Ġgod dess
Ġdisc ount
omm od
Ġhair cut
ĠBl ood
Ġlock s
Ġbur ger
Ġconv iction
ĠLook s
Ġorgan ize
Ġpregn ancy
Ġtour ists
Ġund o
Jo ey
IRE N
Ġhous ing
Ġcorn ers
Ġje ans
ĠMir anda
Ġadvert ising
Ġorche stra
Ġcuri osity
3 6
D or
I mm
I BLE
T erry
f irst
n um
Ġb ik
Ġb unny
Ġp ond
id dle
Ġdo se
ion a
ĠM ing
ĠT ON
ĠC ameron
ĠB rig
ĠD rew
ĠW IFE
est ine
ĠR et
og i
hes s
oc o
Ġsl im
inc he
Ġfav ors
TH AN
Un h
Am anda
Ġsad ness
Ġinvestig ator
Ġinf ant
Ġcamp ing
ĠMad rid
Ġsens ible
Ġobs erve
Ġdevelop ing
Most ly
Ġwhis pering
Ġbound aries
Pat rick
izz ie
Ġautom atic
Ġfianc Ã©e
Ġpled ge
Ġvag ina
Ġrans om
COFF S
W AS
h or
Ġw o
Ġn om
Ġn ations
Ġn avy
Ġn orthern
Ġh orm
Ġha mb
im et
Ġre duced
ĠA st
op hia
ĠB ol
ĠD EAL
ĠL ib
ol is
Ġsp erm
ous in
Ġv ari
Ġtal es
ĠK el
Ġen light
ass ie
ES E
Re becca
Ġpres ume
Ġob sc
Ġshoot s
Ġland scape
Ġsus hi
ĠIS N
Ġprop he
Ġelect ed
Ġproject s
Ġboo st
ĠRob bie
uz zy
ĠOPEN S
Ġles bian
Ġadminist ration
Ġignor ant
Ġdisgu ise
ĠREM EMBER
A ha
B ear
D ee
E ve
b ang
f ood
r imin
Ġb ob
Ġb acter
Ġg ee
Ġp es
al ine
all as
ro vers
ĠB om
el and
ĠN et
Ġro gue
Ġbet ting
Ġcomp ound
oc ation
IS A
Ġgl ue
Ġhum ming
Ġsex ually
ex hales
Ġart ificial
Ġ8 00
Ġjud ging
Ġneighb ours
ĠNE XT
Ġpen gu
Ġann ual
Ġcal f
Ġview s
ĠBoy d
Ġprof its
Ġconce al
Ġcott age
Ġenforce ment
2 7
4 7
A Z
C ent
I ce
r ich
w all
he e
in ction
Ġc av
en ess
at on
ver ty
ĠS pr
ĠM oney
ĠB EST
ĠB onnie
Ġr up
Ġlo ft
Ġcl ay
Ġsc ound
Ġsha m
Ġhit ch
Ġfree ly
ĠShe lby
Ġdep th
ĠChrist opher
Ġland lord
umb les
Ġsun ny
ĠHE Y
Ġyell ed
ĠSP EAKING
Ġcous ins
Ġkidna p
Step hen
ĠHarr ison
Ġeconom ic
Ġdelay ed
hib ition
Ġpi geon
Ġcasual ties
Event ually
C ast
C ame
I an
L ift
g ate
u ating
Ġl ane
Ġre aches
ho en
ĠC ru
ĠB ureau
ĠD in
ĠG L
Ġr umbling
ĠH U
ĠH OUSE
ĠL aughter
Ġor gas
ĠN ate
red ict
Ġcl oth
Ġlet hal
Ġsc umb
St efan
In v
ĠU t
Ġmar ching
Ġmon it
Ġpret ended
Ġgl ove
Ġfight ers
ĠSc reaming
Ġpast a
Ġexam s
ĠMc Queen
Ġcig ar
Ġincre ased
Ġhumili ating
Ġsmok ed
ĠCont rol
Ġsoph isticated
ĠAfghan istan
D ig
E li
E va
M IC
P OR
R ING
W r
b ased
c up
c ross
w ald
Â Ĩ
Ġd ot
an qu
ĠI V
Ġre levant
Ġst ove
ent al
ĠM as
ĠM ost
ĠM ik
Ġr ay
ĠW u
ĠW OMAN
ĠR ee
So ft
Ġv ocal
Ġcl ick
St ud
RE S
Ġpo verty
av an
Ġcame l
form ed
Ġpres erve
Ġlight ly
Ġinter rupting
ĠAN OTHER
Ġsy nd
AL IAN
Ġdist ingu
ĠRe x
ere na
Ġcourt room
RI P
ĠAs ia
igg s
Ġign ored
ĠKat hy
Ġtrave ll
GET HER
ois elle
Ġlog ical
Ġlif estyle
Ġacce pting
ĠSte vie
itzer land
Ġimmort al
ĠKle in
B rilliant
G y
a ac
s ama
Ġd ash
Ġbe gged
Ġwe lfare
Ġst adium
ro e
ĠS pencer
ĠA ff
ĠC oming
No ah
ĠJ ules
ĠK iss
llo cks
Ġdiffe rences
Ġdou che
Ġcell ar
Ġbattle field
ĠAS S
Ġtour ist
Ġharm less
ĠCor leone
ellig ence
ĠREA DY
ATION S
Ġdemand ing
Ġess entially
Ġcheer le
Ġsan ct
bur gh
Ġpsych ic
Ġcott on
Ġgam ble
Bas ically
Ġmatt ress
Ġcongrat ulate
accept able
R en
d ings
f old
g reat
p ool
Ġs ought
Ġg ained
ĠI ng
Ġn an
ac re
Ġfor ged
ĠM ummy
ĠA in
Ġab used
ĠD er
ĠH EA
ĠP iper
Ġag riculture
ĠN av
ĠE h
ĠY un
Ġsec ured
Ġad apt
ĠSt r
Ġres ume
Ġper vert
Ġsho vel
Ġtra um
Ġpol ar
An ne
ET S
Ġinst it
Ġinst antly
ĠZ oe
Ġtrans plant
Ġclean er
Ġship ment
Ġfoot steps
Ġcreat es
Ġexp osure
ĠLe ft
El ena
Ġsna kes
NE Y
Ġawait s
Ash ley
Ġscholars hip
Ġpenc il
B AB
M ORE
M urd
S id
V O
e ase
j um
ĠS ull
ĠS pring
ĠM ath
ĠM ey
Ġab ilities
Ġat omic
ĠD J
ĠD ou
ĠG on
Ġr ating
Ġr aces
ĠW r
ĠW icked
ĠP OWER
ĠF INE
ĠO x
Ġv ague
How ard
Ġlast ed
Ġ2 000
Ġte x
Ġtra ps
Ġweek ends
Ġrel ation
Ġtri ps
br other
Ġoffic es
Mar g
ĠKing dom
Ġdiv ide
ĠBar nes
iam ond
ĠAm ber
Ġtor ment
Ġtele gram
Ġdesper ately
fr ont
Ġinsult ed
Ġswallow ed
abor ate
Ġlou der
ĠCOUR SE
C AP
H UH
M em
M OR
M ummy
S chool
V oice
r ations
Ġm ig
Ġb apt
Ġf erry
Ġl ure
ĠI ove
Ġst y
Ġkn ives
ĠC hel
ĠB us
ĠD om
ĠG ame
Ġex otic
ĠE in
Ġint act
Ġam mun
Ġnew ly
Ġreal m
Ġsha ft
Ġser ver
Sh outing
oc ated
ope z
Ġsk etch
IC KS
Ġsun set
Ġsun rise
Ġ* **
CT ION
ENT S
ĠAs ian
ĠPh one
ĠPro secutor
ĠMad ison
Ġconsider ation
Ġobs ession
Ġobject ive
Ġincl udes
Ġpriest s
Ġoppos ition
Again st
Ġprinc iples
bor ne
Ġbi ological
Ġhorn s
war f
Ġfianc Ã©
ribut ed
ĠPhill ip
Ġhob by
Ġprescri ption
Ġfundament al
Ġdiscon nect
B uck
L iar
T ea
U sing
U sed
Ġ Î¿
Ġw estern
Ġm aker
Ġb og
Ġl ick
et ta
id i
We ird
ĠA gnes
ĠG onna
Ġal ter
Ġde eds
ĠR andy
Ġsu nd
iss y
Ġbl aming
Ġse eds
ang led
Ġac res
Ġhard ware
ank y
Ġfore head
Ġsn eaking
Ġdra gging
ĠGo ing
Ġinf ilt
ĠBar on
Ġpost card
Ġapprec iated
ett i
Ġcult ural
ĠChan nel
Ġmurderer s
uj i
ĠPer fect
REAT HING
ĠRos a
Ġterm inal
aud ience
La ure
ĠNaz is
Ġpour ing
ĠJoy ce
Ġpurcha se
' ...
B ingo
P ARS
S ak
T OM
m ph
p an
Ã ª
Ġa venge
in ery
Ġm ild
is l
Ġc ue
Ġp el
Ġh ut
Ġj umps
ĠS ounds
Ġdon key
ĠA P
Ġback ed
ĠO p
omet own
hi gh
00 00
ang a
Ġkid do
ĠV I
Ġacc ommod
Ġhat s
Ġcho ke
itch ie
Ġpar aly
Ġfast est
Ġinvest ed
Ġstraight en
Tr acy
Ġris ked
Ġrespons ibilities
Sha ke
ĠEd ie
ĠCon stant
yn asty
ĠBen jamin
Ġcrack s
ĠGET TING
Ġfreak s
imp ers
Ġattempt s
ĠVal erie
Ġmaid en
ĠCam ille
ĠDef ense
Ġrepres ents
Ġwrit ers
ĠIsab elle
ĠINDISTINCT LY
8 8
K itty
N aturally
S U
V o
V er
V is
b ok
p ar
s orry
Ġ ze
re act
Ġb icycle
Ġf ax
Ġl ined
Ġo x
Ġre new
ĠT rent
ĠA aron
ĠD ub
ĠG UN
Ġr ational
end ant
ĠR ama
Ġmo ld
Ġsc am
Ġar tery
In cluding
Ġche aper
Ġsha de
Ġgr ades
Ġpre ced
Ġgl ow
Ġheart beat
land ers
Ġyoung est
ĠIn stitute
AM M
Ġsick ness
ĠAd rian
Ġappro ximately
Ġmain tenance
Ġequ als
Ġsle eve
SP EAKS
ĠMic hel
ĠMur phy
ĠBR OTHER
Ġess ence
Fran c
Ġoccup ation
Ġoccup ied
Fif teen
Ġaddition al
Ġpor ch
Ġpean ut
Ġmour ning
Af raid
Ġzomb ie
F orm
L es
L iving
S na
W ed
Y u
b ot
Ġ @
Ġd d
is n
Ġc ope
He aven
ĠB IT
ight s
ĠG raham
ĠH aven
ĠL ud
ĠP ierce
em oiselle
el ope
ass ing
RE ADY
Ġcont rovers
up beat
atter s
Ġprom oted
Ġfe es
co at
ĠShe ldon
Ġexpect ations
Ġorder ing
Ġspecial ist
Ġpar ach
Ġtreat s
ĠMan ny
Ġsmell ed
ounc es
Ġband s
ĠHar vard
Ġvac uum
Ġport al
urt is
Ġresc ued
Ġment ally
ĠMAN Y
GAS PING
Hy ah
Ġce ase
ĠMos cow
ĠLy dia
Ġresident s
Ġkilomet ers
ĠRober ts
Ġsentiment al
hoen ix
B art
C ow
C US
C AITLYN
F L
G OT
K ang
M I
r t
Ã ¾
Ġw ander
an king
Ġn igger
Ġn ursing
Ġh oo
Ġin appropriate
ri gg
Ġfor ty
Ġst ain
Ġst alking
Ġj og
ho re
ĠT oday
ĠC orn
pp le
ĠG riff
ĠL iam
ĠR ab
ĠR inging
Ġsp ared
be fore
Ġco ins
Ġcou p
Ġres erved
Ġel ite
Ġatt ending
Ġmet res
sy l
Ne il
let cher
Ġmod est
Ġform ation
RI AN
ĠYOUR SELF
ĠSH OUTING
Aw w
Ġrese mb
Ġbow ling
Other s
ĠSw iss
ĠÂ ¡
Ġmeaning less
Ġappoint ed
Ġdisappoint ment
Ġsail or
Ġpurs uit
FR OM
ĠNik ki
Ġtut or
PARS ONS
8 00
9 5
H ug
L in
a uc
c hen
f uck
Ġa y
Ġc oughing
Ġto ll
or o
Ġl id
Ġin ex
ro v
ĠS ire
ĠD ES
ĠD EA
Ġno ises
ĠH ills
ĠP ra
ĠP il
ĠJ ong
Ġsp ear
ĠE rica
Ġint ri
Ġhapp iest
Ġun l
Ġun ite
ary l
port ant
Ġsha ck
Ġgr asp
oc aly
Ġacc using
ier ra
Ġchar ging
Hi ya
Ġpick s
ĠIN V
Ġvis its
Ġbar bar
Ġsort ed
Ġtrans ition
Ġsub mit
Ġpar as
Ġ7 2
Ġdiv ided
Ġexam ination
for ward
ram s
yl um
Ġaud io
Ġamb ush
âĢİ. âĢİ.
ĠDep uty
ĠPer haps
ĠMars hall
ĠDoes n
Ġthorough ly
ixt een
Ġreun ion
Ġhosp itals
jum ma
Ġammun ition
I r
J ones
P arty
W all
a ves
f aced
z ra
Ġ \
an as
Ġha bits
al in
Ġdo zens
He len
Ġnot ion
ĠS ic
ĠS yl
ĠC ind
ĠC omp
Ġsh iny
ĠL ev
ĠR ip
ĠJ ag
Ġgu idance
Ġsp aghetti
ĠE pisode
Whe w
ĠK ansas
iz a
RE W
Ġsm iles
ĠV in
Al bert
Ġtri angle
atc her
Ġdisc reet
Ġrid es
Ġadv ent
Ġ6 00
zz o
Ġris king
Ġve t
ĠQ ue
ĠSha d
Ġpray ed
Ġbear ing
ĠHar per
Ġident ical
Ġvol ume
ĠCle opatra
CHE L
Ġgro cery
Ġpros pect
pense ful
Ġchemical s
Ġbelief s
Ġpupp et
Ġisol ated
Ġcurtain s
ĠCHUCK LES
Ġacknow ledge
Prot ect
Ġanch or
Ġruth less
0 3
D irect
R um
T IRE
T echn
d ah
ou p
Ġs unk
Ġb un
Ġb amboo
er os
Ġf ib
ĠI ll
ic ia
am ine
ĠS anchez
ĠP ick
ĠP ap
ĠP earl
em ic
Ġv end
Ġro d
Ġ2 50
av in
ĠU gh
ub ali
ĠBr on
unk s
Ġfollow ers
ĠAl ways
Ch uckling
Ġperfect ion
Got cha
Ġpresent ed
Ġcat ast
ounc ing
Ġrecogn ition
ĠEl aine
ĠDe bbie
Ġfreak y
Ġast on
UD E
ĠHol mes
Ġwhist ling
Ġmisunder stood
Ġcounsel or
Ġtransl ate
ĠMcC oy
Fore ver
Ġselect ed
Ġpip es
Ġpanc akes
Ġbart ender
L ow
L im
N orth
O V
P en
S outh
S QU
W est
t urn
y in
ha lf
Ġy ield
Ġh ust
Ġh ose
ad ine
ĠC lyde
ĠB unny
il ation
ĠD IFF
art e
ul iar
est o
ĠL ois
Ġtr aced
ĠK ry
act ory
ĠSt art
ĠSt ein
Ġmar s
OR ING
For ward
ek s
Ġcra z
app a
Ġpun ched
Ġobs ervation
Ġpath s
Ġguarant eed
Play ing
ĠJen na
Ġresign ation
Ġrul ing
Ġtob acco
Thousand s
B udd
C ode
H ung
H app
J ew
L AN
M ale
f ol
i ative
v ol
Ġs ect
Ġb ou
Ġf use
ay ed
Ġh ometown
Ġbe an
ĠT iger
ĠT ALKING
ĠA ra
Ġab dom
ack er
ĠL indsay
ĠP M
um in
em ale
em ma
ĠN orm
ĠK ane
St even
ĠâĻª âĻª
ĠSt aff
ĠV as
Ġph oned
Sh ort
Ġra ins
az i
Al ong
Ġbeaut ifully
you ng
UT H
Ġsn iper
ĠCar la
Ġloc ations
Bl ake
Ġsupport ed
ĠEd gar
Ġdesign s
off s
Ġauthor ized
Ġspl endid
Ġcustom s
Ġfac ial
Ġban ned
arc y
ĠCle veland
ĠPLAY S
ĠCOM M
Ġgall ery
Ġuns ub
ĠBel g
Ġlegend ary
ĠGirl s
ĠBern ard
Ġdynam ite
Ġmaj esty
- "
3 3
E than
G Y
H undred
J apan
L ex
L inda
M is
P RO
S ue
S ky
l ittle
Ġy acht
Ġb er
Ġb achelor
Ġd uel
Ġc ater
Ġre leas
ĠD irt
ĠF OUND
Ġv ow
ĠN one
Ġtr oop
Ġbl unt
St rike
Ġhand writing
Ġcou Id
Ġres erv
AR RY
Ġser ves
Ġbo ards
Ġset up
cl ub
ĠZ o
Ġdest ined
eter ia
Ġthrow s
Ġsuper market
ILL ION
Ġtast ed
ĠQu ick
Run ning
Ġinterview ed
ĠGOT TA
Ġexec ute
ĠMars hal
Ġkil os
ĠAng ie
Trans l
ĠFro do
ĠBec ky
ĠUNDER STAND
Ġbiz arre
ĠPed ro
2 9
6 00
B ABY
F ill
H alt
H MM
V en
b ound
c orn
d ollar
i ries
Ġt resp
Ġa isle
Ġw ires
Ġc yl
id ote
ĠS WE
ĠS peed
ĠC yl
ĠH og
ĠW ars
ĠW ENT
king s
ab lo
em ents
em ption
ĠN eed
Ġtr ading
get s
Ġfl irt
ĠCh un
Ġass ets
Re x
uff le
Ġmet er
Ġ4 7
Ġaw aken
Ġhusband s
Ġadv ised
En ter
Ġdrunk en
ĠCol in
ĠPaul ie
ĠQu iet
Ġclaim ing
ĠRob inson
ĠSE EN
Ġassault ed
Ġconcent ration
Ġvamp ires
Ġsem ester
ĠBor is
Ġregist ration
Ġelimin ated
ĠDun can
Ġlaun ched
Ġsup reme
Ġyog a
Ġunemploy ed
Ġportra it
A X
B ook
F ish
M arry
N am
N IE
P ri
R IS
S COFFS
T ak
f are
t em
Ġt icking
Ġf usion
et ts
Ġh ides
Ġe uros
ĠS ET
ĠM ATTER
Ġout law
ĠD ae
ĠH OUR
ĠP hoebe
ase l
ous es
ĠN ICE
Ġtal ents
iss ors
Ġad ore
AS A
Ġret ri
IC KING
Ġind ul
Ġdep ression
oor ay
Ġcountry side
gr im
ĠSp eaking
Ġart icles
Ġref res
Ġve ins
Ġappro ached
Ġdraw ings
Ġprop het
onel iness
ĠSer iously
boy s
OL ICE
ĠTe resa
Ġsen ator
Ob jection
Ġscore s
Ġsew er
Ġoccasion ally
Ġfulf illed
Ġfag got
Ġdun no
PET ER
Ġincon ven
G IN
c are
m ad
m ie
s ay
on ge
Ġm amm
Ġd ome
Ġf ierce
Ġf ountain
Ġg ir
ĠM ine
ĠC ook
ĠC hen
op es
Ġsh ifts
ĠG ideon
ĠL uis
os a
ĠK enn
Ġse ize
Ġthought ful
ĠHe art
Ġcont ained
ĠV ienna
OR K
Ġatt ic
anc hes
Ġinc ap
ST OP
ok u
gr and
ĠSe attle
IR D
ov ich
Ġdirect ors
Think ing
Ġattract ion
Ġtun a
ĠMont ana
ĠMuslim s
ĠCart wright
ĠEL SE
Ġassemb ly
Ġoverse as
redict able
1 50
A ut
A lp
B all
C ra
P ret
R y
V e
a o
b as
Ġa pe
Ġf ut
om on
le vel
Ġst un
Ġst air
ĠB EA
ĠR oth
ĠR angers
ĠJ ACK
Ġcom ments
ĠF amily
ĠF ATHER
ĠF ederation
Ġsp ying
ick ets
Ġtr ay
ree ks
Ġsc oot
Ġbr icks
ave d
Ġmust ard
RE T
og o
Ġbit es
Ġapp la
rent ice
Be gin
Ġexpl oded
Ġdef ensive
ĠCl ara
umb ers
Ġshut ting
Ġdisapp ears
Ġaccount ant
ĠAT T
hh h
Ġtun nels
OUND S
Ġtall er
ĠWHO LE
Feel ing
Know ing
Lou ise
Ġtransform ed
Ġlob ster
Ġrecru it
Ġtempt ation
Ġalt ar
Ġcondem ned
ocrat ic
Ġbabysit ter
Ġearthqu ake
Ġphenomen on
Ġbarbec ue
A way
C ES
G il
T ha
Y D
Y ea
t ight
Ã º
ed e
us k
Ġh ott
Ġha l
Ġkn eel
ust in
ĠT ele
ĠA IR
ĠB aker
ĠG ale
ĠG RA
ĠH ir
ig uel
ĠP ERSON
ĠF letcher
qu er
ĠE AR
ĠK ir
ud son
Ġro be
Ġsc ars
pt ic
Ġac adem
ĠV ill
Ġch uckle
Ġra g
Ġsw ap
orn s
Ġinc or
Ġgun shot
Ġext ent
ĠDr ake
Ġkiss es
Ġspend s
Ġoper ational
Ġproper ties
amb a
Ġchallen ges
ĠWOULD N
ĠReg ency
Ġsav age
Ġsumm oned
Ġsacrific es
ĠInc a
ĠHAPPEN ED
Ġinterrog ation
Ġath let
Ġexped ition
Ã£ o
Ġeleg ant
B eth
D irty
L ot
R aj
Y ELLING
c io
c omm
e u
f y
i qu
s is
t op
y on
Ġt ens
Ġs i
Ġb ats
Ġh unters
al ia
Ġst unning
Ġgo als
ĠS AME
ĠS arge
ĠA cc
ĠG ro
ĠW ake
Th under
ĠF AM
em pting
ĠK i
ĠK az
Ġbl ink
Ġqu itting
St rong
ise ly
Ġbu nd
Ġgr udge
rest on
Ġrest ored
lic ia
Ġprotect ive
Ġadd iction
ĠCor poral
Ġpet ition
Ġamount s
Ġult imately
Ġmechan ical
Ġqual ities
ĠBO OK
Ġvolunte ers
Carl os
Ra ise
ĠSoc ial
Ġcaf eteria
Ġspaces hip
Ġfoss il
C OUGH
F BI
G ene
L ost
N athan
R IST
S een
S elf
W ER
b ee
b eeping
r ide
u pt
z nik
Ġw itches
Ġb ung
is d
Ġn omin
Ġha zard
Ġwe ep
ad ers
ter min
ĠB est
ĠD eep
ĠG ran
Ġr anks
od or
ol ine
ab ber
ĠF en
ĠO din
ick a
ĠE ug
IN TER
hi er
Ġover s
Ġle ase
ĠY ellow
Ġdead line
Ġsl ams
Ġfr amed
Ġpoint less
Ġread ings
Ġins ulting
Ġtrou sers
Ġprot ein
SE E
ĠSp irit
Ġcontin uing
Ġcol ours
Ar rest
ĠSam antha
Ġdanc es
Ġant idote
Ġdeliver ing
po llo
Feel s
ĠDev on
Ġet c
Ġrack et
Ġchrist mas
ĠFrances ca
ĠAtlant is
ĠCLOS ES
Ġtransmit ter
ĠLEA VE
Ġcorps es
Ġdispos al
Ġrup ees
F resh
m ist
p ter
Ġm asc
Ġc atches
Ġn ipp
Ġfor cing
st ill
ĠS uk
Ġdon or
ĠM aurice
ĠT RY
ĠC ode
uc ed
est ro
ĠP ers
ĠP itt
hi es
Ġbl ocking
Ġun stable
Ġlast s
Ġimp ulse
Ġpain ter
ĠChrist ians
Ġbar ric
ĠAr nold
ĠGr unting
Ġpub lish
Ġbur gers
Pro blem
Ġhonor able
Ġsight s
Ġfac ilities
Ġbrief ing
holog y
Ġchap el
Ġpump kin
Ġrevolution ary
ĠLeon ardo
Ġrail way
Par is
Ġshield s
ĠPRE T
Ġlabor atory
Ġspons or
Ġrebu ild
Ġsabot age
ĠBroad way
Ġsubmar ine
D ifferent
E nt
J ung
K enny
L ondon
P rivate
Y E
b il
i ard
m ill
z ona
Å ¾
Ġm ice
Ġd ried
ĠI mp
ar u
us a
Ġj an
ho ly
ĠB ak
ĠB everly
ĠW illy
ĠR eagan
ĠF IRE
own ed
ud er
Ġover react
Ġbr andy
Ġmin ers
Ġcha per
OM EN
Ġmag net
Ġalong side
Ġdev ices
IE LD
ĠWAS N
PP ING
SO LD
ĠSP EAK
wh ispers
Cha d
Ġfreak in
Ġbetray al
ĠMed ia
Ġwha ck
Ġnic kel
Ġje opard
Comp uter
ĠMatthew s
Ġlip stick
Ġdepart ure
KNOCK ING
Ġscre ech
D EN
K an
K OWS
T axi
c ond
f ers
g irlfriend
k ov
o inting
v on
ha ired
Ġm ales
Ġc od
et ho
at in
Ġk im
im er
Ġst em
ĠS ON
ĠS IGHS
Ġhere by
il m
ĠD ing
ĠG row
ĠH unt
ĠW hile
ĠL is
Ġsp ies
ĠK NEW
ach us
Ġmin t
Ġra z
Ġsl ipping
IT S
ĠMar cel
Br id
Ġbar on
Ġdiffic ulty
Ġsal on
Ġdifficult ies
ĠMc G
Ġeight h
Ġpun ct
oun sel
Ġbeha ving
ĠEl vis
Ġant ib
ĠQu inn
Ġpan icked
Kill ing
Ġsam urai
rel ated
Ġmap s
ĠCle ar
ĠGU ESS
ĠMO VE
Ġentertain ing
ĠBU ZZ
Ġtempor arily
Ġdemonst ration
aval ry
Ġamer ican
ĠBurg undy
KOWS KI
B ew
I e
R ain
S ea
Z ero
c onscious
s ky
z an
Ã ĵ
Ã ł
Ġt Î¿
Ġm oth
Ġm ichael
Ġb ake
Ġp ac
se ction
ee ches
ĠT hings
ĠA dd
ĠC ub
uc cess
Ġjust ify
Ġas ylum
ĠB irthday
il and
ĠH orse
art en
ĠL oc
um ing
Ġsa f
ĠJ upiter
Ġoff ence
ĠN Y
ĠK itchen
ound ed
Ġsc ra
AT OR
Ġplay ground
Ġrun way
uff ed
ĠTO GETHER
ins ky
Ġnum er
Ġear rings
ĠWell s
Ġext end
ĠSh irley
TH UNDER
Ġsuper visor
Ġgener ator
Ġ12 0
ĠPh ilipp
ĠUS ED
App lause
ĠMon a
Ġemploy er
HEN RY
ĠPRO BLE
Ġmult i
ĠShi k
Ġmisunder stand
uls ive
Ġglo be
Ġdim ension
"" ""
Ġparticip ate
Ag reed
ĠEaster n
Ġpec uliar
Ġcate g
ĠPent agon
ĠHEA V
syl vania
achus etts
C ir
D et
F reedom
M ART
N urse
T IM
r ice
s ki
Ġs ung
on ents
Ġm es
Ġd arn
Ġto ken
Ġf itting
ĠI et
Ġo d
ĠT E
ĠA licia
ĠB an
ie g
ĠH omer
ĠP erez
ĠE V
ag g
Ġse lection
Ġbr ides
Ġcha l
ense i
Ġchar ts
Ġtri ple
ĠMar vin
Ġhon king
Ġtrust ing
AM N
Ġhor ny
ai us
Ġcover age
Pl enty
Ġlab our
just ice
Ġlim b
Ġpet rol
AP RI
ĠJeff erson
Ġsurround ing
ĠMo zart
Mike y
Ġmel ted
Ġmechan ic
Ass hole
Ġvar iety
Ġtattoo s
Ġheight s
FR ANK
Ġorphan age
ĠDis ney
Jac ob
Ġmas ks
Ġcaut ion
CLE ARS
Ġambit ious
Ġvoy age
Ġrefriger ator
4 8
G roaning
l ady
r ast
r ison
w i
Ġb ol
Ġd ang
Ġd ub
Ġc urry
Ġf lex
Ġhe el
Ġk ung
ĠA W
ĠC AP
ĠB ir
Ġany how
ĠP sy
ol and
ĠF ood
So bbing
el est
Ġv ia
Ġsu ic
HE AD
ire ction
Ġfl atter
Ġcont amin
mm m
EN GINE
OW ING
ump y
ĠMar ine
Ġmusic ians
uss ion
Ch icken
Ġgra ph
Ġgra vey
Ġsub po
Ġexc han
Sc ared
Pro ceed
Ġinvol ves
Call ing
Car men
oun ge
Bet ty
Ġwarm th
Ġpiss ing
Ġisland s
Ġrequest s
Ġign oring
Son ny
Ġopin ions
ĠPe ace
Ġdise ases
ĠCarol ina
HA EL
Sim ple
ez vous
Ġjew els
Ġnail ed
AV ID
Ġwhi pped
oust ache
ĠCamp bell
Ġcaut ious
Ġcul pr
ĠPak istan
parent s
Ġeld ers
D ang
D anger
D ennis
L ower
O livia
P ot
P al
R ing
S inging
Y oon
l isten
n ine
o i
Ġm arty
Ġd agger
Ġl od
et tle
as m
ut us
Ġe pic
Ġre w
st o
ĠT ER
ĠT ru
Ġso bbing
ce ans
ge red
ure en
ĠL adies
ĠL ISTEN
os ion
ĠJ r
Ġsp icy
HE D
Ġbl aring
ia z
ĠHe b
ĠU K
Ġte ase
AR CHER
ĠAnd re
Ġtri als
Ġblood s
Ġhot ter
ding ton
ĠAr cher
Ġmem o
Ġhang ed
Ġsun light
ov an
Ġarm ies
het to
Ġlay er
boy friend
Kill ed
ĠSim pson
Ġstrang le
Ġsatisf action
Ġsed uce
Ġprim itive
Ġpropos ition
Ġpit iful
Dam mit
ĠSCREAM S
SN IFF
fsc x
B ott
G us
n k
Â ¹
Â Ĥ
Ġb ak
Ġc ough
Ġha il
ut ters
se mble
Ġst ash
ee med
ĠS ometimes
ĠT ob
ĠB omb
ĠH oo
ĠW ald
ĠL ATER
ick i
Ġen han
Ġwr ath
Ġdis abled
ĠV ic
Ġtra itors
Ġatt empting
IS ON
EN S
IT ED
Ġacc ord
Ġremember ing
Ġart illery
let t
Ġcat al
UM BER
ĠSP E
ĠHon our
ĠPat ty
Ġfund ing
Ġfright en
Ġfro st
ĠRam sey
Ġdetect ed
ĠBU KOWSKI
Ġinstr uments
Ġprint ed
Ġwreck ed
oren ce
Sa fe
Ġoblig ed
CHAR LES
Ste ady
Ġvolunt eered
Ġunderest imate
Ġindic ates
C ute
M itch
W orld
d oo
t aking
Ġg el
Ġn oodles
Ġp imp
ot ics
ic ans
oo le
ĠS UR
ĠT ill
ĠB os
ie ving
ĠR ow
ĠJ ar
Ġsp illed
Ġv enture
ĠN ash
Ġam azed
Let s
OU P
AN ISH
Ġcare less
hed ral
ign ment
Ġatt ach
ĠTh orn
Ġcons ol
ĠIn n
Ġtrust s
Ġref lection
Ġhy brid
Ġconst itution
chan ge
Ġsepar ation
Cha nd
ĠCho sun
Ġpred icted
CHE S
ĠMur at
Ġsatisf y
Ġpound ing
Ġfart her
Ġemotion ally
Ġnurs ery
Ted dy
def ense
stan bul
HELL O
Ġscumb ag
C amera
D IC
E van
N on
P y
R iley
S hane
T aylor
U nt
W a
w ray
w orking
Â ¯
Â Ń
Ġs is
Ġb usting
ar ound
as ive
Ġth ro
Ġfor the
ĠS CREE
ĠC HO
ĠC EO
Ġall eged
ra ith
ĠB ul
ĠW alk
ĠL loyd
ĠF oot
th under
OU TH
St ate
Ġfl owing
ĠSt ella
ĠU r
Ġmon ument
EN ER
Ġinter ns
Ġdef ine
ĠIT ALIAN
Ġreg iment
Ġdep ths
Ġri b
inc ible
Ġpress ed
Ġsal ute
Ġsal vation
ĠPro ject
yn ch
Ġbill ions
ĠSw itzerland
Se bastian
Frank ly
Ġcomb ined
ij i
ĠTe acher
gun shot
ĠStar fleet
Ġbuzz es
ĠEll is
ĠAunt ie
Ġunp redictable
Fred die
Mic key
ĠServ ices
Ġgre ase
Ġward robe
Carol ine
vet te
Inc redible
Mat thew
Ġpean uts
Ġcripp le
oog le
Ġrebell ion
ĠHop kins
A k
J uan
T rouble
i ences
Ġd ar
is ons
Ġl akh
id an
Ġli vest
ĠC reek
uc hess
ĠB in
ĠL ot
ĠP ast
ĠP erk
ĠJ osie
Ġback pack
ĠF aith
ĠN emo
ber man
Ġar chae
ang s
Ġel aborate
Ġwom b
Ġmar ine
the less
Ġmet aph
Ġpolice men
Ġinter ior
Ġcor oner
Ġvis ions
ster dam
Ġimag ining
Ġ6 5
Ġground ed
Ġaccident s
Ġgas ping
ĠPro bably
Ad miral
Ġur ine
Su z
ĠÂ ¢
EP ING
Ġvot ing
ĠBur ton
ĠRO OM
ĠEll iot
Ġpartners hip
Ġveget able
ĠBor g
Ġutter ly
Ġcarn ival
Ġincomp et
Ġsevent h
Ġbount y
ĠOx ford
ĠChel sea
B ed
F ancy
G IVE
L AND
S av
T ae
f in
m ails
p itched
r oo
w ah
Ġm ike
Ġm uff
Ġb io
it ish
is se
Ġc yn
Ġn un
oo by
ec raft
il ia
ĠG itt
ĠH off
ĠH wa
ĠW ing
Ġsa iling
ĠF a
em y
Ġsp a
ĠN ev
ag ain
ĠK irsten
Ġse ized
ne ed
ans on
old s
ĠU k
Ġrec onsider
Ġpre jud
ĠTh under
ric ity
unt il
ĠSp eak
ĠSe ason
ĠCha mber
Ġtre nd
min ence
gu ys
Ġtur f
Ġident ification
Ġcup s
wh ispering
Tw ice
ĠCat hy
Ġiron ic
Ġtransport ation
Mag ic
Jess ie
ĠGRO ANS
Ġforens ic
Ġhandc uffs
Ġlivest ock
" ]
0 4
2 50
E yes
G IRL
H ong
I gn
N ik
S uck
a ired
m ake
n ell
n atural
r ac
u ity
v als
Ġ q
Ġa ye
Ġc amps
Ġha ird
ri ved
ĠM em
ĠT RYING
ĠC arson
ĠD omin
ĠD ixon
ist le
ist ling
Th us
Ġex hibit
IN KING
ap o
ber to
ĠY oo
Ġun acceptable
get t
ne red
Ġrec y
Ġrec re
Ġsl o
Ġmor phine
ont ane
Ġhot els
ĠSp ock
Ġsqu ealing
ĠMan uel
Ġir respons
ĠLook ing
por ter
Ġste er
Ġprec inct
UM P
Ġmarket ing
ival ent
Ġwhis ky
Ġhom osexual
Ġexplos ive
Ġhunt ed
Ġshr ine
ĠLight year
Ġassoc iates
Ġsla very
Dam on
Ġrecommend ation
CON D
Ty p
Ġfo am
Ġpoem s
GL ISH
Ġhistor ic
Ġcocon ut
isd iction
C ELL
H oo
J AMES
L U
L and
O FF
O ffic
T am
Y ELLS
l ete
m ia
Ġw izard
Ġs inking
it ol
Ġc ad
Ġp udding
at ar
ic ular
im i
se ven
ir teen
ĠS hang
ĠM ean
ĠA ven
pp ort
han non
ĠB ush
ĠB anks
ĠG arden
Ġthink in
Ġno d
ĠP aige
ĠN in
Ġpe asant
ĠY up
Ġsur vey
Ġgl imp
gg ers
Ġimp at
ĠIs abel
Ġbuy er
ĠAr c
Ġpar allel
Sp read
Ġeye b
Sc ot
ĠAb d
Ġgen es
Ġemb assy
SO BBING
Mother fucker
ĠJul ian
Ġobs erv
Ġbless ings
Ġdisappear ing
Ġclim bed
ĠLE FT
Luc as
ĠWin ter
Ġscar f
Ġinterrupt ed
Ġfrust rating
Reg ard
Sen ator
Fr iday
Ġloo sen
Ġabduct ed
ĠWEE K
ĠSull ivan
Ġtex ting
Ġglimp se
A im
C ourt
c ount
d is
d ling
g on
i ge
m ile
p ace
Ġl av
ĠI k
Ġh iring
im ination
Ġdon ate
ĠC oke
ĠB ast
il st
ĠW id
ĠL t
ĠL axminarayan
ig a
ĠE minence
ap na
Ġnight club
Ġpo pping
Ġad am
Ġper m
ĠOh io
Ġgr acious
Ġass et
ĠTO OK
ĠMar ilyn
Ġbed time
Qu estion
Gu ards
Ġmouth s
Ġcell phone
Ġill ust
Ġviol ation
Ġharm ony
Ġought a
Ġcult ures
Ġtext s
ĠGl ass
Ġpin ch
ĠBa ek
ĠBrother s
Ġdelight ful
Ġwond ers
Ġcontain er
Ġjam med
ĠOt to
GROW LING
Ġbegg ar
BAB LY
ĠDIFF ER
B ay
C old
E mp
T or
b eep
Â ¨
Ġb orders
ing ers
Ġl ent
Ġo t
at io
Ġha w
Ġre jo
Ġli zard
st ruction
ĠM EN
ĠC and
ĠC RYING
ĠB right
ĠW an
ĠW iz
Ġde port
ĠF ucking
ĠF light
Ġtell in
How dy
Ġcl aws
Ġsu ited
Ġun e
ater al
Ġgreat ly
ĠHe ather
Ġdis l
Ġdis o
Ġsm iled
av ier
ps ons
Ġsw ift
Ġcomm itting
Ġpay roll
sh ould
ok a
ok er
IGH ING
Ġblack out
Ġsub stant
Ġ.. ..
Ġtre mb
Ġcre eps
Ad mit
ĠCH ILD
Ġsens ation
Ġthr ust
Ġfem ales
Ph ill
ĠPe ggy
ĠSA W
Ġimpro v
Ġep id
Ġtear ing
ĠWin ters
Ġclown s
Fort y
Ġmanufact ure
Ġbarr acks
Norm ally
ĠBLA CK
0 1
9 2
B it
B ey
B aah
J un
K nocking
O scar
c har
h ou
i ary
s ub
ing e
Ġd ucks
Ġf res
Ġl ens
Ġp ear
Ġp als
at ical
Ġk itty
ill on
He avy
ro se
ĠM ak
ĠM umbai
ĠT Ã³
ĠA gency
uc hi
ĠB ord
ĠB urt
il ight
Ġsh ipping
ĠG I
ĠW rong
ĠP ET
ol ini
ab ul
ĠR io
Ġcon ver
Ġby pass
ag ram
Ġpe op
Ġcar rot
Good ness
ĠV ul
ĠU l
OK E
Ġbreak down
ĠMar ines
Ġsy nt
Ġcons erv
sel s
Ġdep ending
ere m
Ġeng lish
ĠCan adian
ANT S
IE L
che ers
ĠGu ess
Ġmaster s
Ġelect ron
ĠMay a
Ġpolit ician
ĠWith out
App ro
back s
ĠBo ard
Gl ass
Ġescap ing
ĠUN IVER
uls a
ĠVan essa
Ġbump ed
Ġdial ogue
Ġdevast ated
Ġmemor ial
ĠDur an
ĠBran ch
ĠCarr ington
ĠHOP E
Ġscound rel
C ase
C ompletely
D isc
F rench
L ate
N ormal
T ough
h it
h orse
r icted
in v
Ġb olt
Ġp m
as ma
ac ias
Ġre form
se en
Ġst er
Ġan est
Ġan ts
ĠS pl
Ġab ortion
ĠB oom
ĠD up
ĠG ay
ist rate
are lla
ĠN adia
ĠE rik
Ġtr am
ag an
ĠK rishna
iss ance
ret ion
Ġhand ing
Ġfl ank
ĠSt ark
Ġbit ing
Ġsw amp
Ġpay ments
ST E
ST ER
Ġreg ulations
Ġpar ish
ru it
omp an
Ġlist ed
do ing
ĠTr ust
Ġgift ed
bel ieve
ĠFran z
Ġcrack ing
Ġunc ertain
Ġengine ers
Ġamb assador
ĠMag ic
ĠHam ilton
ĠRos ie
ĠRod in
Ġrecomm ended
ĠWin ston
Ġveget arian
ĠDam ien
ĠDAY S
pos es
ĠYE AR
Dep ends
Ġhistor ical
Ġevac uate
ANN OUNCER
ĠNap oleon
fsc y
Ġpron ounce
Ġwrest ling
ĠBenn et
Ġgren ade
Alf red
Ġauthent ic
Ġwerew olf
Bew are
C iao
E pisode
E mergency
P ain
P ray
S M
S um
W or
b uck
c al
c ul
c ock
i ator
o es
s ure
t w
z zy
Ġs ib
Ġb ishop
Ġd an
Ġl odge
Ġp airs
ac ulous
Ġst atic
ĠB ess
ĠB RA
ie re
Ġno isy
end ment
ĠP ow
ĠP ur
Ġman aging
Th ou
ĠF ish
qu ila
Ġmo ist
Ġco gn
Ġbr ass
Ġdis m
Ġad ding
ons on
ĠOh h
Ġfun ctions
Re qu
Al i
Ġhat h
br ush
ĠSc reams
Ġdeep est
Ġsad dle
ruct ive
ĠAs k
Ġsuff ers
Ġband its
Ġtour nament
Ġobs ess
Ġtext ed
Ġactiv ated
Ġgro cer
Ġassoc iated
Ġcro ps
ĠColl ege
Jess ica
Phil ip
Ġinher ited
Ġbru ises
Ġfeature s
pent er
ĠPhill ips
ĠAri zona
ĠFE W
Ġdesc end
Ġprepar ations
ĠRel ax
Ġpubl isher
Ġingred ients
Ġfug itive
' ..
G AR
J er
M ot
P res
S now
T ina
W atching
d ers
f ering
g ina
Ã ¸
in ate
Ġs igh
ha ha
it ations
Ġd aw
Ġl ining
.. '
ut i
Ġst inking
ec ut
ĠT on
ĠA IDS
ĠC ong
ĠD ance
ĠD ory
ĠD allas
ĠH m
ĠL ionel
ĠL opez
ig ator
ĠF ollow
ct av
Ġover look
ĠHe ctor
up e
ail ed
Ġ- (
vel t
Ġ5 5
Ġdef inite
Ch oose
AM P
RO SS
Sp are
ĠST AND
rec iate
Ġworks hop
Ġexam ined
ĠLI VE
ĠPaul a
Ġlim o
ĠSw ord
ĠHam mer
Ġlink s
ĠSuper intendent
ĠLOOK ING
Ġinstruct or
Ġacqu ired
ĠStep hanie
Ant hony
Way ne
Ġcalc ulations
Cont act
ĠVen us
ĠAPP RO
Ġrul er
Ġpyram id
ĠTurk ish
ĠVik tor
APRI O
ĠPerk ins
Baah ubali
4 2
K ick
e ight
f ting
j oo
s qu
w art
Ġw alt
Ġd ame
ĠI ong
ar ians
as aki
Ġst ool
ĠT est
ĠC old
ĠB reathing
ĠG RE
ĠP D
ĠP i
ĠJ OHN
ĠF un
qu in
Ġag ed
Ġag rees
ĠN ah
ĠK umar
Ġbl og
Ġqu ad
Ġbr id
age ment
Ġchan nels
Ġwh ining
Ġcont empt
Ġreal istic
Ġgr am
Ġrel ate
Ġbreak through
ET H
Ġfree zer
unk y
Ch un
ĠAll ah
Ġmil it
Ġrid ge
Ġloc als
Ġtre acher
ĠRo ver
RA P
Ġsum mon
Ġbelong ings
Ġquar rel
Tw elve
Ġcart oon
Ġmotherf uckers
Ġmic row
Ġrepresent ative
ĠBur ke
Ġdistract ion
Ġconfirm ation
Ġrabb its
Ġarg uments
Gun shot
Ġple a
ĠMerc ury
ĠGeor gie
Pol it
ĠWonder ful
Ġchampions hip
ĠDanie ls
Ġjur isdiction
Lear n
Ġintri gu
Ġgravey ard
DIC APRIO
H al
R uth
S omeday
T ucker
_ _
l u
m und
p art
Ġm ule
er ick
er ts
it ating
Ġg h
Ġg in
Ġg eez
en ia
Ġkn ot
ĠS ex
ĠS ophia
ĠC ody
Ġsh orter
ĠD est
hy ul
ĠF ra
ĠF OUR
ĠF oster
Ġover time
fore st
ull aby
Ġpo ke
Ġac ademy
Ġcont ext
ĠU SE
Ġte asing
Ġper mitted
Ġworld wide
Ġatt ended
Ġsl it
Ġsw inging
AS TER
olog ies
Ġdet ention
Ġsub ur
Ġhair s
Che ering
Fuck in
Ġsol itary
Ġaccept able
Ġmain ly
ĠCon nor
Ġelect ro
Ġsens ors
Ġimm ense
Ġsou ven
Ġver ify
Ġrespond ing
Ġassoc iation
ORN ING
Ġelephan ts
Mic helle
ĠArm strong
ĠFound ation
Barb ara
WHISP ERING
Fur ther
THAN KS
Ġsubpo ena
A riel
B an
C rap
K atherine
b us
g t
j ay
Ġs arge
it age
an ity
Ġf anc
Ġl oneliness
Ġh ollow
le ment
ri ages
Ġu l
am o
ill as
ent on
ĠS is
op ed
Ġsh ines
ĠL ing
ĠL ana
ĠF ull
ĠF ane
Ġv oc
Ġint u
Ġtr anqu
Ġsc oop
Ġinto x
ĠV el
xt on
uff alo
Ġev olved
Ġsk et
Ġcho king
Ġcoll ective
Ġinst alled
ĠCar men
Ġgra pe
Ġspecial ty
Ġmillion aire
Ġimag inary
ĠST UFF
Her r
ĠMc Gee
Ġdam mit
ĠSP ANISH
Ġcompet itive
Ġprefer red
Ġliter ature
Ġstrang led
Ġmort gage
Ġbi ology
ĠJac ques
ĠEve rett
Ġteen agers
ĠCHE CK
Ġtoss ed
Ġoblig ation
Ġcompens ation
hob ia
Ġpeas ants
Ġantib iot
C A
D iane
D erek
F ESS
M agn
T ie
T AKE
Z e
f ax
h on
h oni
l oud
n uts
Ã ¥
Ġd airy
Ġp as
Ġp uke
Ġp arrot
Ġh ips
Ġin sec
He ather
ant on
ĠT hai
ĠC RE
Ġout standing
ist les
ĠP alm
Ġcon duc
ag en
Ġcl am
Ġbl ues
OU BLE
Ġbr ake
pl ain
ne g
AT S
ĠSt eed
Ġgr oo
Ġrun ner
Ġph ony
Ġdec line
Ġpol ish
Any where
ĠMar ianne
Ġdep ressing
cl iff
Ġpat ri
Ġmad man
Ġref using
ept ion
Ġabs ent
Ġcond om
Ġer ased
Ġmod ule
Pl ace
Ġlim bs
Con nor
Ġcast ing
pic ious
Ġport ion
Ġloud ly
Ġproduc ing
gl ass
ĠRi pper
Ġpsychiat ric
ĠBrid get
Ġner d
Ġdefin ition
Ġoccas ions
O l
P rom
f ty
h rer
m ont
x ie
y ears
Ġw ink
Ġm ute
Ġd ared
is ms
Ġo ceans
ed ing
Ġst ead
Ġst ocking
Ġnot ify
ion e
Ġj ingle
ant ed
ro it
ĠS ed
ĠM yeong
ĠC rying
uc c
ĠB ag
ĠB ones
ie val
ĠW omen
ĠW raith
ĠL ester
Ġlo ading
ist a
ĠP AY
ĠR ic
itt in
Ġag ony
fe w
IN A
iss ions
iz ers
Ġwon t
ON ES
Ġkind erg
Ġres id
Ġcle ans
ĠTH ANK
Ġcha mbers
Ġhum our
Ġri vers
cl ip
Ġgra vy
oul son
Ġgrow ling
Ġdev otion
CT V
Ar m
Ġvill agers
ĠAs soc
ĠCol omb
Ġjack ass
Ġquar antine
Pr ison
Ġlangu ages
WH ICH
Ġdesp ise
ĠDoug las
Ġtemperature s
ĠGe offrey
Ġprem ises
Ġpsycholog y
Tot al
Ġdemonst rate
BR ID
Ġcheek s
Ġpir ates
Ġestablish ment
Ġratt ling
ĠFUCK ING
ĠMul wray
Ġmonit oring
A v
C reat
D em
D ale
D raw
G B
H ol
K o
P icture
R ome
R ide
S IREN
T is
T an
T ELL
W OULD
r and
t ub
Ġt ipped
Ġs way
Ġm oustache
Ġp am
Ġh ike
gh na
Ġst ere
Ġj olly
Ġare na
ĠM ullen
ur ation
ĠD um
ĠD uck
ĠH ood
ĠP hoenix
ol as
Ġsa ves
ĠR ap
ĠR ings
Ġpl asma
Ġsp ac
Ġpro claim
ond or
Ġro bbing
ĠY ates
og en
Ġcont rad
Ġhar ness
Ġcoll abor
Ġext rem
Ġsn uck
ĠZ one
Ġshut ter
ific ations
Mar riage
Ġpur poses
Ġwed dings
RA CHEL
Ġstick y
Ġimm une
Ġrent al
ĠNick i
ĠSim mons
ĠSy stem
Ġpure ly
Ġnegot iation
Ġanti que
ĠApp le
Ġnic est
EX HALES
Ġassass ination
ĠKe ith
Ġvirt ually
ĠInt elligence
Ġchew ing
Ġnin ja
Ġlemon ade
Ġey el
ĠChild ren
Ġven om
Ġvig il
Ġcompar ison
Ġseiz ure
Neg ative
ĠMoo re
ocaly pse
etho ven
A aa
B at
G RE
G ina
O u
P ort
R AM
R ita
S peed
T u
T ri
Z oe
k ar
r ha
r ates
Ġw ishing
Ġb en
Ġh olly
Ġha lt
oo sh
ĠS D
ĠM UR
ĠM orton
Ġat oms
ĠD ear
Ġr anger
Ġr ookie
ĠH OT
Ġlo af
ĠP anting
ĠR ahul
ĠN im
Ġtr amp
Ġsc outs
Ġlong est
Ġrem orse
Ġcont ents
Ġch ur
Ġdec omp
ĠWe ek
Ġinv al
ens ional
ik ed
Ġsupposed ly
Ġwin ners
Ġdisc l
Ġbar ber
ĠDr ink
Ġsn acks
Ġclass ical
Rem ind
Ġsmell ing
Ġarrest ing
Ġinvol ving
Ġmaster piece
Ġelect ions
GE OR
Ġchat ting
ĠCor ps
ĠÂ ¤
Ġtoil ets
ĠGl en
play ing
MO ST
ĠID EA
ĠAust in
REN CH
Jan et
Ġvirt ue
ĠGib son
ĠVer onica
Ac cept
lem n
Med ic
ĠFRIEND S
Ġdischar ged
Ġfig uring
ĠBren nan
Ġadvis or
Ġvom it
Ġretri eve
, ..
A st
C ash
E ast
P i
P ierre
S L
V IN
d ock
d river
p op
s end
v inda
Â ħ
Ġb aked
Ġd rought
Ġc uff
Ġg rie
Ġl ump
ĠI stanbul
Ġp ine
at us
Ġh og
im ore
Ġst ack
Ġst eep
ĠM ILLION
Ġne uro
ĠC air
ĠC rystal
ĠC urtis
Ġup s
Oh hh
Ġr ates
ĠH udson
ĠL ine
ĠP erc
ĠP ops
ĠR ena
ĠF IGHT
qu al
Ġcon j
Ġv ase
Ġcl umsy
ich ton
Ġfl ock
Ġfl attered
Ġcr us
OR M
Ġtra ff
iv ate
Ġmiss ions
Ġinv aded
IT ION
Re f
Ġtri bes
VE L
Ġins ight
ST EPS
Ġconf isc
Ġpick up
Br own
Ġfil med
Ġfood s
Ġshut s
Mar ried
Ġve il
Ġdoll s
Ġsupport ive
Ġequ ivalent
LO SE
erm o
Ġmerc hant
Ġtow els
Ġsurg ical
Ġstrugg led
Ġregular ly
Ġaffect s
Alex ander
ĠBR AD
Ġrepresent ing
Ġannoy ed
Ġexperiment al
Ġcorpor al
Ġmicro sc
Ġstraw berry
ĠGRUNT S
Ġsurf ing
ĠQU EST
Ġarchit ecture
Ġoverwhel med
Ġsurviv or
Ġcrook ed
Ġtid y
ĠRev olution
Ġacquaint ance
6 5
C ops
H orn
P our
P ast
S ong
S ever
S ORRY
Y ears
b assador
h ome
l ink
o hen
s weet
Ġ vert
in ent
ha pp
it as
Ġg oof
Ġg hetto
Ġo y
om icide
at hetic
id y
oo chy
Ġdo s
out e
am ination
ĠS aid
Ġso y
ĠW anna
ul ars
ĠP ull
Ġsp anish
ĠN ana
ĠE ight
ud i
ud o
iss ed
act ic
ĠY ELLING
ater nity
Ġfl own
ĠHe ath
Ġinv ade
Ġnum b
any on
ĠCl aus
fort une
Ġ9 5
Ġ9 8
Ġrad ius
ĠGer ald
Ġmir aculous
Ġgang s
Ow en
hop ath
ĠBra vo
ĠYe ong
ĠDen is
ĠCall ie
Ġbeast s
Mon ica
OS ED
Ġshell s
Ġpi geons
Ġec st
Ġtrop hy
Ġmos que
ĠSoc iety
Ġly rics
ĠLes lie
ĠMON TH
Ġtrib ute
vell ous
ĠEin stein
B er
B al
C HAT
E rik
G i
K Y
N N
P enny
P ossibly
S illy
T IL
V ik
W es
Z E
l oo
s ized
u ya
Ġw age
Ġc oy
Ġg aze
Ġl ect
Ġhe d
ic us
ic ating
Ġe agle
Ġst akes
ĠS ound
ĠT el
Ġab st
ĠD IST
ĠG and
Ġlo gs
ig ate
ĠP av
Ġman eu
qu ito
ap y
Ġco zy
Ġar rows
Ġdis like
Ġte aches
Ġsha pes
Ġfound ed
Ġch uck
Ġcle ars
Ġsw ept
Ġcomm ands
Ġmet h
Ġinter ference
Me ans
Ġri bb
ĠZ ach
ĠRe ggie
Ġshall ow
Ġmurder ing
sc reen
Mar c
Ġsuper v
bo ards
iff any
Ġcre m
Ġpop corn
Ġsurv iving
cri ption
Ġapprec iation
af a
ARE N
ĠMur ray
Ġpee k
ĠSil k
ĠVir gil
Ġdece ived
Ġregard less
uls ion
ĠTor res
Mo ving
ĠBu yeo
Ġmicro phone
ĠTem pl
ĠKent ucky
Ġneighbour hood
Ġbreed ing
Ba iley
Ġfract ure
Ger man
ĠSwed ish
ĠRud nick
ï¬ Ĥ
Lim ited
ĠPROBLE M
ĠHEAV ILY
ecut ive
Ġkinderg arten
D uck
F ell
H arr
T akes
c ons
f les
g raph
z ar
Ġa ce
Ġa hold
Ġm ixt
ll is
Ġd ow
is hy
Ġl uc
Ġl ounge
ĠI b
as ia
Ġh oot
Ġin jection
ke eping
ad in
He l
ĠS AT
ĠT anya
ĠA riel
Ġup loaded
ore an
ĠH ur
ĠH uman
ab ra
ĠR A
ear ing
ĠF ell
Ġex ceed
ĠO g
ard i
fe it
ĠN orthern
ber n
Ġen chan
ne um
Ġcar ved
ĠV inc
ren cy
ors ki
Ġbo iling
Ġ3 9
Ġbusiness es
Ġinter act
Ġext ended
ID ENT
Ġref resh
Ġtreat y
Ġcond ol
Ġpeace fully
Ġhero ic
ĠChe ering
Char ge
ĠCH ANGE
Ġcow ards
sec ond
UM M
ĠSm urf
ini que
wh ite
ij a
ĠEn zo
ĠHam let
Ġver ge
ipp i
Co ach
Mart ha
Ġaccompl ice
Hard ly
ĠNic ole
Ġgig antic
Ġconqu ered
ĠHeaven s
nold s
ĠShar on
ĠMAY BE
Ġharass ment
ĠRey nolds
Ġdischar ge
Ġhyster ical
ĠAff airs
Ġculpr it
C and
F eed
I a
J u
L ine
L iz
M ate
P an
P UT
P sy
S andra
W alking
b ord
c ake
d ro
h ur
o ft
t t
w el
Ã ´
Ġb atch
Ġg ent
ĠI mm
ĠI II
ar ming
Ġh oll
id able
ri ka
Ġst ated
Ġan th
ĠS IGN
ĠS ierra
ĠT ot
Ġall ies
Ġat he
ĠB rent
ĠB renda
ab a
Ġcon vey
ĠN y
Ġtr im
Ġsc hem
Ġsc attered
pl us
og g
ath on
Ġres olved
ren aline
Ġsha ken
ner gy
Ġsl ack
ĠBr ady
Ġsweet est
Ġbar rier
gr ateful
Ġgra pes
ĠSp art
Ġclass y
Ġclass room
Ġboss es
Ġtrain er
Ġmark er
Ġcur ve
Ġscream ed
ĠMin i
ĠMad die
Ġdanc ers
igg ins
ĠAh h
Ġgar lic
Ġmoon light
ker chief
Ind ia
mon th
Christ ian
Jo an
ĠJeff rey
QU E
Ġacqu ainted
Ġsail ors
Ġjunk ie
Ġmechan ism
Ap art
Ġencour aged
ICH ARD
Ġvessel s
Ġske leton
Ġpupp ies
Rich ie
Ġprepar ation
Ġprett ier
Ġenthus i
ĠTha iland
Ġhoriz on
ĠGard ner
Ġaspir in
6 8
B L
C ompl
J UL
L ewis
R oman
U r
V incent
c or
d ig
m ichael
r ons
u ld
w ed
in ian
Ġd angers
Ġg ag
Ġg iggling
al ways
ac ie
Ġan ten
all e
Ġj ug
ĠM ain
ĠB ed
ight ed
ĠD rop
ĠH ATE
ĠP ress
Ġsa iled
ĠR EST
ast ed
Ġpl a
ĠN ine
ide o
ĠK rist
ĠK urt
be en
Ġse ve
Ġsc issors
Ġcar rier
har am
Ġwait s
Ġshow ers
Ġacc ompan
OT STEPS
ount ered
aster y
Ġfil th
Even ing
ĠSc ar
ĠRe znik
Ġele ven
Ġcol ored
Ġz ip
ĠHE ARD
Ġjud ged
RA B
ĠEd wards
Ġflight s
Ġbri g
Ġwa ving
Ġrough ly
ANG ING
Ġunt o
Ġrespond ed
Ġjournal ists
ĠAir port
Ġuna ware
Ġsew ing
ĠGreg ory
hant om
Jeff rey
Cont rol
ĠVen ice
Dest roy
ĠRub y
Ġbluff ing
Ġinherit ance
Ġglam orous
Tar get
ĠNichol as
ĠPRET TY
B orn
C ontinues
D AD
G host
P aper
T al
l ot
p ost
he a
Ġm ant
Ġb os
Ġf ainted
et y
Ġha h
id dy
Ġk ara
Ġj eep
ĠS ook
ĠS AM
ĠS ev
Ġcan e
ĠM ade
ĠT ol
ĠA ut
ĠA men
ĠC CTV
Ġsh ook
Ġwhe at
ĠL IGHT
ĠP ASS
Ġsa ge
ĠF al
ĠF est
Ġv ows
ĠN UMBER
ag ner
Ġcont ag
Ġcr isp
ult z
Sh ot
ib a
Ġem pt
Ġent ers
Ġprom ote
Ġcho re
Ġ5 2
Ġcor on
Ġclear ance
ĠAl ison
ĠZ en
Ġinvest ors
ĠEx press
Sha wn
sp eak
Ġcat hedral
ĠAs gard
Ġview ers
Has n
Ġemploy ed
ĠMed ical
Ġfasc inated
Ġnovel s
bre aking
Ty ler
ĠGeor gia
GL ASS
Ġtact ics
Ġvi be
Ġwret ched
Ġbacter ia
Ġincap able
Ġbund le
Ġirrespons ible
Ġimpat ient
. |
C ig
D arn
G I
H en
J AM
M UR
P os
S ent
k at
o ors
o vers
p re
r ition
x x
ll i
Ġn ud
Ġn uis
ar in
ri ef
st ead
ĠA pollo
ĠC ITY
il iate
ĠD ol
ĠG entlemen
ul ator
ĠP reston
ol ks
ĠF ree
ĠF alls
Ġneed les
Ġint ens
Ġhow ling
ag i
iv able
EN SE
Ġwar mer
ens en
Ġrel uct
Ġcount less
ĠAl aska
ĠAr ctic
Ġgra bbing
Ġcontin uous
Ġhospital ity
Che er
lo ading
Mar ch
ĠTom ie
Ġpot entially
ĠAm sterdam
Ġbeha ved
ĠCon f
ĠOn ce
irm ative
Ġ18 0
Ġfeed s
Ġenc ountered
Ġban anas
Att ack
ĠRO B
Ġdetail ed
Ġmel ting
Sil ver
ĠHay es
Ret reat
CI AL
every thing
ĠBri ggs
Ġinvolve ment
Ġath lete
Ġdinosaur s
Ġairl ine
Vir gin
Ġmast urb
Ġfel ony
Ġenthus ias
Bri en
Ġrend ezvous
Ġcontamin ated
Ġslo ppy
Ġseve rely
G iving
L t
L ISA
M iles
S in
S itting
T onnie
V ol
b est
l ich
s and
t ur
u hi
w atch
Ġw hales
Ġs wo
Ġm atching
Ġd ah
is en
Ġc unning
or ation
Ġl ur
Ġp ets
Ġin mates
Ġst ages
ĠS ide
ĠS lo
ĠM od
ĠC razy
Ġr har
ĠP romise
ab by
os y
ĠR ing
ĠR itchie
Ġpro secut
Ġbl end
Ġbl ades
act ually
be an
Ġro pes
pl aced
ER V
Ġun for
ret ch
Ġpr inting
Ġrem o
Ġfl ipped
Ġdis rupt
Ġsm ashing
LL OY
ĠU FO
Ġcr amp
Ġsha ved
Ġcra ppy
az on
the se
ĠTh roat
Ġprom pt
Ġtri bal
Ġinter fering
ĠAN N
Ġpain s
Ġ) :
ĠAr gent
Ġadd icted
Ġsus pens
sc ap
Ġdisapp ointing
bt ed
May a
ĠHE ART
ĠBar bie
che v
ĠMY SELF
Ġtur t
ĠAb u
ĠMe era
Ġcelebr ated
âĢİ !
Ġprov oke
Ġembarrass ment
Ġban ner
Ġsna pped
Ġmut ant
Ġsweat y
Ter rific
Ġmanip ulate
rif ied
Ġmush rooms
ĠACT UALLY
Person ally
ĠKling on
Ġtreas ures
ĠDw ight
Ġbubb les
ĠStew art
Ġraz or
ĠGitt es
D ue
H ence
L ead
L ogan
V iol
W ood
W olf
b ath
i u
i rie
j it
p ac
u rolog
v oc
w ing
in is
Ġs han
Ġm end
Ġb itten
Ġc uffs
Ġg inger
.. ?
Ġp int
ve ling
Ġin justice
im en
Ġdo om
We ar
ĠS um
ĠM iguel
ĠB ug
ĠB attle
ĠB hai
ĠG or
ĠG ONE
ĠG reeks
ĠL il
ĠP ig
Ġor ient
ĠK in
ĠHe alth
Ġhouse keeper
Ġsha ving
ĠCh ow
Ġapp rehend
Ġch ute
iv ated
Ġinv incible
Ġhur ricane
Ġcha u
Ġlisten s
Any time
Ġob ed
ST R
Ġconf use
ger ald
ues e
AU DI
Ġart istic
Ġdi ving
Tr uly
ray s
Ġval ve
Ġdare s
ĠAb igail
Ġest imate
ĠJo el
bl ock
ĠQu entin
ĠSer ge
Ġmix ing
Ġspell s
cel ona
ĠSant os
ĠSal v
Ġexperi encing
Ġsav ages
Ġvul gar
Ġresour ce
ĠHAPP Y
ĠCALL ED
ĠPO INT
Aunt ie
ĠHu gh
Ġdevast ating
ĠEs sex
ĠLang ley
ĠOper ation
Ġirre levant
Tre vor
BEE PING
ĠBRE AK
Ġparaly zed
Techn ically
ĠBEA UT
Ġnuis ance
B A
B ug
D AR
F ab
G loria
J unior
L unch
T oby
n h
o ch
s itting
Ġt uck
Ġs iren
Ġthe or
Ġf rench
Ġg utter
or ient
or gan
Ġl ass
ĠI ife
us er
ut hen
im inal
al arm
ent ive
ĠM oss
ĠM ills
ho g
ĠC ertainly
Ġwor ms
Ġshe er
ĠR uf
ct op
ck y
Ġam p
ĠK on
Ġcl aw
Ġen list
ond o
Ġse vered
Ġsc ored
Ġco aster
Ġun grateful
Ġhand kerchief
air d
Ġ- [
ens itive
ĠTh ird
Ġcho pped
Wh ispering
Ġins ert
ĠIs aac
eg a
ĠHA VEN
oose velt
Ġexp elled
Ġpun ching
Ġremind er
Ġprice less
Ġprogram s
Ġcup board
ĠSw an
af fe
Ġreact or
Ġkidna pper
Ġterror ism
Ġbat hing
Ġpercent age
ĠSOME ONE
ĠMel issa
hod es
ĠDen ise
DOOR BELL
ĠPol ish
Ġmechan ics
EX CLAIM
ĠJon athan
Ter rible
ĠMerc edes
ĠSTOP S
Ġperman ently
ĠWON DER
Ġrelative ly
Ġconsum ed
Ġax e
Ġsculpt ure
Leon ard
Ġinqu iry
ĠTEA M
CHO OL
Ġintellect ual
Ġslipp ers
ĠMann ix
Ġenthusias m
" )
0 2
B onnie
F IRE
H ORN
P ract
S ev
a is
p it
z ac
z io
Ġt ac
Ġb ash
en os
Ġl ime
Ġp ause
at ha
ld a
ĠS ection
Ġdon ut
ĠM ORNING
Ġget away
Ġat om
han ts
ĠB il
ĠD im
ĠD one
ĠD RI
ĠH OR
ĠH app
ĠH AL
ĠH alf
ĠW ord
Ġde gr
ĠP olly
ĠR ik
ĠF RENCH
ĠO belix
em s
Ġpro ving
ĠK os
iss ing
Ġar ise
Not hin
ON T
here nt
Ġreal izing
Ġapp arent
ug er
IT Z
Ġstr ay
ident ified
Ġopen ly
ĠTh rough
vel ation
Ġmur muring
ĠIn vest
Ġsent ences
Ġri pe
Br ick
Ġext inct
Ġdet ain
Cl iff
Ġvo id
VER S
Ġglad ly
la im
Ġtem p
Ġcirc ulation
Ġpresident ial
Ġrev ving
Ġtarget ing
Sam antha
Ġvan ish
ĠPL AN
Ġrout es
Ġscr atched
Ġemploy ment
Ġbang ed
Ed ith
Ġdisg ust
ĠNe ither
Ġcere al
Breat hing
Ġcommission er
quis ite
Ġrit uals
Ġhyd ro
Ġcub s
Ġdiagn osis
ĠOlymp ics
ĠAtlant a
Nat alie
Park er
Ġmetaph or
LLOY D
7 00
B AND
C RA
E nc
F er
G al
J E
M aj
c oughing
f s
m ilo
w orm
Ġ verse
Ġd ense
Ġc ass
Ġp rest
Ġp eck
Ġha mm
Ġha cking
al ion
Ġnot ed
Ġgo ons
ĠS hip
ĠM ET
ĠA ge
ĠA na
ĠC ivil
Ġab ort
ĠL uther
ĠP it
Ġif you
thing s
ĠN ell
ĠN eal
ag her
ĠK ITT
Ġover board
Ġcl a
th ouse
ber y
ob i
Ġwh it
Ġcour ty
Ġad s
Ġche que
ĠSt ars
Ġper ce
Ġra ft
Ġpre acher
Ġpol ic
Ġgl oom
ason able
Ġpay check
Ġdoor step
Ġtri g
ĠAl b
AM S
Ġfil ing
ĠBE EPS
ĠSc orp
Ġinform ant
Dr amatic
Ġdrug ged
ĠWill ow
ĠAd ri
Ġsuccess fully
ĠSH UT
Sm ells
Ġchallen ged
Ġprogram med
Ġprocess ed
Mad ison
Ġmerc hand
UL T
CHE D
Ġcart el
PH IL
ĠReg ina
ĠLOOK S
Ġconcl usions
Ġexha ust
ĠEr in
girl s
Ġpassport s
Ġboot y
ACH INE
Ġcandid ates
Ġevac uation
Ġmotiv ation
Ġbul b
Hum ans
oty pe
BOB BY
Ġtel esc
Ġsham eless
Ġrating s
Alp ha
ĠFAM ILY
Bey ond
A ugust
E un
G ave
I AL
J udy
K NOW
R onnie
S ummer
T ires
f ried
k ete
Ġs ane
Ġy u
is ure
or ic
ĠI da
Ġp est
ed o
Ġfor s
Ġst itch
Ġst itches
Ġcan al
ĠM OTHER
ĠT ree
ĠT enn
ĠC OUNT
ĠC anyon
Ġso lic
ook ed
il er
ĠH ollow
ĠW IN
ĠL ater
ĠP AT
Ġsa uc
Ġpro be
Ġv on
Ġbl ur
Ġbl iss
ew itness
Ġlong ing
ĠTO DAY
OT S
att i
Ġcompl iments
Ġcho ir
IC ER
Wh om
Ġins ists
Ġdef ended
Ch ina
ĠCl aude
ĠWho se
ĠRe ed
Ġpar lor
Cl ara
Ġbag gage
Mar io
Ġmis fortune
Ġinvestig ated
Ġstri king
Ġvill ages
Ġlab s
do x
ĠCol or
Ġviol ated
Char lotte
Ġorgan izations
AB OUT
Ġwild er
Ġadm ired
Ġrepe ating
ĠAL READY
ĠWH IST
aren ce
Ġgrad ually
Ġmyst ic
Ġpin ned
ĠCOULD N
Ġconcl uded
Ġpsyc hopath
ograp her
Ġcorpor ation
thank s
ĠArch ie
ĠKID S
ĠPen elope
ĠGAS PS
Ġpyram ids
ĠFif th
Ġextraterrest rial
Ġreinforce ments
hamm ad
Ġsynd rome
ĠBron x
Ġanten na
E s
F aith
G asping
K end
P un
R AY
S is
S eth
S iren
d ee
e ye
n ames
p ound
r Ã©
t om
t ails
u y
w it
w ari
Ġt weet
Ġw ages
Ġm un
er ation
ing ling
Ġd warf
Ġf ade
or ie
Ġp eep
Ġp enn
Ġp oured
et ing
ĠS ave
ĠS INGING
ĠC ort
ĠB att
ĠB ates
Ġsh itting
ĠD arcy
ĠW ALK
od ore
ĠL ay
Ġde let
ĠP rop
ĠR ory
ĠJ ared
ĠF o
ĠF ight
Ġsp ontane
ĠK as
ĠK ath
ĠK laus
ER MAN
RE POR
Ġfl or
ĠSt acey
Ġmom s
Ġrec ip
Ġfin ance
Ġmon astery
ister s
Ġgl ance
ib bs
Ġdef y
Ġleg isl
Ġrep airs
Ġgra ves
oul s
ĠMiss ion
Ġ6 8
Ġdrive way
Ġsqu at
Ġcond oms
Ġbath tub
Ġslow ing
Ġir ony
Ġtor ped
ĠWITH OUT
App reciate
Ġcoun se
Ġpoison ous
Sw itch
Ġdece ive
Ġgall ons
ĠSen ate
Ġconc ussion
Ġstruct ures
Ġrefer red
ĠDor is
Ġmeas ured
Ġawait ing
ĠGal ile
Ġrecon c
Ġprofession als
Ġtechni ques
Ġelement ary
umm ers
Ġerr and
Ġcripp led
ĠHoll and
Tele phone
ĠSult an
B om
B ite
F i
G OD
H omer
N ESS
P leasure
W itness
k ok
r ots
Ġb od
Ġc reek
Ġc avalry
an za
Ġl ant
Ġl em
ed iate
us c
Ġh ull
Ġre ct
Ġst alk
ĠS out
ĠS IT
ĠS omers
ur ger
ink er
ĠG ant
ĠL abor
ĠP ardon
are v
Ġex hibition
qu iet
ĠN ote
ĠE ACH
red it
Ġle verage
Ġbl ouse
Ġsc ram
Ġsc alp
Ġar ist
ĠHe ar
ĠV icky
ĠU ntil
Any ways
Ġmonth ly
Ġtri ll
Ġinter vention
Ġfact ories
Ġreg ain
br is
Ġmed ieval
ĠNew ton
Ġsmall est
UN G
Ġ19 80
Sp ace
Ġweird o
Ġcur rency
Ġbreath s
IF UL
Te ach
ĠSE COND
ĠBur ger
Ġpump ed
ĠLaw son
ĠJosh ua
Ġdent al
Set tle
Ġaltern ate
ĠMIN ION
Ġsumm ers
ĠCom rade
ĠTrans l
Ġpurcha sed
ĠFro st
Ġsmugg ling
ĠFil ip
Ġsimpl er
Ġtoug her
comp uter
Nag ato
Ġenlight en
Ġtravell ed
Marg aret
. -
C athy
C RYING
G a
J ules
L AU
M W
M ass
P ra
b reathing
f eel
f low
i ating
t aker
v iv
y i
Å ĵ
Ġt art
Ġm ermaid
Ġg ran
Ġg ranny
Ġl in
ĠI ke
ar ia
et ry
Ġhe ating
as is
at ore
al ians
We ap
Ġj a
ĠS hane
ĠM is
ĠM INE
ĠT u
And rea
ĠB ing
ĠB our
ĠB rock
il ize
ĠD ream
Ġno b
ĠH wang
Ġal ias
ĠP U
ĠP arr
ab ilities
ĠF AR
qu el
ĠE thel
St r
ĠSt range
Ġcont empl
Ġhead aches
Ġgr ind
Ġgr ams
Ġsur rend
Ġsl ug
Ġstr anded
Ġhat ing
sw orth
Ġins anity
me ga
Ġside walk
ĠCl ose
Ġgod dam
Ġsn itch
ĠBl air
Ġ7 00
Ġcook s
Ġconv ent
iter ally
que z
Call ed
ĠTr ue
ĠCon nie
Ġknock s
Ġprov iding
ĠAlex is
Ġspeed ing
Jack son
Ġur ban
ett es
Ġcivil ized
ĠAnt ony
Stand ing
Ġforest s
Ġcos mic
ĠCO LL
Ġbrief case
ĠDel hi
ĠShi v
BY E
Ġflash light
Ġhel m
Fight ing
Ġautom obile
hib ited
Ġconduct ed
Ġspr ink
ĠMos es
ĠCHAT TER
heim er
ĠGen esis
ĠMess iah
Ġcher ish
Prec isely
ĠAra bs
von ne
Ġcateg ory
ĠUNIVER SE
ĠBRAD FORD
Sever al
Ġcourty ard
C ost
C ED
F itz
L u
M od
W y
a ving
g ently
n ier
t hose
w l
ll ie
en ko
Ġn ah
ve er
us ional
Ġth ug
Ġfor you
st ock
st ruct
ĠS ever
ĠM A
ĠM IC
ĠA ld
pp e
ĠB OTH
ĠD ob
ĠD umbo
ĠH IGH
ĠL ad
ĠL ucky
Ġlo ans
ĠP C
ĠP hys
ĠP ublic
ĠF ALL
ĠF ACT
ĠF ederal
ace ut
Ġbl o
ĠY ET
Ġim ple
Ġmin ing
Ġsha ped
Ġmar ble
Ġch ili
Ġcle arer
Ġsw ine
AS Y
Ġfe at
Ġgun fire
Ġdet ained
Ġdest ructive
Ġgrand children
Ġpar liament
Ġsqu eal
Ġsqu eez
ĠChar lest
Rem ove
ĠPr ison
Ġstri pper
ĠInd ust
ails ham
Ġmir rors
por ary
roll ed
IG URE
Ġshame ful
ĠAL ONE
azz i
Ġunt ie
Ġachieve ment
Ġhyp not
Ġdecl ar
ĠEVERY BODY
ĠPol and
Tra vis
Ġinsp ire
Ġvirt ual
ĠHO LD
Ġconven ience
ĠArab ic
ĠRoll s
Ġrode o
ĠHor ace
ĠCab inet
ĠAk an
bro ken
Ġperpet rator
Ġfisher man
ĠHye on
ĠWat son
Ġdistingu ished
ĠKenn eth
Ġbak ery
Ġdiso bey
% ,
' -
A ff
B ert
B ern
D ream
G ather
G ross
H ah
J ang
K y
L iam
R an
d ep
s iren
v ar
Ġt i
Ġb ir
Ġb ureau
Ġp ian
Ġp ots
Ġh over
ut ton
im ura
ust av
Ġgo ver
ĠS Y
ĠS inger
Ġne urolog
ĠT ro
ter ior
ĠC ait
ĠC AT
ĠB ase
ĠB enson
il us
ĠG lo
hy d
ĠH ale
ĠH ands
Ġbut ler
ĠR oo
ĠF an
ick le
ĠN ame
ĠK ur
Ġcl ap
Ġwork in
act s
St one
irl ing
Ġpart ial
ip her
ĠV o
ĠV on
ran ean
Ġhead lines
ors hip
Ġend anger
Ġch uckling
oc ity
Ġsl ot
ins ki
Ġent r
Ġ4 4
co on
ik h
UT ES
arr ating
Ġdep endent
CH ILD
Ġbra g
alm on
Keep ing
ĠST RE
ĠST ORY
Ġsqu eak
Ġsmart est
amb ling
ĠMart ine
ĠHar bor
Ġconst it
Ġaddress es
Ġprov ides
Ġunc on
Ġphys ic
angu age
Ġloss es
ĠCr ime
ĠCat al
Ġment or
ĠIndian a
Ġcompan ions
Ġnetwork s
Ġpurs uing
Ġsem i
Ġproced ures
Ġautom atically
Ġcalc ulated
Ġargu ed
Ġconsult ant
Ġjer ks
Ġgalax ies
Ġanaly ze
sho re
GROW LS
whe el
Ġtomato es
ici ency
Ġrestra ining
Foot steps
ĠSUPP OSED
Ġmanif est
Ġprophe cy
ĠSpr ings
C ong
D rew
H U
M id
O LD
O dd
T ried
W ash
Y ing
i ya
j ae
l ast
p al
r uc
s ound
Ġ 000
ha k
Ġm otto
Ġf are
om atic
Ġkn ots
st yle
ĠB rew
ĠH IT
ul et
os c
Ġback stage
Ġsp at
ort ex
Ġpro port
Ġv int
ag netic
Ġ" "
Ġcar rots
ĠGod dess
Ġcou rier
Ġcont ribution
Ġcont ribute
Ġgr im
Ġmon ks
Ġsl ick
Every where
und an
more d
Ch inese
Ġreg ime
Ġmed als
Ġrep ent
ĠDO CTOR
Ġfre ight
Ġed ition
Ar ch
Ġlow est
Ġcab bage
Ġhost ess
Ġadm ission
gun shots
ANG ER
Ġstock s
Ġexpert ise
ĠBU Y
Ġstret ched
WHO A
Ġcy ber
Ġsymb ols
ĠCap itol
Light s
Dis app
Ġbuff alo
Ġworm hole
Ġmotiv ated
Ġgenuine ly
ĠOlymp ic
ĠSwed en
ĠCommun ist
ĠCRA CK
ĠRUN NING
blood ed
Bird s
Ġparach ute
ĠHog arth
Ġepid emic
ĠDup ont
ĠMINION ESE
aceut ical
C ust
C ALL
E ye
F light
J ae
P ure
P ost
R om
T roy
W ild
W orse
e lder
m ay
r ative
s ur
in x
Ġd ye
is odes
et ed
Ġth ugs
Ġbe et
Ġre vers
ad al
Ġst ored
Ġnot icing
Ġan om
ĠS uch
ĠS low
ĠM end
ĠM useum
ĠC ris
Ġso vere
our nal
ĠD emon
ĠD aryl
ĠG oogle
ĠH Q
end ers
ĠL an
ĠJ os
Ġor b
Ġsp arrow
ap arte
ĠK ind
Ġbr on
ass ed
ment ed
Ġar son
Ġim perial
Ġwh ilst
ip sy
ĠV iolet
Ġbus hes
oth in
Ġbo llocks
Ġdoor bell
sh ow
Ġbro om
Ch ick
Ġext inction
Ġ20 12
Ġstra p
Ġstra pped
RO L
Ġsqu ash
Ġdi apers
Ġdem ol
een a
Ar nold
Ġstrange ly
gu ards
Ġpract iced
Ġhide ous
ĠMa fia
Ġlay ers
Ad v
ĠUS A
sec ret
Up stairs
ĠCo chran
alf unction
Ġpred ators
Christ mas
Ġtort uring
ĠHy un
Ġforeign ers
ĠNa omi
ĠEve lyn
ĠTor onto
Ġhumili ation
ĠEgypt ian
Ġfrust ration
ĠAPP LAUSE
Ġinn it
Roy ce
ĠGall ery
Ġexplo it
34 9
Ġaccus ations
Ġted dy
ĠPenn sylvania
Mir anda
ĠAthe ns
Ġcanv as
Hundred s
Ġbrides maid
Ġsuspens ion
Ġtrig gered
D ana
F IN
J une
L en
L oud
S ell
S hip
b ae
c row
c hard
f red
f ound
h ink
Ġa pr
re ase
Ġw ired
er ia
Ġd amp
Ġf ills
Ġg au
ĠI M
as mine
Ġha ste
im als
Ġst ro
ill ac
Ġnot orious
Ġan at
st a
ant i
ĠB ub
ĠB ald
ĠD arling
ĠG ert
ĠW ANNA
ĠL ost
ĠL ATE
ĠP ack
ĠP oole
ĠR aven
ĠJ amal
ĠF ly
ĠF ern
Ġsp an
Ġsp eeches
el ujah
Ġag encies
Ġcome back
ap or
ting u
ĠY a
Ġwr ink
pt ions
ĠHe ights
ark s
Ġad ap
ĠSt ock
Ġcont ribut
Ġper il
aw king
Ġsl ower
Ġfew er
ĠBr uno
ĠCl arke
Ġbar ge
ĠBut ter
Ġpat riot
ster ix
ĠNew man
ere lla
ĠSe ong
Sp ider
Ġclos ure
fess ional
Ġexp ans
Ġris en
Ġgener osity
ov al
Ġconnect ing
Ġcard iac
ĠSha un
Ġhide out
Ġpost ers
Ġsuggest ions
cent rate
Ġboyfriend s
Ġlim p
Ġaut umn
DO G
Ġste ering
ĠSer b
Ġhall s
Ġcontract or
ĠAM ERIC
rs ula
Ġmel ody
Ġstress ful
Ġqual ify
ĠMu hyul
Ġelder ly
FT LY
ĠSab rina
ĠPO SS
MA LE
Ġacknow led
Ġdeter mination
Aud rey
Ġrefe rences
Ell ie
Near ly
CU SE
ĠDet roit
Ġorgas m
Pret end
Ġhott est
ĠLoc ke
ĠHeb rew
ĠNev ada
ĠVul can
Ġantibiot ics
B EL
M ack
M ist
N adia
P leased
R ap
T reat
U nd
V ince
Z Y
b uzz
d el
y ll
y Ã¶u
z u
Ã ĩ
ou na
on ce
Ġf uzzy
Ġp itc
Ġh olog
le ave
Ġe clip
ac ula
Ġnot ified
ĠS erena
ĠM AKES
ĠT ech
ĠC re
ĠC av
ĠB reak
ĠG ret
ĠH istory
That s
Ġbut ts
ĠL ind
ĠL und
fe ld
ĠE mb
ĠK ara
ff ff
Ġbr anches
Ġrem ed
Ġcour thouse
LL OW
ĠCh ung
Ġch orus
Ġpre viously
Ġrel ent
Ġrest ricted
Ġhum p
IC S
Ġsound ing
Ġinter ven
Ġpower less
ĠAl mighty
Ġfore man
Ġdisc retion
Ġexpect s
ĠRe ich
ats y
Ġpar amed
Was hington
Ġsuper natural
En zo
sp eaks
Ġstri pped
Ġmach inery
ĠJul ius
Cha se
pic able
Pr incess
ĠCo ffee
Ġmeaning ful
Ġdemand ed
Ġinstruct ed
Ġreward ed
Har old
Ġinit iative
etch up
Ap ril
ĠJen kins
Ġfrequ ently
ĠSho ot
Ġhen ce
ĠCass ie
Ġadopt ion
ĠASK ED
ĠViv ian
Ġrepeated ly
Ġprecaut ion
inche ster
Budd ha
Ġrefres hing
B ag
B ank
C ity
E t
F MAN
H usband
J asper
L ynn
N elson
O ppa
P ap
S ick
c ling
c omes
e als
s oo
s ch
t ry
Ġf aked
Ġf iance
Ġg ender
Ġo mel
Ġp ing
Ġp uff
ow ler
as ier
Ġwe ary
oo o
ri als
Ġst alker
ĠM its
ĠT han
ĠT oy
ĠA GO
ĠC OUGH
ge ois
ĠH ailsham
ĠW i
ĠL ar
ist on
Ġde pl
ĠR hodes
ĠJ ee
Ġman ly
ĠF ACE
qu ire
ort ing
ĠN ASA
If you
ĠK odi
au g
og y
ĠV era
Ġres olution
ĠCh ick
ek o
Ġweek ly
ars en
Ġmorning s
ott i
Ġheart less
Ġsince rely
Br andon
Ġpar am
Ġcreat or
Ġz oom
Ġsad ly
Ġcre aking
Ġpack s
hel m
Ġgas p
Ġpartic le
Ġguard ed
ĠMon ster
reg ular
Ġmerc en
Ġtow ers
Ġdump ing
apt ist
stit utes
Ġcere mon
Ġreveal ing
ĠSAY ING
Ġgy psy
Ġbail ed
Ġbum per
Hard er
Cons idering
Ġtooth p
Ġdoub led
Ġstraw berries
ĠEv il
Ġprotoc ols
Ġchoo ses
ĠMass achusetts
Ġstew ard
Ġzomb ies
Ġforens ics
Ġtu ition
Ġprett iest
Ġingred ient
Ġassess ment
Ġpostp one
Ġdolp hin
ĠPrinc ipal
Ġpengu in
ĠAssoc iation
F re
G raham
G arcia
L IC
N ed
P resent
R ip
S and
S ugar
c ream
e h
f ucking
j et
l ah
s us
in ished
ing es
Ġf ri
Ġg oo
ĠI ran
Ġhe m
Ġbe hold
Ġst umbled
am on
am os
am mer
am ins
st art
ĠS na
ĠM ull
Ġne ur
ĠT ir
ĠT all
ĠT een
ĠC ASE
Ġab normal
Ġso lemn
ra iser
il ian
Ġr usty
Ġno ses
ess ions
ig ers
ĠP and
ven ant
ĠN AT
Ġbl u
au x
ob a
Ġel bow
Ġser um
IS TER
Ġsw elling
Ġstuff ing
Ġimp erson
AL D
cl iffe
ĠZ ack
ĠBE EPING
Ġdist ribution
Ġstupid ity
Ġrep aired
Ġball oons
Ġten ants
Ġstraight forward
IR RING
Sc ient
May or
Ġapolog ized
Ġprov inc
ĠJo han
ĠHigh lands
Ġheaven ly
Ġfinger na
ĠMon roe
Ãĺ Âª
Ġexpress ed
Ġcomplain ed
Ġfirm ly
ĠBer g
ĠNat asha
Sur pr
ĠApp ro
ĠBrad ley
want ed
Ġobst acle
Ġtub es
MR S
AI LING
Ġnegoti ations
Ġanticip ated
ĠCraw ford
SOLD IER
Ġconduc ting
ĠPerc y
4 6
9 7
C her
D enny
E die
H oll
N ap
S und
S uit
T all
T rain
W endy
c od
d ead
g ull
i han
v re
Ã ĥ
Ġs ire
Ġd azz
is uke
Ġf aking
Ġn ause
Ġn ude
ow a
at own
Ġme ga
Ġdo cks
ri ous
ĠS em
ĠM ich
ĠT ai
ĠT rib
ĠT AKING
ĠC ox
ĠC ontin
ra wn
ĠB eeping
ĠD oo
ĠG asping
ie u
Ġde bris
ĠP AR
ĠR U
ĠR ound
ĠR oland
ĠR oosevelt
ĠO mar
nt hia
omet er
ĠK AU
ĠK ai
Ġcl utch
Ġmo cking
Ġro aring
St aff
Ġlea ked
og a
Ġche mo
Ġper ish
Ġdri fting
AL S
ĠSc ully
Ġrep ublic
Ġcry pt
Cl ay
ĠMy st
lo at
Ġbox er
Ġenjoy s
Ġbank er
ENT ION
ĠCon stable
ĠSH IT
Ġcelebr ities
SO L
Ġfort ress
ĠLuc a
Ġden ial
Ġhook ers
Ġgang sters
Ġrequest ing
ĠFl orence
ĠSim ran
Ġcig ars
ĠPal estine
Ġcrowd s
ĠANY ONE
Ã¶ ur
Ġtrad itions
mond s
FOR M
ĠPRO BABLY
Ġpump ing
ĠEr n
Ġscen ery
Ġsav ior
Ġdim ensions
Ġsmooth ly
Ġta pped
Ġcomed ian
Ġtransl ation
ĠFore st
Ye o
Ġsust ained
Ġtempt ed
Ġol ive
Ġburgl ary
Ġclo ak
Ġunivers al
Ġinha bit
ĠAbb ott
Ġnumer ous
Ġchal k
ĠAPPRO ACH
Ġbrid ges
C ond
C amp
H IS
H IND
K ahn
M us
M onday
O of
P ity
P ublic
U lt
V ictory
Z o
d ance
g od
m ur
v ah
Ã Ī
Ġ iv
ou dy
ha ke
Ġd icks
Ġto ot
Ġo v
Ġp neum
et ra
et ty
Ġon ions
im ps
ĠS iber
ĠC ullen
ra le
ĠB ou
ĠB ae
ĠL acey
ĠP ep
ĠR h
are th
ĠF isher
Ġex ile
ĠE agle
She lby
ag ra
ud ible
Ġsu ing
Ġbl ed
Ġqu eer
Thank you
ish ment
." ÂĿ
Ġchan ting
ĠSt alin
Ġcr ane
Ġmon st
Ġsk illed
Ġcho col
Ġhum iliate
ph is
Wh is
me g
ĠMar ge
Ch ill
Ġ20 10
Ġprotect s
Ġmid st
Ġstar ters
Ġdark er
Ġ8 5
ov in
ĠBar celona
Ġsal v
Ġtick le
Ġpost s
ino is
Ġprop ag
Ġ11 0
Ġcommun ist
Ġlord s
Ġpig gy
WH IMP
Gl ory
Ġep isodes
Ġpin ea
ĠWould n
ĠDen ver
ĠPet ers
Del icious
Ġtent h
Ġphotograp hy
Ġfianc ee
Ġplat oon
Ġdisturb ance
Ġorphan s
ĠSub titles
ĠCy rus
Ġsch m
Ġsymp athi
ĠZe uthen
Ġcritic ism
ĠFle et
Ġconfront ed
Ġarrog ance
Ġey ewitness
Ġastronaut s
ĠWeb ster
ĠEle anor
hr ush
Ġrh ino
Ġunl ucky
termin ate
ĠShang hai
Ġcontag ious
osy stem
Ġpolic ies
3 1
A ri
A bs
B eep
C AND
C ousin
F olks
L ER
L augh
R ound
W OR
W OW
a gh
c amera
v able
Â Ī
Ġ ounces
Ġy ep
Ġm atched
Ġd iction
Ġc ork
Ġf bi
Ġhe mor
us cript
im ir
Ġst ains
Ġst omp
Ġst oned
ĠA lec
Ġall y
ĠH ub
ĠL oren
ĠP eng
ĠP rivate
Ġor nament
ort heast
Ġhas s
Ġover heard
Ġsu ed
Ġro am
Ġse asons
Ġco ats
-- "
Ġnew est
Ġhand bag
av ana
Ġgr unt
aught ered
AR R
oc co
Ġdes picable
ott le
ank a
Ġfr uits
Ġcount ess
Ġfar ms
Ġter race
ĠBr itt
sh outing
me an
Ġcons p
UT TERING
Ġext ensive
ĠON CE
Ġgrand parents
RO LL
ĠCha p
Pro ve
Ġconcer ning
Ġca ves
ĠFr ont
Ġcross es
ĠSam uel
sp ace
ĠAm elia
Ġemp has
ĠOr gan
ĠBrit ney
Ġbri bes
Ġbene f
ĠWANT S
with out
ĠCr us
Sub tit
Ġbrief ly
Ġjournal ism
Ġfra gr
Ġscar ce
ĠBudd hist
Ġpunk s
NOT HING
Imp ressive
ĠJe ong
ĠBea utiful
Sing le
Ġprivile ges
Ġsmok es
Ġaggress ion
ĠGil bert
ĠRepublic an
Jon as
Ġdiagn osed
Ġski ing
Ġdynam ic
Ġignor ance
Ġimprison ed
Ġbisc uits
Ġdum pl
Ġsanct uary
ĠWr itten
COUGH ING
Ġsubstant ial
BRID GET
Ġgrie ving
wel come
Ġchau ffe
hrush chev
" ..
4 4
9 8
B omb
D ist
E AR
F ox
K ITT
M ult
N IGHT
S aturday
T IN
c ue
e o
Â ĥ
Ã ¯
Ġ âĢ
ou x
ou ched
Ġm alfunction
Ġd art
Ġd ots
Ġp aj
ed i
Ġth umbs
Ġbe acon
Ġk ettle
ke ley
am ura
ion ed
ĠS ac
ĠS UN
ĠS asha
ĠS apna
ĠM am
ĠT i
ĠT oni
pp in
ĠD irection
ĠG la
ĠG ERMAN
ĠH ae
ĠH ORN
ĠL iv
ĠP om
ĠP RI
ĠP amela
os i
Ġpl um
Ġman uscript
ĠF IGURE
Ġgu ll
Ġsp onge
Ġv ile
Ġle ash
Ġcall er
Ġfind ings
Ġun armed
Ġad jour
Ġbu gger
ĠSt ra
ĠIt alians
Ġres et
ĠYOU NG
Ġpre lim
Ġdri pping
ier a
att ling
Ġtri pped
Ġspec ulation
Ġcons ume
Will ow
Ġvis ually
Ġcop ied
li hood
Ġgra v
ĠBl aine
II I
Ġmark ets
Ġarrest s
Ġapolog izing
RI ES
Ġgas oline
Ġapartment s
Ġcalm ly
Ġbomb ed
Ġguard ing
Ġdel usional
Ġspl itting
Want ed
Con centrate
urg ers
isc uit
Ġpers ist
Ġactiv ate
Ġmembers hip
ĠPet erson
Ġstret ching
ĠTR ANS
Fred dy
Res pect
ĠCourt ney
Ġsquad ron
Ġprem iere
Sy dney
Ġflood ed
sha ped
ĠSteven s
Ġexpand ing
Ġrepres ented
ĠNi gel
Ġric hest
Ear ly
ĠIr ving
Ġroo ft
ĠAnc ients
Ġsquir rel
num bered
ĠBelg ium
Ġreleas ing
Brid get
MART Y
Ġbloods hed
Ġmicrow ave
Ġsouven ir
Ġcondol ences
Ġmerchand ise
Ġdelet ed
ĠKAU FMAN
B EN
B ALL
C aleb
D ism
E llen
F emale
I ng
I van
N ora
S ang
c oughs
l asting
m ical
w ear
x ide
Â º
Ġ iced
Ġt akin
Ġd Î¿
Ġd aring
Ġd anny
is an
Ġc ement
Ġg ad
en stein
ve al
ow als
Ġon board
Ġk e
ad der
am us
ĠS et
ĠS ven
ĠS aul
ĠM aid
ĠM ae
ĠT itan
ĠA va
ĠC ui
pp el
il ess
ĠG arcia
Ġr ick
ĠL ADY
ĠO mer
Ġv ous
ĠN ep
ĠE t
Ġtr uce
ep r
Ġro les
pl an
ass an
Ġhome made
Ġstart led
ian ca
Ġcomp os
Ġra ven
the ir
OM B
Ġsy n
oot s
RO Y
Ġ9 00
Ġdi aper
Ġesc al
Mar co
Ġsuper star
AD A
Never theless
CE PT
Ġpublic ly
Ġmass acre
ĠSO ON
Ġfoc using
ĠPl ace
Ġcommand ing
Ġavo ided
New s
Ġkidna ppers
ĠMaster s
rib ly
door bell
Bar ney
ĠHy uk
Ġdisp ute
Ġbutter flies
Sur render
Ġing en
Ġmer it
Ġpsycholog ist
Ġplot ting
Rock y
ĠBenn ett
Ġpup il
Ġslipp ery
VIE WER
Ġaccus ation
ĠCost a
Ġinsect s
Ġoptim istic
Key s
ĠFerr ari
Ġtraum atic
Franc is
Ġadvent ures
Ġacadem ic
ĠDIFFER ENT
Ġsib lings
Ġmixt ure
Ġwilder ness
C ole
E lev
K al
K inda
M ia
M ae
M alley
S arge
U mm
W ife
f ed
f ar
f igure
g onna
o in
p ay
u per
Ġt ha
Ġt as
Ġt ug
Ġt ux
he ld
Ġa us
Ġs aints
Ġm im
Ġm akin
Ġb ikes
Ġc ens
Ġc ush
Ġg eorge
... [
Ġwe aken
Ġre born
ĠS IDE
ur able
ĠT ea
ĠT rying
if ty
uc ci
ĠB ot
ĠB BC
il ts
ĠD AN
ĠG wen
ĠH I
ĠL ive
ĠL ANG
ĠL uz
ig her
ol es
ol ving
ĠR idge
ĠR ACE
ĠJ E
So cial
Ġneed y
ect ed
ĠN il
ap ore
ud der
Ġle isure
Do gs
th row
Ġqu art
All right
Ġunder pants
ER A
AT IC
ĠV icki
Ġper ception
Ġcr ate
ĠCh ir
Ġch ronic
Ġmor ons
Ġgl owing
anc a
Ġdoor way
ĠBr ooke
Ġinc oming
Ġ5 1
Ġins ign
Ġhon ks
ĠIn s
Ch in
Me era
Ġsn atch
ĠBE LL
ĠSc ient
THE SE
Ġcool est
ĠME ANS
mp oo
ury a
Put ting
Ġdi ver
Mar ianne
Ġoper ated
US S
ov o
ov ic
vo ir
Ġdraw s
ĠCon rad
Ġport able
Col in
Ġrum ours
ĠBR ING
Ġunf inished
Ġcheer ful
ĠTw itter
ĠLight ning
ĠSand ers
Ġaim ed
ĠPa olo
Rec ently
Ġrehears ing
ograph ic
wr itten
Ġinvent ory
ĠFore ign
ĠBrook s
ĠKn ock
Ġec osystem
Ġgrill ed
Ġsurprising ly
FO OTSTEPS
ĠBird s
Sad ly
Ġeth ics
hob ic
Ġwel coming
ĠCare ful
ĠSWE ET
Ġscoot er
ounsel or
Emp ty
ctop us
REPOR TER
C a
D ing
H Y
H ate
I ED
J ennifer
L osing
P iss
T W
Y S
h il
p aper
Â ³
Â ĩ
ha gen
Ġy Ã¶ur
Ġm attered
Ġl inger
Ġhe s
Ġhe ated
at he
Ġh ier
Ġk etchup
ĠM az
ĠM erry
ĠT un
ter o
ĠC hat
Ġout numbered
un ge
ra ined
ĠG ur
ĠG acy
ĠG ulf
rom well
ĠW ales
ĠP ul
ĠP AIN
ab oy
ĠR at
ĠR EL
Ġpl aster
ven ile
ĠJ J
Ġtime line
ĠF ry
Ġex quisite
ĠE p
ff le
Ġpe ac
Ġover all
All ison
Ġar ray
wn s
Ġgreat ness
ance l
Ġad ul
Ġbu gging
Ġsl aughtered
Ġmor ale
Re verend
Ġsecond ary
aut ilus
Ah jussi
Ġcompl ications
Ġret arded
lic king
Ġear ning
ST AMM
ĠMar is
Ġ) ...
Ġind icated
Ġfil mm
ĠZ ero
Ġless er
Ġsub conscious
fic ial
Ġ19 70
Ã© r
lo v
ĠLord ship
Ġpleas ures
ĠFor ces
Miss ion
ĠMc N
Ġemb ry
ĠBen ed
ĠOr der
Ġcrack ling
Ġexcept ional
Ġintro duction
Ġtarget ed
Ġden ying
Ġur gently
Ġenc ry
Ġdeg ener
Ġpred ic
Ġcos met
did n
Ġcourage ous
Ġpositive ly
Ġsneak y
ĠGar rett
Ġrhy me
Ġremote ly
IV ES
Ġbid ding
Ġshout ed
Da wn
Ġresign ed
Ev il
ynam ite
Ġimprove ment
ĠPri ze
Ġbuff et
IZ E
ethe less
ĠGre ene
ĠGray son
67 67
Ġgard ener
ĠCraw ley
Ġkar ate
Ġry o
Ġfantas ies
INTER VIEWER
Ġtremb ling
Ġspac ecraft
Ġexpans ion
B IR
C OULD
E ug
H ill
H all
M ET
S yl
S pring
b in
b ea
c ap
g iggles
Ġa rou
Ġw ool
Ġl ag
Ġl umber
.. ...
et r
ly a
all ic
ĠM OR
ĠB arr
ack ling
ĠD RE
ĠG ENER
ul us
ure auc
ĠP anc
are k
ĠO ther
ĠN arrating
ĠK ung
ving s
Ġbr ot
Ġwr ists
RE M
Ġdr one
Ġad renaline
Ġche ep
ign o
Ġch illy
Ġsl ed
Be hold
Ġsk ipped
aj ri
aj os
Ġconf ine
ĠIT S
ĠCl an
ĠAr ms
Ġten ant
rec ed
IE F
ĠBar low
PP ED
Ġpun ches
Ġaccount ing
ĠTr ump
Ġequ ipped
Ġupset ting
ĠLO ST
Ġyell s
Ġintro ducing
Ġrev olt
ĠAnt on
Ġtext book
Ġstorm s
ĠRichard s
ĠRod ri
ĠRE C
Ġess ay
ĠHol t
Ġflag s
Ġded icate
Ġconfir ms
amm ers
Ġfunction ing
ĠSol omon
ĠMIN UTE
ĠMIN UTES
ĠSTART S
Ġhyd rogen
ĠInter pol
Ġcaf Ã©
ĠHat field
cont rol
ĠAx l
ĠBalt imore
Ġcontrovers ial
ĠShad ow
Ġaston ishing
Ġgrocer ies
Ġwalt z
Ġintu ition
CHAT TERING
ediate ly
Ġpian ist
Ġvint age
' "
1 20
B ow
B REATHING
E y
K athy
M ik
R alph
S I
S el
T imes
W ine
c re
g ies
g ian
m illion
r ude
s i
s ighing
w ich
â Ĥ
Ġt ails
in ar
Ġw ager
Ġy ork
Ġb out
er als
Ġd ile
Ġc rib
Ġl ists
Ġp izz
ot er
ot hes
at isf
Ġon going
ac ent
ad v
st ory
ent e
ent ry
Ġj ul
ĠM ut
ĠM ord
ĠM ESS
ĠA RAB
ĠC OR
ĠC hip
ĠC oulson
ĠD AR
Ġr ation
Ġr anc
ĠW ATCH
ĠL UCK
ĠL eela
Ġpl ag
ĠJ ai
ĠF ORE
Ġex tingu
ĠO ppa
Ġlook out
Ġsp inal
ĠE mer
ck a
reat h
ĠK ens
Ġcl ing
th ought
Ġro ar
Ġsc otch
ĠY uri
ty pe
Ġbel ts
Ġcar avan
Ġ' ...
Ġad equ
ĠV IP
Ġapp lying
Ġrun away
Ġbus es
Ġch ic
ĠThe resa
Ġcomm end
Ġfuck ers
ey ton
Ġgi ants
Ġdad s
Ġbro ker
Ġtrou bling
Ġri fles
AL ARM
Ġfil ter
Ġmed all
ĠJohn nie
ex pl
Ġref lex
TH A
erv ice
Ġsuper b
Ġdem ise
ĠGet ting
En emy
ns ics
Ġidiot ic
Ġdoubt ed
Ġmass es
de ath
Ġste als
Ġblind ed
Ġemer ge
Ġ0 1
Ġcrew s
ĠCor rect
ITT ING
ipp in
Id ent
ĠChristian ity
Ġexerc ises
Ġhelicop ters
foot steps
Ġencour aging
Ġvirgin ity
Ġwand ered
ĠSTART ED
ĠCos ette
ĠGall agher
erg ies
ĠHAND S
CHAR LIE
Leon ardo
Secret ary
Ġeld est
Cam ille
iat ric
ĠDal ton
pow der
Ġcyn ical
ĠAven gers
ĠPow ell
Ġchur ches
reced ented
A A
C op
E arl
G ay
H ook
L ean
N I
R andy
R icky
S ER
b ig
c op
g le
m out
m uffled
r M
w orthy
Â ¦
Ã «
Ã ī
Ġs almon
Ġb or
Ġd imin
Ġg on
Ġl aps
Ġp ins
ar ity
et in
Ġwas t
Ġj eez
ant o
ro ads
ĠS inging
ĠT iffany
ĠC ro
ĠC LOSE
ry n
ĠB ax
ĠG AVE
od o
Ġsee ks
Ġal mighty
ĠP ont
ĠP ICK
ĠP OLICE
Ġshe pherd
ĠR ING
ĠJ am
ĠF RE
ĠF REE
Ġex ternal
Ġsp iders
IN ING
ĠK it
ĠK ids
Ġro cking
ĠY ard
Ġkeep er
Ġdr ummer
av or
Ġreal izes
Ġid le
Ġcr ashes
Ġend ea
aby rin
oc ating
Ġ4 6
ĠMar quis
Will ie
Ġdisc iples
Ġri pping
Ġcertain ty
Ġpar ad
RO ARS
Ġloc king
Ġallow ance
what ever
Ġsum mit
Ġstation ed
Car lo
ern on
Ad rian
ĠCH ANCE
Ġweak er
Ġfeed back
Ġtight ly
Sam my
SH OUTING
Ġcompet ing
Ġcock y
Ġmail box
uj iro
Jul iet
Jul ien
ĠDa wn
ĠSAY S
agn ar
Ġmult ip
Ġunderw orld
Har vey
ĠDE C
Ġaim ing
liv ier
Ã¼ hrer
Ġfrag ments
Ġpredict able
Ġmos quito
Ġmour n
UFF LED
ĠTan ner
Ġcondem n
ĠKILL ED
Ġincreasing ly
Ġpup ils
ĠIslam ic
Ġdiplom atic
Ġbour bon
Ġchim ney
Ps st
ĠVill age
ĠBUZZ ING
Ġdar lin
Ġpeop les
Cong rats
4 9
8 6
A gnes
D riving
G iggles
G ideon
J d
L ose
P ow
e ur
i vers
s peed
v ag
y ss
Ġt apping
he h
Ġw i
Ġw rench
Ġs irens
an im
Ġg ene
Ġl att
Ġn ag
Ġit ch
ri o
ri on
ri ers
am ation
Ġj ockey
ĠS unny
ĠM and
ĠM ort
ĠT ires
ĠA very
ĠC op
Ġab duction
ĠD ra
ĠD IE
ĠW ha
ĠW ang
ĠW inchester
ĠL uthor
ĠL oki
ĠP ULL
Ġpl umb
Ġor ang
ĠF uh
ck er
Ġhas h
ĠK or
ĠK ol
Ġover run
Ġun sc
In coming
Ġfl ick
ip ers
Ġcr ust
Ġsho ved
Ġdec iding
hes is
ah ina
ĠAnd i
Re venge
anc er
AS HING
Al arm
ib u
Ġeas iest
ĠBr utus
Ġear liest
sh ield
sh irts
Ġind ec
Ġind oors
Ġreg ener
AM A
Ġmed itation
Ġdear ly
ĠGr u
Ġadd s
ĠSe ung
ĠSha olin
OP S
Ġpun ishing
Ġcomfort ably
law s
Ġblind s
Sm o
Ġrelax ing
UM BLE
ĠHer man
Ġreve rend
gun fire
Int ro
Ġforeign er
Ġbuck le
Cor poral
ĠJon ah
Gun fire
ĠHome land
ĠSho re
ĠInt o
BAR RY
Ġunre asonable
ĠRES P
Person al
âĻªâĻªâĻª )
Ġyog urt
Merc i
Ġpubl ishing
ĠEmil ie
ĠCHAR LIE
Ġimprison ment
Ġnarc otics
Ġeval uation
Ġtrump et
ĠColumb us
ĠTON IGHT
ĠGon z
Laure n
ĠConstant ine
ĠEug ene
Ġsuic idal
Phill ip
ĠBord en
Ġdow ry
ĠBEAUT IFUL
Maj esty
( âĻªâĻªâĻª)
B ody
C re
D ory
I vy
M UFFLED
N i
N ate
O OH
P hys
S oo
S kin
W ords
k ick
l apping
m itting
o z
Ġ Â´
Ġw ench
Ġm c
er ies
it ory
Ġf ades
as a
as se
Ġth igh
Ġth ighs
le igh
Ġk itten
Ġwe asel
im ming
Ġdo ggy
se at
ĠS kin
Ġout break
Ġat tain
ook s
ul ates
ch t
ĠL EM
ĠL AW
ĠP un
ĠR ut
ĠR udy
ĠJ ot
Ġor al
ĠO i
ĠN ative
ĠK oh
ĠK ov
Ġcl one
Ġyear book
Is ab
St uff
ĠNo vak
ress es
ĠSt ory
ĠU M
Ġhar bour
Ġgr in
oll ey
Ġra gs
IT HER
Ġcha ps
Ġcho ps
Ġhon oured
Ġspec ially
Ġsy rup
ĠAl most
ĠShe p
Ġind ict
ane ously
Ġri gged
Ġsub stitute
Man ny
ĠBl oody
RO CK
Ġstar ved
Ġfoot prints
ĠCha llen
Ġlearn s
ĠPr ice
do ors
Ġgen et
Ġscrew s
Ġsens ational
ĠOUT SIDE
DO CTOR
Ġhi bern
Sm oke
SH IP
rick son
ĠREA D
nes ia
Ġpil grim
Ġfed s
Ġbat he
ĠGl ad
ĠMel anie
Ġmaid s
Hit ler
Ġacqu ire
Door bell
ĠDE AR
Ġmyster ies
Ġblank ets
Ġbom ber
Ġrot ting
Cho i
ĠPRE SS
ĠSub bing
Ġsymp athetic
ĠJud as
ĠSM ALL
Ang ie
ĠKr amer
Ġassemb led
Ġkidney s
Ke i
uer bach
ĠRain bow
Ġunlock ed
Ġwret ch
Champ agne
ĠAnc ient
DAN IEL
ICT URE
Ġhorm ones
ĠSyl via
Ġbos om
Ġsurrend ered
Ġdeclar ation
Ġentr usted
. /
B reaking
F inal
K arl
M eredith
P or
R ule
S ire
Y oo
Y ellow
d ar
d ist
d ate
w ave
Ġt ummy
in burgh
Ġw ack
Ġw aff
Ġs izes
Ġb ind
Ġb uns
Ġd ine
Ġd ork
Ġc uc
Ġf ir
Ġg Î¿
Ġn ets
ld om
ke ye
im us
Ġst ale
Ġst alling
Ġgo ats
ĠS leep
ĠS LE
ĠS INCE
Ġdon uts
ĠM eredith
ĠT W
ĠT ank
ood oo
ĠB ED
ĠB een
est ions
ig hed
ĠP oor
ol ic
ĠJ azz
are ly
Ġgood night
Ġdown loaded
ĠK nox
Ġsc ales
ĠY ing
Now here
ER RY
Ġim bec
In tern
Ġcour ses
Ġbad ass
Ġhouse wife
Ġapp rentice
so le
ars ons
Ġfr own
Ġeas tern
ĠBr and
ĠSc ience
Ġmad ly
Ġtrans c
Ġpast e
Ġhang over
Che ese
ific ant
rat ors
Ġve gan
Ġcre aks
ruct ure
Ġappro aches
Ġsens or
Ġconsider able
ĠJul ien
con f
Brother s
Whoo ps
Fin ished
Ġwis er
ĠPat ricia
ĠWH ICH
uj ii
Ġcart oons
Ġfro ze
Har riet
ĠTri p
Ġsignific ance
Ġnigg ers
Ġratt les
Ġimmig ration
ĠHind u
ĠEst her
Frances ca
Ġpent house
ĠINTER EST
Ġdeleg ation
BU ZZ
Ġhamb urger
Ġmars hal
Ġlakh s
Scot land
Ġconserv ative
Ġremo ving
Ġtelesc ope
abyrin th
0 6
0 9
5 9
8 9
A z
A FTER
C aught
F RED
G ard
I B
L i
L acey
N ED
N ixon
R id
U nc
V ar
c ore
d im
d led
g usting
i ology
n ies
r ational
s kin
w ee
re ement
Ġw oe
ha il
Ġm rs
Ġg az
Ġg eek
Ġl amps
es la
Ġn uns
ed uc
ot ta
Ġit chy
al ysis
ver ing
Ġfor ming
Ġst ern
Ġmy t
ĠT ELE
ĠC ER
Ġup tight
ĠB aptist
il ized
ĠD EEP
ĠD iamond
Ġno bles
ĠW als
Ġlo s
ĠP ir
ĠP oll
ĠP asha
ĠP ARK
ab bed
way ne
ĠK een
Ġle aning
Ġro bb
Ġun im
Ġun identified
Ġar mored
Is h
Ġwait in
Ġfl ing
ren ches
ĠCh uckling
Ġser mon
Ġsw ind
Ġrest room
Be er
sw ald
FF ORD
atc hy
Ġspec imen
Ġind ication
Ġfore cast
Ġvis a
ĠZ ane
ĠGood night
Ġrid er
ev il
Cl ick
Cl imb
Dr ugs
Ġred emption
ĠCha e
Ġsuper st
ĠGo a
Ġbott led
ĠEx hales
Ġpack et
min ent
Ġdraw ers
Ġaddress ed
sec ute
Ġtight er
Ġvan illa
ĠWar ner
Ġjack pot
Ġcomb ine
Ġproduc ers
Ġreve als
Ġcommunic ating
ko z
Ġincre ases
ĠHy dra
Follow ing
ĠMil ton
ĠSOME BODY
ĠSil as
Ġdeb rief
ĠYe h
ĠRO CK
Ġcruel ty
Ã± a
Ġunp recedented
Ġsew ers
Ġheav ier
Ġwhist les
War ren
ĠAndrew s
Ġfold ed
Ġrecover ing
Ġnin th
Mal colm
aith ful
ĠDiv ya
Ġreceipt s
Ġkilomet res
Ear lier
Ġnegoti ating
Ġalleg iance
PL AY
Ġgard ens
ĠHend erson
ĠSaw yer
MIC HAEL
ĠDer rick
Wall ace
Ġnipp les
Ġrew rite
Ġincompet ent
Regard less
count ry
Ġtraff icking
Wy att
ĠMich igan
ĠAPPROACH ING
ĠARAB IC
0 5
B re
B RIAN
C ooper
C ourage
D om
F ro
G RA
H istory
I ll
J ordan
L ana
N ICE
P iece
S AR
T ube
U AL
b itch
c akes
c ott
c uit
f ind
g ow
g one
j as
m us
u en
Ġa lex
Ġa val
in eered
Ġw ank
en o
en ie
Ġn oodle
Ġn agging
et ime
Ġhe ed
Ġh ush
id ency
Ġre el
Ġst aged
Ġli ability
ĠS K
ĠM P
ur ora
ec or
ĠT it
ĠC ove
And re
ĠD ang
ĠD av
ĠD ynasty
ĠG reetings
hy thm
ĠP ors
ĠP IE
ĠP ANTING
ĠP ICTURE
Ġcon sole
nt on
em a
ĠN ation
Ġcl atters
Ġbr ute
Ġun ra
Ġhome land
Ġcar c
Ġfl ute
Ġfl ows
aw d
Ġapp end
Ġrec ital
ug al
Ġdec eption
Ġwar fare
Ġcho res
hen ge
ĠMar issa
ĠShe ila
iec es
ĠAll ison
Ġext ension
Ġcool ing
Ġtrans action
Ġquick sand
ĠGr ady
ler a
Ġart if
arry l
Ġdark est
Gu ilty
Mar ion
Am ber
Ġexp ired
Ġ* ***
Sc an
Ġang les
HO LD
uri on
ĠMc K
ĠPh illy
ugg ling
Ġequ ation
ĠCon nect
ĠUn less
Ġradio active
Ġconsider ate
Ġbab es
reg ation
Ġban quet
Ġtun ed
Ġsna ps
Fl ash
ĠGl enn
ĠRam bo
ĠPet ey
Mc C
ĠBU ILD
Ġconsequ ence
Ġprem ature
BELL A
Ġque ens
Ġdomin ated
Ġgreet ing
Ġtermin ated
Î¥ ou
Ġoverd ose
Ġgren ades
WHISP ERS
Ele ven
Ġfemin ine
ĠCT U
ĠVar gas
Ġresur rection
ĠPortug uese
Murd erer
ĠMey er
Les lie
Ġabdom en
ĠCub an
ĠSCREE CHING
Ign ore
ĠFest ival
Virgin ia
Ġturt les
Ġpitc her
Ġeclip se
CAND IS
Ġchauffe ur
- .
A x
B ry
C ESS
D AVID
H AR
L ane
L ocal
L eela
M IT
b h
b iscuit
f i
h ins
j ah
m il
p ill
v ial
y ells
Ñ ĥ
ã ģ
Ġw ield
Ġs out
Ġb ib
Ġb aker
Ġf ishy
Ġg le
ĠI R
Ġp ies
Ġp act
ow itz
Ġwe ighs
ke red
Ġre nder
ĠS CHOOL
ĠM ist
ĠM AKING
Ġne ural
ec han
ĠT in
ĠC e
ĠC aine
ĠC elia
uc ha
Ġab und
Ġall ergy
ĠB ey
Ġsh outs
ĠD y
ĠG in
ĠG ates
Ġher itage
Ġr iches
est ly
ĠL amb
ig ible
ĠR est
ĠR ED
use yin
Ġv ivid
ĠN ino
ĠN CIS
ĠE at
ĠE xt
res ist
Ġday time
be k
Ġco aches
Ġun bear
Is abel
Ġlea king
Ġthan king
RE Y
RE ALLY
Ġfl attering
Ġper j
ps ies
Ġhead line
Ġser pent
Ġrec ess
Ġra iny
Ġpre ach
Ġdri p
LE W
Ġcho ked
Ġread ers
Ġ5 4
Ġprot otype
rop he
Ġcoll ision
ĠCl are
Ġstre ak
ai res
Ġcol onies
ĠDan ish
Ġrock ed
Ġcur few
Ġve in
Bl ock
Ġtrack er
ĠBar king
Ġval et
ĠAb el
ĠCon ner
gar ita
Ġident ities
Î¿ w
Ġemer ged
Ġspl ash
Con nie
Con nect
Ġjudge ment
ĠPl us
Ġvan ity
ĠCal vin
ĠCo hen
ĠWOR KING
Ġtext ure
Ġenter prise
ĠWH ILE
Ġgri ev
Ġtim er
Ġdisp atch
Ġgro ve
Sn iffles
ĠBang kok
FE CT
Bo oth
some one
ĠGab bar
ĠPot ato
Ġpossess ions
ĠGRO ANING
Dor othy
ĠAP ART
Ġcatal og
Typ ical
ĠVinc i
Ġswo llen
Ġblu epr
Ġprelim inary
Ġaus picious
Ġbrot hel
B am
E lla
F ew
F UCK
K irsten
M itchell
N AN
O oo
R ough
S em
S URE
V AL
W orth
[ "
b ins
c ers
p ur
s pring
w ives
Ġt ying
Ġw an
Ġs ling
Ġf iber
Ġn arr
Ġp uss
Ġp uri
id ate
Ġre ef
Ġst ag
ust omed
ee ley
ent ric
ĠS herry
ho ps
ĠT our
ĠA be
ĠC z
ry s
ra ved
ĠB un
ĠB uffalo
ĠD ARK
ĠG ore
ĠG yu
ĠG illes
ell ery
rom eda
ĠW er
ĠW agner
ab ad
Ġpl umber
ĠF landers
Ġex or
ĠO m
Ġsp ike
Ġv ouch
ĠE lla
Ġdown load
ĠK ahn
iss ippi
Ġbl okes
All ah
ĠY ag
Ġim minent
Who le
Ġpart ly
Ġpart ying
Ġfl aming
Ġdr am
ult ural
Ġfun ky
Ġgl or
ident ally
Ġpay back
Ġrel ic
Ġem ails
Ġread er
Ġexpl oring
Ġdef enses
eg ree
Ġext ortion
Ġpast or
After noon
Ġsix ty
TH UD
Ġopp ose
Ġsol utions
Ġgener ate
Ġty rant
ele v
oint ed
Ġbirthday s
Ġconnect s
Ġmot ives
ĠChe ng
ĠAb raham
ĠTr uth
lin ing
cri be
ĠCon stitution
ĠMa ureen
Ġide als
Ġvide ot
Ġcollect or
Ġneg lig
Ġfac ulty
Ġobject ion
Ġobject ions
Ġmerc hants
Ġscr atches
De bbie
Ġgri eve
Ġclock s
Ġmotherf ucking
ĠLE G
ĠRos en
Ġincident s
Soon er
ĠTw enty
ĠDes mond
Ġlif ting
ĠKe i
aph ne
ĠGa ia
rah im
ĠBull shit
ĠThor wald
Ġgre asy
Ġeffective ly
Ġpsych otic
Ġpad dle
Ġadvert is
Ġaward ed
rif ying
Ġinitial s
Dong shi
ishi o
Ġbunk er
Vir gil
ĠBark er
Sab rina
Ġresur rect
Ġdivers ion
Ġinfer ior
TIRE S
ĠIll inois
ĠHOUR S
Ġjan itor
OUP LE
Ġeyeb rows
STE VE
Ġholly wood
Ġhed ge
ĠPU PP
C ook
F lying
H ooray
I ET
L ena
M ont
M ona
R IC
R ICK
T uesday
W o
b ows
f air
g ence
i oc
he i
Ġa we
Ġs ul
Ġm mm
Ġd y
Ġd ia
Ġf ury
ĠI e
Ġh ind
id ences
im on
Ġli able
ant age
ĠT echn
ĠT IMES
ĠC ott
ĠC LA
ĠC romwell
Ġso aked
ĠB ach
ĠD EP
ĠG ord
ĠG ob
ĠW ah
ain es
ĠL azar
ĠF IVE
ĠE zra
ak ov
ak ota
Ġqu iz
ĠY ale
In f
Ġpo king
og ged
Ġac ute
ĠV lad
int he
Re veal
Ġfuck s
ier ge
pr ot
IC ALLY
Ġwalk ie
Ġinc rimin
Ġ5 6
ets y
ĠAN SW
Ġfire man
Ġforg iving
Ġcoll ateral
ĠDr acula
Ġsn atched
Ġpat holog
ĠGr im
Ġclean ers
ones ome
Sp ec
Ġshort cut
Ab ove
Ġsol ving
Ġtre ad
Ġgener als
icha els
Damn ed
Ġed ges
WE EN
ĠSha ke
hol m
ĠEd inburgh
Ġir regular
Ġremind ing
Ġcrack ers
roll ing
DO ES
ĠÃ ¦
ĠSm all
EM ALE
Ġobs erved
ĠFl oyd
Ġprocess ing
Ph ot
urg ery
Ġtong ues
Ġho ax
oph ren
ĠCent re
Ġpage ant
Sim ply
ĠMil itary
esse e
Ġunf aithful
Ġsett ling
Ġwitch craft
Ġassum ption
ĠIsland s
Light ning
Ġclin ical
Ġrehe arse
Â¶Â¶ Â¶
Ġdepos ition
Ap olog
Rob in
Ġminister s
Sleep ing
tr ans
ocr ats
Ġwhi z
every one
Ġrecru ited
Ġalt ered
Ġdestro ys
ACT LY
Ġtrop ical
ĠWhit ney
ĠWAIT ING
Grow ling
idel ines
Van essa
ĠSher man
Ãĸ Ãĸ
Ġouts ider
Ġobtain ed
JO E
Ġdolp hins
Ġneglect ed
roph ic
ĠUt ah
ĠIng rid
ĠCind y
Ġreserv ations
nk ÃĸÃĸ
Ġconsol ation
ĠColor ado
C hop
C hattering
D river
F IRST
G ang
H at
K ES
P om
R ot
S ING
Y uck
b od
b red
g ame
l N
m atic
w ow
y re
y en
Ġt ad
Ġt ant
Ġa wards
in as
Ġs ie
Ġb ureauc
Ġn aval
et es
Ġth res
id den
Ġfor ge
Ġli vin
ĠM uch
ĠT OU
ĠA F
ĠC ul
pp able
ĠB B
Ġsh ipped
ĠD ink
ĠD uchess
ĠG ee
ĠG ANG
ĠG ondor
ĠH od
rom agnetic
ĠW AILING
ĠL EE
ĠL izzie
na ble
Ġsa p
ĠR ET
ĠR ush
ĠR iff
Ġpl acing
ĠN urse
ĠE sp
ide y
Ġint est
reat ed
ĠY ogi
Ġfeel in
ull a
iz ophren
ĠNo el
ress er
Ġhand les
Ġcont em
ĠV is
ĠV inny
int in
Ġhar med
Ġsha mpoo
Ġmar riages
Ġch lor
Ġsl ash
Ġsw itching
Ġacc um
az ine
AS K
ĠCl oud
Ġfront ier
ĠBl oom
duc er
RO P
Ġstep father
Ġeye ball
Say ing
Ġpresent ing
Ġaccept ance
Ġpriv ately
Ġcamer aman
Ġinvestig ators
Car la
ugg le
Ġest imated
Ser ge
More over
Ġsens ed
Bring ing
ĠAS AP
Ġcal ib
reg on
ĠHon king
Up on
Ġappear ances
ĠWOR RY
ĠFR ONT
ĠScot ch
ĠCOM ES
Ġadvant ages
ĠReg ent
Ġdetect or
Ġlack ing
Ġtransport ed
fr ame
ros se
Ġpropos ing
ĠBel ieve
Gun s
Ġliber al
Meet ing
ĠPR OM
tr ack
Ġdecor ated
Ġvib rating
Ġobst acles
Ġdu pl
Ġlaun ching
ĠFle ming
Val erie
ĠGy po
Ġerr ands
Ġroast ed
Ġfrog s
Wil son
Aud ience
Ġaspect s
ĠBAR KING
Ġfet ish
ĠIMP ORT
Ġmathem atics
Ġsod ium
Jud ging
Ġconstruct ed
ĠCad illac
Ġinstit ute
Ġsect ions
Ġstun ned
Py gar
Unt ie
UMM ING
ĠSTRE ET
Ġchocol ates
Ġdile mma
8 5
8 7
A bb
B ud
B ones
B ACK
C AM
E urope
F ront
F ederal
G or
G as
M os
M ED
S CREE
T ired
T WO
Y ING
b oo
l Ã©
p ek
w yn
y elling
Ã Ĥ
Ä ģ
Ġ venue
Ġw imp
Ġw oken
Ġy ummy
Ġd itched
is ive
Ġl ud
Ġl air
Ġp aw
Ġp inc
Ġbe in
Ġk a
ri ft
ad le
Ġli ars
ĠS ud
ĠS AL
ĠS tern
ĠM orty
ur ich
pp elle
il izer
ĠG ian
hy llis
ĠH ogan
ist ing
ĠP in
ĠR in
ĠR us
Ġpl aint
ĠJ em
ĠJ ak
qu ent
ĠN ations
ag raph
Do ctors
Ġbl ush
Ġbr un
Ġun cover
ord ination
ob by
Ġ' ,
Ġfl are
ĠHe idi
Ġmin imal
int erest
Ġcr ude
Ġunderstand able
Ġmar sh
Ġass ail
Ġlive ly
ump ed
Ġins ol
Ġconf er
ĠMar nie
any thing
Ġpick le
ĠShe lly
Ġleg ends
ĠBE HIND
ĠSc out
entle y
Ġ20 11
Ġmag istrate
Ġtest ified
fort h
Ġcry st
Cl aude
IR PING
Ġcond o
Sc r
Ġinvestig ations
Ġinf irm
che on
Ġpract ices
Ġocc urs
bl ack
urs ed
ĠGrand father
Cha irman
Ġplant ing
Ġdry er
AP E
Ġstab bing
Ġclim ax
Ġbright est
Ġwhis pers
ĠSch lie
Ġju icy
Sub ject
ĠSal azar
ĠDel ta
ĠTur ks
rem ember
Ġdece it
AW N
uis er
ĠCONT ROL
Ġspect acle
ĠJacob s
see ing
Ġque ue
Jon athan
Ġther m
ĠFitz gerald
ĠClay ton
ĠCRA ZY
Ġdisrespect ful
ĠDanie lle
Fel ix
Ġirrit ating
Ġcann ons
Ġbour geois
Ly dia
Ġalp ha
ĠQue ens
Direct ed
ĠPitt s
Ġexchan ged
Ġune asy
Ġpla que
Cig aret
Pos itive
ĠJee ves
Ġhemor rha
Ġpaj amas
4 3
A ust
B ILL
C ease
G and
I don
L os
L OR
L iterally
R ussell
S omet
S AY
S ept
S pencer
S IGHING
T ech
U AGE
W ANT
_ .
a pped
d eep
e ating
g ots
j ean
k ie
k ids
n ally
n ice
n iss
r one
s hips
t at
t ered
w alking
Ġ ounce
ou Id
Ġa pt
Ġs id
Ġm uck
Ġc uddle
Ġg em
Ġl abyrinth
Ġl onesome
ĠI sh
ar us
as hy
at ron
Ġin mate
Ġin put
le ft
Ġon ion
Ġe cc
ri um
Ġst ench
ĠT ulsa
Ġout fits
ĠB ODY
ĠB URN
ĠB uster
and all
ĠG io
ĠG emma
Ġwor shi
ĠH URT
ĠW ATER
ĠL ux
ĠP ush
ab l
ĠR ear
Ġcon verted
Ġsp ouse
Ġpro stitutes
ĠN ak
IN ED
Ġpe p
Ġover head
Ġover ride
Ġcl ark
Ġcl apping
ber ing
ew ey
Just ice
ach ment
Ġwh im
Ġwh ites
ons o
ĠSt ee
Ġsha dy
Ġsho pl
Sh hh
Ġdec ency
Ġcomp at
ĠThe ir
oc cup
Ġsur ge
ĠWe l
Ġsl ob
Re ach
Ġcho pping
Ġjo ints
Ġret ard
Ġlight house
Ġimp ose
Ġ4 1
Ġdef ined
ĠShe pherd
amp a
ĠDon ovan
Ġgod father
Ġbuy ers
ept ic
cle an
no vation
Ġsuper iors
rec y
Ġpoor ly
OD E
ĠBe ing
Ġsea food
ĠAm azing
Ġval ued
Ġcas ket
Ġsuccess or
oop ed
ĠSH OT
Ġprov ince
Ġrain forest
yan i
Ġcred ential
Ġsepar ately
Ġappear ing
ARE D
Ġsuck ers
ĠAny way
UD GE
Ġhug ging
Ġilleg ally
Em il
iven ess
Ġpopular ity
Ġfra k
Ġexha usting
Ġwha cked
Ġpoet ic
ĠSing apore
Ġreject ion
Ġdepos its
Ġterrit ories
Ray mond
Ass uming
ĠFel ton
Ġmaintain ed
Ġtooth brush
rep rene
Min ister
ĠPri est
ĠDef initely
Bast ards
Ġoutra ge
ĠFL IGHT
Ġsniff ing
Ġnav igation
Ġtoug hest
Ġhipp ie
Ġmolec ules
Cur rent
Ġgn ome
Ġvit amins
ĠBrig ade
ĠHU MAN
ĠNav orski
Ġbarric ade
Ġthro ats
Ġsubur bs
Ġenthusi astic
Ġcounse ling
C LI
C ancel
D ro
F U
G wen
H ush
K laus
L au
L ISTEN
M OM
N in
O ctober
P ed
R ab
S ung
g io
o ine
s il
t ic
v ik
z ards
Â Ģ
Ġa ster
Ġw ob
Ġb ah
Ġc uck
Ġg imme
es ar
Ġn g
om nia
Ġh m
Ġh ub
ic ut
im an
Ġe ve
Ġdo ve
ac i
ri am
ĠM ate
ĠM unch
ec e
Ġas p
ĠW IND
end ish
Ġal arms
ĠL ore
ĠL ag
ĠL ung
ĠL ori
Ġlo ot
Ġlo go
ĠP ier
ĠP LA
ĠP orter
Ġcom ics
ĠF is
ĠF iona
Ġsp ice
Ġoff shore
ĠE D
ap est
ap les
Ġint ol
Ġam igo
ag les
oy t
Ġ1 30
Ġsc ope
ull es
Look ed
Ġcar nal
In it
og ram
Ġfl aws
ON D
Ġdr ool
Ġcont ra
ĠV eer
ĠU lt
Ġel ves
Ġcr un
Ġcr ushing
ĠCh ul
AR ON
Ġsho res
Ġfin ances
Ġra ises
Ġsl ogan
Ġthank ed
ident ly
Wait er
Ġcomm ence
ax mi
Ġsk ating
ph ony
arent s
Ġconf ined
te acher
Ġbook store
Ġhigh light
ĠSo fia
cer ity
Ġcap e
ID ES
Ġtreat ments
ĠST UD
Ab igail
Ġ* *
Ġoper ative
Ġanim ation
US H
friend s
iter ranean
ĠBar na
vo ice
ĠInd y
ĠAm bassador
cent ury
Ġgay s
Sm ith
Ġrev ive
Ġobs erving
Ġund one
Ġvir al
ĠSU B
ĠGot ta
ba um
inn amon
Bea uty
hab et
Ġpurs ued
ĠBaby lon
Dam ien
Ġappeal ing
Ġweakness es
Ġbroadcast ing
Ev idence
Ġconce ived
ĠSept ime
Ġcompens ate
Ġric her
emor ial
Ġpharm acy
Ġexcess ive
Ġbisc uit
GUNSHOT S
Gab riel
Mill ions
ĠNY PD
abul ary
Ġconfisc ated
Ġfingerna ils
ĠPors che
0 7
B enny
B oris
C oughs
D aughter
G ently
J ealous
K r
M ISS
O SH
P ink
P el
T hing
c am
e i
k id
k ets
m ire
y ang
Ġt ends
Ġt ucked
in os
Ġs hat
Ġthe sis
Ġd ys
is man
Ġn urt
id en
id av
Ġk m
ĠS ING
ĠS ita
ĠS OUND
ĠM ED
Ġwhat not
ĠA I
ĠA e
ĠC UT
ĠD j
Ġr ays
Ġr his
ĠL iving
ĠL emon
na b
ĠP rom
ĠJ UL
Ġex its
ĠN autilus
oy alty
Ġwork out
Ġse als
Ġbr ink
pl anes
Ġun o
Ġcr ater
Ġmiss us
Ġbo ar
Ġbo ast
Ġrel ay
ib bean
LE O
iet ies
Ġimport ed
ĠMar se
ĠMar got
co e
Ġfire place
Ġforg ave
Ġforget s
AND Y
Me at
oe uv
ĠHA VING
Ġpos h
Ġ9 000
Ġfoot print
Pro v
Ġmis d
ĠEx cept
Ġform idable
Ġbath s
ĠGu ild
ĠGu ido
ĠAm ador
Turn ed
ĠWas n
Ġunc overed
Ġdel ete
Ġfinger print
Ġmeat balls
IF T
Find ing
Ġban ished
ĠÂ °
Ġ14 0
El aine
Ġsin ner
ĠFR ANK
Ġresc uing
ĠCle ars
ĠEn joy
Ġsen or
Paul ie
ĠLE AST
Pat ience
izz ard
Ġjew ellery
Americ ans
Âł Ċ
keep ers
ĠHill ary
Ġtempor al
bur st
ĠHell er
Ġinsp iring
Ġlimit ations
Ġtox in
Ġancest or
Break fast
Mel issa
uv ok
oust ic
Ġowners hip
ĠCOMP ANY
ĠWhe el
Ke ith
Ġextract ion
Ġunderest imated
Ġglam our
Figure d
Ġhast y
ĠSHO OT
Ġprecaut ions
Ġcheerle ader
Ġmarty r
sto ppable
ĠCair o
Ġnause ous
Ġhes itation
Ġunbear able
( *
B le
B renda
C ry
C ard
D oo
D isp
G ARY
G IGG
H ouston
J oon
M wah
N ational
P am
P ur
P hew
b ine
b rain
f at
f ang
h ung
l ance
p olice
s hall
w eek
Â ½
Ġ icy
he avy
Ġa u
Ġthe oret
Ġm ary
Ġb am
Ġb aking
Ġd uct
or ce
Ġl ava
nd ra
Ġp ave
ot hing
at re
Ġan arch
ĠS pector
ĠM ouse
ĠT ito
ĠC oy
ĠC ape
pp s
ra e
ĠB az
ĠB MW
ĠG ong
ĠG roaning
ĠW a
ĠL ess
ĠL yn
ĠL INE
Ġde but
ĠP os
are l
ĠF eng
ĠF AST
Ġsp itting
ort em
Ġoff ender
ĠN an
Ġam ends
ang ing
ang ed
pt a
ĠSt ick
Ġper p
Ġwrong ed
ĠCh illy
Ġsl umber
Ġinv itations
Ġmor als
Ġsw an
Wh it
Ġinc omplete
Ġcor ro
Ġbar rels
Ġsecret ive
ĠZ hang
ĠAr row
ex ter
Ġrecord er
KE EP
ĠBl ade
Ġinform er
Cl icks
Ġdi vert
zz ie
Sc ience
uk u
Ġconv oy
Ġma fia
ĠTr ish
por ation
Ġblind ness
Sm ell
ĠJul io
ask et
Ġcompet ent
Pr ime
Ġrap ist
Ġpers istent
Ġsin ners
ĠSU CH
ĠStan ford
ĠANY MORE
Ġcrit ics
Ġshad es
Ġoppos ing
ĠCL ICKS
Ġow l
aa aa
Ġmort ar
ĠEN GINE
ĠIntern al
ĠRa fe
Ġinit ially
ĠOw ens
ĠEr nie
Ġded ication
Ġroyal ty
bur ger
Da isy
Ac ross
Ġabandon ing
Ġtorn ado
Ġconsum ption
Ġbul k
Ġexplo itation
idel ity
uer to
ĠMOM ENT
ĠTown send
Law rence
Ġresent ment
Ġdeploy ed
Sold iers
Ġjim my
Ġfisher men
Ġtack le
Ġhypot het
Ġsor ce
Ġamuse ment
Ġdisconnect ed
âĢİ.âĢİ. âĢİ.
Ġhust le
ĠCyl on
Ġperm its
Ġinsec ure
Ġinval id
ĠEmb assy
Ġpinea pple
B unny
C AL
G N
G roup
J amal
K INS
K orean
L at
M uffled
R ow
S ar
W AR
d one
f ill
l asses
m ary
t alking
v ana
Ġ Ã©
Ġa qu
Ġb ible
it ives
Ġf att
Ġf aded
Ġo ps
Ġn atives
Ġp earl
ar gh
ut ing
Ġe rect
Ġre pt
Ġre nov
ad ette
st en
ĠS z
ĠS elf
ĠS ector
Ġcan d
Ġdon ations
ĠT ris
ĠA HEAD
ĠC ob
ĠC ookie
Ġup right
op ha
ĠD ax
ĠD RA
ĠG ill
ĠG ear
ĠG AME
ĠG ranny
ess ler
ĠH ail
ĠH omicide
est eem
ĠL ila
ĠL EAD
um ns
ĠF IL
ard is
Ġsp ree
Ġtell y
reat ing
ud ent
Ġover he
Ġle opard
Ġmo ons
HE T
Ġbl inking
In hales
Ġcare ers
Ġac he
ĠGod damn
Ġad ored
ĠSt at
ict s
Ġhar p
Ġcr ank
Ġrec laim
Ġsur geons
Ġhard ship
Ġdes cent
Ġcra bs
Ġcha ined
Ġprom inent
app er
Ġret iring
Ġob liv
Ġ4 3
ĠMar ion
ĠMar ian
Ġside ways
eg o
Ġtou chy
Me x
Ġsim ult
Ġri vals
oke y
Ġrid dle
Ġsub t
Ġsub ordin
II y
ĠSe ul
Pe ggy
Ġworth while
Ġer upt
iol i
ĠChe ol
ĠAm ir
Ġmain land
Ġgen ie
Ġaccount able
Ġequ ality
ĠQu ite
Ġauthor ization
ĠSm oochy
Ġcred ibility
Ġmedic ines
Ġvac ant
Ġscr atching
Ġban king
Ġproduct ive
Ġbright er
Ġast hma
Ġdeliver ies
ipp ers
ĠMal ik
Ġaffect ing
ĠBer nie
Ġwire less
ĠRE ASON
Ġdistract ing
ĠTur tle
ĠSen ior
Ġgain ing
Work s
Ġlit ter
Ġlif es
Ġphotograp hers
Ġsatell ites
ĠPRE S
Ġspr ings
Ġtransform ation
Ġskull s
Ġprob ability
ĠTHAN KS
Ġalt itude
Ġunn atural
Ġparano ia
Bus y
Ġtact ical
bet ween
Ġexagger ate
ĠProt est
Ġclar ity
ĠEngine ering
grow ls
Ġpenet rate
ĠCec il
does n
Ġbloss om
ĠLiber ty
ĠColumb ia
Ġsaf est
Ġpam ph
Ġkara oke
kete ers
ĠMartine z
Ġrobb ers
Â¶Â¶Â¶ ]
Ġthres hold
C omes
C IA
G ener
J ill
P ig
P hoebe
S Y
V I
b ug
b ott
c ards
c omb
m ust
m ale
m obile
r umbling
s ong
s ince
w ash
Ã ģ
Ġ âĦ¢
Ġt rom
Ġt ame
Ġa le
Ġw ider
Ġw oof
Ġs essions
ha ven
Ġyou se
Ġf ists
Ġf ading
Ġl acks
Ġp and
ot ine
Ġhe ap
le ash
al ong
oo ing
ver ts
Ġdo ct
ri ly
ĠM ale
ĠC ase
ĠC ald
one ly
ĠB ella
Ġsh iver
ĠD EST
ĠG rab
Ġr attle
Ġr asp
ĠH ook
ĠH assan
ĠL ear
ig en
ig ious
ig ma
ĠP ie
ĠP ole
ĠP rec
ime y
ĠR aid
em aker
fe rences
ĠE ASY
ff t
Ġkill ings
per t
RE AD
Ġac hing
ĠV ance
ian ces
ran o
Ġsha g
Ġgr inding
Ġmar vellous
For got
atter son
ug a
Ġcomp osed
ĠThe o
Ġsl ate
ott ie
Ġimp lying
Ġfe ud
olog ne
Ġcor nered
rop olis
ĠAl ban
ĠBE GIN
Ġpicture d
Man ager
Ġresp ir
eter a
Sp it
zz le
Ġeye balls
Ġbur ying
ĠTo gether
Sc ar
UR CH
Ġsmell y
ĠEx cellent
ĠLe vel
ĠBar n
Ġspir al
LO VE
Ġcab les
Ġcrack er
ĠAB LE
Ġinterview ing
ĠCor a
Ġboo b
Ġdevil s
ĠMag n
Ġstab ility
Sec ure
ĠCr ichton
ĠCON VERS
Ġliter ary
Ben jamin
ĠHy de
ĠMur dock
ĠMil o
Ġsuspic ions
ĠSil ence
Ġbuck ets
Ġscreen ing
Ġelev ated
Speak s
Ġtend ency
Ant onio
Ġapplic ations
Ġpersu aded
Ġwithd rawn
Lo ad
Ġpatrol s
Ġisol ation
Bec ky
Ġamer ica
ĠChin atown
Sant a
ĠSad ie
ĠHON KING
ĠCow boy
Ġvel ocity
ĠYan kee
Ġvine gar
Ġrevol ver
Ġvacc ine
ĠNeg ro
Eve lyn
AZ ING
ĠMey ers
ĠMem phis
ĠNin ja
Ġstocking s
Ġecst asy
ĠMONTH S
ĠTempl eton
Ġreluct ant
Ġsovere ign
Ġinhabit ants
Ġdiction ary
ĠLANG UAGE
Ġinsign ificant
ĠBax ter
) ,
7 7
B ah
C ass
F asc
G round
H orse
H allel
J ECT
L ung
L indsay
M ort
M ak
R u
R ats
R ox
T IME
V in
[ Â¶Â¶Â¶]
c ro
l iness
r ans
t ho
Â µ
Ġs ixteen
Ġb ers
Ġb age
it on
Ġth rive
Ġbe w
Ġwe eping
Ġst umble
ir able
ent er
Ġcan yon
ĠM ID
ĠM isa
ĠT Y
ĠT oto
ĠC amb
ĠC OL
ĠC oughing
ĠC OUPLE
un al
ĠB ALL
ack en
ĠD IN
ĠD reams
ĠD imit
ĠL AP
ist ically
ĠP u
ĠR UMBLING
ast es
ĠJ ude
ĠF ass
ĠO B
So c
Ġoff spring
ĠN ature
ĠK au
Ġcl uster
th inking
Ġse ldom
Ġcar p
ĠV ito
Ġcr anky
Ġtra ject
ĠWe ather
Ġfin ale
Ġmon itors
Ġpre fers
Ġwar rants
Ġbreak er
Ġbreak up
ĠDo ing
Ġpres erved
Ġinter course
Ġgun powder
Ġhon ors
Ġsy na
Ġcons ulting
rop ol
Ġspeak ers
Ġfa ulty
ĠCl ive
Ġri gh
ĠZ ap
ĠSc are
ĠCar mel
Ġtrans p
ĠME L
Ġprotect or
Ġsub titles
Cl arke
Ġcold er
Ġpos ing
Ġsol itude
uk iko
for ced
ĠChe ster
Ġir resist
ĠTr udy
hard t
Ġfat ig
Ġdam ages
Ġpark s
Ġspot light
Ġprec ision
Ġcal ories
Ġprogram ming
Ġswim s
Ġadm itting
Ġrepl acing
ĠSP ACE
Ġbene vol
Ġcondition ing
Ġreact ed
ĠCo venant
ĠRob ot
WH IST
ĠChan ge
ĠSU PER
Ġsna il
lim ited
BLE EP
Ġbuzz er
ĠGold man
ĠMed iterranean
Cr ime
Cr ash
ĠDE ATH
Ġnut rition
ĠLouis iana
Ġinsult s
ĠHead quarters
Ġcontain ers
Ġliber ated
ĠRad ar
ĠMer le
CAR RIE
Ġintention ally
sect s
Ġbrut ally
ĠOPEN ING
Ġtoler ated
ĠJoseph ine
ĠEven ing
Ġschol ar
Ġmush room
Ġfu els
Ot to
ĠProt ection
Ġburgl ar
EVERY BODY
Gen ius
Ġflee ing
Ġpharm aceutical
ĠClaud ia
ĠMcCl ane
ĠGROW LING
Press ure
Ġconvert ible
ĠPortug al
Ġbik ini
imet ers
Ġparas ite
ĠSic ily
Ġoverreact ing
Ġchaper one
GEOR GE
Ġribb on
Ġtheor ists
Ġgloom y
sus penseful
Ġpropag anda
ĠWals h
( !
, .
6 9
B ub
C ertain
D umb
E Z
E rica
G re
H ON
L OUD
T ou
W alt
c HE
d rop
g ang
i I
i ators
t im
t uce
Â ¾
Ã °
Ã Ģ
Å Ł
Ġt ee
Ġa unty
Ġw har
it udes
Ġf ec
et ition
Ġh inges
ic ho
Ġwe ighing
se ye
Ġst ero
st rom
Ġj umper
ant a
ĠS IM
ĠS ugar
ĠM abel
ĠT at
if u
ĠC rowd
Ġup grade
op ath
ĠB ha
ĠD ET
ĠH ast
ĠH EN
ĠH umming
ĠW ISH
Ġal b
ĠJ edi
ĠF LO
ĠF inger
Ġgu inea
Ġv s
Ġcl ich
oy ager
pl ays
Ġun ity
In vest
Ġwh oo
Ġdis orient
Ġsm ug
Ġel imination
Ġrun nin
Ġsupp orters
Ġcomp elled
hes ia
Ġsw arm
ss ing
Ġgl itch
Any how
Or gan
Ġtri vial
Ġcheck point
ĠIN ST
br and
God dam
ĠZ h
ĠRe um
ID ER
ĠCar ina
Ġadv ances
Ġtrans porter
Ġpast ry
Ġsub vers
Man uel
ĠMiss issippi
Dr unk
ĠSe on
Ġbull s
Ġaff idav
ĠST RA
Ġfault s
Ġtem pting
Ġstri pes
ĠGu er
Ġvill ains
Ġagree ing
Ġstick er
Ġtele port
Ġband it
Î¿ r
Î¿ Î¿
Ġprocess ion
Ġmerc iful
Ġnorth west
Fin n
ĠBo at
Ġproduc es
Ġpred ator
ĠAL ONG
ĠSch ultz
Ġbang s
Co ordin
ĠMO VIE
Ġsatisf ying
ange red
Ġcontain ment
Ġflu ids
Ġrot ation
ĠHay at
ĠNor way
Ġgamb ler
ĠFour th
UP ID
Ġtab lo
Ġbatt alion
Ġporn o
ĠFlor a
Ġinvent ions
quis ition
Bro ken
ĠCart man
Ġisol ate
ĠMAR RIED
Ġsculpt or
aus ible
Ros a
Ġimmig rant
ĠDR INK
Ġscre ens
Mess age
ĠDw yer
ĠKend ra
Ġkar ma
Ġhamb urgers
Gy ver
Ġsty lish
ĠDub ai
ĠHoff man
ĠArc adia
ĠAbd ul
Ã¸ r
Ġaccompan ied
ĠTenn essee
ĠHollow ay
ĠPOSS IBLE
ĠBened ict
BIR DS
Ġplumb ing
Ġdia lect
ĠIMPORT ANT
Ġcredential s
5 4
8 2
D AMN
F rance
G A
G rey
G ibbs
I da
L or
L COME
M ount
O y
P age
R ise
S unny
T ow
T sk
c ited
d raw
d istant
h oney
h ism
i ago
l ain
p ilot
t an
t ow
v ich
Ġt iring
Ġt ango
in ous
in oor
Ġw ir
Ġm u
Ġd ynasty
Ġto aster
Ġto dd
Ġf ict
Ġf itted
Ġf iddle
Ġg reetings
Ġhe ist
Ġbe ak
Ġk ite
ut able
ust rop
am bo
ir med
ĠM es
ĠM oe
ĠM AG
ho pe
ĠT ung
ĠC andy
pp ard
Ġup load
ĠB elle
il et
ĠD ash
ĠD iaz
ind eer
Ġus er
ĠL ajos
ĠP erson
Ġman go
Th ursday
ĠN ar
ĠE yes
ĠE MP
hi as
hi ko
red enko
Ġmean while
Ġdown hill
ĠK aw
Ġcl amp
ĠYou Tube
Ġbr itish
Ġeven ings
Ġun h
Ġar che
ft en
Ġchan ts
Ġ' .
Ġrem oval
ON LY
ip ed
ĠV ers
Ġte quila
Ġsha man
Ġmar ines
Ġcomp oser
Ġcomp rehens
Ġsur pass
IS HED
ĠTO WN
dy s
Al as
Al ive
Ġem issions
An c
Ġsk ipping
Ġret ract
Ġ4 9
Ġfour teen
arr ick
Ġair borne
Ġmill ig
Ġdin ners
ĠRe in
Ġgra bs
Ġhang ar
Ġpar cel
ĠBl ock
ĠSe Ã±or
Ġru pt
ĠDan i
ĠGo vinda
uk as
Ġfear less
ĠBe ethoven
ĠFr itz
Ġgovern ments
Ġinf amous
Ġtast ing
ĠMc Kay
Ġsupport s
Ġir rational
ĠMe ghna
Ġcirc ling
aff y
Ġrob es
Cle a
ĠCH RIST
ĠHigh land
ĠSer bian
ĠLuc ius
ĠAlex and
hh hh
Ġamb ushed
Ġ200 6
ĠMon ty
hold ing
ĠCle o
ĠScot ty
ĠWH IRRING
Ġappoint ments
Ġcurrent s
ĠSy nc
ĠMur der
Ġbedroom s
Ġtap ed
Ġlic ence
Ġgor illa
Ġassign ments
Mc Queen
ĠSl ater
ĠBy ron
Ġthin ner
ĠTR UE
Ġsem en
Ġcoward ly
Ġlif el
Ġstrate gic
ĠHay ley
Ġscan ner
ĠNor we
Ġcraw led
Ġ199 0
Ġtag s
Ġge omet
Ġlun ar
ĠFore ver
ĠDis co
Ġbru ise
ĠGR AND
ĠPART Y
Ġunre al
Ġdisgu ised
Ġrust ling
ĠOb ama
ĠLin us
bour ne
HEL P
iche ver
Class ic
Ġalleg ations
Ġtreas ury
Ġdil ig
Mu lder
Ġextraterrest rials
Govern ment
Hug o
Ġathlet ic
LU CY
Ġcogn ac
Ġtreacher ous
Ġabst ract
owals ki
elev ator
B ong
C ameron
F etch
L ying
M its
N ICK
O d
O s
O ooh
R ICHARD
S OMETHING
T ED
V eer
W OL
c ame
f o
l ive
m ers
m achine
n eck
w oo
Ã Ĵ
Ñ ģ
Ġt ents
Ġt iles
Ġa ven
Ġw al
is i
Ġg ib
Ġl en
Ġl ith
Ġo ak
Ġp its
us sels
Ġha voc
ic ial
Ġst amps
ĠS ONG
ho on
ur ring
ĠT iny
ĠC ic
ĠC ory
Ġso aking
ĠB uk
il ong
ĠG one
ge y
ind i
Ġr ites
Ġr ural
ĠH ero
ĠH useyin
ĠW ick
ĠW OMEN
Ġde an
Ġsa una
Ġhis sing
ĠJ ournal
Ġwho les
ĠF arm
ĠF ULL
Ġgu ided
Ġsp okes
Ġv andal
ĠE nt
reat ening
Ġbl ares
eel and
Ġun att
ne x
ĠNo bel
Ġhand ic
Ġdis k
ĠV IS
Ġres on
Ġmar athon
Ġend angered
ock et
Ġcomp osition
Ġmon arch
Ġsl ips
EN N
ĠTH INKING
ank ind
att u
als a
Ġpres idency
ete en
Ġsing ers
Ġgun shots
ik u
Ġsweet ness
ĠAl so
Ġbuild s
li ge
gr own
Ġsub d
oul ette
Ġtw inkle
Ġref und
Ġexc av
ĠSe en
Ġfre el
Ġ6 7
Ġaff l
Ã© d
Per mission
Ġdev ote
Ġpleas es
Pro secutor
Ġcell o
ĠPr itc
Ġmis chief
Ġform ally
Ġmention ing
ĠAm endment
ĠAm azon
Ġhorse power
Ġhy m
Ġscrew driver
Ġconst able
Cle ver
Ġorgan ised
pens ive
ĠÃ ĩ
ĠSer ies
ĠDe ok
ĠLou ie
Ġhook s
Ġimm ature
GO ING
Ġmerc ury
Ġport ray
bec k
Christ opher
ĠAL MOST
Ġbelie ver
Ġprinc es
ĠMal ibu
AG ER
Ġpee ing
ĠLE AR
Ġrepresent ation
MO LLY
Ġchef s
ĠEN ER
ĠPRO DU
Ġdust y
Ġinit iated
ĠMed ic
Sn iffs
Ġfashion able
lev ard
Ġcro cod
Ġdiscover ies
Ġtrunk s
Ġfrequ ent
Ġscan ning
SEL VES
Ġrequire ments
Ġvic inity
Ġdom ain
umi ya
Ġbrut ality
ĠSid ney
Ġ00 7
ĠHob bs
Ba ek
Ġfract ures
Victor ia
Bless ed
ĠIsab ella
Ġbark s
Ġsustain able
ĠBow l
ĠKra koz
Ġrefuge es
grow ling
ĠCLE AR
aku za
Ġinterpret ation
ĠHen ri
Haw k
ĠLor raine
Ġveter an
ĠCur ly
Ġalp habet
Ġhypoc rite
Ġcatast rophic
Japan ese
Ġtresp assing
ĠCyl ons
tem po
ĠLis bon
ĠTob ias
Harr is
ĠBald win
Ġremed y
Ġmonst rous
âĤ ¬
dim ensional
Hallel ujah
C ab
C ock
C orn
C ivil
D are
D iana
D umbo
E VEN
F ER
G ray
H ercules
K IR
L OW
P ossible
P izza
T est
U GH
W arden
Y ee
b ank
b ler
b anks
d ec
e un
f ur
f ull
l at
n ant
p one
p ath
p ox
t ech
y cl
z heimer
Ġt et
in able
Ġw il
Ġs el
Ġs ittin
ha mas
it ra
is ition
es ters
Ġo ctopus
Ġp ager
Ġp aws
Ġp itching
ot ent
as gow
Ġha n
le pt
ac ies
Ġst agger
st icks
Ġj inx
ĠS NA
Ġdon ated
ĠM ong
ur ities
if fic
Ġas hore
Ġup gr
un heim
ĠD ig
ĠD ATE
ĠG est
Ġr het
ĠP AUL
ĠP arsons
um ov
ab bing
ĠJ or
ĠJ ek
ĠF ELL
Ġsp here
ick in
ĠE ls
Ġtr aded
Ġtr actor
Ġover t
HE W
act us
act ions
Ġro aming
ĠY ug
Ġar c
ĠSt rick
ren ched
man y
Ġsupp ress
Ġfin als
EN A
Ġacc ustomed
Ġbo oming
ĠTO M
anc holy
Ġent ity
Ġshit s
Ġhope ful
Ġcho lera
Ġret ro
Ġ5 8
Ġ5 000
sh h
Ġbody guards
Ġdef er
Ġind ef
arr ant
ĠCl inton
Ġdep ot
inc arn
Ġtw ilight
Ġlock down
Che cking
sc ale
Ġcover t
Ġsoc i
Call ie
Ġstri ppers
ĠSha h
ĠAb bey
ĠPro v
cri bed
ĠNE AR
Ġband ages
Ġpsy ched
Ġexist ing
Ġperform er
ram ent
Ġbab bling
Ġpiss es
Dan ie
Ġwilling ly
Ġsle e
Ġspeed s
Ġcommun ists
ĠFred o
Ġregret ted
ARD IS
Ġstat ues
Ġaccess ory
Ġrub bing
ĠSU V
ĠEX C
Ġeduc ate
Ġvot ers
Ġgate way
who a
Ġsurround ings
ĠTy son
ĠSE C
ĠPer u
mar ried
ez ing
Ġcontest ants
ĠTR UST
Ġblast ed
ĠChurch ill
ĠMount ains
ĠBu ilding
Dis gusting
Ġwra pping
ĠPort land
ĠEgypt ians
Mic hel
Ġped est
Ġsch izophren
Ġphilos opher
ĠAGAIN ST
ĠSk ye
ĠKo j
Ġconfront ation
Ste vie
ĠBrazil ian
Ġclar ify
Ġstir red
Ġslam med
EVERY THING
Ġintercept ed
ĠMun ich
Ġabsor bed
Ġcaps ule
MI KE
ĠPra gue
ĠHoo ver
Ġhaird resser
Ġpear ls
ĠQUEST ION
ĠDIST ANCE
Ġschem es
JE FF
Ġspontane ous
Pra ise
Ġpneum onia
Gard ner
6 4
C rystal
F act
F rost
H H
H AS
H UT
H iding
H ola
L il
L ies
M iller
O wn
S ac
S ty
T EA
T aste
V i
W alker
^ ^
b yes
b by
b irth
b ians
f unction
h ouses
j ab
m ined
p on
t is
u ardo
w reck
Ġ âĢİ.âĢİ.âĢİ.
in hales
Ġd re
Ġf umes
ĠI Q
Ġn ug
ow l
om ena
ar cer
Ġin nov
Ġbe ams
ut z
Ġfor b
Ġli a
He ath
Ġgo gg
st ances
It alian
Ġdon g
ĠM IL
ĠM achine
ĠT rey
ĠC ord
ĠC atch
ĠC opy
ink ling
han na
op ia
ĠB LO
ĠB rett
ĠH our
ĠH az
art hy
ĠL AND
ĠL illy
ĠL IE
ĠL oud
ĠL OUD
ĠR ico
ast rous
ĠJ ol
Ġcom et
ĠF ashion
Ġcon ting
Ġpro stitution
ĠN ERV
ĠE vie
ĠE sc
ag ol
Ġqu arry
ĠY uk
Ġnew born
Where as
ress o
ons in
ĠSt raight
ĠSt anton
Ġel igible
Ġch r
Ġra ined
ĠTO MOR
az es
ident s
anc o
ĠTh ought
OT O
Be ats
An imals
Ġbeaut ies
Ġchar ms
ual ity
Ġap ocalypse
ĠAl ien
arr ison
Ġbra very
Br it
ĠAn ast
ĠAn ita
Ġsn oring
cl ose
Ġbuild ers
Ġdra ined
Ġpar l
Ġref ill
Ġ6 4
ĠMy ra
Sp anish
Ġpos se
omb re
Ġdem ocratic
alt ies
ĠPr im
Ġpersonal ities
Gr ant
Ġmod ified
ĠLe i
ĠFrank enstein
Ġpract ise
Ġthreat ens
ĠKNOW S
ĠMa hi
Ġimpress ions
Ġdig s
Ġmount ed
uke mia
Ġproject ion
ĠFl uffy
Ġund ress
Ġscr amb
Ġrac ism
Ġexpress ing
ĠEX PER
Ġsen iors
Bar king
Ġaunt ie
AK EN
Ġrat io
ĠSil va
ĠOFF ICE
Ġtail or
Fran co
ĠGold berg
Cr ack
ĠTR OUBLE
Ġhack er
Ġassass ins
Ġrehears als
Reg ina
ĠAw esome
Ġank les
Ġjer sey
Ġwip ing
Ġcrook s
Ġdesc ended
hart ha
Po ison
ĠNag asaki
Hor rible
Jen na
ĠPel ant
Spl endid
Ġabsor b
Imm ediately
ĠDom inique
ĠNorm a
Ġscra pe
ĠWid ow
ĠLt d
wart z
Ġsket ches
FESS OR
Ġmicrosc ope
pac abra
ĠRuf io
Ġtrill ion
Ġimple ment
Sund ay
Ġecc entric
Ġbers erk
ĠTOMOR ROW
, |
5 3
5 7
C ind
C ait
C andy
D u
E sc
H igher
I ron
K az
L ance
M as
N eal
N orman
O bs
S her
S aint
V ict
W inner
[ âĻªâĻªâĻª
b en
c omed
f un
f ine
m ies
n ibal
p us
s ign
u ay
Ġ âĢĶ
Ġ Ð°
Ġ ï¬Ĥ
Ġt angled
Ġt igers
ou ri
Ġw ag
Ġw its
Ġm ashed
Ġb ounced
Ġd ee
Ġd red
is ch
an us
Ġl ace
Ġn icked
Ġth umping
Ġme ad
im ize
al so
ac eable
ri que
Ġre voir
ad i
Ġst ared
am is
st ay
ĠS end
Ġcan oe
ĠM ight
ĠT ess
ĠT hy
ĠA ch
un c
op ic
ĠB AS
ĠB REATHING
Ġsh in
ĠD UDE
ĠG ustav
ĠH ole
ĠW itness
est one
ĠL U
ĠL ister
um ed
ĠO ctav
itt ies
Ġag gra
ous s
Ġpro ps
ĠN ort
ĠN anny
ap se
ag na
Ġpe ach
Ġbet a
ĠY ORK
Ġar d
Ġar ter
Ġcar penter
Ġsec recy
ĠSt rong
Ġever lasting
ĠU se
xt rot
Ġres ched
aw k
Ġapp ra
AR P
Ġcomp ly
Ġfin ishes
EN GLISH
ĠAnd ers
IT CH
Ġpol o
ild e
Tell ing
IC A
Ġwalk er
Ġins uff
Ġbook ing
men za
ĠAl t
CK S
Ġfore most
br ing
ĠZ eal
ĠCar ibbean
Ġtrans parent
Ġgrand dad
Ġsub mitted
ai ian
Ġcol umns
aur on
Mar ge
Ġz eal
Ġz ones
ĠWill is
Pro per
ĠAd v
Tom ie
Ġgold fish
iter ate
ĠQ ing
Miss ing
Ġinf rast
Ġdirect ing
ĠYOUR S
Ġcas hier
ĠARE N
ĠGET S
Ġfort night
Ġfresh man
Ġ16 0
Ġstat istics
Ġign ition
ĠSan ct
sen al
BE FORE
isc onsin
Ġdick head
ĠCho pin
Ġcolor ful
ĠAL SO
mo aning
ĠHaw ks
Ġimpro ving
ĠFranc ine
ĠSE X
Ã¡ tur
ĠDen mark
Fran z
ĠOR DER
ĠDes ert
Ġconc ierge
ĠKy oto
La unch
ÃŃ a
Ġvic ar
ĠFe i
ĠKa ali
Ġinvent or
ocal izing
Ġcritic ize
Ken nedy
ĠLi u
ĠTal yn
fight ing
Ġeth ical
Ġther mal
GU ARD
Ġexclusive ly
inet y
ĠCir cle
Mars hal
ĠFre ud
nox ious
Ġunemploy ment
Ġinject ed
ĠMall ory
Ġcatast rophe
Hung ry
Danger ous
ĠSPE CIAL
Ġdeport ed
ĠTÃ³ t
erem iah
Ġintrigu ing
JAM AL
names e
Ġenlighten ment
viv or
Weap ons
lah oma
Ġsalv age
Dism issed
Elev ator
Ġadequ ate
Ġimbec ile
LEW IS
ĠRiff aut
ĠJek yll
[âĻªâĻªâĻª ]
4 1
9 00
A u
A ges
B ET
C elebr
C itiz
D aw
D IST
F o
H arm
N an
P aige
R aw
S idd
T own
T EN
V ic
V ICE
Y ang
b omb
c ats
m ortem
p ark
t old
t rain
z ier
Ġt ro
Ġt aco
ou bted
ha h
Ġb ien
is co
Ġc ube
or ph
ĠI z
Ġo re
Ġn ib
Ġth re
le ine
Ġwe ighed
ri or
Ġnot ices
Ġj ake
ĠS age
ĠS ty
ĠS lim
ĠS IX
ĠM AD
ĠM RI
ĠM ACHINE
ĠM emorial
ho pper
ĠT AKES
ĠA round
ĠA ges
ĠA uthor
ĠC ou
ĠC ash
Ġab yss
ĠB I
ĠD odge
ĠG iant
ĠG IGG
ĠG aius
ĠH UN
ĠH IV
ĠW anda
od s
ĠL ORD
ĠP atsy
ĠR ace
Ġman ic
are z
ĠF und
ĠF lying
Ġgu v
Ġv a
Ġtell er
ĠE AT
She ldon
ĠK IM
ĠK ISS
Ġlet tuce
HE ART
Ġen velop
ond ition
Ġse g
Ġse am
Ġsc aven
-- --
ER IE
Ġun stoppable
Not e
ob ots
In formation
ĠV ish
Ġper se
ran ium
AR CH
Ġcomp onents
ĠThe m
Ġsw am
IT AL
Ġcra ving
ott s
Ġrest ed
Ġjo ker
Ġinc arcer
Ġob it
Ġmoment um
Ġsing ular
Ġap ost
Ġcor ny
Ġinst ruction
Ġreg roup
Ġreg ional
Ġair field
Ġdisc iple
ĠAn imal
ĠSh ort
unt ed
ĠBE AT
li ves
Ġwind shield
IM IT
Ġattack er
Ġdou bles
Ã© agol
Ġ7 8
Ġexp end
Ġeff iciency
iff el
Ġaccident al
ls en
Ġill um
US BAND
ĠHER O
ni um
ĠSha k
ĠMc Donald
Ġproud ly
Ġemb ed
ĠCol by
Ġrecogn izes
Char ming
Ġboard ed
Ġneck s
Ġaud iences
Ġrese mble
ĠSP EAKS
wh impering
Mad die
Se o
ĠCor poration
Ġspread s
El se
Ġbullet proof
ĠAny one
ĠSund ays
Gl enn
IRE D
UD DY
ĠSE CRE
ĠRam on
BER T
ann on
uz aki
ĠUN TIL
miss ions
Ġinflu enced
Ġcrown ed
Ġsem inar
bre aker
Ġremark s
shi re
Ġtab lets
ĠCatholic s
Ġflood ing
ĠTer ror
ĠCy nthia
Roy al
Ġinterrog ate
Ġut most
ĠAustral ian
ĠSweet s
Ġsorrow s
ĠGene va
Ã§ ois
Ġsmugg le
ĠCongress man
Ġpoll ution
Ġdod gy
Ham mer
ĠPER FECT
Ġhoriz ont
ĠBeat rice
ĠBeck ett
ĠRoc he
Ġdiab etes
Ġprosper ity
Ġcav iar
ĠBus iness
Ġbog us
Ġmamm als
ĠTele phone
Ġflex ible
Ġapprehend ed
ĠDRE AM
Ġconfine ment
Ġcontem porary
Ġirresist ible
Ġinfrast ructure
9 4
A ge
A aron
C oughing
D iamond
E ating
E zra
H air
K rist
L incoln
O ui
O belix
R ory
R ipped
R umbling
W ong
b ay
b ull
c ie
c oll
o a
p res
w ire
x es
y ar
Ñ Ģ
Ġs r
Ġs issy
on n
Ġb is
it ters
Ġd oth
is in
an ium
en y
Ġst utter
Ġkn ickers
We ak
all ows
Ġj ock
ant um
ĠS hannon
ĠM uri
ĠA le
ĠC ore
ĠC oss
ĠC AL
ĠC ARS
Ġas semble
Ġup ro
han i
our in
op ing
il is
Ġright ful
ĠD AMN
ĠD honi
ĠW aters
Ġde lin
ĠP E
ĠP ant
ĠP ike
ate l
ĠR IP
ine ma
Ġman hood
ĠO range
ĠO regon
Ġpro dig
Ġpro hibited
Ġv olley
ĠE cho
Ġpe ers
oy al
Ġen vious
pl ets
ĠY osh
ĠY oshi
irst y
Ġun load
get ic
get ting
Ġdis arm
Ġad j
ign ant
ub s
aw ing
Ġsha ky
tain ment
Ġmor ality
IT ING
Ġdes ired
Ġcomm od
Ġtri ang
Ġwater fall
sh ut
me at
Ġsy ring
Ġcor al
Will y
Ch icago
ĠChrist ina
br al
Ġsn ore
cl oth
ĠZ ac
ĠRe ad
Ġmist rial
Ġblack s
Ġclass mates
Ġbull ied
ĠST EP
Ġvict or
Ġcent ers
ĠCha ppelle
Ġtem ples
Gr ond
Ġcre eping
ced e
cell or
Ġtur bul
ĠTr inian
ien ne
Ġmaster mind
Ġorgan isation
Ġperform ances
Ġhi j
Ġblind fold
Ġhook ing
Ġpus hes
Ġincl ined
Ġgreen house
Pr inc
urt les
Ġtun es
ĠEX CLAIM
ĠEX ACTLY
Ġmut t
stit ious
Ġju venile
Ġstrang est
Ġrobber ies
ĠHol iness
Ġbum ps
mark ed
Ġteaching s
EX CUSE
Ġreview s
ĠGreg or
Ġsymbol ic
ĠSn ake
dog s
Ġdiss olve
cr acker
Ġdepart ed
Ġpuzz les
Ġerr ors
Ġanaly st
ethe us
Ġconvention al
Sus pect
ĠFil m
Rub y
Ġbankrupt cy
ĠTar zan
Ġconvict ions
Ġmand atory
ï¬ ģ
Oper ation
Ġunw orthy
Ġpengu ins
Ġhitch hi
VO ICE
fol k
ĠKir by
Ġmasc ul
ĠBul gar
Wor st
Ġstead ily
Ġmaneu ver
ĠCharlest on
ĠIndust ries
Apolog ize
Ġcorro bor
opha gus
Ġslee ves
oubted ly
0 8
6 2
B ase
B ury
C ru
D ate
F C
F il
F reak
F RIEND
H ara
I LA
J azz
J osie
K ent
K ur
L ately
M outh
N im
P amela
S andy
T RIP
V iv
W OMEN
Y am
c old
d ered
i enced
r iter
s low
z ero
Â ·
Ġt renches
Ġm ating
Ġb ums
it ent
Ġc one
Ġf olly
Ġp ending
Ġp ads
as u
Ġin aug
Ġe el
ac ea
ri ves
He ck
ĠS ays
ĠM ater
ĠT old
ĠA way
No vember
ĠB og
ĠB RO
ĠB ILL
ĠB eeps
Ġsh ith
ĠD re
ĠD isc
ig ration
ĠP is
ĠP UB
ĠP uerto
ĠR ail
ĠR anch
ĠF ill
Ġgu ides
hi k
Ġam pl
ĠK E
Ġpe ed
Ġco co
ass o
Ġwhere as
Ġun rest
Ġfl op
Ġdis astrous
Ġsm urf
ĠIt s
Ġcr iter
ps hire
ĠCh r
Ġfound er
Ġcomp ress
Ġsw eeping
Ġrel ics
ĠTh row
Ġstand by
An imal
ĠBr andy
form ing
Ġjo e
Ġtri ump
Ġret al
Ġinc ub
EA LING
ĠMar cy
eg ra
Ġfa ire
Ġleg ion
Ġext rad
ĠZ am
Ġdist ribut
[...]
