{"<s>":0,"<pad>":1,"</s>":2,"<unk>":3,"<|endoftext|>":4,"<mask>":5,"!":6,"\"":7,"#":8,"$":9,"%":10,"&":11,"'":12,"(":13,")":14,"*":15,"+":16,",":17,"-":18,".":19,"/":20,"0":21,"1":22,"2":23,"3":24,"4":25,"5":26,"6":27,"7":28,"8":29,"9":30,":":31,";":32,"<":33,"=":34,">":35,"?":36,"@":37,"A":38,"B":39,"C":40,"D":41,"E":42,"F":43,"G":44,"H":45,"I":46,"J":47,"K":48,"L":49,"M":50,"N":51,"O":52,"P":53,"Q":54,"R":55,"S":56,"T":57,"U":58,"V":59,"W":60,"X":61,"Y":62,"Z":63,"[":64,"\\":65,"]":66,"^":67,"_":68,"`":69,"a":70,"b":71,"c":72,"d":73,"e":74,"f":75,"g":76,"h":77,"i":78,"j":79,"k":80,"l":81,"m":82,"n":83,"o":84,"p":85,"q":86,"r":87,"s":88,"t":89,"u":90,"v":91,"w":92,"x":93,"y":94,"z":95,"{":96,"|":97,"}":98,"~":99,"¡":100,"¢":101,"£":102,"¤":103,"¥":104,"¦":105,"§":106,"¨":107,"©":108,"ª":109,"«":110,"¬":111,"®":112,"¯":113,"°":114,"±":115,"²":116,"³":117,"´":118,"µ":119,"¶":120,"·":121,"¸":122,"¹":123,"º":124,"»":125,"¼":126,"½":127,"¾":128,"¿":129,"À":130,"Á":131,"Â":132,"Ã":133,"Ä":134,"Å":135,"Æ":136,"Ç":137,"È":138,"É":139,"Ê":140,"Ë":141,"Ì":142,"Í":143,"Î":144,"Ï":145,"Ð":146,"Ñ":147,"Ò":148,"Ó":149,"Ô":150,"Õ":151,"Ö":152,"×":153,"Ø":154,"Ù":155,"Ú":156,"Û":157,"Ü":158,"Ý":159,"Þ":160,"ß":161,"à":162,"á":163,"â":164,"ã":165,"ä":166,"å":167,"æ":168,"ç":169,"è":170,"é":171,"ê":172,"ë":173,"ì":174,"í":175,"î":176,"ï":177,"ð":178,"ñ":179,"ò":180,"ó":181,"ô":182,"õ":183,"ö":184,"÷":185,"ø":186,"ù":187,"ú":188,"û":189,"ü":190,"ý":191,"þ":192,"ÿ":193,"Ā":194,"ā":195,"Ă":196,"ă":197,"Ą":198,"ą":199,"Ć":200,"ć":201,"Ĉ":202,"ĉ":203,"Ċ":204,"ċ":205,"Č":206,"č":207,"Ď":208,"ď":209,"Đ":210,"đ":211,"Ē":212,"ē":213,"Ĕ":214,"ĕ":215,"Ė":216,"ė":217,"Ę":218,"ę":219,"Ě":220,"ě":221,"Ĝ":222,"ĝ":223,"Ğ":224,"ğ":225,"Ġ":226,"ġ":227,"Ģ":228,"ģ":229,"Ĥ":230,"ĥ":231,"Ħ":232,"ħ":233,"Ĩ":234,"ĩ":235,"Ī":236,"ī":237,"Ĭ":238,"ĭ":239,"Į":240,"į":241,"İ":242,"ı":243,"Ĳ":244,"ĳ":245,"Ĵ":246,"ĵ":247,"Ķ":248,"ķ":249,"ĸ":250,"Ĺ":251,"ĺ":252,"Ļ":253,"ļ":254,"Ľ":255,"ľ":256,"Ŀ":257,"ŀ":258,"Ł":259,"ł":260,"Ń":261,"Ġt":262,"he":263,"ou":264,"Ġa":265,"in":266,"re":267,"Ġw":268,"Ġs":269,"ha":270,"on":271,"Ġy":272,"Ġthe":273,"Ġm":274,"Ġyou":275,"Ġb":276,"er":277,"it":278,"ing":279,"ll":280,"Ġd":281,"is":282,"Ġc":283,"an":284,"Ġto":285,"Ġf":286,"Ġg":287,"or":288,"hat":289,"en":290,"Ġl":291,"..":292,"ĠI":293,"'s":294,"es":295,"Ġo":296,"Ġn":297,"nd":298,"Ġp":299,"ve":300,"ow":301,"om":302,"ed":303,"ot":304,"ĠĊ":305,"ar":306,"et":307,"Ġhe":308,"as":309,"at":310,"us":311,"Ġth":312,"ay":313,"Ġof":314,"Ġit":315,"Ġh":316,"Ġha":317,"Ġin":318,"'t":319,"le":320,"Ġbe":321,"gh":322,"Ġthat":323,"Ġme":324,"id":325,"Ġon":326,"Ġand":327,"You":328,"Ġk":329,"Ġis":330,"ic":331,"...":332,"ld":333,"Ġwe":334,"ut":335,"ke":336,"im":337,"Ġe":338,"al":339,"oo":340,"ght":341,"ver":342,"Ġdo":343,"ac":344,"out":345,"ri":346,"Ġfor":347,"Ġre":348,"The":349,"ad":350,"ome":351,"se":352,"Ġst":353,"Ġu":354,"Ġwas":355,"Ġli":356,"Ġkn":357,"ust":358,"am":359,"Ġyour":360,"ill":361,"Ġthis":362,"ir":363,"Ġhave":364,"We":365,"He":366,"Ġmy":367,"'m":368,"ly":369,"Ġnot":370,"Ġgo":371,"ith":372,"Ġan":373,"Ġknow":374,"'re":375,"ee":376,"all":377,"st":378,"ent":379,"ion":380,"ould":381,"What":382,"Ġj":383,"Ġwith":384,"ant":385,"Ġare":386,"ro":387,"ĠS":388,"ea":389,"Ġcan":390,"It":391,"Ġdon":392,"ĠM":393,"her":394,"ho":395,"Ġne":396,"hing":397,"ur":398,"Ġwhat":399,"ec":400,"ĠT":401,"if":402,"ĠA":403,"ter":404,"ĠC":405,"uc":406,"Ġget":407,"ry":408,"Ġab":409,"Ġall":410,"'ll":411,"Ġlike":412,"ake":413,"Ġjust":414,"No":415,"Ġhere":416,"Ġout":417,"pp":418,"one":419,"Ġso":420,"Ġas":421,"Ġup":422,"un":423,"Ġat":424,"ce":425,"ink":426,"And":427,"han":428,"Ġhim":429,"ood":430,"our":431,"right":432,"Ġwant":433,"op":434,"ook":435,"ra":436,"ĠB":437,"Ġabout":438,"ight":439,"ack":440,"Ġdid":441,"il":442,"ore":443,"Ġsh":444,"Ġright":445,"and":446,"ĠD":447,"ĠG":448,"very":449,"ie":450,"ell":451,"Oh":452,"Ġthere":453,"Ġwor":454,"ally":455,"Ġgot":456,"Ġher":457,"ge":458,"Ġthink":459,"ind":460,"eah":461,"Ġr":462,"Ġus":463,"Ġno":464,"ess":465,"hy":466,"ĠH":467,"Ġone":468,"rom":469,"art":470,"ĠW":471,"That":472,"ul":473,"od":474,"Ġsee":475,"'ve":476,"est":477,"ive":478,"end":479,"ain":480,"Ġany":481,"Ġthey":482,"Ġbut":483,"ch":484,"Ġwill":485,"Ġal":486,"Ġwhe":487,"ure":488,"king":489,"ĠL":490,"Ġlo":491,"na":492,"ist":493,"ong":494,"ig":495,"Ġde":496,"ĠP":497,"Yeah":498,"ime":499,"ol":500,"But":501,"um":502,"ab":503,"âĻ":504,"ers":505,"Ġif":506,"Ġshe":507,"Ġsome":508,"os":509,"Ġnow":510,"Ġfrom":511,"Ġsa":512,"ate":513,"ĠR":514,"ast":515,"Ġpl":516,"Ġhis":517,"ven":518,"ĠJ":519,"ame":520,"Ġsay":521,"ice":522,"rou":523,"kay":524,"âĻª":525,"Ġgoing":526,"Ġwho":527,"Well":528,"Ġwould":529,"use":530,"Ġcom":531,"ation":532,"ine":533,"Ġman":534,"Ġback":535,"Th":536,"Ġor":537,"are":538,"Ġtime":539,"ear":540,"ĠF":541,"Ġex":542,"qu":543,"ĠO":544,"Ġthem":545,"Ġcon":546,"Yes":547,"Ġwere":548,"So":549,"Ġlook":550,"way":551,"own":552,"ard":553,"ase":554,"Ġneed":555,"nt":556,"ct":557,"Ġgu":558,"Ġgood":559,"em":560,"Ġsp":561,"Ġhad":562,"el":563,"onna":564,"ick":565,"Ġbeen":566,"Ġcould":567,"omet":568,"They":569,"This":570,"Ġgonna":571,"Ġtoo":572,"ect":573,"ause":574,"other":575,"itt":576,"Ġag":577,"ort":578,"Ġoff":579,"Ġcome":580,"Ġthing":581,"hank":582,"thing":583,"ous":584,"Ġour":585,"Ġpro":586,"fe":587,"Ġv":588,"ace":589,"ĠN":590,"Ġtell":591,"ĠE":592,"res":593,"IN":594,"'d":595,"hi":596,"Ġevery":597,"ck":598,"Ġhas":599,"Ġwhen":600,"Ġtake":601,"ak":602,"She":603,"Hey":604,"omething":605,"ide":606,"ble":607,"ap":608,"Ġway":609,"uck":610,"How":611,"red":612,"Ġint":613,"Whe":614,"Ġdidn":615,"Ġmean":616,"Ġdown":617,"uch":618,"lf":619,"Ġam":620,"Ġby":621,"Ġtr":622,"reat":623,"Ġhapp":624,"Ġhow":625,"Ġtal":626,"There":627,"ag":628,"Ġreally":629,"If":630,"ĠK":631,"ud":632,"Ġmore":633,"ff":634,"Ġsomething":635,"Ġpe":636,"Ġover":637,"Ġle":638,"Ġcl":639,"Ġ\"":640,"Why":641,"Do":642,"Ġcall":643,"ople":644,"Ġshould":645,"Ġmake":646,"Ġlet":647,"th":648,"lease":649,"Ġlove":650,"Ġmo":651,"ber":652,"Come":653,"ep":654,"ittle":655,"oy":656,"ĠYou":657,"ose":658,"orry":659,"ving":660,"ity":661,"Ġday":662,"Ġsu":663,"Ġthen":664,"ait":665,"ound":666,"HE":667,"Let":668,"iss":669,"ther":670,"ies":671,"ody":672,"Ġbec":673,"Don":674,"Ġbl":675,"Ġnever":676,"Ġguy":677,"Ġpeople":678,"Ġlittle":679,"Ġsaid":680,"Ġdoes":681,"lp":682,"Ġqu":683,"wo":684,"Ġ1":685,"Ġwork":686,"act":687,"be":688,"ew":689,"Ġvery":690,"Ġonly":691,"nder":692,"Ġen":693,"ond":694,"Ġro":695,"OU":696,"Ġse":697,"ree":698,"Ġsc":699,"Okay":700,"Ġco":701,"Ġhappen":702,"Ġbr":703,"ite":704,"eep":705,"All":706,"Ġbet":707,"Ġdoing":708,"ady":709,"00":710,"self":711,"ING":712,"pl":713,"ass":714,"riend":715,"ue":716,"Ġagain":717,"eel":718,"Ġmuch":719,"My":720,"ought":721,"ting":722,"ough":723,"age":724,"Ġeven":725,"ning":726,"ĠY":727,"Thank":728,"ish":729,"ment":730,"irst":731,"--":732,"Ġwhere":733,"ire":734,"Now":735,"Ġaf":736,"AN":737,"ather":738,"Ġhelp":739,"Ġkill":740,"Ġother":741,"au":742,"Ġyear":743,"ny":744,"Ġfind":745,"Ġwhy":746,"Ġtwo":747,".\"":748,"Ġunder":749,"per":750,"Ġinto":751,"ĠWhat":752,"Ġfeel":753,"ER":754,"Ġun":755,"ty":756,"Ġar":757,"Is":758,"Ġwr":759,"ret":760,"ves":761,"get":762,"oney":763,"ord":764,"Ġpr":765,"round":766,"Ġtalk":767,"St":768,"Ġim":769,"fore":770,"ne":771,"wn":772,"body":773,"ĠâĻª":774,"ade":775,"urn":776,"Not":777,"Ġgive":778,"Ġlife":779,"row":780,"Who":781,"Ġbecause":782,"Ġstill":783,"ull":784,"Look":785,"ave":786,"ob":787,"Just":788,"Ġsorry":789,"Are":790,"Ġlea":791,"Ġtheir":792,"Ġnight":793,"Ġanything":794,"Ġlong":795,"irl":796,"aybe":797,"Ġwell":798,"Ġnew":799,"Ġfriend":800,"ft":801,"ach":802,"ang":803,"Ġfirst":804,"Ġhome":805,"Ġokay":806,"iz":807,"Ġtry":808,"ich":809,"Ġthought":810,"Ġsure":811,"Ġbel":812,"ise":813,"day":814,"Ġthan":815,"ool":816,"Ġmust":817,"ĠNo":818,"Where":819,"Ġcar":820,"Ġaway":821,"ress":822,"we":823,"Ġthese":824,"ng":825,"Ġbefore":826,"har":827,"ans":828,"Ġwon":829,"RE":830,"AT":831,"ĠMr":832,"ater":833,"In":834,"Ġpo":835,"Ġhand":836,"pt":837,"ways":838,"Ġchan":839,"Ġpart":840,"ious":841,"Ġput":842,"og":843,"Ġafter":844,"Ġgirl":845,"Ġwh":846,"Ġcare":847,"Ġask":848,"Ġ'":849,"old":850,"Ġac":851,"Ġwait":852,"ence":853,"Ġrem":854,"Ġtold":855,"able":856,"ouse":857,"ia":858,"Ġact":859,"Ġsec":860,"Ġlast":861,"ĠGod":862,"Ġyears":863,"Ġthings":864,"Ġstart":865,"Ġkeep":866,"Ġgreat":867,"Ġcour":868,"ary":869,"Ġfl":870,"ON":871,"Ġbetter":872,"ance":873,"ĠHe":874,"Ġdr":875,"Ġkid":876,"ip":877,"ieve":878,"Ġaround":879,"Ġdis":880,"hed":881,"Ġalways":882,"ark":883,"Ġsm":884,"Ġshow":885,"les":886,"Ġad":887,"ory":888,"ful":889,"Ġcou":890,"Ġche":891,"Good":892,"ily":893,"Get":894,"ons":895,"Ġmoney":896,"Ġmin":897,"Ġbu":898,"ĠSt":899,"Ġ2":900,"Ġthose":901,"ried":902,"Ġkind":903,"oss":904,"Ġplay":905,"Ġplease":906,"Ġlot":907,"Ġname":908,"Ġbig":909,"Your":910,"Ġplace":911,"Ġcont":912,"LL":913,"here":914,"Go":915,"ĠV":916,"int":917,"Ġboy":918,"Ġsir":919,"Ġdoesn":920,"Ġnothing":921,"Ġold":922,"aking":923,"av":924,"ial":925,"Did":926,"Ġreal":927,"Ġmade":928,"isten":929,"When":930,"up":931,"igh":932,"llo":933,"stand":934,"ign":935,"Ġever":936,"ict":937,"ĠU":938,"Then":939,"ĠIt":940,"ike":941,"Ġte":942,"orm":943,"ub":944,"ail":945,"ath":946,"ever":947,"ute":948,"ĠTHE":949,"Ġbelieve":950,"xt":951,"atch":952,"rough":953,"Ġres":954,"ved":955,"Ġeverything":956,"ions":957,"Can":958,"Ġper":959,"ren":960,"ĠYeah":961,"Ġdone":962,"Ġleave":963,"Ġown":964,"Ġguys":965,"pen":966,"Ġhar":967,"ye":968,"Ġid":969,"Ġel":970,"Ġcr":971,"Ġhear":972,"Ġbeing":973,"ps":974,"Ġstay":975,"Ġbad":976,"Ġwanted":977,"ian":978,"Ġwom":979,"Ġbit":980,"Ġthrough":981,"Ġunderstand":982,"ually":983,"ran":984,"port":985,"Ġhead":986,"Ġhouse":987,"Ġleft":988,"aw":989,"man":990,"Ġwrong":991,"Ġsha":992,"ult":993,"ĠOh":994,"ĠCh":995,"ated":996,"Ġworld":997,"Ġhappened":998,"ember":999,"ĠYOU":1000,"Ġfam":1001,"Ġcame":1002,"Ġgr":1003,"Ġmight":1004,"Ġcoming":1005,"Ġapp":1006,"Ġcourse":1007,"Please":1008,"Ġmar":1009,"pect":1010,"Ġstop":1011,"OR":1012,"aught":1013,"Ġfather":1014,"erson":1015,"AR":1016,"so":1017,"mer":1018,"uh":1019,"ĠYes":1020,"Ġrun":1021,"Ġmeet":1022,"Ġ[":1023,"Ġmom":1024,"Ġser":1025,"For":1026,"atter":1027,"ms":1028,"Ġisn":1029,"ife":1030,"oh":1031,"ix":1032,"Ġbus":1033,"side":1034,"Ġelse":1035,"Ġfound":1036,"ek":1037,"Ġph":1038,"Ġ]":1039,"Ġrec":1040,"Here":1041,"ling":1042,"Ġenough":1043,"ug":1044,"ince":1045,"oll":1046,"Ġsho":1047,"oth":1048,"Ġtalking":1049,"Ġchi":1050,"ors":1051,"ream":1052,"Ġdead":1053,"Ġend":1054,"my":1055,"tain":1056,"Ġtra":1057,"Ġch":1058,"Ġass":1059,"Ġsupp":1060,"iv":1061,"Ġsomeone":1062,"aby":1063,"Ġmother":1064,"ner":1065,"imes":1066,"Ġfun":1067,"Sh":1068,"Ġanother":1069,"ock":1070,"Ġdec":1071,"ating":1072,"Ġcomp":1073,"ES":1074,"hes":1075,"Ġcle":1076,"ĠThe":1077,"Ġson":1078,"rest":1079,"oc":1080,"ible":1081,"Ġgetting":1082,"Ġsame":1083,"Ġsur":1084,"ecause":1085,"ĠWe":1086,"Ġfin":1087,"ost":1088,"Ġmind":1089,"ah":1090,"akes":1091,"Ġra":1092,"Ġmon":1093,"Ġatt":1094,"Ġlooking":1095,"ied":1096,"Ġsl":1097,"Ġmiss":1098,"Ġhard":1099,"gether":1100,"Ġperson":1101,"IS":1102,"mm":1103,"Ġthree":1104,"ta":1105,"Ġjob":1106,"Uh":1107,"Ġwent":1108,"Ġyeah":1109,"Ġturn":1110,"Ġdif":1111,"Ġinv":1112,"Ġmor":1113,"Ġtoday":1114,"Ġchild":1115,"ations":1116,"Maybe":1117,"air":1118,"Ġpret":1119,"Ġpre":1120,"Ġfine":1121,"Ġmay":1122,"Ġnice":1123,"EN":1124,"ple":1125,"Ġuh":1126,"Ġplan":1127,"Every":1128,"To":1129,"Ġwasn":1130,"ĠAnd":1131,"Ġsw":1132,"Ġwhich":1133,"Ġbre":1134,"Ġmany":1135,"Ġtrying":1136,"Ġyourself":1137,"Ġwar":1138,"ready":1139,"Ġroom":1140,"Ġtogether":1141,"Ġbest":1142,"Ġsaw":1143,"IT":1144,"ĠTH":1145,"ope":1146,"Ġproble":1147,"leep":1148,"der":1149,"ings":1150,"Ġpol":1151,"ical":1152,"Ġdes":1153,"ont":1154,"Re":1155,"Ġthank":1156,"Ġyes":1157,"Ġhell":1158,"Ġhur":1159,"As":1160,"Hello":1161,"anna":1162,"uff":1163,"Ġacc":1164,"Ġ-":1165,"Ġseen":1166,"Ġweek":1167,"hile":1168,"ove":1169,"Ġbo":1170,"alk":1171,"Ġalready":1172,"ĠTO":1173,"Ġnext":1174,"ars":1175,"On":1176,"Ġremember":1177,"Because":1178,"Ġfamily":1179,"Ġlive":1180,"Ġmatter":1181,"orrow":1182,"ister":1183,"Ġcra":1184,"ucking":1185,"Right":1186,"pe":1187,"Ġstr":1188,"Ġbaby":1189,"Ġmost":1190,"Ġbrother":1191,"Ġi":1192,"Ġhour":1193,"az":1194,"iness":1195,"Ġheard":1196,"ss":1197,"Ġidea":1198,"Ġ3":1199,"Ex":1200,"dy":1201,"Ġcha":1202,"Ġwouldn":1203,"Ġknew":1204,"ness":1205,"Mr":1206,"Ġgl":1207,"ident":1208,"Ġuse":1209,"Ġword":1210,"Ġmen":1211,"ower":1212,"Ġopen":1213,"Ġwithout":1214,"Ġmorning":1215,"Ġwoman":1216,"ery":1217,"Ġused":1218,"Wait":1219,"Ġcalled":1220,"ĠThat":1221,"ott":1222,"Ġwhole":1223,"anc":1224,"One":1225,"chool":1226,"ile":1227,"Ġcomm":1228,"Ġheart":1229,"AS":1230,"Ġmove":1231,"Ġsecond":1232,"ason":1233,"Ġtook":1234,"OW":1235,"Ġfriends":1236,"aut":1237,"amn":1238,"ition":1239,"ung":1240,"the":1241,"osed":1242,"ient":1243,"Ġpay":1244,"gg":1245,"less":1246,"ird":1247,"Ġyet":1248,"rent":1249,"Ġwife":1250,"ctor":1251,"Ġpretty":1252,"ens":1253,"Ġsaying":1254,"Ġquest":1255,"Ġset":1256,"pped":1257,"Ġdays":1258,"Ġmyself":1259,"ank":1260,"Ġrel":1261,"Ġrest":1262,"Ġbring":1263,"Ġfuck":1264,"ins":1265,"Ġdri":1266,"onight":1267,"Ġfr":1268,"Ġalso":1269,"ier":1270,"Al":1271,"ib":1272,"Ġdiffe":1273,"Ġago":1274,"Ġem":1275,"Ġlisten":1276,"Ġmaybe":1277,"ax":1278,"Ġsuch":1279,"Ġhaven":1280,"ild":1281,"Ġguess":1282,"ash":1283,"ably":1284,"Ġcount":1285,"Ġwanna":1286,"ts":1287,"uth":1288,"Ġalone":1289,"eak":1290,"GH":1291,"Ġready":1292,"zy":1293,"Ġdrink":1294,"Ġproblem":1295,"ey":1296,"Ġgone":1297,"OM":1298,"ntil":1299,"ense":1300,"Have":1301,"where":1302,"Take":1303,"Ġgi":1304,"Ġsit":1305,"Ġfar":1306,"Any":1307,"Ġfucking":1308,"Ġschool":1309,"Ġkilled":1310,"orn":1311,"aughter":1312,"Ġsleep":1313,"Ġmet":1314,"augh":1315,"Ġface":1316,"Ġfew":1317,"Some":1318,"Ġent":1319,"Ġfight":1320,"Ġdie":1321,"ward":1322,"ĠTh":1323,"LE":1324,"Ġ(":1325,"Ġhat":1326,"Ġworry":1327,"OT":1328,"Thanks":1329,"Ġwhile":1330,"cuse":1331,"Ġstand":1332,"Ġdad":1333,"Ġshit":1334,"Ġgotta":1335,"Sorry":1336,"Ġsoon":1337,"Ġdeal":1338,"Ġtom":1339,"Ġhold":1340,"ying":1341,"Ġlost":1342,"Ġev":1343,"Be":1344,"Ġactually":1345,"med":1346,"Ġ...":1347,"Ġonce":1348,"See":1349,"vel":1350,"Ġwants":1351,"Ġdoor":1352,"ount":1353,"Ġpass":1354,"Stop":1355,"Ġhope":1356,"An":1357,"Â´":1358,"Ah":1359,"onder":1360,"Ġeat":1361,"Ġbusiness":1362,"Ġhappy":1363,"Ġeas":1364,"Ġcouldn":1365,"Ġbeaut":1366,"Ġcase":1367,"Of":1368,"Ġtonight":1369,"Or":1370,"Ġlate":1371,"Ġpoint":1372,"bably":1373,"Ġanyone":1374,"yes":1375,"Ġchar":1376,"ize":1377,"Ġ?":1378,"rew":1379,"ED":1380,"Ġprom":1381,"Ġmus":1382,"Hi":1383,"Ġmonth":1384,"app":1385,"OK":1386,"Ġsays":1387,"Ġter":1388,"att":1389,"you":1390,"Ġboth":1391,"Ġcompl":1392,"cept":1393,"Tell":1394,"Ġsk":1395,"ĠBr":1396,"pr":1397,"form":1398,"io":1399,"Ġcho":1400,"als":1401,"ither":1402,"Ġhum":1403,"ired":1404,"iful":1405,"iet":1406,"Ġphone":1407,"At":1408,"weet":1409,"Ġtomorrow":1410,"rist":1411,"Ġbreak":1412,"Ġsince":1413,"Ġjo":1414,"land":1415,"Ġstuff":1416,"With":1417,"Ġeach":1418,"Like":1419,"ET":1420,"Ġuntil":1421,"ork":1422,"ared":1423,"Ġtri":1424,"ph":1425,"Ġthinking":1426,"Ġsign":1427,"aj":1428,"Ġret":1429,"vers":1430,"ĠDo":1431,"ohn":1432,"utes":1433,"Ġtrue":1434,"aster":1435,"ered":1436,"lic":1437,"AY":1438,"ollow":1439,"actly":1440,"Ġread":1441,"Ġpres":1442,"Ġhaving":1443,"Ġpolice":1444,"cess":1445,"sw":1446,"Ġwater":1447,"ison":1448,"IC":1449,"Ġnum":1450,"FF":1451,"Wh":1452,"Ġblood":1453,"Ġminute":1454,"enc":1455,"Ġwalk":1456,"Ġdeath":1457,"Ġhands":1458,"Ġinc":1459,"Ġworking":1460,"ates":1461,"erest":1462,"Ġob":1463,"Ġsound":1464,"its":1465,"Ġhot":1466,"ged":1467,"Ġcheck":1468,"Ġgave":1469,"Ġyoung":1470,"Ġmess":1471,"Ġbeg":1472,"ĠHow":1473,"ump":1474,"Ġlight":1475,"Ġposs":1476,"Ġlater":1477,"Ġwonder":1478,"VE":1479,"Ġimp":1480,"fect":1481,"ding":1482,"Ġdifferent":1483,"Ġeyes":1484,"Ġear":1485,"hen":1486,"Ġ5":1487,"sh":1488,"und":1489,"ual":1490,"Ġminutes":1491,"led":1492,"arent":1493,"Ġknows":1494,"Ġexpl":1495,"Ġmoment":1496,"Ġcrazy":1497,"ete":1498,"Ġinter":1499,"Ġsing":1500,"Ġins":1501,"Ġchange":1502,"000":1503,"Ġeveryone":1504,"uct":1505,"ude":1506,"raid":1507,"Ġfe":1508,"EA":1509,"Give":1510,"ST":1511,"ets":1512,"Ġfact":1513,"Ġluck":1514,"Ġbody":1515,"Ġbro":1516,"Ġgun":1517,"hip":1518,"me":1519,"Ġconf":1520,"atc":1521,"more":1522,"Ġmeans":1523,"come":1524,"Ġkids":1525,"Ġap":1526,"Ġ4":1527,"ross":1528,"Ġprobably":1529,"ger":1530,"ned":1531,"Ġhit":1532,"band":1533,"Ġimport":1534,"ĠMar":1535,"Ġhuh":1536,"Ġlooks":1537,"Â¶":1538,"ale":1539,"Ġbeautiful":1540,"Ġmur":1541,"Ġdream":1542,"head":1543,"Listen":1544,"Ġhon":1545,"ĠHey":1546,"Ġspec":1547,"Ġtaking":1548,"ention":1549,"Ġdef":1550,"Ġside":1551,"to":1552,"co":1553,"Ġhurt":1554,"te":1555,"Ġasked":1556,"Ġaw":1557,"Ġchance":1558,"Ġtimes":1559,"Ġbook":1560,"Ġafraid":1561,"Ġpower":1562,"Ġhigh":1563,"any":1564,"HAT":1565,"Ġdaughter":1566,"Ġinterest":1567,"ĠIs":1568,"nc":1569,"usband":1570,"ĠAN":1571,"Ġpick":1572,"Ġshot":1573,"Ġbed":1574,"Ġfire":1575,"ĠSo":1576,"Ġreason":1577,"Ġinside":1578,"Ġcut":1579,"Ġmusic":1580,"ised":1581,"Ġtrou":1582,"Ġsy":1583,"Ġmakes":1584,"Ġfree":1585,"Ġmaking":1586,"Ġits":1587,"ina":1588,"Ġcons":1589,"ik":1590,"ited":1591,"Ġimportant":1592,"Ġmine":1593,"Ġcomes":1594,"Ġleast":1595,"uss":1596,"unk":1597,"Ġnews":1598,"ents":1599,"Ġstory":1600,"Ġpain":1601,"ĠIN":1602,"ject":1603,"ĠThank":1604,"Ġforg":1605,"iously":1606,"eal":1607,"Ġsupposed":1608,"Ġansw":1609,"eg":1610,"men":1611,"Ġagainst":1612,"Ġclose":1613,"UT":1614,"ric":1615,"Ġwin":1616,"Ġfour":1617,"ertain":1618,"olog":1619,"Ġhusband":1620,"unch":1621,"most":1622,"Ġquestion":1623,"Ġsweet":1624,"Ġprot":1625,"Ġcor":1626,"not":1627,"Ġain":1628,"Ġtou":1629,"rop":1630,"Really":1631,"Ġfollow":1632,"Ġwish":1633,"ames":1634,"Ġhours":1635,"ĠIT":1636,"ĠIn":1637,"by":1638,"Ġspeak":1639,"Ġclear":1640,"Ġlaw":1641,"ĠAl":1642,"ĠOkay":1643,"Ġparty":1644,"ĠShe":1645,"Nothing":1646,"Ġwaiting":1647,"vie":1648,"Ġsent":1649,"ener":1650,"aid":1651,"Ġcoll":1652,"Ġstarted":1653,"Ġinst":1654,"Ġ)":1655,"Ġind":1656,"Ġsend":1657,"Ġwatch":1658,"ital":1659,"ween":1660,"Ġsister":1661,"Ġanymore":1662,"Ġfive":1663,"Ġmarried":1664,"amp":1665,"Ġable":1666,"Ġfull":1667,"outh":1668,"hind":1669,"Ġlead":1670,"Will":1671,"Ch":1672,"Ġfa":1673,"ane":1674,"arr":1675,"sel":1676,"oon":1677,"Ġhalf":1678,"Ġleg":1679,"Ġquite":1680,"Ġreg":1681,"rought":1682,"Ġtruth":1683,"Ġlear":1684,"ĠWell":1685,"Ġeasy":1686,"Ġforget":1687,"ience":1688,"Ġ#":1689,"ene":1690,"CK":1691,"Ġteam":1692,"anger":1693,"Ġfore":1694,"Ġair":1695,"lcome":1696,"ĠDad":1697,"meric":1698,"His":1699,"Ġnumber":1700,"Ġgoes":1701,"Ġfall":1702,"Ġstud":1703,"Ġdog":1704,"AND":1705,"Ġtown":1706,"Ġtrust":1707,"Ġdied":1708,"ĠDon":1709,"ĠCl":1710,"Ġexactly":1711,"ush":1712,"ished":1713,"ok":1714,"upid":1715,"aken":1716,"Me":1717,"ĠOK":1718,"ony":1719,"fter":1720,"Ġgets":1721,"Ġfront":1722,"bs":1723,"ues":1724,"Ġbehind":1725,"Ġvis":1726,"Ġdep":1727,"Ġgod":1728,"cer":1729,"CH":1730,"Qu":1731,"Excuse":1732,"Ġgame":1733,"Ġchildren":1734,"ton":1735,"Ġbra":1736,"Ġsim":1737,"oot":1738,"Ġshoot":1739,"ĠChrist":1740,"ering":1741,"den":1742,"Ġbuy":1743,"iec":1744,"Ġbetween":1745,"Ġdisc":1746,"Ġri":1747,"Ġmill":1748,"ĠAll":1749,"Ġstre":1750,"ator":1751,"AM":1752,"Br":1753,"ĠOF":1754,"Ġsex":1755,"Ġbar":1756,"igure":1757,"AL":1758,"Ġbrought":1759,"ĠAn":1760,"rol":1761,"oor":1762,"Ġthough":1763,"Ġext":1764,"Ġsecret":1765,"br":1766,"ĠDr":1767,"God":1768,"ines":1769,"Ġfil":1770,"Ġes":1771,"Ġmed":1772,"son":1773,"Ġsn":1774,"icture":1775,"Ġtrouble":1776,"Ġcap":1777,"Ġcop":1778,"cl":1779,"Ġdet":1780,"Ġtelling":1781,"Ġland":1782,"ĠSh":1783,"Ġpri":1784,"Ġtried":1785,"ĠZ":1786,"ĠAr":1787,"Even":1788,"Ġbuild":1789,"Ġdin":1790,"Ġoffice":1791,"unt":1792,"ole":1793,"arth":1794,"ĠBE":1795,"iate":1796,"li":1797,"Ġmem":1798,"Ġmil":1799,"Ġfell":1800,"ĠON":1801,"Ġmonths":1802,"ote":1803,"ĠBut":1804,"ĠWhy":1805,"Ġexpect":1806,"Ġcouple":1807,"ĠWho":1808,"Ġalive":1809,"inc":1810,"Ġpat":1811,"Ġyours":1812,"Ġ10":1813,"Ġgirls":1814,"ĠSc":1815,"Ġline":1816,"ief":1817,"THE":1818,"Ġbecome":1819,"ined":1820,"Ġdra":1821,"ster":1822,"Ġpicture":1823,"entle":1824,"Ġdist":1825,"ĠJohn":1826,"Ġcountry":1827,"Ġneeds":1828,"ĠRe":1829,"ID":1830,"osp":1831,"ĠAmeric":1832,"Ġaren":1833,"Ġsafe":1834,"Sure":1835,"SE":1836,"Ġdest":1837,"ĠGood":1838,"ats":1839,"Ġorder":1840,"Ġfigure":1841,"Ġpull":1842,"ield":1843,"Ġwomen":1844,"âĢ":1845,"Ġalmost":1846,"Ġfood":1847,"Ġparent":1848,"Ġwind":1849,"gr":1850,"leas":1851,"oke":1852,"Our":1853,"ĠCar":1854,"Ġperfect":1855,"Ġstupid":1856,"Ġwear":1857,"Ġrid":1858,"These":1859,"oe":1860,"Um":1861,"ters":1862,"Ġsort":1863,"Ġ20":1864,"Ġhate":1865,"Ġmad":1866,"Ġseems":1867,"IGH":1868,"Ġadv":1869,"YOU":1870,"Ġrep":1871,"ĠNew":1872,"Ġanswer":1873,"Ġless":1874,"ometimes":1875,"Ġcool":1876,"?\"":1877,"Ġtrans":1878,"Ġstra":1879,"ards":1880,"Ġpast":1881,"ĠME":1882,"Ġreturn":1883,"Ġele":1884,"Would":1885,"itc":1886,"Ġgra":1887,"Ġmist":1888,"Ġmag":1889,"Ġprotect":1890,"Ġplaying":1891,"Ġquick":1892,"Ġgrand":1893,"Ġalong":1894,"Ġsmall":1895,"Ġshall":1896,"Ġsomebody":1897,"Ġeither":1898,"IM":1899,"ex":1900,"Ġdear":1901,"mp":1902,"Does":1903,"Ġtest":1904,"Ġhuman":1905,"ma":1906,"ics":1907,"Ġahead":1908,"Ġfav":1909,"rank":1910,"ract":1911,"Ġhor":1912,"After":1913,"Ġ!":1914,"fort":1915,"Ġ$":1916,"Ġpap":1917,"Ġdoctor":1918,"itting":1919,"Ġum":1920,"Ġblack":1921,"itch":1922,"ĠGr":1923,"Ġlose":1924,"Ġeverybody":1925,"AU":1926,"Ġliving":1927,"Ġsick":1928,"irth":1929,"Ġfeeling":1930,"LD":1931,"kes":1932,"Ġboys":1933,"Ġclean":1934,"Dad":1935,"idence":1936,"Ġoutside":1937,"pping":1938,"ĠWhere":1939,"ney":1940,"ley":1941,"ically":1942,"Ġsave":1943,"Ġtaken":1944,"âĻ«":1945,"Ġfunny":1946,"Ġsub":1947,"range":1948,"Ġcity":1949,"ĠCome":1950,"Ġreport":1951,"ere":1952,"ants":1953,"ead":1954,"Ġspecial":1955,"omm":1956,"Ġattack":1957,"ert":1958,"Ġcry":1959,"ility":1960,"eed":1961,"Ġhang":1962,"Ġwhatever":1963,"Ġexper":1964,"Ġadd":1965,"ĠSp":1966,"Ġrecord":1967,"oul":1968,"Ġhey":1969,"umb":1970,"ef":1971,"ots":1972,"UN":1973,"Ġdou":1974,"Ġhimself":1975,"ĠTHAT":1976,"Ġstrong":1977,"Ġcertain":1978,"Ġpar":1979,"Ġhair":1980,"Ġsix":1981,"Ġpiec":1982,"KE":1983,"Ġparents":1984,"ĠNot":1985,"Ġcomplete":1986,"ev":1987,"Man":1988,"Ġdire":1989,"Ġball":1990,"ler":1991,"alm":1992,"ular":1993,"Wow":1994,"bye":1995,"Ġcannot":1996,"Ġtw":1997,"ighs":1998,"Ġresp":1999,"Ġart":2000,"Ġleaving":2001,"uring":2002,"Ġrunning":2003,"Ġlady":2004,"Ġlaugh":2005,"Ġoffic":2006,"dle":2007,"ELL":2008,"Ġtop":2009,"Ġref":2010,"Ġpossible":2011,"selves":2012,"Ġlives":2013,"ks":2014,"artment":2015,"ĠBl":2016,"Ġdamn":2017,"ama":2018,"Sir":2019,"Ġnear":2020,"elt":2021,"ists":2022,"Ġsell":2023,"ury":2024,"ones":2025,"ĠHA":2026,"Ġinform":2027,"Ġsurpr":2028,"ĠThis":2029,"iting":2030,"ĠMrs":2031,"ept":2032,"duc":2033,"Ġpromise":2034,"Which":2035,"room":2036,"cause":2037,"Ġdinner":2038,"Ġexc":2039,"cle":2040,"Ġcontin":2041,"gy":2042,"Cl":2043,"Mom":2044,"Ġtouch":2045,"Got":2046,"Ġbirth":2047,"Ġclass":2048,"ĠMiss":2049,"RO":2050,"Ġwatc":2051,"Ġmillion":2052,"Ġmid":2053,"Ġvo":2054,"haps":2055,"ospital":2056,"Ġsense":2057,"esus":2058,"ided":2059,"TH":2060,"Very":2061,"fic":2062,"Ġshut":2063,"Ġhappens":2064,"Ġdress":2065,"Ġdanger":2066,"Dr":2067,"II":2068,"VER":2069,"Ġserious":2070,"ALL":2071,"Ġmeeting":2072,"ides":2073,"ĠLet":2074,"eter":2075,"ature":2076,"Ġanyway":2077,"aul":2078,"ision":2079,"Ġlie":2080,"Ġ19":2081,"ized":2082,"Ġscared":2083,"Ġfast":2084,"Ġthanks":2085,"ten":2086,"Ġasking":2087,"Ġimag":2088,"ĠSe":2089,"joy":2090,"ĠDO":2091,"Ġfre":2092,"Ġterri":2093,"Ġship":2094,"ĠAre":2095,"TER":2096,"ai":2097,"Ġ6":2098,"Ġgentle":2099,"eth":2100,"Ġshouldn":2101,"ows":2102,"Ġseem":2103,"Ġcontrol":2104,"Ġkiss":2105,"\".":2106,"Hold":2107,"Ġbull":2108,"Ġcold":2109,"ĠAND":2110,"ĠMy":2111,"erv":2112,"Ġaff":2113,"Ġsold":2114,"Ġexplain":2115,"Ġdrive":2116,"Ġstar":2117,"Ġ--":2118,"Ġwords":2119,"ĠGO":2120,"Keep":2121,"Was":2122,"used":2123,"gan":2124,"bb":2125,"Ġcol":2126,"Two":2127,"ction":2128,"ities":2129,"Ġsong":2130,"Sp":2131,"airs":2132,"aptain":2133,"Ġboss":2134,"Ġkey":2135,"Ġten":2136,"olute":2137,"Ġcompany":2138,"cc":2139,"stem":2140,"arry":2141,"sy":2142,"Ġtreat":2143,"Ġhospital":2144,"Ġbeat":2145,"Ġsus":2146,"Ġpress":2147,"Everything":2148,"ĠYour":2149,"ĠMom":2150,"Ġfool":2151,"Ġru":2152,"From":2153,"Ġeng":2154,"Ġclos":2155,"Ġpos":2156,"ĠThey":2157,"ming":2158,"Ġbag":2159,"Un":2160,"Ġlonger":2161,"Ã©":2162,"Ġthrow":2163,"Ġlock":2164,"Ġroad":2165,"Only":2166,"Che":2167,"ĠST":2168,"ency":2169,"rence":2170,"Ġbitch":2171,"Pe":2172,"Ġtrain":2173,"Ġphot":2174,"ys":2175,"Ġinvest":2176,"uture":2177,"Ġfly":2178,"Ġpub":2179,"amer":2180,"ĠJust":2181,"ze":2182,"Ġbegin":2183,",\"":2184,"Ġstep":2185,"lo":2186,"ution":2187,"ape":2188,"LY":2189,"ĠIS":2190,"Ġfelt":2191,"Ġoh":2192,"Ġknown":2193,"\"?":2194,"Ġbas":2195,"oose":2196,"ift":2197,"Ġstate":2198,"aur":2199,"Put":2200,"Ġ.":2201,"Ġmurder":2202,"Ġred":2203,"Ġdark":2204,"Ġbreat":2205,"Ġtot":2206,"ries":2207,"Fuck":2208,"sc":2209,"Ġsqu":2210,"hose":2211,"Ġstraight":2212,"Per":2213,"ces":2214,"Ġdisapp":2215,"Ġglad":2216,"illy":2217,"ative":2218,"aces":2219,"ially":2220,"Ġ9":2221,"ific":2222,"Could":2223,"Ġdi":2224,"Ġhoney":2225,"Ġentire":2226,"By":2227,"roy":2228,"azing":2229,"Ġ7":2230,"Ġord":2231,"fess":2232,"Gu":2233,"ges":2234,"inal":2235,"zz":2236,"Ġvict":2237,"adies":2238,"Ġfix":2239,"Ġmark":2240,"lex":2241,"irt":2242,"ging":2243,"Ġesc":2244,"vern":2245,"Ġfoot":2246,"omb":2247,"Ġfault":2248,"Bye":2249,"Ġothers":2250,"Mar":2251,"Ġweird":2252,"Ġcalling":2253,"Ġfuture":2254,"ĠChar":2255,"dd":2256,"Ġgrow":2257,"Ġloc":2258,"Am":2259,"lie":2260,"Ġeye":2261,"Tr":2262,"aven":2263,"ider":2264,"Ġweeks":2265,"erc":2266,"Ġallow":2267,"Ġcatch":2268,"Ġpur":2269,"ĠDan":2270,"Ġwall":2271,"ĠCan":2272,"Ġabs":2273,"rap":2274,"Ġworth":2275,"Ġwed":2276,"Ġsystem":2277,"Ġserv":2278,"reen":2279,"Ġcreat":2280,"Help":2281,"atur":2282,"Mm":2283,"ully":2284,"Ġshort":2285,"Ġprison":2286,"Ġexp":2287,"Ġopp":2288,"nie":2289,"IR":2290,"ĠLord":2291,"Ab":2292,"Ġcent":2293,"ffee":2294,"Ġ8":2295,"Ġchanged":2296,"Ġris":2297,"Ġran":2298,"mit":2299,"Ġring":2300,"Ġanybody":2301,"Ġrock":2302,"eor":2303,"Nice":2304,"ĠCha":2305,"no":2306,"Ġdeep":2307,"Ġfeet":2308,"Ġcond":2309,"IGHT":2310,"Ġsuper":2311,"Ġ..":2312,"fer":2313,"Ġbox":2314,"Her":2315,"Ġfavor":2316,"inite":2317,"ae":2318,"ĠThere":2319,"Ġvoice":2320,"Ġsun":2321,"Ġ*":2322,"olutely":2323,"esty":2324,"Ġsomewhere":2325,"uation":2326,"oof":2327,"Ġdev":2328,"Ġlooked":2329,"Ġdrug":2330,"Something":2331,"Ġsol":2332,"ĠJack":2333,"Ġmeant":2334,"Ġpleas":2335,"key":2336,"Ġworked":2337,"eaking":2338,"urry":2339,"Ġbud":2340,"Ġdate":2341,"Huh":2342,"ĠGo":2343,"ounds":2344,"Ġbott":2345,"Ġturned":2346,"Ġbur":2347,"Ġseeing":2348,"la":2349,"Great":2350,"ĠTo":2351,"Ġrad":2352,"ational":2353,"ments":2354,"Ġones":2355,"sing":2356,"ode":2357,"ech":2358,"Ġhappening":2359,"bo":2360,"arling":2361,"AD":2362,"Ġz":2363,"Sc":2364,"Ġclot":2365,"Ġdem":2366,"Ġking":2367,"eave":2368,"Fine":2369,"een":2370,"Ġfinally":2371,"Say":2372,"Ne":2373,"Ġlearn":2374,"but":2375,"alt":2376,"ĠMan":2377,"Ġarri":2378,"ray":2379,"ru":2380,"enny":2381,"Ġloved":2382,"Ġtre":2383,"Ġmouth":2384,"Ġgener":2385,"Ġdance":2386,"uckles":2387,"Ġtill":2388,"Ġpiece":2389,"Ġty":2390,"Ġground":2391,"Ġrather":2392,"Whoa":2393,"Ġspend":2394,"ANT":2395,"Ġtem":2396,"erry":2397,"ele":2398,"ĠWill":2399,"Ġgiven":2400,".'":2401,"ana":2402,"Ġwrite":2403,"Ġmoving":2404,"Never":2405,"Isn":2406,"Rem":2407,"rec":2408,"ĠEng":2409,"Ġquiet":2410,"Ġtakes":2411,"ĠHi":2412,"ked":2413,"Ġweren":2414,"rat":2415,"Ġquestions":2416,"ron":2417,"ior":2418,"Ġwhite":2419,"IE":2420,"ousand":2421,"oint":2422,"Ġcur":2423,"ories":2424,"urity":2425,"UR":2426,"Ġsmell":2427,"Ġcook":2428,"Ġworks":2429,"nect":2430,"bers":2431,"terday":2432,"Those":2433,"els":2434,"uk":2435,"People":2436,"EE":2437,"Ġchoice":2438,"Ġpoor":2439,"ages":2440,"Ġevening":2441,"ians":2442,"Pro":2443,"well":2444,"Stay":2445,"Ġang":2446,"Ġrespect":2447,"Ġarrest":2448,"ĠMaj":2449,"Ġeff":2450,"icha":2451,"NOW":2452,"icks":2453,"Cause":2454,"now":2455,"Ġoper":2456,"ĠWh":2457,"Ġenjoy":2458,"...?":2459,"Hmm":2460,"iot":2461,"Ġanim":2462,"Ġer":2463,"ilt":2464,"Ġpresent":2465,"Ġve":2466,"Ġconcer":2467,"Ġhist":2468,"Ġlucky":2469,"Bl":2470,"Ġworried":2471,"OME":2472,"Ġamazing":2473,"ara":2474,"ION":2475,"Ġaccept":2476,"Ġwedding":2477,"ives":2478,"oman":2479,"iff":2480,"CE":2481,"Ġweap":2482,"Ġprep":2483,"lish":2484,"OD":2485,"erve":2486,"Ġwatching":2487,"ills":2488,"Ġearly":2489,"Ġnobody":2490,"bt":2491,"ĠTom":2492,"Ġneeded":2493,"Ġcell":2494,"ĠRo":2495,"Ġgiving":2496,"May":2497,"elf":2498,"Ġfail":2499,"Ġkept":2500,"Damn":2501,"ĠPr":2502,"initely":2503,"Ġdro":2504,"let":2505,"Ġsounds":2506,"Ġcover":2507,"Ġaccident":2508,"that":2509,"Ġcoffee":2510,"ls":2511,"ĠHE":2512,"Ġmarry":2513,"Ġnorm":2514,"Ġsto":2515,"First":2516,"Ġcost":2517,"Ġfear":2518,"Ġhid":2519,"ky":2520,"Ġya":2521,"ĠAd":2522,"ately":2523,"Ġpersonal":2524,"Ġcourt":2525,"ean":2526,"orth":2527,"ken":2528,"undred":2529,"Ġwelcome":2530,"ism":2531,"Ġsuc":2532,"Ġmistake":2533,"Ġfair":2534,"Ġdecided":2535,"UST":2536,"Ġmis":2537,"ichael":2538,"Ġproper":2539,"Ġmovie":2540,"Ġbusy":2541,"Gr":2542,"Ġill":2543,"bert":2544,"Ġmissing":2545,"Tom":2546,"Ġsad":2547,"Ġthousand":2548,"Shut":2549,"Ġpriv":2550,"udden":2551,"unity":2552,"Ġmod":2553,"Ġhung":2554,"Ġbank":2555,"Ġla":2556,"Ġjud":2557,"Ġkidding":2558,"Ġcre":2559,"Act":2560,"ball":2561,"pper":2562,"viously":2563,"Ġbirthday":2564,"ched":2565,"ĠWE":2566,"Ġconv":2567,"oming":2568,"Ġworse":2569,"ured":2570,"fully":2571,"Ġdestroy":2572,"ĠEx":2573,"Ġhonest":2574,"ĠFOR":2575,"Ġclothes":2576,"go":2577,"Ġdoll":2578,"what":2579,"Ġinformation":2580,"ruct":2581,"Ġhop":2582,"Ġrequ":2583,"work":2584,"Ġbuilding":2585,"Ġtired":2586,"Ġcaught":2587,"roup":2588,"aughs":2589,"Shit":2590,"ĠLe":2591,"Leave":2592,"rill":2593,"Ġ15":2594,"ules":2595,"RA":2596,"Ġed":2597,"CT":2598,"Ġmurd":2599,"ILL":2600,"Ġcir":2601,"Ġpack":2602,"ĠTV":2603,"iol":2604,"Ġma":2605,"Ġride":2606,"Ġrelations":2607,"alking":2608,"US":2609,"Ġinvol":2610,"Ġwonderful":2611,"Ġca":2612,"ĠFor":2613,"Ġrespons":2614,"Ġmessage":2615,"avid":2616,"ced":2617,"Ar":2618,"Ġgold":2619,"ĠBe":2620,"ror":2621,"oud":2622,"ov":2623,"Ġbast":2624,"Ġjoin":2625,"Make":2626,"Ġevidence":2627,"Ġcompletely":2628,"Sha":2629,"hmm":2630,"Ġsear":2631,"ĠGet":2632,"Ġvisit":2633,"friend":2634,"ĠFr":2635,"Ġsoul":2636,"amed":2637,"Everyone":2638,"Someone":2639,"Ġsituation":2640,"light":2641,"Ġpatient":2642,"HO":2643,"ĠKing":2644,"Ġstreet":2645,"hel":2646,"iter":2647,"ĠHello":2648,"Ġform":2649,"ĠQ":2650,"Ġgovern":2651,"Ġfinish":2652,"cell":2653,"Ġblow":2654,"Ha":2655,"MAN":2656,"Ġcamer":2657,"Ġcross":2658,"Ġenem":2659,"Ġsometimes":2660,"En":2661,"ĠDid":2662,"ices":2663,"Ġinvestig":2664,"Nobody":2665,"Ġhundred":2666,"ITH":2667,"ĠSam":2668,"Ġtrack":2669,"ĠWAS":2670,"Ġdiv":2671,"Ġtable":2672,"ted":2673,"Ġsingle":2674,"Ġpublic":2675,"Ġswear":2676,"ĠTHIS":2677,"wards":2678,"min":2679,"ĠYork":2680,"sp":2681,"Miss":2682,"ĠHER":2683,"Ġinf":2684,"Ġpeace":2685,"Ġ12":2686,"Ġcareful":2687,"Ġdangerous":2688,"Ġfing":2689,"acy":2690,"enty":2691,"ĠBar":2692,"ni":2693,"Ġage":2694,"Ġdrop":2695,"Ġstrange":2696,"que":2697,"resident":2698,"Ġpop":2699,"Ġdiffic":2700,"Ġburn":2701,"ese":2702,"idge":2703,"lfriend":2704,"irty":2705,"Ġlying":2706,"irlfriend":2707,"Ġsoc":2708,"riage":2709,"attle":2710,"ander":2711,"Ġsurv":2712,"Ġfish":2713,"aged":2714,"Call":2715,"gn":2716,"gu":2717,"Ġmiddle":2718,"Ġvictim":2719,"Ġcamp":2720,"Ġconnect":2721,"Ġpaper":2722,"Pl":2723,"che":2724,"ius":2725,"uts":2726,"Ġcontact":2727,"Ġcarry":2728,"ONE":2729,"Ġuni":2730,"Ġoffer":2731,"Ġhasn":2732,"NA":2733,"Ġborn":2734,"Ġsal":2735,"une":2736,"ective":2737,"Hurry":2738,"Ġbroke":2739,"Ġsum":2740,"ĠFrank":2741,"Ġmot":2742,"Ġ30":2743,"acher":2744,"Ġhistory":2745,"Remember":2746,"ENT":2747,"Ġacross":2748,"how":2749,"Ġstri":2750,"Ġexam":2751,"for":2752,"Ġgentlemen":2753,"Ġyesterday":2754,"vo":2755,"Ġcard":2756,"Ġmention":2757,"set":2758,"read":2759,"AUGH":2760,"ures":2761,"Ġbath":2762,"Ġmach":2763,"Move":2764,"mas":2765,"ional":2766,"Ġapolog":2767,"itness":2768,"urch":2769,"Ġpaid":2770,"OH":2771,"ĠLI":2772,"ume":2773,"ĠInd":2774,"Ġfinished":2775,"Ġhero":2776,"ĠGu":2777,"Ġletter":2778,"Ġslow":2779,"Ġtast":2780,"Actually":2781,"uri":2782,"Ġthinks":2783,"Ġpract":2784,"Should":2785,"atic":2786,"Ġrece":2787,"Ġtalked":2788,"roud":2789,"Didn":2790,"Ġsil":2791,"ires":2792,"Ġsudden":2793,"....":2794,"WE":2795,"rect":2796,"Ġpot":2797,"Ġjump":2798,"Ġanywhere":2799,"iny":2800,"ears":2801,"Ġvill":2802,"Ġcat":2803,"Ġusing":2804,"ĠSha":2805,"ains":2806,"Ġdifficult":2807,"ĠMY":2808,"ĠChe":2809,"omp":2810,"Whatever":2811,"Ġfloor":2812,"Ġhandle":2813,"Ġforever":2814,"ager":2815,"Ġsuppose":2816,"ris":2817,"Ġbrain":2818,"Ġhide":2819,"ĠOf":2820,"Ġroll":2821,"iam":2822,"Ġlist":2823,"ored":2824,"tern":2825,"Ġtick":2826,"Ġsimple":2827,"ili":2828,"ulations":2829,"ighb":2830,"Since":2831,"ĠMc":2832,"Ġstation":2833,"Ġdrunk":2834,"Ġsupport":2835,"Ġsea":2836,"Ġround":2837,"Ok":2838,"Ġduring":2839,"Ġlab":2840,"ission":2841,"Ġbelong":2842,"Welcome":2843,"ĠAm":2844,"icking":2845,"olly":2846,"uge":2847,"Ġarm":2848,"RI":2849,"Ġtotally":2850,"Ġself":2851,"ĠAs":2852,"ucks":2853,"uel":2854,"enn":2855,"Ġdirect":2856,"Ġterrible":2857,"Ġhurry":2858,"Ġwake":2859,"do":2860,"Ġthreat":2861,"itive":2862,"ĠRight":2863,"view":2864,"ĠYOUR":2865,"Ġsaved":2866,"ring":2867,"Ġgirlfriend":2868,"Ġsitting":2869,"tle":2870,"ently":2871,"Ġagree":2872,"Ġappro":2873,"OP":2874,"hol":2875,"eorge":2876,"ching":2877,"noc":2878,"ĠNOT":2879,"ĠPar":2880,"stairs":2881,"Ġtrip":2882,"avy":2883,"ossible":2884,"Ġnormal":2885,"Ġstick":2886,"Ooh":2887,"Ġpost":2888,"Ġbought":2889,"Ġkick":2890,"owers":2891,"ald":2892,"Ġforgot":2893,"Ġspace":2894,"ĠMajesty":2895,"llen":2896,"Car":2897,"ino":2898,"Ġblue":2899,"OULD":2900,"Ġtur":2901,"Ġsecurity":2902,"RY":2903,"Ġsteal":2904,"night":2905,"Ġneighb":2906,"Ġval":2907,"ĠKNOW":2908,"yer":2909,"Ġearth":2910,"ĠÂ¶":2911,"rench":2912,"Ġarea":2913,"Ġglass":2914,"ĠPh":2915,"Ġdarling":2916,"Think":2917,"Ġproblems":2918,"Ġfield":2919,"ĠEd":2920,"Ġcharge":2921,"ongrat":2922,"Ġdefinitely":2923,"ns":2924,"Ġmain":2925,"ĠHAVE":2926,"ulous":2927,"Looks":2928,"Ġbother":2929,"Ġice":2930,"Ġfilm":2931,"Ġsat":2932,"Ġ100":2933,"Ġproud":2934,"time":2935,"Ġcrime":2936,"ogn":2937,"Everybody":2938,"Ġir":2939,"ĠCaptain":2940,"Ġstopped":2941,"!\"":2942,"Ġangry":2943,"inct":2944,"Three":2945,"reet":2946,"Ġsuff":2947,"Ġeight":2948,"Ġdare":2949,"ĠAb":2950,"Ġlunch":2951,"Ġwearing":2952,"astic":2953,"ĠGer":2954,"Ġtor":2955,"Ġlar":2956,"Ġinterested":2957,"Ġsmart":2958,"ination":2959,"ium":2960,"oly":2961,"Ġhorse":2962,"Ġfill":2963,"Ġmissed":2964,"Ġgroup":2965,"Ġsugg":2966,"Ġemp":2967,"About":2968,"Ġhotel":2969,"Ġkilling":2970,"Ġsuggest":2971,"gent":2972,"Ġstore":2973,"just":2974,"Ġinteresting":2975,"Ġcust":2976,"Ġgas":2977,"Ġcalls":2978,"amb":2979,"PP":2980,"noon":2981,"Ġrelationship":2982,"'?":2983,"Ġladies":2984,"uty":2985,"ĠLook":2986,"ounc":2987,"NO":2988,"Ġbase":2989,"Ġtech":2990,"uter":2991,"ĠMe":2992,"Ġchick":2993,"Ġpun":2994,"Ġscream":2995,"Sit":2996,"Ġgen":2997,"Ġimagine":2998,"Ġforce":2999,"Ġbuddy":3000,"Ġemb":3001,"Ġposition":3002,"Ġmagic":3003,"Ġocc":3004,"ĠMin":3005,"ĠIf":3006,"ĠAt":3007,"Ġscene":3008,"Ġhy":3009,"Anyway":3010,"Try":3011,"over":3012,"OUT":3013,"iday":3014,"Ġclub":3015,"of":3016,"Ġpray":3017,"mediate":3018,"gue":3019,"KING":3020,"cent":3021,"ugg":3022,"oday":3023,"ĠEarth":3024,"Ġiss":3025,"oring":3026,"Ġaccount":3027,"ĠThanks":3028,"Ġcirc":3029,"Ġseven":3030,"ĠCol":3031,"ĠAmerican":3032,"ĠPro":3033,"Ġcas":3034,"ĠTr":3035,"ĠPresident":3036,"Ġequ":3037,"Ġlovely":3038,"Ġboat":3039,"lin":3040,"Ġbird":3041,"Ġimmediate":3042,"Ġboyfriend":3043,"Ġest":3044,"hard":3045,"ived":3046,"Ġexcuse":3047,"Ġservice":3048,"Ġidiot":3049,"Open":3050,"Ġseat":3051,"Ġfat":3052,"oun":3053,"reed":3054,"hys":3055,"âĢĵ":3056,"Ġviol":3057,"uro":3058,"Ġinstead":3059,"Ġshare":3060,"Ġscrew":3061,"Ġforward":3062,"aff":3063,"Ġpal":3064,"ancy":3065,"Perhaps":3066,"cri":3067,"Ġgovernment":3068,"Ġextra":3069,"UCK":3070,"Ġmarriage":3071,"Ġapartment":3072,"aim":3073,"Ġseconds":3074,"Ġstanding":3075,"ĠMart":3076,"ĠNE":3077,"Ġplane":3078,"John":3079,"Ġcause":3080,"Ġcalm":3081,"Ġdraw":3082,"Ġsuspect":3083,"Ġspent":3084,"Ġinvolved":3085,"Ġapprec":3086,"Ġbeha":3087,"Ġprop":3088,"ĠComm":3089,"ĠSir":3090,"ĠCon":3091,"ĠOn":3092,"ails":3093,"line":3094,"Ġbomb":3095,"ending":3096,"Over":3097,"Watch":3098,"Ġwitness":3099,"onel":3100,"Ġtea":3101,"Ġdiscuss":3102,"Ġmiles":3103,"Ġwindow":3104,"Ġrecogn":3105,"ĠAmerica":3106,"hood":3107,"Once":3108,"LA":3109,"ĠEl":3110,"Ġrob":3111,"Ġspir":3112,"Ġsuccess":3113,"itten":3114,"ĠMad":3115,"Ġquickly":3116,"ka":3117,"Ġgift":3118,"irm":3119,"Ġmir":3120,"ica":3121,"Ġafternoon":3122,"Ġtele":3123,"Ġbastard":3124,"Ġrich":3125,"Ġsurprise":3126,"ern":3127,"Ġrealize":3128,"Ġdoubt":3129,"elebr":3130,"Ġliked":3131,"ĠWITH":3132,"ffic":3133,"yn":3134,"Jesus":3135,"Ġband":3136,"ĠPaul":3137,"ibility":3138,"mb":3139,"Ġsake":3140,"ption":3141,"LO":3142,"ĠMa":3143,"ĠBen":3144,"ĠUn":3145,"Ġbill":3146,"Ġloves":3147,"Ġdying":3148,"Ġlow":3149,"ecially":3150,"Ġdanc":3151,"verse":3152,"aced":3153,"unting":3154,"Ġdeli":3155,"cha":3156,"uit":3157,"Ġbecame":3158,"Ġalright":3159,"ising":3160,"ien":3161,"Ġpartic":3162,"Ġlikes":3163,"het":3164,"gel":3165,"Ġimpress":3166,"por":3167,"'.":3168,"Ġpen":3169,"Ġjoke":3170,"oop":3171,"ĠJim":3172,"bed":3173,"Ġmaster":3174,"ĠNow":3175,"like":3176,"ĠSH":3177,"ongratulations":3178,"Ġlived":3179,"Ġann":3180,"Ġfighting":3181,"ining":3182,"ĠWHAT":3183,"Ġfeels":3184,"Ġheal":3185,"Ġoften":3186,"Ġbroken":3187,"eve":3188,"ege":3189,"Ġjail":3190,"Ġ50":3191,"ibly":3192,"ĠBob":3193,"Bet":3194,"ĠDON":3195,"Ġclient":3196,"Ġelect":3197,"ral":3198,"ĠJoe":3199,"Ġble":3200,"Ġda":3201,"ified":3202,"Char":3203,"ended":3204,"resh":3205,"Ġlevel":3206,"damn":3207,"aint":3208,"Ser":3209,"Ġbear":3210,"Ġprofess":3211,"gram":3212,"ĠCAN":3213,"ajor":3214,"ĠHere":3215,"Ġfur":3216,"ĠMay":3217,"Ġwrote":3218,"Ġdecision":3219,"Ġlay":3220,"PS":3221,"Ġmoved":3222,"ĠChristmas":3223,"LES":3224,"Ġtree":3225,"Ġpsy":3226,"ĠOr":3227,"gar":3228,"uthor":3229,"yle":3230,"igg":3231,"ĠOne":3232,"Ġhungry":3233,"Ġupset":3234,"Alright":3235,"Ad":3236,"enry":3237,"Ġcomfort":3238,"Ġmachine":3239,"Ġ18":3240,"Ġwalking":3241,"Ġboard":3242,"esides":3243,"Ġwithin":3244,"ify":3245,"Ġcertainly":3246,"Ġcelebr":3247,"ĠFather":3248,"asy":3249,"Ġreach":3250,"Ġattention":3251,"Ġwood":3252,"âĢİ":3253,"ĠHar":3254,"Ġconst":3255,"eng":3256,"Ġexist":3257,"ncle":3258,"Ġpolit":3259,"lt":3260,"Ġdam":3261,"Ġdriving":3262,"ya":3263,"uce":3264,"Ġpresident":3265,"WHAT":3266,"itchen":3267,"Ġaddress":3268,"Ġkiller":3269,"Ġplanet":3270,"Cle":3271,"Ġlim":3272,"Ġnecess":3273,"Ġforgive":3274,"**":3275,"Ġhuge":3276,"hole":3277,"Ġtar":3278,"ĠWhen":3279,"ploy":3280,"lor":3281,"Ġguest":3282,"Ġorgan":3283,"Ġdig":3284,"THAT":3285,"itor":3286,"duct":3287,"More":3288,"Today":3289,"Ġneck":3290,"eneral":3291,"nal":3292,"Ġarmy":3293,"Ġbeginning":3294,"Ġstarting":3295,"pens":3296,"ĠARE":3297,"ument":3298,"Ġprove":3299,"Sometimes":3300,"Ġmount":3301,"Ġtough":3302,"Ġeating":3303,"ĠLO":3304,"wise":3305,"ĠCH":3306,"HER":3307,"Next":3308,"Ġdude":3309,"Ġyell":3310,"Ġsens":3311,"Ġcab":3312,"heart":3313,"Ġpark":3314,"Ġmission":3315,"Ġmass":3316,"Ġprivate":3317,"Ġcamera":3318,"Ġident":3319,"Ġabsolutely":3320,"Î¿":3321,"Ġshar":3322,"appy":3323,"Ġhonor":3324,"Ġpleasure":3325,"Ġknock":3326,"lier":3327,"rey":3328,"ham":3329,"uke":3330,"Ġperform":3331,"ĠJesus":3332,"50":3333,"ches":3334,"ĠMor":3335,"ĠSu":3336,"Ġwhether":3337,"ĠAh":3338,"Mmm":3339,"Ġthird":3340,"IST":3341,"Out":3342,"Mrs":3343,"phone":3344,"Ġteach":3345,"RUN":3346,"Ġcow":3347,"Ġradio":3348,"ishing":3349,"ends":3350,"Ġdifference":3351,"Ġprov":3352,"omes":3353,"Ġweak":3354,"Ġfeed":3355,"Before":3356,"Ġimpossible":3357,"ĠJo":3358,"Love":3359,"ĠUh":3360,"ergy":3361,"aked":3362,"30":3363,"Ġremind":3364,"ita":3365,"ened":3366,"year":3367,"Ġlawyer":3368,"bel":3369,"ram":3370,"ĠFran":3371,"Ġconvers":3372,"Ġnone":3373,"Ġjour":3374,"ĠEm":3375,"Ġcrack":3376,"ĠGET":3377,"eared":3378,"Ġrules":3379,"Turn":3380,"arm":3381,"icated":3382,"ND":3383,"za":3384,"ca":3385,"ox":3386,"Ġaut":3387,"Ġmatch":3388,"Ġpartner":3389,"GE":3390,"Ġholding":3391,"ĠOUT":3392,"Ġinnoc":3393,"Ġbell":3394,"ĠFrench":3395,"ĠEnglish":3396,"Ġenemy":3397,"Ġstuck":3398,"Anything":3399,"Ġofficer":3400,"uzz":3401,"erm":3402,"Ġexcept":3403,"ording":3404,"Ġdesign":3405,"Ġspot":3406,"Ġimmediately":3407,"yl":3408,"Ġexperience":3409,"ises":3410,"Ġegg":3411,"ki":3412,"Ġchoose":3413,"Ġtravel":3414,"Ġfaith":3415,"roll":3416,"LING":3417,"Bring":3418,"ĠWas":3419,"nel":3420,"Ġide":3421,"ena":3422,"Ġunc":3423,"Ġevil":3424,"DO":3425,"geant":3426,"Ġnamed":3427,"ĠÃ":3428,"SO":3429,"off":3430,"Ġpassed":3431,"law":3432,"Ġtrick":3433,"Ġpromised":3434,"Ġsac":3435,"host":3436,"de":3437,"Ġgay":3438,"...\"":3439,"Ġste":3440,"Ġant":3441,"duce":3442,"bit":3443,"Ġstaying":3444,"TO":3445,"ply":3446,"Still":3447,"ĠUS":3448,"Ġfinal":3449,"ids":3450,"Ġshop":3451,"Ġprec":3452,"Ġdreams":3453,"ERS":3454,"icide":3455,"Ġhi":3456,"under":3457,"Ġquit":3458,"uten":3459,"Ġconsider":3460,"Ġvide":3461,"Ġescape":3462,"Ġblock":3463,"fet":3464,"Ġupon":3465,"ĠDavid":3466,"Ġtype":3467,"ondon":3468,"ĠHigh":3469,"bl":3470,"Ġnatur":3471,"Ġrisk":3472,"Ġshoes":3473,"iculous":3474,"Ġwine":3475,"ato":3476,"aching":3477,"Ġrace":3478,"ppy":3479,"ucker":3480,"Ġblind":3481,"Ġcontinue":3482,"inary":3483,"sec":3484,"ĠQu":3485,"ervous":3486,"Ġbab":3487,"Ġworst":3488,"Ġarms":3489,"Ġcash":3490,"Ġspeaking":3491,"Ġcollege":3492,"ĠUP":3493,"Ġpictures":3494,"Back":3495,"Ġphys":3496,"Ġkitchen":3497,"Ġteacher":3498,"Ġgives":3499,"CRE":3500,"Ġdirty":3501,"itted":3502,"Ġsuit":3503,"Ġappreciate":3504,"Aw":3505,"ĠCharlie":3506,"Ġlt":3507,"Ġok":3508,"Ġwaste":3509,"ĠMike":3510,"Ġbattle":3511,"Sm":3512,"ĠâĻ«":3513,"Ġsand":3514,"Ġsleeping":3515,"Ġguard":3516,"Ġaud":3517,"reme":3518,"unts":3519,"itary":3520,"Ġlistening":3521,"iced":3522,"eral":3523,"iew":3524,"apan":3525,"ueen":3526,"ĠReally":3527,"Ġcops":3528,"Ġallowed":3529,"ĠSer":3530,"Ġcorrect":3531,"osh":3532,"Ġprice":3533,"ĠALL":3534,"Ġgar":3535,"Ġpregn":3536,"ology":3537,"Ġlearned":3538,"esome":3539,"Ġwhoa":3540,"Ġrain":3541,"Ġtight":3542,"FFFF":3543,"Ġcomputer":3544,"Ġmate":3545,"Ġcrying":3546,"Ġengine":3547,"wood":3548,"Ġresult":3549,"Ġeh":3550,"ached":3551,"Ġwarm":3552,"Ġheaven":3553,"Ġputting":3554,"AKE":3555,"Ġfort":3556,"urs":3557,"Ġsky":3558,"Ġskin":3559,"AB":3560,"Ġcute":3561,"Ġchallen":3562,"RUNT":3563,"Ġcharac":3564,"Ġ11":3565,"Ġenergy":3566,"Ġwild":3567,"Ġcollect":3568,"Last":3569,"Ġpiss":3570,"Ġrelax":3571,"Ġopport":3572,"UM":3573,"Ġchurch":3574,"Ġourselves":3575,"Ġbuilt":3576,"Ġorders":3577,"Ġfeelings":3578,"Dan":3579,"Ġdrugs":3580,"Ġuncle":3581,"Ġhost":3582,"iles":3583,"iment":3584,"Ġperhaps":3585,"Ġthemselves":3586,"velop":3587,"Ġintro":3588,"can":3589,"Ġnervous":3590,"ĠAB":3591,"ĠDe":3592,"ners":3593,"ART":3594,"ivil":3595,"Ġsword":3596,"ping":3597,"Ġrev":3598,"asc":3599,"utenant":3600,"iety":3601,"ĠGrand":3602,"Ġhello":3603,"ĠJames":3604,"Ġemer":3605,"Ġtruck":3606,"Aah":3607,"Ġauthor":3608,"ĠMichael":3609,"Ġdel":3610,"Ġspl":3611,"iers":3612,"Ġclaim":3613,"Ġtarget":3614,"Ġfired":3615,"gency":3616,"Ġblame":3617,"Ġcrim":3618,"yan":3619,"Ġpicked":3620,"Ġweapon":3621,"ACK":3622,"Want":3623,"Ġowe":3624,"ĠAT":3625,"ĠGeorge":3626,"arently":3627,"Too":3628,"Ġ,":3629,"Ġclosed":3630,"ĠHERE":3631,"Ġeverywhere":3632,"Ġhall":3633,"cking":3634,"Ġsearch":3635,"ĠAS":3636,"Ġhadn":3637,"Ġsight":3638,"Ġbooks":3639,"ĠWait":3640,"bing":3641,"Ġcal":3642,"Ġherself":3643,"Ġvillage":3644,"Ġnames":3645,"ands":3646,"rowd":3647,"Ġdollars":3648,"ule":3649,"Ġremain":3650,"ĠLee":3651,"Ġcrap":3652,"Ġpressure":3653,"gest":3654,"house":3655,"Ġarrived":3656,"chan":3657,"rog":3658,"Somebody":3659,"fast":3660,"gin":3661,"IND":3662,"aring":3663,"Ġhol":3664,"Con":3665,"IL":3666,"ĠMm":3667,"ĠLuc":3668,"ades":3669,"ĠSm":3670,"Ġview":3671,"ĠParis":3672,"Ġearlier":3673,"Mother":3674,"aret":3675,"ĠLIKE":3676,"imate":3677,"Ġbigger":3678,"Ġden":3679,"ĠNO":3680,"Father":3681,"Ġrese":3682,"ĠJUST":3683,"uly":3684,"Ġwilling":3685,"Forget":3686,"Ġprogram":3687,"Ġisland":3688,"Ġseriously":3689,"Ġevent":3690,"otten":3691,"Ġtaste":3692,"pin":3693,"Ġmajor":3694,"ichard":3695,"ĠHis":3696,"Ġrestaur":3697,"Ġcustom":3698,"ĠJul":3699,"Le":3700,"ances":3701,"Ġlaughing":3702,"Ġthr":3703,"Ġneg":3704,"ĠLou":3705,"Ġtour":3706,"ata":3707,"gain":3708,"Ġdecide":3709,"ĠAlex":3710,"eff":3711,"ĠSO":3712,"shit":3713,"Ġaction":3714,"ille":3715,"dom":3716,"iant":3717,"Ġchat":3718,"Ġridiculous":3719,"fortun":3720,"Ġcast":3721,"Ġcred":3722,"ĠPlease":3723,"though":3724,"Ġcontract":3725,"Ġjudge":3726,"Has":3727,"fit":3728,"olice":3729,"Honey":3730,"ĠLondon":3731,"Ġplayed":3732,"Ġfurther":3733,"Ġlocked":3734,"Ġfinger":3735,"10":3736,"huh":3737,"Ġfresh":3738,"ask":3739,"ceed":3740,"Ġplaces":3741,"Ġpush":3742,"Ġhelped":3743,"Ġapart":3744,"ĠHave":3745,"ement":3746,"icle":3747,"Ġdrinking":3748,"ero":3749,"Ġfol":3750,"Ġmoon":3751,"Ġfant":3752,"Ġspirit":3753,"EM":3754,"Ġvol":3755,"Ġbrothers":3756,"Ġchair":3757,"arrass":3758,"sighs":3759,"Ġways":3760,"isa":3761,"Under":3762,"ĠWith":3763,"erk":3764,"aning":3765,"Aren":3766,"stood":3767,"Ġsoft":3768,"Ġplans":3769,"ipe":3770,"col":3771,"Ġmedic":3772,"lect":3773,"Ġstreng":3774,"Ġfoc":3775,"ads":3776,"Ġstole":3777,"angu":3778,"Ġfit":3779,"Ġproject":3780,"Ġinnocent":3781,"Run":3782,"con":3783,"Ġfavorite":3784,"Ġwriting":3785,"EAH":3786,"ĠDaddy":3787,"Ġsle":3788,"olf":3789,"ini":3790,"epar":3791,"Ġdeserve":3792,"aded":3793,"ilty":3794,"oned":3795,"Ġnotice":3796,"ĠRIGHT":3797,"oger":3798,"Ġflight":3799,"Ġlegs":3800,"Ġsummer":3801,"Ġ40":3802,"Ġswim":3803,"ĠDoctor":3804,"Ġadm":3805,"Ġabove":3806,"ĠBrit":3807,"val":3808,"ĠPl":3809,"va":3810,"Ġhook":3811,"ĠGreat":3812,"Ġorig":3813,"Ġunless":3814,"Ġbreath":3815,"Ġincred":3816,"Ġcup":3817,"roat":3818,"Ġobs":3819,"ĠThen":3820,"ĠPeter":3821,"overed":3822,"Ġtechn":3823,"Ġspeed":3824,"Ġbathroom":3825,"yal":3826,"Ġbri":3827,"venge":3828,"aly":3829,"Check":3830,"ĠSure":3831,"Jack":3832,"raph":3833,"iving":3834,"Ġfac":3835,"Ġcommun":3836,"Time":3837,"Ġlord":3838,"ented":3839,"ĠRuss":3840,"ORE":3841,"Ġpan":3842,"Ġfamous":3843,"Ġsmoke":3844,"Ġembarrass":3845,"Ġpregnant":3846,"Ġchamp":3847,"Ġpus":3848,"iling":3849,"Ġsurprised":3850,"Ma":3851,"Ġhiding":3852,"Ġmeat":3853,"Ġ0":3854,"ĠMary":3855,"Ġemot":3856,"Mor":3857,"Ġbunch":3858,"ĠCity":3859,"Ġcommon":3860,"Ġbloody":3861,"Ġtwice":3862,"Ġusually":3863,"ĠPark":3864,"Ġharm":3865,"Ġfigured":3866,"Ġinterview":3867,"Ġur":3868,"ĠFred":3869,"Ġrepl":3870,"âĻªâĻª":3871,"Ġcommand":3872,"App":3873,"IG":3874,"boy":3875,"Ġtax":3876,"OUGH":3877,"Ġgang":3878,"arah":3879,"Ġbeer":3880,"ĠJapan":3881,"Ġhelping":3882,"Ġassist":3883,"Ġpig":3884,"Ġmemory":3885,"Sam":3886,"ĠSP":3887,"Ġvan":3888,"Ġlocal":3889,"Ow":3890,"vious":3891,"Ġitself":3892,"Ġdoc":3893,"Ġlosing":3894,"Captain":3895,"arch":3896,"ette":3897,"Ġsmile":3898,"hh":3899,"hin":3900,"Ġheavy":3901,"usic":3902,"Kill":3903,"Ġduty":3904,"rible":3905,"SH":3906,"Ġbow":3907,"Ġsuddenly":3908,"Ġbene":3909,"Ġstage":3910,"antic":3911,"ĠWar":3912,"Ġdevelop":3913,"Ġshowed":3914,"Ġjack":3915,"Ġempty":3916,"Ġbless":3917,"Ġanimal":3918,"Ġcrew":3919,"ada":3920,"Ġvac":3921,"Ġobject":3922,"Ġrequest":3923,"Ġdouble":3924,"LAUGH":3925,"arden":3926,"Ġanc":3927,"iel":3928,"Ġnecessary":3929,"Boy":3930,"ett":3931,"Ġobviously":3932,"Ġchicken":3933,"Ġamb":3934,"Ġknife":3935,"ession":3936,"Ġwritten":3937,"Ġimm":3938,"Ġregret":3939,"ari":3940,"ĠFl":3941,"Ġincl":3942,"Ġsimply":3943,"itz":3944,"Ġ200":3945,"ĠGerman":3946,"ĠPL":3947,"wh":3948,"using":3949,"Ġprocess":3950,"Other":3951,"Ġsepar":3952,"Ġhole":3953,"da":3954,"rate":3955,"Ġseemed":3956,"Ġfollowing":3957,"Su":3958,"ees":3959,"pa":3960,"Ġkeeping":3961,"ĠSw":3962,"Ġquar":3963,"Ġlarge":3964,"Ġvideo":3965,"rick":3966,"oom":3967,"ĠMon":3968,"20":3969,"Ġcloser":3970,"ĠGOT":3971,"Ġkeeps":3972,"ĠWANT":3973,"Ġadmit":3974,"Ġcivil":3975,"ams":3976,"ARD":3977,"Ġopportunity":3978,"Mad":3979,"Ġdivor":3980,"Ġcoun":3981,"Ġ16":3982,"low":3983,"cher":3984,"hop":3985,"Sighs":3986,"eless":3987,"Ġghost":3988,"EST":3989,"Ġriver":3990,"Ġreading":3991,"riff":3992,"Ġcars":3993,"Ġacting":3994,"Ġstrength":3995,"rupt":3996,"Se":3997,"{\\":3998,"ration":3999,"itude":4000,"IF":4001,"Ġstat":4002,"Ġnote":4003,"Cha":4004,"Ġrom":4005,"Show":4006,"Ġturns":4007,"Ġraise":4008,"Ġrent":4009,"GO":4010,"Ġmarket":4011,"ĠX":4012,"vert":4013,"Ġasleep":4014,"INK":4015,"ĠCor":4016,"aker":4017,"Ġstudy":4018,"Ġbreakfast":4019,"Ġpapers":4020,"Ġrestaurant":4021,"Ġgreen":4022,"Ġwondering":4023,"Ġmedical":4024,"Brother":4025,"reg":4026,"Five":4027,"empt":4028,"Ġcompet":4029,"Exactly":4030,"Ġphoto":4031,"Shall":4032,"she":4033,"Goodbye":4034,"Er":4035,"ender":4036,"umber":4037,"Ġbottom":4038,"ses":4039,"anda":4040,"pic":4041,"Ġought":4042,"ality":4043,"Ġign":4044,"Ġstarts":4045,"Ġexcited":4046,"Another":4047,"ealous":4048,"BUT":4049,"Big":4050,"oved":4051,"Ġnose":4052,"ĠRay":4053,"ences":4054,"OL":4055,"ĠHon":4056,"Ġguilty":4057,"aughing":4058,"Both":4059,"father":4060,"gress":4061,"iring":4062,"Ġupstairs":4063,"Ġconversation":4064,"Ġdue":4065,"INE":4066,"bsolutely":4067,"Congratulations":4068,"Daddy":4069,"ĠSan":4070,"Ġnatural":4071,"Ġmerc":4072,"Ġfile":4073,"this":4074,"Most":4075,"Whoo":4076,"Ġbottle":4077,"Ġwound":4078,"Ġrout":4079,"Up":4080,"ĠWest":4081,"Ġsever":4082,"Ġaccess":4083,"Ġguns":4084,"Pr":4085,"Ġsilly":4086,"Ġfem":4087,"ground":4088,"vent":4089,"Ġknowing":4090,"andy":4091,"Ġheld":4092,"mission":4093,"back":4094,"Ġmum":4095,"Ġund":4096,"Ġanimals":4097,"Ġresponsible":4098,"Ġnature":4099,"ĠHer":4100,"ased":4101,"pose":4102,"Ġamong":4103,"Ġawful":4104,"Ġtow":4105,"elly":4106,"ker":4107,"Ġcaptain":4108,"Ġhoping":4109,"Besides":4110,"Ġshooting":4111,"Ġcontinues":4112,"Find":4113,"lder":4114,"ĠCal":4115,"look":4116,"rit":4117,"ico":4118,"Ġgotten":4119,"cean":4120,"oody":4121,"Ġagent":4122,"pector":4123,"EL":4124,"Son":4125,"Ġpoison":4126,"Ġswe":4127,"apa":4128,"Ġcharacter":4129,"Ġweapons":4130,"Were":4131,"ays":4132,"ĠNick":4133,"Ġdaddy":4134,"Ġgoddamn":4135,"Ġneighbor":4136,"ellig":4137,"aper":4138,"Ġmanage":4139,"olution":4140,"Ġshows":4141,"Pre":4142,"asps":4143,"Ġkeys":4144,"Ġplant":4145,"Ġscr":4146,"cellent":4147,"rian":4148,"Ġnumbers":4149,"ĠSorry":4150,"ĠHenry":4151,"Ġtells":4152,"Ġmix":4153,"Ġboo":4154,"Ġgreatest":4155,"Ġgrab":4156,"ĠBill":4157,"Ġwhom":4158,"Ġappear":4159,"Ġemploy":4160,"Ġflying":4161,"Ġpath":4162,"Ġstars":4163,"Ġpock":4164,"Ġshame":4165,"Ġcondition":4166,"Ġinvestigation":4167,"itty":4168,"rab":4169,"fessor":4170,"Ġdogs":4171,"BI":4172,"orld":4173,"HING":4174,"ieutenant":4175,"UL":4176,"Ġlangu":4177,"yond":4178,"ĠHouse":4179,"Ġparticular":4180,"Ġleader":4181,"Ġdry":4182,"Ġhig":4183,"usion":4184,"Ġlights":4185,"Ġenc":4186,"Ġban":4187,"ĠAf":4188,"Ġmilitary":4189,"ĠABOUT":4190,"af":4191,"Ġthroat":4192,"Ġphotog":4193,"urope":4194,"Ġwhose":4195,"ference":4196,"ĠKim":4197,"Ġcorner":4198,"Ph":4199,"Ġpants":4200,"ĠGeneral":4201,"HERE":4202,"cH":4203,"Ġinj":4204,"rie":4205,"Hang":4206,"Yep":4207,"Ġbeyond":4208,"Ġstories":4209,"Ġport":4210,"uses":4211,"Ġfellow":4212,"Ġreact":4213,"Ġshock":4214,"ĠQueen":4215,"sed":4216,"omed":4217,"itions":4218,"ĠStop":4219,"ompl":4220,"Ġvir":4221,"Ġplanning":4222,"Ġprefer":4223,"Ġsize":4224,"ĠCo":4225,"Ġesp":4226,"Ġcode":4227,"Ġnorth":4228,"ESS":4229,"Ġrule":4230,"erer":4231,"Ġopin":4232,"zen":4233,"Ġfle":4234,"achel":4235,"Ġtrial":4236,"Ġchecked":4237,"Quick":4238,"sen":4239,"Ġtaught":4240,"Ġweekend":4241,"Ġapologize":4242,"Ġaware":4243,"Guys":4244,"Ġuniverse":4245,"Ġlied":4246,"Ġscare":4247,"ĠSec":4248,"Ġ25":4249,"Ġfreak":4250,"Ġsoldiers":4251,"ĠMother":4252,"Ġcult":4253,"Ġnine":4254,"ival":4255,"ĠEvery":4256,"Ġadvice":4257,"ĠRob":4258,"ardon":4259,"Ġbringing":4260,"Frank":4261,"rant":4262,"ĠÂ":4263,"Ġcous":4264,"ĠHIM":4265,"ĠYoung":4266,"ĠAnt":4267,"Ġwalked":4268,"Ġlots":4269,"Ġneither":4270,"urg":4271,"Happy":4272,"van":4273,"retty":4274,"ites":4275,"roans":4276,"Ġprepared":4277,"Dude":4278,"While":4279,"imp":4280,"Ġsinging":4281,"Fin":4282,"ora":4283,"Ġspoke":4284,"Ġspread":4285,"Ġcock":4286,"Doesn":4287,"Until":4288,"olen":4289,"Ġ14":4290,"Ġsurg":4291,"Ġeffect":4292,"Ġsour":4293,"Ġtowards":4294,"Ġseveral":4295,"Ġsam":4296,"ĠJew":4297,"emon":4298,"ints":4299,".,":4300,"Ġcareer":4301,"Without":4302,"Ġsubject":4303,"Ġattract":4304,"Tomorrow":4305,"WH":4306,"aire":4307,"bec":4308,"ilar":4309,"Ġrub":4310,"Stand":4311,"Ġhearing":4312,"Ġideas":4313,"Ġbare":4314,"icy":4315,"Ġlies":4316,"Ġbiggest":4317,"urious":4318,"ounce":4319,"ĠSee":4320,"Ġleaves":4321,"Ġarrested":4322,"Ġcomfortable":4323,"Ġavo":4324,"ading":4325,"odies":4326,"ĠRed":4327,"Ġscient":4328,"Ind":4329,"ĠTHERE":4330,"El":4331,"istinct":4332,"Ġodd":4333,"outing":4334,"ĠWOR":4335,"ĠScott":4336,"Ġsacri":4337,"onsense":4338,"âĢİ.":4339,"Ġheat":4340,"ĠMac":4341,"orses":4342,"Ġawesome":4343,"ĠPhil":4344,"Ġfake":4345,"Ġoil":4346,"ledge":4347,"Ġdropped":4348,"BE":4349,"Ġrac":4350,"ulation":4351,"Ġhanging":4352,"ruction":4353,"KS":4354,"WELL":4355,"Ġpet":4356,"Ġamount":4357,"arc":4358,"Ġpulled":4359,"Ġmurdered":4360,"GRUNT":4361,"eech":4362,"Ġcomb":4363,"Ġcake":4364,"Ġjealous":4365,"Ġsmo":4366,"Enough":4367,"Better":4368,"ĠREA":4369,"Ġflowers":4370,"Ġ24":4371,"Ġrap":4372,"Ġhurts":4373,"Ġpowerful":4374,"ament":4375,"Ġfuckin":4376,"isc":4377,"Ġonto":4378,"HEN":4379,"Ġdevil":4380,"Ãĺ":4381,"ROW":4382,"field":4383,"ection":4384,"Ġbetray":4385,"Ġtext":4386,"board":4387,"Ġbeauty":4388,"Ġsnow":4389,"Ġfolks":4390,"aes":4391,"hold":4392,"Ġended":4393,"Ġchief":4394,"ĠBo":4395,"Ġdeg":4396,"Ġserve":4397,"Ġinvited":4398,"ontin":4399,"Ġpaying":4400,"ault":4401,"ooper":4402,"usting":4403,"udd":4404,"Ġdepartment":4405,"urt":4406,"Ġdriver":4407,"rilliant":4408,"ARS":4409,"Ġafford":4410,"Ġpers":4411,"Their":4412,"Ġfarm":4413,"Ġclearly":4414,"ĠTake":4415,"ĠSim":4416,"Ġenv":4417,"Ġsurvive":4418,"New":4419,"Ġemergency":4420,"incess":4421,"ĠONE":4422,"kin":4423,"acle":4424,"Ġscience":4425,"laughs":4426,"Ġrings":4427,"Ġkidna":4428,"Ġhorrible":4429,"Ġdestroyed":4430,"Ġdumb":4431,"fortunately":4432,"Ġloud":4433,"iction":4434,"with":4435,"ĠNothing":4436,"Ġconcerned":4437,"Ġcig":4438,"urse":4439,"ĠMag":4440,"Ġbegan":4441,"kn":4442,"ICE":4443,"Ġpossibly":4444,"Ġpurpose":4445,"Ġdancing":4446,"Ġasshole":4447,"IA":4448,"ĠChan":4449,"bell":4450,"nes":4451,"hal":4452,"asure":4453,"rel":4454,"Ġolder":4455,"inese":4456,"Ġdump":4457,"usted":4458,"ANS":4459,"Ġcreated":4460,"AP":4461,"Ġexpens":4462,"ips":4463,"gging":4464,"ĠMark":4465,"Ġissue":4466,"Ġcream":4467,"Ġmov":4468,"Ġmilk":4469,"Ġwis":4470,"Ġsuicide":4471,"Ġbullet":4472,"vered":4473,"Ġstab":4474,"evin":4475,"Talk":4476,"Ġballs":4477,"\",":4478,"ĠEurope":4479,"Ġcredit":4480,"ipped":4481,"ashed":4482,"Ġstolen":4483,"Ġdelic":4484,"Ġmatters":4485,"Ġsweetheart":4486,"Ġgeneral":4487,"face":4488,"Ġtun":4489,"Ġextreme":4490,"ued":4491,"Ġlift":4492,"Ġdescri":4493,"Ġcriminal":4494,"Ġfan":4495,"rag":4496,"Sec":4497,"phan":4498,"give":4499,"Ġdisappear":4500,"resent":4501,"Ready":4502,"Ġchallenge":4503,"tering":4504,"Ġnearly":4505,"ARE":4506,"ĠDID":4507,"Ġsin":4508,"hand":4509,"ĠSU":4510,"ĠPal":4511,"ĠJan":4512,"Four":4513,"Ġbelieved":4514,"Ġeasier":4515,"ĠFR":4516,"ples":4517,"ij":4518,"iding":4519,"arrator":4520,"AIN":4521,"cho":4522,"ĠTe":4523,"Ġmater":4524,"Ġplays":4525,"Ġheads":4526,"Ġbreaking":4527,"etective":4528,"Ġexpress":4529,"Sho":4530,"Ġweight":4531,"Ġpractice":4532,"Ġloss":4533,"Laughs":4534,"gie":4535,"Ġmap":4536,"Sounds":4537,"ization":4538,"None":4539,"Ġlanguage":4540,"ĠCr":4541,"ĠCON":4542,"Ġshirt":4543,"Ġ17":4544,"asons":4545,"Ġnoticed":4546,"Ġvote":4547,"Ġflat":4548,"Ġcapt":4549,"ĠPat":4550,"iver":4551,"Ġsuck":4552,"ache":4553,"eps":4554,"mon":4555,"ÃĻ":4556,"Ġproduct":4557,"ential":4558,"izing":4559,"Ġcopy":4560,"Ġwa":4561,"Ġsna":4562,"Ġagreed":4563,"ĠUncle":4564,"Ġsocial":4565,"die":4566,"Ġfaster":4567,"ĠMaster":4568,"Probably":4569,"don":4570,"reak":4571,"allow":4572,"Ġresc":4573,"Ġterror":4574,"Ġselling":4575,"Ġclim":4576,"\"...":4577,"iation":4578,"Ġsignal":4579,"Ġrecords":4580,"Ġdressed":4581,"Ġproof":4582,"Ġtape":4583,"Ġplenty":4584,"CREAM":4585,"Cut":4586,"alf":4587,"unny":4588,"Ġcreate":4589,"gged":4590,"Ġpainting":4591,"Ġhealth":4592,"Ġsou":4593,"Ġenter":4594,"Ġstorm":4595,"Ġletting":4596,"Jim":4597,"ĠCle":4598,"YEAH":4599,"Ġrealized":4600,"Ġexample":4601,"ĠBig":4602,"Ġproduc":4603,"Ġopinion":4604,"Ġfreed":4605,"Ġespecially":4606,"Ġaband":4607,"ĠLa":4608,"Ġmanager":4609,"Ġdefend":4610,"orts":4611,"Ġteeth":4612,"Ġsees":4613,"Ġsettle":4614,"Ġpieces":4615,"Ġstrike":4616,"ĠPLAY":4617,"vis":4618,"aine":4619,"chuckles":4620,"ĠEn":4621,"Always":4622,"Seriously":4623,"Ġdick":4624,"ĠLike":4625,"Ask":4626,"gly":4627,"ĠCho":4628,"ĠPe":4629,"ĠRome":4630,"apt":4631,"Ġresponsibility":4632,"oops":4633,"hings":4634,"ĠCarl":4635,"Ġnuts":4636,"ators":4637,"Ġroof":4638,"ĠJohnny":4639,"Ġresearch":4640,"Ġcrowd":4641,"omas":4642,"ĠMaybe":4643,"Shh":4644,"cover":4645,"Ġmovies":4646,"Ġbucks":4647,"ONG":4648,"Ġproperty":4649,"net":4650,"oug":4651,"Ġfund":4652,"Ġactiv":4653,"ĠChief":4654,"Ġbleed":4655,"pir":4656,"Ġgrown":4657,"Ladies":4658,"ĠSEE":4659,"book":4660,"hem":4661,"ĠMax":4662,"Ġmeaning":4663,"Ġhorses":4664,"Ġreve":4665,"ĠTHEY":4666,"Ġrecognize":4667,"Ġsomehow":4668,"Ġcolor":4669,"Tw":4670,"Ġfate":4671,"Ġbutt":4672,"ATE":4673,"Ġbodies":4674,"ĠAny":4675,"Ġhardly":4676,"Ġfalling":4677,"Ġav":4678,"Ġoutta":4679,"ĠHa":4680,"Ġdesk":4681,"rica":4682,"Ġbright":4683,"Ġpil":4684,"Ġtruly":4685,"Ġinsane":4686,"ĠDanny":4687,"Ġtong":4688,"Ġpoints":4689,"Ġlone":4690,"Ġstaff":4691,"ĠCat":4692,"Ġstayed":4693,"Ġpretend":4694,"Ġstudent":4695,"Baby":4696,"san":4697,"Ġfright":4698,"Ġweather":4699,"ĠBye":4700,"ucky":4701,"fety":4702,"Ġexec":4703,"uding":4704,"Ġ13":4705,"order":4706,"Ġsurgery":4707,"Yo":4708,"Ġho":4709,"ĠRichard":4710,"Ġsoldier":4711,"Unless":4712,"Chuckles":4713,"Must":4714,"Ġpred":4715,"Ġrepe":4716,"Ġbridge":4717,"Christ":4718,"Ġnor":4719,"ils":4720,"Ġwhis":4721,"ĠTHINK":4722,"Ġmodel":4723,"althy":4724,"De":4725,"raw":4726,"ĠHan":4727,"icked":4728,"ĠHam":4729,"Ġturning":4730,"ux":4731,"they":4732,"Ġrelig":4733,"ashion":4734,"Ġtraining":4735,"Ġbrave":4736,"IVE":4737,"Ġfed":4738,"elle":4739,"Ġqueen":4740,"Ġopening":4741,"Ugh":4742,"EP":4743,"Ġours":4744,"ĠFrance":4745,"11":4746,"fl":4747,"Ġbeach":4748,"Ġjustice":4749,"Ġforgotten":4750,"Ġmonster":4751,"gun":4752,"sey":4753,"ĠAL":4754,"istic":4755,"Ġnowhere":4756,"Ġseason":4757,"ĠScot":4758,"Ġticket":4759,"Ġnet":4760,"Ġscreaming":4761,"Ġcommunic":4762,"Ġslept":4763,"Absolutely":4764,"Ġdisappeared":4765,"ĠEX":4766,"Ġoperation":4767,"Ġtoil":4768,"ĠMex":4769,"Ġattempt":4770,"Ġcomplain":4771,"Ġreceived":4772,"rong":4773,"ĠSund":4774,"Dear":4775,"Ġeasily":4776,"Ġcousin":4777,"SP":4778,"asion":4779,"ĠBoy":4780,"your":4781,"lyn":4782,"Ġbullshit":4783,"ictor":4784,"Ġtotal":4785,"Ġcancer":4786,"Rel":4787,"mo":4788,"Ġver":4789,"Ġopened":4790,"Jo":4791,"ddie":4792,"Ġocean":4793,"Ġsched":4794,"Ġfailed":4795,"Ġmembers":4796,"Ġgames":4797,"Ġlines":4798,"omen":4799,"Ġincredible":4800,"iod":4801,"ĠGive":4802,"hell":4803,"itation":4804,"oph":4805,"Ġfinding":4806,"Ġfocus":4807,"Ġborrow":4808,"Ġpool":4809,"END":4810,"OUND":4811,"ĠStan":4812,"ĠWH":4813,"AST":4814,"ito":4815,"Ġstone":4816,"Ġrough":4817,"Ġshower":4818,"SS":4819,"vin":4820,"ĠANY":4821,"Ġliter":4822,"ateful":4823,"Ġdrag":4824,"ĠSA":4825,"udge":4826,"Ġbreathe":4827,"aesar":4828,"cious":4829,"Ġment":4830,"Ġdating":4831,"ressed":4832,"ITT":4833,"ĠShut":4834,"Ġperfectly":4835,"Ġdemon":4836,"Ġast":4837,"NE":4838,"Acc":4839,"Ġfucked":4840,"itiz":4841,"Ġappoint":4842,"ĠWhite":4843,"Ġgri":4844,"Guess":4845,"down":4846,"Ġspeech":4847,"versity":4848,"ford":4849,"will":4850,"ĠKat":4851,"Ġthrew":4852,"ĠSch":4853,"Ġcurrent":4854,"Gl":4855,"Ġprof":4856,"ĠRobert":4857,"Ġpocket":4858,"Bel":4859,"ĠJane":4860,"Ġforest":4861,"Ġmember":4862,"ĠSome":4863,"Start":4864,"Grand":4865,"Ġintroduce":4866,"aren":4867,"Ġreality":4868,"Little":4869,"Ġears":4870,"Ġexpected":4871,"mother":4872,"arty":4873,"Ġsen":4874,"Ġusual":4875,"Ġspell":4876,"ĠStreet":4877,"Ġdistur":4878,"12":4879,"lause":4880,"IME":4881,"VERY":4882,"Ġbite":4883,"rib":4884,"Ġwash":4885,"Ġfavour":4886,"Ġugly":4887,"ERING":4888,"Ġescap":4889,"Ben":4890,"urance":4891,"aches":4892,"ĠGU":4893,"Ã¶":4894,"Ġwet":4895,"isf":4896,"IGHS":4897,"Ġreturned":4898,"ĠMic":4899,"Ġmaterial":4900,"Ġchest":4901,"Ġrecently":4902,"Ġbread":4903,"Ġconnection":4904,"Ġdeliver":4905,"Ġmail":4906,"ano":4907,"icted":4908,"Except":4909,"Ġcaused":4910,"Ġbang":4911,")}":4912,"Sweet":4913,"ICK":4914,"ĠSy":4915,"Ġdamage":4916,"Col":4917,"omin":4918,"ummy":4919,"met":4920,"pes":4921,"eez":4922,"gic":4923,"hange":4924,"ĠGot":4925,"Ed":4926,"Paul":4927,"Ġsomet":4928,"Ġintellig":4929,"Ġbrings":4930,"Ġfollowed":4931,"Ġpriest":4932,"Ġordered":4933,"ĠEngland":4934,"IRE":4935,"Ġsouth":4936,"vey":4937,"CHE":4938,"mail":4939,"USIC":4940,"rid":4941,"Ġnon":4942,"Sw":4943,"Ġdoors":4944,"Ġheading":4945,"iliar":4946,"RAT":4947,"oms":4948,"Ġtrad":4949,"Calm":4950,"ening":4951,"Doctor":4952,"Ġstrugg":4953,"OMAN":4954,"ops":4955,"Ġtemper":4956,"',":4957,"ĠChinese":4958,"Ġends":4959,"rend":4960,"ctors":4961,"Ġdistance":4962,"Te":4963,"Ġmut":4964,"Ġgoodbye":4965,"Ġarrange":4966,"anks":4967,"ĠBlack":4968,"):":4969,"Fire":4970,"door":4971,"Ġtie":4972,"Ġcovered":4973,"Ġofficial":4974,"ĠMs":4975,"Ġmurderer":4976,"Fl":4977,"ago":4978,"Ġfingers":4979,"Ġjourney":4980,"born":4981,"Ġtall":4982,"erves":4983,"Ġlikely":4984,"ilies":4985,"Trust":4986,"ko":4987,"Ġdisappoint":4988,"vision":4989,"ĠSouth":4990,"Charlie":4991,"ĠMAN":4992,"mond":4993,"ĠHaw":4994,"Ġtrees":4995,"ipp":4996,"Ġcards":4997,"Ġforced":4998,"Ġcares":4999,"ĠStates":5000,"AUSE":5001,"Int":5002,"Ġtheory":5003,"Ġdise":5004,"Ġlately":5005,"Ġlonely":5006,"Ġnoise":5007,"Easy":5008,"Ġtransfer":5009,"esh":5010,"outs":5011,"ĠTell":5012,"Ġindeed":5013,"Ġbrilliant":5014,"Ġled":5015,"gs":5016,"ĠDay":5017,"Ġgrad":5018,"Ġthousands":5019,"Ġbal":5020,"Ġsociety":5021,"Ġwoods":5022,"Bar":5023,"Ġnation":5024,"Ġtort":5025,"rees":5026,"Ġsaving":5027,"WAY":5028,"Ġdiscovered":5029,"Ġtongue":5030,"UD":5031,"was":5032,"ONNA":5033,"Ġincre":5034,"Ġpaint":5035,"Ġstreets":5036,"arant":5037,"Ġburied":5038,"aura":5039,"Ġfantastic":5040,"Ġrelease":5041,"inda":5042,"Ġmood":5043,"Ġloose":5044,"ĠHy":5045,"Ġruined":5046,"Ġrum":5047,"Ġexpecting":5048,"Long":5049,"cy":5050,"stit":5051,"ĠBecause":5052,"Ġcheap":5053,"Ġimpro":5054,"Ġinfl":5055,"Ġclock":5056,"Ġnewsp":5057,"Ġgrew":5058,"hington":5059,"ANG":5060,"Ġcommunity":5061,"arily":5062,"Ġkinda":5063,"Ġdirector":5064,"Pretty":5065,"orney":5066,"Ġbelie":5067,"chi":5068,"Ġdefe":5069,"OUR":5070,"Ġdetails":5071,"Ġthoughts":5072,"Ġcrit":5073,"atching":5074,"Ġsweetie":5075,"Ġtiny":5076,"rely":5077,"Ġrevenge":5078,"iled":5079,"anish":5080,"omach":5081,"Ġunit":5082,"Ġcheese":5083,"Ġeduc":5084,"Ġstyle":5085,"Ġgenius":5086,"ĠLAUGH":5087,"Ġparts":5088,"Poor":5089,"Ġsending":5090,"Ġlegal":5091,"ĠSun":5092,"iano":5093,"Although":5094,"Ġringing":5095,"uj":5096,"ĠMur":5097,"ĠCOM":5098,"cel":5099,"ĠFBI":5100,"there":5101,"road":5102,"ieur":5103,"ĠHarry":5104,"Ġshad":5105,"Ġdesper":5106,"ĠJimmy":5107,"Ġsplit":5108,"lla":5109,"Ġsafety":5110,"Im":5111,"Ġpure":5112,"leased":5113,"Ġoppos":5114,"Ġwheel":5115,"Ġfinds":5116,"Ġwarning":5117,"Ġpunish":5118,"ained":5119,"onsieur":5120,"Follow":5121,"ĠĠ":5122,"Ġbat":5123,"Ġinsist":5124,"Ġprofessional":5125,"ona":5126,"Ġindust":5127,"ĠUnited":5128,"Down":5129,"Ġvers":5130,"Ġep":5131,"Ġmyst":5132,"Ġobvious":5133,"Ġcases":5134,"Ġoriginal":5135,"ĠTony":5136,"onnie":5137,"ella":5138,"CHUCK":5139,"Ġsite":5140,"ĠJess":5141,"Ġcenter":5142,"isp":5143,"Ġletters":5144,"Again":5145,"Id":5146,"lim":5147,"Ġrights":5148,"Ġperiod":5149,"Ġpermission":5150,"ilities":5151,"Ġfamiliar":5152,"Michael":5153,"iform":5154,"clock":5155,"Ġlocation":5156,"FOR":5157,"Ġju":5158,"Ġvot":5159,"Ġreached":5160,"Ġhandsome":5161,"Ġattacked":5162,"ĠMartin":5163,"Ġholiday":5164,"Ġfreedom":5165,"ira":5166,"ĠGl":5167,"Ġprinc":5168,"mma":5169,"Ġdrinks":5170,"mber":5171,"Ġscary":5172,"ĠAnge":5173,"Ġveh":5174,"oken":5175,"Ġhidden":5176,"VEN":5177,"Ġgate":5178,"ĠMal":5179,"Ġdisg":5180,"ĠWilliam":5181,"BLE":5182,"inger":5183,"Ġbarely":5184,"Holy":5185,"Ġexpensive":5186,"Bob":5187,"cus":5188,"Ġpin":5189,"romise":5190,"ulate":5191,"ĠJeff":5192,"Ġruns":5193,"Ġstudents":5194,"Ġmentioned":5195,"ĠBritish":5196,"po":5197,"essed":5198,"place":5199,"Ġfuneral":5200,"Ġbedroom":5201,"iron":5202,"ĠBra":5203,"ĠWILL":5204,"ĠSteve":5205,"ĠVal":5206,"Ġchanges":5207,"Ġfamilies":5208,"aturday":5209,"Ġvictims":5210,"ba":5211,"Ġaunt":5212,"inging":5213,"Ġcommit":5214,"Ro":5215,"ĠSant":5216,"ĠGONNA":5217,"asty":5218,"Ġsandw":5219,"Ġnonsense":5220,"anting":5221,"Ġregular":5222,"Ġexciting":5223,"Things":5224,"Ġate":5225,"THEY":5226,"ĠMinister":5227,"Co":5228,"Pull":5229,"Ġlink":5230,"ĠBACK":5231,"iev":5232,"ocking":5233,"Ġanswers":5234,"AG":5235,"Sub":5236,"Ġangel":5237,"ĠCL":5238,"ĠTra":5239,"ĠCent":5240,"ĠDNA":5241,"âĶ":5242,"Ġsugar":5243,"Ġunderstood":5244,"Ġmemories":5245,"âĶĢ":5246,"Ġstomach":5247,"Step":5248,"Ġruin":5249,"Clear":5250,"ĠSal":5251,"ĠStar":5252,"reams":5253,"Ġsigned":5254,"Ġfemale":5255,"Jul":5256,"Ġreasons":5257,"ĠAgent":5258,"ĠNe":5259,"Ġshowing":5260,"ĠAdam":5261,"Forgive":5262,"Ġresults":5263,"Ob":5264,"Ġfought":5265,"Ġpage":5266,"ĠFriday":5267,"bor":5268,"Ġcos":5269,"hild":5270,"ANK":5271,"soc":5272,"Ġmountain":5273,"hales":5274,"Ġnaked":5275,"Ġcarefully":5276,"ension":5277,"Ġgentleman":5278,"Ġshape":5279,"Also":5280,"Ġconvinc":5281,"ĠSunday":5282,"...!":5283,"eck":5284,"Ġspare":5285,"ĠColonel":5286,"spector":5287,"ATION":5288,"fficer":5289,"Tonight":5290,"hamed":5291,"Ġcoat":5292,"reaming":5293,"Ann":5294,"Ġburning":5295,"ĠExcuse":5296,"ein":5297,"Ġtap":5298,"Ġow":5299,"ĠSon":5300,"iece":5301,"Ġaffect":5302,"OTH":5303,"Ġdiam":5304,"Ġtickets":5305,"Ġdivorce":5306,"Fucking":5307,"Ġtim":5308,"Ġhom":5309,"Ten":5310,"Ġfirm":5311,"Ġnights":5312,"Ġgrateful":5313,"Ġcomplicated":5314,"Ġstatement":5315,"AK":5316,"iest":5317,"Had":5318,"Such":5319,"ĠMat":5320,"Ġairport":5321,"Ġprepare":5322,"Ġancient":5323,"Ġavoid":5324,"QU":5325,"Ġlic":5326,"ĠNorth":5327,"ĠHonor":5328,"rated":5329,"Ġcere":5330,"Ġforeign":5331,"hered":5332,"ĠDep":5333,"Ġhappiness":5334,"AME":5335,"Ġartist":5336,"Ġmedicine":5337,"Girl":5338,"ali":5339,"ĠCO":5340,"However":5341,"bbed":5342,"kins":5343,"Ġgarden":5344,"ĠLove":5345,"Anyone":5346,"Hon":5347,"ĠEast":5348,"hips":5349,"ERE":5350,"ĠSuper":5351,"Rep":5352,"bles":5353,"ĠSarah":5354,"icky":5355,"ĠGOING":5356,"Ġgrowing":5357,"Ġmale":5358,"Ġbye":5359,"Alex":5360,"GAS":5361,"Ġdies":5362,"Hell":5363,"Ġuniform":5364,"Ġbuying":5365,"azz":5366,"ĠCarol":5367,"Ġbreathing":5368,"Ġhired":5369,"Ġloyal":5370,"Ġbecomes":5371,"Att":5372,"Ġbehav":5373,"Ġpair":5374,"ula":5375,"Ġremem":5376,"THIS":5377,"Six":5378,"ĠFranc":5379,"who":5380,"Ġopens":5381,"ket":5382,"Ġpassion":5383,"Ġhumans":5384,"Cool":5385,"Ġcart":5386,"LLY":5387,"Ġfactory":5388,"Ġeggs":5389,"HA":5390,"Ġboring":5391,"Ġfif":5392,"thur":5393,"entlemen":5394,"Ġtoilet":5395,"did":5396,"Ġdisp":5397,"Ġraised":5398,"Ġpersonally":5399,"David":5400,"OY":5401,"Ġfancy":5402,"ĠBer":5403,"ulf":5404,"Ġguarant":5405,"Ġchose":5406,"ÂĿ":5407,"Ġcourage":5408,"Ġadult":5409,"Ġtouched":5410,"Ġadvant":5411,"specially":5412,"Ġaudience":5413,"Morning":5414,"Ġhigher":5415,"Ġcigaret":5416,"Ġpill":5417,"Ġgoin":5418,"Ġknowledge":5419,"Ġbroad":5420,"Ġgather":5421,"Ġsurround":5422,"Ġcircum":5423,"hetic":5424,"Ġcitiz":5425,"bered":5426,"INGS":5427,"Ġstrang":5428,"iley":5429,"Ġexplos":5430,"gen":5431,"Ġdesert":5432,"Ġcentury":5433,"alter":5434,"Ġpercent":5435,"Ġsecrets":5436,"thy":5437,"acks":5438,"Ġlesson":5439,"UH":5440,"tit":5441,"alse":5442,"ĠMO":5443,"ĠDa":5444,"Ġassume":5445,"Ġhug":5446,"Ġsuffer":5447,"Ġfilled":5448,"Ġterms":5449,"Ġtear":5450,"Ġfro":5451,"Ġheaded":5452,"Ġslight":5453,"Ġphotos":5454,"ser":5455,"Ġjoy":5456,"irector":5457,"secut":5458,"15":5459,"arl":5460,"Ġmotherf":5461,"holic":5462,"ĠAM":5463,"rying":5464,"Ġwaited":5465,"Ġflo":5466,"Ġmagaz":5467,"Sim":5468,"Ġmeal":5469,"Ġpositive":5470,"Ġbasically":5471,"ĠScotland":5472,"ĠTy":5473,"ĠChris":5474,"aa":5475,"Ġlau":5476,"ĠSE":5477,"ables":5478,"Ġsource":5479,"Same":5480,"arn":5481,"ida":5482,"Ġashamed":5483,"ĠWil":5484,"ĠWHO":5485,"80":5486,"ales":5487,"ĠMil":5488,"ĠNat":5489,"ĠNOW":5490,"Ġbrief":5491,"Kn":5492,"ffe":5493,"orter":5494,"ĠMo":5495,"ĠRoy":5496,"Ġbelow":5497,"Peter":5498,"Â¡":5499,"esse":5500,"INGING":5501,"Des":5502,"Ġopt":5503,"Ġpee":5504,"ĠLE":5505,"Ġawake":5506,"Ġdirection":5507,"bar":5508,"ĠSOME":5509,"ĠRoman":5510,"Ġtit":5511,"Ġcurious":5512,"ola":5513,"Ġbuzz":5514,"Ġdesp":5515,"onday":5516,"Ġresist":5517,"Ġplanned":5518,"Ġgiant":5519,"Ġcompetition":5520,"SHE":5521,"Ã¡":5522,"ĠHIS":5523,"ĠPete":5524,"Ġrole":5525,"Ġenemies":5526,"ias":5527,"sters":5528,"Ġspring":5529,"Ġpatients":5530,"Ġpu":5531,"Ġplate":5532,"Ġfixed":5533,"vy":5534,"vest":5535,"ĠPer":5536,"ailable":5537,"ĠBR":5538,"Ġjobs":5539,"According":5540,"Feel":5541,"Ġmic":5542,"Ġinfect":5543,"ĠWould":5544,"ĠNa":5545,"Ġilleg":5546,"PH":5547,"ĠLieutenant":5548,"Ġbelongs":5549,"Ġstock":5550,"inking":5551,"Ġclever":5552,"Ever":5553,"ums":5554,"Ġprogress":5555,"believ":5556,"Ġromantic":5557,"Eh":5558,"Ġah":5559,"uman":5560,"ĠSergeant":5561,"Ġdiamond":5562,"imin":5563,"alley":5564,"ĠBa":5565,"Ġrat":5566,"play":5567,"REAT":5568,"Ġrepresent":5569,"ĠProfessor":5570,"Relax":5571,"even":5572,"Ġtrade":5573,"Ġtrave":5574,"Em":5575,"cast":5576,"aries":5577,"ĠMel":5578,"Ġdirectly":5579,"ĠHighness":5580,"ga":5581,"ourt":5582,"Ġtrail":5583,"Boss":5584,"got":5585,"Ġach":5586,"Ġdoctors":5587,"ĠTIME":5588,"ĠWOULD":5589,"cks":5590,"ASE":5591,"Life":5592,"Ġhous":5593,"Ġjerk":5594,"ivid":5595,"Ġsuspic":5596,"Ġsatisf":5597,"Ġrate":5598,"Ġchem":5599,"Ġdealing":5600,"mare":5601,"Ġaccording":5602,"URE":5603,"atherine":5604,"Ġimage":5605,"ĠJapanese":5606,"Mike":5607,"inn":5608,"Ġlad":5609,"ĠCaesar":5610,"Ġnational":5611,"ĠRose":5612,"izza":5613,"Ġbadly":5614,"OWN":5615,"Ġreveal":5616,"Ohh":5617,"Ġyounger":5618,"ĠTommy":5619,"ĠSil":5620,"Ġlover":5621,"enced":5622,"MO":5623,"Ġunt":5624,"bleep":5625,"Know":5626,"SIGHS":5627,"Ġmort":5628,"Ġgro":5629,"ĠID":5630,"ĠBur":5631,"Ġpolitical":5632,"Ġbound":5633,"ĠMars":5634,"raft":5635,"peror":5636,"Ġdrown":5637,"Ġbased":5638,"fire":5639,"iforn":5640,"Ġoffered":5641,"Ġtip":5642,"ĠRyan":5643,"ĠJake":5644,"Ġwalls":5645,"Ġconcern":5646,"James":5647,"Ġdish":5648,"Ġnurse":5649,"ĠBet":5650,"ĠRam":5651,"Ġsquare":5652,"holog":5653,"ironment":5654,"Ġdoin":5655,"ĠLady":5656,"Ġguests":5657,"Ġsooner":5658,"Ġsoup":5659,"100":5660,"Care":5661,"fice":5662,"pering":5663,"Ġharder":5664,"Ġscrewed":5665,"Ġcelebrate":5666,"Ġjury":5667,"CO":5668,"ĠTwo":5669,"ĠRos":5670,"Ġwinter":5671,"Hy":5672,"ĠSHE":5673,"ĠDev":5674,"ĠWay":5675,"Uncle":5676,"Ġbuck":5677,"Ġgor":5678,"ordon":5679,"##":5680,"rig":5681,"rive":5682,"Ġyourselves":5683,"Ġdeb":5684,"ols":5685,"Cheers":5686,"Especially":5687,"Ġplayer":5688,"Ġcommitted":5689,"Ġdemand":5690,"rict":5691,"ship":5692,"rial":5693,"hern":5694,"ours":5695,"Ġsweat":5696,"Ġshake":5697,"ange":5698,"Ġfaces":5699,"Ġwatched":5700,"ĠCharles":5701,"ĠIndian":5702,"Ġrescue":5703,"BER":5704,"Ġuseless":5705,"Ġwhore":5706,"Otherwise":5707,"uments":5708,"Ġchef":5709,"colate":5710,"Send":5711,"Ġmama":5712,"ĠSqu":5713,"ifornia":5714,"Ġbecoming":5715,"Ġdisease":5716,"iven":5717,"ĠOFF":5718,"Ġassistant":5719,"Hope":5720,"mar":5721,"ĠSAY":5722,"ecial":5723,"ĠAndy":5724,"ĠPrince":5725,"Ġdata":5726,"Ġrush":5727,"Ġunf":5728,"Ġstronger":5729,"COME":5730,"Ġhunt":5731,"Ġvacation":5732,"Comm":5733,"Ġpounds":5734,"Ġstood":5735,"ware":5736,"alian":5737,"ĠMum":5738,"ĠMama":5739,"ĠWashington":5740,"ĠFROM":5741,"AH":5742,"ila":5743,"Ġbutter":5744,"ĠYe":5745,"Ġinsurance":5746,"Ġbi":5747,"Ġpopular":5748,"believable":5749,"Ġthief":5750,"Ġfootball":5751,"40":5752,"Woman":5753,"Ġdecent":5754,"Ġgrave":5755,"ALLY":5756,"Ġcarrying":5757,"Ġneighborhood":5758,"Ġmob":5759,"Ġmoves":5760,"Ġcrash":5761,"Ġrespond":5762,"Eat":5763,"iro":5764,"ĠAp":5765,"ĠDel":5766,"Ġtrap":5767,"Ġtelevision":5768,"Narrator":5769,"ĠRod":5770,"ĠKore":5771,"LET":5772,"Ġcharges":5773,"Luc":5774,"ĠReg":5775,"Ġcapable":5776,"Ġsuccessful":5777,"Wake":5778,"Ġmaid":5779,"ika":5780,"Ġtreatment":5781,"ODY":5782,"Ġslowly":5783,"Ġsuffering":5784,"uary":5785,"orse":5786,"ĠEN":5787,"Ġkicked":5788,"Ġfortune":5789,"Ġdelicious":5790,"Bra":5791,"Ġdownstairs":5792,"Ġchanging":5793,"Pat":5794,"rang":5795,"Ġscreen":5796,"Ġconfused":5797,"Ġpicking":5798,"atches":5799,"Mark":5800,"bage":5801,"hod":5802,"ura":5803,"IP":5804,"bie":5805,"rs":5806,"ĠIntern":5807,"Ġadvantage":5808,"Coming":5809,"Ġincident":5810,"Sur":5811,"geous":5812,"Ġrise":5813,"Hit":5814,"bid":5815,"Ġwire":5816,"Ġbirds":5817,"Cor":5818,"ĠIF":5819,"Ġpowers":5820,"antly":5821,"ĠSa":5822,"endent":5823,"ĠRE":5824,"ĠJer":5825,"Ġvision":5826,"Ġmiracle":5827,"ĠPLAYING":5828,"Ġcircumst":5829,"Ġspo":5830,"Ġotherwise":5831,"ĠAlice":5832,"Ġcapital":5833,"Ġburned":5834,"Ġtoast":5835,"Ġfalse":5836,"ĠCOULD":5837,"Ġwhoever":5838,"Ġestab":5839,"Master":5840,"Police":5841,"ĠPRO":5842,"agn":5843,"Ġfriendship":5844,"pet":5845,"eds":5846,"ĠDen":5847,"rett":5848,"Ġrobber":5849,"Lord":5850,"âĻ¬":5851,"Ġchecking":5852,"ĠTHEM":5853,"ĠGOOD":5854,"Ġachieve":5855,"ĠMont":5856,"ĠCOME":5857,"ĠDong":5858,"ĠPet":5859,"Ġassign":5860,"Quiet":5861,"ĠLOOK":5862,"utter":5863,"aming":5864,"ĠVir":5865,"Ġtradition":5866,"Ġreck":5867,"Roger":5868,"ston":5869,"Ġexact":5870,"Ġowner":5871,"Ġvalue":5872,"known":5873,"Ġtherap":5874,"Ġgy":5875,"Ġbeating":5876,"Ġalco":5877,"ĠRO":5878,"ĠKen":5879,"Ġnightmare":5880,"Ġlaws":5881,"Ġexpert":5882,"ja":5883,"Ġtears":5884,"atives":5885,"Ġgoodness":5886,"Ġapparently":5887,"Ġmadam":5888,"Ġjournal":5889,"Apparently":5890,"Ġmult":5891,"ĠAmy":5892,"ĠCall":5893,"Ġseal":5894,"Ġcoinc":5895,"Ġsacrifice":5896,"Shoot":5897,"AIT":5898,"NAR":5899,"Ġlaid":5900,"ordin":5901,"Ġinvite":5902,"ĠAlan":5903,"Ġinstruct":5904,"Ġavailable":5905,"Ġpills":5906,"ISH":5907,"Ġbags":5908,"ĠSmith":5909,"Joe":5910,"Mart":5911,"WOMAN":5912,"Ġwise":5913,"ĠAir":5914,"Ġshr":5915,"Won":5916,"zo":5917,"Ġbones":5918,"ashing":5919,"Ġdesire":5920,"Bu":5921,"Play":5922,"Ġenvironment":5923,"Bea":5924,"GET":5925,"Save":5926,"Ġdust":5927,"Ġuna":5928,"ĠSaturday":5929,"Soon":5930,"Ġissues":5931,"Ġtail":5932,"Ġwide":5933,"Ġhealthy":5934,"Ġproperly":5935,"Ġglasses":5936,"lock":5937,"Âª":5938,"Ġreleased":5939,"Ġacqu":5940,"Ġcollea":5941,"Ġiron":5942,"ois":5943,"Ġbone":5944,"Ġfra":5945,"ĠDave":5946,"Ġcooking":5947,"Ġbleeding":5948,"Ġlat":5949,"ushed":5950,"ĠWorld":5951,"ĠRock":5952,"reek":5953,"ublic":5954,"Ġ60":5955,"Ġhyp":5956,"Ġphysical":5957,"hest":5958,"ĠJac":5959,"Door":5960,"Ġdrove":5961,"\"!":5962,"Ġbrand":5963,"Ġsett":5964,"Ġdistract":5965,"Ġpa":5966,"Ġshift":5967,"Ġcloud":5968,"iple":5969,"Ġswitch":5970,"Ġescaped":5971,"eping":5972,"ĠChina":5973,"MY":5974,"uries":5975,"ĠEve":5976,"Ġremains":5977,"Ġrecomm":5978,"Ġsongs":5979,"Ġpalace":5980,"ĠWERE":5981,"ĠRa":5982,"Ġunderw":5983,"Ġcompan":5984,"Ġfallen":5985,"Ġsimilar":5986,"Ġdetail":5987,"Ġtechnology":5988,"ĠRussian":5989,"Ġtied":5990,"Ġrow":5991,"ĠLittle":5992,"OUS":5993,"Ġcabin":5994,"Ġphotograph":5995,"Bad":5996,"Drop":5997,"Jake":5998,"Mc":5999,"utiful":6000,"Ġscore":6001,"ouncer":6002,"Ġextremely":6003,"ami":6004,"ĠSl":6005,"ĠHolly":6006,"ĠKevin":6007,"ussy":6008,"aign":6009,"ez":6010,"Ġforces":6011,"Ġtroops":6012,"agne":6013,"Ġcruel":6014,"Ġdetective":6015,"Ġess":6016,"Ġleading":6017,"Ġbillion":6018,"sit":6019,"Ġpity":6020,"uma":6021,"Ġchap":6022,"then":6023,"Ġsexy":6024,"Ġofficers":6025,"Ġmodern":6026,"Fran":6027,"Red":6028,"Ġwoke":6029,"Ġbike":6030,"Ġreward":6031,"Ġspin":6032,"Ġviolence":6033,"Ġjacket":6034,"udy":6035,"Ġjoking":6036,"ĠDoes":6037,"Perfect":6038,"amie":6039,"Ġsexual":6040,"ube":6041,"ĠRoger":6042,"ĠJones":6043,"Ġconcl":6044,"izz":6045,"Believe":6046,"500":6047,"Ġhearts":6048,"ĠShi":6049,"Ġpride":6050,"Inst":6051,"Drink":6052,"Ġmystery":6053,"Ġsigns":6054,"Ġstudio":6055,"HOW":6056,"ĠTur":6057,"Ġshots":6058,"Ġtemple":6059,"Ġdisgusting":6060,"Men":6061,"Many":6062,"Use":6063,"ville":6064,"Ġwitch":6065,"Ġjew":6066,"ĠHold":6067,"ĠRoss":6068,"chy":6069,"ĠAR":6070,"Ġalarm":6071,"ĠEll":6072,"Ġgrant":6073,"Ġdetect":6074,"yeah":6075,"icago":6076,"Ġentertain":6077,"Ġprotection":6078,"Ġdeeply":6079,"LI":6080,"bon":6081,"isions":6082,"Ġmanaged":6083,"Har":6084,"Ġinit":6085,"Ġreb":6086,"Ġmel":6087,"egas":6088,"uan":6089,"ĠJin":6090,"ĠOVER":6091,"Ġappears":6092,"shot":6093,"Ġdeterm":6094,"ĠWhoa":6095,"atory":6096,"isode":6097,"Ġham":6098,"ulance":6099,"ĠNice":6100,"Ġtrapped":6101,"ĠSpanish":6102,"Ġarrive":6103,"Close":6104,"illa":6105,"ĠFuck":6106,"uled":6107,"Ġcheer":6108,"Ġgrandfather":6109,"omeday":6110,"Ġappointment":6111,"have":6112,"ript":6113,"ural":6114,"ĠHol":6115,"usan":6116,"Ġmillions":6117,"Ġsales":6118,"Ġbabe":6119,"ĠTw":6120,"ĠBU":6121,"Ġsail":6122,"ĠVictor":6123,"Ġpissed":6124,"ann":6125,"ĠGold":6126,"Ġbored":6127,"Ġgal":6128,"otic":6129,"iller":6130,"ĠOR":6131,"Ġaffair":6132,"please":6133,"Ġdecl":6134,"ĠBy":6135,"uddy":6136,"ĠThomas":6137,"Ġhonestly":6138,"ped":6139,"Ġ:":6140,"hew":6141,"Ġmovement":6142,"Ġfiles":6143,"Danny":6144,"Ġliar":6145,"Ġdepends":6146,"Ġtreated":6147,"Def":6148,"Ã³":6149,"Ġanger":6150,"herry":6151,"Ġload":6152,"ĠPolice":6153,"Ġcampaign":6154,"xy":6155,"yo":6156,"illed":6157,"ĠBilly":6158,"ĠRep":6159,"Ġstops":6160,"rain":6161,"Going":6162,"alker":6163,"etch":6164,"geon":6165,"Ġteen":6166,"apping":6167,"teen":6168,"rem":6169,"Ġlake":6170,"Ġlack":6171,"Ġmetal":6172,"ertainly":6173,"Ġliterally":6174,"Ġvehicle":6175,"reck":6176,"Ġtransport":6177,"ĠMonday":6178,"Ġexha":6179,"Ġtraffic":6180,"EOP":6181,"Ġwave":6182,"Ġbon":6183,"Ġpump":6184,"Ġhunting":6185,"Ġstress":6186,"Ġbride":6187,"Ġunus":6188,"Ġwarn":6189,"Ġreports":6190,"Ġsurface":6191,"Ġbabies":6192,"erved":6193,"ĠMed":6194,"Ġconnected":6195,"Gentlemen":6196,"Mum":6197,"sk":6198,"onse":6199,"Ġbond":6200,"Ġstret":6201,"ĠAust":6202,"Nope":6203,"aki":6204,"ĠBEEN":6205,"Ġoccur":6206,"hoo":6207,"uf":6208,"ril":6209,"ĠJose":6210,"Ġannoy":6211,"Ġnegot":6212,"ĠFrancis":6213,"Ġsurely":6214,"ĠStep":6215,"Ġminds":6216,"Ġ300":6217,"OTHER":6218,"Ġsentence":6219,"Ġships":6220,"Ġvictory":6221,"Ġeffort":6222,"ĠMexico":6223,"EOPLE":6224,"19":6225,"Ms":6226,"Ã±":6227,"Ġpiano":6228,"Ġattorney":6229,"aze":6230,"Anybody":6231,"Ġpulling":6232,"Ġedge":6233,"Ġbail":6234,"Ġformer":6235,"ĠDoc":6236,"Ġsale":6237,"ĠJerry":6238,"bey":6239,"Ġexperi":6240,"Ġreceive":6241,"GRO":6242,"Ġlower":6243,"ĠWin":6244,"Ġtalent":6245,"Ġindivid":6246,"Ġsteps":6247,"Ġelectric":6248,"Ġdesperate":6249,"ĠPapa":6250,"ques":6251,"Ġfinanc":6252,"Ġconfirm":6253,"Ġrevolution":6254,"Ġseparate":6255,"Ġwow":6256,"has":6257,"ican":6258,"Ġaside":6259,"Ġattitude":6260,"Ġsolve":6261,"Cr":6262,"ĠAunt":6263,"Ġdefense":6264,"Ġmotor":6265,"Ġmirror":6266,"Ġcounter":6267,"Ġbum":6268,"Young":6269,"ĠLaw":6270,"Ġprincess":6271,"ensive":6272,"ĠArmy":6273,"RATOR":6274,"ĠRon":6275,")\\":6276,"Ġputs":6277,"Ġstranger":6278,"Being":6279,"Ġterm":6280,"Ġpresence":6281,"Ġkingdom":6282,"Sn":6283,"town":6284,"uz":6285,"ĠDE":6286,"Ġassum":6287,"Ġchocolate":6288,"ĠGUY":6289,"Either":6290,"oni":6291,"Ġcorn":6292,"ĠOUR":6293,"Ġagre":6294,"agon":6295,"Ġdece":6296,"Honest":6297,"jo":6298,"ĠIike":6299,"Almost":6300,"Ġbeast":6301,"ĠOw":6302,"Neither":6303,"ontinues":6304,"Ġschedule":6305,"Ġlicense":6306,"ĠEddie":6307,"Ġ21":6308,"Ġrare":6309,"Ġearn":6310,"Unfortunately":6311,"Ġillegal":6312,",...":6313,"Nah":6314,"WHO":6315,"Ġwest":6316,"Ġsed":6317,"Ġcarried":6318,"OMET":6319,"ĠChristian":6320,"liver":6321,"Ġambulance":6322,"ĠCalifornia":6323,"otion":6324,"ĠCount":6325,"Ġbutton":6326,"Ġchances":6327,"Ġaccompl":6328,"prise":6329,"Ġstaring":6330,"Ġconvinced":6331,"mark":6332,"Ġfashion":6333,"ĠJae":6334,"ogan":6335,"thew":6336,"ĠHAD":6337,"ĠVery":6338,"ĠBrother":6339,"Ġexplan":6340,"ropri":6341,"itched":6342,"Ġthrowing":6343,"Ġlips":6344,"unior":6345,"ĠEr":6346,"Ġsneak":6347,"ĠAfrica":6348,"Ġgoal":6349,"ĠWow":6350,"ĠLight":6351,"ardo":6352,"Ġdestiny":6353,"Ġsmoking":6354,"ĠWAY":6355,"Ġspoken":6356,"Ġunp":6357,"THERE":6358,"Ġdarkness":6359,"fr":6360,"era":6361,"Ġliqu":6362,"Ġconside":6363,"ĠNEED":6364,"Ġprecious":6365,"Ġrepeat":6366,"Lou":6367,"aylor":6368,"icate":6369,"alled":6370,"ĠTim":6371,"Ġ500":6372,"Ġmistakes":6373,"Ġconsidered":6374,"Ġwha":6375,"Ġult":6376,"Sl":6377,"Ġcy":6378,"Ġmyster":6379,"quar":6380,"Ġtalks":6381,"ĠUN":6382,"Ġfully":6383,"60":6384,"sm":6385,"Ġtank":6386,"itar":6387,"Ġnut":6388,"arrow":6389,"ĠMatt":6390,"Ġintern":6391,"Ġleads":6392,"Ġembarrassing":6393,"iber":6394,"Ġsucceed":6395,"ros":6396,"Ġassoc":6397,"aging":6398,"Ġadop":6399,"why":6400,"urd":6401,"urning":6402,"Ġwhenever":6403,"Ġwarrant":6404,"Ġspecies":6405,"Ġrefuse":6406,"Ġpolitics":6407,"Ġcustomers":6408,"Ġpizza":6409,"ĠTed":6410,"ĠDetective":6411,"Ġscen":6412,"Ġsla":6413,"Ġhated":6414,"Ġchosen":6415,"THING":6416,"bbing":6417,"miss":6418,"Ġpatter":6419,"ĠOk":6420,"Ġsolution":6421,"Ġsew":6422,"Ġremove":6423,"ĠCommander":6424,"Ġmountains":6425,"Ġperformance":6426,"Mama":6427,"loe":6428,"ĠDes":6429,"ĠHuh":6430,"HEY":6431,"Ġcoast":6432,"Ġsymb":6433,"Ġwinning":6434,"Ġexchange":6435,"Ġsmells":6436,"Plus":6437,"Ġstealing":6438,"Ġpie":6439,"ĠSand":6440,"Ġprim":6441,"Ġassault":6442,"IDE":6443,"Ġloving":6444,"Ġconcent":6445,"ĠVegas":6446,"Ġrabb":6447,"Ġprovide":6448,"Eng":6449,"mate":6450,"Ġborder":6451,"Ġalert":6452,"Ġplus":6453,"hia":6454,"Ġcontest":6455,"Ġroute":6456,"rance":6457,"Ġdirt":6458,"ĠOoh":6459,"Ġpleased":6460,"Americ":6461,"Ġgall":6462,"ĠDOWN":6463,"ĠItalian":6464,"Ġshopping":6465,"licop":6466,"ĠIsland":6467,"Ġgods":6468,"Ġaccepted":6469,"Ġpanic":6470,"CHUCKLES":6471,"away":6472,"hm":6473,"stal":6474,"ĠDoug":6475,"agger":6476,"Ġflower":6477,"Ġequip":6478,"Finally":6479,"rad":6480,"Ġfasc":6481,"verage":6482,"Ġexperiment":6483,"Mommy":6484,"Ġanti":6485,"isher":6486,"Ġnotes":6487,"ĠFrom":6488,"Ġtrace":6489,"ĠAmericans":6490,"umbling":6491,"Ġcloses":6492,"ĠLeon":6493,"Ġhundreds":6494,"UE":6495,"swer":6496,"Ġcircumstances":6497,"abe":6498,"Ġguards":6499,"Ġspending":6500,"Ġyellow":6501,"Ġpushed":6502,"Half":6503,"Ġheav":6504,"ĠCap":6505,"Ġability":6506,"Ġfab":6507,"unter":6508,"NARRATOR":6509,"BY":6510,"Free":6511,"Ġthin":6512,"abeth":6513,"Ġflag":6514,"Ġordinary":6515,"Ġcameras":6516,"200":6517,"ala":6518,"ĠSen":6519,"ĠFine":6520,"Ġexcellent":6521,"Ġconc":6522,"Ġconfident":6523,"aud":6524,"zing":6525,"erable":6526,"Ġgain":6527,"ĠJean":6528,"Ġscar":6529,"Ġcreature":6530,"Ġeventually":6531,"Ġmercy":6532,"Ġnetwork":6533,"Ġsandwich":6534,"len":6535,"utation":6536,"ĠMi":6537,"Ġeaten":6538,"DOOR":6539,"Ġincluding":6540,"lan":6541,"Âł":6542,"omfort":6543,"ĠBuzz":6544,"ĠKy":6545,"Ġhelps":6546,"Ġkinds":6547,"Ġregard":6548,"Ġcleaning":6549,"ĠTR":6550,"ĠEVERY":6551,"Ġarch":6552,"Ġconvince":6553,"cHFFFF":6554,"Ġwishes":6555,"ĠSighs":6556,"ĠApp":6557,"ĠListen":6558,"Ġspy":6559,"Ġpartners":6560,"gger":6561,"Ġdocument":6562,"PING":6563,"Ġsisters":6564,"Ġhorn":6565,"elling":6566,"Ġblast":6567,"Ġwhist":6568,"Ġserved":6569,"Ġattend":6570,"Ġbrains":6571,"Ġabandoned":6572,"Ġunusual":6573,"BOTH":6574,"gas":6575,"inting":6576,"Ġyo":6577,"Ġtrash":6578,"ĠClark":6579,"GASPS":6580,"PEN":6581,"Ġfishing":6582,"rier":6583,"ĠTime":6584,"Ġconference":6585,"ĠGrace":6586,"Ġrocks":6587,"Ġinflu":6588,"Mon":6589,"hab":6590,"Ġmr":6591,"Ġstairs":6592,"iger":6593,"Ġshoulder":6594,"Ahh":6595,"ĠBrown":6596,"Ġjoined":6597,"Ġestate":6598,"ĠLouis":6599,"conom":6600,"Ġtemperature":6601,"ui":6602,"when":6603,"Ġsucks":6604,"Ġarmed":6605,"ĠLeo":6606,"Ġsilence":6607,"Max":6608,"hai":6609,"anny":6610,"ĠSay":6611,"ulse":6612,"Ġclue":6613,"Ġuns":6614,"Ġbreast":6615,"Ġpassing":6616,"Work":6617,"Ġnic":6618,"Ġjunk":6619,"Ġteaching":6620,"EAD":6621,"-(":6622,"CAUSE":6623,"Might":6624,"tin":6625,"aps":6626,"Ġsetting":6627,"Ġparking":6628,"Ġzero":6629,"Ġscript":6630,"Ġmayor":6631,"Yet":6632,"iac":6633,"iance":6634,"odd":6635,"Ġgrade":6636,"annah":6637,"Ġchain":6638,"Ġwinner":6639,"Enjoy":6640,"Ġmixed":6641,"Ġbehavior":6642,"ĠTELL":6643,"ĠHOW":6644,"Ġintend":6645,"Ġinstr":6646,"Ġopposite":6647,"music":6648,"ability":6649,"ĠBobby":6650,"Ġpilot":6651,"ipping":6652,"Ġwolf":6653,"ori":6654,"Ġonline":6655,"Ġarg":6656,"Ġengaged":6657,"Ġprisoner":6658,"Ġsilver":6659,"Ġlit":6660,"Ġseries":6661,"Ġequipment":6662,"George":6663,"Light":6664,"Ġaim":6665,"aro":6666,"berg":6667,"Ġcoach":6668,"Ġelev":6669,"Ġentirely":6670,"Ġmisunder":6671,"titles":6672,"-[":6673,"Each":6674,"lies":6675,"sequ":6676,"never":6677,"Ġuseful":6678,"ASS":6679,"Ġbasket":6680,"rade":6681,"lev":6682,"Thought":6683,"Ġexerc":6684,"Ġriding":6685,"Ġcreep":6686,"Ġthrown":6687,"Ġnewspaper":6688,"fle":6689,"know":6690,"Ġbust":6691,"Ġhack":6692,"opy":6693,"eeping":6694,"ĠChurch":6695,"ception":6696,"Ġmessages":6697,"Ġinsult":6698,"Ġgrandmother":6699,"Ġdevice":6700,"Ġsilent":6701,"Ġblew":6702,"Henry":6703,"Old":6704,"Ġeast":6705,"ĠBang":6706,"ĠPol":6707,"Ġflash":6708,"uesday":6709,"ĠIndia":6710,"ompany":6711,"Ġauthority":6712,"Ġmechan":6713,"ĠHot":6714,"ĠMommy":6715,"Ġpurs":6716,"Ġpropos":6717,"Ġmassive":6718,"Hm":6719,"Off":6720,"ĠHug":6721,"Ġseek":6722,"Ġdebt":6723,"Ġunderstanding":6724,"Ġadvance":6725,"Ġveget":6726,"Ġdawn":6727,"ophie":6728,"Ġbatter":6729,"Ġprint":6730,"ORT":6731,"Ġcollap":6732,"Ġmedia":6733,"Ġterrif":6734,"Ġmagazine":6735,"Sil":6736,"Slow":6737,"SCREAM":6738,"Ġvamp":6739,"Ġpoet":6740,"LAUGHS":6741,"Ġdegrees":6742,"Ġded":6743,"Ġfrank":6744,"Ġlibr":6745,"Ġshouting":6746,"Ġbackground":6747,"Though":6748,"ugs":6749,"Ġrail":6750,"Ġrooms":6751,"Ġbastards":6752,"Ġapproach":6753,"Ġguarantee":6754,"bly":6755,"Ġconfidence":6756,"ĠMajor":6757,"Ġhill":6758,"ĠBarry":6759,"ĠState":6760,"Ġgarage":6761,"Ġexplanation":6762,"ban":6763,"Ġce":6764,"ĠTurn":6765,"resp":6766,"Ġcrown":6767,"Ġconfir":6768,"gl":6769,"Ġcure":6770,"ĠTae":6771,"uls":6772,"Ġpsyc":6773,"Ġemotional":6774,"Ġquarter":6775,"mony":6776,"amin":6777,"ĠBel":6778,"ĠChicago":6779,"Chief":6780,"ĠDaniel":6781,"Ġrange":6782,"secutor":6783,"gment":6784,"Ġet":6785,"Ġmile":6786,"Ġyouth":6787,"Ġitem":6788,"ician":6789,"enture":6790,"ĠMus":6791,"Ġclin":6792,"AC":6793,"Ġsem":6794,"Ġsons":6795,"Ġknees":6796,"Ġdelight":6797,"Ġclown":6798,"Ġblank":6799,"Ġtests":6800,"Speaking":6801,"Ġtreasure":6802,"becca":6803,"render":6804,"Seems":6805,"Ġengage":6806,"Ġidentity":6807,"lished":6808,"ĠCHE":6809,"ĠBaby":6810,"ĠOff":6811,"Ġsearching":6812,"Haven":6813,"than":6814,"Ġcooper":6815,"athy":6816,"udes":6817,"Ġwallet":6818,"Ġremembered":6819,"EX":6820,"Fred":6821,"Ġeter":6822,"Ġpardon":6823,"keep":6824,"inds":6825,"iana":6826,"Ġapplause":6827,"EAKING":6828,"Ġnail":6829,"Ġkil":6830,"Ġstink":6831,"ĠWes":6832,"Ġsav":6833,"Ġchase":6834,"Res":6835,"laughter":6836,"Ġwond":6837,"Ġbom":6838,"lling":6839,"Ġcro":6840,"ongress":6841,"Ġfruit":6842,"Ġevents":6843,"uki":6844,"Ġpushing":6845,"Ain":6846,"YES":6847,"while":6848,"Ġrehe":6849,"Ġactual":6850,"Ġpotential":6851,"hey":6852,"asing":6853,"ĠBUT":6854,"Ġlog":6855,"ĠJon":6856,"Ġcouch":6857,"AII":6858,"liv":6859,"rer":6860,"Ġpunch":6861,"owing":6862,"Ġalien":6863,"Ġhouses":6864,"ases":6865,"ĠMORE":6866,"ĠHill":6867,"uckling":6868,"anche":6869,"ĠCarter":6870,"Ġmidnight":6871,"Speak":6872,"Ġdefeat":6873,"AW":6874,"FE":6875,"oted":6876,"ucle":6877,"Ġbrown":6878,"Ġchildhood":6879,"Ġtelephone":6880,"Ġrobbery":6881,"ipl":6882,"Ġdea":6883,"Ġpit":6884,"Ġthrill":6885,"ĠTor":6886,"ĠRi":6887,"ĠKeep":6888,"Ġslip":6889,"Ġprior":6890,"Ġcoincidence":6891,"NY":6892,"Ġsan":6893,"ĠJason":6894,"Ġinterrupt":6895,"Â¶Â¶":6896,"Ġresponse":6897,"Ġfailure":6898,"Ġcoward":6899,"rite":6900,"ĠSing":6901,"Its":6902,"Ġnovel":6903,"Ġqual":6904,"Ġbeloved":6905,"Ġbegins":6906,"GRUNTS":6907,"Gun":6908,"Ġna":6909,"ĠHarr":6910,"ĠLET":6911,"ĠPa":6912,"ĠKelly":6913,"standing":6914,"Ġhurting":6915,"Ġimpression":6916,"bow":6917,"reec":6918,"Ġanni":6919,"Ġje":6920,"Ġsecure":6921,"Ġmagn":6922,"force":6923,"Ġknocked":6924,"Announcer":6925,"alth":6926,"ĠMeg":6927,"ĠGreen":6928,"Ġplain":6929,"OUN":6930,"Ġindep":6931,"Ġ80":6932,"Tra":6933,"ua":6934,"Ã¨":6935,"Ġslave":6936,"duced":6937,"Instead":6938,"IAN":6939,"Ġrude":6940,"agine":6941,"eremy":6942,"Ġlaughs":6943,"icing":6944,"ĠDam":6945,"ĠGar":6946,"ĠNational":6947,"ĠYear":6948,"Ġconfess":6949,"Ġhonour":6950,"Ġsecretary":6951,"Ġtwist":6952,"Ġsolid":6953,"Ġwings":6954,"ĠMAKE":6955,"ĠBudd":6956,"Ġroyal":6957,"Ġhates":6958,"Mo":6959,"okay":6960,"Ġnasty":6961,"Ġreject":6962,"ĠGary":6963,"Ġflesh":6964,"ursday":6965,"Ġpunk":6966,"ĠMount":6967,"Ġloan":6968,"Ġcheating":6969,"Ġwid":6970,"ima":6971,"ĠMUSIC":6972,"ittee":6973,"ĠHead":6974,"Ġmoments":6975,"Ġmotherfucker":6976,"coff":6977,"Ġtempor":6978,"ĠAbout":6979,"Ġoccasion":6980,"Careful":6981,"Ġagreement":6982,"NOT":6983,"asha":6984,"ĠTri":6985,"istry":6986,"Answer":6987,"Ġhighly":6988,"La":6989,"OS":6990,"bur":6991,"war":6992,"acking":6993,"Ġkills":6994,"ggy":6995,"Wouldn":6996,"Ġannounce":6997,"ĠLucy":6998,"looking":6999,"GRUNTING":7000,"General":7001,"Ġtend":7002,"Ġthee":7003,"ench":7004,"ĠDick":7005,"Ġdepos":7006,"DON":7007,"Rec":7008,"Ġhitting":7009,"acon":7010,"ĠMid":7011,"ĠAG":7012,"ĠBu":7013,"Ġimpl":7014,"ograp":7015,"Ġcontain":7016,"Ġstands":7017,"Ġindustry":7018,"Ġliber":7019,"Ġstruct":7020,"Pick":7021,"Ġtoy":7022,"asey":7023,"Ġreputation":7024,"ĠMEAN":7025,"Ġdisappointed":7026,"70":7027,"Del":7028,"Ġpink":7029,"Ġwasting":7030,"ĠEric":7031,"izabeth":7032,"Ġdisaster":7033,"Ġtunnel":7034,"Ġtoward":7035,"enger":7036,"Ġthy":7037,"Ġjam":7038,"ĠCam":7039,"Ġfriendly":7040,"Ġassass":7041,"oster":7042,"Ġfalls":7043,"ĠAnna":7044,"Ġclosing":7045,"Ap":7046,"lying":7047,"ĠOut":7048,"ipal":7049,"Ġterrit":7050,"Ġpossibility":7051,"Ġkissed":7052,"Ġsometime":7053,"bum":7054,"iated":7055,"Ġwriter":7056,"Money":7057,"Ġing":7058,"usive":7059,"idering":7060,"Ġshy":7061,"ĠRachel":7062,"ĠJen":7063,"Ġcounting":7064,"Ġmessed":7065,"Ġsystems":7066,"Ġstatus":7067,"ITTLE":7068,"laughing":7069,"Ġhelicop":7070,"aters":7071,"Ġprince":7072,"attoo":7073,"Ġlaunch":7074,"Obviously":7075,"Ġeconom":7076,"Ġdozen":7077,"ĠLisa":7078,"Ġcontroll":7079,"ORN":7080,"ITY":7081,"Ray":7082,"bes":7083,"Ġtent":7084,"Ġsides":7085,"Ġls":7086,"Ġhomes":7087,"ĠBO":7088,"ordinary":7089,"Ġbelt":7090,"Ġmustn":7091,"TERING":7092,"Ġintelligence":7093,"ifts":7094,"Ġwarri":7095,"Ġmarks":7096,"Add":7097,"ĠTAKE":7098,"Ġrope":7099,"Ġwarned":7100,"Ġmostly":7101,"Ġlatest":7102,"Ġtask":7103,"Ġwherever":7104,"ĠBrad":7105,"ALK":7106,"Aye":7107,"Ġworkers":7108,"ISS":7109,"Ġcustody":7110,"wa":7111,"ani":7112,"Ġholy":7113,"icles":7114,"ĠColl":7115,"ĠCourt":7116,"ĠHim":7117,"Excellent":7118,"Ġwindows":7119,"his":7120,"uis":7121,"arge":7122,"ado":7123,"Ġreported":7124,"Ġpurse":7125,"Hands":7126,"rish":7127,"oto":7128,"Ġhabit":7129,"Ġarrang":7130,"ĠVan":7131,"Ass":7132,"Ġfella":7133,"grunts":7134,"Ġdeny":7135,"Ġceremony":7136,"Hard":7137,"iable":7138,"happy":7139,"Ġyard":7140,"Ġfulf":7141,"ĠFel":7142,"Kim":7143,"riel":7144,"versary":7145,"Ġtrusted":7146,"gypt":7147,"WO":7148,"iner":7149,"Ġlif":7150,"Ġrhy":7151,"Ġgrass":7152,"Ġphil":7153,"Ġpolicy":7154,"Ġlearning":7155,"Ġmental":7156,"craft":7157,"ingo":7158,"ĠTex":7159,"Looking":7160,"REN":7161,"iane":7162,"Ġskills":7163,"Ġexecut":7164,"Ġwreck":7165,"adem":7166,"arts":7167,"ĠWoody":7168,"Ġproceed":7169,"Ġcorpor":7170,"ĠBlue":7171,"Ġlung":7172,"ĠHell":7173,"Ġchatter":7174,"DER":7175,"Mag":7176,"Pass":7177,"lig":7178,"amatic":7179,"ĠDAY":7180,"Ġflu":7181,"Ġdiscover":7182,"==":7183,"Dis":7184,"Ġmat":7185,"ĠMu":7186,"Ġrice":7187,"ĠHmm":7188,"Ġagents":7189,"apers":7190,"berry":7191,"Ġshoe":7192,"Ġcircle":7193,"ĠEmily":7194,"Ant":7195,"ĠDec":7196,"Ġtrunk":7197,"beat":7198,"Ġremote":7199,"Ġcleared":7200,"Ġfacts":7201,"Ġlegend":7202,"ĠWhich":7203,"Ġvirus":7204,"Darling":7205,"Mind":7206,"bre":7207,"Ġbesides":7208,"Ġparties":7209,"Ġstrate":7210,"Ġrefer":7211,"Ġmask":7212,"ushing":7213,"Ġgosh":7214,"ĠPut":7215,"ĠJosh":7216,"ĠREALLY":7217,"hall":7218,"Ġhel":7219,"ague":7220,"Ġ23":7221,"Ġassure":7222,"Ġrape":7223,"Ġbeaten":7224,"OMETHING":7225,"ji":7226,"pse":7227,"woman":7228,"Ġthick":7229,"Ġlifet":7230,"ugust":7231,"Ġcomplex":7232,"Ġchasing":7233,"Ġleaders":7234,"Quite":7235,"Ġfilms":7236,"âĢĶ":7237,"ĠDepartment":7238,"ĠVirgin":7239,"ropriate":7240,"BO":7241,"IES":7242,"Ġmer":7243,"Ġcounc":7244,"Ġdecisions":7245,"Bo":7246,"lly":7247,"asp":7248,"tery":7249,"ĠBY":7250,"Ġjuice":7251,"cial":7252,"mir":7253,"Ġbump":7254,"Ġrot":7255,"ĠHank":7256,"ĠFirst":7257,"Ġmethod":7258,"Ġbetrayed":7259,"coffs":7260,"Ġhire":7261,"Ġelder":7262,"roke":7263,"Ġtitle":7264,"Dam":7265,"Friend":7266,"Music":7267,"WHERE":7268,"bird":7269,"uate":7270,"Ġsalt":7271,"ourse":7272,"Ġexit":7273,"Ġproced":7274,"Ġvar":7275,"Ġmonkey":7276,"Ġspecific":7277,"Ġstopping":7278,"Ġgolden":7279,"Ġbasement":7280,"Certainly":7281,"Ġnucle":7282,"ĠBor":7283,"Ġtricks":7284,"Ġcells":7285,"ĠEmperor":7286,"ylan":7287,"Ġdelay":7288,"Jan":7289,"Ġnerve":7290,"Ġanx":7291,"ĠWoo":7292,"Ġsports":7293,"Ġrose":7294,"Ġunknown":7295,"Ġfourth":7296,"ĠAtl":7297,"ffered":7298,"14":7299,"Nick":7300,"Ġwins":7301,"ppers":7302,"Whoever":7303,"Ġ22":7304,"Ġstays":7305,"ĠChuckles":7306,"ĠGrandma":7307,"car":7308,"Ġbes":7309,"omer":7310,"Ġforth":7311,"ĠThree":7312,"ĠArthur":7313,"Ġfrequ":7314,"Ġcloset":7315,"Ġcosts":7316,"Ġdelivery":7317,"Ġfuel":7318,"ĠHay":7319,"ĠNic":7320,"ĠNaz":7321,"Ġcutting":7322,"Adam":7323,"Jimmy":7324,"Ġalcohol":7325,"fish":7326,"Ġou":7327,"Ġjoint":7328,"Black":7329,"Ġpotato":7330,".!":7331,"Mary":7332,"foot":7333,"kward":7334,"Ġtattoo":7335,"Ġsomeday":7336,"Ġgig":7337,"Ġgear":7338,"ĠHall":7339,"ĠJung":7340,"Ġasks":7341,"ups":7342,"Ġglo":7343,"Ġoccup":7344,"Beautiful":7345,"Ġsettled":7346,"Breat":7347,"Us":7348,"mosp":7349,"Ġpound":7350,"Ġargue":7351,"Ġcris":7352,"Ġwounded":7353,"Fight":7354,"ĠRad":7355,"Ġscan":7356,"Ġswing":7357,"Ġrefused":7358,"Second":7359,"Ġreligion":7360,"Gee":7361,"uous":7362,"Ġforbid":7363,"ummer":7364,"ewis":7365,"Ġyelling":7366,"Imagine":7367,"Sister":7368,"aah":7369,"eer":7370,"Ġactor":7371,"Ġsupply":7372,"ological":7373,"Ġsnake":7374,"Ġelephan":7375,"ĠBarb":7376,"Ġignore":7377,"ĠSecret":7378,"Ġfrightened":7379,"Later":7380,"Rob":7381,"cut":7382,"non":7383,"uable":7384,"Ġfever":7385,"imum":7386,"ĠMer":7387,"ĠDirector":7388,"Ġvul":7389,"action":7390,"Ġresour":7391,"Ġgarbage":7392,"Ġclimb":7393,"Ġstruggle":7394,"Ġshadow":7395,"Ġrecommend":7396,"ĠHAPP":7397,"ervation":7398,"Ġeducation":7399,"gers":7400,"inner":7401,"utch":7402,"ĠAng":7403,"ĠBruce":7404,"Ġinsp":7405,"Ġcastle":7406,"Ġversion":7407,"Ġcharming":7408,"SEL":7409,"Ġtyp":7410,"Ġpunishment":7411,"iar":7412,"acing":7413,"ĠTre":7414,"Ġwanting":7415,"Ġunion":7416,"Whose":7417,"Ġminister":7418,"ĠRoad":7419,"Ġunique":7420,"Ġjumped":7421,"ios":7422,"Ġstub":7423,"ĠNor":7424,"Stupid":7425,"Ġstudying":7426,"Prep":7427,"Ġreaction":7428,"ĠCONT":7429,"CAR":7430,"Ġpow":7431,"Ġsuffered":7432,"Ġsquad":7433,"Ġculture":7434,"ĠDIDN":7435,"omfortable":7436,"Number":7437,"Papa":7438,"aser":7439,"ĠLITTLE":7440,"venue":7441,"arewell":7442,"Ġsport":7443,"ianc":7444,"Ġgrandma":7445,"Johnny":7446,"Ġimpressed":7447,"Ġchampagne":7448,"Previously":7449,"Ġbury":7450,"ĠIm":7451,"ĠNever":7452,"Ġending":7453,"Ġcraw":7454,"Ġentered":7455,"Ġtwenty":7456,"Ġmurders":7457,"Ġselfish":7458,"Ġpussy":7459,"ĠLaura":7460,"Ġshell":7461,"uded":7462,"REE":7463,"uba":7464,"Ġautom":7465,"Ã¶u":7466,"Colonel":7467,"Ġlibrary":7468,"tes":7469,"oma":7470,"andal":7471,"Ġswallow":7472,"ĠInspector":7473,"Ġspeaks":7474,"Ġthreatened":7475,"umes":7476,"ĠKate":7477,"ounced":7478,"Ġphotograp":7479,"BODY":7480,"Jess":7481,"pting":7482,"Ġmister":7483,"ester":7484,"Ġsurvived":7485,"Robert":7486,"War":7487,"Ġconqu":7488,"Ġprevent":7489,"Ġconcert":7490,"Ġmaintain":7491,"Ġencour":7492,"Ġlifetime":7493,"Sarah":7494,"mans":7495,"rating":7496,"Ġoption":7497,"amm":7498,"Ġshel":7499,"Ġhowever":7500,"Ġ90":7501,"Ġviolent":7502,"Ġsharp":7503,"Ġfinancial":7504,"Kiss":7505,"Need":7506,"Ġdent":7507,"ĠAsh":7508,"ulated":7509,"Meet":7510,"Trans":7511,"Super":7512,"Ġmysterious":7513,"Ġple":7514,"Ġcandy":7515,"razy":7516,"ĠWHEN":7517,"hib":7518,"Ġprotecting":7519,"Ġlimit":7520,"Ġswimming":7521,"Mine":7522,"win":7523,"Ġreview":7524,"Ġfellas":7525,"Couldn":7526,"nic":7527,"Ġgamb":7528,"ĠLuke":7529,"Grab":7530,"girl":7531,"ĠWant":7532,"abor":7533,"Ġpros":7534,"Ġremark":7535,"Ġ199":7536,"Ġcouncil":7537,"Cons":7538,"Ġguts":7539,"Ġbeef":7540,"alty":7541,"ria":7542,"riv":7543,"ĠHit":7544,"Ġconsequ":7545,"Ġgrace":7546,"Ġjokes":7547,"Ġheavily":7548,"dam":7549,"Ġdeck":7550,"Ġconditions":7551,"Ġcrossed":7552,"Bill":7553,"Ġtooth":7554,"ĠGreg":7555,"Ġrip":7556,"Ġfrozen":7557,"shi":7558,"andom":7559,"olves":7560,"Ġquality":7561,"ĠClaire":7562,"Ġuniversity":7563,"good":7564,"Ġplastic":7565,"ĠOfficer":7566,"ords":7567,"Ġgreater":7568,"Ġmicro":7569,"Honestly":7570,".]":7571,"Ġpassport":7572,"Goddamn":7573,"ronic":7574,"Ġwitnesses":7575,"Ġbalance":7576,"25":7577,"IV":7578,"MM":7579,"ĠWall":7580,"ĠUp":7581,"Ġurgent":7582,"Ġcounsel":7583,"Ret":7584,"Tim":7585,"Ġthou":7586,"hant":7587,"Ġsheriff":7588,"Ġsauce":7589,"ĠKang":7590,"pected":7591,"ĠAnn":7592,"Ġstarving":7593,"Ġcrisis":7594,"Eight":7595,"Ġdim":7596,"Ġhits":7597,"unte":7598,"ĠDor":7599,"Ġrecall":7600,"Ġsensitive":7601,"ĠÃ¢":7602,"Twenty":7603,"AGE":7604,"Imp":7605,"uing":7606,"Ġsection":7607,"ĠCALL":7608,"avis":7609,"Madam":7610,"inating":7611,"ĠFour":7612,"Ġtheme":7613,"itches":7614,"ification":7615,"UP":7616,"Ġbid":7617,"Ġfest":7618,"Ġatmosp":7619,"Ġshout":7620,"ĠHong":7621,"olo":7622,"Ġclients":7623,"Ġprofessor":7624,"ĠLOVE":7625,"Kind":7626,"Promise":7627,"Rose":7628,"oard":7629,"Ġwra":7630,"Ġfiring":7631,"vere":7632,"Ġanal":7633,"ĠGe":7634,"ĠPort":7635,"Ġblond":7636,"Getting":7637,"Ġtrained":7638,"Ġfoolish":7639,"Ġrequire":7640,"Ġblowing":7641,"cHFFFFFF":7642,"Bull":7643,"run":7644,"isy":7645,"Ġgrou":7646,"ĠHal":7647,"Ġremoved":7648,"ĠChuck":7649,"ORD":7650,"Ġembarrassed":7651,"Set":7652,"Â§":7653,"Ġnoble":7654,"olved":7655,"Ġspect":7656,"anced":7657,"Ġescort":7658,"ĠJackson":7659,"Knock":7660,"iper":7661,"Ġfurn":7662,"Ġpour":7663,"amps":7664,"ĠTuesday":7665,"Ġuses":7666,"ĠPR":7667,"Ġcrimes":7668,"Ġconscious":7669,"ĠGrandpa":7670,"Ġsurrounded":7671,"Ġsuspicious":7672,"Cho":7673,"coming":7674,"life":7675,"Ġsuits":7676,"Ġimagination":7677,"Ġzone":7678,"Ġracing":7679,"Ġrehears":7680,"Sign":7681,"Ter":7682,"Ġcats":7683,"ĠMerc":7684,"ĠCAR":7685,"umn":7686,"Ġappeal":7687,"Ġhumili":7688,"Ġsymbol":7689,"CON":7690,"Wonder":7691,"ĠOur":7692,"Whether":7693,"atched":7694,"Ġpainful":7695,"Ġsmooth":7696,"ĠJacob":7697,"ĠHollywood":7698,"hatt":7699,"Ġsteel":7700,"stein":7701,"ĠLong":7702,"Ġloser":7703,"ERY":7704,"izard":7705,"LEASE":7706,"Ġawkward":7707,"Ġtouching":7708,"Ġconduct":7709,"Ġrobot":7710,"Ġimpressive":7711,"Ġconstruction":7712,"Ġdesigned":7713,"Ġprecise":7714,"Ġta":7715,"Ġcave":7716,"arian":7717,"Ġwasted":7718,"Ġcomed":7719,"Ġcommander":7720,"Ġlanded":7721,"Ġcustomer":7722,"Ġbenefit":7723,"ĠSAID":7724,"Ġgym":7725,"Way":7726,"Ġtag":7727,"eeze":7728,"Ġaboard":7729,"Ġshown":7730,"ĠHome":7731,"Ġactions":7732,"Ġbreaks":7733,"Ġconsc":7734,"Ġlion":7735,"ivered":7736,"Throw":7737,"ĠEgypt":7738,"ĠShow":7739,"Ġsatell":7740,"Understand":7741,"Ġparticularly":7742,"aya":7743,"Ġbegging":7744,"sell":7745,"acey":7746,"issa":7747,"uction":7748,"OUGHT":7749,"Ġinjured":7750,"Ġnuclear":7751,"Da":7752,"ĠKe":7753,"Ġpretending":7754,"Ġboot":7755,"load":7756,"Ġcalc":7757,"Ġgorgeous":7758,"Ġtherapy":7759,"quarters":7760,"Par":7761,"Ty":7762,"rock":7763,"ĠSCREAM":7764,"ĠLarry":7765,"Ġprem":7766,"Ġrelated":7767,"IO":7768,"Ġfianc":7769,"Ġaccused":7770,"otted":7771,"Ġwalks":7772,"ACH":7773,"Pardon":7774,"TA":7775,"ÃŃ":7776,"inals":7777,"orious":7778,"Andy":7779,"ĠBrian":7780,"Ġshield":7781,"ĠJe":7782,"ĠTHING":7783,"Ġmiserable":7784,"lace":7785,"Heh":7786,"ĠContinues":7787,"ĠHappy":7788,"Ġplat":7789,"aws":7790,"Ġinstinct":7791,"Ġanniversary":7792,"Jane":7793,"Sy":7794,"Sleep":7795,"ĠâĢĵ":7796,"Ġtab":7797,"ĠSn":7798,"ĠSho":7799,"ĠWed":7800,"ĠRich":7801,"Ġsuitc":7802,"EAL":7803,"Ġcreatures":7804,"Ġnormally":7805,"Ġextraordinary":7806,"Ġsenior":7807,"stitute":7808,"Ġterritory":7809,":$":7810,"ouch":7811,"Ġbatt":7812,"Ġfence":7813,"Ġthor":7814,"Ġmeas":7815,"ĠBea":7816,"oren":7817,"Ġvic":7818,"Ġintention":7819,"Ġdeserves":7820,"ĠThursday":7821,"Ġregist":7822,"Ġbullets":7823,"box":7824,"Ġcitizens":7825,"dog":7826,"pos":7827,"Ġge":7828,"Ġlun":7829,"Ġvirt":7830,"URN":7831,"Ġequal":7832,"Ġuncomfortable":7833,"Ġpsycholog":7834,"Ġporn":7835,"Ġalbum":7836,"ĠRes":7837,"ANCE":7838,"pense":7839,"Ġvaluable":7840,"Ġreplace":7841,"Ġtaxi":7842,"Ġdisturb":7843,"ĠTexas":7844,"\"\"":7845,"bast":7846,"gues":7847,"iots":7848,"new":7849,"Ġdial":7850,"ĠNight":7851,"Ġsignific":7852,"Ġvoices":7853,"ĠSean":7854,"Ġservices":7855,"ĠMorgan":7856,"Women":7857,"ĠPRE":7858,"ĠRick":7859,"Ġmighty":7860,"Shouldn":7861,"Ġbaseball":7862,"OSE":7863,"vity":7864,"Ġheight":7865,"ĠMU":7866,"essa":7867,"olt":7868,"Ġsmiling":7869,"ICH":7870,"Ġbowl":7871,"Home":7872,"tr":7873,"Ġwounds":7874,"odes":7875,"ORY":7876,"Ġsurrender":7877,"Ġinvented":7878,"Ġattractive":7879,"Ġbelieves":7880,"Ġarranged":7881,"AV":7882,"CL":7883,"Jeff":7884,"Ġbot":7885,"ĠSoo":7886,"ĠTOO":7887,"Ġfrust":7888,"ĠMarg":7889,"Ġpackage":7890,"Agent":7891,"DY":7892,"FT":7893,"Mic":7894,"Richard":7895,"Ġwing":7896,"Ġtheater":7897,"Ġstake":7898,"ĠBay":7899,"Ġplaced":7900,"otte":7901,"Ġprisoners":7902,"Tommy":7903,"Ġcigarette":7904,"13":7905,"LIE":7906,"PER":7907,"because":7908,"ador":7909,"irk":7910,"Ġspr":7911,"ixon":7912,"Child":7913,"ront":7914,"ishop":7915,"Ġfans":7916,"Ġheck":7917,"atan":7918,"Ġnothin":7919,"ĠHeaven":7920,"Ġrecent":7921,"Ġcurse":7922,"Ġenjoying":7923,"Ġjudgment":7924,"ĠJulia":7925,"ĠGermany":7926,"Ġtower":7927,"ĠEverything":7928,"Kat":7929,"Ġmax":7930,"Ġnap":7931,"ĠTok":7932,"ĠBL":7933,"ĠLos":7934,"Ġguitar":7935,"izes":7936,"Real":7937,"Ġtransform":7938,"Ġdoub":7939,"Wasn":7940,"Ġweakness":7941,"Ġvirgin":7942,"orking":7943,"veill":7944,"Ġnep":7945,"ouncil":7946,"Ġchemical":7947,"ĠFe":7948,"ecture":7949,"wered":7950,"ograph":7951,"Ġsergeant":7952,"Ġphones":7953,"Ġofficially":7954,"Ġlabor":7955,"Ġhelicopter":7956,"some":7957,"ÂĴ":7958,"ĠSab":7959,"ores":7960,"ĠPH":7961,"Ġreasonable":7962,"Ġpathetic":7963,"Ġstraw":7964,"Ġarticle":7965,"reetings":7966,"Ġtorture":7967,"xygen":7968,"lam":7969,"wife":7970,"Ġbeings":7971,"Reg":7972,"Ġvolunte":7973,"Best":7974,"During":7975,"High":7976,"yers":7977,"Ġ}":7978,"Ġwand":7979,"imately":7980,"ĠDean":7981,"ĠGirl":7982,"Ġloaded":7983,"umps":7984,"Ġblows":7985,"ANTING":7986,"ĠNEW":7987,"Ġbehave":7988,"ĠMayor":7989,"Ġroutine":7990,"Ġdegree":7991,"ĠCatholic":7992,"ĠWayne":7993,"ECT":7994,"Lee":7995,"orable":7996,"Ġpitch":7997,"ĠTa":7998,"ĠGeor":7999,"ĠPO":8000,"Ġdrank":8001,"Ġdreaming":8002,"Ġawait":8003,"Bravo":8004,"FR":8005,"King":8006,"kind":8007,"ĠServ":8008,"ĠCould":8009,"ĠHoly":8010,"Ġcommer":8011,"ĠYE":8012,"Ġfunction":8013,"ierce":8014,"WHY":8015,"Ġargument":8016,"Chan":8017,"JUST":8018,"Lemon":8019,"Sa":8020,"Ġbars":8021,"Ġtox":8022,"Ġpra":8023,"ĠSOMETHING":8024,"Ġshed":8025,"ĠKong":8026,"Ġunlike":8027,"Ġentrance":8028,"Ġsignature":8029,"iko":8030,"THER":8031,"Ġapproaching":8032,"Ġrabbit":8033,"16":8034,"Cont":8035,"Ġmath":8036,"hers":8037,"Ġorphan":8038,"Ġexcl":8039,"Ġcheering":8040,"Ġdeveloped":8041,"gasps":8042,"pro":8043,"Ġtone":8044,"irts":8045,"ĠMore":8046,"ĠGal":8047,"ĠEmma":8048,"Ġplayers":8049,"Ġcountries":8050,"Ġcharity":8051,"Ġtransl":8052,"Ġchampion":8053,"Ġwaves":8054,"ĠSanta":8055,"Comp":8056,"Wanna":8057,"ĠChi":8058,"ĠPEOPLE":8059,"ĠJoo":8060,"ĠUni":8061,"ĠHoward":8062,"Ġimpact":8063,"ĠMcC":8064,"Ġfacility":8065,"ĠWORK":8066,"Ġbombs":8067,"ĠSchool":8068,"Ġcoordin":8069,"Steve":8070,"Ġservant":8071,"Ġdollar":8072,"Ġconfirmed":8073,"Tot":8074,"ington":8075,"Ġshine":8076,"aka":8077,"ĠKar":8078,"Ġflood":8079,"Ġproduction":8080,"jin":8081,"stone":8082,"ĠTer":8083,"Ġthrone":8084,"Ġbroadcast":8085,"Ġstubborn":8086,"Dead":8087,"bi":8088,"Ġaltern":8089,"Ġblown":8090,"ordan":8091,"Ġpresents":8092,"Ġkissing":8093,"Ġfairy":8094,"bble":8095,"ante":8096,"roaning":8097,"ĠHas":8098,"Ġalthough":8099,"elve":8100,"ĠEv":8101,"Ġrecon":8102,"Ġcomplet":8103,"ĠMaria":8104,"Ġprize":8105,"Ġapology":8106,"Ġadmire":8107,"Ġancest":8108,"Break":8109,"athan":8110,"iments":8111,"ĠGRUNT":8112,"Ġrandom":8113,"aph":8114,"onscious":8115,"scar":8116,"Ġgeneration":8117,"Ġtracks":8118,"ĠFrankie":8119,"Sergeant":8120,"Ġcollection":8121,"nesday":8122,"veillance":8123,"Lieutenant":8124,"uals":8125,"Ġlf":8126,"Ġthirst":8127,"alie":8128,"Ġeveryday":8129,"RYING":8130,"mind":8131,"ĠInt":8132,"imony":8133,"ifer":8134,"ĠGa":8135,"Ġplot":8136,"Ġbackup":8137,"azy":8138,"Ġteams":8139,"Ġrecording":8140,"ĠDOOR":8141,"ysis":8142,"Ġpacked":8143,"ĠRoyal":8144,"wr":8145,"ĠTaylor":8146,"ĠCast":8147,"oln":8148,"ĠRiver":8149,"ĠKa":8150,"oughing":8151,"Hand":8152,"Ġsink":8153,"Ġped":8154,"icient":8155,"alls":8156,"rah":8157,"raham":8158,"ĠHAS":8159,"ĠWalter":8160,"ĠJenny":8161,"Yesterday":8162,"Ġbug":8163,"ARK":8164,"ĠAndrew":8165,"Read":8166,"chiat":8167,"Ġinstrument":8168,"Night":8169,"nam":8170,"rep":8171,"etic":8172,"ĠJi":8173,"Ġchip":8174,"Ġaccent":8175,"ĠAnnie":8176,"Ġgenerous":8177,"Ġenjoyed":8178,"Carl":8179,"Ġsacred":8180,"Ġdelivered":8181,"CI":8182,"Fif":8183,"Mur":8184,"itors":8185,"Ġofthe":8186,"Gotta":8187,"Seven":8188,"IFF":8189,"Sing":8190,"oured":8191,"Ġwore":8192,"stant":8193,"igan":8194,"abel":8195,"osing":8196,"ĠKyle":8197,"Ġseats":8198,"ĠHelp":8199,"Ġboom":8200,"Ġskull":8201,"Ġdrawing":8202,"Ġidentify":8203,"Ġincredibly":8204,"Ġatmosphere":8205,"Ġnephew":8206,"Detective":8207,"groans":8208,"Ġfond":8209,"Ġoutfit":8210,"ĠHo":8211,"ĠRom":8212,"Ġactress":8213,"Ġdisco":8214,"Ġapple":8215,"Ġconsidering":8216,"Ġquietly":8217,"Ġprayer":8218,"Ġkidnapped":8219,"Mel":8220,"Tony":8221,"Ġwipe":8222,"Ġlap":8223,"Ġjung":8224,"ĠSub":8225,"ĠAc":8226,"ĠWater":8227,"ĠLily":8228,"Ġsomeplace":8229,"Ġoffering":8230,"Ġcrush":8231,"pson":8232,"ĠAnne":8233,"Ġelection":8234,"Ġdamned":8235,"Professor":8236,"Ġflew":8237,"ĠSol":8238,"ĠFer":8239,"ĠFar":8240,"Ġunits":8241,"neath":8242,"ĠUm":8243,"Ġapply":8244,"Ġterribly":8245,"IRL":8246,"Ġinfluence":8247,"Min":8248,"Pay":8249,"mates":8250,"kel":8251,"ĠBon":8252,"Ġresign":8253,"Ġsym":8254,"ĠMatthew":8255,"Ġreckon":8256,"Ġclinic":8257,"Gasps":8258,"ras":8259,"Ġmeasure":8260,"ĠAct":8261,"ĠBoss":8262,"ĠGib":8263,"ĠFin":8264,"ĠVer":8265,"Ġdecor":8266,"Ġstruck":8267,"Ġaddition":8268,"Ġdropping":8269,"Having":8270,"Left":8271,"Ġnegative":8272,"Com":8273,"Ġnick":8274,"ashi":8275,"una":8276,"ĠBack":8277,"ĠGi":8278,"ĠPop":8279,"ĠFlor":8280,"Ġintent":8281,"Ġmole":8282,"Ġcheat":8283,"Ġappet":8284,"Ġinvent":8285,"Ġtrigger":8286,"Ġlanding":8287,"Ġboxes":8288,"LAUGHING":8289,"Ġtoss":8290,"asant":8291,"ĠJamie":8292,"Ġunhappy":8293,"Ġ45":8294,"Ġprivile":8295,"Ġmotion":8296,"Ġdemonst":8297,"Ġexhausted":8298,"Ġinternational":8299,"Ġworries":8300,"Ġagency":8301,"ormal":8302,"Ġplanes":8303,"Ġ35":8304,"Ġtribe":8305,"Ġburst":8306,"ĠChef":8307,"Ġorigin":8308,"oice":8309,"ĠĠĊ":8310,"Ġaverage":8311,"Ġfold":8312,"ication":8313,"ĠCy":8314,"rows":8315,"ĠStone":8316,"Ġlistened":8317,"Ġclassic":8318,"ĠAtt":8319,"Ġshark":8320,"Ġdumped":8321,"Girls":8322,"Ac":8323,"Ġton":8324,"Ġgross":8325,"rael":8326,"ĠBell":8327,"Ġapplic":8328,"ĠShit":8329,"ĠSTOP":8330,"IRST":8331,"Ġconscience":8332,"'!":8333,"OF":8334,"uv":8335,"Ġpi":8336,"amily":8337,"steps":8338,"Ġworker":8339,"Ġworrying":8340,"ĠGovern":8341,"Ġsuitcase":8342,"Hot":8343,"Ġknee":8344,"ĠHO":8345,"Ġrobbed":8346,"Ġcommission":8347,"ĠMarcus":8348,"ĠCliff":8349,"onym":8350,"ĠBlake":8351,"ĠNEVER":8352,"Ġabandon":8353,"ĠFrancisco":8354,"Ġexercise":8355,"Water":8356,"Ġpant":8357,"Ġlob":8358,"istan":8359,"Ġhomework":8360,"orman":8361,"Ġthroughout":8362,"ĠEdward":8363,"Ġastron":8364,".?":8365,"BR":8366,"Copy":8367,"Fort":8368,"ĠCole":8369,"ĠBull":8370,"igning":8371,"quis":8372,"iren":8373,"Ġadjust":8374,"ORRY":8375,"Ġslap":8376,"Ġglory":8377,"Ġtroubles":8378,"Supp":8379,"ILD":8380,"both":8381,"uits":8382,"see":8383,"ĠMIN":8384,"Through":8385,"ĠOver":8386,"ANING":8387,"Ġbelief":8388,"ĠUnder":8389,"Ġinformed":8390,"Ġblocks":8391,"would":8392,"Ġbills":8393,"sect":8394,"ĠBET":8395,"ĠClub":8396,"Ġsouls":8397,"ĠTeam":8398,"Laughter":8399,"Ġsch":8400,"Ġpha":8401,"Ġrein":8402,"Ġstones":8403,"Hear":8404,"Ġans":8405,"Ġunex":8406,"Ġcheek":8407,"ĠShin":8408,"Ġdistrict":8409,"Ġsumm":8410,"Ġfields":8411,"Ġdigging":8412,"Ġdivorced":8413,"ĠJews":8414,"helle":8415,"Ġvampire":8416,"MENT":8417,"dles":8418,"Ġdom":8419,"Ġdiss":8420,"ĠCom":8421,"Ġrit":8422,"olve":8423,"Ġunbelievable":8424,"Ġretire":8425,"Ġconfession":8426,"Ġcostume":8427,"Ġhoped":8428,"Ġreminds":8429,"Quickly":8430,"Ġexplosion":8431,"Ġannoying":8432,"Ġindividual":8433,"End":8434,"vor":8435,"zed":8436,"âĦ":8437,"âĹ":8438,"Ġdates":8439,"ĠGun":8440,"umi":8441,"about":8442,"ĠRem":8443,"ĠFore":8444,"Ġspark":8445,"Ġoblig":8446,"ĠMorning":8447,"Ġraped":8448,"Ġoptions":8449,"âĦ¢":8450,"âĹı":8451,"ipt":8452,"Ġcert":8453,"Ġsheep":8454,"Ġbrut":8455,"Ġargu":8456,"Ġsurf":8457,"ĠArt":8458,"Ġlessons":8459,"ĠSecurity":8460,"Ġsample":8461,"Ġscientists":8462,"Ġreligious":8463,"bal":8464,"Ġwives":8465,"Ġlaughter":8466,"ĠMos":8467,"ĠWalker":8468,"ĠNik":8469,"Ġprints":8470,"Ġminor":8471,"ĠVen":8472,"ĠAngel":8473,"Ġexposed":8474,"ĠMadam":8475,"Ġlaund":8476,"bastian":8477,"Ġfo":8478,"inder":8479,"ĠLaughs":8480,"Ġguide":8481,"ĠEmp":8482,"oby":8483,"Ġrealise":8484,"ocal":8485,"ITE":8486,"efan":8487,"ĠQU":8488,"Ġtiming":8489,"Ev":8490,"irring":8491,"ĠOPEN":8492,"ocr":8493,"ĠSHOULD":8494,"ABY":8495,"Ġpersu":8496,"ĠPeople":8497,"Ġcried":8498,"adise":8499,"ĠSea":8500,"Ġcandid":8501,"ĠMmm":8502,"ĠAud":8503,"ĠCouncil":8504,"Ġcomment":8505,"Ġsmok":8506,"Ġinvis":8507,"Ġboots":8508,"ĠThor":8509,"prints":8510,"Ġcolonel":8511,"Ġtorn":8512,"ĠJewish":8513,"Attention":8514,"ĠKorea":8515,"iens":8516,"Ġtune":8517,"igs":8518,"awa":8519,"ynam":8520,"tor":8521,"Ġnarrow":8522,"Ġens":8523,"Ġacce":8524,"ĠTHEN":8525,"Ġowns":8526,"attered":8527,"Ġanswering":8528,"ĠDOES":8529,"Ġbasic":8530,"Ġexistence":8531,"Ġscratch":8532,"Ġanswered":8533,"nity":8534,"Ġwithd":8535,"ĠAPP":8536,"hane":8537,"ĠGreek":8538,"ĠOz":8539,"ĠYep":8540,"Ġstrict":8541,"Ġcharged":8542,"Ġlawyers":8543,"ĠJohnson":8544,"ĠChand":8545,"cellency":8546,"ĠParker":8547,"Ġsacrific":8548,"Ġslightly":8549,"Ġelevator":8550,"Ra":8551,"uart":8552,"ĠGab":8553,"ĠLea":8554,"ĠLeave":8555,"ĠKaren":8556,"Ġcared":8557,"ailing":8558,"Ġelimin":8559,"Ġcolour":8560,"Death":8561,"ispers":8562,"ĠInternet":8563,"Martin":8564,"Ġcompanies":8565,"cles":8566,"Ðµ":8567,"Ġdiet":8568,"Ġcage":8569,"Ġfart":8570,"Ġooh":8571,"Ġbeeping":8572,"ĠBoo":8573,"Ġstring":8574,"Ġneighbors":8575,"ISTIN":8576,"Ġemotions":8577,"five":8578,"sha":8579,"Ġange":8580,"iffe":8581,"Ġconce":8582,"Ġconven":8583,"Ġprofit":8584,"Ġpoem":8585,"Ġsets":8586,"Ġreturning":8587,"umbo":8588,"True":8589,"Ġbelly":8590,"Ġjewel":8591,"Ġdetermined":8592,"Prepare":8593,"BELL":8594,"Lisa":8595,"Ġmal":8596,"Ġduck":8597,"Ġgre":8598,"ĠOld":8599,"Ġmakeup":8600,"angle":8601,"Ġdishes":8602,"Ġchew":8603,"Ġserving":8604,"Ġtraitor":8605,"Ġsurveillance":8606,"peed":8607,"Ġforgiven":8608,"Ġemotion":8609,"Ġinstructions":8610,"bu":8611,"two":8612,"Ġdough":8613,"eare":8614,"ĠTem":8615,"ĠLy":8616,"Ġafterwards":8617,"Ġdrama":8618,"ĠStay":8619,"ibilities":8620,"Ġsymp":8621,"Ġdragged":8622,"Ġnearby":8623,"Ġ70":8624,"guard":8625,"ĠOnly":8626,"Ġprofession":8627,"President":8628,"rical":8629,"holes":8630,"Ġgoods":8631,"yeong":8632,"Ġchir":8633,"Alice":8634,"Ġmistaken":8635,"ĠSpain":8636,"Ġbeneath":8637,"Ġgroups":8638,"Queen":8639,"Said":8640,"TING":8641,"yu":8642,"Ġmart":8643,"ichi":8644,"acles":8645,"Ġwashed":8646,"stra":8647,"Ġcancel":8648,"ĠJa":8649,"Ġunfortunately":8650,"Ġdramatic":8651,"Ġrecover":8652,"OKAY":8653,"Ġcleaned":8654,"ĠTrans":8655,"Ġholes":8656,"Ġquarters":8657,"ĠPalmer":8658,"Ġcaptured":8659,"SELF":8660,"Sal":8661,"TY":8662,"word":8663,"Ġwhi":8664,"orp":8665,"Ġoxygen":8666,"Ġlip":8667,"ĠJud":8668,"ĠOliver":8669,"Ġadmin":8670,"people":8671,"Ġburden":8672,"ennis":8673,"LOS":8674,"which":8675,"Ġhighest":8676,"Ġpattern":8677,"hony":8678,"useum":8679,"Ġque":8680,"Ġchannel":8681,"Ġappeared":8682,"Ġtries":8683,"Ġincrease":8684,"Subtitles":8685,"Ġthorough":8686,"NG":8687,"bag":8688,"Ġward":8689,"owed":8690,"ĠDis":8691,"ĠKent":8692,"thm":8693,"Ġsmaller":8694,"ĠSTART":8695,"Ġeffective":8696,"CC":8697,"hu":8698,"ĠAugust":8699,"ĠBible":8700,"Ġperman":8701,"Ġdrill":8702,"Ġsafely":8703,"ĠSeok":8704,"EEP":8705,"Ġpractically":8706,"Ġrolling":8707,"Ġeffects":8708,"Jean":8709,"ME":8710,"rin":8711,"rary":8712,"yard":8713,"ota":8714,"Ġease":8715,"outhern":8716,"Ġguilt":8717,"ormous":8718,"Been":8719,"Ġadventure":8720,"Ġbehalf":8721,"Ġprofile":8722,"Ġfraud":8723,"mel":8724,"Ġnin":8725,"Ġinn":8726,"ousy":8727,"Ġstandard":8728,"Ġdocuments":8729,"ĠApril":8730,"Ġprocedure":8731,"Amen":8732,"Ġaggress":8733,"eaks":8734,"Ġpleasant":8735,"PHONE":8736,"Ġtraveling":8737,"Ġresources":8738,"Dep":8739,"lers":8740,"othy":8741,"ĠVERY":8742,"Ġidiots":8743,"Ġfootage":8744,"Ġmeantime":8745,"Ġpsych":8746,"Jac":8747,"Kid":8748,"Lock":8749,"VING":8750,"nold":8751,"ĠInc":8752,"Ġpad":8753,"ĠBat":8754,"child":8755,"ĠLewis":8756,"iah":8757,"ONS":8758,"Ġdismiss":8759,"Ġshared":8760,"inson":8761,"nedy":8762,"Ġinterests":8763,"Ġindistinct":8764,"erek":8765,"nocking":8766,"Ġdaily":8767,"Phil":8768,"Ġterrorist":8769,"Ġfederal":8770,"45":8771,"Makes":8772,"Rad":8773,"every":8774,"rik":8775,"ĠDar":8776,"ells":8777,"Ġtrauma":8778,"Ġcounts":8779,"Ġholds":8780,"Ġtracking":8781,"Ġpopulation":8782,"Ġmachines":8783,"GL":8784,"mes":8785,"ĠyÃ¶u":8786,"anch":8787,"Ġgolf":8788,"Ġconcept":8789,"Ġprotest":8790,"Ġterrific":8791,"Ġshocked":8792,"Ġsatellite":8793,"Ġcommercial":8794,"Mal":8795,"fits":8796,"lotte":8797,"Ġhen":8798,"Ġstates":8799,"ieves":8800,"oshi":8801,"ĠFive":8802,"Ġrelieve":8803,"Ġbothering":8804,"ĠAngeles":8805,"Laughing":8806,"Ã¼":8807,"Ġwrap":8808,"Ġtoler":8809,"ĠCass":8810,"ĠNina":8811,"ĠYEAH":8812,"Ġmommy":8813,"Ġsinger":8814,"ĠOKAY":8815,"Ġprotected":8816,"Ġdescribe":8817,"ĠVirginia":8818,"Ġbeside":8819,"moon":8820,"ties":8821,"Ġcatching":8822,"Ġinher":8823,"ĠPac":8824,"aste":8825,"Ġbitter":8826,"Ġstatue":8827,"Phone":8828,"ĠSimon":8829,"Ġvotes":8830,"miral":8831,"BB":8832,"Lady":8833,"je":8834,"iture":8835,"Ġpipe":8836,"ĠMen":8837,"ĠDamn":8838,"ĠWon":8839,"ĠJoy":8840,"ĠJang":8841,"elia":8842,"ADE":8843,"iami":8844,"Ġactivity":8845,"Ġwondered":8846,"thank":8847,"Ġpy":8848,"ĠSusan":8849,"obal":8850,"ĠItaly":8851,"Ġimprove":8852,"Ġstrangers":8853,"Him":8854,"Part":8855,"Ġpir":8856,"ĠDun":8857,"ĠHard":8858,"Ġscale":8859,"Ġunderneath":8860,"Ġbegun":8861,"Ġconfl":8862,"Ġfilthy":8863,"ĠHEL":8864,"Ġcausing":8865,"Ġtechni":8866,"Ġpunished":8867,"Daniel":8868,"Ġodds":8869,"Lemonis":8870,"Funny":8871,"Lo":8872,"ti":8873,"Ġmas":8874,"acked":8875,"andon":8876,"ector":8877,"incoln":8878,"ONEY":8879,"ĠLAUGHING":8880,"Definitely":8881,"ĠMUCH":8882,"hour":8883,"water":8884,"Ġsab":8885,"essel":8886,"Ġhmm":8887,"aman":8888,"ĠWON":8889,"Ġexists":8890,"Ġdowntown":8891,"Ġpsycho":8892,"Ġexpression":8893,"Ġcommunication":8894,"MAR":8895,"Ġles":8896,"Ġpor":8897,"ooh":8898,"ĠSomething":8899,"ĠMet":8900,"ĠLat":8901,"Ġspit":8902,"LEY":8903,"Ġchoices":8904,"Surely":8905,"Ġfreaking":8906,"ĠMarty":8907,"Harry":8908,"Kids":8909,"MUSIC":8910,"WITH":8911,"point":8912,"Ġfrag":8913,"Ġgut":8914,"ĠSav":8915,"cto":8916,"aughters":8917,"Ġfeather":8918,"ĠPrime":8919,"ĠExactly":8920,"Ġhopes":8921,"Ġpsychiat":8922,"uties":8923,"alling":8924,"hang":8925,"ĠDonna":8926,"Ġworthy":8927,"Ġchill":8928,"uffs":8929,"Ġpasses":8930,"incent":8931,"Ġinvestigating":8932,"Ġhyd":8933,"Ġcowboy":8934,"Ġunable":8935,"Ġphilos":8936,"Ġelephant":8937,"Buzz":8938,"dies":8939,"hattering":8940,"ĠDown":8941,"ĠDog":8942,"ĠWatch":8943,"Ġoffense":8944,"ĠYu":8945,"Ġdisgr":8946,"ĠBrook":8947,"Ġtrem":8948,"Ġinvestigate":8949,"RIEND":8950,"Ġorganization":8951,"Ġcriminals":8952,"Ġfleet":8953,"Ġfavourite":8954,"Ġloyalty":8955,"Ġjungle":8956,"GER":8957,"Rock":8958,"Ryan":8959,"Ġmud":8960,"asper":8961,"riet":8962,"ĠAD":8963,"Ġorange":8964,"oston":8965,"Ġinterfe":8966,"ologist":8967,"ĠChoi":8968,"Ġstrategy":8969,"Ġconsequences":8970,"ISTINCT":8971,"ctober":8972,"Catch":8973,"Kevin":8974,"RU":8975,"Ye":8976,"Ġfee":8977,"leg":8978,"ĠShar":8979,"Ġprob":8980,"ths":8981,"ATER":8982,"ogue":8983,"ĠTHAN":8984,"ĠZe":8985,"Ġintelligent":8986,"Ġepisode":8987,"Ġoccurred":8988,"WHEN":8989,"giving":8990,"Ġreception":8991,"ĠCIA":8992,"ainted":8993,"Ġflav":8994,"Ġtraged":8995,"Ġslut":8996,"ĠSheriff":8997,"Ġclasses":8998,"Ġ198":8999,"Ġangle":9000,"Ġmotive":9001,"Ġgrief":9002,"Ġsomethin":9003,"ĠJoseph":9004,"Fore":9005,"rup":9006,"ĠSung":9007,"ĠJu":9008,"ĠJesse":9009,"Ġproduce":9010,"Ġprick":9011,"Ġacts":9012,"Ġguessing":9013,"Ġearned":9014,"William":9015,"Ġcasual":9016,"duction":9017,"Ġemployee":9018,"Ġinvisible":9019,"]:":9020,"cr":9021,"din":9022,"su":9023,"Ġsighs":9024,"usty":9025,"Ġoverw":9026,"ression":9027,"Ġactive":9028,"Ġinvitation":9029,"Ġdealer":9030,"Ġconsult":9031,"Ġdestruction":9032,"Ġgrabbed":9033,"Glad":9034,"ĠCentral":9035,"ĠBuddha":9036,"dad":9037,"tell":9038,"ĠMir":9039,"unning":9040,"agers":9041,"ĠKn":9042,"Ġpolite":9043,"Ġ197":9044,"Ġhistor":9045,"ĠJoey":9046,"ĠDeath":9047,"Ġauthorities":9048,"ixt":9049,"put":9050,"sers":9051,"vation":9052,"Ġcable":9053,"athered":9054,"ĠMake":9055,"ĠAw":9056,"opher":9057,"Ġpays":9058,"eresting":9059,"Ġmessing":9060,"ĠJackie":9061,"Ġscreams":9062,"Ġestablish":9063,"Eric":9064,"SON":9065,"sn":9066,"Ġobey":9067,"alph":9068,"irman":9069,"Ġank":9070,"ĠDi":9071,"Ġvessel":9072,"Ġmarch":9073,"Ġpayment":9074,"Ġevac":9075,"Anna":9076,"class":9077,"Ġseparated":9078,"livia":9079,"ĠAGAIN":9080,"oner":9081,"eder":9082,"osis":9083,"Whenever":9084,"ĠYoon":9085,"Ġprime":9086,"angers":9087,"Ġcheated":9088,"rences":9089,"Ġslipped":9090,"Ġcharm":9091,"Ġprotoc":9092,"Ġimagined":9093,"Ġheroes":9094,"LACE":9095,"Ġunderwear":9096,"Cos":9097,"Much":9098,"nor":9099,"uine":9100,"Ġcities":9101,"ĠWHERE":9102,"ANN":9103,"Ġrecru":9104,"Ġpatrol":9105,"Ġrepair":9106,"ĠSpecial":9107,"Ġspirits":9108,"colm":9109,"ĠBerlin":9110,"Ġvulner":9111,"Oi":9112,"Walk":9113,"really":9114,"Ġsust":9115,"haw":9116,"Ġhip":9117,"Ġplants":9118,"Ġprevious":9119,"Ġpropose":9120,"Ġnecklace":9121,"Indeed":9122,"Ġdefendant":9123,"Ġstructure":9124,"aith":9125,"from":9126,"Ġcott":9127,"alo":9128,"ĠWoman":9129,"Ġalib":9130,"ĠPan":9131,"Ġmanner":9132,"ĠEven":9133,"Ġflow":9134,"Ġaccur":9135,"Ġpersonality":9136,"OHN":9137,"Hail":9138,"MS":9139,"Roy":9140,"hello":9141,"Ġdess":9142,"lem":9143,"ĠCos":9144,"ĠBIG":9145,"ĠGall":9146,"ellow":9147,"Ġrotten":9148,"Ġcomin":9149,"ĠSteven":9150,"pring":9151,"Ġsounded":9152,"Ġdreamed":9153,"Ġinstance":9154,"Ġdepart":9155,"LOOK":9156,"Ġromance":9157,"-...":9158,"ACE":9159,"Ho":9160,"MA":9161,"Med":9162,"power":9163,"want":9164,"rea":9165,"Ġsession":9166,"Ġbusted":9167,"orage":9168,"Ġstable":9169,"Head":9170,"Ġ28":9171,"Ġcruc":9172,"Ġrelative":9173,"Ġconsum":9174,"ĠONLY":9175,"Ġelement":9176,"Ġbottles":9177,"Carol":9178,"Ġfacing":9179,"Ġcritical":9180,"Ġarchit":9181,"''":9182,"Dev":9183,"mi":9184,"erie":9185,"omi":9186,"ĠSophie":9187,"ĠDiv":9188,"istent":9189,"ivity":9190,"Ġsends":9191,"Ġtastes":9192,"Name":9193,"made":9194,"Ġtum":9195,"ribut":9196,"ĠSid":9197,"ĠFEE":9198,"Ġbru":9199,"ATHER":9200,"Ġfridge":9201,"Ġfools":9202,"Understood":9203,"ĠBritain":9204,"Ġscientist":9205,"ĠHitler":9206,"COM":9207,"Nor":9208,"Sen":9209,"bish":9210,"rina":9211,"had":9212,"Ġtools":9213,"ĠSk":9214,"ĠRand":9215,"Ġsequ":9216,"Ġleak":9217,"uffy":9218,"aleb":9219,"Ġcorpse":9220,"Ġreporter":9221,"kesp":9222,"ĠGermans":9223,"Ġcigarettes":9224,"Ġlaundry":9225,"Dou":9226,"Gordon":9227,"Jason":9228,"TE":9229,"ĠMiller":9230,"ĠPri":9231,"Ġclicks":9232,"Ġtalkin":9233,"Ġdisag":9234,"Ġcompass":9235,"Ġlevels":9236,"ĠMuslim":9237,"24":9238,"nis":9239,"Ġske":9240,"ĠIra":9241,"ĠSept":9242,"ĠDef":9243,"ares":9244,"Ġtalented":9245,"Ġenormous":9246,"Ġbuff":9247,"Ġattacks":9248,"Ġdressing":9249,"Ġtempt":9250,"Ġfortun":9251,"kespeare":9252,"Bleep":9253,"Jose":9254,"Jerry":9255,"Wrong":9256,"Ġlend":9257,"Ġnigg":9258,"ĠAlf":9259,"Ġalley":9260,"ĠGil":9261,"ĠGasps":9262,"ulty":9263,"Ġplates":9264,"Ġsue":9265,"irect":9266,"Ġresident":9267,"Ġrequired":9268,"Ġpeaceful":9269,"Ġobsessed":9270,"Ġcolleague":9271,"ĠTokyo":9272,"Till":9273,"ZZ":9274,"Ġln":9275,"arter":9276,"Ġjer":9277,"eable":9278,"ĠArab":9279,"ĠPot":9280,"Ġchamber":9281,"ĠThink":9282,"Ġconspir":9283,"Ġstudies":9284,"ĠDOING":9285,"Ġsolved":9286,"Ġnaturally":9287,"ĠJulie":9288,"Aunt":9289,"Bast":9290,"Count":9291,"cing":9292,"Ġdaughters":9293,"Ġcongratulations":9294,"iches":9295,"osaur":9296,"Ġintr":9297,"Ġroot":9298,"Ġcoff":9299,"aval":9300,"Ġbuildings":9301,"ĠRebecca":9302,"Ġsalad":9303,"Ġempire":9304,"Trying":9305,"netic":9306,"GROANS":9307,"Ġwarrior":9308,"burg":9309,"rd":9310,"ishes":9311,"Ġbeard":9312,"ripp":9313,"ĠCont":9314,"ĠDark":9315,"ĠHoney":9316,"Ġalt":9317,"Ġ48":9318,"Ġdrawn":9319,"Ġblackmail":9320,"ĠBetty":9321,"Ġliquor":9322,"ĠHughes":9323,"Ġengagement":9324,"UES":9325,"fly":9326,"itution":9327,"Ġnerves":9328,"eau":9329,"hoe":9330,"Ġvib":9331,"Ġadvert":9332,"Ġ27":9333,"ĠINTO":9334,"ĠPrincess":9335,"Ġclaims":9336,"ĠKatie":9337,"Ġmobile":9338,"name":9339,"Ġpenny":9340,"raight":9341,"Ġwheels":9342,"Doc":9343,"izzy":9344,"Ġobst":9345,"Ġpainted":9346,"jection":9347,"Ġtesting":9348,"ROWD":9349,"Grandma":9350,"ĠRepublic":9351,"keeper":9352,"ĠHAPPEN":9353,"18":9354,"MP":9355,"TS":9356,"Å¡":9357,"Ġx":9358,"Ġpulse":9359,"semb":9360,"ĠSara":9361,"ookie":9362,"Ġanytime":9363,"Ġmans":9364,"Ġmanip":9365,"emet":9366,"ĠNancy":9367,"ockey":9368,"Ġmoral":9369,"Expl":9370,"Ġinspect":9371,"Ġlocker":9372,"screaming":9373,"engers":9374,"ĠHarris":9375,"Far":9376,"bout":9377,"Ġfag":9378,"Ġfits":9379,"ocks":9380,"ENCE":9381,"Ġmuscle":9382,"ĠShould":9383,"Ġsearched":9384,"Ġthreatening":9385,"Ġstabbed":9386,"Ġcapture":9387,"ography":9388,"Ġfestival":9389,"90":9390,"Boo":9391,"Ġpod":9392,"Ġmerely":9393,"adia":9394,"Ġtherefore":9395,"Ġdrives":9396,"Ġpoliceman":9397,"ĠGOD":9398,"Ġburnt":9399,"ĠFreddie":9400,"Ġcombat":9401,"ĠKyung":9402,"ĠHotel":9403,"Ġhelmet":9404,"17":9405,"Lots":9406,"wait":9407,"oust":9408,"lymp":9409,"ĠLaughing":9410,"ĠRoll":9411,"ĠChloe":9412,"Ġfeature":9413,"ealing":9414,"Ġdepend":9415,"Ġabsolute":9416,"Ġnecessarily":9417,"Ġghosts":9418,"ĠWednesday":9419,"Ġsympt":9420,"Ġoverwhel":9421,"CLA":9422,"Ġdu":9423,"entially":9424,"ĠTWO":9425,"ĠGordon":9426,"Ġhelpful":9427,"Ġdriven":9428,"Ġframe":9429,"Ġinterrog":9430,"Ġdestro":9431,"Ġpaperwork":9432,"Ġtransferred":9433,"Ġdeaf":9434,"Bro":9435,"fall":9436,"ii":9437,"ecess":9438,"ĠToo":9439,"Ġworm":9440,"ATH":9441,"ierre":9442,"Ġskill":9443,"Ġcitizen":9444,"ĠGUYS":9445,"Found":9446,"Ġfran":9447,"ĠSC":9448,"Ġrats":9449,"osity":9450,"Ġspray":9451,"itchell":9452,"ĠExcellency":9453,"Ġjoining":9454,"Ġstrip":9455,"Ġshelter":9456,"Ġtons":9457,"erg":9458,"itter":9459,"Ġgettin":9460,"Ġrack":9461,"ĠLONG":9462,"eline":9463,"ously":9464,"Ġvast":9465,"ĠEVEN":9466,"Ġintense":9467,"ĠKo":9468,"Ġserial":9469,"Ġschools":9470,"ĠArm":9471,"***":9472,"Ġcritic":9473,"Gonna":9474,"GUN":9475,"Lucky":9476,"zi":9477,"Ġtender":9478,"iti":9479,"Ġcub":9480,"Ġpic":9481,"Ġbears":9482,"Ġweed":9483,"inky":9484,"elson":9485,"Ġselect":9486,"Ġcoal":9487,"Ġchips":9488,"Ġsurgeon":9489,"Ġpurcha":9490,"Ġjumping":9491,"Ġmedication":9492,"ĠEXP":9493,"Ġfifth":9494,"Ġcreepy":9495,"pass":9496,"oos":9497,"state":9498,"ĠMolly":9499,"Ġvisiting":9500,"Ġdepressed":9501,"Ġfigures":9502,"Ã©e":9503,"Ġcircus":9504,"ĠMadame":9505,"Ġparticip":9506,"LAUGHTER":9507,"Ġcolleagues":9508,"300":9509,"FTER":9510,"Matt":9511,"case":9512,"Ġdrew":9513,"Ġbeeps":9514,"unction":9515,"umph":9516,"ĠFort":9517,"Ġcommittee":9518,"Ġ400":9519,"ificent":9520,"going":9521,"Ġsuspects":9522,"Ġpupp":9523,"Ġfurniture":9524,"Done":9525,"Jon":9526,"pent":9527,"Ġut":9528,"Ġmatches":9529,"keys":9530,"Ġabuse":9531,"ĠBern":9532,"ĠHAND":9533,"ĠPo":9534,"ĠJune":9535,"Ġmoron":9536,"ASH":9537,"Ġmeters":9538,"Ġretreat":9539,"shine":9540,"Ġbargain":9541,"Ġinjury":9542,"com":9543,"zie":9544,"Ġwicked":9545,"Ġdread":9546,"Ġec":9547,"Ġforms":9548,"Ġchoo":9549,"Ġrelief":9550,"ĠIsn":9551,"Chris":9552,"omplete":9553,"Ext":9554,"FORE":9555,"itable":9556,"Ġtoys":9557,"Ġnurs":9558,"imal":9559,"Ġlovers":9560,"ĠPope":9561,"rete":9562,"Ġbits":9563,"Ġrelatives":9564,"ĠDoor":9565,"Ġdeeper":9566,"Ġrequires":9567,"Ġaccounts":9568,"Ġideal":9569,"Ġpigs":9570,"ĠWilson":9571,"Ġassassin":9572,"Ġaid":9573,"vet":9574,"Ġkicking":9575,"ĠMove":9576,"ĠAfter":9577,"Ġrode":9578,"Ġscul":9579,"Ġflies":9580,"ARY":9581,"Ġcompared":9582,"ISE":9583,"lessly":9584,"Ġmanagement":9585,"Ġexperienced":9586,"Meg":9587,"Ġaward":9588,"imme":9589,"ĠTak":9590,"ĠCHAT":9591,"ĠDiane":9592,"elled":9593,"ĠHannah":9594,"ĠRaj":9595,"ĠFro":9596,"ĠOTHER":9597,"resa":9598,"ĠUH":9599,"mann":9600,"Ġnicely":9601,"Ġconversations":9602,"Ġscientific":9603,"Ġsatisfied":9604,"Dec":9605,"Major":9606,"bled":9607,"rase":9608,"Ġ00":9609,"Ġgreed":9610,"ĠTALK":9611,"ulating":9612,"Ġpromises":9613,"Ġcreating":9614,"Blood":9615,"Ġmotiv":9616,"Ġwisdom":9617,"Ag":9618,"AKING":9619,"Made":9620,"Mister":9621,"Ġye":9622,"ĠTerry":9623,"ĠHu":9624,"respect":9625,"Ġarse":9626,"Inc":9627,"Ġinternal":9628,"rican":9629,"Ġrecorded":9630,"Ġgrounds":9631,"ĠPhill":9632,"Ġblessed":9633,"Boys":9634,"ademy":9635,"DAY":9636,"rot":9637,"Ġtheat":9638,"Ġpuzz":9639,"ati":9640,"Ġjet":9641,"ĠAg":9642,"ĠAWAY":9643,"ĠBro":9644,"ĠWood":9645,"ĠKenny":9646,"Ġshoulders":9647,"Ġdiary":9648,"Ġburns":9649,"Ġdamaged":9650,"Ġfeeding":9651,"Ġdespite":9652,"ĠAustral":9653,"ĠOffice":9654,"Ay":9655,"CER":9656,"Ted":9657,"list":9658,"Ġdign":9659,"..\"":9660,"ĠCart":9661,"agle":9662,"Ġcentral":9663,"speaking":9664,"NOCK":9665,"ĠUniversity":9666,"Ġtragedy":9667,"99":9668,"Ġmonsieur":9669,"esc":9670,"irs":9671,"Ġupd":9672,"Ġages":9673,"Ġprosecutor":9674,"Ġunderground":9675,"Ġlaun":9676,"Ġgenuine":9677,"Ġsteady":9678,"SPEAKING":9679,"Ġclouds":9680,"Ġconcentrate":9681,"Making":9682,"Ġsins":9683,"Ġdomin":9684,"Ġgrill":9685,"Ġgifts":9686,"icians":9687,"rif":9688,"ĠLinda":9689,"ĠFIND":9690,"Ġlets":9691,"Ġschol":9692,"Ġcarpet":9693,"Ġbitches":9694,"grunting":9695,"THANK":9696,"Ġsalary":9697,"Ġhostage":9698,"iju":9699,"ĠMickey":9700,"Ġconflict":9701,"Kate":9702,"Mac":9703,"burn":9704,"Ġdat":9705,"Ġleng":9706,"omy":9707,"Ġisol":9708,"RESS":9709,"Ġchop":9710,"lands":9711,"ĠSeoul":9712,"Ġlargest":9713,"ACT":9714,"ILY":9715,"zard":9716,"Ġwip":9717,"Ġareas":9718,"ĠWy":9719,"Ġalike":9720,"ĠLA":9721,"ĠIsrael":9722,"Ġbudget":9723,"Ġgovernor":9724,"Ġunexpected":9725,"Ken":9726,"ULL":9727,"»¿":9728,"ï»¿":9729,"Ġpages":9730,"Ġhood":9731,"antastic":9732,"ĠHor":9733,"ĠJordan":9734,"ĠFle":9735,"Ġunn":9736,"ĠHee":9737,"ranny":9738,"Ġmeetings":9739,"Ġmonitor":9740,"Ġvisual":9741,"Ġgravity":9742,"Ġhumanity":9743,"ĠRussia":9744,"GOOD":9745,"Ã±or":9746,"Ġpowder":9747,"Billy":9748,"Officer":9749,"bling":9750,"lon":9751,"Ġware":9752,"Ġmac":9753,"Ġlemon":9754,"vember":9755,"uster":9756,"ĠMAY":9757,"Stan":9758,"Ġraid":9759,"Ġfighter":9760,"Ġconfront":9761,"Ġsync":9762,"Grunts":9763,"Ġdancer":9764,"Ġgalax":9765,"Ġgoat":9766,"ste":9767,"ĠCamp":9768,"earch":9769,"Ġvent":9770,"Ġarts":9771,"ikes":9772,"Ġlands":9773,"Ġstretch":9774,"Ġsignificant":9775,"Full":9776,"Gary":9777,"Mi":9778,"eat":9779,"love":9780,"rell":9781,"onies":9782,"Ġcore":9783,"Ġlazy":9784,"uns":9785,"ĠFIRST":9786,"ulture":9787,"Ġcomplaint":9788,"Ġlegit":9789,"Ġcharacters":9790,"Ġdevelopment":9791,"Ġemployees":9792,"Groans":9793,"Ġdive":9794,"Ġstations":9795,"ĠParty":9796,"elp":9797,"Ġscandal":9798,"iao":9799,"Ġbadge":9800,"ĠTHOUGHT":9801,"Ġsurprising":9802,"Ġpenis":9803,"Lovely":9804,"ascal":9805,"ĠLaure":9806,"Breathe":9807,"Ġgambling":9808,"uated":9809,"Ġtrop":9810,"Ġniece":9811,"ĠSaint":9812,"Ġhers":9813,"odge":9814,"Alan":9815,"Ġentry":9816,"Ange":9817,"Ġexplode":9818,"ĠShh":9819,"Ġ196":9820,"Ġcenturies":9821,"Ġcovering":9822,"Ġsurvival":9823,"ĠWarren":9824,"Grandpa":9825,"Ġhammer":9826,"Ġterrified":9827,"TON":9828,"Ġtub":9829,"Ġbul":9830,"ĠMR":9831,"ĠCab":9832,"Ġsoil":9833,"Ġarrog":9834,"ĠThese":9835,"ISP":9836,"Ġpossess":9837,"Ġexplo":9838,"Ġvisited":9839,"Commander":9840,"Ġvulnerable":9841,"zer":9842,"Â£":9843,"Ġfi":9844,"ĠSally":9845,"ĠMAR":9846,"ifically":9847,"rous":9848,"Ġsupplies":9849,"ĠWelcome":9850,"Ġrifle":9851,"Ġhoneymoon":9852,"fortunate":9853,"Ġprincipal":9854,"Ġbothered":9855,"Ġalibi":9856,"Ġtits":9857,"Ġnest":9858,"illion":9859,"cknow":9860,"Ġinteg":9861,"ava":9862,"rane":9863,"Ġfreeze":9864,"Ġmistress":9865,"Ġparano":9866,"ĠElena":9867,"Ġwhistle":9868,"Bus":9869,"CROWD":9870,"Mat":9871,"Squ":9872,"Told":9873,"Win":9874,"ds":9875,"ĠâĻ¬":9876,"Ġdun":9877,"eta":9878,"ashes":9879,"ĠSit":9880,"ĠAk":9881,"inkle":9882,"Ġshh":9883,"Ġrul":9884,"Ġnoon":9885,"ĠFO":9886,"Ġblah":9887,"Ġundercover":9888,"ĠHel":9889,"Ġdisplay":9890,"ĠCanada":9891,"Ġrising":9892,"Ġprivacy":9893,"works":9894,"Ġmotel":9895,"Ġpredict":9896,"Ġadopt":9897,"Ġfulfill":9898,"too":9899,"Ġtube":9900,"Ġfox":9901,"atra":9902,"stop":9903,"uckle":9904,"assy":9905,"perial":9906,"ĠTHESE":9907,"Ġappropriate":9908,"Ġlarger":9909,"Ġaudition":9910,"Ġtowel":9911,"Ġtemporary":9912,"Ã¦":9913,"Ġcaut":9914,"Ġgum":9915,"ĠBec":9916,"ĠDem":9917,"estion":9918,"Star":9919,"arson":9920,"White":9921,"Ġstudied":9922,"ĠSeo":9923,"American":9924,"Ġwidow":9925,"ĠIraq":9926,"take":9927,"tail":9928,"Ġtact":9929,"Ġoath":9930,"Ġstiff":9931,"ifying":9932,"ĠWELL":9933,"Ġcoma":9934,"ĠTHEIR":9935,"Ġchuckles":9936,"hens":9937,"aii":9938,"Ġdemands":9939,"ĠWhit":9940,"ĠForce":9941,"Ġlungs":9942,"Laura":9943,"Walter":9944,"Yup":9945,"ario":9946,"ĠDavis":9947,"ĠGR":9948,"ĠLex":9949,"Ġintended":9950,"oyle":9951,"reeze":9952,"Ġretired":9953,"Ġfreezing":9954,"Ġroads":9955,"Ġdiagn":9956,"Ġcreative":9957,"Ġrelationships":9958,"Ġneighbour":9959,"Ġsharing":9960,"Ġfantasy":9961,"Ġbucket":9962,"Ġassignment":9963,"CY":9964,"lied":9965,"ĠLife":9966,"Ġidol":9967,"Ġdeadly":9968,"Ġchaos":9969,"ĠDoe":9970,"encing":9971,"Ġmadness":9972,"Ġtestimony":9973,"ĠGrant":9974,"Ġtreating":9975,"uddenly":9976,"Ġsurviv":9977,"ĠÃĺ":9978,"Pol":9979,"Ġtires":9980,"Ġcents":9981,"orters":9982,"lection":9983,"ighty":9984,"aughty":9985,"ancing":9986,"Ġhumor":9987,"Ġgrandpa":9988,"Ġlieutenant":9989,"Ġdevast":9990,"Ġillness":9991,"ĠElizabeth":9992,"Ġblessing":9993,"Ġobjects":9994,"Ġbattery":9995,"ĠMargaret":9996,"FO":9997,"zil":9998,"Ġgreet":9999,"Ġstroke":10000,"stable":10001,"Ġrounds":10002,"ĠOt":10003,"ĠViet":10004,"Ġheadquarters":10005,"Ġeats":10006,"Ġdiscipl":10007,"Ġreceipt":10008,"Ġspiritual":10009,"ĠPatrick":10010,"Ouch":10011,"TV":10012,"fia":10013,"Ãľ":10014,"Ġax":10015,"rection":10016,"Ġhob":10017,"eller":10018,"Ġshore":10019,"Ġpossession":10020,"Mean":10021,"ynn":10022,"Ġfocused":10023,"ĠAngela":10024,"Ġbasketball":10025,"Friends":10026,"Ġadminist":10027,"%.":10028,"Eddie":10029,"ci":10030,"juss":10031,"lord":10032,"piece":10033,"ouston":10034,"ĠAri":10035,"ĠLand":10036,"Therefore":10037,"Ġowners":10038,"Ġcrook":10039,"ianne":10040,"Ġadded":10041,"Ġcentre":10042,"Ġsuperior":10043,"Ġoperate":10044,"ĠAbby":10045,"Ġconstantly":10046,"Erm":10047,"ĠScottish":10048,"Fair":10049,"tra":10050,"Ġfires":10051,"Ġthunder":10052,"ĠSister":10053,"ĠBong":10054,"ĠWAIT":10055,"ulting":10056,"Ġaliens":10057,"ĠLi":10058,"Inspector":10059,"ĠUND":10060,"Ġexplore":10061,"Special":10062,"Ġcooked":10063,"Bloody":10064,"Ġpenalty":10065,"Î¿u":10066,"piration":10067,"Ġdessert":10068,"break":10069,"Ġmerry":10070,"uters":10071,"ĠTal":10072,"ĠCooper":10073,"abs":10074,"Thomas":10075,"Ġembr":10076,"Ġaircraft":10077,"liament":10078,"ELLING":10079,"echn":10080,"Ġconstant":10081,"Ġheavens":10082,"Ġrapid":10083,"Ġunfair":10084,"ĠCONTIN":10085,"Ġthirsty":10086,"viet":10087,"Ġmos":10088,"Ġbay":10089,"Ġpile":10090,"Ġwears":10091,"ĠBart":10092,"andra":10093,"Ġratt":10094,"ĠKid":10095,"oughs":10096,"Ġentering":10097,"Ġcrystal":10098,"Ġ150":10099,"Ġsenses":10100,"Ġnewspapers":10101,"Ġspoil":10102,"Ġcomedy":10103,"Fr":10104,"Val":10105,"only":10106,"Ġlousy":10107,"ussell":10108,"Ġthieves":10109,"Ġrear":10110,"uru":10111,"ĠAss":10112,"ppa":10113,"Ġsober":10114,"opsy":10115,"ĠBoth":10116,"Ġworn":10117,"ĠWR":10118,"ĠLake":10119,"ĠJun":10120,"Ġvest":10121,"Together":10122,"Ġskip":10123,"ĠMarie":10124,"Ġparadise":10125,"Ġrocket":10126,"Ġcurrently":10127,"Ġultimate":10128,"VES":10129,"Ġlecture":10130,"Ġol":10131,"Ġwealth":10132,"Ġstorage":10133,"ĠMass":10134,"ĠCra":10135,"ĠGREAT":10136,"ĠHob":10137,"umm":10138,"ĠRen":10139,"ĠJO":10140,"orton":10141,"orthern":10142,"Ġ26":10143,"Ġbreed":10144,"Ġfights":10145,"Ġdifferently":10146,"ĠSoon":10147,"Ġgrows":10148,"Ġcauses":10149,"Ġdeposit":10150,"emetery":10151,"Ka":10152,"onio":10153,"Ġder":10154,"ĠMiami":10155,"Ġoutra":10156,"ĠGy":10157,"ĠLiz":10158,"osie":10159,"ĠFE":10160,"akers":10161,"ighing":10162,"ients":10163,"Ġreflect":10164,"Ġexplained":10165,"Ġinvestment":10166,"Scott":10167,"Says":10168,"Ġdragon":10169,"Change":10170,"MEN":10171,"dess":10172,"itals":10173,"verend":10174,"endence":10175,"ĠFRIEND":10176,"Ġlookin":10177,"oyd":10178,"Ġowned":10179,"Ġabsurd":10180,"Ġerr":10181,"Emily":10182,"Ġinterfere":10183,"ijuana":10184,"DE":10185,"Mil":10186,"WN":10187,"Wha":10188,"Ġgroom":10189,"ader":10190,"sex":10191,"Ġanaly":10192,"ĠBert":10193,"ĠBoston":10194,"Ġmanners":10195,"icket":10196,"ĠEun":10197,"Ġscrap":10198,"Ġcoin":10199,"Ġheadache":10200,"Ġrage":10201,"Ġrig":10202,"Ġefforts":10203,"Ġerror":10204,"Ġmarrying":10205,"Art":10206,"ĠShakespeare":10207,"Ġsuggesting":10208,"Ġintroduced":10209,"Nine":10210,"free":10211,"Ġtables":10212,"Ġduties":10213,"ispering":10214,"Ġcattle":10215,"Ġoven":10216,"Ġupper":10217,"ĠMoon":10218,"ĠLen":10219,"ĠNam":10220,"Ġclan":10221,"Ġpersonnel":10222,"shots":10223,"ĠInter":10224,"CHING":10225,"Ġpapa":10226,"Turns":10227,"Ġvolcan":10228,"Ġexecution":10229,"Ġinfected":10230,"Wonderful":10231,"Ġdiscovery":10232,"Crazy":10233,"UB":10234,"heim":10235,"Ġhesit":10236,"idd":10237,"Ġanonym":10238,"ĠSur":10239,"Ġsocks":10240,"ĠHallow":10241,"ĠPART":10242,"Ġraising":10243,"Ġsqueeze":10244,"ĠChamp":10245,"Ġcurtain":10246,"ĠLIFE":10247,"Ġrequested":10248,"ĠCOMP":10249,"Ġchirping":10250,"Ba":10251,"Bon":10252,"}{\\":10253,"omic":10254,"Ġabroad":10255,"ĠDylan":10256,"odka":10257,"endy":10258,"Ġbackwards":10259,"ĠFire":10260,"Ġhappier":10261,"Ġcoc":10262,"asses":10263,"Ġchecks":10264,"Ġhalfway":10265,"ĠAllen":10266,"ĠGoodbye":10267,"ADIO":10268,"Ġjudges":10269,"uggage":10270,"iggles":10271,"Ġstepped":10272,"Ġdescription":10273,"ĠJersey":10274,"Ġtraditional":10275,"Ġgranted":10276,"Ġassumed":10277,"frz":10278,"Ġconspiracy":10279,"FUL":10280,"Ġgathered":10281,"ĠBird":10282,"Ġvice":10283,"Ġpean":10284,"Ġquant":10285,"Ġglobal":10286,"Ġbooked":10287,"ĠArk":10288,"screams":10289,"Charles":10290,"Ġappearance":10291,"Ġdebate":10292,"Addons":10293,"Ġcompleted":10294,"ĠEmpire":10295,"Ġsculpt":10296,"Push":10297,"SINGING":10298,"Taking":10299,"aus":10300,"pite":10301,"Ġwashing":10302,"Ġknocking":10303,"eek":10304,"ĠSoc":10305,"ĠSweet":10306,"Beat":10307,"CHAR":10308,"ĠArch":10309,"Ġcolors":10310,"Ġinitial":10311,"Ġfabric":10312,"22":10313,"Drive":10314,"SN":10315,"Sad":10316,"dney":10317,"fight":10318,"ghed":10319,"kun":10320,"las":10321,"Ġsorrow":10322,"iser":10323,"ammy":10324,"ĠSky":10325,"hos":10326,"ĠCompany":10327,"ĠBi":10328,"ando":10329,"ĠLogan":10330,"ĠKID":10331,"Ġclimate":10332,"ĠYang":10333,"Ġunfortunate":10334,"Ġhomeless":10335,"Ġboats":10336,"Ġfucker":10337,"Guy":10338,"Ġranch":10339,"Ġtypes":10340,"Ġsteam":10341,"levant":10342,"SCREAMING":10343,"Air":10344,"PR":10345,"Ġwolves":10346,"Ġcripp":10347,"Ġfetch":10348,"Ġsteak":10349,"ĠTodd":10350,"Ġproved":10351,"Ġintim":10352,"Ġovernight":10353,"Ġhanded":10354,"pton":10355,"Ġdesc":10356,"Ġpromotion":10357,"Ġimages":10358,"Arthur":10359,"Ġsuggested":10360,"Ġlimited":10361,"Ġdenied":10362,"ĠEuropean":10363,"ĠCounty":10364,"Ġrhythm":10365,"Children":10366,"IZ":10367,"bra":10368,"job":10369,"mid":10370,"sa":10371,"sho":10372,"ĠIl":10373,"aying":10374,"ĠGroup":10375,"ĠJudge":10376,"ĠFace":10377,"ĠFUCK":10378,"Ġspons":10379,"Ġhears":10380,"OWS":10381,"ĠAlbert":10382,"Ġsusp":10383,"ĠRoom":10384,"loria":10385,"ĠPlan":10386,"Ġsamples":10387,"ĠWHY":10388,"Bobby":10389,"Ġfrankly":10390,"ÂĻ":10391,"Ġtire":10392,"itan":10393,"Ġdated":10394,"Ġpist":10395,"Ġliver":10396,"ĠBri":10397,"ĠEaster":10398,"ĠKnow":10399,"Ġsche":10400,"Ġcrashed":10401,"Ġski":10402,"Ġinspector":10403,"ĠReady":10404,"Ġreturns":10405,"Ġcookies":10406,"Ġsuspected":10407,"UMB":10408,"Ġfloating":10409,"APP":10410,"Ã¢":10411,"Ġyards":10412,"Ġmour":10413,"Ġfog":10414,"Ġly":10415,"ldon":10416,"Ġrhe":10417,"ĠPen":10418,"ĠRINGING":10419,"ĠJeremy":10420,"ĠEnd":10421,"INS":10422,"ĠVO":10423,"Ġfinest":10424,"Annie":10425,"Ġadvanced":10426,"Ġpraying":10427,"Ġteachers":10428,"Ġcorrected":10429,"Ġinjuries":10430,"ĠEnter":10431,"Ġrumors":10432,"Ġgloves":10433,"Ġangels":10434,"ĠFEEL":10435,"Ġwarehouse":10436,"Jump":10437,"Sun":10438,"ju":10439,"nels":10440,"wan":10441,"isha":10442,"Ġpork":10443,"usions":10444,"Ġhaunt":10445,"rike":10446,"ĠGen":10447,"ĠGene":10448,"Ġpled":10449,"ĠFair":10450,"Ġadorable":10451,"Ġmusical":10452,"okes":10453,"amera":10454,"Ġopera":10455,"Grace":10456,"Ġvisitor":10457,"ramatic":10458,"Ġcombination":10459,"Ġbuzzing":10460,"Dong":10461,"Pete":10462,"pher":10463,"Ġpatch":10464,"antha":10465,"ĠGIVE":10466,"Ġrank":10467,"ĠJay":10468,"ĠOpen":10469,"Ġsubs":10470,"Ġprescri":10471,"encies":10472,"Ġregion":10473,"Ġadvise":10474,"ĠJustin":10475,"ennifer":10476,"Ġsnap":10477,"Ġinfection":10478,"ĠHELP":10479,"ĠUNDER":10480,"BAR":10481,"UFF":10482,"hus":10483,"wind":10484,"Ġkit":10485,"estic":10486,"umble":10487,"Ġgrunting":10488,"Ġrecovered":10489,"Ġattached":10490,"together":10491,"Ġmemor":10492,"Ġshortly":10493,"Rachel":10494,"press":10495,"Ã¤":10496,"Ġcine":10497,"ayan":10498,"river":10499,"ĠAlp":10500,"oodle":10501,"Ġvag":10502,"ĠKira":10503,"Ste":10504,"RED":10505,"headed":10506,"Ġsorts":10507,"Ġtestify":10508,"Ġinvolve":10509,"ĠCheers":10510,"ĠÂ£":10511,"ĠKorean":10512,"Ġwrapped":10513,"Gold":10514,"LAUSE":10515,"PT":10516,"Ta":10517,"called":10518,"hara":10519,"Ġhills":10520,"Ġweb":10521,"stick":10522,"ĠBank":10523,"oded":10524,"Ġpatience":10525,"Ġaddict":10526,"ruption":10527,"Ġdivine":10528,"Ġadmitted":10529,"ĠSURE":10530,"ĠAnything":10531,"reeching":10532,"Ġanxious":10533,"Ġdisgrace":10534,"DR":10535,"bro":10536,"Ġ~":10537,"Ġmug":10538,"Ġsore":10539,"Goodnight":10540,"Ġperf":10541,"Ġreco":10542,"Ġdeaths":10543,"Ġclosely":10544,"Ġripped":10545,"Ġclosest":10546,"Ġworthless":10547,"Ġpacking":10548,"Ġrecognized":10549,"Leon":10550,"Ġtaxes":10551,"ĠLAUGHS":10552,"Ġdiamonds":10553,"ĠPHONE":10554,"Ġancestors":10555,"mitted":10556,"nik":10557,"pot":10558,"pisode":10559,"indistinct":10560,"ĠWolf":10561,"ĠFox":10562,"Ġvault":10563,"ĠStill":10564,"Ġpermit":10565,"Ġcrab":10566,"Ġcraft":10567,"aza":10568,"ggie":10569,"Ġcounty":10570,"ĠCHUCK":10571,"Ġamongst":10572,"ĠStanley":10573,"Ġpuppy":10574,"Ġeternal":10575,"Ġanalysis":10576,"Ġphase":10577,"Ġcertific":10578,"Amy":10579,"hot":10580,"Ġdynam":10581,"Ġluggage":10582,"Ġpip":10583,"Ġsticking":10584,"ĠTan":10585,"Ġsafer":10586,"Ġunre":10587,"Ġacted":10588,"Ġcompliment":10589,"ĠBrick":10590,"AMES":10591,"leton":10592,"ĠCommission":10593,"Ġrubbish":10594,"ĠJanet":10595,"Ġestablished":10596,"Ġelectricity":10597,"Freeze":10598,"Bec":10599,"DI":10600,"aver":10601,"Ã§":10602,"Ġwaters":10603,"Ġmm":10604,"Ġjohn":10605,"ĠDur":10606,"ĠDale":10607,"Ġmankind":10608,"Ġleague":10609,"Ġcru":10610,"Ġtragic":10611,"Ġmenu":10612,"LED":10613,"Ġregister":10614,"Ġdresses":10615,"Ġbells":10616,"Ġengineer":10617,"Ġbreasts":10618,"Ġinspired":10619,"34":10620,"Af":10621,"Emma":10622,"won":10623,"Â¿":10624,"Ġtale":10625,"Ġga":10626,"orus":10627,"Ġstream":10628,"eered":10629,"ĠSM":10630,"ĠWonder":10631,"istant":10632,"Ġimpr":10633,"pective":10634,"Ġsweep":10635,"Ġfract":10636,"Ġtested":10637,"Ġdiscussion":10638,"ERSON":10639,"Ġreplaced":10640,"ĠPhilip":10641,"Ġeth":10642,"Ġtut":10643,"Ġtiss":10644,"Ġfoul":10645,"Ġlame":10646,"str":10647,"ĠDuke":10648,"ĠJoon":10649,"ĠFL":10650,"ĠOlymp":10651,"ĠEs":10652,"ĠKhan":10653,"Ġblade":10654,"attering":10655,"YOUR":10656,"Ġaffairs":10657,"ĠAdams":10658,"Ġhopeless":10659,"Ġvisitors":10660,"ĠGuard":10661,"ĠAmanda":10662,"Ġignor":10663,"ĠCarlos":10664,"Ġadults":10665,"Ġrevealed":10666,"Ġvarious":10667,"ĠYEARS":10668,"Ġritual":10669,"Han":10670,"Rich":10671,"inity":10672,"ĠSar":10673,"ĠMonsieur":10674,"ĠGRO":10675,"ĠLang":10676,"ĠLOT":10677,"hart":10678,"Ġdisgu":10679,"Ġsupper":10680,"Ġmonsters":10681,"Ġstrings":10682,"itching":10683,"Clark":10684,"Ġcommunicate":10685,"card":10686,"Ġtool":10687,"Ġbeam":10688,"acious":10689,"Ġstew":10690,"Ġsolo":10691,"Ġsoda":10692,"ĠRES":10693,"ĠNap":10694,"Ġhappily":10695,"Ġbloke":10696,"Ġroast":10697,"ĠBridge":10698,"Ġquestioning":10699,"Ġartists":10700,"Ġdrops":10701,"Ġdeliber":10702,"Ġsoftly":10703,"ĠMaggie":10704,"handed":10705,"Ġproducts":10706,"Correct":10707,"Ġarguing":10708,"bian":10709,"fa":10710,"Ġinqu":10711,"acity":10712,"sea":10713,"ĠCR":10714,"ively":10715,"ĠEL":10716,"Ġunderstands":10717,"Ġraining":10718,"Ġdistant":10719,"Ġmagical":10720,"Ġbasis":10721,"atural":10722,"Ġpreparing":10723,"Ġprayers":10724,"ĠSHOW":10725,"iggling":10726,"Ġcelebration":10727,"ĠHerr":10728,"Team":10729,"Ġmisunderstanding":10730,"Ġproposal":10731,"bul":10732,"Ġther":10733,"Ġpec":10734,"Ġey":10735,"ĠSix":10736,"ĠChild":10737,"inks":10738,"aks":10739,"Ġbubble":10740,"Ġcontrary":10741,"Ash":10742,"Ġcaf":10743,"Ġapprove":10744,"Ġbooze":10745,"WAYS":10746,"Ġslaves":10747,"Ġtypical":10748,"Ġapplication":10749,"Cat":10750,"Josh":10751,"Roll":10752,"Sex":10753,"bits":10754,"could":10755,"nim":10756,"Ġven":10757,"inny":10758,"Ġmuseum":10759,"Ġbold":10760,"Ġtoes":10761,"esy":10762,"Ġwebs":10763,"adays":10764,"Ġsticks":10765,"ĠMUST":10766,"ĠBUS":10767,"ureau":10768,"ĠLincoln":10769,"Ġneedle":10770,"Ġvalley":10771,"ĠNumber":10772,"auer":10773,"Ġsmugg":10774,"Ġ32":10775,"loaded":10776,"ĠMexican":10777,"Ġsealed":10778,"Ġfascinating":10779,"Ġastronaut":10780,"Meanwhile":10781,"Ang":10782,"Ger":10783,"Gosh":10784,"Greetings":10785,"MAY":10786,"iples":10787,"Ġloo":10788,"Ġlux":10789,"iders":10790,"rip":10791,"stance":10792,"ĠBab":10793,"ĠHoll":10794,"ĠPLACE":10795,"umming":10796,"Ġvital":10797,"ĠNIGHT":10798,"obile":10799,"ressing":10800,"ĠStation":10801,"ARM":10802,"ARING":10803,"Ġpassengers":10804,"Ġlightning":10805,"ĠMarch":10806,"Ġcorrupt":10807,"Ġradar":10808,"uka":10809,"Awesome":10810,"Interesting":10811,"Ġtortured":10812,"Ġmagnificent":10813,"Ġpotatoes":10814,"wang":10815,"Ġsang":10816,"Ġdug":10817,"Ġkings":10818,"ĠAbsolutely":10819,"ĠCongress":10820,"ĠPUT":10821,"ĠRINGS":10822,"orted":10823,"ĠNobody":10824,"harm":10825,"Ġshaking":10826,"Ġchrist":10827,"Ġinterp":10828,"Ġconsent":10829,"Ġparade":10830,"ĠCommand":10831,"Ġlimits":10832,"Despite":10833,"ĠKennedy":10834,"Ġpriority":10835,"Grow":10836,"ROUGH":10837,"Victor":10838,"ded":10839,"ahn":10840,"Ġprev":10841,"Ġinternet":10842,"bbie":10843,"Ġdipl":10844,"Ġerm":10845,"ĠBETTER":10846,"BS":10847,"HAL":10848,"Ġbend":10849,"Ġbait":10850,"Ġfuss":10851,"Ġhunter":10852,"icip":10853,"Ġknight":10854,"osure":10855,"ĠRicky":10856,"earl":10857,"employ":10858,"ĠNavy":10859,"ATING":10860,"Ġharass":10861,"Ġpassage":10862,"Ġbarking":10863,"Ġrepay":10864,"ĠChase":10865,"ADY":10866,"Ġeditor":10867,"ĠJoan":10868,"Ġhooked":10869,"IGN":10870,"Ġassistance":10871,"ĠANYTHING":10872,"ĠHawk":10873,"Ġdefeated":10874,"Coffee":10875,"Ġphotographs":10876,"Ġconclusion":10877,"Director":10878,"GU":10879,"ishi":10880,"ications":10881,"oog":10882,"Ġcandle":10883,"ĠBran":10884,"ĠBeth":10885,"ĠDu":10886,"ĠWhe":10887,"ĠOscar":10888,"ĠKIND":10889,"Strange":10890,"ĠTHINGS":10891,"Ġinches":10892,"ĠSTILL":10893,"Abby":10894,"Screw":10895,"Between":10896,"Ġtapes":10897,"SCREAMS":10898,"Bitch":10899,"DS":10900,"Dean":10901,"Jenny":10902,"PET":10903,"cs":10904,"Ġlads":10905,"Ġinch":10906,"Ġath":10907,"ĠRey":10908,"ĠKr":10909,"Straight":10910,"urns":10911,"Ġworlds":10912,"uffled":10913,"Ġmarked":10914,"Ġaccidentally":10915,"Ġclubs":10916,"ĠJessica":10917,"ĠNathan":10918,"Ġindependent":10919,"ĠMiddle":10920,"ĠService":10921,"Ġcoordinates":10922,"Totally":10923,"Bless":10924,"Sean":10925,"Ya":10926,"Yay":10927,"narrator":10928,"walk":10929,"Ġwished":10930,"ĠSORRY":10931,"ĠCut":10932,"Ġupside":10933,"opard":10934,"ENE":10935,"alem":10936,"Ġdraft":10937,"Ġexcuses":10938,"Ġexpand":10939,"Ġscrewing":10940,"Ġidentified":10941,"Ġregistered":10942,"ifferent":10943,"Ġpermanent":10944,"Ġcoffin":10945,"Brian":10946,"Pet":10947,"Pop":10948,"Sound":10949,"Suddenly":10950,"iour":10951,"Ġ/":10952,"ethe":10953,"ĠAvenue":10954,"ĠCool":10955,"ĠBad":10956,"ĠGus":10957,"Ġspotted":10958,"ags":10959,"plane":10960,"ĠYo":10961,"--?":10962,"Ġwrist":10963,"Ġharsh":10964,"Ġcuts":10965,"iki":10966,"Ġdestination":10967,"ĠChairman":10968,"Ġbanks":10969,"Ġlaying":10970,"ĠFrances":10971,"Ġpillow":10972,"Simon":10973,"Lucy":10974,"CAN":10975,"fsc":10976,"Ġwhip":10977,"Ġphen":10978,"urf":10979,"Ġsoap":10980,"ĠWizard":10981,"Ġcheers":10982,"otto":10983,"Already":10984,"velous":10985,"Ġhumble":10986,"Ġawfully":10987,"Ġconcerns":10988,"ooping":10989,"Ġcocaine":10990,"Faster":10991,"Rest":10992,"Top":10993,"Write":10994,"rome":10995,"Ġcemetery":10996,"Ġnails":10997,"ĠSi":10998,"ĠDie":10999,"ĠHurry":11000,"ĠREM":11001,"ĠOH":11002,"Ġamer":11003,"ĠKam":11004,"ĠVi":11005,"Ġmush":11006,"Ġconvention":11007,"ĠBeach":11008,"Ġdirections":11009,"Ġturkey":11010,"Ġfilling":11011,"ĠUnion":11012,"Ġproducer":11013,"Ġlaughed":11014,"Ġscenes":11015,"ĠFlorida":11016,"jussi":11017,"mat":11018,"west":11019,"Ġ{":11020,"Ġbunk":11021,"Ġinner":11022,"acel":11023,"Ġreverse":11024,"Ġstare":11025,"ĠTen":11026,"Ġassemb":11027,"Ġshining":11028,"Ġplug":11029,"Ġmothers":11030,"ĠAlright":11031,"Ġforgetting":11032,"ĠChristine":11033,"Ġexcit":11034,"Ġengines":11035,"Amazing":11036,"Ġinsisted":11037,"Ġfifty":11038,"Ġentertainment":11039,"Ġforbidden":11040,"KNOCK":11041,"MR":11042,"dia":11043,"lby":11044,"phy":11045,"Ġfried":11046,"acter":11047,"ĠBOY":11048,"ĠGIRL":11049,"ĠOs":11050,"ortion":11051,"Ġquote":11052,"ullen":11053,"obbing":11054,"Ġpole":11055,"Ġkidney":11056,"iva":11057,"Ġcomputers":11058,"ocus":11059,"Ġwars":11060,"Seeing":11061,"Ġinspiration":11062,"uros":11063,"Ġfingerprints":11064,"ĠSwed":11065,"Idiot":11066,"ufact":11067,"Ġcollapse":11068,"ĠAtlant":11069,"ĠBarbara":11070,"Ġexclusive":11071,"35":11072,"Je":11073,"Ke":11074,"Po":11075,"Ġties":11076,"ĠEli":11077,"cked":11078,"Ġleather":11079,"Doing":11080,"Ġmini":11081,"Ġexplains":11082,"Ġabsence":11083,"Ġcondem":11084,"Ġarrives":11085,"Ġcrossing":11086,"Ġlabel":11087,"Ġfolk":11088,"ĠMonica":11089,"ragon":11090,"Ġitems":11091,"Ġkilomet":11092,"ĠSecretary":11093,"Ġremarkable":11094,"Ġtechnique":11095,"Ġsymptoms":11096,"Ron":11097,"Ġthirty":11098,"idel":11099,"illian":11100,"enda":11101,"ĠJuan":11102,"ĠSte":11103,"Ġgrat":11104,"Ġ36":11105,"Ġsits":11106,"Ġradiation":11107,"Ġunconscious":11108,"ABLE":11109,"Ġpoisoned":11110,"Ġbelieving":11111,"Ġhomicide":11112,"Ġmultiple":11113,"Ġaccurate":11114,"AI":11115,"Hank":11116,"KI":11117,"Nat":11118,"Ġpalm":11119,"leans":11120,"Ġmelt":11121,"Ġreun":11122,"Ġgoss":11123,"ĠACT":11124,"igoo":11125,"ĠKnight":11126,"Ġflip":11127,"Ġsmash":11128,"Ġcontent":11129,"Ġgray":11130,"Ġhatred":11131,"heads":11132,"Ġcontinued":11133,"Ġoperations":11134,"Ġfairly":11135,"ĠDidn":11136,"Ġreminded":11137,"Ġcomplaining":11138,"Bur":11139,"Molly":11140,"PD":11141,"after":11142,"ique":11143,"oons":11144,"ridge":11145,"Ġmouse":11146,"Ġdict":11147,"Ġgates":11148,"ĠLo":11149,"icken":11150,"Ġhandled":11151,"Ġglorious":11152,"Quit":11153,"Ġsniff":11154,"Ġtennis":11155,"Ġzomb":11156,"ĠSuz":11157,"blur":11158,"Ġclaimed":11159,"Leo":11160,"Ġkidnapping":11161,"Ġthrilled":11162,"Ġwithdraw":11163,"AVE":11164,"Deal":11165,"ingle":11166,"lee":11167,"Ġbeans":11168,"ĠMul":11169,"ĠRog":11170,"Ġcomic":11171,"ĠFitz":11172,"Ġbranch":11173,"Ġentit":11174,"ĠBrid":11175,"Ġcollar":11176,"ĠSpider":11177,"Ġsixth":11178,"ercules":11179,"Ġmassage":11180,"Ġshadows":11181,"ĠAROUND":11182,"Ġdedicated":11183,"Ġblonde":11184,"CLE":11185,"Sch":11186,"].":11187,"ghan":11188,"Ġsack":11189,"Ġcries":11190,"imeter":11191,"ĠTimes":11192,"ĠTower":11193,"Ġrust":11194,"igo":11195,"ĠFriend":11196,"Ġspaces":11197,"akin":11198,"ĠKILL":11199,"Ġcargo":11200,"Ġinstant":11201,"Ġcopies":11202,"Ġmisery":11203,"Ġconvicted":11204,"poral":11205,"ribution":11206,"Julia":11207,"ĠHalloween":11208,".:":11209,"Merry":11210,"Sus":11211,"wright":11212,"wide":11213,"Ġcam":11214,"Ġfu":11215,"Ġthumb":11216,"imo":11217,"Ġjunior":11218,"ĠSel":11219,"Ġloses":11220,"ĠOctober":11221,"ctic":11222,"ĠNag":11223,"three":11224,"through":11225,"Ġsup":11226,"Ġbugs":11227,"Ġoldest":11228,"Ġperpet":11229,"EAKS":11230,"Ġfilming":11231,"Ġdinosaur":11232,"Ġballoon":11233,"Ġaffection":11234,"Ġfooled":11235,"LYN":11236,"ĠCommun":11237,"Ġparked":11238,"ĠBrazil":11239,"Ġcommitment":11240,"Ġprecisely":11241,"ido":11242,"Ġrehab":11243,"ĠSnow":11244,"ĠGra":11245,"Ġsheet":11246,"ĠRud":11247,"ĠRalph":11248,"Ġpointing":11249,"Ġresidence":11250,"Ġelsewhere":11251,"ĠClay":11252,"balls":11253,"Ġmagician":11254,"Ġvolunt":11255,"ĠCaroline":11256,"Ġprotocol":11257,"Cell":11258,"NING":11259,"Park":11260,"aude":11261,"def":11262,"dramatic":11263,"jour":11264,"jack":11265,"Ġutter":11266,"Ġacknow":11267,"Ġcul":11268,"Ġlamb":11269,"omers":11270,"aron":11271,"Ġbeats":11272,"osition":11273,"ĠOb":11274,"emo":11275,"ANGE":11276,"Ġphrase":11277,"Ġslide":11278,"Ġdeserved":11279,"Ġsolar":11280,"ounter":11281,"Ġdrawer":11282,"chair":11283,"Ġcelebrating":11284,"ĠCrown":11285,"Ġaffected":11286,"ĠTyler":11287,"Ġfabulous":11288,"ĠSCREAMING":11289,"Person":11290,"lets":11291,"uer":11292,"Ġfaint":11293,"ĠIrish":11294,"Ġheels":11295,"Ġrely":11296,"ĠMONEY":11297,"ĠCatherine":11298,"Ġworship":11299,"ĠFat":11300,"ĠOper":11301,"ĠKan":11302,"Ġtowns":11303,"Ġfellows":11304,"Ġprepar":11305,"ĠRober":11306,"Ġthreaten":11307,"Secret":11308,"Ġtrailer":11309,"Ġfrequency":11310,"rivate":11311,"Ġindistinctly":11312,"BOY":11313,"Kay":11314,"PANTING":11315,"long":11316,"earest":11317,"ĠMess":11318,"ĠBook":11319,"ĠBuck":11320,"ulu":11321,"oli":11322,"ĠRuth":11323,"ĠKill":11324,"ĠChin":11325,"Ġrepres":11326,"Ġhorror":11327,"Ġthreats":11328,"Ġdestroying":11329,"Fall":11330,"VED":11331,"Ġmall":11332,"Ġgest":11333,"Ġsoph":11334,"ĠWild":11335,"ĠLeg":11336,"Ġflames":11337,"ĠIND":11338,"oki":11339,"Unbelievable":11340,"Ġoperating":11341,"Ġlawn":11342,"ĠShall":11343,"ĠTracy":11344,"Ġprovided":11345,"âĻªâĻªâĻª":11346,"Ġpockets":11347,"ĠSonny":11348,"ĠSquad":11349,"Ġassigned":11350,"Ġchapter":11351,"hattan":11352,"Bell":11353,"Cal":11354,"Ġtid":11355,"Ġbench":11356,"Ġfrog":11357,"Ġni":11358,"Ġnav":11359,"Ġpier":11360,"eda":11361,"entine":11362,"Ġcandles":11363,"Ġcompens":11364,"ako":11365,"ideon":11366,"Inter":11367,"ĠStuart":11368,"Ġshave":11369,"Ġera":11370,"ĠFranklin":11371,"ĠThanksgiving":11372,"Ġimmunity":11373,"Ġdelicate":11374,"Ġblanket":11375,"Ġdoubts":11376,"jud":11377,"rr":11378,"Ġtiger":11379,"Ġdope":11380,"eem":11381,"ĠMADE":11382,"ĠCasey":11383,"ĠBal":11384,"ĠGre":11385,"ĠLas":11386,"ĠFil":11387,"Ġseed":11388,"upreme":11389,"Ġdischar":11390,"THEN":11391,"Ġtwins":11392,"TERS":11393,"ĠWhoo":11394,"IONS":11395,"Ġformal":11396,"Ġpractical":11397,"ĠHarvey":11398,"****":11399,"Ġphysically":11400,"ĠRussians":11401,"ontinue":11402,"Ġactivities":11403,"Ġprivilege":11404,"ĠBatman":11405,"ĠSeptember":11406,"Ġexcitement":11407,"Bang":11408,"Luke":11409,"VD":11410,"Van":11411,"baby":11412,"maybe":11413,"Ð°":11414,"inet":11415,"Ġmaj":11416,"Ġfaced":11417,"Ġpanc":11418,"rix":11419,"ĠMason":11420,"ĠRADIO":11421,"eman":11422,"Ġpoker":11423,"Ġtermin":11424,"anya":11425,"Ġsimpl":11426,"Ġextract":11427,"Ġbelonged":11428,"Ġremaining":11429,"ĠLouise":11430,"Morgan":11431,"itzer":11432,"Ġborrowed":11433,"Ġarrangements":11434,"Buy":11435,"Ġrelieved":11436,"Cover":11437,"Dave":11438,"EPS":11439,"GROW":11440,"uations":11441,"whe":11442,"reaking":11443,"otch":11444,"Ġheir":11445,"leen":11446,"ĠMOM":11447,"ĠTRA":11448,"ĠCRA":11449,"elli":11450,"ĠLes":11451,"Ġspill":11452,"ĠYi":11453,"Ġwrites":11454,"Ġpron":11455,"ĠValley":11456,"ĠAli":11457,"Ġdeter":11458,"ĠSebastian":11459,"CTOR":11460,"ĠAnthony":11461,"Ġprinciple":11462,"Ġadopted":11463,"Silence":11464,"Die":11465,"Fantastic":11466,"Hor":11467,"Met":11468,"Monsieur":11469,"TR":11470,"bet":11471,"des":11472,"Ġfarewell":11473,"Ġnaughty":11474,"ĠDerek":11475,"ĠRUN":11476,"Ġexagger":11477,"blem":11478,"ĠNovember":11479,"Inside":11480,"Ġrealised":11481,"Clean":11482,"Ġindustrial":11483,"Ġrebu":11484,"Ġtremend":11485,"AIL":11486,"Dest":11487,"Lea":11488,"Ot":11489,"mine":11490,"panting":11491,"Ġyog":11492,"Ġbald":11493,"ĠIre":11494,"Ġashes":11495,"geons":11496,"ĠRub":11497,"ĠNi":11498,"ĠEthan":11499,"assador":11500,"Ġhandling":11501,"ĠHelen":11502,"Ġriot":11503,"ĠGray":11504,"Marcus":11505,"Ġrisky":11506,"ĠProt":11507,"gnes":11508,"ĠOrleans":11509,"Ġgrip":11510,"Ġdisturbing":11511,"Ġresistance":11512,"DING":11513,"Fool":11514,"LS":11515,"rific":11516,"ĠCross":11517,"Ġbrush":11518,"ĠMarc":11519,"Ġbarn":11520,"ova":11521,"Ġposted":11522,"Ġexception":11523,"Ġplanted":11524,"ĠHawaii":11525,"AKES":11526,"ĠMegan":11527,"Ġconvenient":11528,"IX":11529,"Took":11530,"dr":11531,"fashion":11532,"via":11533,"ergic":11534,"Ġdice":11535,"Ġkeen":11536,"acement":11537,"ĠTown":11538,"ĠCir":11539,"Ġsole":11540,"Ġmanufact":11541,"Ġcarbon":11542,"Ġpoll":11543,"Ġacid":11544,"Ġcouples":11545,"Ġinvasion":11546,"phine":11547,"grade":11548,"scape":11549,"OUTING":11550,"Ġexisted":11551,"Ġpaintings":11552,"ĠMalcolm":11553,"Ġencourage":11554,"Ġensure":11555,"Ġphilosop":11556,"HI":11557,"Wil":11558,"gage":11559,"hill":11560,"Ġwagon":11561,"Ġsaint":11562,"Ġba":11563,"Ġgam":11564,"ĠMitchell":11565,"Ġdeer":11566,"Ġsevere":11567,"ĠNoah":11568,"ATCH":11569,"Ġdisrespect":11570,"Ġkindness":11571,"Ġshove":11572,"Ġskate":11573,"UTE":11574,"ĠLords":11575,"secution":11576,"Ġtechnical":11577,"Ġannouncement":11578,"ocracy":11579,"ĠPacific":11580,".âĻª":11581,"Carry":11582,"Fat":11583,"SC":11584,"nament":11585,"Ġairl":11586,"ĠBurg":11587,"Ġrash":11588,"ĠLam":11589,"Ġamate":11590,"ĠKl":11591,"Ġsmarter":11592,"Ġswitched":11593,"Ġdivision":11594,"ilarious":11595,"ĠCHEERING":11596,"ĠGRUNTING":11597,"ALE":11598,"Bas":11599,"Fe":11600,"Pa":11601,"Ram":11602,"four":11603,"onent":11604,"star":11605,"Ġcancell":11606,"Ġneat":11607,"ĠAFTER":11608,"ĠGAS":11609,"ellect":11610,"endid":11611,"ĠLAST":11612,"ĠFound":11613,"INESS":11614,"Allow":11615,"ANY":11616,"izer":11617,"lings":11618,"azar":11619,"Ġlighter":11620,"Ġsentiment":11621,"ĠGrunts":11622,"Blue":11623,"ĠBeast":11624,"minute":11625,"Ġdiscussed":11626,"ĠAlexander":11627,"indsay":11628,"Ġrehearsal":11629,"Ġentitled":11630,"67":11631,"Merc":11632,"cat":11633,"gia":11634,"uum":11635,"allel":11636,"ĠSher":11637,"uno":11638,"chief":11639,"ĠLin":11640,"abouts":11641,"Ġbracel":11642,"Yours":11643,"pencer":11644,"Ġmeets":11645,"Ġtomato":11646,"Ġgrandson":11647,"ĠSeven":11648,"Ġzoo":11649,"Ġconnections":11650,"Ġvalues":11651,"Ġcasino":11652,"Ġorganized":11653,"Ġinclude":11654,"Ġmummy":11655,"Ġintentions":11656,"IVER":11657,"Mars":11658,"RIGHT":11659,"TAIN":11660,"daughter":11661,"inter":11662,"Ġwrest":11663,"isk":11664,"ĠIan":11665,"asping":11666,"ĠPLEASE":11667,"INT":11668,"Ġcrushed":11669,"Ġassholes":11670,"bridge":11671,"Ġfaithful":11672,"ĠTurner":11673,"ĠFelix":11674,"Ġdatab":11675,"ĠCONTINUES":11676,"Dinner":11677,"Ros":11678,"Ġmatt":11679,"Ġeager":11680,"Ġouter":11681,"ĠHOME":11682,"ĠLu":11683,"Ġseas":11684,"Ġcomprom":11685,"Ġbreach":11686,"ameron":11687,"Ġillusion":11688,"Ġswords":11689,"IFE":11690,"ĠAfrican":11691,"BECAUSE":11692,"Ġdelighted":11693,"Ġtoxic":11694,"Bastard":11695,"Ġscholars":11696,"=-":11697,"Aud":11698,"Green":11699,"Live":11700,"Sant":11701,"rus":11702,"Ġwaking":11703,"ĠBond":11704,"ĠHung":11705,"osex":11706,"Ġsmashed":11707,"Ġarrival":11708,"Ġchampions":11709,"Frankie":11710,"NEW":11711,"Ġdetermine":11712,"Ġappetite":11713,"Law":11714,"Power":11715,"Ġll":11716,"Ġtoe":11717,"imb":11718,"riot":11719,"Ġjazz":11720,"ĠHad":11721,"ĠPak":11722,"Ġsaus":11723,"Ġproven":11724,"Ġvain":11725,"oya":11726,"Ġbrat":11727,"ATED":11728,"psy":11729,"Ġraw":11730,"Ġpassenger":11731,"EAK":11732,"Ġelements":11733,"Ġattacking":11734,"EMBER":11735,"Ġdistracted":11736,"Ġcontrolled":11737,"Ġrecovery":11738,"Face":11739,"Jeremy":11740,"Vir":11741,"ext":11742,"Ġdorm":11743,"Ġdod":11744,"acha":11745,"ĠThose":11746,"ĠBark":11747,"ĠRun":11748,"Ġvodka":11749,"Ġdecades":11750,"ĠAnderson":11751,"Ġsleepy":11752,"Ġtriumph":11753,"Ġhonored":11754,"Ġforens":11755,"cript":11756,"ĠASK":11757,"Ġattracted":11758,"Ġjournalist":11759,"Ġpoetry":11760,"Ġcooperate":11761,"Ġcertificate":11762,"Ġtissue":11763,"Ġgossip":11764,"ILE":11765,"jamin":11766,"Ġmast":11767,"Ġpale":11768,"Ġheh":11769,"Ġthus":11770,"adium":11771,"Ġmyth":11772,"ĠMiles":11773,"Ġallergic":11774,"ĠDist":11775,"ĠWade":11776,"ĠPenny":11777,"ĠRel":11778,"Ġclar":11779,"plant":11780,"Ġwrit":11781,"ĠVol":11782,"ĠVincent":11783,"ĠTHROUGH":11784,"shirt":11785,"Truth":11786,"Ġbuddies":11787,"Ġperspective":11788,"riginal":11789,"ĠStephen":11790,"Ġliberty":11791,"ĠAshley":11792,"Ġforgiveness":11793,"Ġdignity":11794,"Ġvolcano":11795,"Deep":11796,"Earth":11797,"Ham":11798,"Rod":11799,"bour":11800,"eous":11801,"rades":11802,"Ġtanks":11803,"Ġcher":11804,"Ġwee":11805,"hob":11806,"ĠCuba":11807,"Ġric":11808,"ĠJunior":11809,"Ġroses":11810,"Ġscent":11811,"ansas":11812,"Ġdrift":11813,"Ġhighway":11814,"IMP":11815,"Ġreporting":11816,"Ġlocated":11817,"Ġrisks":11818,"Ġarriving":11819,"ĠLucas":11820,"Ġclimbing":11821,"lynn":11822,"Ġstruggling":11823,"ĠMountain":11824,"Ġpyram":11825,"Angela":11826,"Leg":11827,"Rub":11828,"Ġner":11829,"ims":11830,"Ġren":11831,"amy":11832,"irting":11833,"Ġneut":11834,"ĠCLOS":11835,"Ġash":11836,"ĠDIS":11837,"Ġrang":11838,"Ġorche":11839,"ĠEVER":11840,"ango":11841,"Ġactors":11842,"Ġ29":11843,"ĠVince":11844,"Ġtrains":11845,"Ġmeteor":11846,"Ġpassword":11847,"Ġimportance":11848,"bruary":11849,"ĠCharlotte":11850,"Ġfatal":11851,"Ġdescribed":11852,"Ġmaterials":11853,"ĠLeonard":11854,"Ġcandidate":11855,"Ear":11856,"parent":11857,"Â¤":11858,"Ãĸ":11859,"rels":11860,"anes":11861,"Ġmere":11862,"imm":11863,"ĠTEA":11864,"ĠCons":11865,"ĠCarr":11866,"ulk":11867,"ĠFre":11868,"ĠOLD":11869,"Ġchin":11870,"ĠWere":11871,"Ġtomb":11872,"ĠBELIE":11873,"ĠEngine":11874,"Ġimmig":11875,"Ġattempted":11876,"ĠMichelle":11877,"Ġincreasing":11878,"ĠLeague":11879,"Ġmartial":11880,"Ġaggressive":11881,"75":11882,"lay":11883,"mighty":11884,"oid":11885,"Ġtu":11886,"ingu":11887,"Ġfel":11888,"atics":11889,"imated":11890,"ĠAy":11891,"ĠAah":11892,"ĠDead":11893,"quet":11894,"ĠKarl":11895,"soever":11896,"Ġfiled":11897,"Ġtransmit":11898,"ĠDanie":11899,"Ġhealing":11900,"Ġtechnically":11901,"Ġunderest":11902,"Ġterrorists":11903,"Ġdrowned":11904,"Hopefully":11905,"Ġnegoti":11906,"Ġrailroad":11907,"Radio":11908,"Ġanonymous":11909,"fashioned":11910,"Den":11911,"LIN":11912,"mble":11913,"world":11914,"ÂĦ":11915,"Î¥":11916,"Ġtsk":11917,"hero":11918,"Ġfig":11919,"uther":11920,"Ġrefe":11921,"Ġreass":11922,"Ġstir":11923,"ĠSus":11924,"ĠMill":11925,"ĠBABY":11926,"ĠPoint":11927,"ATT":11928,"Ġslam":11929,"pered":11930,"oko":11931,"Ġrepro":11932,"Ġfixing":11933,"Ġburgl":11934,"ĠAdmiral":11935,"Ġheroin":11936,"ĠGuy":11937,"Ġrolled":11938,"Ġanticip":11939,"Conf":11940,"Ġbenefits":11941,"Ġscheduled":11942,"ĠSomeone":11943,"Ġbrutal":11944,"ĠAustralia":11945,"midt":11946,"Aigoo":11947,"EVERY":11948,"Karen":11949,"Rick":11950,"scoffs":11951,"hend":11952,"orous":11953,"ĠII":11954,"Ġeld":11955,"ĠCherry":11956,"Ġrug":11957,"ĠWol":11958,"Ġoffensive":11959,"ĠWhatever":11960,"weight":11961,"Ġresent":11962,"Ġapplied":11963,"Ġslice":11964,"Ġspecifically":11965,"Brad":11966,"Claire":11967,"Ġpubl":11968,"Ġviolin":11969,"Ġrecognise":11970,"Ġphysics":11971,"ĠALWAYS":11972,"Ġsandwiches":11973,"Ġindependence":11974,"Ġconsciousness":11975,"Ġflavor":11976,"Double":11977,"Ġscheme":11978,"Oops":11979,"Working":11980,"Ġtide":11981,"lle":11982,"Ġdings":11983,"Ġcongress":11984,"Ġlaser":11985,"Ġecho":11986,"ĠSang":11987,"ĠBee":11988,"ĠPy":11989,"reathing":11990,"Ġscum":11991,"Ġgrunts":11992,"Ġcompromise":11993,"Alone":11994,"Ġskirt":11995,"Ġ##":11996,"Ġreply":11997,"Ġcontacts":11998,"Ġaccomplish":11999,"Ġceiling":12000,"Impossible":12001,"Bullshit":12002,"Ġalternative":12003,"ĠBrooklyn":12004,"21":12005,"Bi":12006,"Lily":12007,"OVER":12008,"vention":12009,"Ġdime":12010,"Ġdull":12011,"ĠSue":12012,"ĠLow":12013,"ĠLEA":12014,"ĠPER":12015,"ĠKling":12016,"Ġlean":12017,"Ġsuite":12018,"Ġarrow":12019,"Ġdisorder":12020,"ocrat":12021,"Ġprett":12022,"azed":12023,"Ġdeals":12024,"ĠIsab":12025,"ĠScots":12026,"AUL":12027,"Ġpublished":12028,"ĠShaw":12029,"ĠMartha":12030,"Ġperformed":12031,"Small":12032,"Ġimmort":12033,"Ġrubber":12034,"Ġracist":12035,"Ġexpenses":12036,"ĠWilliams":12037,"Ġladder":12038,"ĠOwen":12039,"Ġrejected":12040,"Ġeconomy":12041,"Suppose":12042,"Ġsabot":12043,"Ġarchitect":12044,"Coll":12045,"Sort":12046,"Shar":12047,"iy":12048,"rise":12049,"help":12050,"onica":12051,"Ġbass":12052,"ĠMusic":12053,"Ġshitty":12054,"ĠGang":12055,"ĠGrey":12056,"igger":12057,"Ġdeploy":12058,"ĠRita":12059,"Ġspite":12060,"Ġproves":12061,"ĠKEEP":12062,"Uhh":12063,"Ġenthus":12064,"Order":12065,"Ġclothing":12066,"Ġcookie":12067,"Ġapologies":12068,"Prot":12069,"Ġscrub":12070,"Ġvoted":12071,"Ġgathering":12072,"Ġmaximum":12073,"Casey":12074,"ELE":12075,"Gen":12076,"itate":12077,"Ġstamp":12078,"illes":12079,"ĠBenn":12080,"Ġruled":12081,"Thirty":12082,"Ġkillers":12083,"Stick":12084,"Ġchicks":12085,"enses":12086,"Ġmessenger":12087,"clears":12088,"Ġgrowth":12089,"Ġfears":12090,"Ġirre":12091,"Ġautopsy":12092,"Ġblocked":12093,"Ġengineering":12094,"ĠEverybody":12095,"Ġarrangement":12096,"Into":12097,"Ġdeclared":12098,"GROANING":12099,"ĠWestern":12100,"Ġexecuted":12101,"Ġunnecess":12102,"BC":12103,"Barry":12104,"DID":12105,"Doug":12106,"Fel":12107,"Gar":12108,"Lay":12109,"iors":12110,"jun":12111,"Ġdizzy":12112,"Ġloop":12113,"estern":12114,"Ġpup":12115,"Ġrebell":12116,"Ġstall":12117,"Ġcance":12118,"urb":12119,"ĠBall":12120,"ĠHind":12121,"ĠRain":12122,"Ġhelpless":12123,"Ġhardest":12124,"ĠBrandon":12125,"ĠNews":12126,"blood":12127,"Madame":12128,"Ġbanana":12129,"ĠRobin":12130,"ĠSomebody":12131,"Ġdeceased":12132,"Ġregarding":12133,"Ġingred":12134,"Ġvolunteer":12135,"writing":12136,"Ġankle":12137,"AIR":12138,"Day":12139,"Ew":12140,"JOHN":12141,"Luck":12142,"Ġmature":12143,"Ġditch":12144,"Ġcate":12145,"Ġcrop":12146,"oris":12147,"arms":12148,"armed":12149,"Ġthread":12150,"Ġreaching":12151,"ĠBren":12152,"ĠDee":12153,"oser":12154,"ĠRanger":12155,"ĠEst":12156,"HEL":12157,"OUSE":12158,"Ġbets":12159,"Ġcompare":12160,"ĠWeb":12161,"Ġhopefully":12162,"Ġindic":12163,"CHO":12164,"Ġdining":12165,"Ġwatches":12166,"Ġsunshine":12167,"Ġgenetic":12168,"ĠEmil":12169,"Ġcivilians":12170,"Ġnotebook":12171,"Ġholidays":12172,"Usually":12173,"Ġacceler":12174,"Bri":12175,"Less":12176,"Sab":12177,"gans":12178,"Ġtheft":12179,"Ġbark":12180,"acc":12181,"Ġjur":12182,"ĠTha":12183,"ĠCongratulations":12184,"ĠDR":12185,"Ġintellect":12186,"Ġunlock":12187,"obs":12188,"Ġflame":12189,"ivan":12190,"Ġswell":12191,"Ġchased":12192,"Somewhere":12193,"STAND":12194,"ĠSoviet":12195,"Ġcorrid":12196,"Chloe":12197,"nox":12198,"Ġcracked":12199,"Smile":12200,"Indistinct":12201,"Ġwhiskey":12202,"Ġmotorcy":12203,"Ġcycle":12204,"Ġtwisted":12205,"Ġdentist":12206,"Ġsustain":12207,"elphia":12208,"IK":12209,"IER":12210,"Nonsense":12211,"gil":12212,"six":12213,"zes":12214,"ÂĬ":12215,"Ġ==":12216,"inated":12217,"Ġcows":12218,"usalem":12219,"adelphia":12220,"ĠRec":12221,"ickers":12222,"uds":12223,"Ġoverd":12224,"Ġclo":12225,"Ġbluff":12226,"eeps":12227,"Ġhandy":12228,"Ġchess":12229,"intendent":12230,"Ġgrid":12231,"ORS":12232,"Ġchains":12233,"arring":12234,"ĠChad":12235,"Ġsoccer":12236,"Ġvillain":12237,"Ġboarding":12238,"Ġinherit":12239,"hoebe":12240,"Ġtheatre":12241,"Ġparanoid":12242,"Fast":12243,"Na":12244,"gor":12245,"iates":12246,"pack":12247,"Ġpenc":12248,"ĠSong":12249,"ĠCa":12250,"Ġaspect":12251,"opatra":12252,"ĠWitch":12253,"Ġsheets":12254,"ĠFif":12255,"Ġunited":12256,"Ġmonk":12257,"them":12258,"Ġadvis":12259,"Ġumbre":12260,"Ġfooling":12261,"boat":12262,"Ġpracticing":12263,"Ġfunds":12264,"ĠSingh":12265,"Jamie":12266,"Sol":12267,"kill":12268,"vi":12269,"zel":12270,"Â±":12271,"Ġsigning":12272,"Ġbacon":12273,"Ġcodes":12274,"arayan":12275,"eton":12276,"Ġinev":12277,"Ġformed":12278,"ĠTucker":12279,"ĠBow":12280,"ĠDVD":12281,"ĠHouston":12282,"Ġlogic":12283,"istics":12284,"Ġbacks":12285,"orty":12286,"Ġunemploy":12287,"ĠVoice":12288,"ggs":12289,"print":12290,"Ġfireworks":12291,"Ġpositions":12292,"Ġ911":12293,"Ġ75":12294,"ĠManager":12295,"Ġcursed":12296,"ISTEN":12297,"Ġfarmers":12298,"Surprise":12299,"Ġspinning":12300,"Ġjewelry":12301,"Ġdisagree":12302,"ĠWyatt":12303,"him":12304,"Ġgren":12305,"Ġlou":12306,"Ġlas":12307,"Ġhay":12308,"ĠTry":12309,"ĠBAR":12310,"ĠLast":12311,"igation":12312,"Sold":12313,"Ġneedn":12314,"ĠEND":12315,"ĠKay":12316,"Ġcoke":12317,"Ġminus":12318,"Ġtwelve":12319,"CREE":12320,"Ġskinny":12321,"Ġofficials":12322,"Clearly":12323,"ĠNext":12324,"Ġwhale":12325,"ĠChandler":12326,"Ġlength":12327,"Greg":12328,"Jeez":12329,"Main":12330,"mic":12331,"sun":12332,"Ġwailing":12333,"esis":12334,"Ġbeers":12335,"Ġbeep":12336,"Ġdock":12337,"acular":12338,"irley":12339,"ĠSupreme":12340,"ĠDenny":12341,"ĠHans":12342,"ĠHOP":12343,"ĠRan":12344,"Ġvi":12345,"ĠEvan":12346,"Ġslipp":12347,"onto":12348,"Ġ33":12349,"eader":12350,"Ġparole":12351,"check":12352,"ilipp":12353,"Ġarmor":12354,"Ġannounced":12355,"stitution":12356,"Ġpawn":12357,"Ġphotographer":12358,"Ġconquer":12359,"Ġmansion":12360,"Ġpicnic":12361,"Cou":12362,"Cam":12363,"mos":12364,"nan":12365,"Ġsucker":12366,"ĠSL":12367,"ĠBuddy":12368,"ĠDAD":12369,"umper":12370,"asting":12371,"ĠEarl":12372,"irens":12373,"ANE":12374,"Ġpointed":12375,"nothing":12376,"Ġcolumn":12377,"Chef":12378,"Marie":12379,"Ġcontacted":12380,"ĠHarold":12381,"Ġdespair":12382,"ĠInternational":12383,"Ġbonus":12384,"minded":12385,"Ġpsychiatrist":12386,"Boom":12387,"Human":12388,"rity":12389,"hent":12390,"ompson":12391,"ĠPent":12392,"ĠJuly":12393,"agging":12394,"Ġscre":12395,"Ġswore":12396,"Ġbabysit":12397,"Ġstandards":12398,"Ġstuffed":12399,"Ġlegally":12400,"liest":12401,"Ġfreaked":12402,"ĠDevil":12403,"Ġcorporate":12404,"-=":12405,"mal":12406,"worth":12407,"Ġwret":12408,"oning":12409,"ĠIr":12410,"stan":12411,"ĠTop":12412,"ĠTURN":12413,"ĠCARE":12414,"Ġouts":12415,"endar":12416,"ĠNelson":12417,"ĠEar":12418,"Ġdaylight":12419,"Ġenforce":12420,"ĠViv":12421,"Ġcrashing":12422,"Ġmuscles":12423,"Ġsignals":12424,"ĠBEFORE":12425,"ĠRev":12426,"Ġflee":12427,"Ġsources":12428,"ĠYeon":12429,"ĠVictoria":12430,"Ġstinks":12431,"ĠAudrey":12432,".)":12433,"Jen":12434,"VIE":12435,"wen":12436,"Ġfoster":12437,"Ġinject":12438,"alp":12439,"verted":12440,"lyde":12441,"stage":12442,"rove":12443,"ĠMON":12444,"ĠGina":12445,"odi":12446,"ĠFinn":12447,"ĠTHOSE":12448,"Ġsleeps":12449,"Ġhoriz":12450,"Ġpresentation":12451,"Ġreceiving":12452,"Ġapproval":12453,"Ġcivilization":12454,"Finish":12455,"Louis":12456,"anchez":12457,"Ġcinema":12458,"XT":12459,"Ġpoop":12460,"iche":12461,"ĠSin":12462,"ĠMitch":12463,"ĠHat":12464,"odel":12465,"ĠLau":12466,"empl":12467,"Ġvom":12468,"Ġovercome":12469,"irsten":12470,"Ġrecipe":12471,"pleasant":12472,"ilding":12473,"Ġfollows":12474,"Ġmeds":12475,"Class":12476,"Ġbankrupt":12477,"Ġapologise":12478,"Ġsuggestion":12479,"ĠTeddy":12480,"ĠAlfred":12481,"\"'":12482,"Around":12483,"GINE":12484,"JIM":12485,"lines":12486,"Ġop":12487,"Ġego":12488,"amas":12489,"irit":12490,"Ġwhatsoever":12491,"ĠTar":12492,"ĠBear":12493,"ĠDennis":12494,"ello":12495,"Ġramp":12496,"ĠFIN":12497,"ĠKle":12498,"ilyn":12499,"Ġmissile":12500,"Ġroommate":12501,"Release":12502,"Ġglam":12503,"Ġskies":12504,"claim":12505,"Ġbully":12506,"Ġexped":12507,"Ġtreason":12508,"Ġperfume":12509,"23":12510,"Cap":12511,"Nic":12512,"Scoffs":12513,"bear":12514,"knocking":12515,"mor":12516,"ĠIvan":12517,"omo":12518,"oting":12519,"Ġwel":12520,"aco":12521,"ĠSad":12522,"ĠCD":12523,"ĠDA":12524,"ĠHunter":12525,"ĠPam":12526,"Ġintel":12527,"ĠKer":12528,"ĠKal":12529,"ĠKra":12530,"Ġfinishing":12531,"Ġaccus":12532,"Behind":12533,"Ġconfusing":12534,"Ġcorps":12535,"Chuck":12536,"iffs":12537,"ĠIndistinct":12538,"âĢİ,":12539,"Barb":12540,"Ġaccomplished":12541,"Ġconcrete":12542,"Ġconfidential":12543,"ĠTrevor":12544,"Ġplatform":12545,"Ġintimid":12546,"ĠVOICE":12547,"GR":12548,"Larry":12549,"cont":12550,"maker":12551,"school":12552,"Ġauction":12553,"onic":12554,"itis":12555,"Ġdip":12556,"Ġcongrat":12557,"Ġpace":12558,"Ġhint":12559,"Ġhockey":12560,"Ġhaul":12561,"ici":12562,"Ġstunt":12563,"Ġjim":12564,"ĠCalm":12565,"ilo":12566,"ĠHON":12567,"ĠPad":12568,"Ġpepper":12569,"Ġpoly":12570,"igned":12571,"Ġmarijuana":12572,"Ġdecides":12573,"Ġcompete":12574,"Ġshotgun":12575,"Ġ195":12576,"Ġpops":12577,"ĠIndians":12578,"Ġrepeated":12579,"ĠSenator":12580,"Ġvegetables":12581,"Ġelderman":12582,"Ell":12583,"IOUS":12584,"cow":12585,"mom":12586,"making":12587,"nia":12588,"upp":12589,"rystal":12590,"ĠHorn":12591,"ĠHEAD":12592,"Ġdeed":12593,"ĠPel":12594,"ĠRams":12595,"Dog":12596,"ĠStefan":12597,"Ġassess":12598,"Ġrestra":12599,"Ġsecretly":12600,"Ġwinds":12601,"Ġexperiments":12602,"Ġstrongest":12603,"Ġrefuge":12604,"laus":12605,"Ġearthqu":12606,"ĠCHAR":12607,"Ġopportun":12608,"Join":12609,"Ġtravelling":12610,"Ġliquid":12611,"Ġcollapsed":12612,"Ġmethods":12613,"Ġsequence":12614,"Ġgalaxy":12615,"CR":12616,"Near":12617,"Sophie":12618,"gi":12619,"gard":12620,"hist":12621,"Ġtense":12622,"Ġstressed":12623,"ĠSER":12624,"Ġcannon":12625,"raine":12626,"Ġcomrade":12627,"ĠField":12628,"Ġoffended":12629,"ĠEle":12630,"HES":12631,"Wherever":12632,"Ġcarn":12633,"Ġbush":12634,"Ġendless":12635,"Ġdesires":12636,"Ġchopper":12637,"ĠIslam":12638,"Ġbeds":12639,"Ġmedal":12640,"Maria":12641,"Ġhunger":12642,"engine":12643,"ĠPlay":12644,"rupting":12645,"Ġarrogant":12646,"Hide":12647,"Sally":12648,"yah":12649,"itated":12650,"Ġdummy":12651,"Ġfug":12652,"ilton":12653,"ĠHang":12654,"Ġprank":12655,"Ġhonesty":12656,"Ġservants":12657,"Ġelectrical":12658,"Ġsuitable":12659,"Ġmagazines":12660,"Ġnegotiate":12661,"Ġcompassion":12662,"Joseph":12663,"ĠVietnam":12664,"Div":12665,"Judge":12666,"SAM":12667,"Ã£":12668,"Ġwig":12669,"Ġbore":12670,"Ġbart":12671,"uto":12672,"immer":12673,"amal":12674,"ĠMans":12675,"ĠMister":12676,"Ġalleg":12677,"uda":12678,"active":12679,"Ġscout":12680,"Ġapples":12681,"Ġrarely":12682,"ĠTHRO":12683,"Ġincome":12684,"Ġconfessed":12685,"Ġtoug":12686,"Ġbarrel":12687,"Ġdrain":12688,"Ġdevoted":12689,"Ġmodels":12690,"Ġstores":12691,"hetti":12692,"Ġcelebrity":12693,"Ġsweater":12694,"ĠWORLD":12695,"ĠTurk":12696,"Ġcontrolling":12697,"Buddy":12698,"Course":12699,"pol":12700,"rator":12701,"Ġtips":12702,"Ġbiz":12703,"icious":12704,"Ġdont":12705,"ĠCell":12706,"ĠCost":12707,"ĠHope":12708,"ĠLenny":12709,"Ġnowadays":12710,"Ġtrucks":12711,"Ġpeas":12712,"OUD":12713,"Ġflour":12714,"ollar":12715,"Ġsworn":12716,"OWER":12717,"Ġreliable":12718,"Ġemperor":12719,"Ġevolution":12720,"Ġpossibilities":12721,"ĠManhattan":12722,"Ġrespected":12723,"ĠBeat":12724,"Ġhyster":12725,"Ġwooden":12726,"Champ":12727,"WHISP":12728,"ĠJessie":12729,"English":12730,"Il":12731,"Mess":12732,"Tar":12733,"dict":12734,"Ġfisher":12735,"Ġnative":12736,"athi":12737,"ilot":12738,"Ġroo":12739,"hibit":12740,"Ġharvest":12741,"sson":12742,"Ġemail":12743,"rics":12744,"oked":12745,"Ġballet":12746,"Ġcontrols":12747,"aurice":12748,"Ġirrit":12749,"Ġcircuit":12750,"Ġtargets":12751,"Ġdisturbed":12752,"Ġdishon":12753,"Ã³n":12754,"ĠRadio":12755,"CHER":12756,"Est":12757,"GG":12758,"PL":12759,"PO":12760,"crowd":12761,"maid":12762,"mouth":12763,"inea":12764,"step":12765,"inding":12766,"ĠPre":12767,"ĠRonnie":12768,"Ġspider":12769,"Donald":12770,"Ġdrum":12771,"Ġtroubled":12772,"ĠCarlo":12773,"Ġsurprises":12774,"Ġexpose":12775,"ĠÂ¶Â¶":12776,"ienna":12777,"Sweetie":12778,"ĠDecember":12779,"ĠGibbs":12780,"Ġwiped":12781,"39":12782,"Burn":12783,"Dick":12784,"SW":12785,"dest":12786,"lar":12787,"something":12788,"Ġtension":12789,"isation":12790,"Ġfiction":12791,"Ġgard":12792,"Ġink":12793,"Ġreference":12794,"ĠSQU":12795,"ĠSatan":12796,"ĠAnc":12797,"ĠHospital":12798,"ĠPed":12799,"ĠOWN":12800,"Ġbloom":12801,"Ġleaf":12802,"Ġfled":12803,"Ġmissiles":12804,"Ġinvention":12805,"Ġfarmer":12806,"velope":12807,"riculture":12808,"Meaning":12809,"Ġtwin":12810,"Ġboxing":12811,"Ġconvict":12812,"Ġcircles":12813,"Ġguardian":12814,"Ġcollected":12815,"Ġsubjects":12816,"Ġpersons":12817,"Ġenvy":12818,"ribute":12819,"CHEERING":12820,"Ġgraduate":12821,"Ġessential":12822,"Ġassociate":12823,"ĠGovernment":12824,"ĠEnterprise":12825,"Ġtremendous":12826,"Ġdatabase":12827,"400":12828,"DAN":12829,"Jesse":12830,"groaning":12831,"hr":12832,"human":12833,"ipper":12834,"lNG":12835,"pm":12836,"Ġ=":12837,"real":12838,"Ġbarr":12839,"Ġgently":12840,"idal":12841,"Ġanch":12842,"ĠCard":12843,"Ġallows":12844,"Ġalliance":12845,"ourage":12846,"ĠEva":12847,"Ġprices":12848,"Ġimper":12849,"Ġwaitress":12850,"inton":12851,"soft":12852,"Ġfoundation":12853,"Ġsites":12854,"LOCK":12855,"Ġtraveled":12856,"ĠMikey":12857,"Ġhallway":12858,"achelor":12859,"Ġscares":12860,"ĠChang":12861,"Sweetheart":12862,"Ġdetectives":12863,"Ġrebels":12864,"reece":12865,"Ġbattles":12866,"Ġpraise":12867,"Ġsuspended":12868,"Ġcruise":12869,"Ġimprison":12870,"Ġwebsite":12871,"ĠBELIEVE":12872,"PEOPLE":12873,"Si":12874,"Tre":12875,"nin":12876,"Ġwax":12877,"Ġdwell":12878,"Ġfry":12879,"atically":12880,"Ġbee":12881,"Ġmeals":12882,"utt":12883,"utions":12884,"Them":12885,"roc":12886,"term":12887,"Ġsofa":12888,"ĠGard":12889,"ĠPass":12890,"Ġbackyard":12891,"Ġvig":12892,"ĠEye":12893,"Ġbrick":12894,"ĠBring":12895,"Ġincomp":12896,"Ġdistress":12897,"KEY":12898,"Ġcontinent":12899,"Ġ194":12900,"ĠGuys":12901,"Ġdesigner":12902,"Ġeducated":12903,"ĠCOMING":12904,"Julie":12905,"Ġeternity":12906,"Consider":12907,"Ahem":12908,"Cross":12909,"grow":12910,"Ġfurious":12911,"Ġpension":12912,"unty":12913,"unters":12914,"oret":12915,"olin":12916,"emor":12917,"Ġspoon":12918,"ĠNAME":12919,"Ġtraces":12920,"ounding":12921,"Justin":12922,"ATTER":12923,"Ġsmack":12924,"Ġfathers":12925,"Ġwarp":12926,"OTT":12927,"Ġdealt":12928,"Ġobtain":12929,"Ġintercept":12930,"Ġdemons":12931,"ĠForget":12932,"Ġgasps":12933,"Ġchairs":12934,"Ġvanished":12935,"ĠRaymond":12936,"Ġboobs":12937,"ĠRomeo":12938,"Ġrumor":12939,"ĠSuperman":12940,"Repeat":12941,"Ġnaive":12942,"Ġwandering":12943,"Ġdomestic":12944,"children":12945,"Ġdismissed":12946,").":12947,"Ja":12948,"Wish":12949,"WILL":12950,"ĠyÎ¿u":12951,"Ġfries":12952,"Ġhilarious":12953,"strong":12954,"urai":12955,"ĠTina":12956,"ĠCLE":12957,"ĠBauer":12958,"ĠDutch":12959,"ĠGate":12960,"ĠWong":12961,"amel":12962,"ĠKings":12963,"Ġcarries":12964,"ĠStand":12965,"everly":12966,"ĠTOLD":12967,"atsu":12968,"Peace":12969,"nov":12970,"Ġtreas":12971,"Smart":12972,"chers":12973,"ĠJanuary":12974,"Ġsucked":12975,"Ġfundament":12976,"Ġtherapist":12977,"Ġteenager":12978,"Ġfortunate":12979,"Ġluxury":12980,"Sara":12981,"TRA":12982,"iat":12983,"ximately":12984,"Î¤":12985,"Ġtack":12986,"orf":12987,"Ġbegg":12988,"...'":12989,"Ġwealthy":12990,"Ġdoomed":12991,"achi":12992,"ĠMun":12993,"ĠMISS":12994,"ĠCare":12995,"Ġclicking":12996,"Ġenvelope":12997,"Ġscreeching":12998,"ĠVik":12999,"ubby":13000,"ocate":13001,"ASON":13002,"Ġincon":13003,"undy":13004,"Ġpulls":13005,"ĠCarrie":13006,"Ġexperts":13007,"Ġproposed":13008,"Clears":13009,"renda":13010,"ĠCenter":13011,"ĠLEGO":13012,"Ġmortal":13013,"Ġpuzzle":13014,"ĠRamsay":13015,"ĠTHROAT":13016,"Game":13017,"Hum":13018,"bone":13019,"master":13020,"nick":13021,"Ġcakes":13022,"Ġfer":13023,"Ġgap":13024,"Ġpeak":13025,"Ġinsect":13026,"icity":13027,"Ġcann":13028,"ĠAgain":13029,"ĠDw":13030,"ĠDONE":13031,"ĠGroans":13032,"ĠHand":13033,"ĠHend":13034,"igail":13035,"ĠPretty":13036,"Ġambit":13037,"Ġcovers":13038,"Ġunpleasant":13039,"Ġtheirs":13040,"Ġasses":13041,"Ġassured":13042,"Ġdefending":13043,"Ġribs":13044,"Shame":13045,"Ġdiscussing":13046,"Ġpenet":13047,"Ġsharks":13048,"Ġautograph":13049,"Ġspreading":13050,"ĠSilver":13051,"ĠSquare":13052,"market":13053,"smith":13054,"Ġprimary":13055,"ĠBUSINESS":13056,"CU":13057,"Woody":13058,"bad":13059,"jan":13060,"race":13061,"Ð¾":13062,"ĠIot":13063,"ĠIce":13064,"impering":13065,"Ġstim":13066,"ĠBeck":13067,"ĠDal":13068,"ĠHart":13069,"ĠOlivia":13070,"ĠEllen":13071,"Ġcopper":13072,"Ġleap":13073,"achine":13074,"Ġhandc":13075,"into":13076,"Ġdefin":13077,"Ġextr":13078,"ĠMEET":13079,"aige":13080,"iffles":13081,"Ġunivers":13082,"Ġcollecting":13083,"Ġsoftware":13084,"Ġcomplaints":13085,"Ġdispos":13086,"Ġenvironmental":13087,"America":13088,"Ġinstincts":13089,"Katie":13090,"ĠAttorney":13091,"Ġcrucial":13092,"Ġpistol":13093,"Ġbracelet":13094,"Nancy":13095,"OG":13096,"Ġted":13097,"Ġwakes":13098,"Ġmol":13099,"Ġlac":13100,"Ġnarc":13101,"Ġpharm":13102,"ooch":13103,"ĠMack":13104,"ĠTalk":13105,"ĠDrive":13106,"ested":13107,"ĠRoc":13108,"Ġorgans":13109,"Ġspine":13110,"ela":13111,"Ġposter":13112,"ĠVice":13113,"ountain":13114,"Ġ42":13115,"Ġeleg":13116,"ĠJustice":13117,"Screams":13118,"Ġgenerations":13119,"elect":13120,"Ġexamine":13121,"Ġsuggests":13122,"hearted":13123,"Ġsettlement":13124,"Ġbehaviour":13125,"Ġbonds":13126,"respond":13127,"Ġpanties":13128,"ĠCHATTERING":13129,"Ġphenomen":13130,"Gimme":13131,"Ross":13132,"lest":13133,"Ġaer":13134,"Ġcord":13135,"acco":13136,"Ġlions":13137,"amma":13138,"ifies":13139,"ĠCraw":13140,"ĠWard":13141,"ĠRussell":13142,"arer":13143,"aku":13144,"ĠKey":13145,"Ġroots":13146,"Ġprey":13147,"eyed":13148,"Ġsituations":13149,"veland":13150,"proof":13151,"ĠReverend":13152,"ĠSpace":13153,"aturally":13154,"Ġcafe":13155,"lights":13156,"ĠNOTHING":13157,"Ġturtle":13158,"Ġchickens":13159,"Ġequally":13160,"reedom":13161,"Ġvideos":13162,"Edward":13163,"Ġpassionate":13164,"ĠRocky":13165,"Frances":13166,"ĠLawrence":13167,"Engine":13168,"Ġterrifying":13169,"ĠDOESN":13170,"ĠRandall":13171,"Ġintegrity":13172,"Ġinterpret":13173,"Bird":13174,"Ele":13175,"Farewell":13176,"Lear":13177,"Norm":13178,"comp":13179,"husband":13180,"rust":13181,"Ġvenge":13182,"Ġbin":13183,"Ġgroans":13184,"Ġbees":13185,"enth":13186,"Ġjaw":13187,"antine":13188,"ĠTs":13189,"ĠHen":13190,"ĠHop":13191,"Ġcomrades":13192,"ĠOcean":13193,"Ġspots":13194,"hire":13195,"eela":13196,"were":13197,"Ġmarvelous":13198,"Ġ38":13199,"Ġdistinct":13200,"Ġradical":13201,"Ġtricky":13202,"Ġrainbow":13203,"SHOT":13204,"ĠAntonio":13205,"Ġbanging":13206,"Hyung":13207,"ĠLatin":13208,"Ġupdate":13209,"Based":13210,"Figure":13211,"Family":13212,"Gra":13213,"JACK":13214,"Pack":13215,"PLEASE":13216,"Sk":13217,"fucker":13218,"nut":13219,"Ġcuri":13220,"othe":13221,"ĠSW":13222,"ĠSat":13223,"Ġabduct":13224,"ĠBry":13225,"ĠBishop":13226,"ĠDaw":13227,"Ġrans":13228,"ĠRy":13229,"orthy":13230,"Ġplanets":13231,"Ġ34":13232,"Ġfeast":13233,"Ġbrakes":13234,"Ġshooter":13235,"ĠShouting":13236,"Ġlocate":13237,"Ġerase":13238,"Ġcreation":13239,"ĠMonk":13240,"Ġfemin":13241,"Ġavoiding":13242,"Ġexecutive":13243,"Ġmeasures":13244,"NER":13245,"beth":13246,"vous":13247,"ÎĹ":13248,"Ġtv":13249,"inch":13250,"Ġsucking":13251,"Ġtore":13252,"Ġfet":13253,"Ġfist":13254,"Ġlust":13255,"Ġpeel":13256,"oty":13257,"Ġhosp":13258,"ĠAv":13259,"ĠCOUR":13260,"istance":13261,"Ġsomewhat":13262,"Ġoffend":13263,"uckers":13264,"Ġdrums":13265,"Ġtrib":13266,"Ġcooler":13267,"Ġstrongly":13268,"Ġrespectable":13269,"Ġpublicity":13270,"Ġinnocence":13271,"Ġcontracts":13272,"Ġcocktail":13273,"icycle":13274,"arcia":13275,"Ġowes":13276,"Ġunderwater":13277,"Ġreferring":13278,"Ġinstrumental":13279,"Ġeliminate":13280,"Ġchoosing":13281,"Ġembrace":13282,"Ġrapidly":13283,"MAYBE":13284,"Ġcancelled":13285,"Haw":13286,"bach":13287,"rors":13288,"vak":13289,"ĠIvy":13290,"ĠIMP":13291,"Ġhast":13292,"Ġfork":13293,"Ġrend":13294,"ĠSak":13295,"ĠMall":13296,"ĠCow":13297,"Ġsock":13298,"unately":13299,"Ġseeking":13300,"ĠPenn":13301,"ĠRs":13302,"aga":13303,"aterrest":13304,"Ġinviting":13305,"Ġbooth":13306,"ensions":13307,"Ġrestore":13308,"Ġfactor":13309,"ĠClaud":13310,"Ġmiracles":13311,"IGG":13312,"Security":13313,"ĠEnough":13314,"ĠNatalie":13315,"Ġoptim":13316,"Ã¡n":13317,"Ġsuspicion":13318,"Ġgreedy":13319,"Ġphilosophy":13320,"Gone":13321,"Spl":13322,"muring":13323,"pants":13324,"vard":13325,"ono":13326,"Ġmand":13327,"Ġcant":13328,"arke":13329,"asi":13330,"ĠAC":13331,"ĠPower":13332,"Ġexpense":13333,"ucked":13334,"acht":13335,"Ġ31":13336,"Waiting":13337,"Ġrival":13338,"Ġclassified":13339,"Jackie":13340,"ĠAfghan":13341,"ĠEVERYTHING":13342,"Ġnicer":13343,"ĠCollins":13344,"Ġmathem":13345,"Ġleadership":13346,"ĠActually":13347,"ĠGovernor":13348,"Ġdiplom":13349,"66":13350,"Foot":13351,"Nag":13352,"Oliver":13353,"PE":13354,"San":13355,"Woo":13356,"Ġnanny":13357,"Ġinha":13358,"Ġdonation":13359,"ĠMia":13360,"Ġsod":13361,"ĠLor":13362,"ĠOl":13363,"Ġintimate":13364,"udding":13365,"ICT":13366,"Ġairplane":13367,"Ġdeputy":13368,"ALKING":13369,"irthday":13370,"ĠSTAY":13371,"Ġbases":13372,"estyle":13373,"Grunting":13374,"Ġhostages":13375,"Ġremained":13376,"Ġincluded":13377,"ĠREAL":13378,"ĠBooth":13379,"Ġremembers":13380,"ĠBailey":13381,"Ġchemistry":13382,"Return":13383,"Ġlobby":13384,"pherd":13385,"Holly":13386,"SA":13387,"person":13388,"rine":13389,"rings":13390,"rants":13391,"Ġtops":13392,"Ġhive":13393,"ooke":13394,"ĠSHO":13395,"eagan":13396,"ĠAren":13397,"ĠBenny":13398,"rouble":13399,"ĠOd":13400,"ĠKend":13401,"actor":13402,"Ġtryin":13403,"ĠNope":13404,"Ġflirting":13405,"ugar":13406,"Ġslaughter":13407,"Ġaccuse":13408,"axi":13409,"Ġinstall":13410,"Ġindicate":13411,"Ġlegacy":13412,"Ġmagnetic":13413,"Ġruins":13414,"Screaming":13415,"Ġfails":13416,"ternal":13417,"rogen":13418,"Ġbribe":13419,"ĠFlash":13420,"Ġencounter":13421,"Ġnightmares":13422,"Ġpatterns":13423,"ĠAcademy":13424,"ĠRemember":13425,"ĠRogers":13426,"Dylan":13427,"Hop":13428,"Shi":13429,"Search":13430,"hum":13431,"Ġ{\\":13432,"inations":13433,"onia":13434,"Ġbour":13435,"Ġcrow":13436,"Ġkar":13437,"robe":13438,"ĠMIGHT":13439,"Ġaspir":13440,"rak":13441,"umbs":13442,"ĠFall":13443,"ĠFind":13444,"Ġspook":13445,"Ġsevent":13446,"Ġflaw":13447,"yeo":13448,"Ġmisses":13449,"ibal":13450,"ĠMario":13451,"Ġsnack":13452,"ELLS":13453,"Ġabsor":13454,"ĠMann":13455,"Ġformula":13456,"ĠMcCl":13457,"Ġhipp":13458,"Ġresear":13459,"ĠJuliet":13460,"ĠEveryone":13461,"Ġimproved":13462,"Ġcabinet":13463,"Ġsalesman":13464,"ĠCastle":13465,"Fifty":13466,"Ġpersuade":13467,"HALES":13468,"Dar":13469,"GAN":13470,"Kelly":13471,"gins":13472,"Ġmode":13473,"oral":13474,"Ġom":13475,"Ġpose":13476,"ifting":13477,"Andrew":13478,"ĠDoyle":13479,"ĠWalt":13480,"ĠLance":13481,"Thor":13482,"Ġexcess":13483,"Ġammo":13484,"Ġscold":13485,"Ġcaring":13486,"Ġreservation":13487,"Ġhousehold":13488,"Ġeval":13489,"ĠDonald":13490,"Bruce":13491,"ĠAnother":13492,"Ġpatron":13493,"Ġgrain":13494,"IMES":13495,"Ġsells":13496,"tenance":13497,"ificial":13498,"amboo":13499,"Ġauto":13500,"ĠHyung":13501,"COFF":13502,"LIKE":13503,"Ġteenage":13504,"birds":13505,"Ġoriginally":13506,"Ġdiscipline":13507,"Caesar":13508,"Than":13509,"hma":13510,"Ġry":13511,"Ġdoo":13512,"Ġgoose":13513,"Ġpony":13514,"ĠHye":13515,"aina":13516,"ĠPing":13517,"Ġvoy":13518,"ĠNed":13519,"lfare":13520,"Ġ1000":13521,"Ġshares":13522,"axmin":13523,"cluding":13524,"Ġtopic":13525,"rooms":13526,"Guard":13527,"Ġtasty":13528,"Ġrelaxed":13529,"ĠÂ¿":13530,"ĠValentine":13531,"Ġexplosives":13532,"Ġalcoholic":13533,"Ġnickname":13534,"Ġfragile":13535,"Ġtumor":13536,"ĠPotter":13537,"Ġhesitate":13538,"ĠCommissioner":13539,"Ġgesture":13540,"Ġumbrella":13541,"axminarayan":13542,"Chi":13543,"DU":13544,"Jud":13545,"Mir":13546,"Nina":13547,"Tele":13548,"UALLY":13549,"Word":13550,"Ġ_":13551,"Ġvel":13552,"Ġtroll":13553,"Ġdil":13554,"Ġcong":13555,"anne":13556,"Ġfert":13557,"entin":13558,"ĠSeth":13559,"ĠTroy":13560,"ĠBroad":13561,"Ġrh":13562,"ĠWendy":13563,"esting":13564,"Ġwhores":13565,"ĠFab":13566,"ĠYan":13567,"Ġhandful":13568,"Ġshocking":13569,"Ġmorgue":13570,"Ġwarming":13571,"Ġboil":13572,"Ġmovements":13573,"ilda":13574,"Somehow":13575,"Ġquestioned":13576,"Ġhairy":13577,"owski":13578,"Ġrolls":13579,"Ġhalluc":13580,"Ġcalendar":13581,"Ġfantas":13582,"ĠSUPP":13583,"ĠPalace":13584,"Ġversus":13585,"Ġachieved":13586,"gasping":13587,"ĠRomans":13588,"Megan":13589,"32":13590,"JO":13591,"Jay":13592,"Pad":13593,"horn":13594,"Â©":13595,"Ġyen":13596,"anor":13597,"Ġlapt":13598,"Ġpent":13599,"eto":13600,"imit":13601,"riving":13602,"ionel":13603,"rost":13604,"ĠMust":13605,"ĠToby":13606,"ĠChattering":13607,"oodles":13608,"ĠHercules":13609,"istory":13610,"Ġsakes":13611,"Ġplague":13612,"Ġmanual":13613,"ĠElect":13614,"onda":13615,"ERIC":13616,"ĠNolan":13617,"ĠGods":13618,"Ġaccompany":13619,"Ġlighting":13620,"ricia":13621,"ologists":13622,"Ġdiner":13623,"Ġsilk":13624,"Ġvalid":13625,"Ġwitnessed":13626,"Ġadmir":13627,"Ġpanel":13628,"Ġpoisoning":13629,"ĠBoys":13630,"Ġlinked":13631,"ĠMilan":13632,"Ġexperiences":13633,"ĠFebruary":13634,"BBING":13635,"Ġamateur":13636,"osexual":13637,"Ji":13638,"crying":13639,"talk":13640,"Ġlamp":13641,"Ġkicks":13642,"oooo":13643,"riger":13644,"ĠSaw":13645,"hanie":13646,"ĠBLA":13647,"ĠWAR":13648,"Ġloads":13649,"Ġmaniac":13650,"ĠFeel":13651,"ĠFlynn":13652,"ARA":13653,"Ġslay":13654,"Ġ37":13655,"Ġrestless":13656,"Ġdrivers":13657,"Ġgirlfriends":13658,"Ġpostp":13659,"ĠCommittee":13660,"Ġelectronic":13661,"Ġorganic":13662,"Ġprogramme":13663,"ĠCoach":13664,"ĠSecond":13665,"Ġdisappearance":13666,"Ġproduced":13667,"Ġshrimp":13668,"Ġdearest":13669,"Ġmolec":13670,"Ġnigga":13671,"Ġfrancs":13672,"ĠCraig":13673,"Fun":13674,"GS":13675,"Hay":13676,"Lie":13677,"Mu":13678,"Talking":13679,"cony":13680,"til":13681,"tires":13682,"Ġcunt":13683,"ederal":13684,"ĠAthe":13685,"ĠCup":13686,"ĠDC":13687,"ĠDEAD":13688,"oding":13689,"Ġaltogether":13690,"ĠLab":13691,"umsy":13692,"ĠREP":13693,"Ġmanif":13694,"ĠFUN":13695,"Ġvine":13696,"Ġscaring":13697,"orders":13698,"Ġminimum":13699,"Ġresolve":13700,"enson":13701,"Ġpossessed":13702,"Ġconfusion":13703,"Ġsubway":13704,"Ġcolon":13705,"Ġruining":13706,"Ġallowing":13707,"ĠDana":13708,"Ġrespects":13709,"âĢİ?":13710,"Elizabeth":13711,"ujah":13712,"Ġscenario":13713,"Ġpursue":13714,"OUNCER":13715,"rishna":13716,"ĠRichie":13717,"ompletely":13718,":)":13719,"Geor":13720,"course":13721,"isle":13722,"Ġretain":13723,"Heart":13724,"Ġcanv":13725,"ĠBAD":13726,"ĠDude":13727,"ĠWork":13728,"ĠPas":13729,"Sheriff":13730,"aghetti":13731,"ĠYES":13732,"ressive":13733,"Ins":13734,"Ġpopped":13735,"ĠUs":13736,"Ġendure":13737,"ĠTHREE":13738,"Ġreads":13739,"Ġcaps":13740,"Ġsubstance":13741,"UNDER":13742,"Ġfailing":13743,"Ġcostumes":13744,"ĠBefore":13745,"ĠBarney":13746,"ĠÃĻ":13747,"Ġphysician":13748,"INDISTINCT":13749,"Ġhooker":13750,"ĠPhiladelphia":13751,"Ġwheelchair":13752,"Ġbutterfly":13753,"Ġreckless":13754,"ĠWallace":13755,"Ġinspection":13756,"CLAIM":13757,"Ġdreadful":13758,"EO":13759,"equ":13760,"loyd":13761,"mons":13762,"pat":13763,"sir":13764,"ï¬":13765,"rehens":13766,"Ġsings":13767,"Ġmi":13768,"Ġbreeze":13769,"ingly":13770,"amous":13771,"Ġbutcher":13772,"chran":13773,"ĠLock":13774,"ĠReal":13775,"ĠKitty":13776,"Ġcarriage":13777,"Ġdecade":13778,"Exhales":13779,"eredith":13780,"Ġmessy":13781,"Ġbodyguard":13782,"ĠINTER":13783,"Ġbuys":13784,"Ġcapacity":13785,"ĠBEING":13786,"umbled":13787,"Ġpressing":13788,"ĠFreddy":13789,"Ġregrets":13790,"Starting":13791,"ĠSandra":13792,"Business":13793,"Beeping":13794,"CIS":13795,"Fly":13796,"Fix":13797,"Marty":13798,"Panting":13799,"Rather":13800,"bury":13801,"di":13802,"sl":13803,"heast":13804,"Ġwoo":13805,"Ġmates":13806,"lec":13807,"uttering":13808,"Ġdolp":13809,"Ġsting":13810,"ĠMIND":13811,"Ġshirts":13812,"ĠDate":13813,"ĠGPS":13814,"ests":13815,"ĠLane":13816,"Ġlosers":13817,"isticated":13818,"Ġorbit":13819,"ĠOak":13820,"ĠKirk":13821,"Ġwhereabouts":13822,"avel":13823,"weed":13824,"Ġwhirring":13825,"Ġburial":13826,"Ġsincere":13827,"phones":13828,"Ġregards":13829,"Ġlearnt":13830,"Ã©s":13831,"ĠSTR":13832,"Ġrises":13833,"Ġveter":13834,"ĠFranco":13835,"offrey":13836,"Ġportra":13837,"Ġpetty":13838,"Ġbuttons":13839,"Swing":13840,"Ġvehicles":13841,"ĠMOST":13842,"respons":13843,"ĠDamon":13844,"Ġanxiety":13845,"hattered":13846,"Ġquantum":13847,"DA":13848,"Elect":13849,"Geez":13850,"Joy":13851,"Kar":13852,"Ly":13853,"Â°":13854,"Ġbisc":13855,"hatter":13856,"ushes":13857,"icit":13858,"Ġjelly":13859,"ĠSN":13860,"ĠMind":13861,"ĠAx":13862,"ĠAz":13863,"ĠGreece":13864,"chuckling":13865,"ĠPerry":13866,"ĠRu":13867,"Ġcliff":13868,"being":13869,"Ġbubb":13870,"Ġkindly":13871,"Ġresort":13872,"ĠMyung":13873,"Ġcampus":13874,"cheering":13875,"Ġstrikes":13876,"Ġpotion":13877,"Outside":13878,"Ġcivilian":13879,"Ġcocks":13880,"Ġverdict":13881,"HAVE":13882,"ĠJerusalem":13883,"Ġhypot":13884,"Ġdeclare":13885,"Ġindividuals":13886,"38":13887,"Alf":13888,"BEE":13889,"Event":13890,"OO":13891,"VIS":13892,"WARD":13893,"WAIT":13894,"dale":13895,"eb":13896,"lia":13897,"anie":13898,"Ġfoss":13899,"uted":13900,"illo":13901,"iry":13902,"ĠSandy":13903,"ĠACC":13904,"ĠCT":13905,"open":13906,"ĠBas":13907,"ĠHELL":13908,"ĠWind":13909,"Ġprostitute":13910,"berries":13911,"HELL":13912,"Ġseated":13913,"ĠYong":13914,"umping":13915,"shin":13916,"Ġdreamt":13917,"Ġbarbec":13918,"Ġparticles":13919,"Ġreplacement":13920,"vania":13921,"ĠSydney":13922,"ĠENOUGH":13923,"ĠNazi":13924,"Fortunately":13925,"APPLAUSE":13926,"ĠDiego":13927,"Cy":13928,"Food":13929,"Key":13930,"Oper":13931,"RON":13932,"RIE":13933,"SOME":13934,"ku":13935,"Ġsector":13936,"Ġbent":13937,"otes":13938,"leone":13939,"Ġrebel":13940,"Heads":13941,"ĠBalt":13942,"ĠDragon":13943,"ĠWat":13944,"ĠPA":13945,"ĠJennifer":13946,"think":13947,"Ġharbor":13948,"Ahhh":13949,"Ġsweets":13950,"Ġinstitution":13951,"IDS":13952,"Ġpurple":13953,"ĠTomorrow":13954,"Ġconstruct":13955,"Ġdigital":13956,"Ġhostile":13957,"Ġchairman":13958,"Prince":13959,"Ġprofound":13960,"Ġassuming":13961,"ĠHugo":13962,"ĠGabriel":13963,"ĠTemple":13964,"Ġpirate":13965,"Ġoverwhelming":13966,"Ġmotorcycle":13967,"37":13968,"Agh":13969,"Crowd":13970,"Donna":13971,"Dark":13972,"Mer":13973,"Saw":13974,"lene":13975,"mart":13976,"wick":13977,"rene":13978,"Ġsor":13979,"Ġdudes":13980,"ĠId":13981,"Weren":13982,"ĠMot":13983,"ĠCur":13984,"ĠBre":13985,"ĠBurns":13986,"ĠPierre":13987,"arded":13988,"Ġneeding":13989,"Ġagenda":13990,"Ġoffers":13991,"ĠYam":13992,"ĠVar":13993,"formation":13994,"Within":13995,"ICAL":13996,"brid":13997,"Ġdeton":13998,"Ġsubmar":13999,"umbai":14000,"Argh":14001,"ĠCheck":14002,"Ġauthent":14003,"Ġrevol":14004,"Ġpilots":14005,"Ġcommunications":14006,"Ġconvincing":14007,"ĠShiva":14008,"ĠGolden":14009,"Ġdocumentary":14010,"Ġbatteries":14011,"ĠImperial":14012,"Ġspectacular":14013,"Explain":14014,"ĠFacebook":14015,"Ġcompromised":14016,"Ġextraterrest":14017,"Brought":14018,"Hur":14019,"House":14020,"Jin":14021,"dong":14022,"zart":14023,"rehend":14024,"Ġpul":14025,"Ġweigh":14026,"Ġliking":14027,"ĠSince":14028,"ĠGROW":14029,"Ġrascal":14030,"ĠWEE":14031,"Ġanyways":14032,"Ġalp":14033,"ĠRiley":14034,"Ġunw":14035,"ossibly":14036,"Ġcontains":14037,"avi":14038,"Ġresur":14039,"oca":14040,"Ġcounted":14041,"Ġchart":14042,"Whispers":14043,"arrot":14044,"Ġese":14045,"ĠHEAR":14046,"Ġcourtesy":14047,"Ġapproved":14048,"ĠAbi":14049,"Ġstepping":14050,"visor":14051,"Ġwhisper":14052,"Ġgraduated":14053,"Ġfifteen":14054,"Ġfloat":14055,"Ġdrowning":14056,"ĠYeo":14057,"ĠTurkey":14058,"ĠJonas":14059,"OUNT":14060,"Ġcrawling":14061,"Ġfrustrated":14062,"Ġcanceled":14063,"Fear":14064,"SIDE":14065,"Wind":14066,"Ġwarden":14067,"Ġreduce":14068,"ĠCher":14069,"ĠCec":14070,"ĠCaleb":14071,"Ġasc":14072,"ĠBRE":14073,"ĠLola":14074,"ĠOriginal":14075,"ANNA":14076,"Ġperimeter":14077,"mergency":14078,"Ġrav":14079,"Ġchildish":14080,"appropriate":14081,"Ġconsistent":14082,"ĠClass":14083,"Ġ99":14084,"Ġdivers":14085,"Ġopponent":14086,"Ġsuperhero":14087,"Ġgenerally":14088,"ĠWillie":14089,"Plan":14090,"Ġprecaut":14091,"Ġwaist":14092,"Ġbalcony":14093,"Report":14094,"BOB":14095,"Ġunlikely":14096,"Murder":14097,"Ġsympathy":14098,"Ġgratitude":14099,"ĠFriends":14100,"Catherine":14101,"Di":14102,"ln":14103,"uu":14104,"Ġtin":14105,"Ġtam":14106,"Ġsarc":14107,"Ġfame":14108,"ĠCAME":14109,"ĠCrane":14110,"ĠDI":14111,"ĠGhost":14112,"ĠFord":14113,"ĠER":14114,"nings":14115,"auri":14116,"izations":14117,"Ġlottery":14118,"Ġcompar":14119,"Ġawhile":14120,"Ġshuttle":14121,"Ġdemocracy":14122,"URT":14123,"mination":14124,"Ġroller":14125,"Ġdirected":14126,"does":14127,"Ġbothers":14128,"Ġtorch":14129,"Ġsharply":14130,"Ġneglect":14131,"Ġinterviews":14132,"Ġlifted":14133,"ĠSchmidt":14134,"Ġgraduation":14135,"Ġacquaint":14136,"Ġhacked":14137,"Ġfluid":14138,"ĠAtlantic":14139,"Ġhumiliated":14140,"Comrade":14141,"ĠIreland":14142,"Luckily":14143,"26":14144,"Dance":14145,"EVER":14146,"dra":14147,"Â¢":14148,"Ġtel":14149,"heard":14150,"Ġsip":14151,"store":14152,"Ġjar":14153,"ifully":14154,"ĠAye":14155,"ĠBud":14156,"anded":14157,"ĠGloria":14158,"oses":14159,"ĠJudy":14160,"Ġbacking":14161,"Third":14162,"INCE":14163,"oys":14164,"Ġguessed":14165,"Ġpromising":14166,"ĠBECAUSE":14167,"Ġtransmission":14168,"Ġquicker":14169,"Ġstatements":14170,"uko":14171,"ĠParliament":14172,"ĠMinistry":14173,"Ġissued":14174,"ĠUnit":14175,"belix":14176,"Ġcorrectly":14177,"Ġgangster":14178,"Ġvacc":14179,"Ġspoiled":14180,"Slowly":14181,"ĠDorothy":14182,"ĠFerr":14183,"GUNSHOT":14184,"Ġsurvivors":14185,"Leaving":14186,"Ġsausage":14187,"Ġopportunities":14188,",'":14189,"Continue":14190,"Gab":14191,"Hannah":14192,"JJ":14193,"Press":14194,"Room":14195,"Susan":14196,"mun":14197,"mbers":14198,"pow":14199,"rum":14200,"zens":14201,"Ġwit":14202,"Ġding":14203,"Ġtob":14204,"ĠMah":14205,"ĠTonight":14206,"ĠCad":14207,"ĠCrow":14208,"Ġrighteous":14209,"ĠGaul":14210,"Ġram":14211,"ĠHUH":14212,"ĠWal":14213,"igi":14214,"Ġdeleg":14215,"Ġsayin":14216,"ctions":14217,"icker":14218,"uddle":14219,"Ġclues":14220,"Ġwaiter":14221,"Ġreserve":14222,"Ġcricket":14223,"ĠAndrea":14224,"Ġmadame":14225,"Ġstrain":14226,"Ġdiab":14227,"ĠPrinc":14228,"iolet":14229,"ĠSammy":14230,"Ġinfo":14231,"ĠShawn":14232,"Ġoccas":14233,"Ġbombing":14234,"Ġdanced":14235,"chae":14236,"Ġpoliticians":14237,"Ġchallenging":14238,"Ġambition":14239,"Ġstabil":14240,"CHUCKLING":14241,"ĠDaisy":14242,"Ġdebts":14243,"Ġshrink":14244,"Ġcompanion":14245,"ĠEllie":14246,"Ġsucceeded":14247,"Ġqualified":14248,"Ġwarriors":14249,"Ġpsychological":14250,"ĠClifford":14251,"Ġreinforce":14252,"Ġunnecessary":14253,"Ġlaptop":14254,"28":14255,"Action":14256,"AAH":14257,"Kyle":14258,"MON":14259,"Yah":14260,"gus":14261,"sobbing":14262,"ught":14263,"Ġshattered":14264,"hamm":14265,"Ġger":14266,"Ġnearest":14267,"Ġpoo":14268,"Ġkin":14269,"accept":14270,"Ġstroll":14271,"ĠMI":14272,"ĠDet":14273,"Ġrally":14274,"Ġruth":14275,"aints":14276,"iggy":14277,"Ġdefect":14278,"Ġshelf":14279,"Ġmock":14280,"Ġseiz":14281,"Ġmines":14282,"ials":14283,"Shin":14284,"Ġsubtle":14285,"erez":14286,"Ġrefriger":14287,"Ġefficient":14288,"Carrie":14289,"Ġrented":14290,"Ġfrightening":14291,"Teacher":14292,"FORD":14293,"Ġfloors":14294,"ĠRodney":14295,"Ġslapped":14296,"Ġcrawl":14297,"Ġstrictly":14298,"Jacques":14299,"ĠWRONG":14300,"Ġoutrageous":14301,"ĠAlpha":14302,"Ġdeliberately":14303,"ĠINDISTINCT":14304,"ĠDistrict":14305,"Ġinevitable":14306,"BU":14307,"Crying":14308,"Neg":14309,"Prec":14310,"kers":14311,"Ġic":14312,"Ġtan":14313,"Ġsouthern":14314,"Ġbount":14315,"Ġgown":14316,"Ġpanting":14317,"vell":14318,"arre":14319,"illery":14320,"ĠSign":14321,"ĠSouthern":14322,"Ġcans":14323,"ĠMick":14324,"oper":14325,"ĠBand":14326,"ĠDiana":14327,"ĠLena":14328,"ĠPic":14329,"umar":14330,"Thousand":14331,"ĠOri":14332,"Ġprosecution":14333,"ĠEM":14334,"ĠEver":14335,"Ġtrump":14336,"Ġbloss":14337,"ĠseÃ±or":14338,"thel":14339,"Ġresting":14340,"Ġhatch":14341,"applause":14342,"Unlike":14343,"Ġoperator":14344,"Ġhealed":14345,"ermaid":14346,"Ġsweating":14347,"Ġmutual":14348,"ĠTravis":14349,"Ġuniforms":14350,"Ġgroaning":14351,"Ġhypoc":14352,"Ġplead":14353,"ĠEvans":14354,"Ġretirement":14355,"Sat":14356,"fu":14357,"Ġdum":14358,"Ġcherry":14359,"Ġgrey":14360,"Ġlam":14361,"idance":14362,"adian":14363,"ĠBox":14364,"Ġrushed":14365,"abled":14366,"ĠJill":14367,"ĠJasper":14368,"Ġmustache":14369,"ports":14370,"ahul":14371,"Ġmonkeys":14372,"Ġbrew":14373,"Ġpresum":14374,"Ġdefence":14375,"Ġsentenced":14376,"ĠReid":14377,"Ġtracked":14378,"Ġrobots":14379,"Ġperforming":14380,"Ġtravels":14381,"Ġtricked":14382,"Ġmajority":14383,"Ġjealousy":14384,"ĠHammond":14385,"ĠBetter":14386,"Ġlawsuit":14387,"Maggie":14388,"Ġfeathers":14389,"ĠDivision":14390,"Extra":14391,"Ġlegitimate":14392,"55":14393,"Bab":14394,"Cur":14395,"Capt":14396,"EY":14397,"Fur":14398,"Ge":14399,"Todd":14400,"Touch":14401,"lad":14402,"hair":14403,"Ġnit":14404,"arse":14405,"Ġinfer":14406,"ĠAbb":14407,"Ġshred":14408,"ĠPink":14409,"amela":14410,"Ġconvert":14411,"Ġamuse":14412,"Ġoverse":14413,"Ġquid":14414,"Ġcourts":14415,"onsider":14416,"ENNY":14417,"Ġthankful":14418,"Ġmusician":14419,"Ġimportantly":14420,"Ġcorruption":14421,"Ġcorrespond":14422,"Ġdiscon":14423,"Ġrefuses":14424,"Ġexplaining":14425,"Among":14426,"Ġshorts":14427,"Carter":14428,"Ġsufficient":14429,"LESS":14430,"ĠWANTED":14431,"archy":14432,"Ġcrowded":14433,"Ġsavings":14434,"ĠNeil":14435,"Ġowed":14436,"Ġslightest":14437,"fleet":14438,"ĠNichol":14439,"Ġprosper":14440,"Ġlunatic":14441,"Ġsacrificed":14442,"ĠSavage":14443,"ederation":14444,"ĠPlanet":14445,"Tur":14446,"bies":14447,"cery":14448,"pers":14449,"Ġtheories":14450,"Ġbounce":14451,"erving":14452,"ĠIron":14453,"Heard":14454,"rod":14455,"roph":14456,"ĠSult":14457,"ĠHARD":14458,"ĠPart":14459,"Ġwerew":14460,"ĠEasy":14461,"ĠKatherine":14462,"Ġblamed":14463,"pled":14464,"Ġflush":14465,"ĠStew":14466,"ictory":14467,"airy":14468,"ricane":14469,"Ġclearing":14470,"rolog":14471,"Ġcolony":14472,"Ġvilla":14473,"ĠNicky":14474,"Ġdeserted":14475,"ĠMulder":14476,"Ġtolerate":14477,"ĠJOB":14478,"Ġneutral":14479,"Ġcorridor":14480,"Couple":14481,"Mill":14482,"Russ":14483,"Tem":14484,"gal":14485,"gra":14486,"Ġfeared":14487,"Ġgn":14488,"aska":14489,"Ġreign":14490,"storm":14491,"ĠSame":14492,"ĠSIR":14493,"ĠLiber":14494,"ĠPres":14495,"olph":14496,"ĠNeg":14497,"ĠNorman":14498,"Ġmoaning":14499,"Ġcocon":14500,"ĠStud":14501,"upiter":14502,"Angel":14503,"Ġspeaker":14504,"Ġreporters":14505,"Ġgranddaughter":14506,"Ġstarve":14507,"Blow":14508,"Ġinfinite":14509,"ĠBarrett":14510,"RIED":14511,"ĠColumb":14512,"iggle":14513,"ĠMorris":14514,"Ġrestaurants":14515,"Ġchattering":14516,"Ġurge":14517,"AITLYN":14518,"192":14519,"Ġcooperation":14520,"Ġprobation":14521,"Ġvengeance":14522,"Dun":14523,"Focus":14524,"Hu":14525,"Point":14526,"Ts":14527,"Went":14528,"call":14529,"eged":14530,"normal":14531,"oir":14532,"Ġmop":14533,"aye":14534,"ursing":14535,"ĠCas":14536,"Ġoutcome":14537,"hana":14538,"ĠGul":14539,"oda":14540,"ĠLynn":14541,"ĠPay":14542,"Ġvit":14543,"ĠNora":14544,"akh":14545,"Ġclip":14546,"Ġclerk":14547,"ATES":14548,"Govern":14549,"ĠChitty":14550,"Ġchim":14551,"Ġchimes":14552,"aji":14553,"ĠMarco":14554,"Ġvisible":14555,"Ġmedium":14556,"oleon":14557,"leasure":14558,"Ġhangs":14559,"ducing":14560,"Ġsquir":14561,"Ġopposed":14562,"Ġsupporting":14563,"ĠEdith":14564,"Ġhyper":14565,"ĠHarriet":14566,"ĠCoast":14567,"knock":14568,"Christine":14569,"flies":14570,"ĠPortug":14571,"Ġvicious":14572,"Ġnurses":14573,"ĠLauren":14574,"UMBLING":14575,"Ġhaunted":14576,"Aaah":14577,"Babe":14578,"Given":14579,"PA":14580,"Ps":14581,"rats":14582,"Ġcured":14583,"anz":14584,"edes":14585,"Ġhunch":14586,"kee":14587,"stream":14588,"ĠSummer":14589,"ĠMoo":14590,"ĠTam":14591,"Ġherd":14592,"Ġrushing":14593,"ĠLeader":14594,"ĠPost":14595,"ĠFu":14596,"ĠNixon":14597,"redible":14598,"Ġamusing":14599,"Ġshops":14600,"Ġcompartment":14601,"ĠThompson":14602,"Ġdealers":14603,"Ġbusinessman":14604,"Ġtouches":14605,"Ġgoddess":14606,"Ġdiscount":14607,"ommod":14608,"Ġhaircut":14609,"ĠBlood":14610,"Ġlocks":14611,"Ġburger":14612,"Ġconviction":14613,"ĠLooks":14614,"Ġorganize":14615,"Ġpregnancy":14616,"Ġtourists":14617,"Ġundo":14618,"Joey":14619,"IREN":14620,"Ġhousing":14621,"Ġcorners":14622,"Ġjeans":14623,"ĠMiranda":14624,"Ġadvertising":14625,"Ġorchestra":14626,"Ġcuriosity":14627,"36":14628,"Dor":14629,"Imm":14630,"IBLE":14631,"Terry":14632,"first":14633,"num":14634,"Ġbik":14635,"Ġbunny":14636,"Ġpond":14637,"iddle":14638,"Ġdose":14639,"iona":14640,"ĠMing":14641,"ĠTON":14642,"ĠCameron":14643,"ĠBrig":14644,"ĠDrew":14645,"ĠWIFE":14646,"estine":14647,"ĠRet":14648,"ogi":14649,"hess":14650,"oco":14651,"Ġslim":14652,"inche":14653,"Ġfavors":14654,"THAN":14655,"Unh":14656,"Amanda":14657,"Ġsadness":14658,"Ġinvestigator":14659,"Ġinfant":14660,"Ġcamping":14661,"ĠMadrid":14662,
[...]
