#version: 0.2
Ġ t
h e
Ġ a
i n
e r
Ġt he
o n
r e
a n
Ġ o
i s
Ġ w
Ġ s
e d
o r
a t
e n
a r
e s
Ġ in
Ġ c
Ġo f
i t
a l
Ġ f
n d
a s
Ġ b
Ġ p
Ġa nd
i c
in g
Ġ m
o u
Ġt o
i on
l e
o m
Ġ d
Ġ S
Ġ h
Ġ 1
Ġ T
Ġ A
i l
Ġ C
Ġ is
a m
en t
s t
Ġw as
r o
e l
Ġ l
Ġ M
o l
Ġ re
Ġ I
Ġ n
Ġ H
Ġ 2
a d
c t
Ġt h
Ġ B
e t
Ġ on
u s
Ġ "
i v
c h
u r
Ġ P
Ġf or
i d
o t
Ġ e
i r
Ġ (
a y
Ġ1 9
Ġ g
c e
l y
i m
o w
ĠT he
at ion
i g
Ġb e
Ġ2 0
t er
u n
Ġs t
u t
he r
Ġa s
Ġ R
er s
Ġ F
e m
Ġ D
r a
an d
Ġ L
it h
Ġ G
Ġ N
is t
t h
u l
Ġ J
Ġ W
Ġa l
Ġa n
Ġb y
Ġw ith
v er
r om
o p
o s
a g
Ġ he
Ġ E
Ġa t
u m
Ġ =
Ġw h
b er
es t
Ġth at
r i
' s
Ġf rom
ar t
a c
T he
a v
Ġa re
it y
a in
o d
al l
ĠH e
Ġ O
Ġ it
Ġ U
Ġc om
Ġd e
i a
Ġc on
il l
i an
Ġs e
ĠI t
re s
i f
i es
o v
Ġ K
o c
a k
Ġ v
Ġ20 1
Ġp ro
Ġo r
Ġp l
at e
n t
Ġh is
u d
l d
a p
o re
ar d
e w
or t
Ġ r
a b
p e
an t
ic h
ĠS t
am e
i p
s e
ig h
u b
ar y
ĠI n
Ġc h
g e
u p
on g
â Ģ
es s
er e
at ed
ou r
s o
m er
Ġ k
q u
iv e
i e
m ent
en d
as t
ĠC h
ou nd
e ar
Ġw ere
u st
0 0
o st
el l
g h
is h
e p
Ġe x
or n
Ġal so
Ġ le
r an
ou nt
i al
or d
Ġh as
Ġ V
in e
Ġs h
i re
Ġ us
Ġ20 0
ĠU n
t her
Ġwh ich
Ġ y
o g
u c
ow n
u re
av e
ir st
Ġn ot
or k
igh t
a re
ct ion
ic al
Ġpl ay
om e
r it
o k
an y
c l
Ġf irst
Ġcom p
Ġa r
ou t
r ic
r y
ou gh
u e
Ġt e
Ġh ad
l and
ac k
Ġw he
âĢ ĵ
Ġ un
Ġbe c
f ter
ou s
id e
am p
" .
ag e
on d
at es
ĠT h
an g
Ġa b
em ber
n e
Ġp art
f f
as s
at er
Ġc l
Ġh ave
i ed
I n
it ed
ation al
Ġon e
Ġ1 8
p ort
k e
i z
Ġthe ir
p er
Ġ Ċ
e op
t e
im e
" ,
w o
ic e
n g
) .
ic an
a ch
u g
re e
eop le
Ġ19 9
Ġ her
Ġs er
Ġ 3
s h
Ġwh o
ig n
m an
w n
ad e
t o
it ion
) ,
Ġb ut
Ġy ear
Ġc an
en s
or y
Ġthe y
Ġm ov
Ġ Y
he d
Ġa g
Ġ j
Ġk n
Ġo ther
ĠA mer
al ly
ĠA l
p l
Ġit s
Ġcon t
u nd
o ver
ou ld
t s
Ġp eople
ter n
Ġth is
r u
Ġa d
f er
cl ud
ĠM ar
Ġcom m
a w
l ow
Ġt wo
i b
il d
Ġa p
Ġg r
Ġ ro
| |
en ce
on e
or m
a ce
ĠS he
as ed
l es
Ġw ork
e c
ĠUn ited
ul t
p h
Ġin clud
Ġ19 8
e ct
ol d
a us
Ġa fter
ur ing
Ġbe en
in d
an s
Ġre s
ub l
Ġkn own
ĠAmer ican
ar k
u ch
o od
a ct
w e
is s
Ġs c
ation s
ĠA r
at h
or ld
Ġp er
e b
o b
Ġa c
1 9
iv ers
Ġs he
on s
w ard
ou th
p t
i le
res s
o ol
Ġ19 7
Ġs p
Ġre c
ĠN ew
Ġc all
id ent
ak e
o in
or th
v el
i o
Ġ 4
Ġ en
Ġab out
ing s
ount y
Ġus ed
un e
Ġa ct
Ġ up
Ġd is
in ce
Ġ im
Ġin to
it e
re n
ĠD e
ĠSt ates
Ġm ost
ĠL e
Ġs pe
ic s
2 0
Ġm ade
a h
ĠTh is
g an
or s
Ġt ime
Ġal l
Ġ ra
Ġf ound
o y
ĠThe y
Ġe le
c es
Ġp ol
Ġo ut
a il
ct ed
Ġwhe n
Ġm e
Ġo ver
o ok
Ġthe re
Ġ 5
Ġof f
Ġm ore
re d
Ġn e
ĠA s
Ġ19 6
ent s
Ġn ew
f t
Ġcall ed
Ġe v
is ion
er m
Ġre g
al s
Ġm any
o h
os e
v e
Ġb et
ic k
t on
Ġte am
Ġ âĢĵ
Ġfor m
o ot
el y
ver y
t en
Ġb orn
Ġd es
ou p
ch ool
r al
ur n
Ġyear s
p r
Ġc ol
Ã ©
Ġc ity
Ġbec ame
w ay
a u
Ġse c
Ġh im
Ġf am
r am
as e
v ed
an u
t ed
Ġp op
r ough
ĠF ran
Ġd ied
c he
an ce
Ġat t
il y
ab le
Ġc ent
Ġ 6
Ġb u
re at
Â ł
Ġthe m
Ġt ra
we en
Ġon ly
k s
aus e
Ġre le
over n
ion s
o ber
Ġm us
s on
Ġd o
und er
sh ip
ĠS h
Ġp re
i ke
ivers ity
Ġst ud
ĠC om
l l
if e
Ġplay ed
ĠI nd
am es
ot h
ri b
b all
Ġl oc
i x
Ġ 7
Ġp r
i k
Ġag ain
Ġpop ul
iv ed
d u
Ġs o
on t
Ġw ould
Ġwhe re
Ġs ome
Ġd uring
Ġd ist
Ġbet ween
Ġth an
ĠE ng
en er
Ġ19 5
Ġ19 4
ic t
Ġn um
c ess
as on
b orn
a z
Ġs y
f ore
Ġ under
an n
Ġ 8
ep t
ol og
Ġl ar
d uc
is hed
Ġe ar
f orm
in al
Ġspe c
en n
i ous
Ġn ame
i er
ĠC ounty
Ġth ree
a j
ĠR e
iv er
Ġp ubl
he n
anu ary
Ġst art
c ed
Ġp res
ou n
i el
ar s
in s
Ġw e
e ver
i et
il m
t il
b um
ĠM ay
it ies
Ġ qu
in es
Ġw rit
Ġs up
Ġde p
in n
Ġd if
Ġs uch
Ġo p
ol low
a ir
Ġc o
Ġre t
Ġthe n
Ġ end
in a
Ġc ount
ĠJ anuary
Ġs ing
Ġcon s
at ive
ou se
ur y
Ġl ater
al e
Ġ Z
d er
as h
Ġth rough
Ġsec ond
ĠC ol
Ġin d
Ġw on
ĠUn iversity
ay s
Ġre l
Ġ19 3
ers on
le y
oc k
ran s
at t
Ġs ub
Ġgr oup
Ġd ire
ric t
Ġun til
Ġ 9
at her
Ġst ate
Ġsh ow
Ġmov ie
im es
Ġf e
ug ust
Ġ1 7
Ġal bum
ĠJ u
Ġf l
c k
ot her
Ġb l
ar ri
em ent
ĠW orld
e x
u al
am ed
ept ember
Ġt r
Ġg o
Ġrele ased
Ġs ong
a id
00 0
u ally
ĠA n
em b
oh n
ĠI s
is ter
i am
Ġm ay
ic ip
er n
Ġto wn
ĠA ust
Ġf our
ĠA ugust
ist s
ct ober
m ber
at ing
ow er
oot ball
ĠB rit
Ġpol it
Ġm ain
Ġ1 0
Ġf ollow
Ġw ell
pr il
Ġs m
ĠS eptember
Ġre m
is m
Ġc re
Ġa m
ĠA t
Ġnum ber
ĠMar ch
ro s
Ġin ter
ap an
ĠN ov
ion al
e y
ĠJ une
Ġbe ing
Ġser ies
Ġdif fer
Ġas s
ĠP ro
ce mber
Ġbec ause
ct or
Ġp h
ĠJu ly
Ġmus ic
ĠS c
Ġare a
Ġc ap
ĠO ctober
os s
ĠC l
Ġpro v
Ġch ar
Ġm et
Ġl ong
st em
Ġin v
al ity
r on
Ġde f
Ġrec ord
if ic
ĠA pril
Ġg overn
. "
Ġc are
c y
u ro
an k
c c
it al
us s
Ġse ason
ĠJ apan
ow ever
ag ue
Ġle ad
p ro
u res
Ġbe fore
Ġw ill
Ġ201 0
Ġ1 5
ĠDe cember
iv es
ĠO n
Ġap pe
Ġm an
vel op
eb ru
Ġs chool
ebru ary
art ment
m p
Ġagain st
a i
Ġar t
Ġ1 6
ar l
Ġb ro
Ġf ilm
Ġo wn
et t
Ġfam ily
ir d
ĠS p
Ġ very
ĠNov ember
ĠFran ce
j ect
Ġs ur
it s
ĠN ational
ĠS outh
er t
ĠW ar
m y
Ġ ent
v en
a x
ĠC on
iel d
at ure
Ġs ame
ĠC an
Ġch ild
l ish
y s
ire d
Ġus e
Ġde c
ĠF ebruary
Ġt rans
Ġa ge
ro w
ĠY ork
Ġl ike
et s
Ġinclud ing
ter s
tern ational
Ġser v
ĠJ ohn
ant s
Ġfor mer
Ġ ed
y l
ro p
Ġm ember
er ed
ist ory
is e
Ġm ed
om an
ĠH is
Ġdiffer ent
Ġw orld
Ġsm all
Ġb oth
om en
ut ion
st it
Ġn o
es e
ul ar
Ġ Q
ul l
er v
g er
le v
b r
om et
Ġm on
amp ion
r ist
Ġb ack
Ġd id
Ġm od
Ġn amed
Ġse ver
f ess
ra ph
O n
H e
ĠBrit ish
Ġac c
i ent
Ġsy stem
Ġb ook
Ġm in
i um
Ġn ational
ic a
Ġf ootball
Ġb el
ĠS w
Ġ1 2
ur al
ĠP r
Ġh igh
ĠE uro
g est
el f
an e
ĠN orth
Ġg ame
Ġor ig
Ġ19 2
p ed
le t
Ġad d
ĠP h
Ġs ince
are d
Ġn orth
Ġin c
Ġm at
er man
ĠB l
ĠC al
b le
iz ed
Ġthe se
Ġde velop
ĠCom m
f ul
ĠG r
Ġs ign
i ew
Ġoff ic
Ġwh ile
p os
un icip
Ġl ife
Ġhe l
ĠF or
Ġn ear
t y
Ġcare er
ur ch
Ġc ur
Ġbu ild
Ġf in
Ġpopul ation
Ġb and
Ġg ener
ang u
ĠC ity
ar m
Ġp erson
Ġre p
re nt
Ġan y
c ial
el s
ak ing
ction s
iv ing
Ġgovern ment
Ġ20 2
ĠR ep
o x
ĠB e
Ġpl ace
Ġre ce
Ġstart ed
Ġl and
ĠP res
Ġbe gan
ĠK ing
Ġo per
Ġs aid
aj or
Ġsever al
ĠS e
ar n
Ġo ld
Ġ1 1
ĠThe re
ĠA d
Ġy ou
Ġm ake
lev ision
he s
Ġr un
ĠEuro pe
Ġplay er
ag es
ic ian
ĠAust ral
ill ion
il t
Ġb est
an ge
Ġor gan
b y
Ġ201 9
r at
in k
âĢ Ļ
Ġc ould
re t
Ġpro duc
Ġ1 4
v ent
Ġof ten
Ġ est
Ġs uc
Ġpro g
ĠEng lish
Ġd r
Ġa ir
en e
Ġ1 3
Ġa ut
Ġreg ion
Ġ201 8
ĠC ent
ĠA fter
Ġt y
ĠM in
S t
ov e
it t
ros s
Ġde ath
Ġo b
T h
Ġear ly
t he
a e
ain s
Ġ201 4
Ġin t
Ġe ach
Ġop en
Ġar ound
l ed
g et
olog y
x t
C h
Ġhe ad
ak es
ĠCan ad
ĠG e
Ġs im
ri es
f l
ward s
Ġan n
Ġl aw
en g
id ed
z e
il le
1 8
ĠP l
Ġm arri
Ġex t
ib le
ĠC ar
Ġdep artment
Ġcl ub
Ġw ater
ot t
Ġdes ign
Ġ201 7
Ġin st
Ġj oin
og raph
Ġe m
ĠB r
res ent
ĠA f
ra ct
ut e
on y
ren ch
Ġpro du
Ġv ar
ampion ship
Ġh ome
oc i
ĠM us
au gh
ĠLe ague
Ġb r
ĠAl l
Ġl angu
Ġl ast
Ġm unicip
ĠO r
Ġte levision
ĠPres ident
un g
Ġcol le
a f
Ġ20 20
ĠW h
Ġdis c
is on
Ġ '
Ġg u
er g
ain ed
Ġpro fess
Ġb ased
ĠH owever
ar ch
Ġs outh
Ġpubl ic
Ġcomp et
e k
Ġ201 1
emb ers
p or
p le
Ġst r
Ġchar act
Ġ201 6
m e
ar r
c er
ain t
re en
Ġcont in
at s
m in
Ġ( "
ĠG erman
Ġ201 3
Ġ201 5
Ġdist rict
Ġcomp any
Ġcomm un
ur g
f or
u es
uc k
o ard
v an
ul a
c on
ĠIt al
Ġinclud e
ĠS chool
al es
y n
et h
Ġ .
ĠP art
in o
Ġdes c
Ġn ow
s ide
Ġt erm
c om
Ġcent ury
st er
Ġc ar
Ġ -
Ġim port
Ġchild ren
is ed
Ġle ft
Ġto ok
Ġhe ld
Ġprog ram
ĠP ar
ĠI I
1 0
ĠF rench
et er
Ġk ill
Ġm il
Ġlar ge
Ġret urn
ap p
our n
Ġ $
Ġfollow ing
ce pt
" )
h am
l ing
od y
c o
Ġm ajor
d e
Ġc ounty
ough t
Ġr ight
Ġt it
ĠM an
at or
Ġd iv
Ġsup port
ĠG u
g r
Ġbu ilt
Ġp ass
Ġser ved
Ġspec ies
Ġal ong
ĠU S
ĠH er
he m
ĠT e
ĠAs s
ĠE d
es tern
Ġcount ry
ian s
i or
Ã ¡
Ġb as
ĠP ol
Ġm embers
ĠCh rist
ĠA m
Ġb us
Ġh um
ĠR uss
che s
om in
Ġ201 2
ens us
Ġsuc cess
od e
iv en
ed er
ĠF l
Ġcomm une
al d
Ġcre ated
in c
I t
Ġcur rent
Ġl ist
Ġv ill
ĠW ill
Ġst at
i ence
ĠW est
ĠA b
d ay
Ġ2 5
re w
Ġsing le
ĠB ro
Ġ200 8
ical ly
Ġp oin
iss ion
Ġex amp
Ġ if
il ity
ic es
Ġd ay
Ġpolit ician
Ġw ent
ond on
ĠSt ate
Ġl ived
ac ed
Ġle g
Ġcomm on
Ġp o
Ġs oc
ne y
u k
av ing
land s
in ess
ĠGe or
u ed
erm any
Ġc r
ch n
Ġst ation
Ġcont ro
ĠEng land
Ġsh ort
iv al
Ġp ower
Ġcl ass
ar a
Ġ3 0
Ġs ix
if orn
Ġ200 7
Ġloc ated
Ġp os
ment s
ore d
our t
Ġo cc
ĠAf ric
Ġe ff
ĠB ar
Ġ200 9
Ġd own
ĠG ermany
ing ton
iforn ia
Ġatt ack
al k
ĠL ondon
Ġs k
Ġto p
Ġst ill
Ġmov ed
ĠRep ubl
n er
A l
Ġ200 6
Ġv ers
Ġev ent
as ter
h or
Ġs l
Ġen g
Ġpopul ar
Ġm illion
Ġw omen
Ġimport ant
al th
id es
Ġch ang
ĠCal ifornia
Ġf ive
Ġw ord
Ġre v
1 7
Ġap p
ĠA ir
Ġmarri ed
ro te
Ġc amp
end ed
ĠC up
v es
s p
i od
qu e
ĠA ng
an a
Ġus ually
ĠA nd
ĠThe se
Ġth ird
id d
Ġl ive
le x
f ord
re st
ĠPart y
p s
Ġp rom
Ġrece ived
ie f
Ġe very
ĠR iver
Ġpres ident
Ġex p
Ġm uch
Ġs old
Ġs et
Ġc ame
Ġal low
m s
Ġw ay
Ġl ine
in ed
i en
ist or
Ġf ather
am b
Ġor der
at a
Ġpubl ished
u ff
os p
Ġs on
Ġwh at
Ġan other
Ġwrit ten
on es
ĠInd ian
Ġ2 4
ad em
ri end
Ġ âĢ
a ul
Ġmunicip ality
z er
ĠM c
Ġt ri
Ġj ust
Ġw ar
Ġs omet
id ge
um mer
1 2
Ġc aus
Ġm en
Ġexamp le
l er
Ġan im
Ġwork ed
att le
Ġoffic ial
Ġre f
ĠB ra
Ġro le
Ġev en
Ġw rote
ĠCol le
ĠE l
Ġbec ome
2 00
ke y
iet y
d om
Ġ2 1
Ġre st
ĠC o
g in
ition s
e v
Ġt imes
ĠH ouse
um b
Ġm ark
Ġde b
ro g
Ġ X
it ary
ĠW hen
o on
ord ing
Ġe p
1 5
1 6
Ġg iven
Ġh istory
m ed
Ġg ames
n ess
if ied
ra ft
th ough
en cy
ĠP ark
ĠCh ampionship
her n
am a
Ġp ar
inn ing
Ġloc al
Ã ¼
Ġele ct
Ġre fer
ĠT r
e le
Ġc ensus
ĠR oman
Ġper form
Ġ &
Ġper iod
Ġyou ng
Ġman ag
Ġrep resent
ĠS y
g ed
in t
s c
Ġann oun
Ġcons id
Ġest ab
Ġ2 2
Ã ¶
ĠS ec
om b
iz ation
Ġne ed
Ġ( )
al t
ĠInd ia
ut ed
Ġv is
Ġh ouse
Ġb re
Ġpres ent
c ent
Ġlar gest
Ġbuild ing
ĠM e
ĠJapan ese
Ġlangu age
ĠWill iam
c il
em oc
ĠAmer ica
Ġt w
as tern
Ġf ew
w ork
1 4
n a
Ġg et
Ġre pl
ly mp
ort hern
Ġs ol
a ur
ĠD ist
l in
Ġvill age
ep end
Ġ20 00
Ġd ue
ip p
Ġmon th
Ġinclud ed
al f
Ġdesc rib
Ġ2 3
g es
Ġ19 0
Ġle vel
p ar
Ġ200 5
an c
Ġspec ial
o le
ĠPh il
ĠO lymp
Ġcharact er
ĠE x
con om
Ġf inal
ĠMin ister
Ġa ward
Ġtr ad
Ġcap ital
il ar
ag o
Ġre port
Ġdire cted
Ġh and
as k
it er
1 3
A n
he l
iv il
ĠH ar
Ġg reat
. .
or ies
Ġhel p
Ġst and
ĠO ne
ĠAustral ia
iz e
ĠS ome
Ġcount ries
o f
Ġw in
ĠM ed
ĠE ast
ad y
ĠIt s
Ġdo es
Ġe qu
ĠG overn
s k
st ru
Ġbus iness
Ġc rit
Ġfound ed
Ġ2 6
ide o
Ġne xt
ol l
Ã Ń
Ġg ood
Ġap pro
Ġt em
a im
Ġappe ar
Ġele ction
Ġus ing
t ain
ad u
Ġact iv
ĠColle ge
Ġl a
ĠM ich
ther n
re et
ot e
as es
Ġg en
ograph y
Ġl ed
ĠIn ternational
ĠA ward
C l
ou thern
Ġc or
Ġres ult
Ġth ose
Ġme ans
Ġm ag
ra in
ac es
ener al
ĠH igh
Ġ200 4
Ġh ow
Ġfam ous
is c
v ille
oun cil
Ġa v
our s
ic o
at ely
us h
Ġs ent
o ad
t al
Ġwork s
pe ct
Ġ es
one y
Ġwith in
Ġl ate
Ġ2 7
ĠS an
Ġw ant
Ġprofess ional
Ġex per
ap e
ure d
Ġex pl
Ġs ide
ĠRe g
Ġb ody
Ġr ad
op h
ric k
Ġt urn
Ġh ig
Ġ2 8
Ġproduc ed
ĠA c
Ġorig in
c hed
Ġjoin ed
Ġd et
ur b
Ġtit le
ot s
Ġpro te
Ġc ult
Ġorig inal
Ġe ast
Ġed uc
i ber
emoc rat
Ġcomp os
ĠDist rict
re g
b urg
Ġto get
Ġtoget her
Ġt ake
ĠD av
a ut
Ġf ore
ent ly
Ġpolit ical
ĠEurope an
Ã ³
er ing
ĠC or
um ent
ac hed
are nt
Ġannoun ced
ĠP enn
Ġres p
Ġf em
Ġv al
Ġs w
ĠE n
y le
Ġinc re
ĠUn ion
Ġact or
ĠB el
ra b
e ad
ĠS en
ĠS up
Ġ202 1
ĠS oc
Ġp ost
ĠL ou
a el
ĠM on
Ġ18 9
ell s
Ġ1 00
Ġaut hor
ĠP er
A fter
ĠE m
Ġw est
w est
al a
Ġ199 0
Ġl iving
p es
Ġto tal
ĠCanad a
r ation
ak en
Ġse at
ad es
v ers
ĠG l
oci ation
Ġre qu
e an
Ġ200 1
Ġa ff
Ġf act
o e
Ġin ternational
Ġb ig
ĠS ch
Ġp oss
1 1
Ġpro ble
itt le
Ġp ort
Ġme an
Ġf riend
min ist
c le
Ġsim ilar
Ġ202 2
Ġ ide
Ġl ight
yl van
Ġf ind
Ġ2 9
ĠD ep
Ġserv ice
Th is
er y
e g
Ġ200 3
Ġgener al
Ġd ays
Ġsing er
m ost
ĠP ort
v ious
Ġag ed
Ġp ut
am ent
Ġs ett
Ġm aking
Ġplay s
Ġam ong
A s
a ff
ard s
Ġh app
Ġr ul
Ġn on
Ġbel ie
ir l
av y
id a
Ġv ol
Ġp at
Ġis s
ĠY ou
ylvan ia
ol ution
Ġf ield
Ġ el
Ġappe ared
The re
Ġ198 0
port s
Ġform ed
e um
en se
Ġpro cess
Ġst ory
ans as
s elf
Ġv ideo
ist ics
5 0
Ġbe h
c ast
r is
Ġf un
ru ct
ĠCom p
Ġ200 2
Ġro ck
e h
an ish
iv ely
op s
ĠD uring
Ġsh ip
o ff
Ġcl os
A r
over ed
ber g
op e
Ġeff ect
Ġar ch
Ġl ost
Ġ18 6
Ġ ,
Ġkill ed
Ġbro ther
fl u
l ished
Ġep is
Ġt er
Ġplay ing
Ġele cted
t t
Ġd augh
s ylvania
Ġl ook
' t
g y
ar i
ĠCh urch
ri an
Ġwith out
ĠB ut
Ġl ess
Ġm other
ĠS er
Ġh aving
ĠM iss
Ġpart y
re m
ĠV ir
ĠD emocrat
and er
Ġvers ion
ĠPenn sylvania
u el
ition al
ĠH ol
Ġre se
Ġmil itary
Ġhum an
Ġh istor
19 9
Ġinv ol
Ġn ov
l ine
Ġtra in
ĠN or
f ield
oy al
Ġh ost
r ont
Ġg row
ĠM ex
ĠCh ar
ĠQ ue
ur s
Ġdire ctor
en ed
e e
Ġpart s
h ip
ĠT ex
ĠAr my
Ġp e
ĠB y
way s
Ġd el
Ġcontro l
Ġte chn
Ġ18 8
y a
Ġcomp le
Ġbe g
Ġr iver
Ġw ife
Ġg l
H istory
z il
Ġr ound
idd le
u ter
re am
ert ain
ree k
Ġdef e
Ġs it
Ġd em
ĠV al
Ġf re
Ġcommun ity
ir on
ist an
Ġeng ine
Ġse en
m a
ĠKing dom
Ġcon f
âĢ Ŀ
Ġd est
i j
B C
ct s
Ġestab lished
et work
Ġ197 0
Ã ¤
er a
Ġsh ould
Ġmat ch
ĠJ ames
i ers
b or
og n
pe cial
ĠL a
n ing
Ġsomet imes
ĠSw ed
i us
Ġe conom
ash ington
Ġg ot
k m
ber t
duc ed
Ġsoc ial
form ation
ra w
Ġra il
Ġmod ern
ra g
ed y
Ġfe ature
Ġother s
Ġre al
Ġh alf
ill s
i ol
ĠCh ina
ĠItal ian
Ġa way
ro y
av es
ĠJ ack
ĠG eneral
ĠW e
ĠP al
ĠA nt
Ġare as
u le
ri a
Ġg ave
Ġin f
o or
ell ow
ĠRepubl ic
e al
Ġh old
ĠS m
he re
adem y
Ġty pe
ĠB er
Ġprov ince
Ġm ount
ov iet
Ġf ood
ĠK h
Ġs ound
ight s
Ġstr ong
ĠAng el
ĠR ec
ĠBra zil
ĠGeor ge
Ġvar ious
ĠA g
Ġconsid ered
ĠTex as
Ġpoin t
Ġstud ents
Ġh y
ober t
ĠIs land
Ġ199 9
ĠPro v
Ġfe at
pos ed
for man
arl iam
Ġpr im
sh ire
ĠR ich
Ġpro ject
he st
S h
Ġth ought
Ġse e
ap er
Ġpart ic
Ġbl ack
at ural
ĠP ri
Ġse le
Ġf low
l ess
en a
arliam ent
us ed
id s
Ġsong s
ĠT ur
Ġt est
Ġoff ice
it or
ol ic
ĠVir gin
iv ision
ĠM or
ĠâĢ ľ
ic ago
Ġinclud es
Ġind epend
ar th
Ġapp oin
Ġra ce
Ġreturn ed
Ġpre vious
Ġf ull
Ġle t
n ow
ab or
ĠW ashington
Ġind ust
Ġcon ne
Ġst ar
Ġstud y
ĠK ore
ĠLou is
Ġpos ition
Ġst op
Ġin flu
it her
Ġopen ed
ĠA p
Ġgroup s
Ġis land
ak er
ĠR es
at ch
3 0
Ġ18 7
un t
le ar
Ġ196 0
ĠP aul
Ġar r
as ons
ĠS oviet
ines e
ĠH all
ĠAustral ian
Ġm ult
Ġad v
ĠQ u
Ġf ail
Ġcl aim
Ġcom b
ent ion
Ġ199 8
Ġcon c
osp ital
Ġbro ad
Ġbook s
um p
Ġdire ct
cc ording
Ġpl an
Ġan t
Ġform ula
Ġmov ies
Ġ199 6
Ġwork ing
ĠC ouncil
Ġcon stru
Ġdevelop ed
Ġth ings
e f
ĠN o
Ġn omin
Ġph ys
Ġs ay
Ġro ad
Ġinter est
e ep
ri pt
ĠT own
ot a
Ġh owever
it te
eder al
Ġdevelop ment
h a
Ġm oney
Ġrecord ed
Ġne ver
Ġm y
Ġcaus ed
Ġf rog
S he
ĠCanad ian
Ġrel ig
ud e
Ġteam s
en ces
im ate
ĠM ary
Ġact ress
Ġdaugh ter
Ġshow s
it zer
Ġm ust
g o
ĠAc ademy
ĠR ed
ĠAr t
wo od
Ġth ough
Ġint ro
in ation
Ġkn ow
m b
Ġm ar
ĠRuss ian
om as
Ġchang ed
end ing
Ġa ver
Ġf ire
ĠM any
m ing
Ġbec om
Ġm ot
an ces
ĠC ong
Ġco ach
Ġp ri
Ġsuccess ful
stit ute
Ġt our
Ġcon d
M ar
at ic
Ġl ow
Ġsign ed
Ġf ree
Ġt en
Ġgr adu
l ant
ĠCh icago
Ġl im
ro wn
A t
ĠM il
ĠItal y
Ġ |
iv id
y r
y ear
Ġ199 4
c is
Ġ199 5
ourn al
Ġf ac
Ġk ing
erg y
ĠSt reet
ĠM al
w h
Ġse x
ab ly
ord s
Ġst ates
ĠAfric a
ĠI ll
od es
Ġcontin ued
o o
r ing
Ġplay ers
ĠM ount
Ġst age
am m
Ġf ight
a ign
Ġdescrib ed
Ġt re
ĠA ct
Ġprodu ction
ĠH en
Ġp ract
Ġ199 2
Ġse par
at in
ir th
at ter
Ġle arn
Ġch urch
olog ical
Ġh ard
Ġim p
it ive
y e
Ġdeb ut
ĠM art
Ġf ur
Ġwh ite
est ival
Ġcurrent ly
Ġ ident
Ġex ist
Ġ3 1
Ġch ange
it ar
all s
ou l
ĠBl ack
ram a
Ġm ater
ra p
Ġt aken
Ġhim self
ĠT V
Ġs qu
Ġd am
o ice
ir c
ĠDav id
19 8
ĠG reat
u x
m it
Ġm id
at ives
ab it
an o
ĠR oyal
Ġh on
Ġpro per
Ġs ite
Ġper forman
ell ing
Ġ5 0
i qu
Ġrese arch
ific ation
Ġd i
ĠAss ociation
b oard
s y
Ġpart icip
Ġb ord
Ġmost ly
Ġlead er
ĠS l
ĠSp anish
Ġab le
Ġs ug
ĠFl or
Ġde g
st on
oc key
o res
ĠJ ew
ĠF rom
ĠCh inese
ent ial
Ġc op
ĠJ os
ĠC ath
Ġst ars
c her
re y
pl ay
Ġstud ied
Ġcent er
Ġmonth s
Ġ199 7
Ġc ase
Ġac ross
Ġv iew
pl oy
Ġp arent
ĠCent ral
im ent
Ġnov el
ĠW ith
ĠS ing
Ġre d
ut ch
Ġ199 3
Ġwrit er
w rit
Ġst ruct
ĠM ost
Ġad minist
Ġme et
ĠVirgin ia
ĠAfric an
k a
Ġgr ound
d en
Ġc ivil
Ġc ast
ĠB est
Ġstud io
ĠGr and
Ġperform ed
om a
em ents
Ġe ight
ict or
Ã ¨
n own
ĠM et
Ġrec ogn
ĠP eople
Ġan c
ĠL os
itzer land
h i
, "
om s
Ġab ove
itte e
al y
Ġdis e
ĠC ourt
Ġin it
ut es
et her
on a
Ġap pl
Ġm akes
ep h
ĠD el
ĠS al
ĠP at
ĠChrist ian
Ġhe art
ĠD r
ann el
b and
ĠPar is
Ġaver age
Ġpr iv
Ġc y
ĠU K
ĠB ay
Ġon ce
Ġwe ek
Ġre ached
ĠM ont
Ġse ven
Ġv ot
k y
ĠDemocrat ic
Ġfin ished
ĠSw itzerland
Ġal most
o z
ĠS am
c raft
mp ire
Ġde v
G e
s el
m on
e in
rop ical
it ch
Ġdist rib
ict ion
ĠM ad
A mer
Ġrev iew
Ġl ives
Ġ199 1
u it
ar ia
Ġinv est
is l
Ġk ind
ĠCar ol
fer ence
r ay
Ġev ents
it ect
ino is
Ġright s
Ġrad io
Ġt reat
ain e
Ġrele ase
end er
Ġatt em
he ast
ur t
Ġ [
Ġre ad
ĠD on
Ġappoin ted
Ġ 0
h ing
Ġav ail
âĢ Ķ
ĠCent er
Ġ Ã
Ġend ed
h ib
Ġto o
Ġpl ant
Ġdiv ision
is ing
ate g
Ġwant ed
Ġbet ter
Ġh it
19 7
Ġind ivid
ac y
b e
i que
ĠN e
v iew
ag n
m en
ic le
ac her
ĠG old
Ġcan cer
u z
ĠF irst
ourn ament
ad a
Ġc ant
ut ive
Ġp ress
Ġfem ale
Ġs our
Ġn orthern
2 5
ĠAngel es
Ġ( ;
ĠG ames
Ġw eb
ain ing
ol it
ĠW omen
Ġin j
Ġin s
ĠC ap
ĠG od
Ġart ist
ar ly
Ġc and
Ġmater ial
r ound
ĠFlor ida
Ġcom e
Ġrepl aced
ĠIll inois
Ġb i
Ġst yle
i ation
id ence
and s
Ġr an
Ġle ague
Ġorigin ally
l t
Ġt rib
Ġret ired
ret ary
Ġde cl
Ġdec ided
ĠB as
Ġstat istics
re ad
Ġin formation
Ġcl ose
t ime
Ġhe alth
Ġcol l
Ġserv ices
l am
az ine
Ġprom ot
Ġl ot
Ġv iol
ol f
Ġpr ison
Ġpartic ular
Ġex ec
if y
Ġaward ed
an i
Ġco ast
Ġc al
ran ch
Ġm ix
Ġla un
F A
D e
ul ts
Ġ198 9
Ġcamp aign
Ġs uff
Ġp ark
ad o
ĠChar les
l ike
ic ations
w are
ĠA rab
ĠS ummer
Ġproble ms
l im
n ot
ĠMich ael
at ors
ĠO ff
ĠW estern
Ġsc ient
Ġse a
eng th
Ġadd ition
ress ion
Ġle ast
ĠGovern or
stit ution
ĠD ivision
Ġeduc ation
id ing
Ġw oman
it es
it ing
ra el
ens ive
ĠOlymp ics
Ġear l
ib r
Ġc ross
Ġmod el
ĠR obert
Ġe ither
a ud
Ġreg ular
ĠC he
y m
v al
air s
Ġc ities
ign ed
Ġs outhern
em s
Ġmark et
Ġm ass
Ġpol ice
Ġcent ral
Ġreport ed
ĠS im
W h
le ct
Ġsur v
Ġadd ed
Ġ ill
Ġavail able
Ġv ict
Ġpro t
Ġhig hest
ĠSc ott
Ġdesign ed
st and
o ch
ĠS ant
4 0
Ġn atural
ĠR ail
Ġc ourt
Ġf ront
Ġg old
ĠL aw
in i
Ġfor ces
Ġag re
ĠD es
Ġcap t
ĠI f
Amer ican
Ġgo al
Ġw ind
Ġ195 0
ĠCong ress
ĠO ther
f ic
Ġl ik
Ġr ank
Ġ18 5
Ġp ast
ĠMex ico
Ġf oc
Ġp ain
Ġfour th
r or
Ġc ost
Ġs il
ĠK ansas
Ġc hem
Ġw id
Ġsp ace
Ġdest roy
le g
Ġpoin ts
Ġal though
Ġl iter
ĠA lex
ĠP ak
Ġph ot
Ġepis ode
Ġk eep
l or
ĠCath olic
ĠZ eal
Ġinst ead
Ġh ous
Ġcon du
Ä ģ
Ġj ob
Ġd one
ĠF in
Ġpl aces
ch ie
ĠSp ain
v iron
Ġre n
Ġ198 8
Ġof fer
un k
ian a
ĠRuss ia
Ġst ri
pecial ly
c ks
ĠZeal and
Ġb ar
Ġmov ement
ĠComp any
Ġf if
Ġfollow ed
Ġ z
Ġb o
L e
c ing
Ġme as
b our
Ġd oc
Ġtra vel
I I
ic ation
ĠSt ud
ap s
Ġob ject
Ġcom es
C om
ĠC am
ed s
ĠD ay
Ġschool s
2 2
ar ies
ol k
f ace
Ġc arri
ish ing
F ran
Ġc over
Ġs ays
ĠR oad
Ġn etwork
at ory
Ġb irth
k nown
ish op
Ġrel ation
re land
Ġun iversity
Ġ198 7
Ġ4 0
19 6
Ġfeat ures
Ġus es
ow s
Ġlangu ages
ĠProv ince
ĠGr oup
ĠGeor g
Ġfur ther
ĠFran k
ĠRepubl ican
l a
Ġhel ped
ĠM er
Ġar my
ec k
Ġp ie
" ).
ĠFran cis
Ġcand id
Ġtra ck
Ġcharact ers
p ly
ĠPr ime
ĠD utch
ĠHen ry
ĠE arth
Ġe ver
Ġwrit ing
b ers
Ġqu al
ial ly
rough t
ic ated
st r
ĠI r
Ġas k
er ous
Ġf ar
ĠV ictor
Ġn ight
if f
i res
b on
Ġl ab
Ġg un
Ġmov e
Ġcompet ition
Ġc ertain
ĠL ake
ĠT om
v a
ĠD an
Ġr out
ĠIn stitute
ĠCl ub
Ġmet h
i ro
Ġcolle ge
as c
Ġb ur
se qu
ers hip
2 1
z a
k et
Ġro les
ag ed
ĠA wards
Ġmain ly
Ġsc ored
ĠF ootball
Ġam ount
Ġl ittle
ow a
Ġg ive
b s
. ,
Ġr ange
Ġanim als
ĠAt lant
n y
sy ch
ĠRich ard
ĠG reek
Ġfam il
p en
am il
Ġst e
Ġallow ed
Ġ198 6
ĠIs rael
ĠM ass
ist ry
Ġ198 4
ĠTh omas
Ġim pro
Ġout side
f ect
Ġfor ce
B l
el t
h ood
Ġs ister
Ġf und
ce an
ec ause
ĠG reen
Ġcont ract
ar ian
Ġc our
Ġ198 1
ĠS ince
am s
Ġthrough out
ĠH ill
ĠT er
ap t
Ġsug gest
Ġm em
Ġposs ible
Ġk ey
ĠE mpire
gr ound
Ġg irl
ĠThe ir
Ġs aw
ĠI ran
ĠSt e
ver t
Ġc ut
ig an
ol a
id ae
Ġass ist
Ġent ire
Ġp aint
Ġ198 3
b ack
U n
Ġ197 9
Ġp ur
Ġp ay
emb ly
u ke
ul ation
ĠTh at
2 3
Ġf arm
Ġcomp an
gy pt
N A
r d
Ġdise ase
il s
ĠMus ic
Ġ197 2
Ġ198 5
Ġth ink
ĠP e
ĠF ilm
T V
Ġc ause
Ġt ry
Ġlead ing
Ġes pecially
Ġc reat
Ġe as
Ġl ower
re l
Ġword s
ĠDep artment
Ġen ergy
Ġarch itect
ĠI reland
ĠW il
ĠS aint
ad ium
Ġ198 2
D uring
g t
ĠT ra
ĠP eter
ĠWh ite
Ġch art
Ġb ird
ent al
Ġd rama
il es
it a
ĠW in
Ġown ed
viron ment
F or
Ġt ro
W hen
g ent
ĠComm un
Ġmean ing
C A
ĠM ac
Ġj ournal
Ġtem per
Ġh om
Ġter rit
Ġc irc
Ġch ampionship
Ġs em
t a
ill a
r id
ar ter
Ġf all
ĠI m
Ġc he
Ġsh own
ĠT o
Ġto day
2 4
ud d
ĠR ock
Ġw estern
Ġparent s
ĠPak istan
he ad
ĠP arliament
Ġcont rib
ĠU p
i os
p ite
H L
Ġevent ually
and ed
Ġb attle
re me
ach ing
Ġh ospital
Ġty pes
at o
Ġbuild ings
Ġf ig
J ohn
Ġinvol ved
b l
Ġsc ience
Ġsub ject
ĠP et
ĠMus eum
c el
Ġt ax
Ġg e
ĠB en
Ġ197 6
Ġproduc er
Ġcrit ic
Ġbre ak
Ġin h
2 7
ĠE gypt
Ġsystem s
at re
ĠT or
ic les
m un
mer cial
il ities
ul f
Ġbl ood
Ġh or
Ġb rought
ĠSc ot
Ġdeg ree
P l
ur ric
Ġt akes
ĠR ob
Ġact ive
Ġn ames
Ġ197 8
Ġchang es
Ġst ay
ĠG ra
Ġa ction
ou d
Ġpl ants
Ġa ud
Ġn orm
end s
ond iss
Ġintro duced
Ġd ata
Ġpriv ate
ĠCarol ina
ur a
et ic
Ġrel ated
" ),
Ġem ploy
ip le
Ġh ot
ĠM y
ĠK ent
ĠG o
Ġm ight
im ately
Ġal ways
Ġgo ing
Ġbroad cast
Ġresp ons
Ġl ength
ĠM os
al i
Ġc at
Ġcom edy
im a
m ar
Ġd er
Ġt ournament
Ġb oard
ĠO k
augh t
Ġperforman ce
Ġp ot
ĠI owa
Ġrelation ship
er ve
Ġcomp uter
Ġmus ical
ĠSwed en
Ġw ood
Ġtrans l
Ġbeg inning
Ġocc ur
Ġass oci
Ġattem pt
Ġpro b
ut h
ĠD is
Ġfeature d
Ġp red
2 6
ĠWh ile
nd er
Ġtrain ing
ĠM el
Ġm ur
ay er
Ġst re
g en
Ġ197 3
ĠS erv
ĠN orthern
Ġmat ches
ut y
ad or
ab ility
A d
Ġgr and
Ġ197 4
ĠSen ate
h old
Ġb oy
st ra
ĠM ag
it z
Ġd ou
ri al
Ġob s
Ġcomple ted
writ er
Ġmed ia
Ġs ports
Ġne igh
Ġmeth od
w in
ĠS un
it iz
Ġmed al
Ġse asons
ĠY ear
Ġsele cted
Ġqu ick
Ġw inning
st ant
m ark
Ġs en
Ġindepend ent
ĠM ic
ann ed
ĠSoc iety
Ġc ele
ĠRec ords
ĠB ur
ĠR ad
Ġre b
ĠAr ch
Ġso on
o id
Ġide a
Ġs ize
w an
Ġmanag er
ut ure
Ġear n
ĠB u
Ġcons ist
Å į
Ġ <
Ġsc reen
Ġdefe ated
Ġst orm
Ġt ree
um e
Ġ196 8
f act
Ġcant on
ĠCol umb
Ġrun s
Ġ197 5
Ġbeh ind
ĠSm ith
ub e
Ġcol or
r up
ĠL atin
stit ut
ers ey
Ġen c
ĠS o
Ġcent re
Ġits elf
B e
Ġac cess
Ġ ice
Ġlong er
ien ces
ĠP ac
ĠO l
Ġnew sp
ell ed
Ġen ough
Ġ193 0
ou ri
Ġorgan ization
g l
ic y
Ġcont ains
ĠC at
ur ity
Ġfamil ies
ific ant
se e
Ġsp ent
ro ad
Ġp en
ĠA ccording
ce ed
Ġsp ok
ĠComm ittee
Ġrem ained
ĠSe a
Ġj ud
inn er
Ġconstru ction
Ġ197 1
ov ed
6 0
Ġb ad
ĠC ast
i Ä
Ġb all
Ġbelie ved
ov ers
Ġ197 7
as ing
and a
h y
est s
Ġmag azine
oin t
I D
A ll
en ced
S A
se c
ĠC amp
Ġcompet ed
Ġ196 9
ĠD ou
Ġb ank
2 8
N ew
Ġl o
eb all
u a
Ġgu itar
g g
Ġl ove
Ġdec ision
Ġpo et
fic ult
v ing
Ġrail way
per or
ĠB ill
Ġdiv ided
ĠC ons
Ġac cept
Ġcompan ies
Ġe astern
u ation
Ġph il
ĠJ ust
ip l
Ġ et
Ġpl aced
Ġes c
Ġhig her
ĠU k
air man
ĠRe v
s w
Ġ( ,
ĠD ire
ĠSec retary
Ġm er
ĠM a
ĠB oy
id er
du ction
Ġ18 4
Ġde ad
Ġair craft
E arly
Ġa chie
Ġin side
ill er
Ġdif ficult
Ġm ach
um ents
Ġnomin ated
Ġd ig
Ġex cept
ĠRep resent
Ġg ra
ĠF ore
ĠBro wn
ĠH ot
Ġr ather
Ġ196 7
ve y
i y
in et
Ġar g
Ġ196 4
ĠF estival
if t
ent h
i h
or ial
Ġgo als
c ul
e en
Ġs ummer
b ur
ĠMart in
e ff
Ġm ale
th let
ĠLe e
Ġlar ger
Cl ub
ĠAs ia
ĠC ont
Ġcom mercial
ress ed
Ġ194 0
a ction
Ġbel ong
all ed
Ġnum bers
ĠJ r
Ġra ised
Ġsign ificant
sel ves
r ig
ĠP an
ĠT rans
Ġso ft
p ing
ch ol
ian o
Ġthem selves
ĠL ater
ĠSup er
ĠS outhern
Ġcult ure
ĠD en
av al
Ġmount ain
ab eth
Ġtrad itional
ĠL iber
Ġb ox
Ġm anu
is es
ĠGovern ment
re ady
Ġthe ory
ĠIn ter
hem at
ch an
ĠJack son
Ġgener ally
Ġinst r
Ġsh ot
2 9
ĠIs lam
Ġcre ate
c a
p art
an ks
aw a
Ġar rest
Ġac qu
Ġsmall er
us e
ĠW ales
ro l
Ġde al
Ġsup er
Ġdisc overed
Ġm iddle
um n
Ġd raw
um an
ug u
Ġmin or
Ġmunicip al
ĠM o
Ġres pect
Ġc ell
Ġindust ry
ĠO h
w ide
us band
Ġv ir
r ad
Ġte acher
ell a
Ġm iss
Ġres ident
Ġrepresent ed
Ġsur round
im b
Ġocc up
in ary
Ġlaw s
uck y
ĠBrit ain
ĠMus lim
ĠChampionship s
Ġbecom ing
g a
urric ane
Ġto ld
Ġfun ction
op er
ens ion
ĠC arl
ĠR os
on ia
Ġwh ose
k i
Ġcele br
r ight
Ġfore st
Ġweb s
ac hes
Ġform s
ĠAr gent
ĠM ur
he im
Ġ194 5
om p
ĠS ur
Ġdr ug
Ġop pos
S c
Ġl oss
Ġup on
Ġra p
Ġf av
Ġanc ient
Ġcomp l
w ell
b re
3 7
ĠH aw
Ġt aking
ol s
Ġse ction
az z
Ġlist ed
arr ing
ĠComm ission
Ġc ases
Ġsh oot
ĠSec ond
ist ic
Ġmin ister
Ġse qu
ĠFor ce
ĠB ang
ig r
Ġstud ies
Ġcon v
r ative
ibr ary
st ein
et te
ĠAl though
Ġim m
ĠLe g
Ġprim ary
Ġf ederal
L a
Ġst ories
Ġbel ow
H is
c ies
Ġcol on
Ã³ n
Ġatt ended
ether lands
ubl ic
Ġdoc ument
ĠR h
ĠAss embly
S ome
ĠE r
Ġcolle ction
Ġ #
il i
P ro
Ġal ready
l o
Ġg od
Ġv oice
Ġcomp let
Ġg rew
duc ation
u ge
Ġprofess or
Ġh usband
as ion
med i
in ct
ĠW al
Ġstart ing
Ġprogram s
us es
Ġp ers
Ġsold iers
y er
ĠH a
Ġmed ical
Ġb ase
ĠB attle
ĠThe n
Ġ Â
pe cted
ĠQue en
Ġbord er
er ia
ĠPri ze
ĠGeorg ia
Ġrun ning
Ġinh abit
ĠB C
et ts
ar io
Ġe at
ĠP re
ĠL and
Ġne g
u an
ar ing
Ġ6 0
Ġtrans fer
Ġty p
ĠCh ief
al ed
Ġc itiz
Ġ196 6
Ġprov ided
Ġsupport ed
Ġfriend s
Ġmur der
le ment
ĠO ld
he t
Ġterm s
ĠJos eph
ĠMiss ouri
Ġfre qu
Ġstruct ure
R e
Ġp sych
s en
or por
Ġleg al
ĠJew ish
ĠKore a
Ġhe re
ĠS pr
Ġsur face
ĠC ount
Ġle ave
Ġcan not
Ġpre m
om m
ĠN etherlands
er ry
Ġs at
ĠW ind
ĠB ecause
Ġsomet hing
P h
un n
ĠT wo
Ġqu est
ĠM r
Ġt alk
ĠW ood
Ġmet al
j a
à ¸
Ġs um
ĠMich igan
Ġto wards
ro ll
Ġst ated
Ġrelig ious
Ġun its
ĠVal ley
ar ily
ĠC ivil
ĠF I
3 5
ĠB o
ct ic
Ġprov ide
ĠOlymp ic
Ġaff ect
ĠS ar
C on
in son
Ġl ines
Ġcomp lex
Ġold est
ĠC ro
Ġn ine
ach us
Ġearl ier
ĠD o
Ġw ide
al so
Ġs us
Ġgo es
Ġpass ed
ĠM ah
Ġent ered
ades h
Ġbr idge
ent y
on ic
Ġ er
Ġpr inc
Ġlaun ched
ĠF ort
Ġt ou
g ian
Ġre ve
ak a
ĠAr ts
it ation
ly ing
ĠAs ian
Ġelect ric
Ġask ed
Ġ196 5
Ġgen us
ĠE astern
Ġart ists
ĠAn n
ir m
Ġacc ording
Ġen vironment
vent ion
Ġfilm s
Ġv ote
Ġn uc
Ġchem ical
Ġ196 3
e ks
olit an
ĠEd ward
Ġc lear
Ġprevious ly
ric ts
S aint
Ġh ours
Ġd ate
Ġclos ed
am ily
Ġquick ly
Ġf uture
Ġw or
Ġd on
w a
Ġ )
ĠR o
ri ed
Ġcommon ly
Ġindivid ual
p ts
b ury
r ich
oc al
Ġturn ed
Ġtri ed
ĠTown ship
te en
Ġsy mb
ĠF red
urb an
ĠAmerican s
Ġspe ak
iÄ ĩ
achus etts
i est
or ing
Ġstud ent
Ġmil es
Ġs elf
ol es
Ġoffic er
ĠScot land
ĠO s
Ġ196 1
Ġ194 8
p re
ĠS pe
Ġfor ced
th ing
b a
ĠB or
ĠB av
Ġalbum s
Ġneed ed
w estern
Ġ196 2
r as
s pe
an cial
ĠJ ersey
Ġed itor
Ġd rop
Ġra in
at form
Ġbas ket
ĠPac ific
ra ck
Ġex hib
a res
Ġs af
Ġd og
re a
Ġg as
ĠK n
Ġst ep
19 5
Ġold er
ĠJ ul
Ġe mer
Ġte xt
.. .
c an
ict ures
Ġdet erm
ĠMass achusetts
ig a
ĠOh io
ĠF re
Ġnew s
Ġch ief
i as
Ġv eh
Ġr ule
Ġ i
qu ar
ing er
Ġst ations
c ol
ĠII I
Ġo x
ĠF C
3 8
Ġacc ount
b ased
er em
Ġtrans port
Ġ eth
Ġd en
Ġo pt
Ġ /
Ġ195 6
Ġad op
Ġmarri age
Ġinvest ig
ĠS il
Ġappear ance
Ġc ells
Ġn ative
Ġreg ard
ian t
is her
Ġperson al
ĠPhil ipp
ĠN avy
ĠG ar
Ġmus eum
Ġ194 7
ir a
ĠF ound
Ġstand ard
Ġp ick
ur ies
Ġre ason
Ġst arring
S p
ĠM od
k o
Ġhe avy
Ġappro x
m ond
Ġd ark
el a
ĠAust ria
el d
Ġwh om
oun ter
ĠS k
ĠB oard
Ġsour ce
Ġofficial ly
Ġt ropical
ult ure
ĠPl ay
ĠK ong
ĠPro fess
Ġwe eks
ĠM iddle
Ġun ivers
|| ||
Ġbl ock
om er
Ġd om
Ġar m
ĠAr k
3 9
o is
ĠIr ish
f it
ondiss ement
ĠCl ass
Ġmin utes
h an
Ġcl imate
ĠJohn son
Ġtr ade
E l
ug g
Ġab s
Ġb omb
ad d
Ġpo or
Ġfif th
F rom
Ġf ish
Ġm erg
ask a
Ġsoc iety
k en
Ġc ust
Ġopen ing
Ġvis it
Ġ193 9
ĠM inn
Ġgovern or
ĠL ine
op her
e ch
Ġs chol
Ġc ard
Ġc oup
rop olitan
Ġs n
Ġwe ap
Ġbasket ball
D on
por ary
Ġth reat
Ġdestroy ed
ĠYou ng
Ġcomm and
od ay
Ġdistrib uted
ĠC r
à ¤
ĠCh arl
ost on
Ġmanu fact
Ġc red
ĠSt an
Ġs low
ĠPr ince
ĠJ im
enn is
ĠJ es
ĠE s
Ġwho le
y an
it ude
Ġloc ation
Ġsepar ate
ĠS and
Ġv ia
ĠPol and
ĠColumb ia
Ġo il
ĠB ern
Ġper cent
ĠB ook
ec ess
Ġiss ues
Ġ195 2
ĠIs lands
F L
8 0
ĠG al
und red
er ved
Ġs pl
Ġ195 7
Ġde ep
Ġ194 4
ĠCon f
Ġear th
Ġstat us
Ġeff ort
Ġactiv ities
Ġinhabit ants
Ġch annel
ĠV ol
B A
Ġproble m
ard en
ĠV er
4 5
ĠF ox
Ġan g
ĠS ir
ett ing
ven ue
Ġserv ing
Ġpract ice
ĠL ord
ĠAtlant ic
Ġg reen
ĠJ un
iz abeth
Ġsp read
B S
A m
Ġun it
Ã¡ n
ĠBrazil ian
Ġ ri
Ġ19 20
ĠSh ow
Ġnorth west
ĠR ome
ing u
Ġres ults
Ġtown s
Ġfe el
Ġmult iple
Ġa wards
at i
at ers
Ġmajor ity
Ġhy d
ĠSoc ial
Ġpe ak
ĠS qu
p ose
Ġt ells
Ġphil os
Ġnot ed
Ġth r
Ġproper ty
cl us
Ġ194 2
3 6
Ġleg isl
Ġcons ists
Ġpresident ial
ĠSwed ish
y o
ĠU r
ĠB ank
ĠA v
ĠB ul
Ġ195 8
Ġprob ably
ĠM en
che stra
ĠMar k
Ã §
Ġact ing
yn ast
ch ange
ann ing
P r
h ouse
ĠM ajor
Ġele ctions
Ġfore ign
Ġgradu ated
e ction
Ġtro ops
Ġmat hemat
Ġearn ed
t ies
Ġhum ans
l ah
ĠA ut
Ġw ays
ĠB ig
out heast
Ã© e
Ġw rest
Ġ" "
ct ors
ound s
ĠM ore
Ġbeh av
Ġor d
B ill
Ġsc ore
Ġnear ly
Ġest im
Ġreview s
b it
Ġc ateg
ear ch
ĠKore an
Ã ´
Ġrecord s
ĠS ol
ĠAl so
ĠB BC
Ġk ept
Ġacc ident
Ġhous es
ĠDis ney
Ġh ockey
ĠBer lin
Ġle aves
che ster
Ġ7 0
Ġrem ains
Ġc overed
ĠM u
are er
ĠS at
il ly
ollow ing
ĠH ung
Ġcompos ed
Ġ195 9
ĠFrancis co
Ġ195 4
Ġfor t
Ġrefer red
Ġcomple te
ĠJ o
is ation
rick et
bur gh
Ġcar ry
Ġt al
ĠPol ish
Ġf ast
Ġsub sequ
Ġ8 0
ĠM ot
7 0
av a
Ġeconom ic
Ġan al
Ġhapp ened
ĠT ri
ĠO cean
Ġdam age
Ġ194 9
ut t
olog ist
Ġlet ter
ze ch
A b
Ġd u
or a
ĠH el
Ġch ampion
am in
Ġdist ricts
Ġincre ased
Ġadminist rative
o ir
Ġl og
Ġt able
Ġpre vent
Ġcaus es
ot al
Ġf le
ĠT ai
Ġshow ed
Ġnewsp aper
es ota
stand ing
Ġlab el
ĠBro ad
Ġ194 1
eder ation
amp ions
ĠH ow
i ents
Ġship s
Ġ ver
enn es
A nd
ĠH ind
Ġp aper
Ġin tern
ĠB oston
Ġspe ed
Ġconc ern
Ġfl ag
Ġappe ars
Ġ194 6
ic ed
ran ge
Ġcond itions
Ġpar ish
u als
ĠEn ter
Ġsex ual
Ġs al
M an
ra ine
Ġal tern
Ġorgan iz
ĠN az
ac ing
9 0
ĠF er
Ge ography
ĠBav aria
Ġwrit e
Ġro om
Ġst aff
stit u
Ġrul es
Ġr ate
itt ing
por ation
ib ility
Ġ9 0
g u
ĠT y
ĠL ong
Ġev idence
ic ine
3 4
ut s
m m
ĠJ ud
ĠMc C
Ġcandid ate
Ġn ort
ĠL u
ĠMinn esota
ĠN ations
Ġprodu cts
il a
Ġrequ ired
Ġassoci ated
a ult
Ġin sp
ĠB oth
Ġp urch
Ġpos itive
ĠK e
ak h
Ġme chan
iet n
ad el
Ġnear by
ĠL uc
Ġlim ited
Ġd ance
Ġem b
Ġvar iety
lah oma
Ġprote ct
ĠT w
ut en
Ã ±
Ġc ode
Ġb al
Ġestab lish
Ġle aving
ĠSer ies
ent ed
th ur
ĠAust rian
Ġepis odes
Ġmerg ed
w er
Ġf ought
ĠW ay
ĠDire ctor
w ar
Ġbr ing
s ur
ail y
ĠK ar
ĠT imes
Ġe gg
Ġ195 5
il ed
Ġex c
ĠRepresent atives
Ġ3 5
Ġcour se
Ġg ets
orn ing
Ġvict ory
Ġrout e
re ater
ĠB al
ian ce
ip s
ok e
ric e
y ing
ĠH on
ĠDe f
Ġcontro ll
ĠWilliam s
ill ed
Ġprodu ce
4 7
e z
n es
Ġtr ue
Ġincre ase
Ġhon or
Ġpl atform
Ġterrit ory
ĠE ducation
quar ters
oph y
I s
O ne
ob al
Ġen em
ail s
Ġspec ific
Ġlik ely
ĠServ ice
Ġo ur
ĠW all
ĠM at
Ġbig gest
Ġsen ior
Ġp il
ĠC y
G r
Ġt ar
Ġg ives
i ography
ay a
Ġtemper ature
erv ation
le vel
ĠAl b
Ġsp ir
Ġfe et
ript ion
ĠOk lahoma
g ress
ast ic
Ġinflu ence
ĠVictor ia
Ġf oot
Ġfin ancial
Ġc le
ow ers
ap ed
ĠUn ivers
ou ra
ĠC zech
ĠS ong
Ġval ue
W ill
Ġbelie ve
ĠKent ucky
ĠE ach
Ġfootball er
ron ic
Ġbird s
Ġ18 0
Ġra re
Ġh ar
ol n
Ġrec ent
Ġn ature
br idge
Ġann ual
Ġtre es
Ġp al
Ġoper ations
Ġnum erous
Ġrem oved
ĠAir port
ri z
Ġme ant
Ġl ack
it age
ĠB ob
Ġd iss
omet imes
Ġs u
ĠScott ish
3 3
S C
Ġrecord ing
ĠRev olution
W e
ri ef
ĠTe chn
Ġcy cl
ĠC O
Ġbecom es
ph y
Ġpress ure
Ġapprox imately
Ġmanag ed
C areer
a o
an cy
Ġmov ing
ĠN A
ĠIn c
ĠT ok
ĠT our
Ġbl ue
ĠSc ience
Ġm ention
Ġis lands
ĠO ver
ĠSy stem
Â °
ob ile
ĠLouis iana
Ġaut om
Ġclaim ed
ĠP rem
es c
Ġover all
Ġw alk
om y
ĠH ockey
av en
Ġcr ime
Ġ195 3
he w
ĠB us
Ġcompos er
ynast y
on se
Ġwebs ite
ĠSt ar
ĠDe v
n o
ed d
ĠL ab
all en
rup t
Ġb ene
Ġth ous
Ġcont est
ĠArk ansas
ult ural
Ġl os
Ġprodu ct
Ġant i
Ġexec utive
Ġwid ely
ĠK enn
ĠV ietn
le ep
ĠL ife
oc ks
Ġsay ing
A ccording
Ġ194 3
Ġf ace
y es
Ġsqu are
Ġcarri ed
S e
er o
ĠO per
m ore
ĠM em
. )
ĠM att
Ġn ation
Ġinter view
Ġtechn ology
Ġphys ical
Ġsil ver
ĠB h
ail ed
l av
im in
ĠP en
d own
ĠF ederal
od ies
Ġt aught
Ġ193 8
Ġlevel s
Ġfail ure
Ġele ments
Ġfail ed
Ġag o
Ġprov in
Ġlaw yer
n ic
Ġre ach
Ġm ess
ĠBe fore
ĠT im
ĠO ut
Ġoper ated
in ent
ak i
ab les
Ġanim al
R A
Ġm ission
ag on
j i
Ġsing les
ĠOr der
z y
ĠJ ones
ĠCo ast
c ow
l ines
os en
um ber
Ġchar ge
Ġappear ances
Ġmot or
m ission
Ġh undred
os aur
Ġim medi
Ġfin ally
ĠL ove
Ġdis play
Ġb ranch
ov a
Ġmeet ing
se x
inc oln
ab y
mit ted
Ġb illion
ic ted
ĠN ot
ri e
im s
Ġ195 1
Ġed ition
Ġl ay
ĠL o
ĠJ ean
ĠA k
Ġ193 4
Ġar ran
Ġl ink
ĠU s
T A
ĠEl izabeth
led ge
3 1
ound ed
Ġw ear
Ġhistor ical
Ġdirect ly
ĠT em
Ġwhe ther
Ġoper a
Ġbur ied
Ġin te
iqu es
g ing
ĠJ ac
Ġide as
Ġ193 6
Ã £
ĠH ong
Ġth us
ĠE v
ala is
hes s
Ġcult ural
Ġrespons ible
ipp i
Ġsim ply
Ġsouth west
er al
ot o
Ġpower ful
l ight
is k
ĠH y
Ġstar red
ĠC orn
Ġrem ain
ys is
ĠRail way
ĠTur k
ĠS om
ĠO pen
ie uten
Ġreg ions
orpor ated
Ġb ought
ĠMiss iss
ir ing
Ġpresent ed
E d
j an
ĠT op
ĠB re
Ġc art
Ġmet ers
Ġgr ant
sk i
Ġd ed
v in
ar ry
m ad
t ained
Ġmix ed
Ġconsid er
Ġtw ice
ell ig
ĠAl bert
ĠD i
che n
Ġqu arter
Ġ und
Ġl ic
os h
ĠE ll
ĠI d
Ġtrad ition
ĠSup reme
man n
In ternational
Ġiss ue
ĠM ax
et ro
Ġw inner
Ġs port
ĠRad io
Ġin n
el le
Ġmanag ement
ĠS a
Ġexper ience
g al
Ġac adem
Ġfound er
g n
Ġsec ret
ĠMex ican
p on
Ġnot able
Ġsuc ceed
Ġarr ived
ĠR am
ul ly
Ġl if
Ġsh are
Ġpl anned
ieuten ant
3 2
im um
Ġpro posed
nt ario
ug by
Ġ193 3
Ġlead ers
Ġcop ies
O ther
Ġequ ip
Ġprinc ip
r ast
w ater
Ã ¢
Ġser ve
Ġfoc us
Ġdou ble
en ing
ĠV i
Ġrem aining
ĠEm peror
Ġb att
Ġk il
Ġ urban
ĠÂ £
Ġneigh bor
Ġt all
ĠAb out
r ical
Ġb urn
ru it
ĠNew s
E x
Ġm aster
and y
Ġact ually
Ġrepl ace
ĠFound ation
v is
ĠS u
ĠB ell
et y
Ġsome one
Ġ193 5
ĠM id
Ġpr in
Ġpromot ed
Ġ ess
Ġsol o
Ġmunicipal ities
ĠT re
Ġbe at
ĠL y
Ġc ouncil
ap ore
iz ing
ĠH arr
or f
M any
ab ama
Ġtra ins
ĠN ord
Ġrul ed
Ġjournal ist
ĠT ay
Ġ4 5
Ġadd itional
ĠSt ep
ĠCol or
m as
ĠO x
Ġup per
ĠW ork
over y
ĠCon ference
ĠUS A
v i
ag an
Ġmusic ian
Ġb rain
Ġp un
ab ad
ess ion
Ġp ath
Ġ193 7
Ġdecl ared
am ber
os ed
ren ce
ĠCent re
Ġnorm al
ĠIndian a
Ġren amed
ĠH u
ĠE st
Ġpl ans
enn a
Ġmag n
Ġb ott
ĠWin ter
Ġparticip ated
on to
ed om
7 5
ĠJ eff
Ġparticular ly
L ist
Ġagre ed
ĠM ov
Ġpol icy
Ġfight ing
Ġdisc uss
ĠB ad
ĠG h
Ġcon fl
ct ing
Ġr at
ĠR og
adel ph
Ġad ult
Ġcomm ission
F C
Ġb rief
ĠC ensus
Ġst ore
Ġfollow s
ad ed
ag er
ĠBar b
Ġfl ight
k ins
et ween
u er
ĠC D
Ġdo ctor
velop ment
tain ment
Ġoffer ed
Ġpot ential
4 9
ĠH istor
Ġc ars
Ġ5 00
o a
st one
Ġorder ed
Ã¼ r
ĠC a
ĠOff ice
Ġstre ng
Å ¡
ĠC ur
ĠU nder
ĠMos cow
ĠAl abama
ĠO tt
ron ze
Ġactiv ity
Ġeffect s
ĠC ross
in em
in ks
adelph ia
m ir
Ġext ra
Ġrecogn ized
en es
ut ions
ĠF orm
fect ure
ĠS und
ĠMar ia
ĠBro ok
Ġresp onse
ĠC ub
erv ative
ĠG ree
ĠMississ ippi
a is
ĠP ublic
Å Ĥ
og rap
ĠO ntario
ĠB ow
Ġn ick
ire ment
ĠGold en
Ã£ o
ĠR ay
ash ion
5 00
in ing
ĠH or
ĠReg ion
Ġpe ace
Ġg iving
Ġa st
ĠF ar
Ġvers ions
Ġcapt ured
ad er
ĠG irl
Ġhead quarters
Ġtreat ment
Ġprov ides
ĠL ew
ĠE le
Ġmay or
ĠJ oe
res h
ed ing
ĠP as
ĠW ater
ĠK en
Ġreg ional
ĠG ram
ĠAn other
Ġ era
Ġy ellow
ur d
Ġrelig ion
v ement
Ġstart s
ĠB ah
ĠN ob
ĠL ittle
Ġattack s
Ġst ra
Ġcon stitu
ĠP ers
Ġcoll abor
Ġspok en
th rop
ro ke
ĠV an
ĠProfess or
Ġsim ple
Ġ ens
ĠF our
Ġpro p
Ġyoung er
re al
ĠG ame
our g
Ġpie ce
y al
it o
ĠG all
wh ich
Ġinit ially
ĠCor poration
Ġw ild
at ively
Ġc am
Ġp arliament
Ġsk in
4 8
Ġ rom
or i
ar p
ĠN etwork
Ġg etting
ĠTe am
ap ers
f all
k er
ĠV ice
ĠPhilipp ines
Ġ193 1
un a
Ġstop ped
Ġs ides
Ġab ility
ĠN ig
our ces
iz es
Ġ192 9
Ġpie ces
B y
b ach
it ted
ol ved
T otal
Ġdis p
Ġcrit ics
ĠO b
Ġcre w
Ġestim ated
Ġc erem
Ġm ic
ĠS el
d ney
Ġmeas ure
k in
ĠS ub
Ġwe ight
Ġdel iver
Ġworld wide
Ġc orn
ĠR aj
erson al
Ġdiv or
N e
f ort
4 6
Ġl ake
Ġ17 9
b ass
Ġcon cept
Ġch airman
Ġcontin ue
Ġse vent
ĠCh ild
Ġallow s
ĠPhil adelphia
t ing
ĠW W
ĠSing apore
ar row
Ġfig ure
Ġcount ies
Ġfl ood
Ġoper ation
ĠN ight
Ġcoup le
Ġliter ature
Ġv ac
Ġmach ine
O r
g ar
Ġh op
Ġassist ant
S ince
Ġc overs
ennes see
" ;
ĠA ff
ĠP op
ĠRes earch
ĠB a
Ġhigh ly
ĠC ard
Ġre pe
Ġg ained
ĠG ood
W ith
C ol
ons in
I nd
c i
Ġdist ance
ĠComm on
ĠAlex ander
ĠJust ice
r ong
du ce
Ġp aid
ia b
Ġspl it
Ġm ill
ĠL incoln
ĠJ ane
Ġy outh
Ġiss ued
ĠF ame
ac hel
pt ion
ĠV en
Ġst adium
Ġf iction
Ġatt ention
Ġ193 2
Ġpri or
n ce
ĠF ord
Ġadop ted
i ot
ĠC op
Ġdem on
ĠO f
isc onsin
Ġsqu ad
ĠT ime
Ġy et
Ġanim ated
w ith
ĠR od
Ġb or
ĠM unicip
Ġwork ers
Ġass ociation
Ġsoft ware
Ġp it
Ġneed s
ĠSant a
an es
ĠHe alth
C alais
ord er
u y
ed ia
ĠM ir
Ġd ang
Ġch osen
ĠBl ue
Ġhost ed
d es
i ac
ĠC E
ĠCh annel
ĠEnter tainment
Ġf ix
Ġf ellow
ĠCh ile
Ġd ial
Ġinstr ument
Ġcont ain
ĠUk raine
ĠâĢ Ķ
' .
Ġoper ating
in y
Ġtra cks
bour ne
ĠA sh
Ġst one
ict ure
Ġorgan ized
r ated
Ġf ell
Ġet c
Ġa ired
ĠF e
ĠCon ne
ĠS ab
Ġper man
Ġj un
ĠThe atre
Ġarrest ed
ĠH ospital
Ġcontro vers
Ġcon cent
ĠAl f
Ġpaint ing
b ed
Ġcom ment
Ġtw enty
ic ate
Ġb ass
Â ²
ir med
ĠW isconsin
Ġsc hed
p an
Ġb ound
Ġtri al
ĠT ennessee
ĠInd ones
Ġd raft
em an
Ġattack ed
d a
ĠD uke
b ra
sk y
e es
Ġser ious
Ġoffic ers
Ġs ens
ist ance
ild ing
Ġ192 8
ĠGu ard
Ġgrow th
Ġsuff ered
Ġp an
H er
Ġv an
m outh
Ġ3 2
Ġbro ke
Ġcontin u
ĠDan iel
Ġcomplet ely
Ġa thlet
Ġn ecess
ĠTh ree
Bill board
m et
and on
ff ic
Ġindust rial
Ġconne cted
ĠBang l
Ġd omin
Ġbro wn
ĠBr idge
Ġbas eball
ĠU t
Ġse arch
ĠSt ation
Ġclub s
ĠSy dney
S R
com mun
Ġp ack
per ial
ĠBe ach
am i
al o
Ġown er
Ġsymb ol
ĠColor ado
r Ã©
Ġg raph
Ġvot es
b ec
ant ic
ĠM aine
ĠD ak
z o
us c
Ġdo ing
Ġpolit ics
Ġtit les
Ġindepend ence
ĠU N
Ġch o
ĠMary land
m ph
Ġc old
Ġre asons
ik a
Ġd ry
ĠH amp
ric s
Ġ7 5
ĠI nt
Ġy our
Ġ192 7
Ġalong side
Ġwin ter
The y
ĠCon stitution
Ġrest aur
ant ry
se y
Will iam
ĠN HL
ĠAnd rew
Ġaccept ed
ĠK ir
Ġcre ation
res p
ĠB udd
ens ity
Ġext ended
Ġst ream
l ers
ath an
Ġsp ring
al le
Ġsix th
Ã º
igh ter
Ġequ al
) ;
c ia
iv ity
ig g
arr ondissement
Ġ Å
Ġst reet
or ter
ĠA h
ĠR on
ob e
6 5
D P
in als
Ġwh y
Ġart icle
k h
n s
Ġon line
Ġpart n
Ġref ers
Ġnuc lear
Ġrec ently
ĠTor onto
ĠTok yo
ĠH am
Ġsh ape
ĠD ar
ĠHe ad
Ġ192 6
ple ment
ĠP it
ous ly
Ġs ales
el ve
Ġcom ing
ĠFI FA
Ġfor ward
port un
Ġcont ent
ĠL ady
Ġlet ters
p ut
Ġconc ert
Ġv e
Ġv o
Ġr ivers
Ġsem i
he astern
ol is
hed ral
ig en
Ġmy th
Ġnick n
Ġw a
el ly
Ġfl oor
p et
Ġflow s
Ġscient ific
ĠConf eder
in clud
Ġbe aut
Ġm ole
Ġre act
ĠW ild
T e
ly wood
Ġpat tern
M ay
Ġ ;
Ġgreat est
Ġp ra
ĠS her
Ġdeb uted
D av
em eter
gh an
Ġanc est
Ġb ul
Ġl ies
ick s
Ġdefe at
Ġhe at
Ġsub urb
Ġcap ac
p ress
Ġac id
or ge
ĠC reek
ĠB on
cl es
Ġbas is
v est
en ger
Ġf estival
ĠB and
Ġro b
ul pt
ĠInd epend
Ġquest ion
is hes
le ts
it ness
Ġ192 5
ĠTur key
ĠPrem ier
ĠJ an
Ġsec urity
ĠW ars
Ġad van
ans ion
Ġfl u
ĠSt adium
hen s
M on
ĠWil son
is a
ak ers
Ġcons um
Ġcap tain
Ġtry ing
Ġsus p
V D
Ġbr and
l oad
Ġs ons
Ġreve aled
im al
rog en
Ġresident s
Ġsw im
ĠQue ens
Ġsit u
ĠN ick
Ġhouse hold
Ġgrow ing
Ġr ing
Ġro yal
ĠV ill
Ġele ment
Ġl y
Ġcol umn
Ġdire ction
g reg
Ġ ir
or ation
or gan
Ġh ol
Ġp iano
Ġre form
ĠR om
9 9
Ġf irm
em porary
ĠKh an
ar o
i at
ra q
Ġatt ra
Ġcond ition
ĠJes us
Ġacadem ic
ograp her
ĠO p
or ph
Ġcomb ined
ĠR ang
Ġacqu ired
ĠArgent ina
M ost
st ead
ĠL ist
Ġpart ies
i i
Ġp le
os is
ĠE p
Ġs un
es h
Ġc ounter
Ġbe gin
Ġch ap
Ġhold s
ĠTai wan
ĠB ure
ĠG ro
Ġw all
Ġse ats
ov en
ĠK im
Ġmet res
1 00
as y
Ġsour ces
Ġal t
Ġm orning
ĠAnt on
Ġadminist ration
a ug
Ġag ric
Ġqu ality
A C
Ã© n
Ġtit led
w orth
Ġcar bon
Ġeconom y
ugu ese
ic ide
Ġre ign
ly n
igh th
Ġsc ene
Ġdi agn
Ġrank ed
Ġpur pose
ĠD un
ann a
Ġent er
Ġserv es
ĠT a
ct ive
Ġbas ic
Ġ192 2
Ġmount ains
ĠM as
b o
ĠS ports
Ġcont act
Ġ192 4
at al
ĠH uman
ĠB alt
ĠAr thur
Ġpre c
Ġprim arily
ĠF ire
Ġcomp ared
Ġun s
ĠB ol
Ġegg s
M y
og ue
Ġkil omet
a ith
Ġeth nic
ĠTay lor
Ġp up
Ġmaterial s
Ġincre asing
stitut ional
ĠM ain
Ġweap ons
P ersonal
Ġval ley
4 2
Ġs outheast
Ġfl at
Ġhand s
int end
Ġcamp us
b ro
st ate
ell er
ĠIn tern
E FA
b ook
l i
Ġc ab
ad os
Ġro ll
eng ers
V ID
Ġlearn ing
ĠN ative
Ġthere fore
Ġded icated
5 5
ĠT oday
Ġcommun ities
ag ing
ĠP ictures
ĠCro at
ion e
ile y
Ġop portun
Ġthem e
Ġc oin
Ġh urricane
Ġbusiness man
orn ey
ĠOx ford
are t
Ġindivid uals
B iography
j oy
ĠP ost
ĠH ome
Ġad j
Ġra cing
- -
ĠN ic
ĠNor way
s ong
Ġim age
Ġhistor ic
Ġin se
Ġth ir
Ġland s
Ġl atter
ĠSer b
W est
an ia
au x
Ġconf irmed
6 6
Ġmention ed
Ġ ult
ĠIn f
Ġdes pite
Ġactiv ist
at ures
ĠB ir
ĠG er
iv a
ĠVietn am
Ġf air
ĠT est
ĠTr ump
in th
ĠT ro
ĠD ie
ĠH art
we ight
ur i
ul ated
Ġtyp ically
Ġb odies
Ġar ms
Ġpre p
T o
Ġh abit
ĠF ederation
s et
Ġf ans
im inal
ins ula
Ġd ipl
Ġbrother s
Ġobject s
w ing
Ġar ts
Ġres igned
Ġcom ed
Ġte aching
inn ers
ify ing
c ont
Ġpart ner
ĠDak ota
Ġc ricket
Ġf oss
ĠS av
Ġre ally
ĠW el
ism s
Ġbeg ins
Ġagre ement
b i
Ġ iron
Ġt ell
ĠK al
Ġex pected
ĠB os
Ġwith d
Ġs leep
Ġpol l
Ġsett lement
Ġl iber
Ġnort heast
ĠP ope
ister ed
Ġ192 3
Ġoccur red
E n
ĠS us
ĠB ru
Ġscient ists
Ã ¥
Ġcent uries
Ġtem ple
ellig ence
l ar
8 9
ĠDe velopment
Ġkind s
8 5
ĠD am
ĠCor ps
riz ona
S up
ĠT amil
Ġv on
Ġspe ech
emeter y
Ġb ronze
Ġh arm
ĠB eng
Ġfav or
4 4
M A
Ġco al
ch a
Ġpol y
ger y
7 6
M S
Ġon es
Ġpl ane
ard o
ot hes
Ġvill ages
ul s
gl as
Ġun ion
aly mp
rag on
ĠL ind
Ġk id
ograph ic
Ġ Ð
Ġf ashion
ro om
Ġcon ver
Ġexper iment
Ġeas ily
g ram
Ġf elt
ĠAt t
Ġm om
ic ient
Ġdef in
ctic ut
! "
B ar
Y ou
if ul
ĠK at
ĠTurk ish
ĠH ay
ĠLe on
Ġknow ledge
Ġtransfer red
A nt
ight ly
Ġimmedi ately
Ġ19 19
Ġh air
Ġsp ot
ĠPar alymp
= "
est ic
Ġbel ief
Ġpos itions
Ġtou ch
p a
re ct
ond s
Ġqu ite
ĠAb b
Ġh all
Ġex act
Ġthe atre
ĠH un
ĠL es
ĠN ow
ĠOr gan
ĠSen ator
ĠJ on
ĠE ven
R h
ĠSw iss
Ġcreat ing
g ely
Ġfeat uring
ĠW rest
Ġr ural
u i
ĠPort uguese
Ġsett led
cl ass
Ġform at
Ġp owers
Ġdig ital
Ġinsp ired
ĠConne cticut
i pe
ĠN ap
ĠJ oh
ug al
u v
on om
Ġf olk
st an
Ġm ind
Ġlos ing
Ġequip ment
8 6
k es
Ġal one
ag a
Ġfem ales
ĠL im
ord an
Ġad apt
Ġb it
ĠA z
ik h
en cies
le m
Ġd a
ad ing
Ġr ich
ĠI raq
Ġun known
Ġsc ulpt
St ar
Ġra ces
in ity
er ick
Ġb ill
ĠM un
ĠB ishop
Ġmem ory
ever al
for mer
7 7
ĠT al
Ġ19 18
ĠMar sh
Ġact s
ĠJew s
ĠE conom
ĠAd d
Ġgirl s
ĠGree ce
Ġe yes
ĠU EFA
p ool
Ġend s
angu age
Ġsuggest ed
ch ar
Ġhor se
ĠA rea
se ction
ĠMin istry
Ġappl ied
ĠSpr ing
Ġsubsequ ently
amp les
yn am
Ġcitiz ens
ĠC ab
Ġun ique
ĠW at
Ġprog ress
ĠF air
Ġpr ime
ĠCO VID
ĠL ight
Ġv ice
Ġcontroll ed
Å «
Ġw atch
ut her
ĠG re
os a
Ġfin ish
Ġclass es
it led
Ġhe ro
if orm
Ġ3 6
ĠCol omb
Ġmod els
ĠJ er
ĠSt ock
Ġgener ation
ĠCast le
ĠBure au
z en
Ġking dom
c oh
ĠW alk
M us
Ġl abor
ĠE lect
ell o
ib b
Ġret irement
Ġdr ink
Ġimp act
Ġinj ury
De ath
Ġm ax
ĠH an
The se
reg on
Ch ar
Ġcondu cted
Ġarchitect ure
Ġorganiz ations
Ġatt end
9 5
Ġ192 1
ĠK er
Ġrequ ire
Ġw ing
Ġm outh
ĠL ike
Ġrece ive
Ch rist
w here
Ġb ow
um s
Ġ3 00
Ġint ended
Ġstr ugg
Ġm ales
ear s
Ġlead ership
ĠHar ry
Ġengine ering
Ġl iqu
Ġband s
ĠM ike
ĠF ield
ĠO d
Ġcl oth
Ġ6 5
ag h
ĠCl in
ĠPol ice
Ġprom inent
R T
Ġperforman ces
ĠL ibrary
ĠCh ap
ord in
Ġsh op
Ġwe ather
G u
ran ce
Ġag ent
Ġsp ons
Ġair port
Ġ ille
ur ches
Ġv en
we et
Ġsit es
Ġproject s
Ġspir it
ĠA rizona
ĠM ember
ĠMet ropolitan
P A
ĠE nd
ant e
re es
le te
Ġsucceed ed
Ġs and
ÃŃ a
C ar
Ġ â
Ġo vers
ĠAn ne
ĠAf ghan
Ġlast ed
B r
R obert
ĠCh ris
j e
ĠK y
ĠMan chester
Ġcrit ical
Ġconfl ict
Q u
ĠA D
Ġhe ight
Ġass igned
Ġanal ysis
ĠAff airs
ro c
Ġen joy
Ġtar get
oot h
ĠDon ald
ĠVi enna
ĠR oss
ĠL at
ĠWind ows
h ol
p o
Ġm amm
ĠP ic
pl ace
Ġdist inct
4 1
ur er
Ġhe ard
Ġsup ply
ĠOn ly
L ife
ol ph
ict ional
Ġref used
ĠLew is
ĠA qu
us ion
ang a
Ġf r
ĠA venue
Ġ( ),
Ġjoin t
Ġcust om
Ġdef ined
I A
Ġf ly
Ġn ob
Ġon to
Ġinflu enced
S te
Ġsup pl
Ġplan et
d am
Ġs ac
ĠH ard
ĠR el
ark s
ĠH istory
Ġele v
Ġschol ar
ĠC ape
un te
em ic
u f
ĠBel g
ĠIslam ic
Ġlar gely
Ġresult ed
Ġinit ial
Ġgun s
u h
Ġfac ilities
p ri
ra v
Ġ4 00
N o
and o
ov ak
Ġcon ference
Ġlong est
Ġexamp les
Ġprem ier
P eople
ĠS pecial
ĠP o
g ers
Ġconstru cted
for ce
ĠMal ays
ĠG reg
Ġinc ome
Ġvis ited
I f
Ġcast le
or al
ag ement
Ġext rem
" :
f ather
Ġsh r
ann er
Ġent ertain
Ġaud ience
Ġenem y
b ai
Ġc ook
ĠB all
ĠBr ad
Ġident ified
ĠOff ic
I S
Ġc ool
Ġd ie
um es
Ġoff ers
Ġmat ter
ĠChrist mas
anc ing
Ġse em
Ġstra ight
Ġg reater
ĠE th
Ġad vert
ĠM oh
Ġcom ic
oc ese
ĠSc iences
Ġb act
Ġl ibrary
ĠO regon
cept ion
a ver
Ġp et
ir cle
Ġdr iver
Ġrap id
ĠBangl adesh
n i
end ar
ik i
Ġsurround ing
Ġs ell
ĠN ev
Ġhe av
um ed
Ġgr ass
Dav id
er ies
Ġf ully
Ġ19 17
ĠF inn
ley ball
J os
Ġf ranch
ĠB ab
ĠS ri
ĠEng ine
Ġfield s
Ġcapac ity
a ctions
om ing
Ġdr ive
Ġdistrib ution
ĠStep hen
O S
pos ition
b ox
ĠMay or
ĠAd minist
Ġsc ript
ĠSt at
Ġinj ured
ĠHigh way
Ġlearn ed
G eneral
Ġformer ly
ĠMount ains
f riend
4 3
ĠP un
ut ies
C C
l ad
qu es
rat or
Ġcontin ues
Ġjud ge
r ons
Ġw ants
Ġd iam
ord on
Ġofficial s
ĠTer rit
Ġp age
Ġaffect ed
Ġa ctions
Ġp urs
ĠS aud
ĠMar g
Ġadd ress
Ġre action
ĠD er
ist ed
ĠMed ia
ĠB art
ĠG en
Ġearl iest
ĠDes pite
Ġesc ape
ĠBul g
A ugust
u ters
ĠP ot
ot ic
ĠS ax
um in
Ġill ust
m es
it an
ĠInd ust
A F
Ġt ries
Ġg al
ĠBro ther
Ġv ess
Ġgl ass
ĠHaw ai
ĠB ush
id i
Ġal ph
Ġfound ing
Ġkill ing
Ġrespect ively
Ġf uel
ĠB ull
Ġsing ing
Ġhel ps
Ġdrop ped
ĠSt one
Ġneighbor hood
m ov
Ġsh ared
Ġnot es
Ġs ense
ĠMunicip ality
ĠM ill
ĠTe levision
ĠNob el
ol as
ĠMed al
Ġste am
y gen
ĠM and
Ġte le
il ing
id ency
Ġmethod s
ke ep
ĠMel bourne
Ġd ra
ĠM aster
ĠAr men
ĠâĢ ĺ
Ġfind s
etro it
g or
on ne
Ġc ert
ĠT ony
Ġd aily
Ġre duced
out s
Ġexp anded
c ient
ond er
Ġrequ est
Ġj azz
ib ly
allen ge
ĠD or
ĠD omin
Ġperform ing
Ġhapp en
8 8
zer bai
Ġsc ale
Ġgu est
ĠMount ain
p ass
cher s
ĠMem orial
Ġast ron
Ġw arm
ĠH ou
c u
Ġs ail
Ġto wer
oc ated
Ġr ough
Ġconstitu ency
Ġsit uation
Ġlaun ch
Ġshoot ing
Ġperman ent
Ġan sw
Ġcall s
ĠAb d
Ġform ation
Ġcompet e
Ġest ate
Ġcitiz en
N ov
d on
t ra
Ġf ictional
ĠSt orm
Ġrese ar
Ġsecond ary
ĠFin land
Ġstay ed
Ġcomm ander
Ġ15 0
Ġpaint ings
it i
it ors
Ġpass engers
Ġprison ers
Ġeffort s
N ot
ĠP ower
os lav
Ġdid n
Ġtw elve
ĠPri x
Ġsaf ety
F l
U S
en z
Ġp air
ud get
we gian
cent ury
Ġhy p
ĠSte ve
ĠF ree
Ġw arn
res ident
Ġmusic ians
Ġart icles
in ally
ĠS ometimes
Ġev olution
Ġlook ing
f ound
Ä «
Ġc ry
Ġcor resp
th ony
ĠB urn
id ers
Ġoppos ite
ĠAl i
we alth
Ġnew ly
al ia
Ġh uge
Ġal coh
Ġm ut
Ġe ye
ap es
ĠGram my
8 7
w ich
Ġs uit
ul ed
ĠHer itage
Ġport ray
Ġ x
ost er
ĠHol y
Ä ±
Ġin form
ĠN eb
Ġit ems
out e
ĠPr in
unt ing
Ġfig ures
Ġgrant ed
C an
og y
cl aim
Ġacc omp
un s
ĠD own
ĠSp ace
Al though
Ġauthor ity
Ġdocument ary
Ġst ores
Ġbott om
Ġdef end
ill ing
ĠMed ical
Ġlo an
Ġbehav ior
om ot
ĠRoman ia
Ġinte gr
m ont
ĠN ep
Ġr isk
20 10
i op
ap h
Ġinc ident
B rit
er c
ag u
Ġdev ice
Ġcateg ory
J ames
M ich
en h
ĠO ak
Ġun c
Ġt ail
ier re
Ġk m
Ġcomp on
Ġveh icle
Ġp ull
ĠK r
Ġf ruit
am ing
ĠPort ugal
Ġneg ative
p ur
Ġte en
Ġprogram ming
Ġleg s
J u
k ing
iv als
ir t
P ar
d ie
Ġn arrow
Ġv ocal
Ġclos ely
ĠS um
ĠSt and
Ġact ed
intend o
r ate
ĠF ollowing
Ġch ose
R C
ĠF amily
ĠAr m
Ġtra ffic
ĠDou glas
S m
c os
d Ã©
Ġch ain
Ġprofess ion
Ġrepresent ing
Ġa im
Ġf resh
ĠS on
Ġengine er
Ġre ar
ĠD NA
ĠL ower
Ġher self
Ġprote ction
ĠT s
Ġre ject
ĠH ills
Ġad vent
ind er
ĠDav is
Ġclaim s
amil ton
ĠFore ign
Ġaltern ative
Ġs ets
at ur
ĠP ress
enn y
Ġend ing
Ġguitar ist
Ġpoet ry
Ġab andon
ĠPhil ip
ot ed
Ġpr int
Ġdet ect
ĠCount ry
ap pe
idd en
Ġd ynasty
ad s
im ents
Ġsy n
Ġste el
Ġdou b
a wn
Ġex change
ĠHol lywood
Ġdipl om
ĠBelg ium
m iss
ĠD etroit
ĠAir lines
A p
S P
ol i
Ġmark ed
rain ian
Ġw ave
Ġdesign ated
ask et
stru ction
Ġ ut
Ġ19 14
Ġcomm ittee
Ġspe ct
Ġdam aged
ĠD h
Ġwrit ers
ĠCol on
ĠDep uty
ĠCap tain
Ġth ing
Ġ19 00
ĠD VD
ĠN ag
row d
ĠQue bec
Ġill ness
ĠFore st
al ing
od ox
ĠK az
Ġtra v
ene z
Ġeng ines
h att
Ġro w
Ġfun ctions
ĠL abor
Ġappro ach
Ġviol ence
bass ador
b ar
w ick
ĠCam bridge
R ich
ĠR ights
ia ble
Ġresult ing
Ġoccup ied
ĠHamp shire
ĠR oy
ĠAl aska
ĠStan ley
Ġcon qu
Ġocc urs
' ,
Ġnomin ation
n el
ond e
Ġdescrib e
Ġforest s
Ġpurch ased
ĠC ost
Ġcon sec
so ft
Ġus ers
ĠLaw rence
S ch
l ife
ĠP ass
are n
Ġveh icles
Ġst ock
ĠW y
pos es
Ġsol id
E C
ĠT ar
Ġinst ru
Ġcle an
Ġfoc used
Ġa x
Ġ6 4
Ġinit i
ĠBas eball
Ġstreng th
5 6
ĠB at
im ore
ĠLeg isl
o j
Ġm is
Ġcon stant
Ġ3 3
ĠKenn edy
Ġd ies
ĠA st
9 7
Ġb ishop
ĠSc ient
ĠE arl
Ġinv asion
Ġclass ical
g ency
ĠW eb
urn ame
Ġdep art
ĠCol l
Ġvot ed
Ġprot est
f e
Ġgu ard
ĠUp per
ĠMo ore
ĠTechn ology
uer to
l aw
Ġwe alth
Ġback ground
ĠL ank
ust er
Ġsc oring
Ġmed icine
Ġprovin ces
ol t
Ġpres ence
Ġsur gery
ony m
Ġreport s
Ġcerem ony
rom e
ĠA thlet
ad i
Ġro t
Ġunder stand
ann y
Ġproper ties
ot te
L A
m pt
r in
D es
M art
oc a
Ġexpl os
Ġthous ands
ar us
Ġb atter
Ġd oll
ĠNor wegian
ig inal
ĠG ulf
Ġle ct
Ġun able
Ġdeath s
Ġdec re
Ġhistor ian
a ire
Ġident ity
Ġhom es
Ġinstr uments
ĠCommon wealth
Ġd ates
ĠJ ordan
ĠV erm
Ġlook s
Ġimm igr
h o
ĠG il
Ġv oc
Ġmain tain
ĠHow ard
ĠM iller
ĠG ir
ful ly
Ġnecess ary
P aul
Ã ¸
ot y
Ġed ge
Ġth row
ĠB ible
Ġshe ll
ĠH o
ak ed
n ie
ĠA zerbai
Ġbe et
Ġbu y
re ll
Ġp icture
all eng
Ġfrog s
Ġfranch ise
ĠH al
ash i
ĠPro t
Ġsepar ated
ĠRob inson
Ġor chestra
Ġav oid
Be fore
Ġ19 12
og ether
Ġstruct ures
Ġve get
Ġr ival
Ġperson ality
Ġt ennis
ĠPro gram
ĠSqu are
h aps
ĠR io
ĠMic ro
ĠSh ah
w ise
Ð °
ĠR ose
ac he
Ġnorm ally
c ell
Ġm ist
ĠT en
ut ing
Ġearth qu
Ġd ensity
ĠM P
Ġsu icide
iam i
Ġinv ented
Ġsl ightly
S outh
ax y
Ġshort ly
Ġgl obal
Ġadv ant
Ġly rics
o es
ĠHe art
Ġr ang
Ġexist ing
ĠEgypt ian
Ġcol our
Ġreturn ing
Ġsurv ived
Ġallow ing
Ġhapp ens
ĠR a
Ġim plement
Ġfe ed
stitut ions
ĠR ober
Ġpri ze
Ġpil ot
res ents
olog ists
ĠLab our
ĠWrest ling
b u
Ġm ap
ĠTem ple
ĠJac ob
in er
ou red
ĠT ig
ri p
Ġop pon
Ġexp ress
Ġauthor ities
ĠK l
Ġdiffer ence
Ġevery one
il ip
Ġ3 4
osp here
Ġb ra
ĠN intendo
oy d
c alled
Ġh ired
Ġres ources
Wh ile
Ġdrug s
Ġrel atively
ĠClin ton
Ġus er
ĠAtlant a
ĠI V
Ġ3 8
Ġadvan ced
d y
d ess
y ard
ĠT el
ot ten
ud a
ab et
Ġrel ations
ĠMont real
b oy
Ġ19 10
im ens
Ġnov els
ĠWal ter
9 6
Ġth ick
Ġv ide
Ġrev olution
ĠIntern et
Ġl at
Ġl ung
Ġbord ers
ĠMuslim s
Ġin aug
Ġch ampions
Ġ3 7
Ġsup por
Ġrom antic
ch i
ah o
Ġop in
Ġdom estic
z h
Ä į
al em
ĠS ix
uk i
ĠCommun ist
Ġw alls
fer ences
ĠPal ace
ĠPet ers
it ter
Ġm el
el son
Ġobs erv
u j
ĠF le
Ġpol ic
Ġob tained
end ment
ĠY outh
Ġrep resents
Ġoppos ition
ĠL eb
Ġch alleng
Ġter ror
Ġpain ted
Ġhot el
level and
Ġprincip al
ag en
Ġjob s
Ġphilos ophy
I C
re te
Ġs ave
st ream
ĠG ard
av ed
uc cess
ĠAd am
Ġpain ter
ĠJun ior
d ale
Ġrec omm
Ġcaus ing
Ġh our
Ġvol ume
T C
Ġs now
ing en
ing ham
th odox
Ġdeg rees
ĠSaud i
Ġm ental
Ġse ek
Ġso il
Ġcal endar
ĠNaz i
ĠParalymp ics
Ġw rong
ĠY ug
ĠHind u
ĠD C
pl es
Ġem ot
m i
r um
om ew
el and
ĠL ive
ul ate
ex t
Ġroad s
Ġbo at
Ġregard ed
ĠBus iness
c ar
ap ted
Ġdescrib es
ĠDen mark
ra cy
ult y
d i
ot i
Ġel imin
J une
b ell
if ically
ate ur
ĠSt ra
Ġachie ved
Ġch urches
Ġhold ing
Ġsevent h
ĠWW E
Ġv ent
Ġtra ined
Ġcal cul
t i
U s
Ġdivor ced
Ġo cean
ĠT urn
Ġcont emporary
Ġap art
is ne
Ġw ins
ĠC as
Ġsele ction
ĠBudd h
T r
el ess
ow nt
Ġhigh way
Ġdevelop ing
ĠOr chestra
Ã¨ re
ĠHarr is
h at
ec utive
Ġdef ense
Ġelect ronic
n ia
us hed
ĠR en
ast e
uc ks
ĠAr n
ped ition
ĠCent ury
Ġtre ated
Ġ19 16
our ney
Ġunivers ities
ĠSund ay
achel or
ĠUt ah
o en
ĠN ar
ĠE P
Ġval ues
ĠLiber al
Ġs elling
ĠM oon
Ġ8 5
Ġtr ou
ĠO t
Ġtransl ated
% .
ĠAll en
Ġz one
Ġox ygen
7 8
Ġgood s
Ġappro ved
Ġfrequ ently
ill ery
Ġpl ate
ĠPat rick
mov ie
s a
Ġrem ember
ĠPal est
et ime
y d
ar on
Ġshow ing
B orn
t hen
Ġs urname
th a
Ġc od
ur ation
ĠG ab
av el
Ġrec on
Ġcandid ates
ĠIm perial
Ġcomed ian
Ġw orth
Ġres c
ather ine
ĠPit ts
Ġcorresp ond
N ational
al ty
Ġwhe el
iel der
Ġport ion
Ġw aters
ĠB etween
Ġinterest ed
Ġchart s
ĠT an
ĠP uerto
ran e
Ġleg end
ĠUk rainian
P S
on ly
ĠW olf
Ġenc oura
Ġ4 2
Ġform al
Ġinc orporated
t own
ain ts
ev in
Ġrepresent ative
Ġeas y
Ġthe ore
ĠH aut
Ġacc used
Ġpri est
E ng
g i
Ġf ired
Ġsy nd
Ġsign al
ĠBalt imore
Mich ael
S eptember
Ġflow ers
E m
ĠN av
ĠSec urity
Ġt end
ĠL in
Bl ack
Ġg ain
ig ration
Ġoffic es
Ġdesc ent
Ġrefer ence
Ġsouth western
Ġview s
Ġmom ent
M arch
he el
Ġdo or
Ġop posed
Ġocc asion
igen ous
Ġmax imum
hatt an
b an
J anuary
s m
el ine
ĠB und
ĠF ur
ĠL ieutenant
um a
ab i
Ġsequ el
Ġdemon str
Ju ly
Ġmot ion
ol y
ĠCar ter
Ġprote cted
bor ough
ĠCommun ity
Ġstand ing
ĠFrank lin
ad ow
Ġcr iminal
I V
P er
Ġcon clud
Ġconsist ed
M ont
ay an
Ġse g
Ġpl anning
Ġboy s
Ġpre par
Ġpre gn
Ġconne ction
Ġf alls
ra k
Ġmov es
Ġinv ited
Ġsound s
d o
ĠP oint
ĠR oute
Ġ4 8
ĠIsrael i
] ,
Ġr ating
Ġ4 9
Ġord ers
Ġh its
ĠMar ie
Ġ Î
Ġqu ant
Ġsupport ing
ĠTrans port
Ġmic ro
K ing
f ish
or ia
Ġg ender
Ġprogram me
ĠN FL
ian g
ĠSt r
ĠCh airman
pr ise
Ġsk ills
pect s
ĠC ra
ĠC leveland
Ġun us
i ar
Ġqual ified
Ġr ise
Ġprov iding
ĠWel sh
Ġliqu id
Ġex clus
Ġdang erous
ĠA isne
ĠV enez
Ġchar ged
Ġpass enger
ĠHistor ic
y les
ĠCal v
wh ile
J ack
R es
og en
Ġsever e
ĠFor ces
Ġpo em
Ã¶ r
Ġcy cle
r aska
ĠN ort
ctor al
O ctober
Ġre pro
ĠB arn
ov es
ship s
Ġeffect ive
ĠIndones ia
all as
Ġcr ash
Ġstand s
Ġpat ients
Ġliter ary
ĠHou ston
A ng
Ġd ram
Ġcol ors
Ġsy mpt
ĠAfghan istan
i u
ĠC ook
ĠK ings
oc ol
Al pes
c ious
r im
on oun
Ġw ings
Ġb ran
ĠW ag
Ġcon cer
Ġact ors
Ġtri p
ĠQueens land
E S
Ġdaugh ters
Ġexist ence
Ġwrest ling
ĠForm ula
G l
Ġtrib ut
Ġdiagn osed
D an
H ar
st ar
ip ur
ĠBel gian
Ġcour ts
Ġdial ect
ÃŃ n
Ġextrem ely
m ers
ĠCl ark
o om
Ġmon arch
ĠMad rid
Ġpremier ed
ĠM iami
ĠG ene
ĠPro ject
rel ated
Ġille gal
N orth
ĠH amilton
Ġad ults
ĠWh it
v ard
in ter
ag ues
Ġch ance
ivers ary
ĠSim on
S am
Ġl oad
Ġn om
ant asy
ĠAl an
Ġsurround ed
Ġp rice
th lete
Ġte ach
ph one
Ġtr ust
Ġro of
act ive
aw are
Ġany thing
ĠPar ish
c ano
ĠV ar
Ġattempt ed
ĠR oc
Ġbro ken
ĠAnd erson
Ġevery thing
ĠPrin cess
id ges
Ġwe ak
ĠTr ust
6 7
Ġst ages
ist a
iet ies
Ġcor rect
Ġhous ing
ĠYug oslav
Ġre ality
Ġcomm itted
Ġ5 5
ĠJu an
ĠComm and
M c
s s
Å Ł
Ġg rown
Ġj ump
ĠAm ong
ĠG ordon
ĠJ ournal
Ġeduc ational
H en
Ġb udget
ak u
ĠCh ampions
amp ton
Ã© s
ett y
Ġimport ance
Ġimpro ve
S an
t rack
Ġg ene
ie val
od a
Ġun cle
ĠAlex and
Ġres ign
Ġturn s
Ġprote in
ĠOb ama
Ä ĥ
b ul
in us
Ġim ages
ĠPh ys
ĠFred erick
Ġre aching
ĠJ am
Ġpro ved
Ġkn ew
Ġfl o
G B
ĠH ans
ĠD em
ĠAl bum
Ġcont rast
Ġind ic
Ġph r
sc ape
Ġdog s
Ġbor ough
l ong
o ons
ĠD al
Ġ Ä
Ġre duce
ĠF ern
ul es
amp s
ĠMan hattan
Ġappl ication
ter y
ant on
Ġtrib es
ĠIran ian
hy th
8 1
V al
or g
Ġg all
Ġcl imb
Ġc rowd
ĠT ower
ĠH it
ĠCh art
ran ean
ham mad
ĠAp ple
Ġattem pts
Ġin stitutions
Ġc aught
it als
Ġf er
ian ts
ell ite
ĠP a
Ġg ay
che ll
Ġmed ium
Ġadv is
ĠMet ro
B ack
P C
or age
ĠH ug
ud den
Ġad apted
De cember
Ġbirth day
alle l
f its
v ia
ĠL t
Ġmed als
Ġdem and
ĠVenez uel
l an
f eld
ĠB rian
Ġdep ression
Ġsong writer
Ġdec or
ĠBar on
M e
n ight
Ð ¾
Ġt or
Ġg iant
ra ham
Ġex am
Ġcomp uters
Ġ3 9
Ġpass es
Ġelectric ity
Ġalcoh ol
Ã Ł
id en
ig ade
ĠD u
Ġat m
Ġne ut
Ġsk i
Ġcomb ination
Ġmathemat ics
ol ar
Ġsy nt
ownt own
and om
Ġrece iving
âĢĿ .
h ar
ĠA le
Ġproduc ing
Ġaff ili
ĠStud ies
Nov ember
p ir
Ġs ort
Ġsett le
Ġt im
Ġc rown
Ġbe y
Ġpro pos
ĠSh ort
ĠConfeder ate
C o
ĠIn stead
Ġatt ract
Ġchar ges
ĠBe at
ĠHung arian
A pril
Ġf lying
Ġto ward
ĠSt aff
Ġar med
ik o
ĠPl an
ĠNep al
r m
or er
Ġsc enes
Ġinse cts
A lex
is p
ĠM it
id ay
Ġ19 15
Ġim pr
Ġder ived
ĠMatt hew
ĠC are
ra c
20 11
M L
c ome
ĠS ound
Ġsl aves
Ġfre edom
Ġadv ance
Ġw inners
az a
Ġyoung est
bl ast
b ishop
Ġa thlete
Ġp ed
Ġch oice
Ġdist ingu
Ġmult i
ĠBu ilding
ĠArgent ine
Ġg ang
Ġmar ry
Ġdev ices
Ġenvironment al
Ġstri ke
ĠMalays ia
Ġvide os
8 3
Ġc ous
Ġb ed
ĠK ey
Ġtechn ical
ming ham
ĠHung ary
as ia
Ġh ip
ist ical
Ġcons ult
Ġsub s
Ġvis ual
Ġsitu ated
Ġconver ted
Ġbey ond
Ġs ure
Ġc e
Ġc atch
Ġh ors
ĠW ell
wh o
t es
ĠW es
ĠChrist opher
ĠEx ecutive
II I
Ġ +
Ġc as
ĠR ap
Ġcon gress
ĠLe v
Ġs ed
Ġc rop
ol ished
ĠB erg
Ġr ugby
our ce
Ġpass ing
Ġclass ification
Ġapp arent
Ġfact ory
ĠChild ren
Ġcont aining
Ġres erve
Ġreb u
st ers
ĠF ront
ĠY our
Ġsur vey
Ġrail road
B el
b al
b urn
Ġc inem
op es
all ow
Ġobs erved
d in
ig ation
Ġsecond s
ĠOr thodox
Ġsuccessful ly
Ġvir t
ĠAlf red
Ġcloth ing
Ġ19 11
ri f
Ġcon vers
Ġloc ality
Ġprom ote
Ġtrib e
M ic
ĠS em
ĠN ich
20 17
Ã© t
Ġtyp ical
ĠTerrit ory
asket ball
ĠB att
Ġent ry
ĠCo oper
song writer
Ġal le
Ġcomb at
At lant
W A
om es
ĠN a
ĠAn cient
Ġdec ades
Ġfac ility
ĠStud ios
ĠR em
Ġag ency
Ġcol ony
iver pool
Ġfact ors
Ġbehav i
ĠPitts burgh
B E
F ollowing
Ġm oth
ĠL as
Ġ8 8
Ġdeterm ined
ĠDie go
r un
Ġh ill
og ne
ĠCon vention
ĠAd ams
ele ction
S E
ĠF inal
Ġsub st
Ġexp ansion
Ġlim it
Ġmess age
T om
Ġb aby
ĠK am
Ġdivision s
6 9
H ow
ou ver
ĠB i
ot ton
Ġpre fer
ĠGr ant
iter ranean
commun es
Ġde leg
Ġsup posed
Ġdiffer ences
ĠMil an
ĠId aho
5 7
Ġs alt
en burg
ĠT un
ĠD ream
ĠSe attle
Ġentire ly
part ement
Ġf an
ĠPr adesh
Ġjoin ing
ut ation
Ġrecogn ition
Ġrout es
Ġfix ed
E ast
ĠA ge
Ġloc ations
Ġaut h
Ġeduc ated
h ost
Ġpl ot
Ġj ur
Ġown ers
Ġcompet itions
Ġpopular ity
Ã¶ n
Ġexper ien
Ġalph abet
Ġb anks
Ġm obile
le ton
ĠE ag
Ġres istance
ĠAn thony
Ġpublic ation
Ġri f
f rom
Ġbig ger
Ġinvestig ation
Ġopportun ity
ĠCalv ados
ĠC BS
Ġ19 13
Ġent itled
Ġhor ror
P op
ĠA ud
ĠN ik
Ġeng aged
Ġvol unte
s ch
re c
es l
ĠA M
ĠR ick
ap olis
te xt
ib l
Ġsec retary
Ġrepe ated
ĠNeb raska
ri k
Ġbusiness es
Ġread ing
Ġpur poses
ĠCat hedral
Ġintern al
F irst
ĠCh ampion
Ġmov ements
Ġ4 4
Ġinst all
z i
ĠC ru
ĠL yn
Ġ4 7
Ġsett ing
Ġsubject s
as m
ĠS everal
Ġnot e
Ġro cks
Ġappl ications
ibb ean
ug s
ograph ical
Ġcoast al
Ġcorn er
ĠP ap
Ġy ards
ubl in
adu ate
Ġfem in
Ġcritic ized
Ġl aid
id el
ĠPre fecture
Ġsched uled
Ġm art
anc ell
F ebruary
á »
un ch
Ġact ual
St ation
Ġchang ing
Ġpers ons
ĠMov ement
b us
s uch
in burgh
Ġs end
Ġc up
ic ts
if er
iss ance
in osaur
Ġcont ained
ĠWar ner
2 000
ĠB ou
Ġse ems
ĠSt ory
Ġlook ed
ĠOtt oman
ĠPun j
ĠMicro soft
Ġm ent
ĠD ick
Ġap artment
Ġgradu ating
Ge orge
ĠCat al
ĠAnton io
st ad
ig e
Ġloc omot
ird s
u ing
Ġt ask
Ġn ations
Ġlead s
T wo
Ġb an
ĠF ellow
Ġ4 6
ann es
ĠPr inc
ĠPh ill
ĠMil itary
Ġvir us
ĠAzerbai jan
D r
t ure
Ġt orn
ĠC re
est yle
ĠV ik
ens es
Ġfound ation
Ġcelebr ated
Ġsympt oms
Ġp ictures
Ġto ols
ter m
ak s
Ġme ets
Ġass ass
Ġarch ae
ĠEr n
ĠPen insula
Ġbran ches
a uc
ĠH um
Ġg arden
Ġst roke
ĠR un
ĠJ ay
ĠIn n
Ġ7 7
ĠSing h
ĠDel hi
Ġlik ed
ĠMic hel
b ody
ĠT it
Ã© es
ĠMed iterranean
Ġexist ed
Ġchampionship s
L ou
ĠP ur
Ġcon stitution
Ġcomp ar
Ġ9 5
Rich ard
nt il
ĠAn im
Ġfin ishing
Ġcr imes
Ġelect rical
Ġstudy ing
dÃ© partement
a fter
e ast
Ġf ishing
ĠMod ern
ĠS in
og an
Ġdisc over
ipp ing
Ġh ang
ĠT reat
ĠB an
Ġnot hing
ang el
Ġme at
cul es
P eter
ĠJ ose
ign ated
cel ona
Ġhundred s
Ġcho ose
Ġheav ily
Ġp ool
ĠR yan
ĠSam uel
8 4
N C
m at
Ġs ick
Ġd an
ĠN orm
ab a
akes pe
Ġext ensive
ĠArab ia
Ġrestaur ant
Ġc ru
Ġup d
ĠBr un
Ġimpro ved
Ġcompl ications
A ust
c m
ĠK an
ine a
Ġclass ic
ĠWe ek
Fran ce
Ġadvant age
Ġs ust
as hed
ĠS ud
ĠM aur
) :
Ã ī
Ġmamm als
ĠVerm ont
Ġm ort
Ġdep uty
Ġchild hood
Ġdesign er
ĠCE O
Ġcost s
Ġ8 7
Ġsuccess or
Ġexhib ition
Ġf ra
Ġ190 8
ĠGirl s
Ġearthqu ake
) "
O ver
p ret
Ġse ctions
ĠV eg
ĠInd ians
ĠMag azine
ur ance
ĠE very
ĠV inc
Ġdis appe
Ġim pl
Ġtechn iques
Ġsug ar
Ġcolon ial
Ġbeaut iful
3 00
Ġc ore
ĠB uff
od ium
ne um
ĠRe al
ĠBroad way
I T
T y
Ġthe ater
iv or
ĠD raft
Ġch air
ess ions
ĠMar c
Ġuse ful
Ġabandon ed
h ard
am an
ul u
ĠV is
Ġbr ight
6 2
z burg
Ġc hess
Ġh un
ĠL ow
Ġplay off
Ġresp ond
akespe are
M al
Ġcommun ication
ĠNor man
Ġsequ ence
ĠSil ver
Ġconsec utive
b es
ĠD anish
Ġel se
Ġf aced
ĠN BC
Ġph one
Ġstand ards
Ġpromot ion
Ġwind s
Ġpeak ed
Ġjun ior
ĠG on
Ġan aly
te enth
Ġreg ul
Ar t
Ġphys ics
0 7
j o
uss ia
ĠRang ers
f low
j amin
Ġt ick
Ġs omew
ĠD og
Ġint elligence
Ġocc as
Ġ189 0
Ġgradu ate
ĠRober ts
0 5
ĠT rain
ĠL anc
ri ent
ri ff
od s
ours es
Ġsit com
Ġmiss ing
us alem
ĠG arden
sc ar
Ġcondu ctor
Ġarg ued
ĠLo ire
6 4
en os
ĠO w
ill es
ĠOn ce
Ġin her
Ġgr ad
ann els
ock ed
Ġbact eria
H ol
P as
Ð ¸
ĠA cc
Ġstat ement
anc ouver
S im
is is
Ġw ire
ĠD ue
ĠEd inburgh
f ielder
or p
al ion
Ġm os
se a
Ġunder ground
Ġem peror
Ġdisc overy
Ġhelp ing
Ġfle et
Ġlink ed
R ed
ult an
Ġres erv
ĠServ ices
Ġf illed
ic ial
ĠS A
et a
ĠE ric
ov iÄĩ
ob a
Ġacc ur
Th omas
ĠCar ibbean
Ġpo ems
200 7
H owever
re pre
Ġinv ent
ĠAg ency
ĠMu hammad
includ ing
S w
p oint
v o
as ure
Ġb at
ĠB ry
ĠF ive
ĠO blast
Ġper haps
Wh at
Ġterrit ories
as a
Ġle af
Ġ8 9
duc ing
Ġmin ute
Ġclass ified
Ġcapt ure
cel and
Ġcam era
ĠAdminist ration
P at
ĠC rown
ĠM anu
Ġob l
Ġquest ions
Sup er
ĠBeng al
ĠD eb
ĠTh rough
Ġatt ached
Ġcamp s
Ġsent ence
ĠReg iment
ĠBir mingham
repre ne
d is
Ġd ating
ĠS ky
ĠH ere
Ġdr iving
ĠPe ace
Ġemer gency
ĠBru ce
C al
S S
ĠA BC
ĠAn na
Ġstr ateg
Ġsoc cer
Ġdise ases
ĠEth iop
Brit ish
ĠC ass
ol o
200 8
Ġsent enced
Ġess ential
ĠT ournament
ĠL ux
Ġsuggest s
ĠBow l
M ad
ĠH orn
ĠK arl
Ġdep end
Ġtrans form
Ġgovernment s
Ġstre ets
ĠPic ard
on i
Ġis ol
uss ian
ĠPr im
Ġviol in
Ġwor ship
ĠFinn ish
ĠDer by
Ġ ic
ar at
ĠL ang
ĠCh amber
ition ally
tern al
Ġfund ing
ĠAut hor
ĠR eb
Ġem ph
ĠDo ctor
edd ing
N orm
Ġ5 1
Ġdesc end
Ġpal ace
S y
ĠK u
Ġte eth
Ġshe l
Ġmil k
Ġneigh bour
C he
Ġa er
Ġw ounded
ĠL iverpool
ĠN elson
Ġrecord ings
Ġdec ide
Ġcor por
% )
Ġl ots
ĠB asketball
ch t
se ud
Ġh am
ĠH op
Ġbe ach
ĠG ib
amp le
v ements
Ġs ale
it is
Ġf ine
Ġdoc uments
Ġcontrib uted
E v
T O
Ġ vert
em en
ist ant
20 13
ĠMed icine
Ġbrief ly
D S
Ġd ivers
ĠC hen
Ġro se
old s
Ġdep ending
Ġcr isis
ĠMor gan
T rans
ĠW rit
ĠTh ird
ĠMar io
20 14
Ġsub t
Ġcolle cted
6 8
Ġf al
od d
ft en
mph ony
ĠC emetery
ĠL et
Ġsp in
ĠCam er
ĠHon or
Ġprin ted
Char les
u is
Ġspec ifically
Ġrel ative
Ġvol leyball
Ġaccomp an
m und
Ġ8 2
Ġsub d
ĠYou T
Ġscreen writer
J ean
ĠM ong
Ġscient ist
Ġmem orial
Ġconsist ing
Ġoper ate
Ġoper ates
ĠBar celona
ĠHawai i
r ine
ĠA y
Ġr ub
Ġext inct
ĠChrist ians
ival ent
Ġpen alty
Ġabs or
Ġt iss
ĠB ud
ĠG i
ĠÃ ī
ondiss ements
Ġentertain ment
e enth
ĠE ver
ast s
Ġcons ervative
Ġmer ch
0 9
t op
il ation
ĠC art
ur rent
Ġper fect
ĠLe ader
Ġinst alled
Ġche ck
Ġbatt les
Ġpubl isher
augh ter
ĠGerman s
Ġsol ution
ĠSpr ings
ĠLeb an
Ġre in
ur u
ie ce
Ġatt rib
Ġeven ing
5 1
ĠK elly
ĠSt ew
Ġsaf e
Ġhyd ro
Ġreject ed
i ens
ĠV ancouver
ĠDe ath
aster y
Ġp ione
ĠC A
un es
ĠHe b
Ġele ven
ĠSing les
ĠBrook lyn
ancell or
ĠB ros
ok a
CA A
ĠNev ada
Ġunus ual
P resident
Ġdef ensive
ĠKn ight
Don ald
6 3
Ġ1 000
ĠW alt
ĠRe agan
Ġent rance
com ing
Ġphilos opher
ĠPers ian
I N
L ater
at ra
ĠTr ade
ĠHar vard
uz z
Ġgod dess
Ġnuc le
ĠS id
Ġ8 4
oe ing
Ġposs ibly
. âĢĿ
E R
Ã «
ĠT ol
Ġreg istered
n Ã©e
Ġmil it
Ġteacher s
Ġmole c
7 2
il ia
Ġim ag
Ġsim pl
Ġ. ..
go ing
Ġpra ised
ĠJer usalem
L C
Ġf aith
Ġto x
ĠU l
our se
ĠPro du
Ġsur re
200 6
Ġpar allel
Ġregular ly
M P
l on
in ch
ĠP ed
Ġat om
ĠMar ine
Ġelect ron
Ġweap on
ĠRog er
Ġpartn ership
ĠInf antry
keep er
Ġw et
or o
Ġh urt
Ġsup erv
Ġ190 5
Ġnewsp apers
ĠB ach
ĠL am
Ġsh ut
Ġpo ison
emoc racy
Ġgen etic
ĠCub a
ĠMun ich
7 9
S ec
p erson
il ty
Ġcon st
Ġk ick
olog ies
Ġstr uck
ĠRuss ell
200 9
ĠSar ah
Ġs an
ĠM ach
ch ang
and al
os m
Ġinterest s
Ġpun ish
Ġd ress
Ġg one
Ġst im
ĠSt ev
Ġappoin t
Ġparticip ate
ĠMarg aret
il er
ĠR ow
aus en
ĠEx press
Ġcontrovers ial
Ġf it
ĠL ar
ill o
Ġany one
Ġvict ims
Ġthous and
Ġl ayer
ĠN BA
ĠE xt
ell i
ĠLa ure
ĠHot el
ĠK a
ix on
ĠAust in
Ġexec uted
Ġthr one
ĠS port
ĠR ena
Ġfind ing
Ġarran ged
D A
Ġt el
Ġe c
ĠW right
ĠTh us
Ġag ree
ĠSh akespeare
Ġexp ressed
Ġstri p
ĠNig eria
ĠC le
ro ve
ri el
Ġsh ares
Ġdec ade
Ġinf ection
Ġestablish ment
ĠSel ena
5 9
Ã ł
ĠS C
ĠL l
Ġgr ade
Ġrev ers
ĠPer u
rid ay
Ġuns uccess
Ġult imately
e qu
as ters
Ġd ream
ĠF el
Ġv eter
Ġhead ed
Ġdoes n
Ġmach ines
Ġslow ly
L and
à ¦
Ġ ign
Ġw itness
ĠF arm
ac re
Ġv ary
Ġcompos ition
cast ing
Ġp ian
se ason
ĠYork shire
ĠJos Ã©
Ġphot ograph
ĠLank a
a ired
an ne
Ġd iet
ĠB aker
ĠR ab
Ġj ourney
Ġ7 9
Ġdef ence
ym n
Ġsurv ive
ĠS ah
Ġco oper
ĠArab ic
W ork
Ġv s
An other
Ġemploy ed
Ġvisit ors
S al
p op
Ġn ut
ith m
og a
Ġser ial
Ġdesign s
Ġs ang
Ġcon ce
Ġproduc es
Ġtest s
Ã´ ne
ĠWalk er
ĠCost a
z es
om i
ĠI ce
ĠB ack
Ġann iversary
Ġdiam eter
Ġcous in
C ent
in ction
Ġs ulf
am ents
ro t
ig ious
Ġch rom
Ġcolle ct
Ġexp ensive
Ġconcer ts
' m
Ġa id
ir i
ĠD ur
hyth m
P ort
Ġ( ).
ĠAl t
Ġcall ing
oth y
Ġ8 6
g ement
Ġa head
ĠT rib
ay ed
ut or
ail and
Ġf at
Ġl ose
Ġ7 2
Ġmed ieval
ĠMan agement
ĠMc K
ĠEm my
ĠLegisl ative
ĠR ugby
ĠD ublin
ĠCon stant
ĠGu inea
ĠSocial ist
8 2
P al
Ġp neum
ĠD ec
Ġse ed
Ġcomp ound
Ġgen re
ĠRes erve
Ġathlet es
Ġc odes
Ġf ear
ĠFl ore
Ġspok e
Ġrough ly
Ġvoc als
g om
g ate
is f
Ġe ighth
Ġch annels
Ġ4 3
Ġpre y
Ġ190 9
Ġneg oti
ĠDef ense
ĠR ural
ri x
Ġse es
ĠK it
ĠAl ger
Ġdis order
Ġ5 2
Ġ8 3
Ġdep th
onom ous
B I
ĠH urricane
ĠB ed
un ction
ith uan
Ġass ault
Ġmet ropolitan
Ġprovin cial
Ġdra wn
Ġimpr ison
ĠPicard ie
? "
p ine
ĠB enn
ĠL ib
os ph
Ġv ision
Ġr u
20 12
Ġph ase
Ġext ension
Ġreturn s
ĠCons ervative
Ġconcent ration
a very
m illion
ĠS S
ĠS n
op ter
ster dam
p at
Ġs udden
Ġcomp ounds
ĠHol land
Ġdeterm ine
Ġprep ared
E uro
Ġs oul
ĠI l
Ġal ive
ĠK on
Ġ9 2
Ġtw in
Ġ190 4
Ġdet ails
ĠMon te
Ġ187 0
Ġdraft ed
Ġw at
Ġf aster
ĠI ron
ĠP ear
ĠR y
Ġev il
Ġmin ing
Ġsubsequ ent
en berg
ĠM az
Ġtrad ed
Ġcirc um
ĠBoy s
ĠVill age
' re
Ġp hen
ĠMar s
ĠDe an
Ġstr ing
ĠReg ional
Ġmy ster
het ic
Ġhousehold s
ip h
Ġ190 7
ĠBel arus
omp son
Ġc oun
ĠA re
et e
ruct ure
Ġtreat y
hol m
ĠScient ists
ou ch
ĠS ard
ĠA ires
ĠB illy
out heastern
Ġwrit es
ĠCharl ie
rupt ion
t ical
Ġa ware
Ġo uter
ĠS Ã£o
am ous
im ir
ĠK evin
arm a
ĠL iter
ose x
Ġ7 8
Ġref uge
Ġinflu ential
Ġfav our
Ġschol ars
Ã ª
Ġn or
ĠProt est
Ġalle ged
5 3
ĠW ik
ĠE arly
Ġrul er
Ġbelong s
D o
ĠD a
eop les
Ġco ff
w all
ĠD isc
Ġ4 1
Ġcommission ed
ĠGir onde
d r
Ġ" ".
Ġst ret
and ie
Ġagric ultural
f ly
Ġin fl
ĠO range
are st
ib a
Ġres idence
Ġfact or
Ġmar ine
Ġprot ests
Un ited
Ġeas ier
Ġalt itude
B ob
C or
d orf
p ers
ar an
ĠI celand
os hi
Ġsh ore
ang le
Ġdep os
clus ion
5 2
ĠC irc
Ġover l
Ġ8 1
Ġcab inet
Ġpolic ies
7 3
Ġ :
Ġre ady
ov ich
ĠColomb ia
m us
m ates
un c
ĠF A
Ġexper t
yr Ã©n
at ar
it us
Ġn it
ra ce
ĠPol it
Ã³ w
Pl ot
Ġhors es
Ġexperien ced
Ġt urb
ah n
yrÃ©n Ã©es
A ir
P re
Ġd ated
ĠC her
ĠR ub
ĠUn like
Ġro oms
ren a
Ġso ap
b ow
ou x
ĠD ave
og le
20 16
Ġra ise
Ġhead s
Ġemploy ees
ĠGall ery
ĠF ried
ĠL uke
B ig
as is
ĠC ow
Ġl ists
Ġg ather
Ġ6 6
Ġexp and
Ġdefe ating
ĠH as
ĠD ark
ĠD allas
aw ay
Ġrele g
Ġ7 6
ific ations
com une
Ġ190 6
bre ak
ĠPlay Station
ĠWay ne
Ġd uty
ĠF al
ram s
ĠComm ander
ĠEn ergy
Ġcarry ing
Ġfoss il
ĠOffic er
m aker
Ġc ourses
ant a
ĠTh ailand
ĠPro te
ĠJeff erson
Ġopin ion
er r
Ġs ought
Ġpubl ishing
Ġ9 1
Ġsuff ering
cu ador
Ġin du
Ġp itch
ĠA ld
ĠD ynasty
ĠJ ama
ud son
sh aped
20 15
Ġperiod s
Ġrul ing
ĠBrother s
7 4
Ġnot ably
Ġgu ilty
Ġtechn ique
rag ue
ĠMont ana
ĠBu enos
Ġkilomet ers
ĠHun ter
j u
Ġn aval
Ġst ood
ĠF all
ĠBar ry
Ġsl ave
N ote
d oor
Ġf ram
ĠS r
ĠM ol
ĠP C
Ġbl ind
Ġ25 0
Ġjust ice
Ġmyth ology
in ian
ĠT ak
ĠM agn
ol ia
ig s
ĠN am
ĠE nt
ac ent
Ġmain tained
Ġexp ression
Ġcred ited
Ġswim ming
Ġbeet le
Ġ1 20
Ġre un
up t
Ġ188 0
Ã¤ r
Ã¨ s
Ġrec ip
Ġorgan isation
ĠAll iance
ĠAm sterdam
Ġappear ing
Ġintro duction
Ġphr ase
ĠYouT ube
Ġs ession
en cer
ĠM ond
ĠF alls
ĠY am
Ġ9 3
ĠAd vent
ele cted
ac c
Ġcl oud
ĠJohn ny
Ġ190 2
S T
W orld
Ġamount s
Ġtransl ation
Ġn eck
ĠZ h
ician s
ĠSat ur
ĠMarsh all
Ð µ
ir ates
Ġfilm ed
Ġ190 1
Ġvol cano
Ġhost s
Ġbo ats
Ġdefin ition
Ġatm osphere
le ans
ĠM oz
ĠR ain
Ã© l
200 1
Ġintern et
ro ph
Ġth in
ter ed
gom ery
Ð ½
Ġp ages
ĠB uck
ont in
Ġdr ummer
app y
Ġsol ar
S ir
et o
ĠP y
ĠF riend
ĠL ane
Ġspe aking
Ġco ordin
ij ing
Ġfund s
Ġresident ial
Ġsat ellite
l ater
ĠS i
ĠH em
ig er
ant ly
igh ters
ĠCan al
ĠPh oen
Ġperson nel
zer o
Ġaff airs
Ġhapp y
ĠMur ray
C ap
h r
Ġf ile
ĠL i
Ġpart ly
pro fit
Ġtem porary
ĠSatur day
M E
Ġl it
ĠN CAA
ret t
Ġmeas ures
ĠOper a
A c
h um
x ide
Ġch amber
Ġsold ier
ĠSen ior
ĠCarl os
ĠIndepend ent
he red
ĠS af
Ġn et
ĠR av
ĠG a
ĠDe ad
Ġatt orney
Ġkey board
ovak ia
t Ã©
ĠC hel
Ġro ots
200 5
Ġinj uries
Ġunivers e
Ġt unn
he me
Ġm ir
ĠH and
ĠN ash
op le
Ġcon vention
Ġte x
Ġunder standing
ĠWh o
ĠGu y
ĠRoman ian
Ġpat ient
Ġenem ies
Ġnickn ame
n et
is er
Ġp ul
ĠB oeing
ur st
ac o
Ġun iform
ang er
Ġdes ert
Ġbe ar
Ġcan n
Fran k
Ġlegisl ature
ĠStew art
Ġm igr
ia h
Ġrem ov
Ġadd ing
Ġel der
ĠMr s
k an
u art
ĠM es
Ġst ress
Ġst orage
ĠG ran
ĠE vent
ue z
Ġinter pret
Ġrequ ires
Ġbal let
G erman
ag re
ens on
ĠSoc cer
ĠLt d
G old
ĠE mer
ab led
Ġso le
app ing
ĠReg ister
Ġ186 1
Ġmass ive
Ġdecision s
O rig
R ock
ro id
ames e
ĠWar ren
ĠAng l
Ġsuppl ies
h and
á ¹
Ġf iled
Ġd uties
ĠM ess
ĠH ell
Ġinter ior
Ġfun eral
Ġrap per
ĠSqu ad
ĠRon ald
R eg
Ġg ar
Ġhe ar
ber ry
Ġse eds
Ġch allenge
ach i
ĠWh at
Ġsupport s
Ġref le
SC O
Ġpneum onia
g ie
Ġb anned
Ġhe aring
Ġpl us
ĠMar ket
Ġinvol ves
Ġconv icted
ĠEngine ering
I m
I ts
R ec
in ia
ĠE cuador
ab il
ĠV ic
Ġab use
ĠPl ace
ĠChristian ity
Ġtemper atures
Ġrelationship s
Ġdeliver ed
g on
ĠT ib
Ġres emb
Ġloc k
Ġair line
cent ral
ij i
Ġcirc uit
5 4
Ġst yles
ĠF M
ĠCamp bell
Ġoccup ation
7 1
o an
ĠF r
ĠG riff
Ġcon vent
ĠK um
Ġent reprene
ele ct
ĠJim my
ĠUnivers al
Ġcart oon
onoun ced
E r
at ically
it aine
ĠR et
Ġse ctor
Ġpro ced
Ġbut ter
Ġ9 6
ĠCon c
ĠOr leans
Ġport ra
ĠCap ital
aval ry
ã ĥ
Ġm ine
ot es
Ġst ick
Ġam ateur
Ġprocess es
ĠDel aware
ĠCroat ia
Mus ic
C arl
st al
ĠD J
ess ed
Ġcompos ers
Ġadv oc
Ġburn ed
" -
M il
d d
e as
w w
id al
mer ce
Ġdo ctors
Ġexpl ained
Ġex ists
Ġtra p
ier ra
Ġcateg ories
c op
Ġun f
Ġcl in
Ġsmall est
Ġmark s
Ġwind ow
ĠPeters burg
ĠHit ler
h aw
Ġ ur
ĠL ast
av an
Ġ5 4
Ġ190 3
Ġtest ing
ed a
at ab
Ġpro s
Ġpl astic
ud es
Ġsett lers
Ġeconom ics
Ġmurder ed
Ġwrest ler
om o
ĠS ac
ĠA C
Ġst ops
Ġ7 4
des ignated
l s
ã ģ
Ġh unting
Ġcl othes
Ġad mitted
Ġmeas ured
Ġthir ty
ĠOrgan ization
5 8
ĠP A
ay e
em a
Ġor g
Ġsp end
Ġev olved
Ġsl avery
Ġinvol ving
Ġcontrib utions
0 8
Ġret ail
Ġrem ove
Ġsign s
ĠAm az
ĠMc G
hel m
|||| ||||
Ġexact ly
u ber
el er
ĠF und
ĠW a
Ġform ally
Ġqu een
ĠRepresent ative
gress ive
9 8
v ision
or iginal
Ġin stitution
ic it
ĠB ourg
Ġman usc
Ġcompet ing
Ġcover ing
M ah
S er
ĠSh an
ĠCl ar
Ġgrow s
Ġsurv iving
m other
Ġn ose
ĠTh ompson
ne e
Ġother wise
inc orporated
Ġrad iation
ament al
Ġcop y
ĠW ard
Ġext reme
ĠAng lo
Ġ186 0
Ġachie ve
B ecause
P art
es ar
Ġc able
Ġm and
Ġd inosaur
ĠL aur
ist rict
Ġex pedition
Ġdec ides
Ġcop per
ĠBen jamin
m ate
re le
is i
le e
od ge
hed ron
200 2
ĠHar vey
Ġvot ing
Ġeat en
ĠCharl otte
Ġfr ame
0 1
ĠE ston
Ġcl im
Ġdis miss
ĠBe ijing
Ġequ ivalent
Ġsister s
p ower
Ġt ank
re f
Ġas ks
ĠR an
Ġher itage
Ġstrong ly
Ġthreat ened
Ġrare ly
0 6
E p
Ġt ube
Ġp y
oc ation
Ġpre t
Ġart illery
Ġsw itch
A g
G o
L eg
or us
Ġto ol
ĠLe eds
Ġdepartment s
ĠAb raham
Ġvis ible
ĠPaul o
Ġtravel ed
Ġfrequ ency
Ġvo iced
m aster
Ġc attle
ĠC ob
ra f
Ġchem istry
Ġge omet
Ġimmigr ants
Ġauth ors
ĠPunj ab
Ø §
ĠB ald
ow der
Ġcon sequ
ok u
Ġpick ed
ĠVenezuel a
O ut
v ant
on ies
Ġs ter
Ġst ating
ĠN ation
Ġmid fielder
roll ed
ĠBor ough
ĠAuthor ity
O C
u ver
er k
ar ation
Ġh osp
ĠL ithuan
ĠDes ign
Ġgod s
ĠC hem
ĠV as
Ġ5 6
Ġstat ue
ĠArn old
esl iga
H S
J apan
Ġw ine
Ġb ats
ĠP yrÃ©nÃ©es
id o
ĠD iv
ĠJ enn
Ġsp r
Ġfl av
rist ol
uk a
osex ual
9 2
Ġab bre
Ġres ort
ces ter
Ġmus cle
St at
Ġvac c
M ark
f are
Ġprov ision
ĠGra ham
ĠMot or
ĠSax ony
ĠTreat y
B en
ĠB omb
ĠR ud
Ġch lor
ens ed
ĠZ e
ĠGl obe
ĠAg ain
Ġwood en
ĠDou bs
ĠDev on
Ġcontrovers y
L ittle
M a
n ers
Ġl akes
ĠCh and
ĠV o
ĠThere fore
Ġinst ance
Ġren ew
Ġplatform s
Ġst rict
vel t
Ġvess els
ĠMit chell
Norm andie
Ġt ied
ĠT am
ĠC P
ĠC ry
Ġform ing
Ġwe aken
ĠAss oci
w right
Ġthe at
Ġc ou
Ġc ards
ĠB ox
if fer
og s
Ġcollabor ation
Ġspirit ual
A h
b les
r idge
Ġt ack
Ġcan c
Ġ5 3
Ġsynd rome
Ġ id
ĠH amb
ĠD ig
ĠK ash
ab ilities
ĠAnd y
Ġrest ored
Ġarr ival
Ġfal se
Ġh ills
us ing
Ġdown load
Ġexper iences
ĠMor ris
Ġhon our
ĠFur ther
Ġf est
ĠT ogether
ol ves
Ġor ange
ip er
Ġj u
ather s
ĠSe e
ĠLux emb
Ġc ircle
ĠL uther
Ġv ow
Ġor bit
Ġun incorporated
ĠPer ry
ĠSal v
Ġqual ification
ĠIndepend ence
Ġagric ulture
claim ed
Ġtorn ado
O l
u ary
Ġs ung
ore n
20 18
Ã© r
ush ing
Ġfriend ly
ĠDemocrat s
Ġsound track
Ġdraw ing
Ġwebs ites
Ġelimin ated
at on
ĠC amb
ell ion
Ġweek ly
ĠBas se
Ġbound ary
iv ia
ĠD ance
ath y
Ġass embly
Ġmembers hip
Ġtrad ing
Ġviol ent
Ġrank ing
T oday
f inals
Ġf rag
Ġb ull
ĠP el
ie u
ru its
Ġdis pl
az ines
Ġass umed
ĠGl obal
Ġpract ices
Ġcant ons
Ġattra cted
Ġadapt ation
Ġd owntown
ĠR A
ĠN aval
ĠShe l
Ġsc heme
ener ation
ĠTe le
200 4
Ġground s
Ġfarm ing
Ġ ere
ro v
ie ge
ru ction
ect or
form ula
Ġgra v
Ġst able
Ġinvest ment
Ġthink ing
Ġdu o
Ġcustom ers
Ġ18 00
ĠBl ues
ĠSe ven
amb a
ĠC ricket
Ġn arr
em or
orn e
Ġpres idency
cy cl
Ġcolle ctions
Ġregard ing
ĠCroat ian
Ġliber al
i ago
ĠM i
ac on
ĠO cc
Ġr ates
Ġ5 7
ĠRe view
Ġmod er
gr ade
Ġbre ed
ĠUr ugu
Ġansw er
R S
am ount
ĠD ol
Ġpro sec
Ġfl ed
ĠSy mphony
ĠEn vironment
Ġ189 9
Ġcritic ism
Ġrespons ibility
Ġreplace ment
Ġnickn amed
B re
ĠS oon
Ġh at
est one
Ġsp ending
inn ed
ĠMer c
Ġtax es
Jos eph
P D
w ig
Ġt ort
Ġw ides
ĠA in
ĠA ges
ĠB ond
ĠCom ics
Ġpopul ations
Ġ189 6
R ep
R ob
Ġ5 9
Ġreg iment
Ġfin als
Ġtour ist
Ġgrand father
A z
a un
es ter
av ia
od ern
ĠV I
Ġpre ced
Ġam b
erv atory
Ġpartic les
Ġhyd rogen
ĠHeb rew
iv an
ĠP ont
ĠG ot
ie v
ose velt
Ġ6 9
Ġind igenous
apt ist
Gr and
re z
as i
ĠT ag
ro ck
ĠM ack
ig o
ĠW arri
Ġclos er
199 0
Ġartist ic
Ġcondu ct
Ġtal ks
N or
al u
Ġre nt
Ġcon text
Ġcent ers
Ġincre ases
ĠSal zburg
Atlant iques
al ph
ĠI an
orm s
Ġ6 00
Ġ8 00
Ġob tain
ĠVictor ian
ĠBroad casting
Ġbehavi our
Ġprote ins
Ġlic ense
Ġp ure
Ġn inth
ĠF riday
ĠU nd
Ã¼ n
ĠRail road
Ġresear chers
Ġdan cer
E T
E SCO
et es
ĠN i
Ġsk y
Ñ Ģ
en cing
ĠA ctor
ĠB eck
iv ate
ĠF ac
6 1
e ed
Ġf antasy
Ġb ones
ĠC rit
ap ped
Ġr andom
ind ing
ĠAt hens
Ġcolle ges
Ġpublic ations
Ġturn ing
Ġtest ed
ĠT ropical
ĠM ind
ad ian
ĠE qu
Ġass ign
Ġmark ets
199 9
s he
is ch
ĠB ron
ven ge
ĠAtt orney
Mart in
Ġin ner
ir k
ĠL ud
ĠU C
Ġne uro
Ġbl ocks
l anguage
Ġn erv
et on
ĠP in
ut ter
ĠK o
ĠK ap
ĠSh ar
Ġsur f
Ġmon ument
ĠSy ria
Ġpurch ase
à ¥
Ġf il
om pl
ĠT as
ĠB ert
ĠR ic
ĠAl ice
20 19
omm od
p ent
w inning
Ġp and
ĠB urg
ĠW oman
ge on
ĠOr ig
forman ce
Ġpark s
ĠKer ala
0 3
ĠT ang
ĠC all
ate gy
Ġcont ra
Ġland ing
ĠAm endment
ĠAp p
Ġto mb
ĠC arm
ĠP ubl
ow ell
Ġad min
Ġpresent er
P olit
p resent
p read
Ġwas te
el lect
Ġl ieutenant
Ġn inet
ĠH udson
ĠP ad
ĠR ico
Ġrep utation
umb ent
Com tÃ©
includ e
lad imir
Hen ry
] ]
f oot
u ous
Ġp unk
Ġfor g
Ġex erc
aw s
Ġoff ensive
Ġ6 8
Ġcult ures
ĠBarb ara
Ġkid n
Ġn av
Ġe mpire
ĠO ber
ick en
Ġstr ategy
sp an
Ġden ied
B O
l ie
ĠR ol
Ġ18 50
Ġvis iting
Ġcharacter istics
ĠCommission er
Ġconclud ed
ĠBourg ogne
ĠM L
ĠR oll
ub s
Ġ7 3
Ġwe igh
Ġtown ship
Ġpublic ly
Ġmag azines
Ġbroadcast ing
Ġtal ent
ĠColon el
f amily
h ill
n al
Ġf aces
il st
ro se
Ġal gor
Ġshe ep
Ġkeep ing
Ġparliament ary
Ġgal axy
Ġjur is
C ast
ĠL ot
ĠG or
Ġal leg
row s
ĠFer r
Eng lish
k ov
Ġthe rap
Ġb one
ĠS uch
ĠM alt
Ġappro pri
Ġcross ing
Fran che
Ġaccompan ied
4 00
D em
t r
ĠP ra
over e
Ġland scape
Ġbelie ves
ĠSand ers
Euro pe
Ġindu cted
M ur
Ġb es
le man
ĠB ass
Ġex pect
Ġmain land
oss ible
Ġgreat ly
mir al
Ġe ating
ĠJ erry
Ġ6 7
ĠRich mond
Ġexc ell
ĠEconom ic
ĠBulg aria
Ġl iver
Ġpro ceed
Ġrepl acing
Ġbring ing
Ġtouch down
L uc
d ers
er als
an throp
ĠG ust
Ġr ated
Ġorgan ic
ĠBr and
former ly
d est
i ary
Ġb ath
am er
ĠR at
ĠK oh
Ġus ual
Ġdis aster
Ġannoun ce
Ġren ov
Ġqual ifying
Ġcred it
Ġbene fit
Ġpian ist
M ary
ĠA rena
art ing
ich i
ec a
Ġorgan isms
ĠAm bassador
Ġindust ries
ĠMont gomery
Ġins urance
f urt
as ks
ot an
Ġ7 1
Ġinf ect
ateg ory
Ġwind ows
Ġspeak ers
Ġrapid ly
ĠFlore nce
S o
b at
v ens
Ġs weet
ar in
Ġp ric
ir ation
ĠD ra
Ġtrans mission
Ġequ ation
ĠS eb
et ers
ir it
ut o
os l
ub a
J ust
ã Ĥ
Ġm oon
st e
ly mouth
Ġsub stant
Ġtr uth
yl er
Ġstrong er
Ġportray ed
ĠTun is
S pe
o i
Å Ħ
Ġp eoples
Ġm aps
ĠG reater
ĠN atural
est on
ĠMan ipur
Ġmeet ings
ĠArch bishop
ĠWars aw
Ġadvent ure
T S
ĠR and
ous es
arr ison
Ġcommun es
Ġconne ct
Ġrestaur ants
Ġsuppor ters
B ad
l u
Ġm al
ĠM aced
ĠI van
Ġan ime
ĠNov a
Ġown ership
Ġanim ation
ĠPort land
Ġ186 2
Ġlow est
Ġsettle ments
Ġl oyal
ĠN et
Ġra cial
Ġacc ompl
ĠPark er
Ġver te
Ġcompon ents
only include
s elling
er ian
Ġw orn
ro at
ow ski
ke e
itar ian
Ġpsych ology
ĠRog ers
F M
G ood
Ġt act
in ated
as ant
end a
Ġ189 8
Wh ite
Ġaud io
Ġhol iday
Ġadj acent
A f
B est
E D
Ġto w
Ġan ch
Ġhe m
ant o
Ġk ings
ĠTh ough
ass ic
200 3
Ġsee ing
Ġminor ity
Ġconcern s
Ġfoss ils
Ġwithd raw
l ik
Ġm ac
Ġg ate
Ġas pects
Ġcomm it
Ġproduc ers
Ġdeb ate
Ġfall ing
Ġrat io
Ġre venue
ĠP rague
ĠN on
ĠN adu
ĠO scar
overn ment
Ġacc ommod
Ġland ed
Ġhy per
ĠRo osevelt
ĠDef ence
ĠUnivers e
ĠSerb ian
D ou
l ock
Ġm ile
Ġex posed
ĠV el
ace ae
Ġdom ain
ĠVeg as
0 4
Ġf old
il o
Ġele ctoral
Ġorgan ised
eng u
Ġgen es
Ġnetwork s
Ġthr iller
ĠStock holm
ĠWag ner
Ġrebu ilt
ĠT oy
ĠI S
ĠR ing
Ġcomp ris
ins ky
ling ton
Ġfac ulty
ato es
Ġpan el
9 4
F rench
O ld
or ship
Ġl inks
ĠH ond
ab ul
over ty
Ġro ot
Ġ6 3
Ġunder st
aj i
Ġed ited
ĠAd ela
Ġexcept ion
B o
p m
Ġw edding
Ġc m
ĠC er
ĠC old
ĠC atherine
ĠM ak
ren cy
Ġout put
Ġ6 2
Ġsub mar
arr ondissements
gr aduate
Ġsw it
Ġfarm ers
ĠSerb ia
B er
L es
in ations
Ġb ond
Ġp apers
ĠH end
ur as
ĠR acing
ĠTh ose
Ġem pt
ĠS uff
ĠM end
Ġn urs
ĠF ilip
ens is
rib ed
Ġwides pread
b ing
ĠTh or
Ġsp aces
Ġ186 5
Ġtalk ing
ĠJud ge
ĠBund esliga
Back ground
J ul
ĠM ans
ch o
ĠG ary
Ġcon stitutional
ĠSh aw
ash a
Ġtrans ition
ĠFl ight
amb ig
Ġran ks
Ġtransport ation
Ġinn ov
ĠProdu ctions
U nder
n oon
ĠC ulture
ĠSt ars
ine e
Ġref lect
Ġident ify
c ons
ĠR ound
ĠL is
ĠL ad
ial s
Ġtou red
ĠBos nia
ĠYugoslav ia
M in
i w
t ic
Ġf urn
ĠS ey
ĠH unt
Ġor che
ord ers
Ġpres erved
Ġ9 4
ĠPl ayer
com m
Ġwear ing
Ġg ard
ĠF em
ack s
act er
Ġra c
Ġcap able
ĠKir k
Ġmole cules
Ġpattern s
Ġ zero
Ġb low
ort ion
Ġafter wards
ĠSchool s
Ġorigin ated
Ġinternational ly
Ġ188 9
ĠMor oc
ĠUp on
ĠOl iver
ĠOper ation
ĠEv ans
Ġbelief s
oty pe
ip edia
Ġj ury
ann on
Ġapp ly
Ġdirect ors
ĠÃ ĸ
Ġhonor ary
ĠVinc ent
S a
Ġh ole
ĠSh in
ty pe
198 0
Ġhor iz
ĠJul ian
ĠFre edom
ĠTib et
c ore
f ire
u its
ic ist
iv ated
art s
Ġmod e
elf are
Ġbre aking
Ġmechan ical
Ġsomew hat
W ar
i ology
m ade
Ī Ĵ
Ġw aves
ĠP le
ĠL ie
ĠIn vest
ind a
che l
Ġthem es
Ġcap s
ĠAll ied
ĠTurn er
E very
ĠP ays
op al
iz z
Ġag ents
Ġco at
ĠGo ogle
-- --
R O
Ġt ens
ĠN ear
ag ers
ac le
ant ine
ĠZ one
Ġann ually
Ġfew er
Ġconc rete
Ġcolon ies
ĠCab inet
ĠKaz akh
n or
if ted
ĠUN ESCO
ĠTro phy
GB T
ĠPhoen ix
C O
M el
Ġs aved
ro st
Ġre organ
ĠN ever
ister s
ĠDi ocese
ĠHarr ison
ĠAbb ey
E A
w orld
ch ing
Ġtr uck
Ġcar go
Ġlim its
ĠPakistan i
Ġpercent age
ĠArmen ian
Ġcongress ional
F amily
Ġf ame
ĠS ide
ĠS yl
iv ation
Ġor b
ĠY an
Ġdep ends
Ġ9 9
Ġflow er
Ġaccount s
Ġopt ion
k now
Ġm anner
ĠI mp
ĠL an
Ġ188 8
ĠNaz is
l en
Ġm asc
Ġbe ating
ap se
ab el
Ġspe aker
Ġ5 8
Ġrele ases
Th ree
Ġrest rict
emocrat ic
Ġ186 3
ĠGra ce
Ġang ry
Ã± a
G A
p son
Ġm o
ĠB ristol
Ġ" ",
ir us
Ġg rey
ĠL amb
ĠO m
Ġpro port
Ġmin imum
Ġstep s
Ġmanufact uring
M I
Ġt ie
an ing
Ġh al
ir ty
ĠW onder
ĠE ug
ĠColl ins
H a
M er
Ġc ats
ĠM ort
Ġr ide
ge bra
ie g
au er
Ġphot ographer
ĠLuxemb ourg
ĠI v
ĠK il
ai ro
Ġsign ing
Ġrock et
Ġfoc uses
Ġpred ecess
ĠBad en
Ġresc ue
Ġthe rm
om on
ĠR ange
ĠF ood
Ġloss es
ĠUs ually
c ase
Ġw ars
ĠF itz
ip per
ĠFran ces
Ġcontrol s
Ġdest ruction
Ġrif le
Ġgrad ually
b ian
Ġreg ime
Ġnort heastern
Ġpropos al
ĠBuff alo
in os
Ġf ung
Ġf ighter
Ġm ob
ĠM other
ĠJ ason
od ore
ran g
ath a
Ġdef ending
ĠMod el
B ra
M C
en c
Ġex pos
Ġsp ots
ĠIs a
inc inn
ĠBut ler
hib ition
ĠSte ven
ĠHel en
Ġmagn etic
Ġstreng then
Ġseg ment
C ont
m o
ĠA FC
ĠH old
ĠP ier
Ġr ice
ph al
Ġrec re
Ġexper iments
ĠSup port
ĠAlbert a
Ġtrav elled
0 2
P ol
Ġs outheastern
ĠS ite
ĠS ultan
ĠP ay
ĠF u
Ġent ering
Ġinf antry
Ġflu id
Ġrequire ments
Ġstrugg le
Ġelev ation
ĠProtest ant
Ġp ip
gh ai
Ġsing ers
ien cy
Ġphys ician
Ġcred its
ĠElect ric
I nt
S k
T P
U C
h arm
i ere
er as
ou st
ĠO bs
ific ial
Ġmon astery
Ġnovel ist
Ġcross ed
ĠBern ard
Ġcrop s
ĠHamb urg
B ro
G C
Ġpol o
Ġwhere as
Ġappe al
Ġlegisl ation
Ġpand emic
9 3
ĠM aj
Ġst ored
ĠJ ess
Ġsh orter
hes is
Ġrun ner
Ġcor on
Ġround s
Ġwor st
ĠVen ice
incinn ati
M ount
Ġl in
Ã¡ s
ĠAg ric
Ġcivil ian
ĠAthlet ic
p y
ĠP il
ov o
Ġag greg
ph a
ĠAr ound
Ġrece pt
pect ive
Ġbord ered
can ic
Ġbene fits
n ell
Ġn one
ĠB our
Ġcl ock
ĠSy rian
Ġ189 7
ĠSch w
Ġcal c
ĠSpe ed
nd ered
ĠS alt
ĠG ill
Ġk it
ib i
ĠAnt ar
Ġens ure
Ġhabit at
Ġtrou ble
n ik
ĠB ened
ĠU ntil
ĠPl aces
uck land
Ġdesc ription
Dan iel
H igh
K h
s or
t ar
Å ¾
Ġin sc
ĠR u
Ġde ploy
Ġrel ief
Ġvol umes
Ġnomin ations
Ġtiss ue
ĠAdela ide
Ġt elling
an im
Ġm m
Ġd ict
Ġd atab
ĠC elt
ĠG and
Ġan throp
Ġr ising
Ġab road
ace ous
Ġrepresent atives
Ġ186 4
bor o
Ã¨ res
ĠNich olas
R el
qu arter
Ġsh ops
ĠNew ton
ett a
ats u
Ġ189 3
heim er
rast ructure
ĠLl oyd
Ġphen omen
L ove
f olk
ĠP ierre
id ad
ĠR ot
ĠO ri
sh i
Ġfood s
ĠTig ers
ambig uation
b ie
ent in
Ġl es
ĠM A
ĠD ub
ĠSt ein
ĠRep ort
ĠAd vis
de f
Ġref ere
ĠDep ression
Ġphot os
Ġsignificant ly
ĠWork s
Ġmart ial
Ġtex ts
he ro
st yle
ĠThe ater
ĠK urd
Ġev ac
ĠSh ir
arri er
ex ual
Ġprocess ing
Ġsusp ended
D esc
Ġa ster
Ġc oc
ĠT ob
Ġre aches
ĠI P
Ġcomm anded
Ġro d
ĠHis pan
Ġexpl ain
Ġamong st
Ġresign ation
c ott
g ne
so le
Ġsh ield
Ġnot ice
Ġfl ights
ĠBra h
Ġappro val
Ġbi ology
dis ambiguation
ĠL ocal
ĠN ext
um ps
ish a
Ġhum id
Ġ189 5
Ġassist ance
Ġdon ated
Ġcas ual
G reen
H el
an th
ĠS ic
ĠR ah
Ġag es
let t
As s
Ġconne cts
Ġjud ges
Ġmer ger
ĠRh ine
ĠLu is
Ġoccasion ally
ĠBenn ett
ĠI TV
Ġe mp
ĠD ennis
ĠW ing
ish n
pr ing
ourn aments
Ġoffer ing
Ġbal ance
Ġwalk ing
Ġentreprene ur
Ġorg ans
E ducation
b ut
w oman
ag ne
ĠHe ights
Ġdef ender
ull ah
Ġmix ture
spe aking
Ġmess ages
ĠAqu itaine
E P
I r
S ur
Ġt ill
Ġh orn
Ġar c
ark ed
Ġrain fall
am o
ĠP sych
Ġg ross
Ġst em
ĠG oth
ĠW ald
ber to
ri pts
Ġdis char
Ġind ex
Ġmod ified
min ster
Ġpost ed
ĠPer cy
ĠColumb us
Ġenc ounter
Ġadvert ising
Ġsubs idi
Ġh ope
ĠSt uart
ĠV ers
ann i
Ġfif teen
Ġmiss ions
ĠIndones ian
ĠEvent ually
D C
g ender
Ġs ke
un i
ĠF ace
ĠG un
ag ar
Ġj ail
ĠSp encer
ĠSe ason
Ġint ellect
Ġprison er
Ġesc aped
Ġdiplom at
Ġdoll ars
ĠS or
ĠU lt
Ġr it
Ġres olution
Ġarr ondissement
Ġvot ers
Ġsum mit
ĠS outheast
ĠD aily
ĠO z
197 0
ĠArch itect
ĠSab ha
Ġencoura ged
g ow
Ġf ib
Ġb id
ĠS ony
Ġl ingu
ĠB rew
ĠL en
ov sky
ran k
Ġelect rons
Ġbeg un
ĠPalest ine
Ġjuris d
E ach
ĠS ierra
ĠH erman
et ter
ĠP lymouth
ĠU g
Ġr hythm
ĠGr ay
Ġbas in
Ġbelong ed
Ġ/ &
ĠGon z
Ġoccas ions
v ol
at ics
Ġp ushed
ĠC incinnati
ĠV ideo
Ġcomm emor
Ġret ained
Ġrem ix
Ġinter section
ĠSec ret
Ġspecial ized
Ġ[ [
Ġmarket ing
Ġcover age
Ġsat isf
Ġcoff ee
Ġind icated
ĠCl are
Ġchar ity
Ġpolitician s
Ġdecl ine
Ġfle w
ĠAdd itionally
ĠDomin ican
Ġut il
W il
on so
ing ly
ĠB A
ch air
os es
ep hew
Ġex ternal
Ġsh arp
og o
ah a
Ġwrit ings
ett i
Ġext ens
ĠBy z
ĠSl oven
Ġqual ify
ĠDen ver
ĠSpe aker
Ġmechan ism
ĠCzech osl
ĠStand ard
ĠS now
Ġre actions
ĠB achelor
us a
ig uel
ap le
man uel
199 7
Ġcert ified
Ġexerc ise
B ur
M O
M r
Ġp ale
Ġd rew
ĠL ag
if ts
ien ne
Ġhistor ians
ĠSte el
" '
as er
Ġl ob
ĠF if
ten ance
Ġnorth western
ĠEd wards
Ġbre ast
Ġdivor ce
Ġski ing
Aust ral
Ġcanc elled
M ed
M en
h u
ĠG Ã¶
ag s
Ġper mission
ĠMe an
oll o
iffer ent
% ,
Ġw el
ic ing
Ġh idden
oc ene
Ġpro of
ust ed
ĠCl ay
Ġrepresent ation
Ġconcern ed
Ġdies el
a ude
ol id
ĠR ace
ĠD anny
Ġtrad itions
ĠAct ress
Ġexec ution
ĠSant iago
Ġassoci ate
Ġvess el
Ġoppon ent
s er
iz a
Ġdr iven
Ġident ical
Ġview ers
Ġbi ological
B etween
g ae
u ct
Ġt ons
on ian
Ġs itting
ĠM TV
ĠP ul
ĠO ur
ĠIn formation
ember g
Ġhel ic
ĠEd die
Ġhon ored
ĠÃ ģ
ĠWall ace
ĠOtt awa
ĠNap ole
S il
ĠH us
ul um
Ġdo ors
iam ond
Ġexpl ains
Ġ189 1
Ġgoal keeper
Pl ay
Ġremember ed
ĠGene va
ch ild
Ġpro f
iss a
ĠMad ison
Ġprinc iple
Ġcontinu ous
Ġcompon ent
ĠRena issance
h our
in ental
Ġc emetery
Ġst om
ok es
In ter
ach ment
ĠY ang
ĠBe g
Ġdr ivers
atin um
Ġlegisl ative
Ġancest ry
Ġpull ed
Ġneut ral
Ġpunish ment
C DP
Q ue
is ons
Ġs ight
ĠS R
oc c
Ġcol ours
ĠGrand e
Ġarg ument
ĠRevolution ary
Ġinstrument al
ĠLeban on
g ets
Ġm ate
Ġd ub
ĠS ul
ĠP rom
ia o
uc lear
Ġown s
Ġcoal ition
ĠLim ited
Ġshop ping
Ġhyp othes
V er
Ġc ited
ig ible
Ġat oms
ĠK id
ĠK now
Ġput ting
199 8
Ġdecl ined
Com mun
Ġclear ly
Ġjun ction
Ġdrink ing
Ġbatter y
Ġpregn ant
Ġcinem a
S l
S ar
Ġw ick
Ġan the
aj a
Ġass ets
ĠGl en
ĠCong o
yr ight
ĠYear s
ĠFle et
Ġfest ivals
J ac
Ġl oved
ĠM ission
ĠF act
um m
od ed
Ġv ul
amp a
ans k
uch i
Ġall iance
Ġbl ues
Ġfac ing
Ġgold en
ĠRh ode
b ound
Ġt ournaments
an ian
Ġs ailed
ĠM all
ĠI C
ĠL anguage
Ġcan al
Ġag encies
Ġtop ics
Ġspons ored
Ġphotograph s
" "
f ra
g il
h us
it ure
Ġpl ain
ĠCh ang
ish i
Ġ6 1
Ġco ached
ĠAb original
ĠNA SA
Ġinn ings
ĠRom ans
E nd
F red
Ġs essions
al am
ic as
Ġd io
ĠA uckland
ro b
ew here
Ġ9 8
Ġmult ipl
w yn
Ġth inks
Ġun less
Ġpart ially
rick eter
ocol ate
W W
v et
Î ±
Ġd ynam
ĠC S
ell ar
the less
199 6
Ġpit ched
Ġbeaut y
ĠM eth
ag i
Ġpro ve
yl a
ĠFin ance
iff e
sen al
Ġadop t
Ġoppon ents
D R
J o
f inal
ĠS oul
ĠS uz
ĠA ction
ĠG rey
ĠY e
Ġcor ruption
Ġ189 4
Ġsymb ols
L ike
c ut
ĠK ath
Ġch oir
Ġsh ift
Ġfl ash
Ġ188 7
Ġfeel ings
M ac
l ia
Ġc ere
ĠK el
Ġr h
Ġpar as
Ġcreat ive
Ġfeel ing
Ġprec ip
Ġcoin s
Ġenjoy ed
Ġaim ed
Ġtox ic
J im
ê ¯
Ġs oci
Ġb in
Ġb on
Ġp seud
am as
ĠB ase
Ġg ro
Ġhe ir
Ġsec ure
ĠHar bor
ym ph
Ġbelong ing
Ġp ink
Ġm ines
Ġd ancing
ĠB aptist
ĠJ ava
ach t
Ġra b
Ġpr ince
Ġman age
ĠBl ood
ĠPresident ial
ĠEx amples
Ġmag ic
Ġcarri es
Ġb en
Ġm anga
ip ped
iz er
born e
Ġbr idges
Ġgu ide
ĠMah ar
V ill
el i
ul us
up s
Ġass emb
vent h
Ġvar iable
Ġel dest
199 5
ĠFin ally
ĠSong s
Ġconsider able
Ġprincip les
Rh Ã´ne
Ġappoint ment
e er
f ers
f ree
in stein
it ol
ĠR est
ĠR idge
ĠL ate
oc ent
pe i
Ġcomp ilation
Ġsp elled
Ġen force
Ġ188 5
Ġsuburb s
ĠWy oming
rele ased
Ġ ion
Ġf ill
ol ition
Ġafter noon
ath i
ey er
Ġinc orpor
Ġ189 2
Ġinflu ences
Ġplan ets
Ġkilomet res
Ġtele phone
p i
Ġb ay
ĠM ann
ut ton
oc ial
ew ork
ath on
Ġfl our
Ġval id
Ġant ib
Ġfif ty
Ġfarm s
ĠCommun ications
Ġox id
ĠEs sex
. '
; /
t wo
ĠL oc
ant i
Ġ9 7
Ġcre am
Ġass ess
ĠMin or
Ġeffect ively
Ġinvol vement
Ġadv ice
Ġpers u
Ġcitizen ship
F e
er ted
st s
et ry
ĠPr ussia
work s
199 4
ĠRec ord
Ġdiss olved
Ġpartn ers
Ġtribut ary
Ġsubst ance
f our
m aking
ĠC ultural
st ock
th at
ĠAl ong
Ġsc ores
Ġtour ism
Ġbad ly
Ġmathemat ical
Ġlif etime
ĠWik ipedia
M or
S ub
Ġt on
Ġthe ories
ĠD ays
ĠU tt
Ġcon vert
Ġpro fit
Ġret iring
Ġind icate
ĠBr igade
min ute
Ġwid ow
ĠEthiop ia
F re
P M
R oman
r and
t rans
Ġb rick
Ġd ual
ers et
Ġv ast
Ġfollow ers
Ġconv in
spe cies
D isc
L aw
Ġv ic
ke ley
Ġgener a
Ġdisc ip
ĠPol y
ĠHar old
cast le
ĠSl av
ĠPat ri
Re ferences
greg ation
9 1
T ime
W al
ĠS aints
ot ion
ĠF a
Ġr iding
ne x
ĠComm ons
ĠPer formance
Ã§ ois
Ġtradition ally
Ġdisp ute
Ġsculpt ure
Ġcorpor ate
uver gne
e ctions
s i
Ġin g
ĠR aw
ĠE mp
ĠCh air
uk u
ĠX box
Ġdistingu ished
Ġgard ens
it ic
Ġp overty
Ġm emb
Ġn ephew
ur ers
ĠG iants
Ġcons ervation
Ġsm ooth
Ġbre ad
Ġcoach ing
writ ten
Bl ue
Ph il
G od
r ates
ĠC yr
ĠB ear
Ġrec overed
Ġdis band
iet h
ĠStud io
Ġarchitect ural
Ġphil anthrop
ĠBook s
Ġwithd rew
ĠJon athan
Lou is
T ra
al an
ĠA x
ĠC hess
ĠF ather
ĠL arry
ĠJ oy
ac les
Ġte a
Ġclaim ing
Ġemer ged
ĠB iden
et ics
ĠP ant
if ies
Ġv el
Ġtra il
ĠSh a
Ġrel atives
Ġsign als
Ġbas es
Ġhum or
ĠSer ge
Ġconf used
Ġview ed
ĠCur rent
L et
Ġc otton
ĠS ay
ĠT u
Ġdr um
Ġmar gin
Ġcoll aps
ĠCamp aign
Ġfrequ ent
ĠSuff olk
ĠP ep
ĠK ham
Ġex port
Ġam bassador
Ġtrans mit
Ġsched ule
M ore
z ing
re ck
ic ular
ĠC inem
Ġr um
ign y
Ġsur pr
tt emberg
Ġten ure
din and
Ġplayoff s
R ay
h igh
Ġc arn
ĠF isher
ĠV illa
Ġwork er
Ġne ither
Ġprodu ctions
Ġ188 4
ĠPri or
Ġknow s
oura ge
Ġimmedi ate
Ġlat est
Ġvert ical
D el
G ame
g ov
r ors
Ġo l
ol ve
ĠD om
ire ct
ina e
Ġed itions
Ġacc eler
Ġoper as
Ġeduc ator
199 3
Ġimp ress
ĠTra il
Ġdisplay ed
Ġcontinu ing
Ġcook ing
ĠErn est
ĠMond ay
ĠAmaz on
B M
L ong
is ition
ar c
st all
ro e
ĠF ine
Ġattack ing
ĠTr in
Ġdet ailed
ĠRob in
ĠCont est
ĠJo an
ĠCru z
8 00
h al
l isted
u able
w as
Ġc ash
ĠW he
ĠE is
Ġdef ended
Ġrep air
Ġcr ashed
ĠSm all
ĠProv in
Ġdescend ants
Ġunsuccess ful
N HL
as gow
ĠB uch
ĠR ivers
ag g
um i
ill on
Ġr id
Ġr ig
Ġsh all
ric ted
Ġele ph
Ġpre fecture
ĠHen ri
ĠJos h
Ġcontrib ution
Ġcat hedral
ĠVietn amese
ĠTre as
ĠGreg ory
found er
Ġinher ited
ĠTas man
ĠC urt
ĠV ern
Ġun like
ang ered
Ġj ew
ĠLou ise
Ġinterest ing
ĠWil helm
ĠMur phy
ĠCr ime
Ġwarn ing
Ġsubd ivision
Europe an
E le
R E
w ald
Ġt aste
Ġw ore
Ġs we
ĠC ec
st ances
ĠRe yn
Ġcre ates
oz o
Ã¼r ttemberg
Ġexplos ion
Ġdivers e
D own
Ã ¦
Ġt enth
Ġf ruits
ch ief
ab e
Ġkn ock
ĠMar vel
ĠDe ep
ann ah
Ġorig ins
Ġdisc ontin
199 2
Ġweek end
Ġmathemat ician
Ġpit cher
Ġdomin ated
Ð ²
ol en
ad der
ĠP ick
im o
Ġdis ability
ict ions
Ġint ention
Ġvers us
Ġimp ossible
ĠBill board
ĠCont rol
ĠChile an
ĠStat istical
ĠAlbum s
ĠSard inia
h op
st ory
ĠM embers
ĠE C
ec ca
pr us
ĠPl ant
ĠTe h
Ġpoin ted
Ġprom pt
Ġhealth y
Ġsuff icient
ĠTom my
Ġbreak s
Ġfast est
ĠKe ith
H on
U p
ro d
ĠL GBT
Ġmin i
St ep
ĠOther s
Ġsil ent
Ġarm ies
Ġchap ter
' ve
M o
g ra
p arent
ic ia
av ian
av ier
qu er
ang o
az e
Ġland mark
Ġcontin ental
vious ly
Ġ188 1
198 9
Ġcycl one
ĠKen ya
Ġthir teen
Ġwealth y
C r
C y
G er
G reat
R on
w il
er ts
al in
ol ute
ab out
Ġart ificial
ĠPhilipp ine
ĠBatt alion
g un
at hered
Ġb oss
ĠT on
ĠM uch
ĠN at
ĠW ol
ĠE U
Ġr ings
Ġfund ed
Ġprofession ally
ĠBuddh ist
ĠSud an
c at
ĠR iley
ĠK os
Ġrec over
ĠIs le
Ġcommun ist
Ġrelig ions
stad t
ĠShan ghai
u ros
Ġf iles
ĠA er
ĠH amm
ĠD ragon
ĠJ ur
ĠE sp
own ed
sh a
Ġparticip ation
Ġmill ions
Ġincreasing ly
Ġtheore m
M at
r ations
v ar
re hens
ĠI F
ĠH ad
ĠCh an
ock et
Ġinv aded
Ġmanag ing
Ġconne ctions
Ġrecogn ised
Ġer upt
Ġarran gement
Ġexperiment al
Stat istics
Desc ription
B ut
f red
Ð »
ent e
Ġst yl
ĠL isa
ell ation
Ġad m
Ġsc iences
Ġup gr
Ġmain tenance
Ġbel t
Ġpower ed
ĠPlay ers
Ġdang er
Ġtunn el
ĠUrugu ay
l as
ed e
en ne
Ġd rain
ĠC N
Ġre ct
ĠR ou
ĠD od
ul i
ric ks
duc es
enn ial
iven ess
Ġabs ence
Ġess ay
ĠGro ve
Des pite
ĠAngl ican
ĠMean while
Ġw arri
ĠA uvergne
ok er
Ġsk ull
vers e
Ġsele ct
Ġpract ical
Ġcelebr ate
ĠCa esar
ĠBulg arian
ĠCra ig
H A
M et
c aster
k ir
on na
ic he
im ar
ĠL iving
Ġcom fort
Ġtri als
sk a
Ġpen insula
Ġnom inee
R ad
Ġc hest
ĠM ason
Ġn est
ĠP ent
Ġbe ings
ĠL or
Ġsh ock
Ġph osph
Ġkill er
Ġwid er
Ġwor se
Ġord inary
Ab out
ĠHug hes
Ġappropri ate
ĠW or
Ġcl ar
ĠLe o
ah l
ĠFran co
Ġair pl
Ġpat ron
ĠTer ry
Ġsen ator
Ġdomin ant
ĠSalv ador
Ġstom ach
D en
Ġc ul
iv ic
ĠP rice
ap est
ry s
Ġout break
ĠHer bert
Ġbre eding
Ġtalk ed
Ġtall est
Ġelement ary
Ġisol ated
an ced
Ġm it
Ġd ying
Ġd iab
ĠH ob
ĠD j
ĠN ixon
Ġlist ing
Ġtem por
Ġtour ists
ĠPot ter
Ġrecomm ended
ĠBeat les
cycl op
J an
m ina
re ne
Ġc yl
ĠB anks
ĠN Y
ĠK ate
iz ard
ĠAnd re
Ġprom ised
Ġeconom ist
Ġgirl friend
ĠUr ban
Ġrang es
Ġt ram
Ġs ample
it ime
as p
ĠC rist
Ġ" (
ĠL P
ber y
ĠHe avy
Ġfour teen
Ġdeb t
Ġtem ples
Ġbeh alf
Ġdem olished
ĠNe il
Ġven ue
Ġreleg ated
; &
g reen
ĠS che
ĠP ink
ĠK le
ĠInd ies
Ġdr ums
Ġint ent
Ġpass age
sc ale
Ġminister s
Ġstream s
You ng
ĠCare y
Ġdio xide
S L
T ur
at us
Ġp ig
ĠB ath
oy age
Ġqu iet
Ġsub sc
amb ers
eg ro
Ġtre nd
Ġpsych ological
Ġchemical s
b ek
Ġa qu
at z
ĠS ig
ĠA j
ĠJ azz
ĠCh ancellor
Ġcommun ications
ĠRoman ized
Cl imate
Ġphys icist
Ġtour ing
ĠAthlet ics
f a
Ġo w
Ġf inger
Ġto t
ad ers
ĠW inn
Ġpre st
Ġrep orter
Ġmount ed
Ġ187 1
Ġfavor ite
ĠLeon ard
/ /
e or
ĠA ur
ĠC ode
Ġwas n
ĠH ig
ĠH av
ĠF oster
ĠL av
ĠCh ase
rit ic
Ġdis k
Ġstud ios
cy cle
Ch arl
com p
Ġbar rel
Ġtravel s
Ġsuit able
Ġc ow
Ġfe ud
stit utes
Ã¶ p
Ġ188 6
ĠSim pson
Ġcard iac
Ġsitu ations
ĠSus an
Ġtor ped
ĠLiter ature
I P
Ġs overe
ĠN ature
Ġwh ilst
ect ive
uch y
Ġac know
io let
Ġdet ail
amm ad
Ġovers eas
ĠPhill ips
ĠStev ens
Ġchrom os
Ġhoriz ont
L o
O s
k g
r h
Ñ ģ
Ġ Âł
ĠC row
ig i
ĠF ly
Ġcon sole
qu ir
Ġsh aring
ĠAr ctic
Ġent ers
ĠWest minster
Ġexpl an
Ġgl ac
ĠBer keley
ĠSant os
ĠDar win
Ġattra ction
Ġchap el
Rh in
S CA
i em
u gh
Ġin ches
ĠC raw
ĠI N
Ġas h
Ġrec ru
ĠRe form
Ġsub stitute
by ter
Ġide al
Ġindic ates
ĠPear l
s up
Ġp or
Ġm ild
ĠT ed
ĠSt ef
Ġcharacter ized
Ġclos est
ĠMot ors
Ã ¯
Ġd ish
Ġor n
Ġdes ire
az i
row ing
Ġang le
ĠMov ie
ĠPrinc ip
ĠTrain ing
ĠPed ro
b ird
Ġ ions
Ġo dd
al ian
ĠS oph
and ra
ĠG ate
ĠW ins
ak ov
Ġsm art
Ġhead quarter
osp el
Ġplan es
str ong
ÅĤ aw
Ġvo ices
Ġkid ney
ĠEconom ics
Ġconqu ered
O N
b ane
f ounded
Ġt ur
Ġb le
Ġp airs
Ġm arch
Ġh oles
ĠC ad
Ġfor ty
Ġg ear
her s
ĠR us
ap ur
ĠGu ild
idd les
ĠNor folk
Ġcolumn s
stan bul
Ġtel esc
ĠSeb ast
g ame
n ed
ĠA P
em pt
Ġde ck
ant ed
Ġ7 00
Ġmat ters
ink ing
ĠMan ila
Ġopportun ities
ĠJoh ann
ĠNash ville
ĠSquad ron
R ussian
T im
n amed
p ost
z ig
Ġf ract
Ġf ires
as hes
Ġm ask
Ġd rag
Ġon going
ĠK un
ĠSt re
ub es
Ġus age
Ġsc andal
ull ivan
ĠAb u
Ġparticip ating
ĠPan ama
h ausen
Ġt um
ic iency
ĠM ills
Ġal ien
ĠK rist
Ġmin eral
Ġvict im
ĠTw enty
Ġcontest ed
ĠIndust ry
onym ous
Ġswit ched
Ġing red
È Ļ
an ie
Ġo rient
Ġp anc
Ġm or
ĠS ad
ĠS ind
Ġh ide
Ġan nex
ĠE ld
Ġle agues
ĠSp irit
ĠAss istant
199 1
Ġcut ting
ĠCub an
ĠRay mond
Ġtick et
ĠBened ict
H y
k ar
ĠC and
ĠM D
Ġas c
ĠR alph
ĠG ang
ĠJ a
Ġex cess
Ġear ning
ĠAnd rÃ©
of en
ĠDel ta
ĠClass ic
Japan ese
A A
F ar
W ater
ĠHe in
ab ited
Ġcompet itive
Ġkill s
Ġsol ve
Ġer ror
ĠProfess ional
Ã´ te
utt le
Ġremain der
ĠSom me
Ġintegr ated
Ġapparent ly
Ġexcell ent
M iss
Ġc ricketer
ra h
end ers
Ġopen ly
Ġgu ar
Ġaff air
Ġpred ators
ĠChap el
ĠArmen ia
Ġrecomm end
ĠOrig inally
Ġl ibr
ĠY ok
Ġmin istry
Ġsign ature
Ġpartic le
Ġ187 5
Ġparticip ants
Ġbank rupt
Ġchalleng es
Ġattrib uted
ĠJama ica
b el
f ast
Ġc ave
ĠM ul
ĠB ranch
ur se
ĠF ull
op l
ĠE sc
Ġsh aped
Ġbre ath
isc her
ĠGl asgow
Ġ187 3
Ġmiss ed
Ġreve als
Ġlic ensed
Ġtherap y
ĠUtt ar
' ll
T E
c are
w ent
Ġ rib
Ġt anks
en o
Ġl oud
ĠI g
Ġpl ates
Ġab ilities
ĠY ale
Th at
Ar thur
Ġ188 2
Ġcop yright
Ġcoll apse
Ed ward
ĠHu gh
Ġanthe m
Ġprecip itation
6 00
K im
n ew
p el
Ġs ad
Ġp ap
ĠW ed
Ġv it
âĢ ľ
ĠAn y
Ġrece ives
Ġconne cting
Ġmanufact urer
Ġlay ers
vi ated
Ġâ Ĥ
atur ally
Ġtribut aries
isp here
Ġmos que
ĠClar ke
t el
ĠN ak
art a
ab s
ok ing
Ġgener ated
Ġbus es
Ġposs ibility
ĠRepublican s
Ġlab our
Ġesc ort
ĠJane iro
Ġwatch ing
Ġseek ing
p in
Ġa w
Ġc ock
it ially
Ġb ars
Ġal gebra
Ġcon fess
oot s
Ġam ph
Ġaut onomous
ott a
Ġelect ro
Ġhand le
Ġav o
Ġrul ers
Ġvol canic
ĠArt ist
Ġox ide
ĠJun ction
ĠHind i
ĠCy prus
Ġdiscuss ed
oca ust
ĠKash mir
C amp
m ail
v y
Ġo ct
il ton
land o
Ġcl ay
ah an
oy a
Ġsoc ieties
Ġ186 8
Ġreb ellion
Ġimm une
Ġmanufact ured
haw ks
Ġalgor ithm
Ġlin ear
G ar
c ill
l ived
Ġo v
il ian
ĠH at
ĠB uc
Ġg olf
ĠD ale
Ġde er
Ġsh ark
rit z
Ġwhe els
ĠSh ip
Ġask ing
Ġfund amental
Ġpred omin
ĠSom erset
Ġsac red
Ġvocal ist
ĠManu el
Ġpric es
Ġsubsidi ary
i ations
p iece
it able
ĠS art
ĠB es
ĠD rama
ĠL iga
ĠN ancy
ard y
ĠCh allenge
Ġmus cles
Ġcur rency
ĠAd v
Ġarr ives
leg raph
Ġdifficult y
Ġunderst ood
ĠFilip ino
" |
Ġd emocracy
ĠP ack
ĠP rest
ĠN y
aw i
gr and
Ġexper ts
Ġ185 9
Ġcreat or
ID S
ĠBrad ford
ĠFriend s
Ġ Ø
Ġt urt
ĠS V
Ġh a
ap a
ĠAmer icas
ult ane
ĠSe an
Ġterm inal
Ġautom atic
Ġbound aries
ĠInt elligence
rim ination
E st
h im
on ge
ĠC av
ĠY u
Ġgr ay
omet own
ĠSe oul
ĠPar amount
B ern
c z
l og
Ù Ħ
Ġ els
Ġm ail
ĠS z
ĠC os
Ġl ift
ĠH ir
ĠV ladimir
ĠUn it
ok ed
ook s
Ġatt ending
Ġfe e
Ġem igr
Ġsw ord
Ġtrib ute
Ġkeep s
Ġcompl icated
Jos Ã©
ĠFried rich
S ing
W ind
W ood
n an
s is
s ized
re ts
Ġs ending
Ġs odium
al og
Ġf ever
ĠC our
ĠM ust
Ġst eal
ag ram
Ġchar ter
Ġ187 9
ĠGeorg ian
Ġche ese
ĠScot ia
ĠBurn s
Ġstrateg ic
Ġels ewhere
H urricane
P ri
er i
ĠS ak
el ia
ĠM iy
ĠD iamond
ĠBl oom
Ġjoin s
ĠTe ch
Ġmonth ly
Ar ch
ĠPal mer
Ġlog o
Ġdepart ure
Ġlocomot ives
an j
ĠB un
ĠR ight
ĠV ent
Ġ18 40
Ġ186 7
Ġ187 8
Ġsust ain
Ġempt y
: //
H arry
L ee
V an
is ations
Ġb achelor
ĠS ug
ĠC ircle
ĠV aud
ang ular
Ġne arest
Ġinter pre
Ġmet er
ograph ics
ĠCy cl
Ġburn ing
Ġpup ils
ĠIndust rial
Ġprefer red
Ġfra ud
P ierre
b ey
Ġt one
Ġs izes
Ġh oney
st own
ĠB il
ut a
ac co
Ġwork sh
Ġserv ant
Ġlist en
ĠBar ack
Ġrad ical
Ġposs ession
Ġ186 6
ript ions
Ġseem ed
Ġprepar ation
Ġhosp itals
Ġre venge
ĠB ird
ce ived
ĠR uth
Ġcl an
yl um
Ġbr ands
Äģ n
ĠCa uc
ĠÅ ł
Ġfer til
Ġmerch ant
Ġmolec ular
M ain
Ñ Ĥ
Ġs au
Ġm ud
ent on
Ġg ymn
Ġg athered
ĠL omb
ĠJ e
ĠJ oint
ust ers
ight on
ĠAl z
Ġreported ly
ĠPe ak
Ġrespect ive
add y
Pop ulation
Ġcircum stances
Ġadmin istered
h orn
ĠP icture
Ġse al
ĠK aw
Ġex clud
Ġloc ally
Ġtrans c
Ġcur ve
Ġgener ations
ices ter
Ġgra ve
Ġcomplet ion
Ġemot ional
Ġb icy
om orph
Ġd olph
Ġd rove
ĠF un
ĠL ion
ĠSt rat
Ġover t
att y
Le ague
Ġgrand son
zy me
Te am
r us
ĠHe aven
ten se
ĠEuro vision
Ġsk et
Ġ186 9
Ġarr ive
198 7
ĠDr ive
Ġtravel ing
ĠCorn wall
Ġquarter back
Ġathlet ics
Ġdoub les
Ġsuppor ter
Alex ander
ĠEag les
Ġsubt ropical
H istor
i ors
Ġt iny
ol ics
ĠB og
et ary
Ġcon j
Ġcon son
ĠV e
ode on
Ġeff icient
ĠTr inity
ĠStud ents
Ġsudden ly
U N
el odeon
ri ke
ac a
ĠK ur
ew ay
ll a
ĠQ ing
Ġ11 0
ĠMc L
Ġclos ing
Ġhistor ically
Ġreal ized
ĠMag ic
Ġaccur ate
Ġveter an
Ġdispl ays
D F
L ake
Ä Ł
ĠC ant
st ed
ĠL ok
ĠL ah
oy s
Ġqu ad
Ġfin ance
Ġdr ives
Ġsix teen
Ġ187 2
Ġden omin
agon ist
Ġprogress ive
imens ional
Ġexclus ive
Ġflo ors
D ef
he y
Ġp ist
Ġm oral
ĠP av
ĠE ight
Ġstr ings
umb ai
ĠAnim ation
Ġimprison ed
h n
y stem
ĠS ent
Ġh orm
ĠH az
ĠJ ar
od ia
end um
Ġ187 7
ĠDes ert
Ġ185 7
Ġgraph ics
ĠGil bert
Ġterror ist
ĠGab riel
E s
Ġf asc
ĠT odd
ĠC ord
Ġst ones
ĠR aid
Ġunder t
Ġsub species
Ġmon itor
ĠBl ock
196 0
Ġmer c
Ġprem iere
Ġsn ake
ĠSystem s
Ġpurs ue
Ġf isher
Ġh ometown
Ġg host
th rough
ov anni
Ġk in
Ġinc umbent
ĠIndian apolis
Ġvis its
Ġdel ayed
Ġlaws uit
Ġfair ly
Ġrefere e
T er
X T
n ai
Ð º
ĠD in
ĠBe aut
Ġgu ests
Ġ188 3
bor g
ĠAp pe
Ġhard ware
mon ary
ĠOak land
Ġpredecess or
A v
d al
z z
ĠL em
ĠJ erem
ĠK ay
Ġr ic
ĠAr med
Ġout door
ĠCom edy
Ġ15 00
erg round
ple x
Ġcarri er
war f
Ġnob le
ĠBald win
M ag
T or
u ction
Ġb ab
ol an
Ġre ducing
ĠD et
ĠG ren
th al
ess a
Ġland fall
ĠGh ana
enes is
Ġprint ing
v ae
w alk
re is
ĠC ret
ĠH om
ĠG ay
Ġsh ipping
ĠPres byter
Ġcomplet ing
Ġsum m
Ġexhib itions
Ġbomb ing
ĠAh med
Ġprep are
ĠDig ital
C am
R ev
t ains
ĠB ak
ĠB ran
ĠP ir
ĠG P
ap pro
ric a
Ġmain stream
ĠCo le
Ġposs ess
Ġcivil ians
Ġexc av
Ġlabor atory
ĠPolit ical
L R
L y
ĠC ris
ĠR ica
Ġall ies
Ġpo le
Ġinf rastructure
ĠCap itol
ĠFer dinand
Ġinaug ural
Ġexpos ure
D is
F I
H z
S everal
h anded
on omy
nd ez
ĠM old
Ġth rew
id an
ĠL ak
ĠK ids
ĠRe ed
ĠCon struction
Ġphot ography
Ġadvert is
Ġwire less
B a
Ġs av
Ġn am
Ġg ift
ĠD S
ran o
ĠTh ai
Ġthan ks
Ġdev oted
Ġread ers
Ġliter ally
col span
Ġbeat en
ĠAbd ul
Ġdram atic
Sec ond
Ġnerv ous
A wards
F our
I M
Ġt ape
Ġw ish
st ract
ĠP ut
ĠG amb
ĠN ott
ant le
Ġgr amm
Ġext ent
Ġgu ards
198 8
Christ ian
Ġweaken ed
Ġheadquarter ed
B oth
Ġf ights
ĠH es
ĠFran z
br id
ĠFilm s
ĠTest ament
lar gest
ĠMeth od
f ront
l ist
m id
an ium
Ġg ap
Ġbe er
ĠL ov
all i
ĠK em
ĠK arn
ĠIn g
Ġmed ian
Ġexpl o
Ġinf ections
ĠStan ford
Ġconsum ption
Ġscholar ship
Ġdeleg ates
Ġwat ched
Ġannounce ment
ĠByz antine
D ay
Ġ urg
Ġt ip
in ite
Ġw elfare
ĠL ear
Ġy ield
Ġplay wright
Ġret reat
af e
Ġmass acre
Ġcut s
ĠHor se
Ġgeomet ry
ĠMoroc co
Ġdict ator
Ġhypothes is
d ig
á º
re ated
Ġin put
ĠM ut
all ing
ib ia
ĠRe f
Ġend angered
Ġdescrib ing
Ġ187 6
Ġcampaign s
Ġassist ed
F ort
J on
R ol
u il
in as
an z
Ġc ir
ĠA ube
am oto
ĠB aby
et z
ĠG y
ri er
ov an
ĠK in
ab we
Ġup coming
Ġrem ake
arch y
Ġcr uc
ĠEx per
Ġscreen play
ĠOt to
Ġexclus ively
ĠRoc he
ĠCirc uit
E conom
U r
g as
on te
at y
ic us
Ġd emocratic
ĠS ign
ĠW ang
Ġal umin
ight ing
ff ield
Ġinter act
Ġ185 4
ĠLiber ty
ĠNig erian
bro ok
roc od
Ġvent ure
ĠBuddh ism
Ġce ased
flow er
C urrent
S un
d isc
al g
ol ith
ĠB ey
ĠP ath
ir ts
ter bury
Ġcon clusion
Ġfound ers
ook ing
ĠPh D
Ġprogram mes
ĠMal ay
Ġachie vement
Ġdiscuss ion
Ġbul let
Ġportra it
C D
M oh
N ick
V ictor
c ap
o que
ĠM RT
ag le
Ġex ile
ĠSh iva
ll i
Ġcons cious
Ġsk ill
ĠAp ollo
Ġbroadcast s
G en
b in
Ġt ies
Ġs iege
Ġc avalry
Ġp ush
ct rine
ĠP and
ĠK ra
ĠK ane
Ġpro hib
Ġab olished
ĠCar son
Ġwar fare
Ġfact ories
Mar ie
Ġpromot ing
Ġinsp iration
Ġwa it
f ive
is ode
om ical
ĠA R
Ġl ady
ĠE ve
ĠO il
oc hem
ĠMar x
ĠAr senal
Ġout standing
ĠAn a
Ġhigh light
Ġsuccess ion
wh ite
Ġhom osexual
ĠEag le
Ġdismiss ed
ĠLithuan ia
A S
B as
c ock
j ection
ed ed
at che
Ġc ogn
ĠT all
ĠC ase
ĠC arn
ount ry
arri ed
ĠHol ocaust
ĠPal m
ĠSim ilar
Ġcirc ulation
ĠInter ior
ĠMat hemat
umber land
ĠProte ction
ĠChel sea
Ġaggreg ate
Ġdatab ase
( "
s ometimes
it udes
Ġf ab
ĠT ree
ĠF il
ĠL ock
ack ed
Ġab ortion
Ġen cl
Ġpopul ated
Ġtrans gender
ĠAd olf
Ġsim ultane
ĠCar r
Ġvar iation
Ġrest ricted
Ġdem ands
Ġphot o
imb abwe
Ġcelebr ation
Ġflood ing
Ġmoder ate
y ch
Ġw al
Ġp owder
el o
ĠB erm
Ġac ademy
Ġph arm
Ġbr ings
Ġbr igade
Ġcharacter istic
medi ate
Ġinterview s
Ġcomment ed
Ġaffili ated
ĠGust av
R I
n ut
on ial
al is
ĠH els
Ġth roat
ĠP ied
ul ating
au f
Ġvers e
198 6
ĠInter state
Ġlog ic
ĠTai pei
fort un
ĠNap les
ĠShort ly
Ġemph as
Ġdisband ed
h is
un ct
th ood
os ing
od or
Ġpopul ous
ĠRe ich
Ġrem ote
Ġmet als
Ġoper ational
ĠGu ide
gr oup
ĠEx change
An n
ĠPer th
ĠComp et
Ġless ons
Ġsex ually
Ġpract iced
Ġstorm s
Sm ith
R os
l ain
ĠB eth
ĠN ine
Ġcon ven
oc y
Ġpl acing
ĠAr d
au ge
ĠInd o
Ġpr ay
Ġed ges
Ġaff ord
ĠWith in
Ġrecogn ize
ĠSo ft
osaur us
ĠLy on
ĠWork ers
Ġconsum er
Ġvolunte ers
Ġregul ations
E lect
M as
er ic
Ġf ighters
ent o
ĠD rag
Ġch ore
ell es
cl iffe
Ġwhe at
act ic
au kee
Ġpre v
Ġlo op
Ġdecor ated
ĠMichel le
ĠCamer on
A rab
S ax
Ġg ran
Ġare na
ĠK ill
ĠCh ad
Ġsh apes
Ġen zyme
com mon
Ġlik es
Ġfamil iar
ĠHaw ks
ĠTy rol
Ġlegend ary
Ġinterpret ation
Ġdiab etes
b one
l ay
Ġin tense
Ġre nown
Ġbe aches
ber ger
if a
Ġpr onounced
mber g
Ġaut ob
Ġcr ust
rap ped
Ġcross es
Ġprob ability
Ġmanusc ript
Ġjurisd iction
b en
b ank
f irst
g io
g ren
Ġt ru
le z
Ġre pr
ĠH erm
th an
est y
Ġde als
per m
Ġfe els
ĠBe h
ĠEd mund
Al so
atter ed
ĠAv iation
ĠSus sex
ĠWat son
Ġrang ing
ibl ings
ĠCelt ic
Ġt ours
Ġt asks
st op
ĠI stanbul
Ġra ising
Ġtra its
Ġsy mp
stit uted
Ġvar iant
ĠMan it
ĠCo al
Ġvol t
ĠWith out
Ġequip ped
Ġcollabor ated
Ġseg ments
Ġpregn ancy
Ġmilit ia
ĠIsa ac
K e
al ysis
ĠT ir
il it
ĠM umbai
ĠH od
ĠR ice
ĠW ii
ri ft
ĠV end
amp ire
ond o
ĠY ellow
ĠShe p
ĠGr ade
Ġep ic
Ġlight s
Ġhon ors
Ġproper ly
Ġ185 6
ĠOs aka
Ġaltern ate
Ġwa iting
Ġrequest ed
ĠWell ington
Ġrespond ed
Ġdiscontin ued
K ar
N S
V P
Ġre ward
ĠD y
pl ed
ĠLe ft
Ġinter change
ĠX V
anc a
Ġz ones
Ġspok es
Ġ184 8
Ġassass ination
Ġdisappe ared
Work s
d rama
i ate
m unicip
ro oms
ĠG olf
ĠE RA
oc he
ount ain
Ġcomp ens
Ġra ced
Ġsup ern
arm s
Ġterm inus
Ġhost ing
mon ton
197 6
Ġvict ories
Ġpoll ution
E E
Ġd im
ĠH ope
ĠR ican
ĠN u
ab l
ĠNew port
ĠPl ains
ĠUS SR
198 4
ĠRh odes
Ġfort ress
ĠGer ald
Ġtrav elling
ĠUnd erground
rehens ive
A M
B rown
L u
d istrict
w en
om ers
ĠF ab
Ġch ronic
Ġ18 30
oin ted
ah i
Ġext end
Ġpet ition
Ġdiplom atic
Ġlocomot ive
Ġconce pts
ĠNapole on
G M
P e
V ol
Ġd iver
ĠL ions
ĠN athan
Ġher b
ĠRe y
Ġoper ator
ĠBr is
Ġsol itary
oph one
ĠChe ster
Ġemploy ment
Ġfle e
ĠAlz heimer
re ction
Ġb are
The ir
if ican
sh an
197 4
ĠJac ques
Ġconfl icts
Ġcounter part
ĠJoh annes
T op
Ġs ch
ar u
ĠM iguel
Ġn aturally
ĠN g
ĠW ells
ac ional
ĠO S
ok i
ĠShe ffield
ĠLe icester
Ġco aches
St ud
ĠPhil harm
198 5
iff s
Ad minist
Ġcomment ator
ĠAlger ia
w aukee
Ġw ard
ĠT roy
am y
ĠP ok
ĠR achel
th ree
ĠK or
ong s
Ġsub mitted
Ġ10 1
Ġrece ption
ĠSe ction
Ġorgan ism
Ġsurv ival
Fran cis
ĠSur rey
Ġdistinct ive
SCA R
m n
t z
w heel
Å Ľ
ar ance
ĠS yn
ĠC ond
am ation
air y
Th rough
Ch ild
Ġvar ies
Ġport s
Ġ187 4
Ġcond em
Ġcondu cting
Ġbur ial
Ġaccess ible
Ġdemon st
ĠTit ans
ĠJenn ifer
ĠPresbyter ian
U K
Ġn erve
ĠB od
Ġqu it
Ġnumber ed
ĠBr ig
Ġval uable
Ġlearn s
ĠTrans it
Ġsuper ior
ĠBrook s
ĠNorm andy
ĠEston ia
Ġsubstant ial
he nt
ol ine
ĠP os
ĠO ften
Ġcom ics
Ġr is
Ġpart ial
ph oon
Ġpres erve
Ġfilm ing
Ġrep ublic
ĠGe off
hy d
Ġsuper hero
col m
ĠVol leyball
Ġinstru ctions
M ir
U SA
p olit
ĠT ong
Ġl ie
ĠP i
un ning
Ġsub family
ĠCar roll
ĠHer o
Ġrefer endum
ux ili
ĠCath olics
Ġ185 8
Ġprop ag
Ġbor row
Ġadvis or
Ġneighbour ing
ĠProvin cial
ifican ce
F F
X X
w ord
y ers
ĠH ous
im m
im p
ĠF ra
av i
ph is
Ġim mun
Ġim perial
ĠDe uts
ĠPl ate
ĠAng ola
Ġtw inned
ĠPhil os
196 9
ĠLuc as
Ġneighbor ing
H ome
v as
Ġt ong
Ġp ill
ĠR ush
ĠL enn
Ġnot iced
Ġ3 60
Ġdis app
ple te
Ġep id
Ġequ ations
ÃŃ s
ĠFrank furt
Ġgrand mother
ĠTechn ical
Ġbass ist
ĠSpring field
7 00
c ourt
r ill
r ise
om ed
ch w
ly de
ĠD uc
ag ua
ĠTh under
ĠAr c
ah u
Ġlar vae
Ġend ors
me aning
Sc ott
ĠSat urn
Ġtheore tical
ĠHug o
M ax
in ement
Ġp orn
Ġp ump
ĠC ox
ĠC airo
ĠM orning
Ġst range
ĠR otten
ĠF uture
ĠD iet
ber n
ung le
gr im
Ġrefer ring
Ġtw ent
Ġconf ig
Ġstruct ural
Ġsus pected
Pr ince
Ġinse ct
ĠCraw ford
Ġnam ely
S ports
W Ã¼rttemberg
b ad
l ength
ed o
ĠM ult
ĠB ot
ur ring
ĠN as
est ed
Ġsh allow
Ġab und
Ġab oard
ik k
Ġcons pir
ĠCan terbury
for ced
ĠAir bus
Ġhot els
Ġdig it
Ġpil ots
Ġhabit ats
ĠReyn olds
ĠCret aceous
he ld
Ġto ys
ad ier
ĠB ord
ĠB ever
ay ette
ĠL akes
ĠW heel
any on
Ġkn ight
Ġac res
Ġrele asing
Ġrem ark
Ġvar iations
Ġcontin ent
Ġcor ps
Ġfre ed
rup ted
Ġvir uses
Ġprevent ed
Gr oup
Ã¢ te
Ġiniti ative
Ġchalleng ed
Ġarchae ological
s ub
at em
al bum
Ġf lex
Ġm ad
Ġto ler
ol ly
Ġj ack
âĢĿ ,
Ex amples
ĠMaur ice
ĠOw en
Ġconst ellation
ĠKazakh stan
Ġconvin ced
Ã¶p pen
Ġacknow led
E ven
H ouse
ĠS ask
ĠC ay
ĠF low
em e
Ġan th
Ġen rolled
20 20
Ġdep icted
Ġfe athers
Ġgovern ed
Ã¡ r
Ġput s
Ġel igible
Ġflow ering
ym es
ĠFern ando
ĠNott ingham
B attle
h as
p it
u ated
Ġ ib
Ġp ounds
ic ious
ĠT rent
Ġe y
th y
Ġdis agre
rib ution
ze gov
ĠSil va
ĠVer de
Ġrat ings
ĠGuard ian
ĠHaut s
Ġconvers ion
Ġintellect ual
ur ated
Ġsp ell
Ġunder graduate
Ġtr ig
let te
Ġtri o
ĠOs lo
Ġmuseum s
ĠBob by
Ġmagn et
Ġcooper ation
Ġru ins
ĠSupport ing
J eff
g ary
Ġb old
ĠC ategory
um ped
oc ity
Ġsec ured
ĠAn at
Ġshort ened
Ġgraph ic
ĠPhys ics
ĠAgric ulture
C ity
M att
v or
Ġs in
ĠR NA
ra wn
ard i
ĠV III
Ġsp y
Ġdist urb
Ġrel ocated
Ġmin erals
Ch inese
198 3
Ġ185 5
Ġaud iences
sw ick
Ġimm igration
ĠTw itter
ĠBal let
< /
Ġs iblings
Ġh unt
ĠA my
ĠM oney
Ġn aming
im en
and ro
ne ver
Ġdis orders
Ġpres c
ĠZ ur
ax ies
ĠNorth west
ĠCo hen
reg ular
ĠComp uter
Ġtechn ologies
Ġengine ers
Ġgradu ation
ĠMunicip al
ĠLin ux
Ġclimb ing
ĠRav ens
ĠMerc ury
ĠâĤ ¬
C oll
t or
Ġc osm
ĠT ues
ir atory
and in
ag ger
ub ble
Ġcl uster
Ġdist inction
ĠGr ound
Ġtop ic
Ġrest oration
ĠCo ach
Ġindepend ently
Ġtar gets
ĠAlexand ria
Ġaffili ate
Ġvul ner
I l
T ropical
ed ge
ĠC ore
ĠM ale
art ed
urs day
Ġhous ed
Ġball ot
ĠDun can
Ġatom ic
ĠMach ine
Ġaware ness
S en
T w
h l
n am
z an
Ġc er
ĠS ang
Ġh ind
ĠT ampa
ĠM ath
ĠM ouse
Ġre pt
us ually
ĠL ess
ric ia
ib ilities
ĠCom merce
ĠPol icy
197 7
Ġattempt ing
Ġdifficult ies
ĠNick elodeon
ĠLabor atory
Ġtheat rical
Ġcollaps ed
zegov ina
P o
g art
as aki
Ġb rew
Ġm ast
ĠB et
ĠP S
Ġqu ar
Ġend emic
Ġman ages
Ġfall en
ĠEs s
Ġmechan ics
Ġancest ors
Ġprofession als
Ġrecip ient
H ans
Ġ ),
Ġa ims
Ġf iring
il ogy
ĠH omer
ig ion
ish ops
ild a
pt on
Ġpol ar
az ar
Ġdesign ation
ĠComp an
Ġdest ination
Ġreb els
ĠBud apest
Ġpione er
Ġsurre nder
R og
V ar
à ¹
Ġs amples
Ġb alls
ĠC oun
Ġn ar
ĠNew castle
ĠZ imbabwe
Ġno ise
ĠPr ison
Ġdisc rimination
Ġcar b
ator ial
Ġstrong est
iab ility
Ġgall ery
Ġupd ated
oust ic
Ġextens ively
Ġrenown ed
Ġt ag
ĠM ix
ad h
ĠR ams
th s
ĠO st
Ġch im
Ġex ceed
Ġun ited
ens en
ĠMar in
rib le
Ġinter face
Ġmet ro
Ġent hus
Ġvar ied
ĠOr lando
ĠEd monton
Ġav iation
Re ception
Ġpsych iat
ĠTy pe
Ġcam eras
ĠLat via
Ġimplement ed
ĠFac ulty
ĠHispan ic
ĠManit oba
j ud
Ġs or
at as
Ġb inary
Ġl ux
Ġg rain
ut ors
ap ing
Ġfl ies
uss ion
erv ing
Ġacc ord
Ġorgan isations
Ġaut umn
Ġresp iratory
ĠBlack hawks
ĠOut standing
bu ilding
Ġdemonstr ated
Ġrefuge es
Ġere cted
Ġhorizont al
M odern
N ow
W here
in ja
on n
Ġl ap
ĠM S
Ġst eep
rit ion
iz ations
red ited
Ch icago
Ġgen res
Ġshould er
unt ary
ĠBas il
ĠLiber ation
Ġlif estyle
ĠMas ters
Ġveget ables
ĠLaur a
Ġmemb rane
O ber
i ated
Ġc raft
Ġb onds
ĠA ber
am med
Ġg ent
Ġsc ales
che z
Ġext ends
ĠBr id
Ġdisc overs
ĠWe ather
Ġmeas uring
ĠTom atoes
Ġsem if
Ġbox ing
ĠSol ar
ĠNA TO
Ġperman ently
Ġancest or
Ġillust rated
ĠMalt a
Ġmo ist
Ġtempor arily
ĠPied mont
F inal
in ery
Ġb ell
Ġto ll
Ġst olen
qu in
ie ve
ĠV ery
Ġun ex
Ġrec overy
ĠSh im
Ġfl ank
lev ard
ĠX ia
Ġspecial ist
ĠProv ence
ĠMil waukee
ĠRail ways
Ġimpro vements
ĠNA SCAR
Ġnucle us
Dem ographics
ĠGoth ic
Ġprest igious
ing ers
ĠM iddles
Ġre duction
ĠB M
ĠP ab
em i
ĠD oll
um er
Ġv ector
land ers
und a
Ġbu ff
emb le
Ġsur prise
ĠOr iginal
ĠColle ction
ĠGar c
ĠAv iv
Ġdecre ased
Ġcompar ison
Ġsubmar ine
ansk rit
H C
I F
ĠC u
ĠI sh
ĠB ag
ir ie
Ġal ter
ĠE c
ri o
ĠK ang
ap or
ub b
Ġch ocolate
ast ics
ĠTh ames
ect s
Ġover th
Ġbro w
ink i
aff e
197 2
ĠJust in
ĠRo om
Ġblock ed
Ġelev ated
ĠGib son
ĠCzechosl ovakia
D ie
R oyal
f i
n on
v ik
z ed
Ġd orm
ĠT ab
el ong
ur ai
em ed
ian e
ib al
ĠSh ield
Ġbl og
Ġappro aches
Ġcor poration
Ġpost s
ĠAp ost
ĠArt ists
year s
197 3
ĠTri p
Ġconcern ing
ĠGard ens
Mic hel
Ġcoun sel
Ġvow el
C op
G N
R et
ĠR af
em ploy
Ġv ag
att a
ĠHer zegovina
Ġrefer ences
ĠBel ize
Ġobs ervation
Ġconsist ent
ĠSur vey
ĠGal axy
Ġautom atically
ĠCard iff
Ġpack age
Ġreform s
Ġsail ing
ĠPalest inian
Ġvirt ual
Ġnarr ative
Que en
Ġd ust
ĠA w
Ġth or
ĠF at
ĠD ata
ĠCol ony
Ġam endment
Ġrep ubl
fl ies
Ġhapp ening
Ġinvol ve
ĠRod rig
ĠStra it
ĠPrim ary
C ons
E M
Ġw itch
Ġs its
Ġs ends
ĠP Ã©
ot ing
ri um
ab lished
Ġsp elling
ae k
Ġvar ieties
Ġsol utions
Ġfriend ship
Ġfre estyle
Ġspace craft
ĠMic key
Ġexhib ited
Ġunivers al
Ġdecre ase
boy s
Ġhelic opter
y g
ĠA aron
el ing
ĠM obile
ĠP or
Ġk ids
ok o
ĠTh om
Ġra id
fore st
Ġest imate
Ġpresident s
Ġreport ing
mun ition
Ġresear cher
Ġquant um
ĠCamer oon
ĠConstant ine
Ġphenomen on
ĠT yler
am ma
Ġth rown
ig ne
ĠD aw
ĠL oren
th is
ĠJ ak
ĠW orth
um ble
end e
Ġinter action
Ġsur ve
ĠEurope ans
ĠGu j
Ġpass ion
ĠAir ways
ĠAnd ers
spe ed
ĠFour th
Ġreserv es
H ung
O R
l oo
ĠC anton
ĠM is
Ġbe ars
ri ans
if ier
ear ing
ok ia
te am
ick ing
Ġrel ay
rest rial
Ġtri ple
Ġadminist rator
Ġaccident ally
ĠTri ple
ipe g
Ġgal axies
ĠBrun swick
elect ric
Ġenforce ment
h t
Ġt une
ĠS iber
ĠA S
ĠL il
Ġit em
ip her
Ġsc ope
Ġsp an
aid en
Ġactiv ists
isc opal
off icial
viron ments
Ġobject ive
Ġcontract s
Ġsum mers
Ġcust omer
Ġdeliver y
ĠCard inal
ĠAh mad
Ant on
ĠWed nes
L os
j oin
en za
ĠT oul
Ġhe ter
ia z
Ġsign ificance
ĠVal ent
Ġdocument ed
ĠSher man
Cent ral
Ġnegoti ations
ĠCrit ics
B u
Ġt ight
ed i
Ġc rocod
Ġp el
Ġhe nce
ĠK ab
ip el
âĢ ¢
Ġ3 50
Ġcent res
ĠMay a
ctor ate
ĠSc ar
Ġmet re
197 9
Com p
Ġdeal ing
Ġbomb s
uy eh
Ġsusp ension
Ġiniti ated
ĠTan z
Ġinvent or
Ġsurre ndered
F ur
s al
Ġthe aters
is se
it imate
Ġf a
ond a
Ġind oor
ĠSw an
ĠMe g
ĠCarol ine
Ġacqu isition
ĠBor is
Ġconsult ant
Ġsed iment
ĠShir ley
' d
G S
an che
Ġc ater
Ġfor b
id ian
ĠL ucky
oin ts
Ġreg ister
Ġman if
ĠDay ton
sequ ently
Ġpay ment
ĠConf ederation
Ġhop ed
ikh ail
Ġdepart ed
Ġcasual ties
P et
in h
ĠC ov
am ar
ĠH ass
Ġon wards
Ġch ron
ke ys
ĠMar qu
Ġshe et
arri age
co le
ĠPort s
Ġsepar ation
Ġterrit orial
ĠLes lie
Ġax is
ĠTransport ation
Ġremov al
Ġabbre viated
ĠFace book
C as
N ic
O per
P R
a um
b rit
c ard
Ġw ool
Ġn oun
ĠB ooth
Ġcan on
ĠCon n
Ġacc um
ĠMus ical
Ġcommun icate
ĠX I
Ġcompos itions
Ġarr iving
Ġhard er
Ġver b
Ġmolec ule
Ġclin ical
Ġtow ers
ĠLis bon
ĠPhilharm onic
f r
h alf
or ig
Ġin land
Ġc ad
Ġp ent
ĠA ra
Ġl ying
op ened
ĠSt age
Ġper m
uss els
ĠCon st
Ġhand ed
Ġappro ached
196 7
Ġneigh b
Ġmagn itude
ĠBa iley
Ġhol y
Ġsac rif
ĠGriff ith
municip ality
A sh
D er
P V
g ang
h ow
m ons
s un
Î ¿
he e
ic z
ĠS O
ĠC ou
Ġas pect
ĠN umber
ĠV Ã¤
ĠV oice
ĠDe cl
ĠBrit t
Ġgovern ing
Ġdevelop er
fl ix
Ã¶ l
ĠSen ators
Ġpat ri
mon th
ĠRock y
Ġdial ogue
Ġvolt age
i Ã³n
m ath
Ġt rick
ar ians
Ġf atal
Ġp ara
ĠM ing
ĠL Ã©
Ġpro l
Ġr ises
ĠMar ion
Ġro ster
Ã© mon
ram id
oth ing
Ġfe eding
ĠCon stitutional
rew s
Ġrev ival
Ġevery day
Ġpat rol
ĠTur in
Ġpri ests
ĠGreat est
197 5
196 6
ĠMos es
Ġdraw ings
Ab d
Ġmeasure ment
ĠBru ins
Ġgrav ity
Ġphilanthrop ist
D I
H am
P an
l ast
w al
ĠT ian
ĠH IV
Ġg ases
ip zig
ĠCh ron
we ek
Ġen vironments
erg us
198 1
198 2
Ġpers pective
Ġconcent rated
Ġserious ly
Ġdialect s
D ue
b as
Ġp uzz
ĠT ax
am en
ĠM ull
ĠH ur
ch ard
her d
ĠD oc
ĠV II
ack er
Ġcan cel
ph an
ern ess
Ġass um
ĠCal gary
Ġleg ally
anc ers
ĠSl am
ĠTra vel
ĠHel ena
Ġsulf ur
Ġconvent ional
c s
i ya
Ġ à¤
is abeth
Ġf itted
Ġm ature
ĠC ort
Ġl ord
ĠM ats
ĠB agh
ĠF ul
ĠD est
ra cks
ĠDe h
ale y
ĠSc reen
ĠAd miral
ek a
ps ons
An ne
Ġlim estone
Ġdi ocese
Ġ185 3
Ġmem or
Ġachie vements
Ġaffect s
Ġinvestig ate
Ġestablish ing
Ġcorrespond ing
Ġster e
ĠMaced onia
ĠSic ily
ĠTeh ran
h all
y u
Ġc ens
Ġh atch
ĠH iro
im ony
ĠV iew
are l
Ġac ids
Ġreg ist
Ġrev olt
Le on
Am ong
Ġcart oons
Ġmyster ious
Ã °
ĠH off
ĠP om
ĠR iv
ĠF BI
Ġan ten
ĠK ol
Ġser ver
ob s
Ġspe eds
uff y
Ġpar ad
Ġdem anded
Un iversity
ih ar
wa it
ĠNik ol
e i
p us
ĠS K
ĠS ep
Ġl iv
Ġl ighter
Ġg aining
ĠF uk
ĠG ael
ĠIn v
ass ium
port ed
Ġdifferent ly
Ġ13 0
ĠEx pl
Ġcoll ision
Ġ185 1
Ġemploy ee
Ġord ained
Ġmyster y
Ġdinosaur s
g overnment
h istor
or is
ĠS ullivan
ĠT erm
un ar
ul in
Ġle ts
ck er
ern er
Ġadd ressed
Ġdirect ing
Pro v
Ġdoctor ate
Ġcoin c
cos ystem
ĠLanc aster
ĠHop kins
H F
u o
Ġt ables
ar g
ĠS ag
ĠS of
Ġn avy
ĠW atch
av in
ĠK urt
Ġpro x
ĠSt ore
ne ys
Ġper mitted
Ġdist ances
Ġpar am
Ġhold er
Ġwid th
Ġliter acy
ĠMem phis
ĠNot able
ĠHistor ical
Ġsuppl ied
Ġunc ertain
Trans port
ĠKum ar
D ist
l io
m al
ĠC ool
ra ge
Ġcom ments
ĠCh al
aj o
Ġtr ump
ĠCl aud
ific ate
ys c
Ġcur ric
ator ies
aur us
Ġfact s
ĠArab ian
Ġsil k
Ġbox er
Ġinstru ction
Ġrepeated ly
ivor ous
Ġanch or
R om
o ibi
ĠB orn
Ġfor th
ĠG iro
ĠO ct
pe ople
ĠSt ill
Ġpr ayer
ĠQ ual
Ġrun ners
van ced
ĠPar agu
Ġprom in
Ġcandid acy
Ġfar mer
Ġjournal ists
Ġge ographical
Is lam
Ġmotor cycle
Ġaccomp any
Ġaster oid
ĠFif th
ĠSebast ian
ĠBerm uda
uxili ary
2 50
H ot
i ast
s l
Ġc rack
Ġp in
ĠT R
iv ors
ĠD ew
ĠD uck
ri en
ĠK w
sh aw
Ġcol ored
Ġsy ll
rat ors
St ate
ĠAll ies
Ġstat ements
ĠAnt i
iction ary
Ġmem oir
Ġcard inal
ĠAlb any
Ġsust ained
V ir
s pring
Ù Ĩ
re cht
en ic
Ġm elt
ĠS ikh
ĠH BO
ĠB etty
av irus
ass es
Ġj et
Ġmet ab
pro duced
ĠGu atem
umb o
Ġhand ling
ĠAc adem
Ġbact er
Ġfemin ist
i ott
Ġt ap
Ġt ale
is an
is le
Ġf erry
om ic
ro zen
ĠM C
ĠM ang
ĠM ade
ĠM Ã©
ir ms
ĠF aith
em ia
ĠN S
te chn
Ġreg ulation
ik es
enn ium
Ġqu art
ash ire
ĠSouth west
Ġpo ets
Ġexpl ore
Ġpat ent
Ġpri zes
Ġred es
Ġinh abited
Ġmur ders
sec ond
Ġmanufact urers
ĠCard inals
Ġshr ine
enh agen
Ġinstall ation
ĠObs ervatory
Ġupgr aded
Ġexplan ation
ĠTues day
F ore
L ive
f ilm
h urst
ĠI T
ad t
ĠHe ath
ere k
ĠV il
Ġab stract
ĠY a
ĠSc ots
Ġstat istical
Ġfail ing
ĠBas in
Ġhar vest
ĠEll en
Ġfocus ing
ĠKy oto
zh ou
Ġobserv ations
Ġsubst ances
ĠPrinc eton
Ġessential ly
ĠZur ich
) ".
H ere
g ard
ĠS old
im i
ĠF ish
ver ted
Ġcomp iled
Ġcl ergy
ĠEm ma
Ġpur ple
Ġarg ue
Ġproced ure
Ġsubdivision s
ĠBris bane
ĠGarc ÃŃa
S ometimes
b eck
d ays
Ġs oph
Ġm igration
ĠM oor
ct ica
ce eds
im mer
ĠR ut
Ġse as
ĠK i
Ġle ather
Ġ10 5
Ġam munition
Ġany where
Sh ort
Ġfac ilit
196 8
Ġboard s
Ġabs olute
Ġfoot age
ĠHy d
ĠDor othy
Ġbatter ies
Ġlung s
Ġcod ice
Ġtorped o
C Ã´te
o ids
Ġw ound
al om
Ġb otan
Ġd rown
ĠT alk
ĠI b
ĠG ener
ain es
Ġk nee
Ġex ha
In c
ug a
ĠAl berto
Ġgr ants
Ġair ing
ĠDep uties
Bl ood
head ed
Ġconstant ly
Ġdepend ent
Ġshel ter
Ġnit rogen
Ġpul monary
Ġninet eenth
Ġbon us
Ġorient ation
k ers
r ÃŃ
ent ry
ad ows
ĠP owell
Ġg auge
up iter
orm al
Ġrec alled
rib e
ĠAss y
Ġtri angle
Ġexpl orer
ĠGl enn
Ġcontrib uting
urric anes
Ad d
agon al
unc iation
Az ur
Polit ical
Ġcompris es
ĠEug ene
Ġlibr aries
' )
B al
M ike
m ud
in j
Ġf ulf
Ġp od
Ġd warf
ĠS P
ĠH ood
et us
ur an
ĠL ig
if ford
ak k
ĠLe ipzig
ros cop
Ġman ip
ĠCal vin
St an
Ġsuff er
Ġpark ing
Ġcirc ular
ĠPan zer
Ġsn akes
ĠCorn ell
ĠGh ost
ĠBed ford
quir y
A ut
f iction
at to
ĠS ever
ĠB ark
ĠR oth
ĠK as
Ġr ider
ĠV all
ater al
Ġen h
ĠLe ad
20 21
erm ark
Ġsy mm
Ġop ens
Ġtr ucks
Ġdef ine
Ġeng agement
ĠMc Donald
Ġref uses
writ ing
Ġimpro vement
ĠCons ervation
Ġarg ues
ĠHa iti
Ġlay out
ĠGree ks
ĠTaiwan ese
Ġpup pet
Ġspect rum
Ġmaintain ing
Ġbeet les
ĠJerem y
A R
N T
O L
m akers
Ù ħ
Ġs aint
Ġin stitute
Ġhe ated
ate ver
Ġch icken
Ġab d
Ġthere after
Ã© m
Ġspec imens
Ġ14 0
Ġpe er
Ġround ed
ĠFin als
Ġstri ker
Ġexhib it
Ã§ a
ĠPop ular
found land
Ġimplement ation
run ning
Ġfavour ite
ĠAdvent ures
Ġalleg ations
Ġkit chen
ĠGand hi
Ġtwent ieth
A ct
D ev
c or
c ular
d imensional
h ang
s outh
Ġp ine
ĠA ub
Ġe ats
Ġan at
ri fic
qu et
end orf
ass er
ĠMar tha
Ġper former
Ġ9 00
arn er
ĠPl aza
ĠBr as
ĠOr d
ĠGu ang
amb o
Ġtri ps
ĠMon ica
Ġdel iber
ĠAp pl
Ġcivil ization
ĠVo iv
ĠNet flix
Ġdiscip line
ozo ic
Ġtong ue
P a
v ideo
Ġs ax
ed ar
Ġf o
ĠC lement
st a
ĠM ik
ĠB ast
ist le
Ġra pe
Ġdr unk
ĠBr ussels
ĠTr ad
ope z
Ġlab els
back s
Ph ilip
Ġrom ance
Ġsculpt or
ĠChen nai
Ġpros per
Step hen
b ot
d ire
s ix
Ġc uis
ĠS pl
ĠA B
il ion
ad p
ĠR oh
Ġr ally
og g
form ing
On ce
ĠCanad iens
ĠMe ite
Ġpriv ately
Wh o
ĠCons erv
Pro duction
ĠKn ights
ĠJul ia
ĠMir anda
Ġathlet ic
Ġfram ework
ĠSloven ia
brit ies
P ac
R am
S us
en ov
Ġl oves
ĠF ig
ĠD ow
ĠL eop
ĠN atal
od ing
oc ide
ĠY onne
Ġag gressive
Ġres id
ks and
ĠSh adow
Ġret ain
Ġmed ic
ĠBl air
St ory
de en
Ġapp rent
Ġel abor
Ġhy brid
ĠRichard son
Ġcreat ures
ĠHawai ian
Ġlect ures
ĠUg anda
ĠVern on
g ence
as ma
Ġto b
Ġh ub
ĠC reat
Ġre ef
ch y
ĠN uclear
ĠTh ir
ib an
aus s
Ġrele vant
uck er
odes hip
Ġbi ography
Ġtransl ator
Ġpred ict
Ġanal og
ĠLind a
Ġreserv oir
Ġrub ber
ipel ago
C S
m od
Å Ļ
Ġf ault
ĠH alf
ist oc
ul ations
art e
ĠV at
ne z
Ġ18 12
Ġup set
Ġra w
Ġdist ant
Ġtr adem
Ġint ellig
itte es
Ġtrib al
ĠSim psons
ĠJul ie
Ġri ots
Ġcry pt
Ġlect urer
Us es
Ġemph asis
fortun ately
c in
ã Ģ
in ts
Ġb er
Ġm ice
ou cester
Ġh itting
am ine
ĠB elf
ĠL iv
ĠJ en
ak o
Ġr ivals
qu al
ne apolis
Ġsk ier
Ġperform ers
Ġsw orn
Ġconf inement
Ġpay ing
ĠGi ovanni
Ã ²
ĠH ann
ĠB ears
ĠD im
op ing
so on
Ġ3 000
Ġsc hem
ĠSh ore
Ġcolle agues
Ġeff iciency
Ġsocial ist
ĠBur ton
ĠCont inental
Ġopt ions
Ġteach ings
ĠLanc ashire
ĠTasman ia
ĠWinn ipeg
Ġbicy cle
Ġsimultane ously
ĠVend Ã©e
M id
h art
m ember
Ġt et
Ġt un
he a
ĠM Äģ
Ġg arrison
ĠU z
Ġpres ents
arri e
Ġsm oke
ett es
ĠEd ition
197 1
Ġagre es
ĠKenn eth
Ġtarget ed
Ġdoll ar
Ġrenew ed
Ġles bian
O ff
p ression
w ings
ar am
om atic
iv o
ter ior
ĠD ob
Ġsh ots
Ġy ard
ĠTh ursday
Ġyear ly
br ates
Ġorgan ize
197 8
Ġtro phy
Ġestim ates
Ġautom obile
ĠEll is
Ġtransform ed
Ġinfect ed
B on
g ment
an or
Ġc a
ĠS et
ĠW here
Ġal k
Ġcon ve
Ġind eed
ĠPr ivate
rat ic
Ã¡ ndez
umb ria
ĠMon ten
ĠBer k
196 4
ĠLeg ion
Ġbatt ing
Ġham let
ĠSaf ety
ĠTrin idad
G al
V A
e a
ĠT ru
im an
ĠG et
ĠSt alin
ater n
ĠMar ÃŃa
ĠNew foundland
olog ically
Ġext inction
ĠPark s
ĠMinister s
Ġbroad caster
ĠBC E
ĠIraq i
Ġven ues
ĠArm strong
Ġshell s
Ġvel ocity
ĠCurrent ly
A le
W all
W ashington
a ft
r ous
t le
Ã ½
Ġthe ology
Ġp ub
ĠA T
ĠL und
oc o
Ġ18 37
ĠAr chie
Ġdis abled
ĠEd gar
uk h
Ar r
Ġthough ts
Ġprot otype
Ġsecret ly
ĠBol ivia
ĠHard y
ĠEnt ry
Ġrecru ited
F ilm
P ost
Ġh ier
ad ia
un o
Ġr idge
Ġun con
Ġcl ient
Ġsec ular
Ġdo zen
Ġpubl ish
Ġsup plement
Ġfilm maker
Ġactiv ely
ius ep
ĠSant o
ĠArch ae
sw orth
Ġrevolution ary
ĠMoz art
Ġdischar ge
Ġben ch
B us
F er
c io
c ope
l ore
Ġ å
Ġd iversity
ĠT ennis
ĠH ok
ĠL A
ain te
Ġex chang
ĠLe af
Ġunder went
Ġ16 0
Ġdevelop ers
Ġcolle cting
Ã¼ ck
ĠEx pedition
ĠMil es
asc ar
ĠJul ius
ingu ished
Ġspons or
Ġfresh water
ĠDra ke
K en
c ity
l Ã©
Ġt ent
ĠM oss
ĠP ere
ĠW i
ĠW u
ĠW ool
all a
ard ed
Ġte aches
red it
ĠCol in
ĠCl aude
Ġgovern ors
ades hi
ĠHol mes
Ġmar g
Ġins pe
ĠGovernor ate
Ġstri pes
Ġkey s
ĠPet e
Ġcelebr ity
Ġmotor way
Ġsport ing
Ġsens itive
Ġinaug uration
Ġwheel chair
Ġneighbour hood
I L
K al
f ootball
l ov
r ary
en cia
it ely
ĠS anskrit
Ġv oyage
ĠAl pes
ĠMar ian
ĠSh aron
ĠSc andin
Ġart work
erv ille
Ġtop ped
ĠChar ter
Ġjournal ism
Ġbank ing
ras er
ĠLuc y
ĠVen us
Ġrob ot
Ġattend ance
Ġdoub t
Ġconqu est
Ġvolunte er
ĠWrit ers
ĠChem istry
Ġdeploy ed
olith ic
ĠWednes day
L ondon
O h
S el
V B
f ix
á ¸
st roke
Ġg re
Ġst ake
and e
est e
Ġv ine
ind ers
ĠPro p
Ġperform s
ĠQu arter
Mar io
Ġfunction al
El izabeth
ĠBeng ali
Ġencoura ge
Ġhang ing
ĠMong olia
Pri or
c ourse
d aughter
p resident
v ine
y ll
ĠT ud
ĠP iet
ĠJ ake
um ph
ĠO g
ĠCh a
ath am
Ġsp ider
che m
ĠZ ion
Ġwill ing
He ad
Ġint ensity
Ġcompet itors
Ġrev ised
ĠAnd roid
Ġequ ally
ÃŃ o
ĠEm ily
field s
Ġge ography
Ġmanu al
Ġille g
Ġâ ĪĴ
Ġopin ions
ĠBou levard
ĠCart oon
ĠCry stal
ĠFurther more
ĠAntar ctica
Ġtob acco
W C
ic on
ĠA ri
Ġl ens
et hel
Ġg ifts
ĠD iana
ĠJ ura
Ġby pass
ver age
ost a
Ġprov en
Ġmet eor
Ġent ity
Ġmon uments
ĠPres idency
ĠCont emporary
Ġopt im
Not es
ĠMong ol
Ġvacc ine
Ġsau ce
Ġbab ies
Ġconspir acy
Ġib n
N FL
f ried
q i
r ison
or ient
Ġf itness
ĠS ox
ĠF uj
pe z
ĠIn s
ĠV iv
ling en
ĠMe h
Ġcrit eria
ĠGl oucester
Ġplant ed
Ġhospital ized
And rew
Ġcycl ist
ĠBah rain
sm ith
Ġrepro duction
Ġcrown ed
ĠWarri ors
ĠKoh gil
Ġmasc ot
ĠKohgil uyeh
İ le
or ian
Ġm ansion
ĠS under
ad ays
Ġg ast
ĠR if
ĠG el
ud i
ass y
Ġhigh ways
ĠEuro pa
Ġext ending
Ġsk ysc
que z
Ġdel ay
ĠTur ks
Ġnation wide
SP N
Ġrevers e
ĠWarri or
ĠKham ba
ĠHig her
Ġingred ients
ĠHels inki
Sax on
A k
W estern
b oth
m ay
le um
ĠB ash
ĠD ynam
ĠW as
ĠE b
av or
Ġres umed
Ġcent im
ins k
Ġcount s
Ġback ing
Ġsl opes
sc reen
Ġconf idence
ĠKh al
Ġremov ing
ĠLud wig
Ġamph ib
O M
b est
Ġe cosystem
ut i
her ry
ĠD uchy
ĠSt rong
Ġland sc
Ġauthor ized
off s
ĠEll iott
Ġdepos its
"| -
! ".
l ate
m el
Î ½
ar b
ar re
it ches
Ġm ouse
Ġh iding
Ġl ip
us hes
ĠF ergus
Ġk iss
ĠV it
ob ia
Ġear s
Ġdec ay
Ġbus h
Ġvill ain
ĠSl ovakia
umn i
Ġi P
ĠJes se
Can ada
Ġteen age
Ġmonarch y
ĠAgain st
ĠBron x
Ġpredomin antly
G reg
L S
p ie
z el
Ġt ough
ic i
ch urch
ĠK re
Ġex it
Ġcomp at
Ġsub urban
Ġinter se
Ġmon ster
Ġmat rix
com pass
Amer ica
Ġsurv ivors
Ġpast or
Ġ184 9
Ġeditor ial
Ġcle ared
Ġattra ctions
ĠCatal onia
ĠErn st
ĠThrough out
Ġabsor bed
ĠLib ya
Ġchlor ide
ĠTunis ia
Ġcir cles
ĠVoiv odeship
ĠMeite i
M ean
h ou
er ver
Ġin mates
ĠT ip
ĠH aving
Ġst aged
ish na
Ġle ap
ord inary
Ġres pected
Ġcent ered
ĠCom b
Ġrel ating
Ġhuman ity
Ġconf ront
Ġreview ed
bra him
onom ic
Ġjump ing
ww w
ĠOcc itan
Ġdemonst ration
"|- ||
d ing
s sel
or gh
or ious
ar ra
Ġb ag
Ġb apt
ĠH aven
Ġst rat
ke es
Ġsc ar
ĠAll an
Ġpost hum
Ġclos ure
ĠBry an
Ġorche str
Ġcalc ium
Y ear
in yl
ĠM am
Ġn aked
ĠH D
Ġan x
Ġch orus
ure mberg
sh ore
Ġgr ades
Ġmon ks
ĠSw im
Ġstation ed
Ġline up
Ġtw ins
Ġconf usion
ĠMil ton
ĠDou g
ĠWood s
Ġpra ise
Ġspot ted
iform es
ĠColomb ian
Ġrein force
R od
g uez
an an
it ational
Ġp ep
ĠB ren
op atra
ĠY ard
ĠSe v
Ġterm in
ĠEd win
Ġwin ters
Ġstri king
196 3
Ġche ap
Ġcele brities
Ġ184 4
Ġpal m
ĠCop enhagen
ĠAndrew s
Ġadj ust
ĠAst ron
Ġdistingu ish
Ġimpress ive
atche wan
ĠCompet ition
B rian
O t
S on
T win
c us
r il
Ġs hed
at u
as se
Ġd ys
ĠP M
Ġhe ating
ĠE lement
ri ka
ment ed
Ġev alu
pr int
Ġtra ct
Ġsever ely
Ġnational ly
ĠBl u
Ġdr inks
Ch ief
Ch ris
Ġexp elled
ij a
be at
196 5
Ġcompan ion
Ġshoot er
ĠWal sh
ĠBo hem
ĠSol omon
Ġsal ary
Ġflood s
Ġtim ber
ĠPlan et
ĠWes ley
Ġerupt ion
Ġbankrupt cy
Ġfab ric
E F
J ud
O ur
W ild
c ific
c ussion
p ot
ĠS ap
em on
ĠD ame
ĠY emen
iss ions
Ġper ceived
ook er
Ġne ur
ĠZ oo
Ġass ists
On ly
ĠCal der
Ġpriv ile
Ġ185 2
ĠLeg end
ĠEs per
ĠAut o
ĠUs ing
Ġwild life
ĠOp position
Ġteen ager
Ġrot ation
Ġveget ation
ĠConstant in
Ġtrap ped
Ġtact ics
Ġfurn iture
J oe
O x
S atur
U ntil
at aka
ĠA chie
ĠB ronze
Ġfor cing
ĠN ame
Ġal gae
ew ard
ĠCh i
Ġcl ients
Ġcons olid
Ġdire ctions
velop ed
ys ical
ĠMin neapolis
ush ima
Ġel ite
Ġbox es
Ġprin cess
Ġess ays
Ste ve
ĠBrad ley
Ty pes
ĠMarc us
ĠNever theless
N a
R em
l ights
p ubl
w rote
an mar
Ġp ipe
ic ity
Ġm orph
am ic
ĠH MS
ĠB AF
ĠR i
ĠF erry
ĠD rew
ĠG as
ĠV or
iz za
Ġres erved
oy le
ĠFran Ã§ois
Ġcount ed
Ġinter vention
Ġph ones
ĠSc out
ble m
ourn als
ĠRuss ians
ĠPark inson
ĠHar bour
oph ical
Ġlight ing
Mar ia
ĠOper ations
ĠEv angel
book s
Ġcool ing
Ġevolution ary
Ġemot ions
Ġsynt hesis
Ġcru el
ĠZe us
ĠEnvironment al
child ren
Econom y
B at
T rack
c ot
l ift
l Ã¨s
Ġt ension
he nd
Ġs aving
Ġc ub
Ġd ressed
st age
Ġth under
ĠB end
ĠD awn
ĠIn itially
Ġ18 38
ib e
ĠLe y
Ġdep ict
Ġret ire
ĠPro gressive
Ġrev ol
Ġpar ody
Ã¼ rich
Ġmar sh
ĠStud ent
Sc ient
Ġcontroll ing
Ġcerem onies
Ġir regular
cont inent
Ġastron omy
Ġcalcul ated
ĠLyn n
M ajor
T R
j Ã¶
n umber
t ail
Ñ ĥ
Ù Ī
à ®
Ġt adp
Ġs oup
en i
as an
ĠT able
ĠC itiz
Ġg est
ul ates
ĠK om
Ġpro state
Ġsh ifted
Ġdis abilities
erm o
ĠRe id
ĠZ amb
Ġam pl
Ġ12 5
ĠMon roe
ĠMy anmar
Ã± o
ĠHy der
igg s
Ġinform ed
Ġexam ination
Ã¢te au
P P
b ral
m ount
y t
Ġw inger
Ġc aves
it Ã©
Ġl over
ĠI gn
ĠP ast
ĠF ris
ĠL ug
ĠL ords
Ġhe ct
Ġcomp act
Ġcomp rehensive
Ġun w
ph ones
ĠSh op
du ctive
Ġpres ervation
Ġinv ention
led on
ves ter
Ã¼ nd
Ġexpl icit
Ġrad ar
ĠBel grade
Ġflow ing
lim inary
Ġpred icted
iÄ į
Ġ184 7
ĠSecond ary
Ġtransport ed
ĠBalt ic
ĠHay es
Christ opher
ĠLyn ch
Ġoccas ional
ĠSask atchewan
Ġunex pected
ĠPorts mouth
iusep pe
Satur day
) ",
H or
J es
c al
k u
ĠL ost
ĠG ian
ist ing
ĠK ul
ĠIs ab
Ġtrans it
Ġlaw yers
Ġbus y
Al bert
Ġpresent ation
Ġfre ight
ĠQu est
udd ers
Ġder iv
Ġdraw s
Ind ian
ĠBangl adeshi
Ġswim mer
ighth ouse
Ġfung i
rÃŃ guez
J oh
M embers
g ements
Ù Ĭ
ad ic
Ġ" [
her ic
ĠD res
ĠL ac
od ynam
ĠCh uck
Ġsc attered
Ġ7 37
Ġunder water
ĠSouth ampton
ĠQ atar
ĠFor um
Ġob st
Ġvar iants
Ġmean ings
Ġappl ies
ĠWind sor
ĠBul ld
ĠJo el
Ġhar sh
roke e
ĠNort heast
Ġalleged ly
ĠSind h
ĠDecl aration
B L
M ill
V en
v iation
Ġd ancers
ĠS ter
il is
ĠR ider
ĠL az
os o
ĠE t
ĠO sw
Ġde ce
Ġpl atinum
ĠCh amp
Ġdo ctrine
ĠRe ading
Ġind irect
ĠBe ing
tt ing
Ġless er
ĠSer ie
Ġphys ically
Ġimp ressed
Com mon
ĠBah amas
Ġpan els
igg ler
Can adian
ĠPap ua
à¥ į
ĠSlav ic
Ġgramm ar
Rol ling
Ġcuis ine
a illes
j in
p ill
p ath
Ġf ed
Ġd ragon
ĠH ers
Ġth read
ĠG ates
ĠN ile
iz u
Ġgr id
ĠDe e
Ġpop e
oss es
ĠAd ult
Ġint ens
Ġbr ig
ĠItal ians
ĠUS D
ĠEd ge
ĠEx hibition
Cl ass
ĠArt icle
ĠMal colm
ĠFin ancial
Un like
Ġcolon el
Ġthreat s
ĠRap id
ĠHum ph
Ġexpand ing
Ġkidn apped
B ay
B eg
C at
J ew
N ight
O P
T s
w ana
Ġb arrier
Ġl ib
ct uary
ĠB rent
ĠR ank
ĠD oming
ĠN okia
Ġr iders
qu est
Ġun h
Ġ18 20
Ġcomm enced
Ġen lar
pr onounced
Ġph on
Ġed iting
Ġdesc ended
ĠAnd es
ĠMon aco
ye ong
ĠMer it
ĠCarl o
Ph one
Ġbatt alion
Ġadvoc ate
raf ts
ĠAdvis ory
WW E
Ġdrain age
Ġd iving
ĠS weet
ĠM ine
ĠM aple
ir ate
ĠR oma
ra ul
ĠG ol
ĠW imb
est an
ast ed
ĠInd igenous
Ġlater al
Ġsur geon
ĠAd rian
ĠPol o
15 0
ĠBut ter
iol a
Ġsepar ately
Ġdev ast
ĠÃ ħ
Ġcommercial ly
Ġmiss ile
Ġstep ped
Ġir rig
Ġsculpt ures
Ġinaug urated
Do ctor
A D
A ub
F ree
J ane
h ra
h ouses
ed uc
Ġf ier
ĠS F
ĠS ith
ĠC rom
ĠB alk
im ination
ĠF iction
ĠD arl
ĠN acional
Ġun ions
Ġcl ause
Ġbut t
Ġsc orer
Ġrec urring
Ġ10 2
Ġcolle ctive
Ġstory line
Ġread er
agn etic
Ġpain ters
Ġcontrib ute
Ġ184 1
ĠHa ute
Ġcontest ants
Ġreact or
gi ate
Ġinher it
ĠFel ix
ĠHend erson
ĠEmp ress
A qu
A tt
O p
it ars
nd on
st ore
Ġn urse
ĠP age
Ġg lands
ist ent
ĠW ings
ĠK aren
ust ion
Ġj aw
ons cious
ĠFran c
elf th
Ġob vious
ĠPol l
Ġprom ise
Ġfind ings
amil ies
Ad am
Ġstrugg led
Ġnav igation
Ġrac ism
Ġcul min
S ee
f in
Ġt ier
he in
Ġo re
Ġc ig
Ġb is
Ġm ang
ĠB ard
ĠB oh
us k
ĠP u
ĠJ ets
ĠK ak
ip uri
ru ce
ĠAr ms
ile e
ĠPro duction
Ġorgan ist
Ġdiv ide
Ã¡ lez
Ġcr imin
ĠMon ter
Ġknow ing
ĠSl ovak
Ġimpro ving
Ġ184 6
ĠRos a
ĠCharl eston
Ġhop es
cha ft
Ġinform al
Ġresc ued
Ġment ions
ĠLar ge
Ġassign ment
engu ins
Ġske leton
p ol
r ant
z on
Ġb ore
ĠM Ã¼
Ġg amb
Ġst ability
se in
ide a
ind s
act s
ict ory
ash tra
Ġent ries
ĠCon rad
Ġnational ist
ane ous
ĠAd vanced
the l
ĠFl ag
ele br
acher s
Ġcertain ly
ĠMy ster
Ġboy friend
ĠKn ox
Ġabs ent
ĠMot ion
Ġpeace ful
ĠTig er
ĠBerg en
Ġwick ets
Ġemigr ated
ĠSent ai
J uan
k inson
l ies
l ake
l ink
w ill
ĠH its
ĠP od
ĠD re
ĠW end
od eca
uc ci
Ġ18 39
iz ards
ĠBl ake
epend ent
Ġsent ences
ĠMon ster
Mar g
Ġstri kes
ĠAnn ie
ĠAlb ania
Ġwalk ed
bo at
ĠSac ram
ĠBAF TA
D ep
S av
W omen
er cis
as al
Ġd ense
Ġd ances
ĠM eyer
ĠM ikhail
im er
Ġse ized
Ġen compass
ĠSh ak
ĠCl imate
get own
ĠPl ata
Ġrest ore
Ġdecl aration
Ġpoor ly
Ġrefle cted
Ġnav ig
Ġorche st
1 20
R a
S ant
T ak
h ad
t itled
ĠT at
ĠA N
ĠI BM
Ġst ays
ĠN ou
ĠV a
Ġsh oes
Ġcomp uting
ass is
to le
Ġj ersey
Ã© z
ik ing
Ġmain tains
ĠCl ara
Ġmon k
eth oven
app a
alt ies
ivid ual
Ġtre as
ĠWin ston
hold er
Ġpen is
Bar b
ĠMoh ammad
Ġmist ake
di ocese
Ġimprison ment
C ur
j ani
Ġa fra
Ġs ank
es a
ĠS ara
ĠF olk
ĠE aster
Ġse gregation
Ġor al
Ġtr unk
Ġserv ants
Ġdevelop ments
ĠFor bes
Ġlast ing
Ġdisc ipl
chn er
ĠJack ie
ĠBer ry
ĠBas el
Ġ184 5
Ġpers ec
enz ie
miss ions
ĠLegisl ature
R L
W in
l ined
n h
n ian
o ine
Ê ¼
er ne
Ġo ath
Ġw eld
Ġc rab
Ġh o
Ġh az
ĠT ic
Ġn ode
ĠR AF
Ġch ains
Ġac oustic
ĠFran con
Ġback ed
Ġmin imal
Ġany more
Ġhead ing
ĠUS S
.. ."
Ġeight een
ĠTra ck
Ġboard ing
Ġdig est
Ġsequ ences
ĠHond uras
Ġtransmit ter
Ġafra id
H uman
T em
d ied
Ġc iting
Ġp ace
ĠP eg
ĠF oot
ĠD w
Ġun employ
iz on
ick i
ik on
ĠZ iggler
ĠHar per
Ġarchitect s
Ġcommercial s
Man ia
Ġspir its
Ġunc onscious
Ġrival ry
Ġemot ion
Ġprovision s
Ġfold ed
ĠPul itzer
Ġeleph ant
ĠCurt is
Ġtelesc ope
ĠSart he
. ).
M aur
W alk
f s
s il
Ã ®
Ï Ĥ
re ation
Ġm ath
le cted
ĠH ert
ĠF iji
ĠN em
ĠU d
Ġcon ferences
Ġ18 32
ĠAl pha
Ġro de
Ġcare fully
yl on
Ġacc us
Ġrece iver
cer y
Ġrev ived
Ġequ ality
ĠRec ording
asc ular
Ġassoci ations
Ġmanufact ure
Ġinterview ed
ĠBarb ados
ĠGre ene
ĠNort on
ĠCatal an
Ġunsuccess fully
Ġmir ror
ĠLuther an
Ġsurf aces
ĠSoft ware
F ive
O f
P ower
P ope
d an
m ill
p age
Ġd eter
ĠC H
ĠP ole
ĠF eder
ĠL ima
od on
ĠSt y
ok en
cl air
ĠAl ps
pl ant
Ġteam mate
An na
Ġgen etics
Ġant icip
Ġappl ic
Ġread s
196 2
Ġdig its
Ġarg uments
Ġspeak s
ĠCr us
Ġcycl ing
Ġbene ath
ĠÄ Ĳ
Ġic on
ĠSid ney
ĠRet urn
engu in
Ġproport ion
cyclop edia
ĠWimb ledon
D E
F lor
M u
a que
h ot
o ften
Ø ±
Ġt ab
Ġb its
ĠI z
id ance
and ers
ĠLe x
Ġthere by
reat ic
Ġpr on
Ġ10 3
Ġgame play
Ġgener ate
ĠBe au
Ġvar iab
Ġcar ved
eal ous
Ġstop ping
unt a
Ġarr ay
ĠQu int
Ġhom eless
Ġjud icial
Ġdisp uted
En ter
ĠAz te
Ġuncle ar
Ġconvers ation
Ġtick ets
Ġbutter fly
Ġabbre viation
ĠPier ce
Ġairpl ane
ĠMethod ist
ĠGuatem ala
udders field
H o
c ience
Ġ ell
or rect
Ġto y
le igh
ĠF raser
ĠL ore
ĠN uremberg
ĠJ upiter
ĠE ff
ĠE instein
ri ents
art en
ill ian
ĠK iss
Ġab olition
ĠAl tern
Ġen roll
ĠZ Ã¼rich
Ġbl amed
ĠCar ne
ĠFl oyd
Ġeng age
ĠBel le
Ġport ions
Ġide ology
Ġdestroy ing
196 1
pre fecture
ĠRod rÃŃguez
Ġchap ters
uls ion
ĠVik ings
Ġdiscover ies
ĠNam ibia
agre b
Ġmanusc ripts
ĠFerr ari
---- ----
Ġrit ual
ĠPrest on
ĠLah ore
H ard
M B
l ide
u um
Ġd ors
ĠT itan
ĠF rem
ĠW A
nt on
ell ers
Ġsh arks
ĠY osh
Ġall ied
Ġout come
Ġqu e
Ġed itors
ĠKing ston
Ġbirth place
ĠDev il
Ġven om
Ġansw ers
Ä± n
ĠHindu ism
ĠJess ica
ĠOri ental
Ġdub bed
ĠParagu ay
! ",
R o
t re
Ġt ubes
er os
es ters
Ġm ating
ou rag
ĠC avalry
ĠB irds
et ing
ĠThe ory
ĠL og
ĠK end
so ver
ph alia
Ġinter im
af ia
Ã¶ m
ĠGl ass
Ġinf ant
ĠCast ro
ĠLiber t
ĠSand y
Ġhar ass
ĠGram mar
ĠCop a
Ġfair y
Ġhero es
Ġastron omer
ĠML B
Ġaqu atic
ĠHein rich
ĠCauc as
Ġtrig ger
football er
E xt
M ov
S pecial
l oss
Ġc ake
Ġf ingers
Ġd inner
ĠS ed
Ġ" ...
Ġal ign
ĠV eter
Ġexpl oration
ĠGar cia
Ġdeep ly
Ġinte g
Ġsquad ron
Ġcomment ary
ĠLat ino
Ġthrow ing
ĠStaff ord
ĠDur ham
ĠAssoci ate
D i
n is
v ill
Ġc ass
Ġf art
Ġm im
Ġto m
Ġl ava
ot on
ut z
ĠD ock
ĠL on
ĠL opez
ĠE du
Ġde emed
ĠSt rike
Ġex ercis
uc a
Ġcons erv
Ġdevelop s
ĠTe en
ĠCo ff
ĠEm irates
ĠRes ources
och ond
ĠClass ical
Ġcust oms
Ġspread ing
Ġintegr ation
ĠLank an
Jack son
Ġbat ted
Ġreun ited
Ġpip es
Ġencounter ed
Austral ian
ĠHeavy weight
Ġcogn itive
Ġautob iography
ĠTanz ania
C rit
G i
K n
K ir
g reat
v ich
y cl
in ho
an ese
ĠS ex
ĠC od
ir ical
ra per
ĠG ur
ĠE duc
ĠE ye
ĠE va
ĠE SPN
ort ex
qu el
Ġper ception
Ġrel ax
Ġinst ant
ĠAng els
osp ace
ĠDist inguished
Ġhand led
Ġexpl ored
ari us
ĠAct ing
ĠIm m
Ġreve al
195 9
ĠMalays ian
Ġgather ing
Ġju ven
Ġrestrict ions
Ġjew el
ĠLenn on
Ġrept iles
Ġlux ury
Ġintellig ent
T en
T ony
g ener
â ĪĴ
Ġthe sis
Ġb eds
iv ided
Ġg ig
ig hed
ĠE y
per ties
ph i
ob o
ob y
Ġaut o
ĠBro ck
ĠBar oque
ĠPet erson
Ġacqu ire
ĠFre ud
ĠGre ens
Ġproced ures
ĠÂł ĠÂł
Ġric hest
ĠAber deen
B ook
M ass
w ang
he id
he ng
ar is
Ġb ills
ĠS E
Ġre h
ĠThe odore
ĠL Ã¼
ĠW er
Ġan ger
Ġse ar
ant es
ip ed
Ġ18 36
Ġj ournals
act or
Ġrep airs
Ġprim itive
Ġz oo
John son
195 8
Ġmeasure ments
ĠWild life
lyn n
ĠLight ning
Ġadvent ures
Ġcou ples
Ġnurs ing
comm une
ĠArchitect ure
Ġprof ile
ĠVat ican
F ire
H ay
J ones
T ay
at an
at ro
id ays
ĠK op
ĠK ram
ne ath
ĠAl most
Ġper mit
Ġspec imen
ĠZ agreb
att i
ĠAm b
aut hor
ĠChurch ill
Ġconf ron
Ġconstru ct
la very
Ġcritic ised
Sp anish
Ġbomb ers
Col umb
ĠSav oy
Ġsleep ing
ĠWat ford
avel ength
ĠWhit ney
Ġindic ating
ĠEthiop ian
Ġaccompl ish
ĠFergus on
K A
L P
L iber
O W
T re
Ġthe or
Ġw ishes
Ġd uration
ĠC C
ĠC ros
ĠC lyde
st en
Ġre join
Ġst amp
ĠL if
ĠG eneration
ag ascar
ill ic
res a
ap o
ĠMar l
ĠNew ark
Ġbas ement
Ar m
ĠMor rison
Ã¨ ne
Ġchem ist
Ġmem ories
Ġstay ing
ĠAlb anian
Ġarran gements
ĠBah Ã¡
Ġnecess arily
ĠBat man
mus ic
Ġwithdraw al
Ġcommit ment
, âĢĿ
C ry
G P
L ew
O pen
W eb
f ol
ĠS ou
ĠC anyon
Ġis ot
ĠH ort
ĠH arm
ĠB ased
Ġbe am
ĠD ong
ĠG ilm
ĠW ien
Ġwh ales
ĠK och
port ant
Ġfl own
Ġtr ilogy
Ġinter actions
ĠMan ager
Ġrequ iring
Ġter rain
Ġmot to
New s
ĠVol unte
Ġlos es
Ġconsum ers
Ġreign ing
ĠParalymp ic
ĠIndust ries
ĠLeban ese
ĠDisc overy
Orig inally
ĠAdv ance
ĠSunder land
orgh ini
c ountry
l it
r ays
s ville
Ï ģ
ä ¸
Ġc it
Ġf ate
Ġf usion
iv ores
ot ation
ig nt
ĠF landers
ĠCh ange
cl ub
Ġar istoc
ĠInd ex
Ġinter mediate
ĠSp ider
ĠFor mer
Ġperson ally
Ġevent ual
An thony
ĠAg re
Ġintro duce
Ġinvest ors
ĠAut onomous
Ġflag ship
Ġprotect ing
Ġbul k
imens ions
ĠGard ner
ĠWeek ly
ĠCle opatra
Ġdream s
ĠCamb odia
ĠKurd ish
Commun es
ĠKle in
Ġpanc reatic
ĠGael ic
ĠOccitan ie
M anu
k n
l iter
al ities
Ġb out
Ġm all
ĠC ust
ĠH ull
ĠH oll
ĠR ash
ĠD ud
ĠL ines
ĠL ogan
ĠHe at
sh ot
ru z
Ġcons ent
Ġgo alt
ox ide
Ġpar ishes
ĠArt illery
play ing
Ġhar bour
ĠKy iv
ĠSpeed way
ĠGonz Ã¡lez
Wal ter
Ġguar ant
ĠBritt any
E nt
E ll
N ame
N ord
S u
he rent
Ġin hib
om ber
ĠS SR
Ġg rab
Ġst ems
ĠG am
ĠK ub
ich ita
se at
Ġen act
ced es
ĠIs les
ĠCl aire
Ġcare ers
yl an
ara oh
osp heric
Ġge ographic
ĠRos en
à¤ ¾
war z
ĠKar achi
Ġmission ary
ĠEp iscopal
ĠAqu atics
Ġobl ast
ĠKu wait
Ġcompris ing
D ec
R en
T D
a it
b irds
k reis
p se
Ã Ĺ
Ġ {
Ġ æ
Ġp m
ĠS ett
Ġl ith
ĠM O
ĠM ail
ĠB ess
Ġ( '
ra z
ĠE ur
Ġac claimed
oot ing
Ġatt itude
olog ne
Ġgroup ed
rop od
by e
Ġob sc
ĠPl atform
Ġreal izes
Ġgradu ates
ĠÃ İle
Ġaud ition
Ġi OS
Ġmechan isms
ĠEst ate
ĠNic ar
Ġfrag ments
Ġpseud onym
ĠMÄģ ori
B i
D ick
M ex
S ocial
T rad
j ee
Ä Ľ
an as
Ġs perm
Ġb ark
Ġp ier
Ġto oth
le Mania
ĠS ue
ĠT ate
ĠM orm
ig l
ĠL ic
ĠG em
ĠJ in
Ġhe aven
Ġv ital
Ġor phan
ran ger
ath lon
19 50
Ġspec ified
Ġqu oted
ĠCl oud
Ġdef ines
Ġbel ly
Ġinc orrect
Ġcur ved
Ġair lines
af Ã©
ĠMc N
Ġter restrial
ĠSal em
Ġbo ost
Ġregard less
add le
Ġly ric
ĠRel ations
Ġelectron ics
ĠBelarus ian
ĠBever ly
Ġvulner able
orient ed
b age
Ġs ells
Ġm ood
ĠC annes
ĠG az
ĠE k
Ġr ays
ry an
ack Down
Ġen orm
Ġrem n
Ġtrans mitted
ĠJohn ston
ĠNor se
ĠOl ive
Ġwor ried
Ne ill
Ġmom ents
Ġneighborhood s
Ġprepar ing
ĠAdvent ure
Ġstrengthen ed
P ers
j un
m ith
v re
Ã ¬
Ġt uber
on ation
on ica
Ġs ings
Ġm aker
ĠT ah
Ġis n
est own
ĠK Ã¶ppen
ust rated
Ġkn ife
ĠShe n
pr ises
Ġcons ort
ĠWar wick
com es
Ġleg acy
ĠSch u
flu ence
ĠÃ Ĺ
Ġoccur ring
ĠDh aka
bu ilt
Ġplate au
ĠWag ga
Ġtru ly
ĠMiddles ex
G O
H aw
K enn
M os
m odern
Ê »
re ens
ĠA IDS
ĠC ome
ĠP orter
ĠP tole
Ġg ates
ce ans
ag awa
Ġv inyl
ob i
Ġen z
Ġdam ages
Ġpot assium
ĠCamp us
Ġ184 2
Ġoppos ing
Is rael
Ġspir al
Ġnut rients
ĠEston ian
ĠTibet an
ĠPhilos ophy
Ġvariab les
W rit
l is
o ise
Î ¹
Ġs ap
ĠH ague
ĠB ri
Ġst amps
ĠF lying
ĠD und
est o
est ock
ia k
ĠK rak
ĠCh op
ĠY uk
fer red
Ġro ok
Ġres ource
20 22
ĠRe e
yn ch
ĠHer ald
lin ary
ĠPer uv
ĠAnt ony
ĠNo ah
Ġcast ing
Un ivers
Se ason
Ġcolumn ist
Ġple asure
ĠWes sex
ĠFellow ship
Ġobl ig
Ġportra its
ĠTreas ury
Ġregist ration
odeca hedron
B ul
f old
t w
on ing
it as
ĠM are
ĠR ox
ac ular
Ġse ctors
ical s
ens ing
ily n
ĠCom plex
ale h
Ġadd s
Ġgu itars
ĠPar ad
Ġcr ater
stru ct
Ġrequ irement
Ġmix t
hold ers
bre aking
commun ications
Ġdiam ond
ĠJam ie
ĠEmer itus
ĠGriff in
Er n
ĠHerman n
Ġantib iot
ĠDod gers
Charl ie
Ġinterpre ted
ĠKarn ataka
ĠMonten egro
C ant
H al
c as
e gr
l ane
s im
s ome
s son
Ġw reck
Ġf ran
ĠA us
ĠA ch
ĠC ull
Ġl anes
ĠB le
iv ar
ĠP am
ce pts
ĠL ing
Ġal tered
og ram
ons on
Ġup ris
urn ed
br uck
erman n
Ġsomet ime
Ġmother s
ĠWe i
yr gy
Ġmer ely
Ġsus pect
195 6
ĠMu gh
ĠNic ol
ĠColon ial
Ġabund ant
ĠAchie vement
I d
S ix
b led
c ats
Ġc ord
ĠA ude
ol ism
ĠP owers
ter dam
ĠF ow
ĠJ as
ip a
ĠV ed
Ġen listed
Ġoper ators
ott i
ĠEd itor
Ġconsid ering
Ġspecial ly
ĠPort o
tt i
atter son
ĠSam ar
Ġmarket ed
ĠDan ube
asc al
ĠGreen land
igg ins
Ġcert ification
Ġstret ch
Gold en
Ġju ice
Ġaccompl ished
Ġrecre ational
Ġrecept or
Ġinsc ription
Ġconscious ness
D ivision
I mp
R aw
V o
g ood
s eries
Ġs a
al ore
ĠS elf
ĠB rom
ĠP itt
Ġbe aring
Ġst uck
art an
od ont
up p
Ġex amin
Ġ18 35
Ġall ocated
ail ing
Ġover w
Ġoff spring
Ġcons ensus
ĠAfter wards
ĠCar pent
ĠWill is
ĠCup s
ĠMc Cl
Ġwant ing
Ġimp ression
Ġprot agonist
Ġrank ings
ĠStud y
Ġcreat ure
Ġmach inery
ĠFI VB
Ġopt ical
Ġcontest ant
ĠBre ak
Ġkingdom s
ĠWeb b
Ã¸ r
ibl ical
ĠLad ies
Ġtherm al
Ġwal ks
ĠDeuts che
K arl
N BA
R oy
b rown
Ġt ales
Ġw avelength
ĠM uk
ur ia
ur ities
ay ne
ĠD emocracy
ĠL af
ĠW ake
Ġnot ation
Ġ18 15
aus es
ĠLe Ã³n
Ġme al
Ġpre liminary
Ġrel iable
Ġsix ty
Ġlo os
Ġer rors
Ġwear s
ĠMid lands
Ġpotential ly
Ġsun light
Ġterror ism
Ġvolcano es
ĠConc ert
Ġrenov ated
Ġinteg ral
ignt y
yrgy z
I ll
d ia
d istance
s ing
Ġw onder
al and
ĠC it
ĠC ave
ro ft
Ġre opened
ĠH aj
ĠH ern
ĠP ine
if ax
âĢ ¦
Ġsh adow
Ġnot ing
ied er
ve z
Ġnum er
ĠZ ar
ĠPl ain
Ġapp re
ĠAnd rea
anc ock
Ġcrit ically
ĠEm il
ĠAct ors
Ġlo ose
ĠKenn y
Ġsearch ing
Ġrif les
Ġsole ly
Ġtouchdown s
Ġtradem ark
D a
S ource
r ina
t ailed
Ġf illing
ĠM ales
ol in
ĠR ita
ĠF alk
ber ra
if iers
ĠK ann
Ġch a
any a
Ġ18 21
per ors
sh ima
ĠNew man
oun ced
ash ing
Ġ17 90
ven ues
ĠBe ethoven
Ġsw ing
Ġfail s
Ġmar ble
bl ack
Ġemer ging
Ġtal uk
Ġconstitu encies
Not able
Ġelder ly
Ġgar age
Ġlock ed
ĠWor cester
Ġsumm ary
Ġalumin ium
Ġnar rator
B ir
L ev
L ady
he ars
Ġf ake
Ġf ox
om ial
Ġl ymph
ĠP irates
th on
ul ia
ĠK ad
ĠV ale
ire n
cl amation
Ġ18 31
to ok
ĠMar cel
Ġsp here
duc er
Ġfe es
other ap
ĠAugust us
Ġsur pass
ĠGr ass
Ġair ports
ĠBr ighton
Ġstat ues
Ġprote cts
Ġtrain er
ĠMil ky
Un ion
Ġchart ed
La ure
ĠBav arian
Ġri ot
Ġemb ry
ĠTal iban
Ġattract ive
ĠHyder abad
ĠSacram ento
C orn
F B
M edia
T ar
T our
h tt
p ically
Ġa unt
le en
Ġd ens
ĠS iles
st orm
Ġn ights
ĠH of
et he
ĠP erson
ĠG os
op ol
um en
ac ritic
ack ing
Ġdes ired
ject ive
ĠSe g
Ġmake up
Ġ' ,
arr ant
Ġdiv ine
Ġmag ical
ush i
ĠMon ument
Ġconf irm
mark et
ĠChief s
Ġprevent ing
ĠJud a
Or der
Ġcab in
ĠVenezuel an
Ġstrateg ies
Ġvary ing
Cap tain
ĠBomb ay
Ġtack le
Rog er
Ġsacrif ice
ĠBelf ast
D ar
D ream
M D
P ass
h m
s u
or row
ĠS aw
ĠI ber
ad an
Ġbe ats
Ġst ab
ĠG ospel
Ġcom merce
ill as
Ġv ibr
per t
Ġbut ton
Ġdis hes
Ġnew er
Ġfl ute
arn a
yn es
com b
ald o
Ġsl ide
ĠGl ac
Ġpromot ional
Ġsuggest ing
Ġcust ody
ĠWW F
IA A
Ġsynt hes
rac use
Ġupd ate
Ġsomew here
ĠDuc hess
Ġtadp oles
9 00
D in
T ok
g eneral
k Ã¶
m ia
w ind
x i
Ġa est
er ie
it imes
Ġh ull
ĠT aj
ĠT otal
ĠM og
ĠD olph
ĠL uz
Ġpro claimed
ĠIn spe
Ġun ve
Ġdec oration
let cher
ĠPl anning
Ġarg uing
ĠMax well
ĠSax on
Ġcorrect ly
Ġign ored
Ġspr ings
Ġtort ure
Ġcoron avirus
ĠRot terdam
Ġknock out
ĠBes ides
Ġcondem ned
ĠLeop old
Ġcrimin als
ĠAgre ement
ĠPeruv ian
K O
N ever
S I
p res
at ivity
Ġf irms
Ġd os
ĠB it
ĠB order
ay as
ow ed
Ġcomp rom
ne g
ib o
Ġper pet
Ġsp iders
Ġrec ruit
Ġbu ying
Ġmet all
gr ad
ald i
Ġpar ade
Ġelect rom
ĠAngel a
Ġlo ans
Ġconv ince
Ġinvestig ated
utt gart
ĠForm ation
ĠEle ven
Ġastron aut
ĠMatthew s
idel ines
Ġconsequ ences
ĠCP I
ĠConstantin ople
A P
B ang
H op
L iving
S D
m ain
u en
Ġs id
it ated
le ction
ĠA ce
il and
ĠM atch
Ġst uff
ĠD art
Ġr ational
ab is
ĠSt eph
les h
Ġen able
Ġ10 7
ey e
Ġlong time
ĠCam den
Ġenc ourag
Ġroll ing
ĠChap ter
Ġtack les
Ġske let
Ġbreath ing
Ġacknowled ged
ĠPab lo
H u
M eg
Ġb reat
ing o
Ġl ov
ĠF o
ĠF ischer
ĠN an
Ġhe x
ĠE g
ĠCh in
ĠV ul
Ġun anim
Ġsp ite
Ġ17 0
ĠFl ash
Ġbelie ving
Ġcomple ment
Ġ184 3
Ġcolon ists
Ġpsych ologist
Ġflag s
ĠBudd ha
rell a
ĠSem inary
Ah mad
ĠPubl ishing
ĠDres den
A st
H O
I reland
d s
m ile
n orth
y ou
Ġf iber
ĠA G
ĠB ates
ĠP erm
ĠL ink
ĠG ul
ag in
Ġse iz
ĠSt arting
Ġper cussion
Ġim pe
Ġind ie
Ġpolit ically
St and
Ġsk ating
Ġmater nal
ĠChe rokee
bour g
ĠBur ke
Ġlect ure
Ġdemonstr ations
ĠMaz ra
lik ely
ĠFem ale
ĠCinem a
G overnment
J am
e o
h aus
Ġ Ï
Ġo ri
Ġo ak
Ġc ure
ĠS ki
Ġh ur
ĠT ul
Ġre de
ch io
ay ev
Ġg aming
ĠD um
ĠG iant
ĠN ed
Ġwh atever
ĠK yle
ĠIn stitution
ater nal
sh ine
ec hes
Ġac claim
Ġpres um
Ġsm ell
ĠNorth ampton
Ġpost er
ĠChe ng
Ġpay ments
Ġcat aly
Ġshoot s
Ġcommand ing
ĠMid land
Ġwithd rawn
Ġdetect ive
Ġflo ating
Ġfra ction
Mah on
ĠEld er
chw itz
ĠCarne gie
D ark
r one
z one
z illa
it he
Ġh ij
ĠC ul
Ġl ion
ĠB irth
Ġg arn
ĠW ick
Ġcon gest
Ġpro c
ge ons
up l
ger ald
ene gal
ĠAll ison
ĠMan ch
Ã¡ l
Ġcamp uses
Ġpresent ing
ĠPat ricia
ĠCongress ional
Ġcarri ers
ĠWin chester
Ġtemper ate
ĠMos que
Ġexhib its
195 7
ĠVol ks
Ġcateg or
ĠHon ours
Ġmut ual
Ġteen agers
ĠHeart s
ĠOm aha
Ġassemb led
Ġclar inet
Ġsustain able
mid t
histor ic
raul ic
% ),
L ar
N orthern
g irl
m ag
is che
it ian
Ġb inding
am on
ĠM ile
ĠM its
Ġn a
ĠD ul
th ird
ĠW ant
ĠW ord
est rian
ond u
Ġj oy
Ã© g
oun ters
ars ity
ĠCon stitu
Ġgu idance
ipp on
Ar ound
Ġcomb ines
Ġident ification
Ge or
olk ata
Ġlength s
ĠAnn ual
clus ive
ĠCorn er
Ġlic ence
Ġdisp ers
Ġcoun cill
ĠAntar ctic
Ġsurpr ised
ĠRoche ster
ĠGuj arat
. <
B ell
L incoln
b ase
g ree
n ov
y nt
Ġa uction
ar ound
Ġm asters
ĠS as
ĠS ob
ĠC ivic
ro duction
ĠB ott
ĠB ody
ĠF ont
ĠG ap
ĠN eg
orn o
ĠV in
are z
Ġkn ocked
Ġreg iments
Ġunder neath
ier i
inn ess
ĠPh ot
itt a
ĠAm anda
Ġexp on
ari at
ĠMic he
Ġdead ly
ĠSur v
195 5
Ġdisp utes
ĠScient ific
Ġcorrespond ent
Ġrevers ed
Ġlob by
Ġannex ed
ĠElement ary
ĠDoming o
C all
E N
G overn
O ise
P ark
f ts
j ust
r ud
Ä ĩ
is dom
or um
en stein
it ory
Ġp etro
ĠT ake
ĠA ston
ĠC ologne
et i
ĠF i
ĠF ritz
ĠD ifferent
ĠL ed
Ġcl usters
Ġup load
Ġbl ank
ĠAt hen
Ġinter f
omet hing
af i
Ġprofess ors
Ġcountry side
Al fred
Ġrock y
Ġmult ip
Ġmot ors
ĠChe v
ĠTor res
Ġreform ed
ĠBarn es
Ġload ed
Ġreleg ation
Ġcoordin ates
Ġaccommod ate
Ġcere bral
Ġcurric ulum
Ġenh ance
ĠMazra eh
P ak
W olf
w y
Ġd imensions
ĠC lear
ĠM om
her son
ĠR ules
ĠG T
op ot
op rano
ĠE min
Ġat he
ĠK ok
ĠSt ur
ĠV id
Ġap olog
ĠAr lington
Ġout lets
rop olis
Ġaut ism
Ġgu err
ĠMan ipuri
ĠEd en
amm u
Ã¨ ge
ĠMad agascar
Ġtreat ments
ĠBur ma
Ġgra ves
ĠFre eman
Sp ace
ĠCr iminal
edd ed
Ġdiscuss ions
Ġflood ed
Ġvalley s
Ġtiss ues
Ġdynam ic
ĠKos ovo
Ġchromos omes
Ġendors ed
Ġconfig uration
Ġunh appy
ĠJuda ism
D ig
G il
J ournal
U P
U k
Ġo t
as ants
ĠC ock
ĠB oul
iv ities
Ġbe ef
Ġas ide
ĠF antasy
ĠL ep
ĠL LC
ith ms
ist ence
ĠO wn
ĠIn ns
Ġch ambers
Ġun official
Ġj ealous
ĠMar co
oh ama
Ġam mon
ĠCl an
ĠCan berra
Ġair s
Al an
ij k
iers hip
km en
arth y
ĠMad h
ĠNe igh
str Ã¶m
ĠHill ary
rel s
Ġche aper
Ġexcept ions
Ġdark er
Se a
Ġcontain er
Ġcontinu ously
Ġcho ices
ĠHart ford
uls a
Ġcook ed
Ġsail ors
Ap pe
Ġut ility
Ġimmigr ant
Sam uel
Ġcann on
ĠJosh ua
Ġwarri or
Ġborrow ed
Ġdiscipl ines
M od
P rom
R ele
R oad
s ay
Ġa rose
Ġf encing
Ġm oll
ĠS uk
Ġh ollow
st able
ĠF rib
ĠL ap
ĠG C
ist on
Ġpl at
ast on
Ġwhe never
und i
we ed
we ather
Ġim posed
Ġbet a
Ġ10 4
ĠAll ah
Ġevery where
ĠTr uman
isc al
Ã¤ n
ĠRes istance
Ġfac ade
ĠMet al
Ġwood s
Ġtransl ations
bro ther
Ġnob ility
Ġaddress es
Ġwarn ed
ĠTel ugu
ĠAlexand ra
Ġsupern atural
Ġpropag anda
ĠHous ing
D istrict
S outhern
f ar
n ormal
Ġt ender
Ġw are
Ġs ued
en ary
as ium
Ġm ol
ĠH ul
ĠR andy
ĠJ edi
Ġde ity
Ġen abled
Ġsup reme
rict ion
ĠOn line
na issance
Ġfinal e
13 0
aut ical
ĠBy ron
Ã¤ l
iment al
Ġcal m
Ġmix ing
Ġpot tery
ĠOl iv
ĠCons ervatory
ĠHind us
ĠSher iff
Res ults
ĠVis ual
ĠHonor ary
|||||||| ||
Ġconson ant
Ġquar ters
D un
L ast
T reat
k ill
m and
Ġ ).
an za
Ġs aves
Ġb ike
Ġd uck
Ġh ate
Ġh ung
ĠM ap
Ġst rain
ĠE arn
ĠE bert
Ġpl ains
up ta
ĠUn ity
Ġshe ets
ins ki
Ã¼ l
ĠEx cell
Ġfact o
Ġsimilar ly
Ġcomb ine
Ġprot ocol
unk er
ĠJo ey
Ġquestion ed
ĠHard ing
ĠPur ple
gra ve
Ġcyl inder
Ġconj unction
Ġcruc ial
Ġhect ares
ĠFrib ourg
D ead
N ik
S at
S chool
] .
f al
m u
m are
Ã ĸ
on al
Ġw art
Ġs ab
ĠT in
Ġre nd
Ġre duces
ĠH undred
ĠB j
im edia
ow e
ĠD owntown
ĠL iu
ĠW aters
ĠE ra
est ablished
Ġpl ural
ĠIn side
Ġle ase
Ġsh irt
ind ed
Ġsc out
Ġprov ider
ĠSp y
af a
Ġlist ening
ĠSy racuse
ĠMe chan
ĠBel t
Ġgl uc
ij n
ĠBoy d
ĠBoy er
ĠAlf onso
Ġcloud s
ĠMoz amb
power ed
Ġfil ter
Ġpod cast
Ġskysc raper
ĠTic ino
F orm
c ence
c ode
m ic
p end
w on
in is
Ġw ives
at j
ĠA way
ĠP ars
ĠF ut
ĠG aul
ĠK ot
own er
ll er
Ġpubl ishes
Ġ16 00
ĠAll ier
ĠPresident s
Ġmark ing
Ã¤ u
Ġbi ochem
Ġbo om
Ġqual ities
Pl an
Ġrespons es
Ġder ives
Ġreb el
Ġdrop s
Ġsevent een
Ġdetect ed
Carl os
abul ary
ĠYan kees
Ġoxid ation
A T
T ri
p ic
r iver
al ions
Ġf action
Ġb und
Ġm aj
ĠB D
th ia
ag ons
ĠK iev
ĠK olkata
Ġr ides
Ġwe ighed
Ġsub way
ĠAust en
Ġam ino
fess ional
Ch ina
Ġcontin ents
It alian
ev iÄĩ
Ġsett ings
Ġradio active
ĠJul iet
Ġi Phone
Ġfort une
osaur s
ĠAk h
Ġrepe at
Ġpup il
otten ham
rif ied
ĠBrun o
hard t
ĠWrit ing
Ġwarri ors
Ġorchest ral
M G
M unicip
S F
T unes
d ivision
k ok
s ung
w ear
y st
Ġw olf
Ġb ure
Ġb ishops
Ġm a
ĠT usc
ĠC F
ĠH uddersfield
ot he
ĠR T
ĠN ote
ĠW it
ri que
ĠTh ings
und y
Ġpol ym
Ġdes k
Ã© rie
Ġpr onoun
ement ia
ex cept
ĠPr ussian
ĠGr aduate
ĠGerman ic
Ġvers es
ĠMc D
Ġtw elfth
Ġrad ius
ĠAnt wer
allen ger
Ġfolk lore
Ġexplos ive
bul ance
Law rence
B all
B oy
C ra
P ok
U pon
c ross
h ole
o os
Ġb ug
Ġb oot
ĠP all
ĠW id
op a
ost ic
ran es
Ġap ple
ob ic
Ġnational ism
ung a
ĠSing er
rid or
Ġge ological
Ġcommand ers
ĠConfeder ates
Ġroll er
ĠLithuan ian
ĠUC LA
ĠPay ne
ĠFull er
ĠBulld ogs
B es
B urn
C ola
E ric
G ab
W el
b eth
c od
e astern
w ara
w agen
or ers
en ess
it ia
it ative
it ively
Ġp av
Ġd rought
ĠC ell
ĠM IT
ĠB atter
ce phal
ĠR ip
ĠD ion
and an
ant om
Ġk g
Ġar ter
Ġar bit
19 45
Ġfound ations
Ġele venth
Ġunder go
Ġmon sters
Ġback up
Ġcompet es
Ġsl ope
alth ough
ĠMon th
Ġfun ny
ĠArab s
Ġmass es
Ġhom eland
Ġorganiz ing
ĠSom alia
ais er
Ġreact s
Ġfavor able
Ġment or
Ep isode
Polit ics
Ġdolph ins
N on
P O
s an
er oy
ĠS tern
ĠT il
ĠC el
ĠC hern
ĠM iz
ĠH il
ĠB ihar
ĠR overs
em pl
ĠG ent
ĠW ah
Ġse als
ary a
qu ito
ĠCh urches
Ġtra ces
ĠCom mercial
inn ings
ĠZ en
Ġart if
Ġadd iction
Ġcompet itor
Ġ- -
ĠMich a
ĠSch olar
Ġrail ways
ĠRed s
ĠMet acritic
Ġvir al
195 4
ograp hed
Ġdiagn osis
Ġinstru ctor
Ġclean ing
Ġmoment um
Ġmigr ated
ĠFact ory
Ġassess ment
ĠCoal ition
Ġenorm ous
Ġoverw hel
. &
A mb
C a
b its
d ou
e aux
es pecially
ĠC hes
ĠC otton
st ones
ir s
ĠR ao
ĠW C
ĠW en
ĠW ichita
Ġpl asma
ĠSt uttgart
end ments
Ġcl erk
eb u
Ġpr ide
ik ovsky
Ġdif fers
att les
Ġ17 89
Ġlast s
ĠGu ad
ĠGeor ges
ĠEm manuel
Ġsimilar ities
Ġlight ning
Ġhon ours
writ ers
Ġstre ak
ĠSun ni
Ġpen et
ĠDou ble
Ġinte ger
ĠEle anor
Ind ia
Ġstream ing
Ġbit ter
ĠPhilip pe
ĠHal ifax
bu ild
Ġsovere ign
ĠSimilar ly
Ġgran ite
Ġremark able
: "
B road
D iet
N P
S em
r ington
st ep
ĠI w
ĠB enson
ĠP iano
em ann
ill iant
ĠK yrgyz
pe x
ĠV augh
ĠAl pine
fer ing
Ġro pe
ult on
Ġdis gu
Ġra ids
urn al
Ġpr oud
ĠRe in
Ġmet ric
ĠAd ri
Th ough
ĠGu ards
ĠWill ie
ĠGeor getown
ĠPri est
Ġhealth care
Ġeth n
isher s
Ġdeep er
Ġconsider ably
ĠMax im
Ġcoin ed
Ġviolin ist
Ġconsequ ence
R iver
S her
f rey
r ade
r ating
s ince
Ġa uxiliary
or ic
Ġb ounded
Ġp ets
ĠC B
ĠM ud
ĠH our
Ġr ush
Ġ18 33
ĠY as
ib u
oy e
Ġ7 47
ĠWh itt
Ġmanag ers
Ã³ pez
Ġgl obe
ĠRich ards
195 1
Ġcommission er
William s
sm all
ĠRoberts on
pop ular
ĠML S
Ġdisapp oint
Ġliv estock
Ġdece ased
Tay lor
. ",
B rien
M agn
P ont
S und
d ad
d ong
n ame
Ä Ļ
Ġw ounds
or ah
as im
Ġm i
Ġd ent
ĠS isters
ĠC ork
ol ving
ĠH imal
ĠN C
os ion
ĠIn sur
per ate
Ġrec ycl
Ġunder lying
Ġco eff
Ġrel uct
Ġinter ference
Ġtrans formation
Ġmon keys
Ġaut hent
10 1
ĠMan or
oph il
ĠDav ies
ĠQu in
Ġcomb ining
ĠDen is
Ġmountain ous
Ġconv oy
Ġaccident s
Ġinn ocent
Ġbul lets
Mon te
Ġhol idays
Ġharm ful
Ġadapt ations
ĠHan over
Ġpurs ued
ĠSi oux
ĠRol ling
Ġproceed ed
Jac ques
ĠSoph ie
Ġaccord ance
ĠSof ia
ĠUz bek
G irl
p al
on el
Ġs amp
ĠI ch
ĠR w
ĠF ork
and i
ĠL ip
ĠN est
ip se
Ġ18 24
eb ack
Ġcap abilities
Ġinv ers
Ġmod est
He art
Ġgu ided
Ġleg ends
ĠWe ber
Ġcompl ained
195 3
ĠCy pri
ĠWeb ster
ĠProgram me
ĠFern Ã¡ndez
ĠBrand enburg
chel les
Hon ours
Ġmonitor ing
G re
M em
N O
R oss
Ë Ĳ
or ous
ar ity
al us
ĠH ollow
ĠP on
ot ted
ow l
ĠW ade
ĠW ilm
od i
oc ate
ĠCh oice
In f
ook ie
Ġcol oured
pro v
br is
Ġbr ut
Ġsk illed
ged y
Ġvol untary
Mar itimes
ĠDire ctors
Ġachie ving
à¸ ²
Ġinvestig ations
gu y
ĠEle ctoral
intend ent
ĠAbb as
Fl ag
ĠStr ateg
Ġaer ial
ĠGib ral
Ġwitness es
ĠBuck ingham
ĠConc ord
ĠVers ailles
ĠJoy ce
ĠRou ge
ĠAntwer p
A cc
E L
H all
d ep
g os
à ¶
Ġc os
Ġc ob
Ġm akers
ou f
ĠS ally
ĠM VP
ĠB oss
Ġe agle
ĠR up
ĠSt ories
Ġsh ocked
sh am
Ġper f
Ġen velop
ĠDe al
Ġform ats
Ġtra iler
cy l
rop s
ĠCar bon
de z
omin ated
Ġpopular ly
ev o
Ġconsid ers
Ġgen ocide
ĠVal encia
ĠNe ed
Ġinj ection
ĠMer cia
ĠLeg al
Ġdon ations
Ġpil grim
Ġreact ing
ĠFal con
ĠToy ota
ĠHold ings
ĠPoly techn
Ġprompt ed
ĠCN N
Ġturt le
ĠSiber ia
Ġanx iety
g s
h in
h uman
n as
p uts
y am
É Ļ
Ġ q
Ġf rozen
ĠT ask
el ius
ur ally
ĠP BS
ly a
im ation
ĠD id
ĠD ylan
ĠL uck
ak is
ab its
Ġte lev
Ġ18 10
Ġcont ents
Ġcomm ittees
ace ut
Ġinter cept
Ġnational ity
com ed
Ġsw amp
Ġreal ize
ĠIr ving
For mer
ĠRob b
ĠCast ile
part y
Ġlif ted
ĠRaj as
ĠAbd ullah
Ġanaly st
Pat rick
ĠIceland ic
ĠSuz uki
ĠPrincip al
% ).
E arth
F in
J e
K evin
M ot
P ublic
m our
w ords
Ġt sun
he res
in ate
Ġs unk
Ġs andy
Ġm ills
Ġd ried
Ġd rift
ĠS T
ĠS enegal
ĠM B
ĠD iane
ĠL ay
Ġan ts
ĠE MI
ĠK ind
ĠK ob
ort s
end o
ĠV ia
Ġte legraph
Ġac ute
Ġshe ar
Ġover d
ĠSh i
ĠRe ver
Ġ10 6
ank a
uss y
ĠCal d
fl at
com be
Ġsl ight
ps y
Ġbre eds
oll a
Ġarch bishop
Ġblack s
ĠAp pro
Ġmar athon
play ed
ĠSam oa
ĠLaw s
Ġz inc
ĠLand mark
Ġeth ics
ĠSat an
Ġvac uum
oty pes
Ġmist aken
ĠUl ster
Ġaccommod ation
Ġsubmar ines
ĠSyl vester
Ġsovere ignty
ĠMathemat ics
Ġpron unciation
ĠEduc ational
T ex
å ¤
Ġb rack
Ġto es
om ac
Ġl amp
ĠH itch
ĠB olog
Ġbe es
un it
ĠL osses
ĠO v
ĠV iol
Ġpr isons
Ġ17 00
Ġent ities
Ġimport ed
ĠAm ateur
Ġvill agers
ĠGreen wich
John ny
cul osis
rig er
ĠNic ole
Ġhun ter
ĠShel ley
ĠMahar ashtra
Ġol ive
ĠAppe als
Ġthor ough
B illy
e ven
n ational
z ens
Ġin fer
al ong
Ġd ementia
ĠC yn
Ġl aser
ĠH ors
ĠB Ã©
ĠL Ã³pez
Ġpl ug
ab ar
ord ination
Ġcomm ands
Ġsc en
ĠSh ane
Ġsub str
ĠBar ber
Ġfore ver
bl o
Ġcompl aints
Ġenter prise
Ġcry stall
enh ower
ĠAud rey
Ev ents
Ev olution
ĠFrances co
apur am
ĠValent ine
ĠTud or
Ġenz ymes
G ermany
H P
K ore
o eb
v ian
er b
al pine
Ġp ocket
ĠA ragon
ĠP ract
ĠD Ã¼
ĠG etty
ill in
ard on
ort al
Ġun likely
Ġad ul
du ct
ĠAt l
ĠCan cer
Ġrun way
ĠOlymp i
yr us
Ġmid night
ĠParliament ary
Ġcell o
Ġcontroll er
ĠOrgan isation
ĠMarsh al
ĠÄ Į
Ð¸ Ñ
Ġsuperv ision
Ġfram es
parent s
ĠWol ver
Ġvag ina
ĠPÃ© rez
Ġcancel ed
Ġelabor ate
Ġlandsc apes
Ġorchestr as
Ġupris ing
Ġloos ely
1 10
C ross
K az
L ord
S ol
V id
b ath
g Ã¤u
k el
s chool
Ì ģ
is ure
Ġp ond
Ġp ushing
om at
am ura
ĠM ant
ĠH ag
ig on
Ġbe ans
ĠD ipl
Ġsh ar
ight y
ry n
ĠMar athon
Ġres ur
Ġpol yn
ĠSh iv
ik er
ron es
ĠGu am
ĠFl int
ĠAnd hra
aul ts
Ġtrad ers
oll ah
Ġfire f
Ġimpro v
Ġrespons ibilities
ĠWood y
Ġsum mar
ĠTw elve
Ġprin ts
Ġdoctor al
Ġens emble
ĠSher idan
Ġloan ed
aph ael
Ġassass inated
ĠLet ters
ĠJur assic
ĠLor raine
Ġcompens ation
Oper ation
; "
C omb
s lavery
re p
is ive
is bury
is eries
ĠS M
Ġh ire
ĠC oy
ĠH ack
ĠP red
ĠP ale
ver n
art on
ĠHe y
ĠO pt
Ġch assis
ess es
end ra
Ġun ified
ke f
ĠMar ina
Ġcount ing
Ġtr igg
omet er
arm ed
Ġland l
rat ch
ung s
Ġgu y
Ġgen ome
Ġrad i
ĠAp art
str ument
udd y
Ġge ology
Ġcat ches
ĠRev ival
Ġpeak s
ĠBh ut
Ġpoly mer
Ġstrugg les
ĠOffic ial
ĠMaur it
Ġbes ide
Ġworksh op
Ġundert aken
D am
G reek
T own
Ä ĵ
Å ĳ
re v
ĠA TP
Ġre ass
ĠL odge
ĠG ros
th am
ov ic
cl osed
Ġar sen
ĠLe igh
Ġacc ent
Ġem ail
ĠTe legraph
ĠAb el
ĠX X
Ġsol ved
ĠHigh land
Ġdem o
Ġfre ely
ĠProv idence
Ġbi as
Ġphilos ophical
Ã¢ tel
Ġpun ished
ĠConfeder acy
ĠNic olas
Ġincident s
Ġrepro duce
rec ord
Ġisol ation
Ġevac uated
Ġrit uals
Ġvit amin
ĠEsper anto
Ġirrig ation
G ra
I O
I ran
P rog
S ab
an co
Ġf us
ĠA ven
ĠC e
ĠC ash
ĠC IA
ĠC oca
Ġl unch
ĠH im
ĠB in
Ġg ains
Ġst icks
ĠR iding
ĠF ry
ĠD erek
ĠW ilt
os ure
ĠK ell
ong o
Ġ5 000
Ġtra ce
Ġtra ils
ĠRe x
ron ym
ott ing
ĠEl isabeth
ÃŃ k
ĠCor inth
ĠSch ne
ĠSch warz
ĠVir t
ĠLouis ville
Ġphys i
Ġintro ducing
American s
Ġcost ume
Ġbreak down
ĠBu ild
Ġi Tunes
Ġarm or
ĠNot re
ĠHy de
ĠJan et
Ġbow ling
Ġsand stone
ĠStra uss
Ġvirt ually
Ġwitness ed
Ã¤r vi
abil itation
Ġur anium
Ġworksh ops
Ġmerc ury
Ġflex ible
ĠRaf ael
ĠRif le
ĠBahÃ¡ Ê¼
ĠGlac ier
H ill
J un
K o
L E
R ober
S anta
g el
or ie
Ġto ile
Ġd ock
Ġd airy
ĠS it
ĠT ank
el ic
ĠM ake
ĠP ag
ĠN iel
ĠJ ub
The n
Ġde alt
res hold
ary n
og ie
ass a
sh ah
man s
Ġinter rog
ĠPr att
the re
Ġint est
van a
Ġbas ically
ĠChrist ine
ĠChrist ina
Ġsl alom
ĠX avier
Ġaccept ance
unn el
Ġlog ical
ĠHam mer
Ġspons orship
Ġpurs uit
ĠSix th
Ð¾ Ð²
ĠRap ids
Sim on
|||||||| ||||
Bro ok
ĠStef an
Ġsket ch
ĠBeaut iful
ĠLear ning
atern ity
Ġpep per
Scient ists
B eh
D T
G R
L ate
M Ã©
R eb
S ources
b ay
j ar
l v
l iest
à ·
Ġw ished
ar f
Ġc ement
Ġm ars
ĠT ow
Ġl iner
ĠH ess
ĠB uk
ĠG M
Ġhe aling
Ġde bris
ian ces
ĠK amp
ĠK ens
Ġor th
qu eline
ĠV ista
Ġsh aft
ĠY ah
und ers
ild e
ĠLe vel
ĠAs c
Ġpre ference
az ing
the y
Ġdesign ers
ĠChrist church
Ġsl ogan
Ġeng ra
Ġep it
Ġstar ter
Ġant iqu
ĠTer ror
ih ara
ĠJackson ville
ĠCarl isle
ols he
ĠMore over
ĠTim othy
Ġund ers
ĠMand ela
Ġvent ric
Ġrepro ductive
Ġfemin ism
roph ic
Ġflav or
Ġinnov ative
Ġadopt ion
Ġhorm one
ĠThom son
ksand r
ĠInsur ance
F ern
W S
b ig
d or
e us
he art
Ġin clusion
ĠS pect
ĠT yr
ĠC ran
Ġn ice
ĠH ang
ĠF en
ĠF resh
ĠN ut
Ġde af
ric an
ĠY ar
Ġad mission
Ġap ost
ĠAr ist
Ġbet ray
Ġfe ast
Ġ10 8
Ġ11 5
ĠMon astery
ĠGl oria
Ġgl ob
ĠMad ras
Ġins isted
Ġball ad
ĠMa o
Don nell
Ġthreat ening
ĠPers ia
Ġcry stal
Ġearthqu akes
Ġrefle cts
Ġspr int
Ġhem isphere
Ġanthrop ology
ĠDub ai
Ġrect angular
Rad io
Ġavo ided
Ġexclud ed
ĠLoren zo
Mean while
ĠGibral tar
I X
R ic
R eal
g iving
j am
w id
Ð ´
in ted
Ġc av
Ġb uck
ĠT up
ĠT ouch
Ġl ig
Ġl uck
ĠI CC
ĠH utch
ĠB is
ĠB rem
ĠP R
ĠP ain
un ter
ĠF rost
ĠG DP
ĠG uru
ĠW yn
Ġat e
ac io
ĠK oll
ĠSt akes
ge e
ie ux
ĠTh ous
ĠAl leg
Ġcont rad
ould er
Ġform ations
Ġest ates
work ing
oph on
Ġship ped
Ġaver aged
Ġcop ied
ĠPat erson
Ġdestroy ers
Ġrout ine
Ġconsist ently
Ġesc apes
ĠSur in
Ġconv iction
Ġwrest lers
Ġconsider ation
ĠHamp ton
ĠBos nian
Ġauth ored
Ġimag ery
ĠCow boys
Ġtunn els
Ġid ol
Ġturt les
Ġpromin ence
Ġmedic ines
A E
S ong
b illion
f ile
h ampton
r imin
Ġ ×
Ġ umb
he ed
Ġw ake
Ġw ards
ĠS erg
Ġh alls
ĠT es
Ġl ad
Ġg ly
ĠR as
ĠF letcher
ĠL al
ĠL ub
ĠG Ã³
ul ator
um ann
av ior
ab o
Ġ18 34
Ġad equ
Ġafter math
Ġspe eches
Ġrel ie
Ġfin est
ĠBra in
Ġposs essed
Ġbi ographical
Ġcontrib utor
Ġthr ust
Ġemb arked
Ġpath s
ĠElect ronic
Ġdefend ers
ĠPhys iology
ĠVik ing
Ġdescend ant
Ġcorpor ations
Ġveter ans
ĠPra irie
Ġsurpr ising
B rad
G ener
I ron
M aster
S port
f ica
k aid
l ic
Â ·
Î µ
Ġt iger
is o
Ġb ic
Ġd irt
ĠS ass
ĠC ut
ro let
ĠM t
us z
Ġfor ts
Ġst air
ĠF ighting
ĠG im
ĠG ore
ĠN iss
th ouse
ver te
os i
ian i
Ġag g
erm ain
ix ed
ĠAn imal
ets k
Ġcur ves
Th ird
Ġcompos ing
ĠSoviet s
ĠMad onna
Ġagre ements
Ġobject ives
Ġenc ounters
Ġmiss iles
Ġfrequ encies
Ġarm our
ĠLeon ardo
uther land
je ctions
Ġheav ier
ĠAcc ount
ĠTrib une
Ġpret ty
ĠLamb orghini
ĠLag os
Ġsoci ology
ĠAndre as
ĠLomb ardy
Ġadvertis ements
Ġbis exual
G ary
H an
d ict
en bach
Ġb il
Ġm es
ro kes
Ġl ays
ĠI st
ch ant
ig ma
ĠR ule
ĠJ agu
Ġr amp
ong a
ell ites
ĠUn fortunately
Ġsp awn
Ġ4 50
arn ation
Al ice
Ġref lex
ĠPer iod
Ġdest inations
ĠAg u
now iki
Ġview ing
Ġtreat ing
Ġsurv ivor
Ġbur nt
Ġcelebr ations
Pr ime
ĠLu igi
Ġlack ed
Ġportray al
Ġwaters hed
Ġpropos als
Ġmoth s
Ġsimpl er
Ġloyal ty
Bra zil
ĠOri oles
Ġhorn s
Ron ald
ĠFly ers
ĠRaid ers
ĠPok Ã©mon
ĠGeoff rey
ĠPlate au
" ".
C ard
F air
F ried
G ene
S oviet
V ille
l at
v ation
on o
Ġw ax
Ġd ug
ĠS oci
Ġre ly
ce ae
Ġst abil
em por
ĠG iuseppe
ĠW ire
Ġwh ale
res cent
Ġv ault
ack ers
ous se
Ġpre fix
Ġsup ermark
Ġinter rupted
ĠCon cer
Al t
ev ille
lin er
stru cted
ĠSch ol
Ġcost umes
Com position
Ġbreak fast
ĠDire ct
Ġtal ented
Ġalph a
ĠPa ula
ĠEmer gency
Ġtheat res
Ġmal aria
ĠEis enhower
Ġcomfort able
polit ician
Ġunve iled
S ah
S ummer
T ake
l ass
re qu
is or
as so
ĠT ottenham
ĠA th
ĠB res
ĠR C
ĠR id
ĠF res
ĠF amous
ĠD ixon
ĠG allen
ĠN ass
ĠN aw
ĠN one
ul am
ĠW ave
ag ogue
Ġcom eback
if ton
ĠK C
ort ed
ĠSt arr
ĠSt yle
ast ings
Ġab bey
Ġ18 29
ĠAn s
ĠAm Ã©
ps ich
Ġrest ing
ĠMe ete
Ġpost al
Ġhuman itarian
Ġwood land
Ġcouncil s
ĠUt recht
West phalia
Ġshr ub
Ġnarrow ly
ogen ic
Ġweak ness
Ġapartment s
ĠPhill ip
Pre par
Ġswitch ing
Ġreorgan isation
Ġtot ally
" (
N ob
P ot
S ainte
Ġ á
in ches
Ġc ra
Ġf t
Ġm isc
ou b
ĠA V
ĠC ert
Ġn ests
ĠH uss
ĠB ian
et ric
ĠP ie
ĠN ept
ĠN ui
ĠJ ong
ort ic
ĠV ij
ĠAl c
ĠMar vin
ace y
ob ar
Ġpol es
Ġover come
amb oo
Ġprot esters
Ġpersonal ities
Ġprotect ive
Ġbott le
Ġextra ordinary
Ġcerem onial
ĠAsh ley
Ġcho osing
ĠMoh ammed
ĠKr ishna
Ġmel an
ĠNav ajo
Ġsynt hetic
Ġdeleg ation
Ġhydro xide
ĠAlger ian
Ġconvent ions
Ġfib ers
Fred erick
Ġpersu aded
Ġeleph ants
Ġmarg inal
Ġgoalt ender
D et
N GC
f ax
i Ã¨re
r s
w omen
Ġin ject
it on
Ġf are
Ġb ip
Ġp ound
ĠT ac
ol ini
ow ice
ĠG n
Ġwh it
ĠO mar
Ġr ats
ĠV es
Ġ18 25
ĠMar ilyn
old t
ĠLe one
Ġev angel
Ġreg ained
ten berg
Ġfe ared
ĠAn ch
ank ar
Ġgener ator
ae a
ĠBr ady
uk as
Ġshort s
Ġhand ball
Ġcor rupt
Ġarch ipelago
ĠNor wich
Ġcond ens
Ġavail ability
ĠMer cedes
ĠArch diocese
Con nor
Ġdrop ping
Ġdu et
ĠLuc erne
edd y
Se ven
ĠEle ction
ĠWrest leMania
Ġnob les
ĠAzerbai jani
Ġcontra cted
ĠRand olph
Ġmit ochond
Ġprohib ited
Child ren
Ġprox im
Ġfart her
ĠMugh al
Ġappre ci
ĠMeete i
E astern
K a
K ey
L atin
M ult
O b
h ig
Ġb red
le ft
ĠM ick
ad vant
ĠB ec
ig ua
ĠD ry
ĠL j
ĠN ames
ul se
ĠJ al
ĠW ander
ew ater
Ġ18 28
ier a
Ġdec ree
Ġdifferent ial
Ġfin ishes
eng ine
Ġcolle ctor
ĠPar ade
Ġsuccess es
ĠMc Mahon
Cl aude
Ġter rible
oz a
Ġsem ic
ĠOk in
ĠSuper ior
col or
à¤ °
Ġcarbon ate
cont inental
Ġjoint ly
Ġquant ities
ĠNort e
Bel ow
ĠFitz gerald
Ġton nes
Ġchromos ome
ĠAus chwitz
otherap y
Ġpetro leum
cyl inder
A N
B ah
D eb
N atural
R aj
W R
Ġt ide
Ġt ired
it ivity
al uation
nd a
Ġp ige
Ġd ining
ĠS we
ĠA val
ĠC i
ĠC redit
Ġl augh
ĠM au
ĠH icks
Ġg reet
ĠThe resa
ĠF eld
ĠD ash
ĠL ands
ĠN O
Ġcon vey
ĠK abul
ĠCh o
ĠV ocal
og ical
og ene
Ġres istant
Ġdis pos
Ġloc als
Ġint act
Ġmarri ages
ford shire
ĠAc cess
Ġval ve
Ġprocess or
Ġsee ks
ĠTur kmen
isl av
Ġcat alog
enth al
azz o
Ġdom est
han ced
Ġslow er
Pr in
ĠMcC arthy
ĠTim ber
Ġrob bery
Ġadvan ces
ĠMand arin
Ġprotest ed
Ġveget able
Ġadvant ages
ĠJacob s
ĠHaut es
Ġfemin ine
ĠOw ens
Ġstim ulus
ĠLaure nt
Ġnut rition
ĠHas an
isi Ã³n
Ġpy ramid
Ġstrict ly
Ġorb ital
ishn u
ĠToul ouse
Ġrook ie
A rea
P ed
P res
f em
p ical
v als
om al
ĠS eth
ĠT ales
am el
ĠP ret
ĠP atterson
Ġg y
Ġst int
ul ine
op us
Ġpl ed
ap per
Ġle ased
Ġcomp are
Ġun p
ous s
ang les
sh ort
und o
ĠMar ks
Ġsc r
ĠJohn s
Ch amp
Ġpublic ity
Ġday time
uk ary
Ġlocal ities
ĠHigh lands
Ġplant ation
Ġcoast line
Ġcarri age
Ġgra ins
ĠRome o
gu ard
Ġrob ots
Ġpoll s
Ġrecon struction
Ġaccur acy
ĠLiter ary
Ġcartoon ist
Ġweigh s
ÅĦ ski
ĠSey chelles
Administ ration
Ġris ks
ĠCrom well
D or
G et
c ad
f u
y ards
Ð ¹
an us
Ġb io
ic iary
Ġh ipp
Ġn odes
ĠH ancock
ĠB arr
ĠP ah
id on
ĠG enesis
ĠN ong
ĠJ T
Ġse ating
ant astic
Ġch ancellor
Ġpart ition
Ġj oke
Ġsc roll
Ġsing ular
Ġsub prefecture
Ġbl ast
Ġmed ication
ull a
Ġmod es
ae us
ĠCar th
ĠX IV
atin ate
ĠTra cy
ĠGra ves
Ġemb assy
Ġbow l
Ġillust rator
Ġfeed back
ĠRober to
Ġped al
Ġpreced ed
ieg el
Ġmob il
Ġbrow ser
Ġinherit ance
ĠMozamb ique
R uss
S erv
V C
h ai
v iol
à §
Ġt rem
is en
en k
Ġb arn
ĠS ister
Ġre hears
ĠI A
ĠH ave
ĠH arri
ĠB ene
un al
ĠN un
ill i
Ġse w
ov Ã¡
Ġsh uttle
sh in
Ġtra ff
air d
ĠZ el
Ġcre m
Ġappe aled
ett ys
ĠSe ga
Ġbas al
Ġdi agram
ĠSte am
Ġlower ed
Ġcomplex ity
Ġfort ifications
Ġdiss ip
ĠCub s
ĠFe ature
uther ford
Ġthrow s
Ġtrou bles
Mc C
ĠReb ecca
Ġtornado es
Ġgrav itational
ĠAx is
Ġforb idden
Ġneighb ors
ĠPom pe
Ġgamb ling
Ġexercis es
Lew is
fol io
kÃ¶ ping
A ld
B or
C ount
G all
R ain
b irth
c up
c ie
d iv
Ġt ear
Ġb ite
ion ed
ĠT ao
ĠH ale
ĠH unting
ch ay
ĠP ill
ĠP ros
ĠR ac
ĠR ost
ĠD ise
ĠL iz
ĠG ross
ĠN aj
ĠJ i
Ġal umni
ĠE van
av ers
ĠK and
ĠK oz
Ġch aired
cl er
ang es
Ġsp ends
Ġout s
ten stein
erv es
Ġext ract
co e
Ġval ued
ĠWal ford
ĠUr du
utt ing
ĠColomb o
ĠStat istics
ĠRol and
Af rican
ĠHond a
Ġble eding
ĠYok ohama
ĠIg bo
ĠBeaut y
Ġhighlight ed
Ġsemif inals
Ġpuzz le
ĠIsab ella
Ġdors al
Ġwart ime
D ragon
R NA
b Ã©
y ah
Â ½
Ġc ros
Ġc ott
ĠS ach
ĠS onic
Ġh ob
ĠA I
am ination
am orph
ĠM ys
ĠH app
Ġst ead
em ar
ra it
ist o
ĠW ong
os ity
pl us
ĠMar se
ĠMar itime
Ġreg ulated
Ġsy mph
form ed
Ġbl ess
ĠAn k
Ġass ume
Ġman or
Ġdec iding
Ġhel ium
ĠBe aver
Ġdesign ing
ĠEd o
ĠChrist ie
Al i
uff icient
ev a
sc ope
Ġprim aries
Ġadv ised
Ġmot if
ĠDr ug
Ġpromot es
Ġcompl aint
Ġhyd raulic
Ġautom ated
ĠTim or
Ġrat ified
ĠÅ ģ
ĠHead quarters
Ġprec ise
Over view
Ġsimpl ified
ĠLam bert
Ġbats man
Nor man
izz ard
ĠImp act
Ġproport ional
ĠSloven ian
Ġdolph in
Ġbare ly
ĠFrem antle
opot am
ĠInns bruck
Ġgluc ose
Ġtsun ami
ettys burg
G ro
L ab
N et
S pring
U V
f an
k ed
Ġ *
Ġin quiry
ra j
ĠG ott
op ed
ill ance
ĠK erry
oc us
Ġr ust
Ġch ip
og i
Ġ18 19
Ġper ipher
Ġac cepts
Ġacc redited
Ġexp ense
An y
Ġactiv ated
Ġexpl aining
ĠReg ency
be ing
udd in
head s
Ġbank er
Ġdeal er
omm ission
Ġreve aling
ĠTre vor
ĠBow ie
Te chn
Ã¥ r
ĠEngine ers
ĠTs ar
Ġchalleng ing
Ġgall eries
Ġconsult ing
Ġcinem at
Ġwat ches
Ġvic inity
ĠCase y
ĠAub urn
ĠBerk shire
ethel ess
ĠNicar agua
L ine
R ub
X O
f alls
is ers
or io
es i
Ġp ension
Ġm apping
Ġd imin
ĠS earch
ĠS leep
ĠT ina
ĠC umberland
ĠM ald
ĠF lem
ĠN XT
ĠE z
ĠU m
out ed
aw ar
Ġev ident
oh yd
ron ics
He alth
Ġcould n
yn a
Ġactiv ism
Ġrock ets
itor ium
ĠQu inn
Ġcy t
ĠSam i
Ġbi ologist
Ġcapt ivity
uth an
Ġbal anced
ĠNord ic
ĠPop ulation
Ġflu or
Ġstrugg ling
keep ing
Ġmel od
Ġmel ody
Ġelimin ate
ĠBry ant
Ġham mer
ĠJama ican
ĠHem isphere
Ġforg otten
Ġrac ist
Sar ah
Ġchore ographer
ĠCoun sel
Ġschem es
ĠRajas than
ĠBolog na
Ġproxim ity
D u
F r
S and
d og
k il
t land
Å ¼
re k
Ġs le
Ġs ne
ĠS ons
ĠS aid
ĠC ott
ĠM ets
ĠH utton
iv ism
ch in
ĠW itch
op oly
Ġcon gregation
ĠK ant
Ġch ase
og ens
ens burg
Ġag ing
19 49
Ġspe ar
Ġfl ats
Ġinter active
ey ed
ĠSc hed
Ġinv itation
ĠSw ift
ĠMin i
Ã¡ d
Ġfore cast
Ġhapp iness
ĠBy r
oul t
board ing
ĠGo a
Ġcat al
ba um
Ġang les
Ġprop ri
ĠBull s
Par is
ĠSum mit
Ġrow s
Ġiniti atives
á» ĭ
ĠRab bi
Ir ish
ĠMold ova
ĠHes se
ĠBM W
Ġenlar ged
ĠInspe ctor
ĠEmin em
H R
H appy
J er
K at
L im
P le
S now
U l
[ [
h of
y ar
Ð ¼
er at
Ġin duced
Ġc ows
as u
Ġp uls
ĠT ulsa
ĠM uss
ĠP ip
ig raph
ĠN ish
ĠJ ung
Ġwh ites
ĠO le
Ġcon fluence
ĠCh ak
Ġhas h
ĠV on
rit e
ĠTh anks
Ġ18 14
19 40
Ġdep icts
ĠIs abel
ĠPro gress
omet ric
ĠPr ide
ĠPl us
ev ich
Ġexcept ional
ĠBo at
ĠJer ome
Ġillust rations
ĠHus sein
ĠCyr illic
ĠTon ight
ĠWins low
Through out
Ġgent le
à¸² à¸
D aily
D ifferent
H omo
L ang
N Y
N ar
c amp
w ave
Ġt u
Ġm ock
ĠS N
ĠS ites
ĠM aid
Ġn eb
ĠH C
ĠH ed
ĠH enn
ĠB ie
ĠR CA
ĠF ear
ĠF ah
ĠF ighter
op en
art z
ity a
Ġv ig
ĠSt ella
ĠIn ner
pl an
ib les
19 39
ool s
Ġsp inal
Ġsp ines
Ġdis ks
Ġra ins
inn y
Ġco aster
Ġsur g
Ġclass room
ĠEn s
off ic
Ġbattle field
Ġaffect ing
Ġtext ile
ĠTurk ic
ĠTop eka
Ġ179 3
Ġdefin itions
ĠRel igion
Ġalcoh olic
Ġdemonstr ate
Ã©s ar
Ġkick ed
Ġtel enov
Ġinfl amm
Ġrecre ation
Ġwel comed
ĠCec il
Ġalgebra ic
Bern ard
kef eller
> </
B erg
J ay
b ir
c ur
l ley
Å £
Ġw agon
ĠS v
st ick
Ġn uts
im eter
ĠD ad
ĠL ives
ĠG unn
ĠJ ain
Ġex ams
Ġex iled
ĠV isc
Ġab used
act ers
ob iles
Ġtra ced
Ġinter val
pro duction
ert ile
St arting
Ġgu idelines
uk es
sc ill
Ġel imination
uel a
board s
ĠIr vine
Ġste ady
Ġtro op
Ġtro lley
Ġcirc us
Ġgra pe
Ġminor ities
Ġtou ched
195 2
Ġinvestig ating
ĠBern ie
Pr im
Ġlink ing
Ġadvan cing
cha ikovsky
Ġcert ificate
ĠDown s
Ġexam ined
Ã©t at
Ã©t ico
ĠPunj abi
ĠDerby shire
Ġpoison ing
opter a
Ġbes ides
Ġrig id
Ġairpl anes
Ġdictator ship
Jon athan
ĠShep herd
ĠBrig adier
ĠHiro shima
ĠFow ler
E th
P sych
S ign
h aven
n u
ä º
Ġt ast
Ġc ourage
Ġc rafts
el in
ĠI D
ĠI o
ĠH ak
ĠH ipp
ĠH ours
ĠP f
ul er
ĠJ aff
Ġal pine
ĠE gg
od ied
ia e
ĠK ron
oc es
ĠCh ambers
Ġex ped
Ġte ct
Ġ18 26
Ġsp inning
ĠCom bat
ann ers
ank ind
its u
Ġmin ers
ble ms
ink a
Ġbr illiant
Ġsl ot
Ġperiod ic
epend ing
Ġgen u
Ġcor al
Ġsw allow
ĠSm art
Ġtre asure
Ġplant ations
ĠChe shire
Ġdestroy er
Ġstri ps
Ġtax i
Ġmedal ist
quar ium
Ġ180 6
Ġconsum ed
Ġmamm al
Ġquant ity
Ġclimb ed
ĠMcK in
Ġresemb le
Ġunf air
Leg acy
ĠClare nce
ĠPant hers
Ġtum or
Ġpist ol
Ġpray ers
Matt hew
Ret urn
Ġcater pill
ĠJen kins
Ġtuber culosis
B aby
K l
M U
c r
d ec
n ar
n ear
p ressed
s ize
z ar
Ġb anner
ĠT omb
ĠT oo
Ġl aps
ol ut
ad j
ĠB ent
ĠN urs
op y
op ters
Ġhe red
ĠE rie
ĠK art
ĠK atherine
ĠSt op
ĠCh u
ell an
to ire
ĠY ak
Ġro s
ect ors
Ġsc reens
Ġele g
ook ed
Ġpre late
Ġbl adder
Ġserv ers
Ġmin iseries
Ġgener ating
Ġrepl ied
Ġsol ving
ĠGl ad
Ar n
ĠGold berg
Fran Ã§ois
ĠBang alore
ĠBang kok
Ġemer itus
Ġaccount ing
ĠVol ume
Ġri p
And rÃ©
ĠInt el
ĠKir by
ĠRom ance
ante ed
Res earch
ĠAM C
Ġpool s
Ġrein forced
Ġvacc ines
Ġpreced ing
Ġcoc aine
ĠCyr us
Ġimmun ity
D utch
L aur
P rem
S weet
T U
m ut
n ake
p ay
Ø ¯
in ist
Ġo ceans
Ġc ro
al ine
as co
le ader
il ib
Ġl ane
ay ama
ri ac
Ġde an
if erous
ust a
Ġex terior
ĠY ank
pl ate
Ġdis ag
Ġcons oles
Ġsub ordin
ys s
Ġ12 8
Ġfin ite
âĢĻ ,
Ġinst ances
ĠBr andon
Ã¡ k
ĠAb e
Ġsl ender
ĠMe ade
Ġnon profit
tt a
Ġeight eenth
Ġz ool
Ġsuggest ion
ĠBo one
Ġheavy weight
Ġbomb ings
Ġsexual ity
Ġ180 3
Ġhar bor
ĠGood man
pan ze
Ġdram as
ML B
Ġmos quito
Ġphilosopher s
ĠTol edo
Ġturb ine
Ġere ct
Ġinnov ation
ĠSug ar
ĠXV I
Ġdeter ior
A y
H ug
S chol
l os
p ark
È Ľ
re uth
an tha
at ile
ic ul
Ġd ough
ĠS amp
ĠC able
st ic
Ġl ighthouse
Ġre ndered
Ġn ude
Ġ" -
ĠF arn
th ou
ĠJ h
ĠE rit
art ney
ĠK ah
ĠSt am
Ġle tting
ran king
Ġun t
Ġ18 13
Ġsp ur
ĠSh ire
ĠSc outs
ĠNational s
Ġ202 3
Ġty phoon
ille m
ĠBar row
Ġapp lying
Ġposition ed
Ġadv ocated
ĠPre viously
Ġhar psich
Ġund ef
ĠTre k
Ġvac ation
Ġpartn ered
ĠAbb ott
Ġlat itude
Ġadvis er
ĠBaron et
Ġhun ted
Sw ed
ĠReb ellion
Ġsubd ivided
Ġpublisher s
Ġsulf ate
Ġdispl aced
Ġconson ants
ĠHass an
aum ont
ĠLeaf s
Ġposthum ously
ĠPtole my
G ordon
H ello
I van
L en
L ost
Ġ iod
Ġthe olog
an ch
Ġw arrant
Ġs ar
at um
le ading
Ġd ign
ĠT ort
Ġ2 20
ĠF lynn
ĠO man
Ġcl ade
iz ers
ens ions
ans on
Ġsp ine
Ġsp ans
ren s
oh an
che t
ĠIs s
Ġinter ven
Ġass et
br anded
Ġdiv iding
It alia
Ġleg itimate
Ġsk ate
Ġequ ity
Ġmar ched
Ġinvest ed
Ġexec ut
De velopment
Ġcapt uring
ĠTra ins
Ġbreak through
Ġtal ents
Ġcycl ones
Ġcart ridge
ĠEst her
ĠNetwork s
ĠNig el
Ġvac ant
ĠChap man
ĠPo etry
Ġphr ases
Ġce iling
idel berg
Ġcru ise
Art icle
Ġaccur ately
Orig in
Ġmand ate
Ø§ ÙĦ
Ġprol ific
Ġaccompany ing
Pak istan
C and
F ather
H D
c Ã©
k k
o il
w hen
y on
Î »
Ġt ends
Ġt ails
Ġf res
Ġm oons
ĠC ourse
ĠG ret
ies el
ĠK ai
ab lish
ĠCh oir
ough ton
amp h
Ġ18 18
ĠY et
vel le
Ġoff ense
Ġdo zens
ĠSh ia
Ġpre historic
ĠAugust a
ĠNorth western
let ter
ĠMe iji
Ġspecial ty
ours elf
Ġcult ivated
Ġer osion
Ġdiss olution
Ġ179 5
Or gan
Ãº s
Ġdecor ative
ĠJose on
ĠInvest igation
Ġanth ology
ssel dorf
Ġderiv ative
3 50
G I
P seud
h ak
h aul
Ġb rom
Ġd ess
ĠS aul
Ġh tt
ĠC ors
ent er
ĠI brahim
ĠH os
ĠP az
ĠR ag
ĠN ippon
ĠJ orge
ĠE yes
ĠE uras
ĠSt art
ip linary
ry ing
pl aced
Ġim per
Ġme g
red its
red itation
Ġteam ed
Ġpre fect
ys ics
Ġair field
ĠGu ill
hor se
Ġline age
ĠEx eter
Ġinf ra
Ġinf inite
Ġcy an
Ġprem ises
Ġsat ellites
ĠJeff rey
iat us
Ġliber ation
ĠField s
po em
Ġexpress ions
ĠFle ming
Ġborough s
Ġadvis ory
Ġec ological
Austral ia
Sil ver
ĠWhe at
ĠCreat ive
ĠStrateg ic
. [
L at
M T
T ai
b il
x imately
Ù İ
Ġin ch
Ġf u
Ġf ut
ĠC R
am eral
Ġl unar
ĠM ob
ĠB am
ĠP ike
un ks
Ġst all
ĠO vers
ĠIn iti
Ġch ances
Ġle uk
ĠV og
ĠTh ur
ang s
eb o
Ġsp ray
inal d
Ġ17 5
Ġ17 76
Ġsm ugg
ific ent
ries thood
ĠBar rett
ĠSen eca
ĠPer kins
ĠRec on
Ġtest imony
Ġdi ary
ĠSing le
Äģ r
Ġsen ators
ĠTour ism
Ġbatt alions
ĠWork ing
ais y
Ġcorn ers
Ġple ase
Ġrecon naissance
Ġabsor b
Ġhem or
lik ed
Ġtens ions
ĠRah man
ĠPatri arch
Ġdim ension
Ġrepubl ican
Vir gin
Ġdepict ing
Ġjewel ry
Ġnumer ical
C ass
D eep
F ox
G ran
H art
O k
R ud
R ose
S om
W a
_ _
c ane
d ate
Ġt rams
at ore
it ty
Ġf ountain
Ġb omber
Ġd ome
Ġh urd
ro phy
Ġl enses
ĠB olshe
et to
ĠP end
ot ive
un ing
Ġst ained
ag os
ĠO BE
ov al
Ġv arsity
âĢ ²
ĠV ince
ĠAl ph
Ġres ides
ert iary
ĠBe ast
Ġhost ile
be it
Ġpress ed
Ġviol ation
ĠBen fica
ĠJes uit
ĠJud y
ĠDev ils
Ġmission aries
Ġsucceed ing
Ġhop ing
Mus lim
ĠPot omac
ĠSon ny
How ard
Ġmerch ants
Ġprosec ution
Ġverte x
ĠMort on
Ġevac uation
Ġswe ep
Tur k
ĠAssy rian
Ġanat omy
ĠMicha els
C ategory
W at
j ac
m il
m itt
n ick
is ible
Ġw agons
it ate
al p
Ġf ederation
Ġp igs
ĠA HL
Ġre ver
ĠB ram
Ġe ase
Ġg ospel
ĠR im
em ption
ĠG ymn
ĠW ak
ord en
Ġsh ores
pl ing
Ã© ra
ĠSh arks
ĠInd oor
ĠMay o
Ġfe eds
ĠCon way
Ġmon key
Ġmin im
Ġ12 00
Ġ11 3
Ġbr ass
Ġsuccess ive
Ġfather s
ĠGovern ors
ument ary
ĠSch les
ĠGra z
Ġreb ounds
gl ass
Ġoccup y
ĠCount ies
ĠEll iot
Ġalt ar
ĠTerrit ories
Ġcalcul ate
ĠPhys ical
Ġdemand ing
Ġsupposed ly
Cal ifornia
ĠRena ult
Ġinfl ation
ĠSac red
Dou glas
ĠPsych ology
ĠChron icle
Ġdeliber ately
ĠAppl ied
publ ished
Beg inning
Ġguarant ee
Appe arance
atj ara
D ame
D omin
P G
P oly
o qu
Ġs am
or ters
ĠC asc
ol ulu
Ġre per
ĠB ret
ow o
ĠF on
Ġal ly
Ġal ert
um per
od o
Ġpro fits
Ġpro ceeds
ĠSt ras
Ġher ald
ph ilis
Ġsp are
Ġdis advant
Ġteam mates
Ġret rie
Ġsm oking
Ġgener ic
ze k
Ġem perors
uff s
Ġtri angular
Ġwar ships
Ġannoun cer
Ge org
Ġviol ations
Ġsurv ives
asc us
Ġsoft ball
spe cific
Ã¡n chez
Ġemb edded
Ġprop he
ĠHuman ities
Ġprec ision
Ġethnic ity
ĠOd d
Ġshr ubs
Ġseem ingly
Ġexplos ives
Ġbehavi ors
Ġdeleg ate
ĠLet ter
Ġvow els
Ġtort ured
vens kan
ĠFu ji
Ġlingu istic
Ġdenomin ation
Pac ific
ĠHumph rey
ĠKram er
B os
P I
S U
T a
T urn
d ish
f unction
t em
Ï Ħ
at ri
Ġb ot
Ġh urricanes
ent ric
st reet
el age
ĠI de
ĠP arent
id y
un ya
Ġas ylum
ĠD as
ĠD ix
ĠL au
ĠG avin
ĠE sk
ew ood
ric o
Ġun ity
Ġres on
Ġac ronym
Ġam endments
Ġinc om
ĠGe ographic
ĠGu err
Ġrev ision
Ġcame o
ĠSy nd
Ġneed le
ĠSch midt
ĠPat ton
Ġfund ra
ĠPeter borough
ĠÂ °
ias m
ĠMid west
Ġ179 8
place ment
ĠDh abi
ĠSin clair
Ġclin ic
Ġobtain ing
ĠKap oor
Ġexpect ations
ĠUlt imate
ĠBuch anan
Ġrecommend ations
Ã¼nd en
Ġcros sover
B ox
F un
L ocal
N ich
O T
S ex
S onic
b ore
e ight
v ic
Ġt in
Ġf ears
ic eless
ĠS I
ĠA cts
ĠC ertain
ĠM ood
Ġre election
ĠI rene
ĠB ant
us ement
Ġg erm
ow itz
ig u
ĠR over
ĠE rd
ew ise
ment ation
ĠMar ino
ect ed
red ible
Ġdep ot
Ġcap ability
Ġseason al
Ġman e
Ġdec ommission
aster ies
ĠAir craft
Ġexpl oring
ĠVal le
ij ah
ĠBay ern
ĠNe o
bl ood
Ġgrand daughter
Ġscreen ing
Ġsaf ely
Ġ180 1
Ġburn s
Ġbott les
ĠÅ Į
ĠWat ts
Ġnob ody
Ste ven
ĠInn ov
Ġconce ived
Ġstret ched
ĠRain bow
Sur v
Ġdenomin ations
ĠDaw son
Ġbacter ial
Ġell ip
1 18
T oy
T een
b ee
c over
i Ã¨res
l ang
p ox
r ust
r ador
Ã µ
Ä ħ
Ġt rop
er d
Ġc auc
ĠS au
ĠT D
Ġl ac
ĠB enny
ĠP asha
ot to
Ġ( $
ig ator
Ġbe e
ĠN ils
ĠU b
Ġr ushed
sh all
ĠY uan
Ġne uros
ĠSh uttle
Ġcare ful
Ġ11 2
by n
Ġref riger
ĠTr ou
Ġvis itor
Ġsw ords
Ġport al
Ġpat ch
ĠWe in
Ġcomb ustion
Ġident ifying
ĠSal isbury
Ġcirc uits
ĠTo a
gl omer
Ġoccup ies
ĠCount ess
cont rolled
Ġcalcul ations
ĠRoc kefeller
ĠBi ology
ĠTunis ian
ĠFem ales
ĠBeg inning
ĠSerge ant
Ġsteal ing
Arab ic
ĠVeter ans
ĠMorm on
B ruce
C re
H ip
a ic
k t
l iga
Ġc reek
ion a
ĠS idd
ĠT arn
ĠA TA
ĠM itch
Ġn an
ĠH ab
et ically
ĠD up
Ġal ike
Ġan k
est a
ill ness
qu is
ĠCh ung
ĠV eh
Ġnot ion
aw k
ten ham
Ġret reated
Ġbl ade
Ġam id
ĠAt las
ĠCl iff
Ġprov iders
ĠPr iv
St orm
ĠBr idges
Ġprom ising
ĠSup erman
ĠBut t
ĠKh uz
ĠPet ro
Ġobs erver
Ġgra ce
Ġsequ els
Ne il
Ġsusp ic
ĠAdminist rative
ĠWolf gang
Ġcou pled
ĠShel by
Ġnerv es
Ġrenov ation
Ġcommemor ate
ĠStre ets
Ġhorm ones
ĠDw ight
Ġmim ic
Ġbreat he
Ġartif acts
F ederal
M uch
T ele
d ar
e ur
f rog
m eter
Ġthe ft
Ġto ad
ĠS ino
ĠS utherland
st orms
ro x
el ope
ir ling
ĠN ing
ul ent
ld on
ab ia
ust on
ine es
Ġcomp uls
Ġ18 16
ĠMar ines
aw an
vel yn
Ġev aluation
ick ers
che on
ĠSh ri
Ġspec ulation
Ġdif f
Ġret ro
Ġchar itable
ĠNorth umbria
Ġ11 1
eth yl
ĠCo leman
umb ers
Ġbusiness woman
Ġappro aching
Ġsett ling
ĠDon na
Ġsem in
Ġsymb olic
ĠFred die
ĠJul es
ĠOver all
ais al
ĠRom antic
Ġult imate
Ġsyn ch
Ap ple
ĠDal mat
ĠMaced onian
Ger ald
Current ly
Fur ther
Ġparam eters
Ġpresum ably
" ("
B and
C ome
F inally
K ent
K ansas
f el
f amilies
r ug
Ġt ang
Ġf right
Ġm asks
ĠS my
ĠC annon
Ġwas hed
ĠM ata
ur ra
Ġg land
ĠF ars
ith a
ĠG aut
ĠE ch
ĠE rik
ĠHe ar
ĠO rient
Ġv ib
ĠSt all
qu iao
ĠV ision
Ġ18 27
sh ow
Ġad mir
ĠShe ikh
ind i
Ġnew est
vent ure
Ch ap
Ġapp s
ĠBra un
Ġmodel ing
Ġcour ty
Ġfort ified
ĠEv il
ening rad
Ġ179 1
Ġalt ogether
ĠBab a
Ġdefend ant
Ġmist ress
Ġdram atically
ĠJose f
Mil itary
Ġarc ade
occ up
ĠHamm ond
Ġfa una
Ġsoph ist
Ġfacilit ate
Barb ara
3 20
3 30
C ro
F a
N ear
j ack
k enny
r ically
t rad
Ġ uter
Ġs acked
ic ating
ĠS ept
ĠA e
ĠC rab
Ġl ent
Ġn iece
ĠH ip
Ġth reshold
ĠB aku
ly s
ĠL ob
ĠN ice
ĠW on
Ġhe al
um ar
Ġv ampire
ub en
ub le
ast a
ome z
Ġar ches
ade h
ace ans
oh a
oss a
ĠPres ley
ĠEl s
Ġparticip ant
Ġtreat ies
Ġtrack ing
ĠGra f
Ġrain forest
Ġang el
Ġsu ite
Col le
ĠEven ing
Ġtend ency
SE E
Ġcompar able
ĠLot us
Game play
Ġadvertis ement
Ġencl osed
ĠBord eaux
Ġsurve ys
Anton io
Prin cess
Ġsurg ical
C hem
H E
J ess
K on
O ffic
S af
S ched
V inc
d et
f ur
an Ã¡
at hetic
Ġc el
Ġf lesh
ĠS ok
ĠT uc
ĠT chaikovsky
ĠC ic
ro qu
Ġl overs
ĠH ilton
Ġth y
ow ska
ĠR IAA
em at
ĠG ert
ĠG uns
ain ted
Ġcom a
ĠCh rys
Ġy east
ĠTh an
ĠAl to
Ġres ist
ĠAr r
Ġsp at
ĠAn ast
Ġass ert
Ġdef enses
ĠCon nor
ĠAustral ians
ek ing
sp ace
ps wich
ĠWilliam son
Ġexpl oded
Ġwest ward
Ġconc urrent
Ġfire arms
ĠDr um
Ġcapt ained
ĠGra ub
Ġcard i
ĠBol lywood
ĠKat y
Des ign
Ġvert ices
ĠRud olf
ĠRA ID
orne o
Ġrent ed
ĠHav ana
dig it
Ġpharm ac
ĠDrag ons
bern atorial
Ġanten na
ĠAcadem ic
Ġcompat ible
Ġneur ons
ĠZamb ia
Jew ish
elebr ity
ĠExcell ence
ĠTusc any
Ġharpsich ord
B ou
N L
g em
h p
Ġt ub
Ġf ores
Ġp riesthood
ĠM illion
ol son
ĠH ole
ĠH astings
ĠB ills
ĠP omer
Ġe ukary
Ġbe i
Ġst unt
Ġas pir
ĠL ook
ĠL ance
ĠG an
ĠG ettysburg
ĠJ umbo
ĠHe w
Ġse aled
land er
Ġj ungle
Ġcomm uter
Ġres olved
ĠRe venue
oun ce
Ġam alg
ĠCl air
Ġappe als
ĠSe ine
arr is
ĠGu iana
Ġdown hill
Ġprom ises
12 5
Ġfinal ist
Ġcompos ite
Ġrequ ests
ĠNor ris
ĠTown s
Ġstates man
Ġpain ful
Ġstri pe
Fran ces
Ġdeterm ination
Ġanal ys
Ġ180 4
Ġ180 9
Ġcycl es
Ġcrew s
With in
ĠEp stein
Ġsteam er
ugs burg
Ġhun ger
Frank lin
ĠChem ical
Ġexcess ive
Ġparad ox
ĠSter ling
ĠFrancon ia
ĠCarpent er
ĠConcer to
C arm
F i
R ick
R yan
l ob
Ġo val
it ism
it iba
Ġp enn
ĠS ald
ĠS iege
ĠC aval
ĠC osm
ĠH ost
em is
ra ch
ĠG w
ĠG le
ĠG ad
Ġpl aque
sh op
Ġper ennial
ile en
ik awa
Ġph ases
ĠSc her
ax ter
Ġdec isive
vent ions
por a
Al b
Ġ24 0
Ġanim ator
sc her
ĠHar lem
Ġprocess ed
Mar c
Ġsepar ates
Ġsqu ares
ĠSim s
fic ial
rid ges
ĠMy ers
Ġpred ator
Ġgrand children
Ġgrand parents
Ġcell ular
Ġgas oline
esc u
Ġcontact s
ĠBart on
ĠÄ °
Ġbattles hip
Ġuniform s
ĠSey mour
Ġfeud al
Ġhomosexual ity
Ġpsychiat ric
Ġsurve illance
ĠTerm inal
arg au
Ġtrump et
Ġconve ction
ĠConstitu ency
ĠOliv ier
ĠPolytechn ic
ĠGraub Ã¼nden
- "
. ),
B ab
C ab
S in
S id
T al
f ig
i Ã¡n
Ġf ins
ing le
Ġm aiden
Ġh aul
Ġ1 19
ĠC ities
Ġl umin
ĠM ate
ĠM ell
ĠI X
ĠB ose
ĠP oe
Ġe cl
ow ment
ut on
and ez
ĠJ ab
ĠJ ammu
Ġv ein
ish ment
Ġun rest
Ġun common
Ġun popular
per ty
Ġra ck
Ġ10 9
Ġworld s
ene g
Ġbr ide
ĠAss am
ĠHol ly
ĠQu ad
Ġten or
Ġtre ason
Ġpract ition
Ġtransl ates
Ġsen ate
Ġaccess ed
Ġjud gment
ĠCons ult
ih ad
ĠHow e
Ġsal am
ci Ã³n
Ġpack ages
cles iast
Ġsusp icious
ĠLat vian
Ġmist akes
ĠNar ayan
Ġdecor ations
Mic key
Ġupd ates
Ġwet lands
Ġpoison ous
ĠCher ry
Ġreun ion
Ġrecept ors
ĠSerge i
Ġguar anteed
ĠLead ership
Marg aret
ĠVolks wagen
A ud
F O
N E
m ere
Ã ģ
ar h
Ġin k
Ġp odium
Ġp aternal
ĠS ales
ĠI M
ĠP aint
ce p
ĠR Ã©
ĠD ram
ĠD oyle
ĠL amp
ĠG Ã¼
ĠW inners
op hor
Ġde ities
ĠK Åį
oc aly
Ġr ay
se ven
". "
ang i
ĠMar cos
ib ald
Ġout comes
ĠRe le
Ġsub continent
Ġinv as
Ġdef ault
Ġback wards
ograph ies
me z
ĠGu itar
ĠEd ith
Ġshort est
16 0
Ġpe asants
Ġgot ten
Ġreal istic
Ġdevelopment al
Ġnever theless
ĠSam sung
Ġ0 4
ĠBas que
Ġprot ons
Ġobs erve
ĠOl ivia
Ġpick s
ĠUr s
ĠMore no
ĠTri assic
Ġpun ct
Ġ179 4
Ġprec urs
ĠRel igious
ĠBart Ä±n
Ġprepar ations
Ġsick ness
Ġimpl ies
Ġrefuge e
ĠBox ing
Spe cies
vol ume
ĠCzechosl ovak
ĠRest oration
Ġsubsc rib
ĠRus so
Ġurg ed
Ġchim panze
Ġenthus i
Hung ary
fr ame
Ġapprent ice
lÃ© ans
Ġrejoin ed
Ġremn ants
ĠDund ee
Cant ons
ilib rium
B ey
C ivil
C ulture
D om
K am
L ight
e ated
Ġt ips
he ll
Ġf riction
Ġf ertile
Ġp our
Ġm uc
Ġd il
ĠT ill
ĠC rane
ĠM GM
Ġre venues
ĠP ush
ĠR och
ĠD ug
ĠG ould
ĠN ad
Ġal arm
Ġde pr
up pet
ĠCh un
Ġcl iffs
ach y
pr ising
Ġloc ks
til es
omet ry
rat s
ĠCanad ians
ĠOr t
ĠPart ners
ana o
ipp ers
Ġcult ivation
ĠBel mont
Ġsocial ly
cis ely
ĠMal i
Ġpriv acy
Ġinvest ments
ĠGal icia
ĠHon olulu
ophy ll
chen ko
ĠWater loo
iat ric
Ġatm ospheric
Ġtask ed
Ġmort g
Ġresemb les
ĠChand ra
Ġalgor ithms
eli hood
ĠBuch arest
kir ch
Den is
abs burg
ĠCompan ies
Ġaccus ations
Ġenroll ment
F all
J enn
L V
P ur
b red
p p
Ġ ç
Ġt idal
Ġs aints
Ġin verte
Ġd ive
ĠS ib
Ġh airs
ĠT unnel
Ġl umber
ĠB acon
Ġst ole
Ġst raw
ĠR ising
ĠF K
ĠL it
ĠG ior
ĠW itness
ag na
ĠO sc
ĠU FC
Ġcon form
ĠSt ones
Ġk ne
qu a
ĠV ald
ĠUn ter
Ġar row
ĠTh irty
ass i
aw at
aw ks
ĠZ am
ĠCol chester
ual a
ĠAn j
ern s
ĠSc r
Ġinv ade
ĠSp ike
ograph ically
Ġcolle ague
Ġlight weight
Ġarch ives
Ġdefe ats
Ġhalf way
ĠKore ans
ĠRes ident
ĠQu ant
Ġcomb inations
Ġmot ivated
Ġhard core
Ġins ult
Ġins ulin
back er
Ġsum mon
ĠSpe cies
Ġcle ver
Ġnick el
ĠÅ ļ
Ġancest ral
ĠGreg orian
ĠMoh amed
Ġrot ating
ĠRen o
Ang el
Ġconcer to
Ġic onic
Ġmerch and
ĠCarm en
ĠAgric ultural
ĠTob ago
ĠSteel ers
Ġtrend s
ĠReform ed
Francis co
ĠScandin avia
ĠSwim ming
ĠOsw ald
ĠLex ington
E arl
F ood
L i
L ead
U lt
b ah
b ably
s erv
Ġo scill
Ġw isdom
al one
Ġf et
Ġm aid
ĠS Ã¡nchez
ĠT os
ĠC W
Ġl ined
ĠM s
ĠH oney
ĠF ri
ĠN um
ul as
Ġcon e
ĠK ara
ust adt
Ġcomp aring
ry pt
Ġcl iff
iz able
act eria
Ġdis qual
Ġover night
Ġpre val
ĠAn ita
Ġ16 20
Ġmed ley
Ġbuild er
Ġcurrent s
Ġsoc io
ĠTr ue
ops is
Ġpe aking
Ġreal m
ĠWe imar
ĠAg nes
ux e
Ġcy ber
back ground
Ġcreat ors
Ġemploy er
Ġmer ge
Pro perties
sex ual
ĠJean ne
ĠId a
ĠDomin ion
Ġansw ered
ĠMP s
Ġrebu ild
ĠAnim als
Ġsan ctuary
ĠLaure nce
ĠAssoci ates
Bre ak
ĠCarm el
ĠMalt ese
ĠIS O
Ġorb its
Ġmasc uline
Ġwick et
Ġsket ches
orig inally
ĠBagh dad
Ġabd omen
Ġunemploy ment
ĠCaucas us
ĠVolunte er
Ġmixt ape
Ġantibiot ics
Ġguerr illa
ĠSchne ider
ĠNiss an
ĠByr ne
ĠKhuz estan
" âĢĶ
J ason
M arriage
T imes
d el
f ull
l und
t it
en ko
ar ium
ĠC en
ĠC rew
ĠC edar
ct urnal
Ġg am
un ts
ĠF ram
ĠD over
ra ction
ĠL ough
ist ically
ĠJ ag
ĠU ran
ĠK od
ĠUn cle
ure l
ĠTh ing
ĠAl am
Ġout law
ick er
ĠSh arp
Ġ17 75
Ġdef ences
Ġgener als
âĢĻ .
Ġint ra
Ġgu bernatorial
Ġterm ed
Al ong
Ġpost pon
Ġconf ident
ĠSm ackDown
Ġparent al
ĠDel phi
Ġemploy s
ĠOl ga
Ġaccept ing
Ġdocument aries
ĠRh in
roll er
Ġsal mon
ĠBh ar
Ġ179 2
Ġ179 6
Ġdipl oma
Char acter
Ġastron omical
fe et
Ġhang ed
Ray mond
onge Bob
ĠDud ley
ĠKann ada
Ġgarn ered
ĠUzbek istan
ĠBrem en
B arn
B ois
E ug
F amous
M other
N R
R un
R ome
Y u
f ires
h ara
o gh
r ised
ar oo
Ġf iscal
Ġp end
om ans
ĠS outheastern
ĠS PD
ĠT WA
Ġl izards
Ġn ud
ĠB ug
ĠP athan
ir ut
Ġg or
ĠF ashion
ĠD odge
ra cted
ĠG ug
ĠN ur
ĠN ue
ĠV ander
Ġte ens
Ġ18 17
Ġkn ights
Ġoff shore
rib es
hen y
air a
Ġnumber ing
ros se
ĠNational ist
let ic
els en
Ġ13 5
Ġgu ess
10 9
ĠQu art
Ġfac ial
ĠMac au
Ġsurround ings
ĠHaw k
Ġrain bow
Ġblock ade
Ex ample
Ġflu ids
Ġlaunch ing
Ġtim ing
Ġlimit ations
Ġru ined
Ġverte brates
Ġreorgan ized
ĠLen in
End ers
Ġhumor ous
Lo ire
ĠPut in
cap ital
ĠKrak Ã³w
ĠDÃ¼ sseldorf
Prepar ation
ĠMarse ille
1 000
F al
F em
G host
T ax
V ladimir
m art
n om
u ve
w elling
Ġ é
Ġs her
ar ine
ou k
ĠA FL
ĠC ult
ĠM ast
Ġn atives
Ġn asal
ĠH ank
ĠH appy
ad en
ĠD ictionary
ĠG ut
th irds
ĠE A
est ead
Ġar che
19 47
Ġne o
hen burg
Ġam bit
Ġprog ressed
10 2
ĠTe ams
Ġbus iest
Ġfinal ists
Ġcor re
Ġinvest or
ĠDes c
ĠTra cks
Ġche f
ID E
Ġschol arly
ĠSol id
Ġlabel ed
Ġpath way
ĠIntern al
Ġcorrespond ence
Mic ro
ĠManu fact
Ġtomb s
Ġfung us
Ġwel come
Ġprev ents
ĠRodrig uez
rews bury
ĠFuk ushima
ĠMyster y
ĠChev rolet
Ġpilgrim age
L ocation
a er
z in
in ational
Ġf als
Ġf ried
le ague
ĠT us
ĠC ebu
ad ena
ĠB R
ĠB one
ĠF ors
ĠF rÃ©
ĠL inn
ĠN egro
ĠW ide
ĠHe idelberg
ĠK eep
Ġv end
ust ain
ĠV and
ĠV ishnu
Ġ18 22
ng el
Ġsc ripts
ĠSh am
Ġpre cisely
oth ic
Ġ7 50
Ġfl ora
Ġrep aired
ĠPar a
ĠGu er
ĠBra b
Ã¼ h
omb eh
ĠMed ic
ĠEm ploy
Ġ[ ...
ĠGod win
Ġsil ence
Ġtravel ers
Ġnight club
ĠBor g
Ġdeterm ining
ĠClass ification
Ġ180 7
Ġmyth s
ĠBon n
Ġroll ed
ĠDam ascus
Ġsail or
ĠStand ing
ĠRoy als
Ġattract s
Ġattrib utes
ĠTol ombeh
ĠHand el
ĠCrime a
Ġrecommend ation
Transport ation
Municip alities
offic ially
B und
C R
D ave
K in
K an
R ou
l ook
t an
w atch
Ġo rogen
es que
Ġc ortex
Ġp onds
ĠT ell
ĠA K
Ġre iss
ĠI pswich
ir able
ĠR BI
ĠF rog
ĠD ust
th ology
ĠW an
ĠK ras
ĠK aiser
ab ling
ĠCh iba
own ers
Ġcomp ose
Ġcomp rised
ach a
ĠAl s
ĠMar i
Ġen hanced
ĠZ ach
pro te
Ġschool ing
ĠSe venth
ĠMin h
ĠCar ac
uck le
gr ims
sk aya
Ġcor rel
Ġhard ly
Ġfront ier
ĠMcC artney
Ġsu ited
Ġsu its
Ġlif es
Ġlif elong
Ġcontain ers
Ġconcent rate
Ġovers ee
Ġastron omers
Ġportray ing
Ġmart yr
Ġhun ters
ĠEver ett
Ġninet een
Ġrod ents
Ġlandmark s
ĠAj ax
ĠCris is
Prov ince
ĠBohem ia
Ġweld ing
ĠHitch cock
wid th
ĠIniti ative
clesiast ical
? ".
A L
B ol
B arry
M inn
P E
S eries
U se
d rop
z l
on ut
or an
ic ates
ĠT orn
ĠI gor
et ian
im ov
ter min
ut u
ĠR um
ĠR utherford
ĠD oor
ist rate
os c
ac iÃ³n
ew all
Ġr hy
Ġk een
ĠCh ow
uc ian
Ġnot orious
ĠAl m
Ġac et
Ġme als
ĠPro cess
Ġplace ment
ĠGu inness
ĠColle ges
ev il
ness et
Ã¼ d
Ġeconom ically
Ġbroad er
Ġmodel ed
Äģ d
Ġbo iling
road s
ĠDo ctors
ĠSpe ars
ĠGar field
Ġdark ness
Ġdom ains
ĠCorn ish
ĠId ol
ĠSub sequently
ĠRaj a
May flower
Ġharm ony
Ġintegr ity
Em peror
ĠFront ier
Ġperfect ly
ĠStev enson
Ġnit rate
ĠKil kenny
Wil son
ĠCompan ion
Short ly
ĠMongol ian
ĠLif etime
ĠParad ise
Dig ital
: #
H amilton
S M
d ist
f und
k ot
p as
Ġf ug
Ġb ol
Ġb ud
Ġp aired
ĠA id
st rom
ro duced
Ġl izard
ĠM ecca
ĠH T
ĠH anna
ĠP ang
ĠL ocated
ĠG ord
ĠG ond
Ġv est
Ġex ports
ĠV lad
og rams
ach im
Ġsc rew
Ġup grade
ail or
Ġover head
ĠCom ic
Ġso ils
ener y
Ġwe aker
Ġ17 70
Ġtrans m
Ġdisc s
Ġapp arat
ĠEl vis
ĠX i
ĠTr uth
13 5
ring e
lim ited
ĠSim mons
ĠMer cy
ĠMass acre
ĠPac quiao
ĠBrown s
à¸ £
Ġdon ation
oura ble
Ġspect ators
ĠRen Ã©
hyth ms
Mad ison
ĠÃī cole
UC N
Ġgross ed
Ġcarn ivorous
ĠAur ora
Ġspokes person
ĠApost olic
ĠiP ad
Ġjuven ile
ĠAtl Ã©tico
Vid han
B B
C B
J erry
M s
M and
M ess
S or
S ul
a an
d em
r ide
r ush
Ġin ception
Ġb ail
Ġm osa
le af
ĠT urb
ĠC unning
st re
ĠI NC
Ġn ec
ĠH absburg
ĠP ond
ĠP eck
Ġe uthan
ig ue
ĠF ay
ĠG aga
ĠJ enny
od en
ĠK obe
Ġv om
qu ot
end on
ĠCh icken
Ġun stable
ĠTh orn
Ġcl ip
ign on
ĠMar ri
ec onomic
ĠSh annon
az aki
Ġart ic
Ġtrans actions
Ġback s
ĠPl uto
ĠGu in
Ġexp ired
Ġwar mer
ĠEl ena
Ġhand ful
ush u
Ã¤ t
Ġproject ed
Ġbroad ly
Ġmar itime
Ġcast les
stand ard
ĠCatholic ism
Ġfunction ing
Ġtou ches
ĠFound ed
ĠBh ag
Ġconstitu ent
ĠLind say
Ġce ase
Atlant ic
ĠNorm al
ĠZh ang
ĠBomb ard
ĠUC I
Ġhyper t
ĠSyl via
ĠBour bon
Ġsatisf ied
Jim my
ĠPatri ots
ĠAppe al
ĠHod g
Maur ice
ynt hesis
ĠEarn ed
ĠOkin awa
Ġdisag ree
) &
2 20
C atal
G h
H and
J P
P ubl
S um
S ky
h og
l ace
y i
Ø ¨
he i
an er
Ġw age
at ist
ar bon
ing ing
Ġm ig
ĠT ale
ĠA ugsburg
ĠC ron
Ġre vel
ur able
ĠL ich
ĠW P
um my
Ġcon greg
ĠK iller
Ġv ictor
Ġk e
end ale
Ġcre st
pro of
Ġmon asteries
ĠAd ele
ĠOr b
ĠTe j
ĠAm ar
ĠPenn y
Ġintro duces
ĠCong reg
Ġimp aired
Ġdam aging
ĠBas ic
Ġsuff ix
ĠCommun ication
Ġaccept able
Ġopt ed
ĠCD s
Ġthir teenth
ĠKer r
Ġconqu er
Ġconsec rated
Har old
ĠVar ious
ĠKey nes
Ãī t
Ġsuperv ised
Ġec ology
Cor onation
Ġnurs es
ĠTreas urer
ĠIN SEE
Ġfisher men
ĠSyn od
Ġepid emic
Ġknight ed
ĠAnders en
ĠDayton a
roscop ic
ĠLund gren
ĠHok kaid
ĠWi ener
ĠLaf ayette
Ġtelev ised
ĠWilt shire
B ank
H um
I R
L uis
M iddle
S yl
U TC
W ell
Ġt iles
Ġt unes
ĠS utton
ol or
ĠP enguins
ĠF ast
ĠF Ã©
ĠD ag
ĠD ors
ĠD unn
ĠD ante
ĠL ect
ĠL eningrad
ĠN iz
ĠN eck
ĠW erner
ac i
ub o
qu are
ĠV HS
Ġ18 23
Ġj am
ĠAr g
19 48
ĠNew sp
Ġatt ained
ĠSw itch
Ġbuild s
Ġem blem
Ġcontin uation
con i
ĠHer r
Ġref urb
Ġdeb ts
Ã¼ hr
Ġhelp ful
sk irts
Cl oud
Ġport folio
ĠSer bs
ĠMor a
Ġins erted
Wh y
rol ogy
Ġsat irical
Ġbomb ard
ĠMot own
ĠWall er
ĠNig er
iot ic
Ġsens ory
ĠDaniel s
Ġtele communications
Ġbackground s
ĠDream s
ĠMagn us
ĠRan ch
ĠUrugu ayan
ĠMoroc can
ĠFact or
Ġdynam ics
Ġparas ites
Ġdrown ed
Ġexha ust
Ġharass ment
Manu el
Ġenact ed
Sund ay
Ġtrigg ered
ĠMaurit ius
H om
M es
O ak
S ac
c ost
d n
f if
j ord
p owder
u ate
v ir
Ã ¹
Ġ 000
re b
es ame
al ach
om ore
Ġd ye
Ġd well
ĠT win
el is
ĠM ater
us ive
ch annel
ĠL up
ĠL aus
th or
ĠW B
Ġan onymous
est ag
Ġch op
ĠV y
Ġ18 11
ind y
Ġsp anning
ĠSh arma
ious ly
Ġop pose
arri ers
row th
Ġsign atures
ĠBe e
ret to
Ġsim ul
ĠUS C
ĠPol ynes
ĠRiver a
Ġexp enses
Ġannoun cing
Ġequ als
Ġappro ve
Ġsw ift
Ġport able
ĠDep ort
Ġpe ers
ĠRec reation
ĠMart ÃŃ
For bes
ĠEgypt ians
ĠInter active
Ġ180 5
Ġdiss olve
ĠUs her
Ġprior ity
Ġcho oses
Ġir rit
ĠRang es
ĠGen oa
ĠNag ar
ĠWy att
Ġdecre ases
Ġvoc abulary
King dom
Ġsort s
Ġdan ced
ĠMol ly
Ġmand atory
Ġproceed ings
Ġtherm odynam
Ġincorpor ate
kir chen
ĠOil ers
Ġsemif inal
aek w
ĠOct avian
Arr ondissement
Ġamphib ians
Ġelectrom agnetic
Ġencourag ing
Ġimpe achment
ĠBatter y
ĠJub ilee
ĠHarri et
Ġstead ily
ĠSchles wig
Ġapparat us
1 12
C ath
F ull
S V
W V
c ip
c oin
f ill
m oor
u w
v on
Ġa ug
Ġin ex
as o
Ġp ear
Ġp ays
Ġp awn
ou g
ion i
ĠS D
Ġh ated
Ġh alt
ĠT od
ĠC BE
Ġl adder
ĠH annah
ĠB iel
ĠB uzz
ĠP ow
ut ory
ĠR iga
ĠL um
ĠL ars
ĠN ico
ĠN inja
ag uchi
ac ia
ĠK erman
mer ged
ran i
ĠV ampire
Ġcomp ress
low er
eb i
19 18
19 30
19 46
19 44
Ġrec ount
Ġstate wide
pro cess
ĠPh one
Ġjoin ts
gr ass
Ġcr ushed
Ġsl aughter
ĠAnd or
Ar gent
Ġhost age
ĠBy rd
Ġdam s
Ġdev il
ĠRoad s
ĠMag dal
ĠCarl ton
Con struction
ĠAnn iversary
Ġarm oured
ĠUnivers ities
Ġlack ing
Ġtouch ing
Ġspons ors
Ġentertain er
ĠÎ ±
star red
ĠHans en
ĠDem on
Ġment ally
ĠEver est
Land kreis
tr ue
iw i
Ġcalc ulation
Ġphenomen a
Ġaster oids
ĠClay ton
ĠSoph ia
Ġlisten ers
Victor ia
ĠMarx ist
ĠJak arta
Ġpersec ution
ĠAltern ative
Govern or
Ġoverwhel ming
Ġlad ies
ĠWander ers
Ġhemor rh
Sched ule
Ġsubscrib ers
B BC
E ff
b et
h ab
l Ã¡n
Ġt ended
on ics
Ġw ond
Ġs oprano
Ġf Ã¼r
Ġd ynast
ĠS end
il iation
ĠC ourage
ro vers
el as
ĠM Ã¼n
ĠH R
ĠH ain
ĠP ione
Ġst airs
Ġst iff
ĠL och
ĠG us
ul o
ĠW ise
Ġhe ars
ĠE thel
all o
ĠO uter
Ġv eto
ort heast
ich uan
ip es
ĠCh ah
uc ed
Ġun ic
ph ant
ans ing
act us
Ġdef icit
yl ogen
Ġmed ications
ĠQ uran
ĠCal ed
Ġany way
af ar
Ġkill ings
ĠTe achers
Ġeng aging
ĠEl i
ole cular
oll s
ote chn
Ġfamous ly
Ġes p
ĠCor por
Ġval ves
ĠPer forming
ĠGl ory
Ġarch ive
ari os
Ġsound ed
Ġsqu ir
ĠSl ayer
ĠThat cher
Ġemploy ers
ĠFore ver
Ġfav ored
Ġmurder er
ĠSpr int
Ġer otic
Ġlog ar
ĠOtt omans
Ġdeliver ing
Ġple aded
ĠSav age
Ġda wn
Ġpage ant
Ġobserv atory
Ġterror ists
ĠGuy ana
Ġtact ical
ĠEsp a
ĠRef uge
Ġmemor able
ĠLibert arian
ĠRee ves
Ġexped itions
olut ely
Ġexecut ives
B ert
C ort
D al
H ey
b ecause
b anks
g one
k on
s erving
Ġ ure
Ġf ond
Ġb ags
Ġh iatus
ĠT art
st ation
ĠB T
ĠB rest
iv ian
ur us
ĠP urd
ĠR iz
ĠR ih
ĠF oss
ĠF unk
em y
em er
ĠG omez
ĠN ights
ĠJ et
ag ara
ag han
Ġhe ll
Ġse aw
ĠK nesset
Ġch ord
te x
ec ost
Ġsc ared
Ġsc ream
Ġsy mphony
br ight
angu ages
Ġ11 4
ĠPl at
Ġevery body
ĠEl m
Ġdem olition
Ġpract icing
ĠMart ÃŃn
Ġcampaign ed
Äģ b
ny der
ĠArch ives
Ġdead liest
ĠHaw kins
ĠFred er
ĠEnter prise
ĠJud ith
Ġ180 2
ĠTem per
Ġprin ter
ĠHu i
ĠHor ace
Ġmic ros
Ġmill ennium
Ġpack aging
Ġnob leman
iling ual
Ġexplos ions
ĠGab ri
ss es
ĠDog s
ĠLaure n
Ġexpert ise
Ġpersu ade
anj ing
ĠMalay alam
ĠFlow ers
Ġdisagre ed
ĠLess er
Ġfier ce
ĠWend y
ĠOlympi ad
ĠSurin ame
ĠAmÃ© rica
Ġleuk emia
N BC
P y
P erson
V is
g au
l ich
p he
s ite
Ä Ĺ
he k
Ġs acks
Ġin stitutional
Ġc ivic
al ay
Ġf oul
Ġp ic
ing a
le ine
Ġd upl
Ġh abits
ĠC ars
ĠM ask
ol er
ĠP ix
ĠD ir
ĠG A
ag us
ill ard
Ġpro se
Ġpl um
ĠIn st
Ġle ver
ĠV ictory
Ġcomp ression
ĠDe leg
Ġdes p
Ġtra gedy
ĠInd y
Ġrel ate
ĠAt ari
cc entric
lev ille
ĠSe al
arn o
ĠBro oke
Ġsk iers
Ġdeb ates
Ġvis a
Ġvis cos
Ġspecial izing
ÃŃ az
Ġorigin ating
ĠEm bass
ruct ive
Ar c
Ġdel ta
play er
ĠTer esa
All en
ĠMur der
Ġtransfer ring
Ġsus pects
Ġforeign ers
Ġfinancial ly
Ġlack s
Ġautom otive
agon ists
ĠLy ndon
ĠSund ays
ĠSub way
Ġbow ler
rav iolet
ĠNev ille
ĠHo over
ĠSn ake
def ined
Rev iew
Ġmoist ure
ĠBark er
Rele ase
Ġrelie ved
hig hest
Ġambit ious
B alt
E t
F ord
H yd
N ext
P in
R u
S ongs
T I
b ol
p ike
s venskan
v oy
v sky
Ġ ul
an ol
Ġw ires
Ġm ourn
ĠS aga
ĠC I
ĠC oc
st als
ĠH in
ĠB oot
ĠP ig
ay ana
un ion
ĠR ib
ĠF an
ĠF ed
ra cle
ĠN ab
ĠW ere
ĠK hor
Ġv apor
âĢ ĺ
ie ves
ment al
ĠCh ip
Ġun m
Ġun aware
ĠTh oibi
ach al
ĠAl g
Ġad oles
ans en
uch in
Ġra ped
Ġreg ulate
ram an
Ġpre jud
oth o
olog ic
ĠMay weather
Ġrel ativity
ck i
Ġinter course
ĠCl ifton
Ġent r
rop shire
omet ers
Ġsystem atic
ĠBe irut
fl a
ĠOr ion
ĠPart s
ĠEd ison
ĠFl at
Ġla wn
Ġpost ing
Ġtechn ological
Ġhold ers
Ġhy mn
Ġant is
Mar ne
Ġlim bs
Ġred dish
Ġrecogn izes
Ġpress ures
ios is
ĠRob bie
mar ine
fact ory
Ġcelebr ating
Con f
ĠAnn abeth
Ġreason able
Ġexc ited
Ġexc iting
Ġprop het
Ġpurs uing
Sm all
Ġguard ian
Ġarchae ology
Ġcooper ative
Ġcollect ively
ĠPolit ics
Ġadvoc acy
Ġur ine
Ben jamin
ĠBron cos
ĠMans field
cut ta
Ġrum ors
Ġadm ired
Ġtelesc opes
Ġspokes man
Ġoverth row
Ġcrocod ile
ĠCov entry
ĠSold ier
Ġfulf ill
Ġhier archy
Ġcentim eters
ĠCitiz en
Ġbutt ons
ĠStrike outs
aceut ical
ĠFlem ish
B h
M i
M it
P en
R ound
R ight
U t
b etween
f b
Ġt ricks
it ations
Ġb ugs
Ġb ricks
Ġp ork
Ġm antle
Ġto ads
Ġh ides
ĠC un
Ġ2 10
ad av
Ġg ren
ĠThe ological
ter a
ĠR ig
ĠR ise
ĠR omer
ĠR ocks
ĠN ay
ĠE manuel
ri ev
ĠU DR
Ġor ch
are th
Ġun ification
ĠY us
ood les
du ctions
air n
Ġwell s
ĠPro f
Ġdef ining
Ġtrans plant
yl ie
Ġrep et
10 4
ĠTe lev
ĠFl ames
Ġpos itively
ĠX ML
ĠX III
Ġstand ings
ĠEn c
ĠIm pro
Ġenc oded
ĠRos es
ĠOs borne
Ġblock ing
Pr inc
Ã´ me
Ġ180 8
ĠCoast al
ĠInt egr
ĠÅ ½
ĠÅ ŀ
Ġple ased
ĠMain z
ĠGer ard
lar ge
Ġmax im
ĠBab ylon
Ġglass es
Ġax e
ĠRick y
ĠTit le
ĠLow e
ĠSport ing
Ġprosec utor
ĠRic ci
Ġinsc ribed
Ġadm its
Ġporn ography
government al
ĠEvangel ical
Ġsurpass ed
Ġcomprom ise
ĠKens ington
Ġtraff icking
Ġsophist icated
ĠOsc ars
aekw ondo
1 15
C le
G on
I an
Y our
m ese
z ew
z ell
he it
Ġs el
al id
Ġb ron
Ġp H
Ġp ept
ing way
il ers
ĠC ann
ĠC lem
ol utions
Ġn ic
ĠH i
ĠH og
et ten
ch tenstein
Ġst alk
ĠF est
ĠD arth
ĠL atter
ĠG ov
ĠG ud
up id
Ġcl ocks
Ġcl aws
). "
ug ged
19 41
Ġen ables
Ġdis in
Ġsec rets
Ġsome body
az y
az er
Ġam bulance
ank ton
Ġ11 7
Ġdesc riptions
Ġstat ic
Ġref using
umb oldt
oll ar
Ġpat ents
ĠRes p
ĠSal le
Ġins urg
Wh it
Ġbur st
Ġste ering
ĠRos ie
Ġer up
ĠSol o
ĠLab rador
ĠLo op
Ġve ins
Ġregul atory
Sim ilar
ĠPad ma
Ġdischar ged
Ġhelic opters
ĠRivers ide
Ġrib bon
ĠBun ny
Dis ney
ĠKem p
Administ rative
ĠEdu ardo
Kenn eth
ĠRever end
ĠCald well
ĠNiel sen
C redits
K r
L Ã©
P enn
S oc
b ard
b ull
h wa
Ġt ense
Ġw orms
Ġw rapped
Ġs ink
ed in
Ġf ence
ic os
le ted
st yl
Ġl av
Ġl amb
ĠD ot
ĠG ers
ist ries
ĠW ash
est ing
ac ock
ill era
ĠK ish
Ġpl enty
ĠSt on
ub ishi
Ġch ips
Ġk ern
qu ist
Ġcomp ass
Ġcomm od
act yl
Ġsp ells
oin ing
Ġout skirts
ĠRe ad
ĠAn and
Ġcap ita
Ġ12 1
rat ropical
Ġshort age
ĠAng u
16 6
Ġpar ap
alt a
Ġequ ilibrium
Ġactiv ation
Ġsw ept
Ġeffect iveness
abit at
Ġdistrib ute
Ġins ert
ĠGod dess
ĠGod zilla
Ġviol ated
ĠMac c
Ġpen cil
ĠLiber ia
Ġquarter finals
ĠHu bert
ĠMir ror
Ġovers aw
ĠSum athi
ĠChamber lain
chang ed
ĠCob b
Ġmultipl ication
Ġavo iding
Wind ows
ĠBloom berg
ĠAna heim
Ġconven ience
ĠJohannes burg
Ġtoler ance
Coll ins
Ġcer amic
Ġmelt ing
Ġsymm etry
Ġuncon stitutional
Ġumb rella
ĠCarth age
B ass
L M
O lymp
R y
f ran
k al
n ote
s ided
v ale
Ï ĥ
Ġf ric
Ġf oster
Ġm ah
ou m
ĠS uccess
ĠA A
ĠC Ã©sar
el man
ĠH ath
Ġg rip
ĠR ide
ĠL ump
ĠG arrison
est ra
ill ac
ab h
ary ana
end i
rit is
19 38
Ġtra uma
ĠSh ropshire
Ġsy philis
Ġunder took
Ġrel ied
Ġshow c
Ġ17 50
Ġbl ame
ĠIs mail
Ġmay be
Ġtown ships
ĠCon nie
pos ing
ĠSe lect
Ġinst antly
con ne
co ach
Ġbas eman
ĠFl ores
Ġapp end
Ġexp end
ĠBra ves
ĠColle giate
Ġspecial ised
An cient
Ġexpl ores
Ġdet ection
Ġtechn ically
ĠAnt igua
ĠRec ently
Ġfree zing
Ġins ufficient
Ġphot ographic
Ġmeth yl
Ġboy cott
ĠBu ilt
ĠLeg ends
Ġrain y
Ġtable t
ĠAlb ion
light en
ĠMov ies
oven ant
ĠRel ief
Ġocean ic
ĠBeat rice
ĠBuff y
Ty pe
Ġstim ulation
ĠProtest ants
Ġkeyboard s
ĠBert ie
Ġexcell ence
Jac ob
Ġmultipl ayer
Ele ven
ugh t
Ġsediment ary
Inc umbent
Ġinspe ction
ĠCypri ot
Ġpolyn omial
Ġgenu ine
Ġincom plete
ĠEmbass y
" &
F riend
S ug
S hel
c ifically
s ound
Û Į
Ġw and
Ġs ized
Ġc um
it ud
Ġf rig
Ġd ental
Ġd ella
ĠS Ã¶
ĠT ap
ĠC M
Ġn ave
ĠN E
ĠN ah
ĠW olves
rom atic
ĠO u
Ġse ated
ak in
ast y
ĠCh ing
Ġun related
ff er
eop h
ach ute
sh u
Ġsp ices
Ġra cer
Ġmus k
Ġloc ate
Ġwould n
ĠZ ero
Ġfour teenth
br and
Ġdisc o
Ġdiv ides
Ã¡ rez
ĠAfric ans
Ġref use
ĠX II
ĠMon mouth
Ġsimilar ity
Sh in
Ġcand y
Ġbar racks
ĠPet rov
adesh iko
Ġtext ure
ĠOut side
ĠSa unders
ĠCD U
ĠTa ft
ĠFire f
ĠBol ton
Ġliqu ids
Ġcorresp onds
ĠLev y
ĠPhill ies
ĠVeg a
ĠAssoci ated
ĠGloucester shire
Ġexplicit ly
ĠAsc ension
Ġcatal ogue
Turk ish
C ong
D ance
G a
H it
M ars
N U
P herson
R at
V ic
b eh
g eneration
l ings
m ot
m ass
p oints
in z
er en
is ans
ar ate
ar se
it one
Ġp aved
ĠT i
ĠT ests
ĠA ve
ĠC oss
ĠB reg
us p
ĠP ist
ĠP ue
ĠD ole
ĠG ru
ĠW ent
ag her
od us
ĠK es
Ġr ushing
ĠCh ick
ĠCh atham
Ġex otic
Ġle ak
ang erous
ach ine
Ġher bs
ans ky
uch Ã¢tel
Ġdis m
Ġsub mit
ĠBrit ann
Ġrecord er
Ġmat ched
Ġterm inated
Ġtri umph
aut h
Ġdel ays
ĠAnt oine
ĠProv ision
Ġcoast s
ĠBern stein
ĠEnter prises
Ġautom obiles
Ġcontact ed
ĠKat z
ĠLes ter
Ġgrass lands
Ġmut ation
omot ive
Ġsynd icated
Ġunus ually
Hen ri
ĠDal ton
Ġtor que
Ġmarry ing
Ġcatch ing
ĠWell es
Hol stein
Ġpione ering
Ġadvoc ates
Ġpros pect
Dou ble
ĠLie fering
rank ed
Ġacceler ation
ĠPack ers
Ġtransc ription
ĠIb n
Ġcha os
ĠEuras ian
B ed
J osh
L arry
M erc
S i
T F
c am
p ara
p unk
r ase
v ie
he at
in ition
Ġin equ
Ġp p
Ġl od
Ġre elected
ĠI roqu
ĠH ence
ĠH ash
ĠB id
ĠP aw
ĠP oints
Ġe ccentric
ly sses
un ate
ĠR hein
ĠN Z
ĠE ighth
aus ole
Ġatt itudes
ina i
ĠAn throp
Ġam usement
eng o
me ga
10 7
Ġtit ular
Ġsl ang
Ġep och
ĠReg inald
Ġcast e
ĠCongress man
Ġste als
ĠCons ul
ĠCont in
ĠRos ario
ĠFort une
Ġdeterm ines
Ã§ on
gu itar
ĠLuc ia
ĠGro ver
Ġharm onic
ĠAtt ack
Ġmind s
Ġillness es
Ġrecon cil
Ġcrowd s
ÃŁ e
Ġcas ino
East Enders
Ġshel ters
Ġimag ination
Ġfaith ful
Ġdefence man
ĠRub y
Ġcann abis
ĠLie chtenstein
ĠEug en
Ġsubsc ription
ĠHaz el
Ġalumin um
Ġconven ient
abl anca
Ġdisapp ointed
ĠBasil ica
Ġilleg ally
Ġcub ic
ĠHert fordshire
ĠSett lement
Ġreper toire
C ube
G E
H K
L ud
M ade
M ans
M oon
M ayer
R ab
S ister
T itan
V i
W P
a qu
f orth
z u
z ac
z ier
Î ¼
Ġs inking
en heim
Ġin cl
Ġb urg
Ġm ont
Ġd emocrat
Ġd ictionary
ĠS ick
ĠC over
ĠB ac
ĠB isc
ĠB etter
ir ang
ĠD rav
ĠL ia
ĠG ob
ĠN othing
ĠJ ude
ĠW ad
Ġcon es
ĠK is
ep ort
Ġy oga
Ġcl o
Ġag enda
19 20
Ġrec all
ve olar
Ġsec uring
Ġtra it
Ġmus cular
az on
Ġunder going
ier o
ĠJu vent
Ġrem arried
br ate
ĠPr as
Ġaut onomy
Ġob ey
Ch urch
Ġext ratropical
ĠAm ph
Al tern
Ġsol vent
Ġhand ic
rain ing
Ġmatch ing
ĠIsland ers
Ġdecl aring
ĠCam pe
Ġpot atoes
Ġscreen ed
And re
Ġaltern ating
ĠSom ali
ĠSab bath
ĠRang er
ĠAdminist rator
Ġmut ations
Ġshel f
Ġpure ly
ĠRand all
Ġessay ist
ĠCand id
ĠHod ges
Ġmetab olism
educ ational
Ġanticip ated
Ġconfron ted
ĠBirth day
Ġenvelop e
Ġinfer ior
Russ ell
? ",
C ob
C lin
L ind
S oon
S oul
T ed
c urrent
f est
n ius
r ude
s ous
w ife
y enne
Ġt ires
re present
ar ak
ar ina
it im
Ġb aked
Ġb amboo
Ġp ix
Ġd un
Ġd ots
ĠC ats
ĠC areer
st aff
ĠM ey
ĠB ing
ĠP iper
id ore
Ġbe ak
her ty
ul ing
Ġal iens
op t
Ġhe n
av o
Ġcon cess
ĠK ali
ew s
ĠSt ream
ĠIn stitut
so hn
ine z
Ġj e
pl ane
19 43
Ġsp ont
ĠSh o
ĠSh rewsbury
ĠCom pos
ĠZ oe
Ġrel ates
Ġtr im
Ġass im
ĠCl ap
ron a
ĠCal cutta
St ars
Ġint ensive
eng ue
min utes
ĠItal ia
Ġsix teenth
Ġson atas
14 0
Ġfore wings
ĠLou d
ĠMon arch
Ġter ra
Ġdem ons
arth a
Ġreview er
Ġoffer ings
Ġmeth ane
ĠGo als
Ġreb ell
ĠBoy le
Ġreason ing
Ġsn ails
iny in
ĠBon nie
ĠOffic ers
ĠEngine er
Ġwarn ings
Ġneut rons
Ġpione ers
ĠSah ara
Ġnegoti ated
Ġbutter flies
Ġclim ates
Ġgeomet ric
Ġkidn apping
ĠIv ory
Ġgro cery
uku oka
ĠStrat ford
ĠDynam o
Ġreinforce ments
ĠOlive ira
ĠRobb ins
ĠNass au
ĠErit rea
Ġcourty ard
Ġpostpon ed
ĠCunning ham
" /
E c
J ose
V el
V ers
W y
b rough
c roft
d oc
d eb
i ata
j atjara
re h
Ġw orm
it ra
it ama
le in
ĠS B
ĠC oup
Ġl ions
ĠM ab
ĠI k
ĠH Ã¤
ĠH och
ĠB urt
ig m
ĠF eng
ĠD ort
ĠL ik
ĠL ights
ĠG arn
th us
ĠJ eh
ĠW elfare
ĠU TC
Ġcon stitute
up on
ff ord
ade us
19 33
ress es
Ġup stream
ĠSh u
ĠCl ifford
ys elf
Ġno on
Ġhigh lights
let ion
Ġrep orters
Ġland ings
ĠPl ummer
Ġbr ush
Ġcommun ists
Ġmark ings
anc ies
most ly
Ġsele ctive
itor ia
Ġmult ic
ĠSl ater
Ġstruct ured
Ġpriv at
iro l
Ġeth ical
Ġpick ing
ĠClass ics
ĠSand ra
riz z
ĠCO N
Ġlay ing
gar h
Ġsens itivity
Ãº l
Ġpet rol
Ġwarm ing
ĠOak s
Ġthick ness
Tr ue
Ġbed room
ĠSin atra
Ġdisappe arance
Ġrein st
ĠExt ra
dr iven
Ġcoordin ate
Ġgymn astics
Ġexcav ations
ĠWheel er
Ġmanif est
Ġcens orship
Ġmetall ic
ĠSteph anie
north west
Bes ides
Ġadequ ate
ĠFres no
Ġ[... ]
ĠPurd ue
B art
G ermain
K rist
L l
N atal
P it
R ail
S O
S ide
a hedron
f ri
j ong
j ana
å Ń
ing e
le w
ĠT ram
ĠM afia
ol era
Ġg ifted
im oto
ĠR ather
ĠJ ungle
ber gh
Ġcom et
Ġpro long
Ġpl ague
ĠSt amp
ĠV ille
ĠTh Ã©
Ġj okes
Ġres iding
19 36
Ġsp o
ft w
Ġreg gae
ĠSh ang
Ġsup press
ĠAn alysis
ĠCl aus
ĠSp art
br Ã¼ck
ĠNorth umberland
ĠPh arm
Ġfin anced
Ġdisc rimin
10 3
10 5
Ġclass rooms
Ġrest ruct
ĠCo ch
Ġvis ually
ĠMe eting
Ġequ ator
Sh ow
Ġlim iting
Ge off
ĠNe olithic
Ġdecl ining
ĠTra vis
Ġche er
ĠArch ive
Be aut
Ġet ern
Ġchief s
Ġbomb ed
Ġthreat ens
ĠBook er
Ġsevent y
ĠKim ber
Car ol
Ġdoub led
Ġinstall ations
Ġworship ped
Ġnucle i
ĠCirc us
ĠInvest ment
Ġpredecess ors
ĠSay y
ĠPep per
Ġingred ient
Islam ic
roscop y
ĠTrad itional
mount ed
ĠVaugh an
Ġtheolog ian
lighten ment
B ow
B Ã©
B ush
C old
E gypt
G ust
L yn
S ound
c ars
j ing
j et
s ens
Â Ń
Ĩ Ĵ
in qu
an agan
Ġo mn
Ġc af
Ġb ust
ĠT ik
ĠM atter
ct u
Ġth umb
ĠR ae
ĠR uns
ĠF ulton
ĠF aisal
ĠD ucks
ĠG iac
ĠW o
Ġpl ag
end ish
ĠCh itt
Ġle v
uc o
Ġun named
Ġj umps
Ġcont ests
Ġcomm itting
ult z
ind le
ĠLe h
ĠLe in
Ġpol ling
Ġtr unc
Ġfin ancing
Ġband y
Ġ11 6
St r
ĠWh y
erg arten
ĠWill ow
ĠSch we
ĠWe iss
ĠBer ger
Ġfail ures
ĠDavid son
ĠMet z
hi ro
Ġvot er
Ġdecl are
Ġsem en
ĠMag gie
ĠBur k
ĠBur lington
ĠGar rett
Ãº n
ĠPass enger
ĠCook e
rac ula
ĠExt reme
ĠPear son
ĠChand ler
ĠGot henburg
Ġinfect ious
ĠShin to
Ġhumid ity
ĠArchitect s
Ġerupt ions
ĠVent ures
Ġovert urned
ĠAnat olia
ĠGener ally
Ġstrat a
ĠAzte c
htt p
ĠGuad al
Ġundef eated
Ġsher iff
O cean
R ah
b uch
h om
w aters
Ñ Į
å ħ
Ġt a
Ġt ut
is odes
at ism
al ist
Ġp irates
ĠT amp
am ics
st ud
Ġl as
ĠB old
ĠB rat
ur red
ĠP emb
Ġst rokes
ra pe
ĠG iven
ĠG mina
ĠN iet
ĠW oll
ĠK ag
ĠIn ver
Ġgr am
ood le
Ġ6 50
Ġtra ps
Ġind ef
Ġrem od
Ġmet ap
arl berg
ĠSp ot
fess or
erman ent
sp ur
Ġhand les
Ġel ong
Ġinf ants
ĠAg ent
Ġmult inational
Ġcompan ions
iy ama
Ġoccup ying
Ġmerg ing
ĠYoung er
Ġspl itting
ĠMajor ity
ĠOcean ia
ĠMcC le
Ġhar p
We ather
Ġsevent eenth
ĠBudd y
Te levision
ĠRom ney
ĠJoh an
char ge
pur pose
Ġnom adic
ĠTrust ees
ĠWes ter
Ġexperien cing
ĠAnim ated
ĠVinc i
Ġseed ed
ĠChel tenham
Gold wyn
ĠDiv isiÃ³n
ĠOcc up
Mur ray
Ġverte bra
Ġsoci ologist
Mo ore
ĠPent ecost
ĠCos by
ĠDet ective
ocy tes
Jeff erson
ĠMarqu is
ĠNatal ie
Bus iness
Ġobst acles
ĠSty ria
ĠQuin cy
Ġsynch ron
ftw affe
' ).
I ce
L in
l id
l iving
q a
Ġa pex
al on
Ġb olt
le ad
ĠS ik
ĠT ucker
ĠM itt
ĠH osp
ĠB ia
id ium
im on
Ġst ip
ĠR aff
ĠD ana
ĠD uffy
ĠD ÃŃaz
ĠN T
th orn
ĠE ar
ud ge
se v
ine al
ure ate
Ġar ise
ĠShe ll
19 37
19 35
Ġdis g
Ġdis cl
ail le
Ġunder way
Ġ17 80
Ġchar ities
Ġchar tered
Ġmod ification
iew icz
ink le
Ġwater fall
ĠBr igh
por ters
ĠHer oes
Ã¡ z
Cl ark
ĠReg ents
Ġconf ined
ĠRes olution
Ġident ifies
ĠBlack pool
ĠFlor a
ĠMet eor
ĠMad ame
Ġsem inary
Ġgra vel
Ġang els
Å¡ iÄĩ
ĠKir chner
Ġlands lide
ĠSav annah
Ġpoly hedron
Ġcry stals
Ġpull ing
Ġfresh man
do ors
Ġjur ist
Ġmort ality
Ġsubstant ially
War ren
ĠMaj esty
ĠAdvis or
ĠMahar aj
Ġexport ed
Ġkin ship
Ġilleg itimate
Ġprivile ges
ĠRw anda
cler osis
Ġdecommission ed
ĠQuart et
ĠLaus anne
E ver
G y
L am
O cc
S n
g ic
h ome
l au
s che
s burg
Ġt atto
Ġw ines
Ġs oy
Ġs lee
Ġin eff
Ġc ath
Ġf el
as el
as ian
Ġp ac
ĠC ove
ĠC rete
ro ts
ĠM insk
ĠB urb
ĠB otan
us an
ch uk
id uous
ĠF anny
ĠL ily
ĠN adeshiko
Ġcon ced
ĠSt ig
ĠSt ri
ĠCh att
uc le
ne ck
Ġro y
Ġafter ward
Ġover time
Ġinter vals
ered ith
Ġmod ifications
ĠBl oc
Ġ11 8
fl oor
Ġext ant
Ġcolle ctors
erg ic
Ġstat ute
ĠBar th
ĠAng les
ĠEl ijah
Ġgen etically
ots wana
Ġreal ised
ĠWe aver
ĠRes ort
ĠBlack burn
ĠNe uchÃ¢tel
Ġbo iler
Be ing
Ġprem ium
ĠRam os
ĠSu ce
ĠPas adena
Ġreact ors
ographer s
ĠAdd itional
ĠOd ys
uh r
ĠColl ier
Ġload ing
ĠKey s
Pop ular
Ġmort ar
Ġstrip ped
ithm etic
Ġdepos it
ĠTak ah
Ġcoordin ator
ĠAngl ia
Ġutil ized
ĠFa ust
Ġstyl ed
Dist ribution
Sel ena
Flor ida
Ġreh abilitation
ĠYuk on
ĠCull en
ĠLuz on
ondu ctor
Ġinfra red
ĠGuerr ero
1 16
B an
C our
F ootball
H ou
H ell
K ate
L I
L O
N y
O rd
V E
Z e
b ling
c reat
k W
l ides
n ership
p ound
r oup
s ource
t aker
v res
Ġ ich
Ġin stitutes
Ġc rane
Ġf og
Ġm yself
ĠM G
ĠM yr
ĠH iggins
ĠP ry
ĠP au
Ġst ain
Ġst ack
ĠL ask
ĠJ ah
ĠJ ee
est ro
av is
ĠK uala
ort on
ĠSt range
ip ers
ell and
ell um
ure ka
ric ate
In s
te ch
Ġj elly
ĠLe vi
Ġdes erts
che v
ĠSh ik
ik en
ĠCol ts
Ġ17 83
ĠCan ary
ĠCan ucks
ull s
augh ters
Ġbr anded
urg ical
Ġsl ip
ĠMe i
ĠCor p
ĠCor byn
Ġide als
tt ingen
Ġsocial ism
raw l
ĠSal am
Ġdev ote
Ġfif teenth
Ġz omb
ĠIm ag
Ġche cks
Ġlength y
Ġprob able
Ġpen alties
ĠMcC oy
Ġarran ger
ĠJac queline
Ġprin ces
ĠEle ctions
Ġsens or
ĠWild erness
Ġhall uc
Ġobserv ing
ĠFel ipe
Ġstret ches
Ġmigr ate
Ġentreprene urs
Hel en
ĠPep si
ĠDj urg
Ġbrew ery
Ġneighb ours
Ġbotan ist
Stan ley
Walk er
ĠCros by
ĠStras bourg
Vinc ent
C ities
D ire
E du
L uke
N I
N ET
S pl
b ahn
h on
h adi
j andro
w orm
Ġa ided
in ished
in itely
Ġw akes
it ives
Ġb ubble
Ġp ose
Ġp agan
Ġp amph
Ġd uel
Ġwas hing
ĠH are
ĠH ouses
us ions
Ġ( âĢľ
her ical
ĠR az
Ġr hythms
ĠSt o
ĠSt okes
Ġch oral
ish am
ĠY or
ĠY un
ĠAl one
Ġres ided
Ġsc rap
Ġsp ark
ĠDe er
Ġmus h
Ġdep uties
ĠCl ause
ert ation
ĠPl ato
ĠPl atinum
ĠAf ro
Ġcr ush
Ġcr ude
Ġsk ater
Ã³ d
Ġaff ection
Ġant agonist
ĠMal one
Ġindivid ually
Ġnorthern most
ĠCap t
Ġfarm land
Ġsubject ed
omm el
esc ope
Ġbene f
ĠNort heastern
Ġwings pan
ĠVar gas
Ġneut ron
Ġcru iser
Ġsimpl est
ĠGran ada
ĠEcuador ian
Ġreflect ing
anim ated
Ġdatab ases
Ġglac ier
Ġpap al
group s
Ġreef s
Ġecosystem s
ĠComb ined
Ġalign ment
Ġwonder ful
ĠNept une
Ġpled ged
Nich olas
Ġmerchand ise
D ennis
[...]
