{
  "version": "1.0",
  "truncation": null,
  "padding": null,
  "added_tokens": [
    {
      "id": 0,
      "content": "<s>",
      "single_word": false,
      "lstrip": false,
      "rstrip": false,
      "normalized": false,
      "special": true
    },
    {
      "id": 1,
      "content": "<pad>",
      "single_word": false,
      "lstrip": false,
      "rstrip": false,
      "normalized": false,
      "special": true
    },
    {
      "id": 2,
      "content": "</s>",
      "single_word": false,
      "lstrip": false,
      "rstrip": false,
      "normalized": false,
      "special": true
    },
    {
      "id": 3,
      "content": "<unk>",
      "single_word": false,
      "lstrip": false,
      "rstrip": false,
      "normalized": false,
      "special": true
    },
    {
      "id": 4,
      "content": "<|endoftext|>",
      "single_word": false,
      "lstrip": false,
      "rstrip": false,
      "normalized": false,
      "special": true
    },
    {
      "id": 5,
      "content": "<mask>",
      "single_word": false,
      "lstrip": true,
      "rstrip": false,
      "normalized": false,
      "special": true
    }
  ],
  "normalizer": null,
  "pre_tokenizer": {
    "type": "ByteLevel",
    "add_prefix_space": false,
    "trim_offsets": true,
    "use_regex": true
  },
  "post_processor": {
    "type": "RobertaProcessing",
    "sep": [
      "</s>",
      2
    ],
    "cls": [
      "<s>",
      0
    ],
    "trim_offsets": true,
    "add_prefix_space": false
  },
  "decoder": {
    "type": "ByteLevel",
    "add_prefix_space": true,
    "trim_offsets": true,
    "use_regex": true
  },
  "model": {
    "type": "BPE",
    "dropout": null,
    "unk_token": null,
    "continuing_subword_prefix": "",
    "end_of_word_suffix": "",
    "fuse_unk": false,
    "byte_fallback": false,
    "vocab": {
      "<s>": 0,
      "<pad>": 1,
      "</s>": 2,
      "<unk>": 3,
      "<|endoftext|>": 4,
      "<mask>": 5,
      "!": 6,
      "\"": 7,
      "#": 8,
      "$": 9,
      "%": 10,
      "&": 11,
      "'": 12,
      "(": 13,
      ")": 14,
      "*": 15,
      "+": 16,
      ",": 17,
      "-": 18,
      ".": 19,
      "/": 20,
      "0": 21,
      "1": 22,
      "2": 23,
      "3": 24,
      "4": 25,
      "5": 26,
      "6": 27,
      "7": 28,
      "8": 29,
      "9": 30,
      ":": 31,
      ";": 32,
      "<": 33,
      "=": 34,
      ">": 35,
      "?": 36,
      "@": 37,
      "A": 38,
      "B": 39,
      "C": 40,
      "D": 41,
      "E": 42,
      "F": 43,
      "G": 44,
      "H": 45,
      "I": 46,
      "J": 47,
      "K": 48,
      "L": 49,
      "M": 50,
      "N": 51,
      "O": 52,
      "P": 53,
      "Q": 54,
      "R": 55,
      "S": 56,
      "T": 57,
      "U": 58,
      "V": 59,
      "W": 60,
      "X": 61,
      "Y": 62,
      "Z": 63,
      "[": 64,
      "\\": 65,
      "]": 66,
      "^": 67,
      "_": 68,
      "`": 69,
      "a": 70,
      "b": 71,
      "c": 72,
      "d": 73,
      "e": 74,
      "f": 75,
      "g": 76,
      "h": 77,
      "i": 78,
      "j": 79,
      "k": 80,
      "l": 81,
      "m": 82,
      "n": 83,
      "o": 84,
      "p": 85,
      "q": 86,
      "r": 87,
      "s": 88,
      "t": 89,
      "u": 90,
      "v": 91,
      "w": 92,
      "x": 93,
      "y": 94,
      "z": 95,
      "{": 96,
      "|": 97,
      "}": 98,
      "~": 99,
      "¡": 100,
      "¢": 101,
      "£": 102,
      "¤": 103,
      "¥": 104,
      "¦": 105,
      "§": 106,
      "¨": 107,
      "©": 108,
      "ª": 109,
      "«": 110,
      "¬": 111,
      "®": 112,
      "¯": 113,
      "°": 114,
      "±": 115,
      "²": 116,
      "³": 117,
      "´": 118,
      "µ": 119,
      "¶": 120,
      "·": 121,
      "¸": 122,
      "¹": 123,
      "º": 124,
      "»": 125,
      "¼": 126,
      "½": 127,
      "¾": 128,
      "¿": 129,
      "À": 130,
      "Á": 131,
      "Â": 132,
      "Ã": 133,
      "Ä": 134,
      "Å": 135,
      "Æ": 136,
      "Ç": 137,
      "È": 138,
      "É": 139,
      "Ê": 140,
      "Ë": 141,
      "Ì": 142,
      "Í": 143,
      "Î": 144,
      "Ï": 145,
      "Ð": 146,
      "Ñ": 147,
      "Ò": 148,
      "Ó": 149,
      "Ô": 150,
      "Õ": 151,
      "Ö": 152,
      "×": 153,
      "Ø": 154,
      "Ù": 155,
      "Ú": 156,
      "Û": 157,
      "Ü": 158,
      "Ý": 159,
      "Þ": 160,
      "ß": 161,
      "à": 162,
      "á": 163,
      "â": 164,
      "ã": 165,
      "ä": 166,
      "å": 167,
      "æ": 168,
      "ç": 169,
      "è": 170,
      "é": 171,
      "ê": 172,
      "ë": 173,
      "ì": 174,
      "í": 175,
      "î": 176,
      "ï": 177,
      "ð": 178,
      "ñ": 179,
      "ò": 180,
      "ó": 181,
      "ô": 182,
      "õ": 183,
      "ö": 184,
      "÷": 185,
      "ø": 186,
      "ù": 187,
      "ú": 188,
      "û": 189,
      "ü": 190,
      "ý": 191,
      "þ": 192,
      "ÿ": 193,
      "Ā": 194,
      "ā": 195,
      "Ă": 196,
      "ă": 197,
      "Ą": 198,
      "ą": 199,
      "Ć": 200,
      "ć": 201,
      "Ĉ": 202,
      "ĉ": 203,
      "Ċ": 204,
      "ċ": 205,
      "Č": 206,
      "č": 207,
      "Ď": 208,
      "ď": 209,
      "Đ": 210,
      "đ": 211,
      "Ē": 212,
      "ē": 213,
      "Ĕ": 214,
      "ĕ": 215,
      "Ė": 216,
      "ė": 217,
      "Ę": 218,
      "ę": 219,
      "Ě": 220,
      "ě": 221,
      "Ĝ": 222,
      "ĝ": 223,
      "Ğ": 224,
      "ğ": 225,
      "Ġ": 226,
      "ġ": 227,
      "Ģ": 228,
      "ģ": 229,
      "Ĥ": 230,
      "ĥ": 231,
      "Ħ": 232,
      "ħ": 233,
      "Ĩ": 234,
      "ĩ": 235,
      "Ī": 236,
      "ī": 237,
      "Ĭ": 238,
      "ĭ": 239,
      "Į": 240,
      "į": 241,
      "İ": 242,
      "ı": 243,
      "Ĳ": 244,
      "ĳ": 245,
      "Ĵ": 246,
      "ĵ": 247,
      "Ķ": 248,
      "ķ": 249,
      "ĸ": 250,
      "Ĺ": 251,
      "ĺ": 252,
      "Ļ": 253,
      "ļ": 254,
      "Ľ": 255,
      "ľ": 256,
      "Ŀ": 257,
      "ŀ": 258,
      "Ł": 259,
      "ł": 260,
      "Ń": 261,
      "Ġt": 262,
      "he": 263,
      "Ġa": 264,
      "in": 265,
      "er": 266,
      "Ġthe": 267,
      "on": 268,
      "re": 269,
      "an": 270,
      "Ġo": 271,
      "is": 272,
      "Ġw": 273,
      "Ġs": 274,
      "ed": 275,
      "or": 276,
      "at": 277,
      "en": 278,
      "ar": 279,
      "es": 280,
      "Ġin": 281,
      "Ġc": 282,
      "Ġof": 283,
      "it": 284,
      "al": 285,
      "Ġf": 286,
      "nd": 287,
      "as": 288,
      "Ġb": 289,
      "Ġp": 290,
      "Ġand": 291,
      "ic": 292,
      "ing": 293,
      "Ġm": 294,
      "ou": 295,
      "Ġto": 296,
      "ion": 297,
      "le": 298,
      "om": 299,
      "Ġd": 300,
      "ĠS": 301,
      "Ġh": 302,
      "Ġ1": 303,
      "ĠT": 304,
      "ĠA": 305,
      "il": 306,
      "ĠC": 307,
      "Ġis": 308,
      "am": 309,
      "ent": 310,
      "st": 311,
      "Ġwas": 312,
      "ro": 313,
      "el": 314,
      "Ġl": 315,
      "ĠM": 316,
      "ol": 317,
      "Ġre": 318,
      "ĠI": 319,
      "Ġn": 320,
      "ĠH": 321,
      "Ġ2": 322,
      "ad": 323,
      "ct": 324,
      "Ġth": 325,
      "ĠB": 326,
      "et": 327,
      "Ġon": 328,
      "us": 329,
      "Ġ\"": 330,
      "iv": 331,
      "ch": 332,
      "ur": 333,
      "ĠP": 334,
      "Ġfor": 335,
      "id": 336,
      "ot": 337,
      "Ġe": 338,
      "ir": 339,
      "Ġ(": 340,
      "ay": 341,
      "Ġ19": 342,
      "Ġg": 343,
      "ce": 344,
      "ly": 345,
      "im": 346,
      "ow": 347,
      "ĠThe": 348,
      "ation": 349,
      "ig": 350,
      "Ġbe": 351,
      "Ġ20": 352,
      "ter": 353,
      "un": 354,
      "Ġst": 355,
      "ut": 356,
      "her": 357,
      "Ġas": 358,
      "ĠR": 359,
      "ers": 360,
      "ĠF": 361,
      "em": 362,
      "ĠD": 363,
      "ra": 364,
      "and": 365,
      "ĠL": 366,
      "ith": 367,
      "ĠG": 368,
      "ĠN": 369,
      "ist": 370,
      "th": 371,
      "ul": 372,
      "ĠJ": 373,
      "ĠW": 374,
      "Ġal": 375,
      "Ġan": 376,
      "Ġby": 377,
      "Ġwith": 378,
      "ver": 379,
      "rom": 380,
      "op": 381,
      "os": 382,
      "ag": 383,
      "Ġhe": 384,
      "ĠE": 385,
      "Ġat": 386,
      "um": 387,
      "Ġ=": 388,
      "Ġwh": 389,
      "ber": 390,
      "est": 391,
      "Ġthat": 392,
      "ri": 393,
      "'s": 394,
      "Ġfrom": 395,
      "art": 396,
      "ac": 397,
      "The": 398,
      "av": 399,
      "Ġare": 400,
      "ity": 401,
      "ain": 402,
      "od": 403,
      "all": 404,
      "ĠHe": 405,
      "ĠO": 406,
      "Ġit": 407,
      "ĠU": 408,
      "Ġcom": 409,
      "Ġde": 410,
      "ia": 411,
      "Ġcon": 412,
      "ill": 413,
      "ian": 414,
      "Ġse": 415,
      "ĠIt": 416,
      "res": 417,
      "if": 418,
      "ies": 419,
      "ov": 420,
      "ĠK": 421,
      "oc": 422,
      "ak": 423,
      "Ġv": 424,
      "Ġ201": 425,
      "Ġpro": 426,
      "Ġor": 427,
      "Ġpl": 428,
      "ate": 429,
      "nt": 430,
      "Ġhis": 431,
      "ud": 432,
      "ld": 433,
      "ap": 434,
      "ore": 435,
      "ard": 436,
      "ew": 437,
      "ort": 438,
      "Ġr": 439,
      "ab": 440,
      "pe": 441,
      "ant": 442,
      "ich": 443,
      "ĠSt": 444,
      "ame": 445,
      "ip": 446,
      "se": 447,
      "igh": 448,
      "ub": 449,
      "ary": 450,
      "ĠIn": 451,
      "Ġch": 452,
      "ge": 453,
      "up": 454,
      "ong": 455,
      "âĢ": 456,
      "ess": 457,
      "ere": 458,
      "ated": 459,
      "our": 460,
      "so": 461,
      "mer": 462,
      "Ġk": 463,
      "qu": 464,
      "ive": 465,
      "ie": 466,
      "ment": 467,
      "end": 468,
      "ast": 469,
      "ĠCh": 470,
      "ound": 471,
      "ear": 472,
      "Ġwere": 473,
      "ust": 474,
      "00": 475,
      "ost": 476,
      "ell": 477,
      "gh": 478,
      "ish": 479,
      "ep": 480,
      "Ġex": 481,
      "orn": 482,
      "Ġalso": 483,
      "Ġle": 484,
      "ran": 485,
      "ount": 486,
      "ial": 487,
      "ord": 488,
      "Ġhas": 489,
      "ĠV": 490,
      "ine": 491,
      "Ġsh": 492,
      "ire": 493,
      "Ġus": 494,
      "Ġ200": 495,
      "ĠUn": 496,
      "ther": 497,
      "Ġwhich": 498,
      "Ġy": 499,
      "og": 500,
      "uc": 501,
      "own": 502,
      "ure": 503,
      "ave": 504,
      "irst": 505,
      "Ġnot": 506,
      "ork": 507,
      "ight": 508,
      "are": 509,
      "ction": 510,
      "ical": 511,
      "Ġplay": 512,
      "ome": 513,
      "rit": 514,
      "ok": 515,
      "any": 516,
      "cl": 517,
      "Ġfirst": 518,
      "Ġcomp": 519,
      "Ġar": 520,
      "out": 521,
      "ric": 522,
      "ry": 523,
      "ough": 524,
      "ue": 525,
      "Ġte": 526,
      "Ġhad": 527,
      "land": 528,
      "ack": 529,
      "Ġwhe": 530,
      "âĢĵ": 531,
      "Ġun": 532,
      "Ġbec": 533,
      "fter": 534,
      "ous": 535,
      "ide": 536,
      "amp": 537,
      "\".": 538,
      "age": 539,
      "ond": 540,
      "ates": 541,
      "ĠTh": 542,
      "ang": 543,
      "Ġab": 544,
      "ember": 545,
      "ne": 546,
      "Ġpart": 547,
      "ff": 548,
      "ass": 549,
      "ater": 550,
      "Ġcl": 551,
      "Ġhave": 552,
      "ied": 553,
      "In": 554,
      "ited": 555,
      "ational": 556,
      "Ġone": 557,
      "Ġ18": 558,
      "port": 559,
      "ke": 560,
      "iz": 561,
      "Ġtheir": 562,
      "per": 563,
      "ĠĊ": 564,
      "eop": 565,
      "te": 566,
      "ime": 567,
      "\",": 568,
      "wo": 569,
      "ice": 570,
      "ng": 571,
      ").": 572,
      "ican": 573,
      "ach": 574,
      "ug": 575,
      "ree": 576,
      "eople": 577,
      "Ġ199": 578,
      "Ġher": 579,
      "Ġser": 580,
      "Ġ3": 581,
      "sh": 582,
      "Ġwho": 583,
      "ign": 584,
      "man": 585,
      "wn": 586,
      "ade": 587,
      "to": 588,
      "ition": 589,
      "),": 590,
      "Ġbut": 591,
      "Ġyear": 592,
      "Ġcan": 593,
      "ens": 594,
      "ory": 595,
      "Ġthey": 596,
      "Ġmov": 597,
      "ĠY": 598,
      "hed": 599,
      "Ġag": 600,
      "Ġj": 601,
      "Ġkn": 602,
      "Ġother": 603,
      "ĠAmer": 604,
      "ally": 605,
      "ĠAl": 606,
      "pl": 607,
      "Ġits": 608,
      "Ġcont": 609,
      "und": 610,
      "over": 611,
      "ould": 612,
      "ts": 613,
      "Ġpeople": 614,
      "tern": 615,
      "Ġthis": 616,
      "ru": 617,
      "Ġad": 618,
      "fer": 619,
      "clud": 620,
      "ĠMar": 621,
      "Ġcomm": 622,
      "aw": 623,
      "low": 624,
      "Ġtwo": 625,
      "ib": 626,
      "ild": 627,
      "Ġap": 628,
      "Ġgr": 629,
      "Ġro": 630,
      "||": 631,
      "ence": 632,
      "one": 633,
      "orm": 634,
      "ace": 635,
      "ĠShe": 636,
      "ased": 637,
      "les": 638,
      "Ġwork": 639,
      "ec": 640,
      "ĠUnited": 641,
      "ult": 642,
      "ph": 643,
      "Ġinclud": 644,
      "Ġ198": 645,
      "ect": 646,
      "old": 647,
      "aus": 648,
      "Ġafter": 649,
      "uring": 650,
      "Ġbeen": 651,
      "ind": 652,
      "ans": 653,
      "Ġres": 654,
      "ubl": 655,
      "Ġknown": 656,
      "ĠAmerican": 657,
      "ark": 658,
      "uch": 659,
      "ood": 660,
      "act": 661,
      "we": 662,
      "iss": 663,
      "Ġsc": 664,
      "ations": 665,
      "ĠAr": 666,
      "ath": 667,
      "orld": 668,
      "Ġper": 669,
      "eb": 670,
      "ob": 671,
      "Ġac": 672,
      "19": 673,
      "ivers": 674,
      "Ġshe": 675,
      "ons": 676,
      "ward": 677,
      "outh": 678,
      "pt": 679,
      "ile": 680,
      "ress": 681,
      "ool": 682,
      "Ġ197": 683,
      "Ġsp": 684,
      "Ġrec": 685,
      "ĠNew": 686,
      "Ġcall": 687,
      "ident": 688,
      "ake": 689,
      "oin": 690,
      "orth": 691,
      "vel": 692,
      "io": 693,
      "Ġ4": 694,
      "Ġen": 695,
      "Ġabout": 696,
      "ings": 697,
      "ounty": 698,
      "Ġused": 699,
      "une": 700,
      "Ġact": 701,
      "Ġup": 702,
      "Ġdis": 703,
      "ince": 704,
      "Ġim": 705,
      "Ġinto": 706,
      "ite": 707,
      "ren": 708,
      "ĠDe": 709,
      "ĠStates": 710,
      "Ġmost": 711,
      "ĠLe": 712,
      "Ġspe": 713,
      "ics": 714,
      "20": 715,
      "Ġmade": 716,
      "ah": 717,
      "ĠThis": 718,
      "gan": 719,
      "ors": 720,
      "Ġtime": 721,
      "Ġall": 722,
      "Ġra": 723,
      "Ġfound": 724,
      "oy": 725,
      "ĠThey": 726,
      "Ġele": 727,
      "ces": 728,
      "Ġpol": 729,
      "Ġout": 730,
      "ail": 731,
      "cted": 732,
      "Ġwhen": 733,
      "Ġme": 734,
      "Ġover": 735,
      "ook": 736,
      "Ġthere": 737,
      "Ġ5": 738,
      "Ġoff": 739,
      "Ġmore": 740,
      "red": 741,
      "Ġne": 742,
      "ĠAs": 743,
      "Ġ196": 744,
      "ents": 745,
      "Ġnew": 746,
      "ft": 747,
      "Ġcalled": 748,
      "Ġev": 749,
      "ision": 750,
      "erm": 751,
      "Ġreg": 752,
      "als": 753,
      "Ġmany": 754,
      "oh": 755,
      "ose": 756,
      "ve": 757,
      "Ġbet": 758,
      "ick": 759,
      "ton": 760,
      "Ġteam": 761,
      "ĠâĢĵ": 762,
      "Ġform": 763,
      "oot": 764,
      "ely": 765,
      "very": 766,
      "ten": 767,
      "Ġborn": 768,
      "Ġdes": 769,
      "oup": 770,
      "chool": 771,
      "ral": 772,
      "urn": 773,
      "Ġyears": 774,
      "pr": 775,
      "Ġcol": 776,
      "Ã©": 777,
      "Ġcity": 778,
      "Ġbecame": 779,
      "way": 780,
      "au": 781,
      "Ġsec": 782,
      "Ġhim": 783,
      "Ġfam": 784,
      "ram": 785,
      "ase": 786,
      "ved": 787,
      "anu": 788,
      "ted": 789,
      "Ġpop": 790,
      "rough": 791,
      "ĠFran": 792,
      "Ġdied": 793,
      "che": 794,
      "ance": 795,
      "Ġatt": 796,
      "ily": 797,
      "able": 798,
      "Ġcent": 799,
      "Ġ6": 800,
      "Ġbu": 801,
      "reat": 802,
      "Âł": 803,
      "Ġthem": 804,
      "Ġtra": 805,
      "ween": 806,
      "Ġonly": 807,
      "ks": 808,
      "ause": 809,
      "Ġrele": 810,
      "overn": 811,
      "ions": 812,
      "ober": 813,
      "Ġmus": 814,
      "son": 815,
      "Ġdo": 816,
      "under": 817,
      "ship": 818,
      "ĠSh": 819,
      "Ġpre": 820,
      "ike": 821,
      "iversity": 822,
      "Ġstud": 823,
      "ĠCom": 824,
      "ll": 825,
      "ife": 826,
      "Ġplayed": 827,
      "ĠInd": 828,
      "ames": 829,
      "oth": 830,
      "rib": 831,
      "ball": 832,
      "Ġloc": 833,
      "ix": 834,
      "Ġ7": 835,
      "Ġpr": 836,
      "ik": 837,
      "Ġagain": 838,
      "Ġpopul": 839,
      "ived": 840,
      "du": 841,
      "Ġso": 842,
      "ont": 843,
      "Ġwould": 844,
      "Ġwhere": 845,
      "Ġsome": 846,
      "Ġduring": 847,
      "Ġdist": 848,
      "Ġbetween": 849,
      "Ġthan": 850,
      "ĠEng": 851,
      "ener": 852,
      "Ġ195": 853,
      "Ġ194": 854,
      "ict": 855,
      "Ġnum": 856,
      "cess": 857,
      "ason": 858,
      "born": 859,
      "az": 860,
      "Ġsy": 861,
      "fore": 862,
      "Ġunder": 863,
      "ann": 864,
      "Ġ8": 865,
      "ept": 866,
      "olog": 867,
      "Ġlar": 868,
      "duc": 869,
      "ished": 870,
      "Ġear": 871,
      "form": 872,
      "inal": 873,
      "Ġspec": 874,
      "enn": 875,
      "ious": 876,
      "Ġname": 877,
      "ier": 878,
      "ĠCounty": 879,
      "Ġthree": 880,
      "aj": 881,
      "ĠRe": 882,
      "iver": 883,
      "Ġpubl": 884,
      "hen": 885,
      "anuary": 886,
      "Ġstart": 887,
      "ced": 888,
      "Ġpres": 889,
      "oun": 890,
      "iel": 891,
      "ars": 892,
      "ins": 893,
      "Ġwe": 894,
      "ever": 895,
      "iet": 896,
      "ilm": 897,
      "til": 898,
      "bum": 899,
      "ĠMay": 900,
      "ities": 901,
      "Ġqu": 902,
      "ines": 903,
      "Ġwrit": 904,
      "Ġsup": 905,
      "Ġdep": 906,
      "inn": 907,
      "Ġdif": 908,
      "Ġsuch": 909,
      "Ġop": 910,
      "ollow": 911,
      "air": 912,
      "Ġco": 913,
      "Ġret": 914,
      "Ġthen": 915,
      "Ġend": 916,
      "ina": 917,
      "Ġcount": 918,
      "ĠJanuary": 919,
      "Ġsing": 920,
      "Ġcons": 921,
      "ative": 922,
      "ouse": 923,
      "ury": 924,
      "Ġlater": 925,
      "ale": 926,
      "ĠZ": 927,
      "der": 928,
      "ash": 929,
      "Ġthrough": 930,
      "Ġsecond": 931,
      "ĠCol": 932,
      "Ġind": 933,
      "Ġwon": 934,
      "ĠUniversity": 935,
      "ays": 936,
      "Ġrel": 937,
      "Ġ193": 938,
      "erson": 939,
      "ley": 940,
      "ock": 941,
      "rans": 942,
      "att": 943,
      "Ġsub": 944,
      "Ġgroup": 945,
      "Ġdire": 946,
      "rict": 947,
      "Ġuntil": 948,
      "Ġ9": 949,
      "ather": 950,
      "Ġstate": 951,
      "Ġshow": 952,
      "Ġmovie": 953,
      "imes": 954,
      "Ġfe": 955,
      "ugust": 956,
      "Ġ17": 957,
      "Ġalbum": 958,
      "ĠJu": 959,
      "Ġfl": 960,
      "ck": 961,
      "other": 962,
      "Ġbl": 963,
      "arri": 964,
      "ement": 965,
      "ĠWorld": 966,
      "ex": 967,
      "ual": 968,
      "amed": 969,
      "eptember": 970,
      "Ġtr": 971,
      "Ġgo": 972,
      "Ġreleased": 973,
      "Ġsong": 974,
      "aid": 975,
      "000": 976,
      "ually": 977,
      "ĠAn": 978,
      "emb": 979,
      "ohn": 980,
      "ĠIs": 981,
      "ister": 982,
      "iam": 983,
      "Ġmay": 984,
      "icip": 985,
      "ern": 986,
      "Ġtown": 987,
      "ĠAust": 988,
      "Ġfour": 989,
      "ĠAugust": 990,
      "ists": 991,
      "ctober": 992,
      "mber": 993,
      "ating": 994,
      "ower": 995,
      "ootball": 996,
      "ĠBrit": 997,
      "Ġpolit": 998,
      "Ġmain": 999,
      "Ġ10": 1000,
      "Ġfollow": 1001,
      "Ġwell": 1002,
      "pril": 1003,
      "Ġsm": 1004,
      "ĠSeptember": 1005,
      "Ġrem": 1006,
      "ism": 1007,
      "Ġcre": 1008,
      "Ġam": 1009,
      "ĠAt": 1010,
      "Ġnumber": 1011,
      "ĠMarch": 1012,
      "ros": 1013,
      "Ġinter": 1014,
      "apan": 1015,
      "ĠNov": 1016,
      "ional": 1017,
      "ey": 1018,
      "ĠJune": 1019,
      "Ġbeing": 1020,
      "Ġseries": 1021,
      "Ġdiffer": 1022,
      "Ġass": 1023,
      "ĠPro": 1024,
      "cember": 1025,
      "Ġbecause": 1026,
      "ctor": 1027,
      "Ġph": 1028,
      "ĠJuly": 1029,
      "Ġmusic": 1030,
      "ĠSc": 1031,
      "Ġarea": 1032,
      "Ġcap": 1033,
      "ĠOctober": 1034,
      "oss": 1035,
      "ĠCl": 1036,
      "Ġprov": 1037,
      "Ġchar": 1038,
      "Ġmet": 1039,
      "Ġlong": 1040,
      "stem": 1041,
      "Ġinv": 1042,
      "ality": 1043,
      "ron": 1044,
      "Ġdef": 1045,
      "Ġrecord": 1046,
      "ific": 1047,
      "ĠApril": 1048,
      "Ġgovern": 1049,
      ".\"": 1050,
      "Ġcare": 1051,
      "cy": 1052,
      "uro": 1053,
      "ank": 1054,
      "cc": 1055,
      "ital": 1056,
      "uss": 1057,
      "Ġseason": 1058,
      "ĠJapan": 1059,
      "owever": 1060,
      "ague": 1061,
      "Ġlead": 1062,
      "pro": 1063,
      "ures": 1064,
      "Ġbefore": 1065,
      "Ġwill": 1066,
      "Ġ2010": 1067,
      "Ġ15": 1068,
      "ĠDecember": 1069,
      "ives": 1070,
      "ĠOn": 1071,
      "Ġappe": 1072,
      "Ġman": 1073,
      "velop": 1074,
      "ebru": 1075,
      "Ġschool": 1076,
      "ebruary": 1077,
      "artment": 1078,
      "mp": 1079,
      "Ġagainst": 1080,
      "ai": 1081,
      "Ġart": 1082,
      "Ġ16": 1083,
      "arl": 1084,
      "Ġbro": 1085,
      "Ġfilm": 1086,
      "Ġown": 1087,
      "ett": 1088,
      "Ġfamily": 1089,
      "ird": 1090,
      "ĠSp": 1091,
      "Ġvery": 1092,
      "ĠNovember": 1093,
      "ĠFrance": 1094,
      "ject": 1095,
      "Ġsur": 1096,
      "its": 1097,
      "ĠNational": 1098,
      "ĠSouth": 1099,
      "ert": 1100,
      "ĠWar": 1101,
      "my": 1102,
      "Ġent": 1103,
      "ven": 1104,
      "ax": 1105,
      "ĠCon": 1106,
      "ield": 1107,
      "ature": 1108,
      "Ġsame": 1109,
      "ĠCan": 1110,
      "Ġchild": 1111,
      "lish": 1112,
      "ys": 1113,
      "ired": 1114,
      "Ġuse": 1115,
      "Ġdec": 1116,
      "ĠFebruary": 1117,
      "Ġtrans": 1118,
      "Ġage": 1119,
      "row": 1120,
      "ĠYork": 1121,
      "Ġlike": 1122,
      "ets": 1123,
      "Ġincluding": 1124,
      "ters": 1125,
      "ternational": 1126,
      "Ġserv": 1127,
      "ĠJohn": 1128,
      "ants": 1129,
      "Ġformer": 1130,
      "Ġed": 1131,
      "yl": 1132,
      "rop": 1133,
      "Ġmember": 1134,
      "ered": 1135,
      "istory": 1136,
      "ise": 1137,
      "Ġmed": 1138,
      "oman": 1139,
      "ĠHis": 1140,
      "Ġdifferent": 1141,
      "Ġworld": 1142,
      "Ġsmall": 1143,
      "Ġboth": 1144,
      "omen": 1145,
      "ution": 1146,
      "stit": 1147,
      "Ġno": 1148,
      "ese": 1149,
      "ular": 1150,
      "ĠQ": 1151,
      "ull": 1152,
      "erv": 1153,
      "ger": 1154,
      "lev": 1155,
      "br": 1156,
      "omet": 1157,
      "Ġmon": 1158,
      "ampion": 1159,
      "rist": 1160,
      "Ġback": 1161,
      "Ġdid": 1162,
      "Ġmod": 1163,
      "Ġnamed": 1164,
      "Ġsever": 1165,
      "fess": 1166,
      "raph": 1167,
      "On": 1168,
      "He": 1169,
      "ĠBritish": 1170,
      "Ġacc": 1171,
      "ient": 1172,
      "Ġsystem": 1173,
      "Ġbook": 1174,
      "Ġmin": 1175,
      "ium": 1176,
      "Ġnational": 1177,
      "ica": 1178,
      "Ġfootball": 1179,
      "Ġbel": 1180,
      "ĠSw": 1181,
      "Ġ12": 1182,
      "ural": 1183,
      "ĠPr": 1184,
      "Ġhigh": 1185,
      "ĠEuro": 1186,
      "gest": 1187,
      "elf": 1188,
      "ane": 1189,
      "ĠNorth": 1190,
      "Ġgame": 1191,
      "Ġorig": 1192,
      "Ġ192": 1193,
      "ped": 1194,
      "let": 1195,
      "Ġadd": 1196,
      "ĠPh": 1197,
      "Ġsince": 1198,
      "ared": 1199,
      "Ġnorth": 1200,
      "Ġinc": 1201,
      "Ġmat": 1202,
      "erman": 1203,
      "ĠBl": 1204,
      "ĠCal": 1205,
      "ble": 1206,
      "ized": 1207,
      "Ġthese": 1208,
      "Ġdevelop": 1209,
      "ĠComm": 1210,
      "ful": 1211,
      "ĠGr": 1212,
      "Ġsign": 1213,
      "iew": 1214,
      "Ġoffic": 1215,
      "Ġwhile": 1216,
      "pos": 1217,
      "unicip": 1218,
      "Ġlife": 1219,
      "Ġhel": 1220,
      "ĠFor": 1221,
      "Ġnear": 1222,
      "ty": 1223,
      "Ġcareer": 1224,
      "urch": 1225,
      "Ġcur": 1226,
      "Ġbuild": 1227,
      "Ġfin": 1228,
      "Ġpopulation": 1229,
      "Ġband": 1230,
      "Ġgener": 1231,
      "angu": 1232,
      "ĠCity": 1233,
      "arm": 1234,
      "Ġperson": 1235,
      "Ġrep": 1236,
      "rent": 1237,
      "Ġany": 1238,
      "cial": 1239,
      "els": 1240,
      "aking": 1241,
      "ctions": 1242,
      "iving": 1243,
      "Ġgovernment": 1244,
      "Ġ202": 1245,
      "ĠRep": 1246,
      "ox": 1247,
      "ĠBe": 1248,
      "Ġplace": 1249,
      "Ġrece": 1250,
      "Ġstarted": 1251,
      "Ġland": 1252,
      "ĠPres": 1253,
      "Ġbegan": 1254,
      "ĠKing": 1255,
      "Ġoper": 1256,
      "Ġsaid": 1257,
      "ajor": 1258,
      "Ġseveral": 1259,
      "ĠSe": 1260,
      "arn": 1261,
      "Ġold": 1262,
      "Ġ11": 1263,
      "ĠThere": 1264,
      "ĠAd": 1265,
      "Ġyou": 1266,
      "Ġmake": 1267,
      "levision": 1268,
      "hes": 1269,
      "Ġrun": 1270,
      "ĠEurope": 1271,
      "Ġplayer": 1272,
      "ages": 1273,
      "ician": 1274,
      "ĠAustral": 1275,
      "illion": 1276,
      "ilt": 1277,
      "Ġbest": 1278,
      "ange": 1279,
      "Ġorgan": 1280,
      "by": 1281,
      "Ġ2019": 1282,
      "rat": 1283,
      "ink": 1284,
      "âĢĻ": 1285,
      "Ġcould": 1286,
      "ret": 1287,
      "Ġproduc": 1288,
      "Ġ14": 1289,
      "vent": 1290,
      "Ġoften": 1291,
      "Ġest": 1292,
      "Ġsuc": 1293,
      "Ġprog": 1294,
      "ĠEnglish": 1295,
      "Ġdr": 1296,
      "Ġair": 1297,
      "ene": 1298,
      "Ġ13": 1299,
      "Ġaut": 1300,
      "Ġregion": 1301,
      "Ġ2018": 1302,
      "ĠCent": 1303,
      "ĠAfter": 1304,
      "Ġty": 1305,
      "ĠMin": 1306,
      "St": 1307,
      "ove": 1308,
      "itt": 1309,
      "ross": 1310,
      "Ġdeath": 1311,
      "Ġob": 1312,
      "Th": 1313,
      "Ġearly": 1314,
      "the": 1315,
      "ae": 1316,
      "ains": 1317,
      "Ġ2014": 1318,
      "Ġint": 1319,
      "Ġeach": 1320,
      "Ġopen": 1321,
      "Ġaround": 1322,
      "led": 1323,
      "get": 1324,
      "ology": 1325,
      "xt": 1326,
      "Ch": 1327,
      "Ġhead": 1328,
      "akes": 1329,
      "ĠCanad": 1330,
      "ĠGe": 1331,
      "Ġsim": 1332,
      "ries": 1333,
      "fl": 1334,
      "wards": 1335,
      "Ġann": 1336,
      "Ġlaw": 1337,
      "eng": 1338,
      "ided": 1339,
      "ze": 1340,
      "ille": 1341,
      "18": 1342,
      "ĠPl": 1343,
      "Ġmarri": 1344,
      "Ġext": 1345,
      "ible": 1346,
      "ĠCar": 1347,
      "Ġdepartment": 1348,
      "Ġclub": 1349,
      "Ġwater": 1350,
      "ott": 1351,
      "Ġdesign": 1352,
      "Ġ2017": 1353,
      "Ġinst": 1354,
      "Ġjoin": 1355,
      "ograph": 1356,
      "Ġem": 1357,
      "ĠBr": 1358,
      "resent": 1359,
      "ĠAf": 1360,
      "ract": 1361,
      "ute": 1362,
      "ony": 1363,
      "rench": 1364,
      "Ġprodu": 1365,
      "Ġvar": 1366,
      "ampionship": 1367,
      "Ġhome": 1368,
      "oci": 1369,
      "ĠMus": 1370,
      "augh": 1371,
      "ĠLeague": 1372,
      "Ġbr": 1373,
      "ĠAll": 1374,
      "Ġlangu": 1375,
      "Ġlast": 1376,
      "Ġmunicip": 1377,
      "ĠOr": 1378,
      "Ġtelevision": 1379,
      "ĠPresident": 1380,
      "ung": 1381,
      "Ġcolle": 1382,
      "af": 1383,
      "Ġ2020": 1384,
      "ĠWh": 1385,
      "Ġdisc": 1386,
      "ison": 1387,
      "Ġ'": 1388,
      "Ġgu": 1389,
      "erg": 1390,
      "ained": 1391,
      "Ġprofess": 1392,
      "Ġbased": 1393,
      "ĠHowever": 1394,
      "arch": 1395,
      "Ġsouth": 1396,
      "Ġpublic": 1397,
      "Ġcompet": 1398,
      "ek": 1399,
      "Ġ2011": 1400,
      "embers": 1401,
      "por": 1402,
      "ple": 1403,
      "Ġstr": 1404,
      "Ġcharact": 1405,
      "Ġ2016": 1406,
      "me": 1407,
      "arr": 1408,
      "cer": 1409,
      "aint": 1410,
      "reen": 1411,
      "Ġcontin": 1412,
      "ats": 1413,
      "min": 1414,
      "Ġ(\"": 1415,
      "ĠGerman": 1416,
      "Ġ2013": 1417,
      "Ġ2015": 1418,
      "Ġdistrict": 1419,
      "Ġcompany": 1420,
      "Ġcommun": 1421,
      "urg": 1422,
      "for": 1423,
      "ues": 1424,
      "uck": 1425,
      "oard": 1426,
      "van": 1427,
      "ula": 1428,
      "con": 1429,
      "ĠItal": 1430,
      "Ġinclude": 1431,
      "ĠSchool": 1432,
      "ales": 1433,
      "yn": 1434,
      "eth": 1435,
      "Ġ.": 1436,
      "ĠPart": 1437,
      "ino": 1438,
      "Ġdesc": 1439,
      "Ġnow": 1440,
      "side": 1441,
      "Ġterm": 1442,
      "com": 1443,
      "Ġcentury": 1444,
      "ster": 1445,
      "Ġcar": 1446,
      "Ġ-": 1447,
      "Ġimport": 1448,
      "Ġchildren": 1449,
      "ised": 1450,
      "Ġleft": 1451,
      "Ġtook": 1452,
      "Ġheld": 1453,
      "Ġprogram": 1454,
      "ĠPar": 1455,
      "ĠII": 1456,
      "10": 1457,
      "ĠFrench": 1458,
      "eter": 1459,
      "Ġkill": 1460,
      "Ġmil": 1461,
      "Ġlarge": 1462,
      "Ġreturn": 1463,
      "app": 1464,
      "ourn": 1465,
      "Ġ$": 1466,
      "Ġfollowing": 1467,
      "cept": 1468,
      "\")": 1469,
      "ham": 1470,
      "ling": 1471,
      "ody": 1472,
      "co": 1473,
      "Ġmajor": 1474,
      "de": 1475,
      "Ġcounty": 1476,
      "ought": 1477,
      "Ġright": 1478,
      "Ġtit": 1479,
      "ĠMan": 1480,
      "ator": 1481,
      "Ġdiv": 1482,
      "Ġsupport": 1483,
      "ĠGu": 1484,
      "gr": 1485,
      "Ġbuilt": 1486,
      "Ġpass": 1487,
      "Ġserved": 1488,
      "Ġspecies": 1489,
      "Ġalong": 1490,
      "ĠUS": 1491,
      "ĠHer": 1492,
      "hem": 1493,
      "ĠTe": 1494,
      "ĠAss": 1495,
      "ĠEd": 1496,
      "estern": 1497,
      "Ġcountry": 1498,
      "ians": 1499,
      "ior": 1500,
      "Ã¡": 1501,
      "Ġbas": 1502,
      "ĠPol": 1503,
      "Ġmembers": 1504,
      "ĠChrist": 1505,
      "ĠAm": 1506,
      "Ġbus": 1507,
      "Ġhum": 1508,
      "ĠRuss": 1509,
      "ches": 1510,
      "omin": 1511,
      "Ġ2012": 1512,
      "ensus": 1513,
      "Ġsuccess": 1514,
      "ode": 1515,
      "iven": 1516,
      "eder": 1517,
      "ĠFl": 1518,
      "Ġcommune": 1519,
      "ald": 1520,
      "Ġcreated": 1521,
      "inc": 1522,
      "It": 1523,
      "Ġcurrent": 1524,
      "Ġlist": 1525,
      "Ġvill": 1526,
      "ĠWill": 1527,
      "Ġstat": 1528,
      "ience": 1529,
      "ĠWest": 1530,
      "ĠAb": 1531,
      "day": 1532,
      "Ġ25": 1533,
      "rew": 1534,
      "Ġsingle": 1535,
      "ĠBro": 1536,
      "Ġ2008": 1537,
      "ically": 1538,
      "Ġpoin": 1539,
      "ission": 1540,
      "Ġexamp": 1541,
      "Ġif": 1542,
      "ility": 1543,
      "ices": 1544,
      "Ġday": 1545,
      "Ġpolitician": 1546,
      "Ġwent": 1547,
      "ondon": 1548,
      "ĠState": 1549,
      "Ġlived": 1550,
      "aced": 1551,
      "Ġleg": 1552,
      "Ġcommon": 1553,
      "Ġpo": 1554,
      "Ġsoc": 1555,
      "ney": 1556,
      "uk": 1557,
      "aving": 1558,
      "lands": 1559,
      "iness": 1560,
      "ĠGeor": 1561,
      "ued": 1562,
      "ermany": 1563,
      "Ġcr": 1564,
      "chn": 1565,
      "Ġstation": 1566,
      "Ġcontro": 1567,
      "ĠEngland": 1568,
      "Ġshort": 1569,
      "ival": 1570,
      "Ġpower": 1571,
      "Ġclass": 1572,
      "ara": 1573,
      "Ġ30": 1574,
      "Ġsix": 1575,
      "iforn": 1576,
      "Ġ2007": 1577,
      "Ġlocated": 1578,
      "Ġpos": 1579,
      "ments": 1580,
      "ored": 1581,
      "ourt": 1582,
      "Ġocc": 1583,
      "ĠAfric": 1584,
      "Ġeff": 1585,
      "ĠBar": 1586,
      "Ġ2009": 1587,
      "Ġdown": 1588,
      "ĠGermany": 1589,
      "ington": 1590,
      "ifornia": 1591,
      "Ġattack": 1592,
      "alk": 1593,
      "ĠLondon": 1594,
      "Ġsk": 1595,
      "Ġtop": 1596,
      "Ġstill": 1597,
      "Ġmoved": 1598,
      "ĠRepubl": 1599,
      "ner": 1600,
      "Al": 1601,
      "Ġ2006": 1602,
      "Ġvers": 1603,
      "Ġevent": 1604,
      "aster": 1605,
      "hor": 1606,
      "Ġsl": 1607,
      "Ġeng": 1608,
      "Ġpopular": 1609,
      "Ġmillion": 1610,
      "Ġwomen": 1611,
      "Ġimportant": 1612,
      "alth": 1613,
      "ides": 1614,
      "Ġchang": 1615,
      "ĠCalifornia": 1616,
      "Ġfive": 1617,
      "Ġword": 1618,
      "Ġrev": 1619,
      "17": 1620,
      "Ġapp": 1621,
      "ĠAir": 1622,
      "Ġmarried": 1623,
      "rote": 1624,
      "Ġcamp": 1625,
      "ended": 1626,
      "ĠCup": 1627,
      "ves": 1628,
      "sp": 1629,
      "iod": 1630,
      "que": 1631,
      "ĠAng": 1632,
      "ana": 1633,
      "Ġusually": 1634,
      "ĠAnd": 1635,
      "ĠThese": 1636,
      "Ġthird": 1637,
      "idd": 1638,
      "Ġlive": 1639,
      "lex": 1640,
      "ford": 1641,
      "rest": 1642,
      "ĠParty": 1643,
      "ps": 1644,
      "Ġprom": 1645,
      "Ġreceived": 1646,
      "ief": 1647,
      "Ġevery": 1648,
      "ĠRiver": 1649,
      "Ġpresident": 1650,
      "Ġexp": 1651,
      "Ġmuch": 1652,
      "Ġsold": 1653,
      "Ġset": 1654,
      "Ġcame": 1655,
      "Ġallow": 1656,
      "ms": 1657,
      "Ġway": 1658,
      "Ġline": 1659,
      "ined": 1660,
      "ien": 1661,
      "istor": 1662,
      "Ġfather": 1663,
      "amb": 1664,
      "Ġorder": 1665,
      "ata": 1666,
      "Ġpublished": 1667,
      "uff": 1668,
      "osp": 1669,
      "Ġson": 1670,
      "Ġwhat": 1671,
      "Ġanother": 1672,
      "Ġwritten": 1673,
      "ones": 1674,
      "ĠIndian": 1675,
      "Ġ24": 1676,
      "adem": 1677,
      "riend": 1678,
      "ĠâĢ": 1679,
      "aul": 1680,
      "Ġmunicipality": 1681,
      "zer": 1682,
      "ĠMc": 1683,
      "Ġtri": 1684,
      "Ġjust": 1685,
      "Ġwar": 1686,
      "Ġsomet": 1687,
      "idge": 1688,
      "ummer": 1689,
      "12": 1690,
      "Ġcaus": 1691,
      "Ġmen": 1692,
      "Ġexample": 1693,
      "ler": 1694,
      "Ġanim": 1695,
      "Ġworked": 1696,
      "attle": 1697,
      "Ġofficial": 1698,
      "Ġref": 1699,
      "ĠBra": 1700,
      "Ġrole": 1701,
      "Ġeven": 1702,
      "Ġwrote": 1703,
      "ĠColle": 1704,
      "ĠEl": 1705,
      "Ġbecome": 1706,
      "200": 1707,
      "key": 1708,
      "iety": 1709,
      "dom": 1710,
      "Ġ21": 1711,
      "Ġrest": 1712,
      "ĠCo": 1713,
      "gin": 1714,
      "itions": 1715,
      "ev": 1716,
      "Ġtimes": 1717,
      "ĠHouse": 1718,
      "umb": 1719,
      "Ġmark": 1720,
      "Ġdeb": 1721,
      "rog": 1722,
      "ĠX": 1723,
      "itary": 1724,
      "ĠWhen": 1725,
      "oon": 1726,
      "ording": 1727,
      "Ġep": 1728,
      "15": 1729,
      "16": 1730,
      "Ġgiven": 1731,
      "Ġhistory": 1732,
      "med": 1733,
      "Ġgames": 1734,
      "ness": 1735,
      "ified": 1736,
      "raft": 1737,
      "though": 1738,
      "ency": 1739,
      "ĠPark": 1740,
      "ĠChampionship": 1741,
      "hern": 1742,
      "ama": 1743,
      "Ġpar": 1744,
      "inning": 1745,
      "Ġlocal": 1746,
      "Ã¼": 1747,
      "Ġelect": 1748,
      "Ġrefer": 1749,
      "ĠTr": 1750,
      "ele": 1751,
      "Ġcensus": 1752,
      "ĠRoman": 1753,
      "Ġperform": 1754,
      "Ġ&": 1755,
      "Ġperiod": 1756,
      "Ġyoung": 1757,
      "Ġmanag": 1758,
      "Ġrepresent": 1759,
      "ĠSy": 1760,
      "ged": 1761,
      "int": 1762,
      "sc": 1763,
      "Ġannoun": 1764,
      "Ġconsid": 1765,
      "Ġestab": 1766,
      "Ġ22": 1767,
      "Ã¶": 1768,
      "ĠSec": 1769,
      "omb": 1770,
      "ization": 1771,
      "Ġneed": 1772,
      "Ġ()": 1773,
      "alt": 1774,
      "ĠIndia": 1775,
      "uted": 1776,
      "Ġvis": 1777,
      "Ġhouse": 1778,
      "Ġbre": 1779,
      "Ġpresent": 1780,
      "cent": 1781,
      "Ġlargest": 1782,
      "Ġbuilding": 1783,
      "ĠMe": 1784,
      "ĠJapanese": 1785,
      "Ġlanguage": 1786,
      "ĠWilliam": 1787,
      "cil": 1788,
      "emoc": 1789,
      "ĠAmerica": 1790,
      "Ġtw": 1791,
      "astern": 1792,
      "Ġfew": 1793,
      "work": 1794,
      "14": 1795,
      "na": 1796,
      "Ġget": 1797,
      "Ġrepl": 1798,
      "lymp": 1799,
      "orthern": 1800,
      "Ġsol": 1801,
      "aur": 1802,
      "ĠDist": 1803,
      "lin": 1804,
      "Ġvillage": 1805,
      "epend": 1806,
      "Ġ2000": 1807,
      "Ġdue": 1808,
      "ipp": 1809,
      "Ġmonth": 1810,
      "Ġincluded": 1811,
      "alf": 1812,
      "Ġdescrib": 1813,
      "Ġ23": 1814,
      "ges": 1815,
      "Ġ190": 1816,
      "Ġlevel": 1817,
      "par": 1818,
      "Ġ2005": 1819,
      "anc": 1820,
      "Ġspecial": 1821,
      "ole": 1822,
      "ĠPhil": 1823,
      "ĠOlymp": 1824,
      "Ġcharacter": 1825,
      "ĠEx": 1826,
      "conom": 1827,
      "Ġfinal": 1828,
      "ĠMinister": 1829,
      "Ġaward": 1830,
      "Ġtrad": 1831,
      "Ġcapital": 1832,
      "ilar": 1833,
      "ago": 1834,
      "Ġreport": 1835,
      "Ġdirected": 1836,
      "Ġhand": 1837,
      "ask": 1838,
      "iter": 1839,
      "13": 1840,
      "An": 1841,
      "hel": 1842,
      "ivil": 1843,
      "ĠHar": 1844,
      "Ġgreat": 1845,
      "..": 1846,
      "ories": 1847,
      "Ġhelp": 1848,
      "Ġstand": 1849,
      "ĠOne": 1850,
      "ĠAustralia": 1851,
      "ize": 1852,
      "ĠSome": 1853,
      "Ġcountries": 1854,
      "of": 1855,
      "Ġwin": 1856,
      "ĠMed": 1857,
      "ĠEast": 1858,
      "ady": 1859,
      "ĠIts": 1860,
      "Ġdoes": 1861,
      "Ġequ": 1862,
      "ĠGovern": 1863,
      "sk": 1864,
      "stru": 1865,
      "Ġbusiness": 1866,
      "Ġcrit": 1867,
      "Ġfounded": 1868,
      "Ġ26": 1869,
      "ideo": 1870,
      "Ġnext": 1871,
      "oll": 1872,
      "ÃŃ": 1873,
      "Ġgood": 1874,
      "Ġappro": 1875,
      "Ġtem": 1876,
      "aim": 1877,
      "Ġappear": 1878,
      "Ġelection": 1879,
      "Ġusing": 1880,
      "tain": 1881,
      "adu": 1882,
      "Ġactiv": 1883,
      "ĠCollege": 1884,
      "Ġla": 1885,
      "ĠMich": 1886,
      "thern": 1887,
      "reet": 1888,
      "ote": 1889,
      "ases": 1890,
      "Ġgen": 1891,
      "ography": 1892,
      "Ġled": 1893,
      "ĠInternational": 1894,
      "ĠAward": 1895,
      "Cl": 1896,
      "outhern": 1897,
      "Ġcor": 1898,
      "Ġresult": 1899,
      "Ġthose": 1900,
      "Ġmeans": 1901,
      "Ġmag": 1902,
      "rain": 1903,
      "aces": 1904,
      "eneral": 1905,
      "ĠHigh": 1906,
      "Ġ2004": 1907,
      "Ġhow": 1908,
      "Ġfamous": 1909,
      "isc": 1910,
      "ville": 1911,
      "ouncil": 1912,
      "Ġav": 1913,
      "ours": 1914,
      "ico": 1915,
      "ately": 1916,
      "ush": 1917,
      "Ġsent": 1918,
      "oad": 1919,
      "tal": 1920,
      "Ġworks": 1921,
      "pect": 1922,
      "Ġes": 1923,
      "oney": 1924,
      "Ġwithin": 1925,
      "Ġlate": 1926,
      "Ġ27": 1927,
      "ĠSan": 1928,
      "Ġwant": 1929,
      "Ġprofessional": 1930,
      "Ġexper": 1931,
      "ape": 1932,
      "ured": 1933,
      "Ġexpl": 1934,
      "Ġside": 1935,
      "ĠReg": 1936,
      "Ġbody": 1937,
      "Ġrad": 1938,
      "oph": 1939,
      "rick": 1940,
      "Ġturn": 1941,
      "Ġhig": 1942,
      "Ġ28": 1943,
      "Ġproduced": 1944,
      "ĠAc": 1945,
      "Ġorigin": 1946,
      "ched": 1947,
      "Ġjoined": 1948,
      "Ġdet": 1949,
      "urb": 1950,
      "Ġtitle": 1951,
      "ots": 1952,
      "Ġprote": 1953,
      "Ġcult": 1954,
      "Ġoriginal": 1955,
      "Ġeast": 1956,
      "Ġeduc": 1957,
      "iber": 1958,
      "emocrat": 1959,
      "Ġcompos": 1960,
      "ĠDistrict": 1961,
      "reg": 1962,
      "burg": 1963,
      "Ġtoget": 1964,
      "Ġtogether": 1965,
      "Ġtake": 1966,
      "ĠDav": 1967,
      "aut": 1968,
      "Ġfore": 1969,
      "ently": 1970,
      "Ġpolitical": 1971,
      "ĠEuropean": 1972,
      "Ã³": 1973,
      "ering": 1974,
      "ĠCor": 1975,
      "ument": 1976,
      "ached": 1977,
      "arent": 1978,
      "Ġannounced": 1979,
      "ĠPenn": 1980,
      "Ġresp": 1981,
      "Ġfem": 1982,
      "Ġval": 1983,
      "Ġsw": 1984,
      "ĠEn": 1985,
      "yle": 1986,
      "Ġincre": 1987,
      "ĠUnion": 1988,
      "Ġactor": 1989,
      "ĠBel": 1990,
      "rab": 1991,
      "ead": 1992,
      "ĠSen": 1993,
      "ĠSup": 1994,
      "Ġ2021": 1995,
      "ĠSoc": 1996,
      "Ġpost": 1997,
      "ĠLou": 1998,
      "ael": 1999,
      "ĠMon": 2000,
      "Ġ189": 2001,
      "ells": 2002,
      "Ġ100": 2003,
      "Ġauthor": 2004,
      "ĠPer": 2005,
      "After": 2006,
      "ĠEm": 2007,
      "Ġwest": 2008,
      "west": 2009,
      "ala": 2010,
      "Ġ1990": 2011,
      "Ġliving": 2012,
      "pes": 2013,
      "Ġtotal": 2014,
      "ĠCanada": 2015,
      "ration": 2016,
      "aken": 2017,
      "Ġseat": 2018,
      "ades": 2019,
      "vers": 2020,
      "ĠGl": 2021,
      "ociation": 2022,
      "Ġrequ": 2023,
      "ean": 2024,
      "Ġ2001": 2025,
      "Ġaff": 2026,
      "Ġfact": 2027,
      "oe": 2028,
      "Ġinternational": 2029,
      "Ġbig": 2030,
      "ĠSch": 2031,
      "Ġposs": 2032,
      "11": 2033,
      "Ġproble": 2034,
      "ittle": 2035,
      "Ġport": 2036,
      "Ġmean": 2037,
      "Ġfriend": 2038,
      "minist": 2039,
      "cle": 2040,
      "Ġsimilar": 2041,
      "Ġ2022": 2042,
      "Ġide": 2043,
      "Ġlight": 2044,
      "ylvan": 2045,
      "Ġfind": 2046,
      "Ġ29": 2047,
      "ĠDep": 2048,
      "Ġservice": 2049,
      "This": 2050,
      "ery": 2051,
      "eg": 2052,
      "Ġ2003": 2053,
      "Ġgeneral": 2054,
      "Ġdays": 2055,
      "Ġsinger": 2056,
      "most": 2057,
      "ĠPort": 2058,
      "vious": 2059,
      "Ġaged": 2060,
      "Ġput": 2061,
      "ament": 2062,
      "Ġsett": 2063,
      "Ġmaking": 2064,
      "Ġplays": 2065,
      "Ġamong": 2066,
      "As": 2067,
      "aff": 2068,
      "ards": 2069,
      "Ġhapp": 2070,
      "Ġrul": 2071,
      "Ġnon": 2072,
      "Ġbelie": 2073,
      "irl": 2074,
      "avy": 2075,
      "ida": 2076,
      "Ġvol": 2077,
      "Ġpat": 2078,
      "Ġiss": 2079,
      "ĠYou": 2080,
      "ylvania": 2081,
      "olution": 2082,
      "Ġfield": 2083,
      "Ġel": 2084,
      "Ġappeared": 2085,
      "There": 2086,
      "Ġ1980": 2087,
      "ports": 2088,
      "Ġformed": 2089,
      "eum": 2090,
      "ense": 2091,
      "Ġprocess": 2092,
      "Ġstory": 2093,
      "ansas": 2094,
      "self": 2095,
      "Ġvideo": 2096,
      "istics": 2097,
      "50": 2098,
      "Ġbeh": 2099,
      "cast": 2100,
      "ris": 2101,
      "Ġfun": 2102,
      "ruct": 2103,
      "ĠComp": 2104,
      "Ġ2002": 2105,
      "Ġrock": 2106,
      "eh": 2107,
      "anish": 2108,
      "ively": 2109,
      "ops": 2110,
      "ĠDuring": 2111,
      "Ġship": 2112,
      "off": 2113,
      "Ġclos": 2114,
      "Ar": 2115,
      "overed": 2116,
      "berg": 2117,
      "ope": 2118,
      "Ġeffect": 2119,
      "Ġarch": 2120,
      "Ġlost": 2121,
      "Ġ186": 2122,
      "Ġ,": 2123,
      "Ġkilled": 2124,
      "Ġbrother": 2125,
      "flu": 2126,
      "lished": 2127,
      "Ġepis": 2128,
      "Ġter": 2129,
      "Ġplaying": 2130,
      "Ġelected": 2131,
      "tt": 2132,
      "Ġdaugh": 2133,
      "sylvania": 2134,
      "Ġlook": 2135,
      "'t": 2136,
      "gy": 2137,
      "ari": 2138,
      "ĠChurch": 2139,
      "rian": 2140,
      "Ġwithout": 2141,
      "ĠBut": 2142,
      "Ġless": 2143,
      "Ġmother": 2144,
      "ĠSer": 2145,
      "Ġhaving": 2146,
      "ĠMiss": 2147,
      "Ġparty": 2148,
      "rem": 2149,
      "ĠVir": 2150,
      "ĠDemocrat": 2151,
      "ander": 2152,
      "Ġversion": 2153,
      "ĠPennsylvania": 2154,
      "uel": 2155,
      "itional": 2156,
      "ĠHol": 2157,
      "Ġrese": 2158,
      "Ġmilitary": 2159,
      "Ġhuman": 2160,
      "Ġhistor": 2161,
      "199": 2162,
      "Ġinvol": 2163,
      "Ġnov": 2164,
      "line": 2165,
      "Ġtrain": 2166,
      "ĠNor": 2167,
      "field": 2168,
      "oyal": 2169,
      "Ġhost": 2170,
      "ront": 2171,
      "Ġgrow": 2172,
      "ĠMex": 2173,
      "ĠChar": 2174,
      "ĠQue": 2175,
      "urs": 2176,
      "Ġdirector": 2177,
      "ened": 2178,
      "ee": 2179,
      "Ġparts": 2180,
      "hip": 2181,
      "ĠTex": 2182,
      "ĠArmy": 2183,
      "Ġpe": 2184,
      "ĠBy": 2185,
      "ways": 2186,
      "Ġdel": 2187,
      "Ġcontrol": 2188,
      "Ġtechn": 2189,
      "Ġ188": 2190,
      "ya": 2191,
      "Ġcomple": 2192,
      "Ġbeg": 2193,
      "Ġriver": 2194,
      "Ġwife": 2195,
      "Ġgl": 2196,
      "History": 2197,
      "zil": 2198,
      "Ġround": 2199,
      "iddle": 2200,
      "uter": 2201,
      "ream": 2202,
      "ertain": 2203,
      "reek": 2204,
      "Ġdefe": 2205,
      "Ġsit": 2206,
      "Ġdem": 2207,
      "ĠVal": 2208,
      "Ġfre": 2209,
      "Ġcommunity": 2210,
      "iron": 2211,
      "istan": 2212,
      "Ġengine": 2213,
      "Ġseen": 2214,
      "ma": 2215,
      "ĠKingdom": 2216,
      "Ġconf": 2217,
      "âĢĿ": 2218,
      "Ġdest": 2219,
      "ij": 2220,
      "BC": 2221,
      "cts": 2222,
      "Ġestablished": 2223,
      "etwork": 2224,
      "Ġ1970": 2225,
      "Ã¤": 2226,
      "era": 2227,
      "Ġshould": 2228,
      "Ġmatch": 2229,
      "ĠJames": 2230,
      "iers": 2231,
      "bor": 2232,
      "ogn": 2233,
      "pecial": 2234,
      "ĠLa": 2235,
      "ning": 2236,
      "Ġsometimes": 2237,
      "ĠSwed": 2238,
      "ius": 2239,
      "Ġeconom": 2240,
      "ashington": 2241,
      "Ġgot": 2242,
      "km": 2243,
      "bert": 2244,
      "duced": 2245,
      "Ġsocial": 2246,
      "formation": 2247,
      "raw": 2248,
      "Ġrail": 2249,
      "Ġmodern": 2250,
      "rag": 2251,
      "edy": 2252,
      "Ġfeature": 2253,
      "Ġothers": 2254,
      "Ġreal": 2255,
      "Ġhalf": 2256,
      "ills": 2257,
      "iol": 2258,
      "ĠChina": 2259,
      "ĠItalian": 2260,
      "Ġaway": 2261,
      "roy": 2262,
      "aves": 2263,
      "ĠJack": 2264,
      "ĠGeneral": 2265,
      "ĠWe": 2266,
      "ĠPal": 2267,
      "ĠAnt": 2268,
      "Ġareas": 2269,
      "ule": 2270,
      "ria": 2271,
      "Ġgave": 2272,
      "Ġinf": 2273,
      "oor": 2274,
      "ellow": 2275,
      "ĠRepublic": 2276,
      "eal": 2277,
      "Ġhold": 2278,
      "ĠSm": 2279,
      "here": 2280,
      "ademy": 2281,
      "Ġtype": 2282,
      "ĠBer": 2283,
      "Ġprovince": 2284,
      "Ġmount": 2285,
      "oviet": 2286,
      "Ġfood": 2287,
      "ĠKh": 2288,
      "Ġsound": 2289,
      "ights": 2290,
      "Ġstrong": 2291,
      "ĠAngel": 2292,
      "ĠRec": 2293,
      "ĠBrazil": 2294,
      "ĠGeorge": 2295,
      "Ġvarious": 2296,
      "ĠAg": 2297,
      "Ġconsidered": 2298,
      "ĠTexas": 2299,
      "Ġpoint": 2300,
      "Ġstudents": 2301,
      "Ġhy": 2302,
      "obert": 2303,
      "ĠIsland": 2304,
      "Ġ1999": 2305,
      "ĠProv": 2306,
      "Ġfeat": 2307,
      "posed": 2308,
      "forman": 2309,
      "arliam": 2310,
      "Ġprim": 2311,
      "shire": 2312,
      "ĠRich": 2313,
      "Ġproject": 2314,
      "hest": 2315,
      "Sh": 2316,
      "Ġthought": 2317,
      "Ġsee": 2318,
      "aper": 2319,
      "Ġpartic": 2320,
      "Ġblack": 2321,
      "atural": 2322,
      "ĠPri": 2323,
      "Ġsele": 2324,
      "Ġflow": 2325,
      "less": 2326,
      "ena": 2327,
      "arliament": 2328,
      "used": 2329,
      "ids": 2330,
      "Ġsongs": 2331,
      "ĠTur": 2332,
      "Ġtest": 2333,
      "Ġoffice": 2334,
      "itor": 2335,
      "olic": 2336,
      "ĠVirgin": 2337,
      "ivision": 2338,
      "ĠMor": 2339,
      "ĠâĢľ": 2340,
      "icago": 2341,
      "Ġincludes": 2342,
      "Ġindepend": 2343,
      "arth": 2344,
      "Ġappoin": 2345,
      "Ġrace": 2346,
      "Ġreturned": 2347,
      "Ġprevious": 2348,
      "Ġfull": 2349,
      "Ġlet": 2350,
      "now": 2351,
      "abor": 2352,
      "ĠWashington": 2353,
      "Ġindust": 2354,
      "Ġconne": 2355,
      "Ġstar": 2356,
      "Ġstudy": 2357,
      "ĠKore": 2358,
      "ĠLouis": 2359,
      "Ġposition": 2360,
      "Ġstop": 2361,
      "Ġinflu": 2362,
      "ither": 2363,
      "Ġopened": 2364,
      "ĠAp": 2365,
      "Ġgroups": 2366,
      "Ġisland": 2367,
      "aker": 2368,
      "ĠRes": 2369,
      "atch": 2370,
      "30": 2371,
      "Ġ187": 2372,
      "unt": 2373,
      "lear": 2374,
      "Ġ1960": 2375,
      "ĠPaul": 2376,
      "Ġarr": 2377,
      "asons": 2378,
      "ĠSoviet": 2379,
      "inese": 2380,
      "ĠHall": 2381,
      "ĠAustralian": 2382,
      "Ġmult": 2383,
      "Ġadv": 2384,
      "ĠQu": 2385,
      "Ġfail": 2386,
      "Ġclaim": 2387,
      "Ġcomb": 2388,
      "ention": 2389,
      "Ġ1998": 2390,
      "Ġconc": 2391,
      "ospital": 2392,
      "Ġbroad": 2393,
      "Ġbooks": 2394,
      "ump": 2395,
      "Ġdirect": 2396,
      "ccording": 2397,
      "Ġplan": 2398,
      "Ġant": 2399,
      "Ġformula": 2400,
      "Ġmovies": 2401,
      "Ġ1996": 2402,
      "Ġworking": 2403,
      "ĠCouncil": 2404,
      "Ġconstru": 2405,
      "Ġdeveloped": 2406,
      "Ġthings": 2407,
      "ef": 2408,
      "ĠNo": 2409,
      "Ġnomin": 2410,
      "Ġphys": 2411,
      "Ġsay": 2412,
      "Ġroad": 2413,
      "Ġinterest": 2414,
      "eep": 2415,
      "ript": 2416,
      "ĠTown": 2417,
      "ota": 2418,
      "Ġhowever": 2419,
      "itte": 2420,
      "ederal": 2421,
      "Ġdevelopment": 2422,
      "ha": 2423,
      "Ġmoney": 2424,
      "Ġrecorded": 2425,
      "Ġnever": 2426,
      "Ġmy": 2427,
      "Ġcaused": 2428,
      "Ġfrog": 2429,
      "She": 2430,
      "ĠCanadian": 2431,
      "Ġrelig": 2432,
      "ude": 2433,
      "Ġteams": 2434,
      "ences": 2435,
      "imate": 2436,
      "ĠMary": 2437,
      "Ġactress": 2438,
      "Ġdaughter": 2439,
      "Ġshows": 2440,
      "itzer": 2441,
      "Ġmust": 2442,
      "go": 2443,
      "ĠAcademy": 2444,
      "ĠRed": 2445,
      "ĠArt": 2446,
      "wood": 2447,
      "Ġthough": 2448,
      "Ġintro": 2449,
      "ination": 2450,
      "Ġknow": 2451,
      "mb": 2452,
      "Ġmar": 2453,
      "ĠRussian": 2454,
      "omas": 2455,
      "Ġchanged": 2456,
      "ending": 2457,
      "Ġaver": 2458,
      "Ġfire": 2459,
      "ĠMany": 2460,
      "ming": 2461,
      "Ġbecom": 2462,
      "Ġmot": 2463,
      "ances": 2464,
      "ĠCong": 2465,
      "Ġcoach": 2466,
      "Ġpri": 2467,
      "Ġsuccessful": 2468,
      "stitute": 2469,
      "Ġtour": 2470,
      "Ġcond": 2471,
      "Mar": 2472,
      "atic": 2473,
      "Ġlow": 2474,
      "Ġsigned": 2475,
      "Ġfree": 2476,
      "Ġten": 2477,
      "Ġgradu": 2478,
      "lant": 2479,
      "ĠChicago": 2480,
      "Ġlim": 2481,
      "rown": 2482,
      "At": 2483,
      "ĠMil": 2484,
      "ĠItaly": 2485,
      "Ġ|": 2486,
      "ivid": 2487,
      "yr": 2488,
      "year": 2489,
      "Ġ1994": 2490,
      "cis": 2491,
      "Ġ1995": 2492,
      "ournal": 2493,
      "Ġfac": 2494,
      "Ġking": 2495,
      "ergy": 2496,
      "ĠStreet": 2497,
      "ĠMal": 2498,
      "wh": 2499,
      "Ġsex": 2500,
      "ably": 2501,
      "ords": 2502,
      "Ġstates": 2503,
      "ĠAfrica": 2504,
      "ĠIll": 2505,
      "odes": 2506,
      "Ġcontinued": 2507,
      "oo": 2508,
      "ring": 2509,
      "Ġplayers": 2510,
      "ĠMount": 2511,
      "Ġstage": 2512,
      "amm": 2513,
      "Ġfight": 2514,
      "aign": 2515,
      "Ġdescribed": 2516,
      "Ġtre": 2517,
      "ĠAct": 2518,
      "Ġproduction": 2519,
      "ĠHen": 2520,
      "Ġpract": 2521,
      "Ġ1992": 2522,
      "Ġsepar": 2523,
      "atin": 2524,
      "irth": 2525,
      "atter": 2526,
      "Ġlearn": 2527,
      "Ġchurch": 2528,
      "ological": 2529,
      "Ġhard": 2530,
      "Ġimp": 2531,
      "itive": 2532,
      "ye": 2533,
      "Ġdebut": 2534,
      "ĠMart": 2535,
      "Ġfur": 2536,
      "Ġwhite": 2537,
      "estival": 2538,
      "Ġcurrently": 2539,
      "Ġident": 2540,
      "Ġexist": 2541,
      "Ġ31": 2542,
      "Ġchange": 2543,
      "itar": 2544,
      "alls": 2545,
      "oul": 2546,
      "ĠBlack": 2547,
      "rama": 2548,
      "Ġmater": 2549,
      "rap": 2550,
      "Ġtaken": 2551,
      "Ġhimself": 2552,
      "ĠTV": 2553,
      "Ġsqu": 2554,
      "Ġdam": 2555,
      "oice": 2556,
      "irc": 2557,
      "ĠDavid": 2558,
      "198": 2559,
      "ĠGreat": 2560,
      "ux": 2561,
      "mit": 2562,
      "Ġmid": 2563,
      "atives": 2564,
      "abit": 2565,
      "ano": 2566,
      "ĠRoyal": 2567,
      "Ġhon": 2568,
      "Ġproper": 2569,
      "Ġsite": 2570,
      "Ġperforman": 2571,
      "elling": 2572,
      "Ġ50": 2573,
      "iqu": 2574,
      "Ġresearch": 2575,
      "ification": 2576,
      "Ġdi": 2577,
      "ĠAssociation": 2578,
      "board": 2579,
      "sy": 2580,
      "Ġparticip": 2581,
      "Ġbord": 2582,
      "Ġmostly": 2583,
      "Ġleader": 2584,
      "ĠSl": 2585,
      "ĠSpanish": 2586,
      "Ġable": 2587,
      "Ġsug": 2588,
      "ĠFlor": 2589,
      "Ġdeg": 2590,
      "ston": 2591,
      "ockey": 2592,
      "ores": 2593,
      "ĠJew": 2594,
      "ĠFrom": 2595,
      "ĠChinese": 2596,
      "ential": 2597,
      "Ġcop": 2598,
      "ĠJos": 2599,
      "ĠCath": 2600,
      "Ġstars": 2601,
      "cher": 2602,
      "rey": 2603,
      "play": 2604,
      "Ġstudied": 2605,
      "Ġcenter": 2606,
      "Ġmonths": 2607,
      "Ġ1997": 2608,
      "Ġcase": 2609,
      "Ġacross": 2610,
      "Ġview": 2611,
      "ploy": 2612,
      "Ġparent": 2613,
      "ĠCentral": 2614,
      "iment": 2615,
      "Ġnovel": 2616,
      "ĠWith": 2617,
      "ĠSing": 2618,
      "Ġred": 2619,
      "utch": 2620,
      "Ġ1993": 2621,
      "Ġwriter": 2622,
      "writ": 2623,
      "Ġstruct": 2624,
      "ĠMost": 2625,
      "Ġadminist": 2626,
      "Ġmeet": 2627,
      "ĠVirginia": 2628,
      "ĠAfrican": 2629,
      "ka": 2630,
      "Ġground": 2631,
      "den": 2632,
      "Ġcivil": 2633,
      "Ġcast": 2634,
      "ĠBest": 2635,
      "Ġstudio": 2636,
      "ĠGrand": 2637,
      "Ġperformed": 2638,
      "oma": 2639,
      "ements": 2640,
      "Ġeight": 2641,
      "ictor": 2642,
      "Ã¨": 2643,
      "nown": 2644,
      "ĠMet": 2645,
      "Ġrecogn": 2646,
      "ĠPeople": 2647,
      "Ġanc": 2648,
      "ĠLos": 2649,
      "itzerland": 2650,
      "hi": 2651,
      ",\"": 2652,
      "oms": 2653,
      "Ġabove": 2654,
      "ittee": 2655,
      "aly": 2656,
      "Ġdise": 2657,
      "ĠCourt": 2658,
      "Ġinit": 2659,
      "utes": 2660,
      "ether": 2661,
      "ona": 2662,
      "Ġappl": 2663,
      "Ġmakes": 2664,
      "eph": 2665,
      "ĠDel": 2666,
      "ĠSal": 2667,
      "ĠPat": 2668,
      "ĠChristian": 2669,
      "Ġheart": 2670,
      "ĠDr": 2671,
      "annel": 2672,
      "band": 2673,
      "ĠParis": 2674,
      "Ġaverage": 2675,
      "Ġpriv": 2676,
      "Ġcy": 2677,
      "ĠUK": 2678,
      "ĠBay": 2679,
      "Ġonce": 2680,
      "Ġweek": 2681,
      "Ġreached": 2682,
      "ĠMont": 2683,
      "Ġseven": 2684,
      "Ġvot": 2685,
      "ky": 2686,
      "ĠDemocratic": 2687,
      "Ġfinished": 2688,
      "ĠSwitzerland": 2689,
      "Ġalmost": 2690,
      "oz": 2691,
      "ĠSam": 2692,
      "craft": 2693,
      "mpire": 2694,
      "Ġdev": 2695,
      "Ge": 2696,
      "sel": 2697,
      "mon": 2698,
      "ein": 2699,
      "ropical": 2700,
      "itch": 2701,
      "Ġdistrib": 2702,
      "iction": 2703,
      "ĠMad": 2704,
      "Amer": 2705,
      "Ġreview": 2706,
      "Ġlives": 2707,
      "Ġ1991": 2708,
      "uit": 2709,
      "aria": 2710,
      "Ġinvest": 2711,
      "isl": 2712,
      "Ġkind": 2713,
      "ĠCarol": 2714,
      "ference": 2715,
      "ray": 2716,
      "Ġevents": 2717,
      "itect": 2718,
      "inois": 2719,
      "Ġrights": 2720,
      "Ġradio": 2721,
      "Ġtreat": 2722,
      "aine": 2723,
      "Ġrelease": 2724,
      "ender": 2725,
      "Ġattem": 2726,
      "heast": 2727,
      "urt": 2728,
      "Ġ[": 2729,
      "Ġread": 2730,
      "ĠDon": 2731,
      "Ġappointed": 2732,
      "Ġ0": 2733,
      "hing": 2734,
      "Ġavail": 2735,
      "âĢĶ": 2736,
      "ĠCenter": 2737,
      "ĠÃ": 2738,
      "Ġended": 2739,
      "hib": 2740,
      "Ġtoo": 2741,
      "Ġplant": 2742,
      "Ġdivision": 2743,
      "ising": 2744,
      "ateg": 2745,
      "Ġwanted": 2746,
      "Ġbetter": 2747,
      "Ġhit": 2748,
      "197": 2749,
      "Ġindivid": 2750,
      "acy": 2751,
      "be": 2752,
      "ique": 2753,
      "ĠNe": 2754,
      "view": 2755,
      "agn": 2756,
      "men": 2757,
      "icle": 2758,
      "acher": 2759,
      "ĠGold": 2760,
      "Ġcancer": 2761,
      "uz": 2762,
      "ĠFirst": 2763,
      "ournament": 2764,
      "ada": 2765,
      "Ġcant": 2766,
      "utive": 2767,
      "Ġpress": 2768,
      "Ġfemale": 2769,
      "Ġsour": 2770,
      "Ġnorthern": 2771,
      "25": 2772,
      "ĠAngeles": 2773,
      "Ġ(;": 2774,
      "ĠGames": 2775,
      "Ġweb": 2776,
      "aining": 2777,
      "olit": 2778,
      "ĠWomen": 2779,
      "Ġinj": 2780,
      "Ġins": 2781,
      "ĠCap": 2782,
      "ĠGod": 2783,
      "Ġartist": 2784,
      "arly": 2785,
      "Ġcand": 2786,
      "Ġmaterial": 2787,
      "round": 2788,
      "ĠFlorida": 2789,
      "Ġcome": 2790,
      "Ġreplaced": 2791,
      "ĠIllinois": 2792,
      "Ġbi": 2793,
      "Ġstyle": 2794,
      "iation": 2795,
      "idence": 2796,
      "ands": 2797,
      "Ġran": 2798,
      "Ġleague": 2799,
      "Ġoriginally": 2800,
      "lt": 2801,
      "Ġtrib": 2802,
      "Ġretired": 2803,
      "retary": 2804,
      "Ġdecl": 2805,
      "Ġdecided": 2806,
      "ĠBas": 2807,
      "Ġstatistics": 2808,
      "read": 2809,
      "Ġinformation": 2810,
      "Ġclose": 2811,
      "time": 2812,
      "Ġhealth": 2813,
      "Ġcoll": 2814,
      "Ġservices": 2815,
      "lam": 2816,
      "azine": 2817,
      "Ġpromot": 2818,
      "Ġlot": 2819,
      "Ġviol": 2820,
      "olf": 2821,
      "Ġprison": 2822,
      "Ġparticular": 2823,
      "Ġexec": 2824,
      "ify": 2825,
      "Ġawarded": 2826,
      "ani": 2827,
      "Ġcoast": 2828,
      "Ġcal": 2829,
      "ranch": 2830,
      "Ġmix": 2831,
      "Ġlaun": 2832,
      "FA": 2833,
      "De": 2834,
      "ults": 2835,
      "Ġ1989": 2836,
      "Ġcampaign": 2837,
      "Ġsuff": 2838,
      "Ġpark": 2839,
      "ado": 2840,
      "ĠCharles": 2841,
      "like": 2842,
      "ications": 2843,
      "ware": 2844,
      "ĠArab": 2845,
      "ĠSummer": 2846,
      "Ġproblems": 2847,
      "lim": 2848,
      "not": 2849,
      "ĠMichael": 2850,
      "ators": 2851,
      "ĠOff": 2852,
      "ĠWestern": 2853,
      "Ġscient": 2854,
      "Ġsea": 2855,
      "ength": 2856,
      "Ġaddition": 2857,
      "ression": 2858,
      "Ġleast": 2859,
      "ĠGovernor": 2860,
      "stitution": 2861,
      "ĠDivision": 2862,
      "Ġeducation": 2863,
      "iding": 2864,
      "Ġwoman": 2865,
      "ites": 2866,
      "iting": 2867,
      "rael": 2868,
      "ensive": 2869,
      "ĠOlympics": 2870,
      "Ġearl": 2871,
      "ibr": 2872,
      "Ġcross": 2873,
      "Ġmodel": 2874,
      "ĠRobert": 2875,
      "Ġeither": 2876,
      "aud": 2877,
      "Ġregular": 2878,
      "ĠChe": 2879,
      "ym": 2880,
      "val": 2881,
      "airs": 2882,
      "Ġcities": 2883,
      "igned": 2884,
      "Ġsouthern": 2885,
      "ems": 2886,
      "Ġmarket": 2887,
      "Ġmass": 2888,
      "Ġpolice": 2889,
      "Ġcentral": 2890,
      "Ġreported": 2891,
      "ĠSim": 2892,
      "Wh": 2893,
      "lect": 2894,
      "Ġsurv": 2895,
      "Ġadded": 2896,
      "Ġill": 2897,
      "Ġavailable": 2898,
      "Ġvict": 2899,
      "Ġprot": 2900,
      "Ġhighest": 2901,
      "ĠScott": 2902,
      "Ġdesigned": 2903,
      "stand": 2904,
      "och": 2905,
      "ĠSant": 2906,
      "40": 2907,
      "Ġnatural": 2908,
      "ĠRail": 2909,
      "Ġcourt": 2910,
      "Ġfront": 2911,
      "Ġgold": 2912,
      "ĠLaw": 2913,
      "ini": 2914,
      "Ġforces": 2915,
      "Ġagre": 2916,
      "ĠDes": 2917,
      "Ġcapt": 2918,
      "ĠIf": 2919,
      "American": 2920,
      "Ġgoal": 2921,
      "Ġwind": 2922,
      "Ġ1950": 2923,
      "ĠCongress": 2924,
      "ĠOther": 2925,
      "fic": 2926,
      "Ġlik": 2927,
      "Ġrank": 2928,
      "Ġ185": 2929,
      "Ġpast": 2930,
      "ĠMexico": 2931,
      "Ġfoc": 2932,
      "Ġpain": 2933,
      "Ġfourth": 2934,
      "ror": 2935,
      "Ġcost": 2936,
      "Ġsil": 2937,
      "ĠKansas": 2938,
      "Ġchem": 2939,
      "Ġwid": 2940,
      "Ġspace": 2941,
      "Ġdestroy": 2942,
      "leg": 2943,
      "Ġpoints": 2944,
      "Ġalthough": 2945,
      "Ġliter": 2946,
      "ĠAlex": 2947,
      "ĠPak": 2948,
      "Ġphot": 2949,
      "Ġepisode": 2950,
      "Ġkeep": 2951,
      "lor": 2952,
      "ĠCatholic": 2953,
      "ĠZeal": 2954,
      "Ġinstead": 2955,
      "Ġhous": 2956,
      "Ġcondu": 2957,
      "Äģ": 2958,
      "Ġjob": 2959,
      "Ġdone": 2960,
      "ĠFin": 2961,
      "Ġplaces": 2962,
      "chie": 2963,
      "ĠSpain": 2964,
      "viron": 2965,
      "Ġren": 2966,
      "Ġ1988": 2967,
      "Ġoffer": 2968,
      "unk": 2969,
      "iana": 2970,
      "ĠRussia": 2971,
      "Ġstri": 2972,
      "pecially": 2973,
      "cks": 2974,
      "ĠZealand": 2975,
      "Ġbar": 2976,
      "Ġmovement": 2977,
      "ĠCompany": 2978,
      "Ġfif": 2979,
      "Ġfollowed": 2980,
      "Ġz": 2981,
      "Ġbo": 2982,
      "Le": 2983,
      "cing": 2984,
      "Ġmeas": 2985,
      "bour": 2986,
      "Ġdoc": 2987,
      "Ġtravel": 2988,
      "II": 2989,
      "ication": 2990,
      "ĠStud": 2991,
      "aps": 2992,
      "Ġobject": 2993,
      "Ġcomes": 2994,
      "Com": 2995,
      "ĠCam": 2996,
      "eds": 2997,
      "ĠDay": 2998,
      "Ġschools": 2999,
      "22": 3000,
      "aries": 3001,
      "olk": 3002,
      "face": 3003,
      "Ġcarri": 3004,
      "ishing": 3005,
      "Fran": 3006,
      "Ġcover": 3007,
      "Ġsays": 3008,
      "ĠRoad": 3009,
      "Ġnetwork": 3010,
      "atory": 3011,
      "Ġbirth": 3012,
      "known": 3013,
      "ishop": 3014,
      "Ġrelation": 3015,
      "reland": 3016,
      "Ġuniversity": 3017,
      "Ġ1987": 3018,
      "Ġ40": 3019,
      "196": 3020,
      "Ġfeatures": 3021,
      "Ġuses": 3022,
      "ows": 3023,
      "Ġlanguages": 3024,
      "ĠProvince": 3025,
      "ĠGroup": 3026,
      "ĠGeorg": 3027,
      "Ġfurther": 3028,
      "ĠFrank": 3029,
      "ĠRepublican": 3030,
      "la": 3031,
      "Ġhelped": 3032,
      "ĠMer": 3033,
      "Ġarmy": 3034,
      "eck": 3035,
      "Ġpie": 3036,
      "\").": 3037,
      "ĠFrancis": 3038,
      "Ġcandid": 3039,
      "Ġtrack": 3040,
      "Ġcharacters": 3041,
      "ply": 3042,
      "ĠPrime": 3043,
      "ĠDutch": 3044,
      "ĠHenry": 3045,
      "ĠEarth": 3046,
      "Ġever": 3047,
      "Ġwriting": 3048,
      "bers": 3049,
      "Ġqual": 3050,
      "ially": 3051,
      "rought": 3052,
      "icated": 3053,
      "str": 3054,
      "ĠIr": 3055,
      "Ġask": 3056,
      "erous": 3057,
      "Ġfar": 3058,
      "ĠVictor": 3059,
      "Ġnight": 3060,
      "iff": 3061,
      "ires": 3062,
      "bon": 3063,
      "Ġlab": 3064,
      "Ġgun": 3065,
      "Ġmove": 3066,
      "Ġcompetition": 3067,
      "Ġcertain": 3068,
      "ĠLake": 3069,
      "ĠTom": 3070,
      "va": 3071,
      "ĠDan": 3072,
      "Ġrout": 3073,
      "ĠInstitute": 3074,
      "ĠClub": 3075,
      "Ġmeth": 3076,
      "iro": 3077,
      "Ġcollege": 3078,
      "asc": 3079,
      "Ġbur": 3080,
      "sequ": 3081,
      "ership": 3082,
      "21": 3083,
      "za": 3084,
      "ket": 3085,
      "Ġroles": 3086,
      "aged": 3087,
      "ĠAwards": 3088,
      "Ġmainly": 3089,
      "Ġscored": 3090,
      "ĠFootball": 3091,
      "Ġamount": 3092,
      "Ġlittle": 3093,
      "owa": 3094,
      "Ġgive": 3095,
      "bs": 3096,
      ".,": 3097,
      "Ġrange": 3098,
      "Ġanimals": 3099,
      "ĠAtlant": 3100,
      "ny": 3101,
      "sych": 3102,
      "ĠRichard": 3103,
      "ĠGreek": 3104,
      "Ġfamil": 3105,
      "pen": 3106,
      "amil": 3107,
      "Ġste": 3108,
      "Ġallowed": 3109,
      "Ġ1986": 3110,
      "ĠIsrael": 3111,
      "ĠMass": 3112,
      "istry": 3113,
      "Ġ1984": 3114,
      "ĠThomas": 3115,
      "Ġimpro": 3116,
      "Ġoutside": 3117,
      "fect": 3118,
      "Ġforce": 3119,
      "Bl": 3120,
      "elt": 3121,
      "hood": 3122,
      "Ġsister": 3123,
      "Ġfund": 3124,
      "cean": 3125,
      "ecause": 3126,
      "ĠGreen": 3127,
      "Ġcontract": 3128,
      "arian": 3129,
      "Ġcour": 3130,
      "Ġ1981": 3131,
      "ĠSince": 3132,
      "ams": 3133,
      "Ġthroughout": 3134,
      "ĠHill": 3135,
      "ĠTer": 3136,
      "apt": 3137,
      "Ġsuggest": 3138,
      "Ġmem": 3139,
      "Ġpossible": 3140,
      "Ġkey": 3141,
      "ĠEmpire": 3142,
      "ground": 3143,
      "Ġgirl": 3144,
      "ĠTheir": 3145,
      "Ġsaw": 3146,
      "ĠIran": 3147,
      "ĠSte": 3148,
      "vert": 3149,
      "Ġcut": 3150,
      "igan": 3151,
      "ola": 3152,
      "idae": 3153,
      "Ġassist": 3154,
      "Ġentire": 3155,
      "Ġpaint": 3156,
      "Ġ1983": 3157,
      "back": 3158,
      "Un": 3159,
      "Ġ1979": 3160,
      "Ġpur": 3161,
      "Ġpay": 3162,
      "embly": 3163,
      "uke": 3164,
      "ulation": 3165,
      "ĠThat": 3166,
      "23": 3167,
      "Ġfarm": 3168,
      "Ġcompan": 3169,
      "gypt": 3170,
      "NA": 3171,
      "rd": 3172,
      "Ġdisease": 3173,
      "ils": 3174,
      "ĠMusic": 3175,
      "Ġ1972": 3176,
      "Ġ1985": 3177,
      "Ġthink": 3178,
      "ĠPe": 3179,
      "ĠFilm": 3180,
      "TV": 3181,
      "Ġcause": 3182,
      "Ġtry": 3183,
      "Ġleading": 3184,
      "Ġespecially": 3185,
      "Ġcreat": 3186,
      "Ġeas": 3187,
      "Ġlower": 3188,
      "rel": 3189,
      "Ġwords": 3190,
      "ĠDepartment": 3191,
      "Ġenergy": 3192,
      "Ġarchitect": 3193,
      "ĠIreland": 3194,
      "ĠWil": 3195,
      "ĠSaint": 3196,
      "adium": 3197,
      "Ġ1982": 3198,
      "During": 3199,
      "gt": 3200,
      "ĠTra": 3201,
      "ĠPeter": 3202,
      "ĠWhite": 3203,
      "Ġchart": 3204,
      "Ġbird": 3205,
      "ental": 3206,
      "Ġdrama": 3207,
      "iles": 3208,
      "ita": 3209,
      "ĠWin": 3210,
      "Ġowned": 3211,
      "vironment": 3212,
      "For": 3213,
      "Ġtro": 3214,
      "When": 3215,
      "gent": 3216,
      "ĠCommun": 3217,
      "Ġmeaning": 3218,
      "CA": 3219,
      "ĠMac": 3220,
      "Ġjournal": 3221,
      "Ġtemper": 3222,
      "Ġhom": 3223,
      "Ġterrit": 3224,
      "Ġcirc": 3225,
      "Ġchampionship": 3226,
      "Ġsem": 3227,
      "ta": 3228,
      "illa": 3229,
      "rid": 3230,
      "arter": 3231,
      "Ġfall": 3232,
      "ĠIm": 3233,
      "Ġche": 3234,
      "Ġshown": 3235,
      "ĠTo": 3236,
      "Ġtoday": 3237,
      "24": 3238,
      "udd": 3239,
      "ĠRock": 3240,
      "Ġwestern": 3241,
      "Ġparents": 3242,
      "ĠPakistan": 3243,
      "head": 3244,
      "ĠParliament": 3245,
      "Ġcontrib": 3246,
      "ĠUp": 3247,
      "ios": 3248,
      "pite": 3249,
      "HL": 3250,
      "Ġeventually": 3251,
      "anded": 3252,
      "Ġbattle": 3253,
      "reme": 3254,
      "aching": 3255,
      "Ġhospital": 3256,
      "Ġtypes": 3257,
      "ato": 3258,
      "Ġbuildings": 3259,
      "Ġfig": 3260,
      "John": 3261,
      "Ġinvolved": 3262,
      "bl": 3263,
      "Ġscience": 3264,
      "Ġsubject": 3265,
      "ĠPet": 3266,
      "ĠMuseum": 3267,
      "cel": 3268,
      "Ġtax": 3269,
      "Ġge": 3270,
      "ĠBen": 3271,
      "Ġ1976": 3272,
      "Ġproducer": 3273,
      "Ġcritic": 3274,
      "Ġbreak": 3275,
      "Ġinh": 3276,
      "27": 3277,
      "ĠEgypt": 3278,
      "Ġsystems": 3279,
      "atre": 3280,
      "ĠTor": 3281,
      "icles": 3282,
      "mun": 3283,
      "mercial": 3284,
      "ilities": 3285,
      "ulf": 3286,
      "Ġblood": 3287,
      "Ġhor": 3288,
      "Ġbrought": 3289,
      "ĠScot": 3290,
      "Ġdegree": 3291,
      "Pl": 3292,
      "urric": 3293,
      "Ġtakes": 3294,
      "ĠRob": 3295,
      "Ġactive": 3296,
      "Ġnames": 3297,
      "Ġ1978": 3298,
      "Ġchanges": 3299,
      "Ġstay": 3300,
      "ĠGra": 3301,
      "Ġaction": 3302,
      "oud": 3303,
      "Ġplants": 3304,
      "Ġaud": 3305,
      "Ġnorm": 3306,
      "ends": 3307,
      "ondiss": 3308,
      "Ġintroduced": 3309,
      "Ġdata": 3310,
      "Ġprivate": 3311,
      "ĠCarolina": 3312,
      "ura": 3313,
      "etic": 3314,
      "Ġrelated": 3315,
      "\"),": 3316,
      "Ġemploy": 3317,
      "iple": 3318,
      "Ġhot": 3319,
      "ĠMy": 3320,
      "ĠKent": 3321,
      "ĠGo": 3322,
      "Ġmight": 3323,
      "imately": 3324,
      "Ġalways": 3325,
      "Ġgoing": 3326,
      "Ġbroadcast": 3327,
      "Ġrespons": 3328,
      "Ġlength": 3329,
      "ĠMos": 3330,
      "ali": 3331,
      "Ġcat": 3332,
      "Ġcomedy": 3333,
      "ima": 3334,
      "mar": 3335,
      "Ġder": 3336,
      "Ġtournament": 3337,
      "Ġboard": 3338,
      "ĠOk": 3339,
      "aught": 3340,
      "Ġperformance": 3341,
      "Ġpot": 3342,
      "ĠIowa": 3343,
      "Ġrelationship": 3344,
      "erve": 3345,
      "Ġcomputer": 3346,
      "Ġmusical": 3347,
      "ĠSweden": 3348,
      "Ġwood": 3349,
      "Ġtransl": 3350,
      "Ġbeginning": 3351,
      "Ġoccur": 3352,
      "Ġassoci": 3353,
      "Ġattempt": 3354,
      "Ġprob": 3355,
      "uth": 3356,
      "ĠDis": 3357,
      "Ġfeatured": 3358,
      "Ġpred": 3359,
      "26": 3360,
      "ĠWhile": 3361,
      "nder": 3362,
      "Ġtraining": 3363,
      "ĠMel": 3364,
      "Ġmur": 3365,
      "ayer": 3366,
      "Ġstre": 3367,
      "gen": 3368,
      "Ġ1973": 3369,
      "ĠServ": 3370,
      "ĠNorthern": 3371,
      "Ġmatches": 3372,
      "uty": 3373,
      "ador": 3374,
      "ability": 3375,
      "Ad": 3376,
      "Ġgrand": 3377,
      "Ġ1974": 3378,
      "ĠSenate": 3379,
      "hold": 3380,
      "Ġboy": 3381,
      "stra": 3382,
      "ĠMag": 3383,
      "itz": 3384,
      "Ġdou": 3385,
      "rial": 3386,
      "Ġobs": 3387,
      "Ġcompleted": 3388,
      "writer": 3389,
      "Ġmedia": 3390,
      "Ġsports": 3391,
      "Ġneigh": 3392,
      "Ġmethod": 3393,
      "win": 3394,
      "ĠSun": 3395,
      "itiz": 3396,
      "Ġmedal": 3397,
      "Ġseasons": 3398,
      "ĠYear": 3399,
      "Ġselected": 3400,
      "Ġquick": 3401,
      "Ġwinning": 3402,
      "stant": 3403,
      "mark": 3404,
      "Ġsen": 3405,
      "Ġindependent": 3406,
      "ĠMic": 3407,
      "anned": 3408,
      "ĠSociety": 3409,
      "Ġcele": 3410,
      "ĠRecords": 3411,
      "ĠBur": 3412,
      "ĠRad": 3413,
      "Ġreb": 3414,
      "ĠArch": 3415,
      "Ġsoon": 3416,
      "oid": 3417,
      "Ġidea": 3418,
      "Ġsize": 3419,
      "wan": 3420,
      "Ġmanager": 3421,
      "uture": 3422,
      "Ġearn": 3423,
      "ĠBu": 3424,
      "Ġconsist": 3425,
      "Åį": 3426,
      "Ġ<": 3427,
      "Ġscreen": 3428,
      "Ġdefeated": 3429,
      "Ġstorm": 3430,
      "Ġtree": 3431,
      "ume": 3432,
      "Ġ1968": 3433,
      "fact": 3434,
      "Ġcanton": 3435,
      "ĠColumb": 3436,
      "Ġruns": 3437,
      "Ġ1975": 3438,
      "Ġbehind": 3439,
      "ĠSmith": 3440,
      "ube": 3441,
      "Ġcolor": 3442,
      "rup": 3443,
      "ĠLatin": 3444,
      "stitut": 3445,
      "ersey": 3446,
      "Ġenc": 3447,
      "ĠSo": 3448,
      "Ġcentre": 3449,
      "Ġitself": 3450,
      "Be": 3451,
      "Ġaccess": 3452,
      "Ġice": 3453,
      "Ġlonger": 3454,
      "iences": 3455,
      "ĠPac": 3456,
      "ĠOl": 3457,
      "Ġnewsp": 3458,
      "elled": 3459,
      "Ġenough": 3460,
      "Ġ1930": 3461,
      "ouri": 3462,
      "Ġorganization": 3463,
      "gl": 3464,
      "icy": 3465,
      "Ġcontains": 3466,
      "ĠCat": 3467,
      "urity": 3468,
      "Ġfamilies": 3469,
      "ificant": 3470,
      "see": 3471,
      "Ġspent": 3472,
      "road": 3473,
      "Ġpen": 3474,
      "ĠAccording": 3475,
      "ceed": 3476,
      "Ġspok": 3477,
      "ĠCommittee": 3478,
      "Ġremained": 3479,
      "ĠSea": 3480,
      "Ġjud": 3481,
      "inner": 3482,
      "Ġconstruction": 3483,
      "Ġ1971": 3484,
      "oved": 3485,
      "60": 3486,
      "Ġbad": 3487,
      "ĠCast": 3488,
      "iÄ": 3489,
      "Ġball": 3490,
      "Ġbelieved": 3491,
      "overs": 3492,
      "Ġ1977": 3493,
      "asing": 3494,
      "anda": 3495,
      "hy": 3496,
      "ests": 3497,
      "Ġmagazine": 3498,
      "oint": 3499,
      "ID": 3500,
      "All": 3501,
      "enced": 3502,
      "SA": 3503,
      "sec": 3504,
      "ĠCamp": 3505,
      "Ġcompeted": 3506,
      "Ġ1969": 3507,
      "ĠDou": 3508,
      "Ġbank": 3509,
      "28": 3510,
      "New": 3511,
      "Ġlo": 3512,
      "eball": 3513,
      "ua": 3514,
      "Ġguitar": 3515,
      "gg": 3516,
      "Ġlove": 3517,
      "Ġdecision": 3518,
      "Ġpoet": 3519,
      "ficult": 3520,
      "ving": 3521,
      "Ġrailway": 3522,
      "peror": 3523,
      "ĠBill": 3524,
      "Ġdivided": 3525,
      "ĠCons": 3526,
      "Ġaccept": 3527,
      "Ġcompanies": 3528,
      "Ġeastern": 3529,
      "uation": 3530,
      "Ġphil": 3531,
      "ĠJust": 3532,
      "ipl": 3533,
      "Ġet": 3534,
      "Ġplaced": 3535,
      "Ġesc": 3536,
      "Ġhigher": 3537,
      "ĠUk": 3538,
      "airman": 3539,
      "ĠRev": 3540,
      "sw": 3541,
      "Ġ(,": 3542,
      "ĠDire": 3543,
      "ĠSecretary": 3544,
      "Ġmer": 3545,
      "ĠMa": 3546,
      "ĠBoy": 3547,
      "ider": 3548,
      "duction": 3549,
      "Ġ184": 3550,
      "Ġdead": 3551,
      "Ġaircraft": 3552,
      "Early": 3553,
      "Ġachie": 3554,
      "Ġinside": 3555,
      "iller": 3556,
      "Ġdifficult": 3557,
      "Ġmach": 3558,
      "uments": 3559,
      "Ġnominated": 3560,
      "Ġdig": 3561,
      "Ġexcept": 3562,
      "ĠRepresent": 3563,
      "Ġgra": 3564,
      "ĠFore": 3565,
      "ĠBrown": 3566,
      "ĠHot": 3567,
      "Ġrather": 3568,
      "Ġ1967": 3569,
      "vey": 3570,
      "iy": 3571,
      "inet": 3572,
      "Ġarg": 3573,
      "Ġ1964": 3574,
      "ĠFestival": 3575,
      "ift": 3576,
      "enth": 3577,
      "ih": 3578,
      "orial": 3579,
      "Ġgoals": 3580,
      "cul": 3581,
      "een": 3582,
      "Ġsummer": 3583,
      "bur": 3584,
      "ĠMartin": 3585,
      "eff": 3586,
      "Ġmale": 3587,
      "thlet": 3588,
      "ĠLee": 3589,
      "Ġlarger": 3590,
      "Club": 3591,
      "ĠAsia": 3592,
      "ĠCont": 3593,
      "Ġcommercial": 3594,
      "ressed": 3595,
      "Ġ1940": 3596,
      "action": 3597,
      "Ġbelong": 3598,
      "alled": 3599,
      "Ġnumbers": 3600,
      "ĠJr": 3601,
      "Ġraised": 3602,
      "Ġsignificant": 3603,
      "selves": 3604,
      "rig": 3605,
      "ĠPan": 3606,
      "ĠTrans": 3607,
      "Ġsoft": 3608,
      "ping": 3609,
      "chol": 3610,
      "iano": 3611,
      "Ġthemselves": 3612,
      "ĠLater": 3613,
      "ĠSuper": 3614,
      "ĠSouthern": 3615,
      "Ġculture": 3616,
      "ĠDen": 3617,
      "aval": 3618,
      "Ġmountain": 3619,
      "abeth": 3620,
      "Ġtraditional": 3621,
      "ĠLiber": 3622,
      "Ġbox": 3623,
      "Ġmanu": 3624,
      "ises": 3625,
      "ĠGovernment": 3626,
      "ready": 3627,
      "Ġtheory": 3628,
      "ĠInter": 3629,
      "hemat": 3630,
      "chan": 3631,
      "ĠJackson": 3632,
      "Ġgenerally": 3633,
      "Ġinstr": 3634,
      "Ġshot": 3635,
      "29": 3636,
      "ĠIslam": 3637,
      "Ġcreate": 3638,
      "ca": 3639,
      "part": 3640,
      "anks": 3641,
      "awa": 3642,
      "Ġarrest": 3643,
      "Ġacqu": 3644,
      "Ġsmaller": 3645,
      "use": 3646,
      "ĠWales": 3647,
      "rol": 3648,
      "Ġdeal": 3649,
      "Ġsuper": 3650,
      "Ġdiscovered": 3651,
      "Ġmiddle": 3652,
      "umn": 3653,
      "Ġdraw": 3654,
      "uman": 3655,
      "ugu": 3656,
      "Ġminor": 3657,
      "Ġmunicipal": 3658,
      "ĠMo": 3659,
      "Ġrespect": 3660,
      "Ġcell": 3661,
      "Ġindustry": 3662,
      "ĠOh": 3663,
      "wide": 3664,
      "usband": 3665,
      "Ġvir": 3666,
      "rad": 3667,
      "Ġteacher": 3668,
      "ella": 3669,
      "Ġmiss": 3670,
      "Ġresident": 3671,
      "Ġrepresented": 3672,
      "Ġsurround": 3673,
      "imb": 3674,
      "Ġoccup": 3675,
      "inary": 3676,
      "Ġlaws": 3677,
      "ucky": 3678,
      "ĠBritain": 3679,
      "ĠMuslim": 3680,
      "ĠChampionships": 3681,
      "Ġbecoming": 3682,
      "ga": 3683,
      "urricane": 3684,
      "Ġtold": 3685,
      "Ġfunction": 3686,
      "oper": 3687,
      "ension": 3688,
      "ĠCarl": 3689,
      "ĠRos": 3690,
      "onia": 3691,
      "Ġwhose": 3692,
      "ki": 3693,
      "Ġcelebr": 3694,
      "right": 3695,
      "Ġforest": 3696,
      "Ġwebs": 3697,
      "aches": 3698,
      "Ġforms": 3699,
      "ĠArgent": 3700,
      "ĠMur": 3701,
      "heim": 3702,
      "Ġ1945": 3703,
      "omp": 3704,
      "ĠSur": 3705,
      "Ġdrug": 3706,
      "Ġoppos": 3707,
      "Sc": 3708,
      "Ġloss": 3709,
      "Ġupon": 3710,
      "Ġrap": 3711,
      "Ġfav": 3712,
      "Ġancient": 3713,
      "Ġcompl": 3714,
      "well": 3715,
      "bre": 3716,
      "37": 3717,
      "ĠHaw": 3718,
      "Ġtaking": 3719,
      "ols": 3720,
      "Ġsection": 3721,
      "azz": 3722,
      "Ġlisted": 3723,
      "arring": 3724,
      "ĠCommission": 3725,
      "Ġcases": 3726,
      "Ġshoot": 3727,
      "ĠSecond": 3728,
      "istic": 3729,
      "Ġminister": 3730,
      "Ġsequ": 3731,
      "ĠForce": 3732,
      "ĠBang": 3733,
      "igr": 3734,
      "Ġstudies": 3735,
      "Ġconv": 3736,
      "rative": 3737,
      "ibrary": 3738,
      "stein": 3739,
      "ette": 3740,
      "ĠAlthough": 3741,
      "Ġimm": 3742,
      "ĠLeg": 3743,
      "Ġprimary": 3744,
      "Ġfederal": 3745,
      "La": 3746,
      "Ġstories": 3747,
      "Ġbelow": 3748,
      "His": 3749,
      "cies": 3750,
      "Ġcolon": 3751,
      "Ã³n": 3752,
      "Ġattended": 3753,
      "etherlands": 3754,
      "ublic": 3755,
      "Ġdocument": 3756,
      "ĠRh": 3757,
      "ĠAssembly": 3758,
      "Some": 3759,
      "ĠEr": 3760,
      "Ġcollection": 3761,
      "Ġ#": 3762,
      "ili": 3763,
      "Pro": 3764,
      "Ġalready": 3765,
      "lo": 3766,
      "Ġgod": 3767,
      "Ġvoice": 3768,
      "Ġcomplet": 3769,
      "Ġgrew": 3770,
      "ducation": 3771,
      "uge": 3772,
      "Ġprofessor": 3773,
      "Ġhusband": 3774,
      "asion": 3775,
      "medi": 3776,
      "inct": 3777,
      "ĠWal": 3778,
      "Ġstarting": 3779,
      "Ġprograms": 3780,
      "uses": 3781,
      "Ġpers": 3782,
      "Ġsoldiers": 3783,
      "yer": 3784,
      "ĠHa": 3785,
      "Ġmedical": 3786,
      "Ġbase": 3787,
      "ĠBattle": 3788,
      "ĠThen": 3789,
      "ĠÂ": 3790,
      "pected": 3791,
      "ĠQueen": 3792,
      "Ġborder": 3793,
      "eria": 3794,
      "ĠPrize": 3795,
      "ĠGeorgia": 3796,
      "Ġrunning": 3797,
      "Ġinhabit": 3798,
      "ĠBC": 3799,
      "etts": 3800,
      "ario": 3801,
      "Ġeat": 3802,
      "ĠPre": 3803,
      "ĠLand": 3804,
      "Ġneg": 3805,
      "uan": 3806,
      "aring": 3807,
      "Ġ60": 3808,
      "Ġtransfer": 3809,
      "Ġtyp": 3810,
      "ĠChief": 3811,
      "aled": 3812,
      "Ġcitiz": 3813,
      "Ġ1966": 3814,
      "Ġprovided": 3815,
      "Ġsupported": 3816,
      "Ġfriends": 3817,
      "Ġmurder": 3818,
      "lement": 3819,
      "ĠOld": 3820,
      "het": 3821,
      "Ġterms": 3822,
      "ĠJoseph": 3823,
      "ĠMissouri": 3824,
      "Ġfrequ": 3825,
      "Ġstructure": 3826,
      "Re": 3827,
      "Ġpsych": 3828,
      "sen": 3829,
      "orpor": 3830,
      "Ġlegal": 3831,
      "ĠJewish": 3832,
      "ĠKorea": 3833,
      "Ġhere": 3834,
      "ĠSpr": 3835,
      "Ġsurface": 3836,
      "ĠCount": 3837,
      "Ġleave": 3838,
      "Ġcannot": 3839,
      "Ġprem": 3840,
      "omm": 3841,
      "ĠNetherlands": 3842,
      "erry": 3843,
      "Ġsat": 3844,
      "ĠWind": 3845,
      "ĠBecause": 3846,
      "Ġsomething": 3847,
      "Ph": 3848,
      "unn": 3849,
      "ĠTwo": 3850,
      "Ġquest": 3851,
      "ĠMr": 3852,
      "Ġtalk": 3853,
      "ĠWood": 3854,
      "Ġmetal": 3855,
      "ja": 3856,
      "à¸": 3857,
      "Ġsum": 3858,
      "ĠMichigan": 3859,
      "Ġtowards": 3860,
      "roll": 3861,
      "Ġstated": 3862,
      "Ġreligious": 3863,
      "Ġunits": 3864,
      "ĠValley": 3865,
      "arily": 3866,
      "ĠCivil": 3867,
      "ĠFI": 3868,
      "35": 3869,
      "ĠBo": 3870,
      "ctic": 3871,
      "Ġprovide": 3872,
      "ĠOlympic": 3873,
      "Ġaffect": 3874,
      "ĠSar": 3875,
      "Con": 3876,
      "inson": 3877,
      "Ġlines": 3878,
      "Ġcomplex": 3879,
      "Ġoldest": 3880,
      "ĠCro": 3881,
      "Ġnine": 3882,
      "achus": 3883,
      "Ġearlier": 3884,
      "ĠDo": 3885,
      "Ġwide": 3886,
      "also": 3887,
      "Ġsus": 3888,
      "Ġgoes": 3889,
      "Ġpassed": 3890,
      "ĠMah": 3891,
      "Ġentered": 3892,
      "adesh": 3893,
      "Ġbridge": 3894,
      "enty": 3895,
      "onic": 3896,
      "Ġer": 3897,
      "Ġprinc": 3898,
      "Ġlaunched": 3899,
      "ĠFort": 3900,
      "Ġtou": 3901,
      "gian": 3902,
      "Ġreve": 3903,
      "aka": 3904,
      "ĠArts": 3905,
      "itation": 3906,
      "lying": 3907,
      "ĠAsian": 3908,
      "Ġelectric": 3909,
      "Ġasked": 3910,
      "Ġ1965": 3911,
      "Ġgenus": 3912,
      "ĠEastern": 3913,
      "Ġartists": 3914,
      "ĠAnn": 3915,
      "irm": 3916,
      "Ġaccording": 3917,
      "Ġenvironment": 3918,
      "vention": 3919,
      "Ġfilms": 3920,
      "Ġvote": 3921,
      "Ġnuc": 3922,
      "Ġchemical": 3923,
      "Ġ1963": 3924,
      "eks": 3925,
      "olitan": 3926,
      "ĠEdward": 3927,
      "Ġclear": 3928,
      "Ġpreviously": 3929,
      "ricts": 3930,
      "Saint": 3931,
      "Ġhours": 3932,
      "Ġdate": 3933,
      "Ġclosed": 3934,
      "amily": 3935,
      "Ġquickly": 3936,
      "Ġfuture": 3937,
      "Ġwor": 3938,
      "Ġdon": 3939,
      "wa": 3940,
      "Ġ)": 3941,
      "ĠRo": 3942,
      "ried": 3943,
      "Ġcommonly": 3944,
      "Ġindividual": 3945,
      "pts": 3946,
      "bury": 3947,
      "rich": 3948,
      "ocal": 3949,
      "Ġturned": 3950,
      "Ġtried": 3951,
      "ĠTownship": 3952,
      "teen": 3953,
      "Ġsymb": 3954,
      "ĠFred": 3955,
      "urban": 3956,
      "ĠAmericans": 3957,
      "Ġspeak": 3958,
      "iÄĩ": 3959,
      "achusetts": 3960,
      "iest": 3961,
      "oring": 3962,
      "Ġstudent": 3963,
      "Ġmiles": 3964,
      "Ġself": 3965,
      "oles": 3966,
      "Ġofficer": 3967,
      "ĠScotland": 3968,
      "ĠOs": 3969,
      "Ġ1961": 3970,
      "Ġ1948": 3971,
      "pre": 3972,
      "ĠSpe": 3973,
      "Ġforced": 3974,
      "thing": 3975,
      "ba": 3976,
      "ĠBor": 3977,
      "ĠBav": 3978,
      "Ġalbums": 3979,
      "Ġneeded": 3980,
      "western": 3981,
      "Ġ1962": 3982,
      "ras": 3983,
      "spe": 3984,
      "ancial": 3985,
      "ĠJersey": 3986,
      "Ġeditor": 3987,
      "Ġdrop": 3988,
      "Ġrain": 3989,
      "atform": 3990,
      "Ġbasket": 3991,
      "ĠPacific": 3992,
      "rack": 3993,
      "Ġexhib": 3994,
      "ares": 3995,
      "Ġsaf": 3996,
      "Ġdog": 3997,
      "rea": 3998,
      "Ġgas": 3999,
      "ĠKn": 4000,
      "Ġstep": 4001,
      "195": 4002,
      "Ġolder": 4003,
      "ĠJul": 4004,
      "Ġemer": 4005,
      "Ġtext": 4006,
      "...": 4007,
      "can": 4008,
      "ictures": 4009,
      "Ġdeterm": 4010,
      "ĠMassachusetts": 4011,
      "iga": 4012,
      "ĠOhio": 4013,
      "ĠFre": 4014,
      "Ġnews": 4015,
      "Ġchief": 4016,
      "ias": 4017,
      "Ġveh": 4018,
      "Ġrule": 4019,
      "Ġi": 4020,
      "quar": 4021,
      "inger": 4022,
      "Ġstations": 4023,
      "col": 4024,
      "ĠIII": 4025,
      "Ġox": 4026,
      "ĠFC": 4027,
      "38": 4028,
      "Ġaccount": 4029,
      "based": 4030,
      "erem": 4031,
      "Ġtransport": 4032,
      "Ġeth": 4033,
      "Ġden": 4034,
      "Ġopt": 4035,
      "Ġ/": 4036,
      "Ġ1956": 4037,
      "Ġadop": 4038,
      "Ġmarriage": 4039,
      "Ġinvestig": 4040,
      "ĠSil": 4041,
      "Ġappearance": 4042,
      "Ġcells": 4043,
      "Ġnative": 4044,
      "Ġregard": 4045,
      "iant": 4046,
      "isher": 4047,
      "Ġpersonal": 4048,
      "ĠPhilipp": 4049,
      "ĠNavy": 4050,
      "ĠGar": 4051,
      "Ġmuseum": 4052,
      "Ġ1947": 4053,
      "ira": 4054,
      "ĠFound": 4055,
      "Ġstandard": 4056,
      "Ġpick": 4057,
      "uries": 4058,
      "Ġreason": 4059,
      "Ġstarring": 4060,
      "Sp": 4061,
      "ĠMod": 4062,
      "ko": 4063,
      "Ġheavy": 4064,
      "Ġapprox": 4065,
      "mond": 4066,
      "Ġdark": 4067,
      "ela": 4068,
      "ĠAustria": 4069,
      "eld": 4070,
      "Ġwhom": 4071,
      "ounter": 4072,
      "ĠSk": 4073,
      "ĠBoard": 4074,
      "Ġsource": 4075,
      "Ġofficially": 4076,
      "Ġtropical": 4077,
      "ulture": 4078,
      "ĠPlay": 4079,
      "ĠKong": 4080,
      "ĠProfess": 4081,
      "Ġweeks": 4082,
      "ĠMiddle": 4083,
      "Ġunivers": 4084,
      "||||": 4085,
      "Ġblock": 4086,
      "omer": 4087,
      "Ġdom": 4088,
      "Ġarm": 4089,
      "ĠArk": 4090,
      "39": 4091,
      "ois": 4092,
      "ĠIrish": 4093,
      "fit": 4094,
      "ondissement": 4095,
      "ĠClass": 4096,
      "Ġminutes": 4097,
      "han": 4098,
      "Ġclimate": 4099,
      "ĠJohnson": 4100,
      "Ġtrade": 4101,
      "El": 4102,
      "ugg": 4103,
      "Ġabs": 4104,
      "Ġbomb": 4105,
      "add": 4106,
      "Ġpoor": 4107,
      "Ġfifth": 4108,
      "From": 4109,
      "Ġfish": 4110,
      "Ġmerg": 4111,
      "aska": 4112,
      "Ġsociety": 4113,
      "ken": 4114,
      "Ġcust": 4115,
      "Ġopening": 4116,
      "Ġvisit": 4117,
      "Ġ1939": 4118,
      "ĠMinn": 4119,
      "Ġgovernor": 4120,
      "ĠLine": 4121,
      "opher": 4122,
      "ech": 4123,
      "Ġschol": 4124,
      "Ġcard": 4125,
      "Ġcoup": 4126,
      "ropolitan": 4127,
      "Ġsn": 4128,
      "Ġweap": 4129,
      "Ġbasketball": 4130,
      "Don": 4131,
      "porary": 4132,
      "Ġthreat": 4133,
      "Ġdestroyed": 4134,
      "ĠYoung": 4135,
      "Ġcommand": 4136,
      "oday": 4137,
      "Ġdistributed": 4138,
      "ĠCr": 4139,
      "à¤": 4140,
      "ĠCharl": 4141,
      "oston": 4142,
      "Ġmanufact": 4143,
      "Ġcred": 4144,
      "ĠStan": 4145,
      "Ġslow": 4146,
      "ĠPrince": 4147,
      "ĠJim": 4148,
      "ennis": 4149,
      "ĠJes": 4150,
      "ĠEs": 4151,
      "Ġwhole": 4152,
      "yan": 4153,
      "itude": 4154,
      "Ġlocation": 4155,
      "Ġseparate": 4156,
      "ĠSand": 4157,
      "Ġvia": 4158,
      "ĠPoland": 4159,
      "ĠColumbia": 4160,
      "Ġoil": 4161,
      "ĠBern": 4162,
      "Ġpercent": 4163,
      "ĠBook": 4164,
      "ecess": 4165,
      "Ġissues": 4166,
      "Ġ1952": 4167,
      "ĠIslands": 4168,
      "FL": 4169,
      "80": 4170,
      "ĠGal": 4171,
      "undred": 4172,
      "erved": 4173,
      "Ġspl": 4174,
      "Ġ1957": 4175,
      "Ġdeep": 4176,
      "Ġ1944": 4177,
      "ĠConf": 4178,
      "Ġearth": 4179,
      "Ġstatus": 4180,
      "Ġeffort": 4181,
      "Ġactivities": 4182,
      "Ġinhabitants": 4183,
      "Ġchannel": 4184,
      "ĠVol": 4185,
      "BA": 4186,
      "Ġproblem": 4187,
      "arden": 4188,
      "ĠVer": 4189,
      "45": 4190,
      "ĠFox": 4191,
      "Ġang": 4192,
      "ĠSir": 4193,
      "etting": 4194,
      "venue": 4195,
      "Ġserving": 4196,
      "Ġpractice": 4197,
      "ĠLord": 4198,
      "ĠAtlantic": 4199,
      "Ġgreen": 4200,
      "ĠJun": 4201,
      "izabeth": 4202,
      "Ġspread": 4203,
      "BS": 4204,
      "Am": 4205,
      "Ġunit": 4206,
      "Ã¡n": 4207,
      "ĠBrazilian": 4208,
      "Ġri": 4209,
      "Ġ1920": 4210,
      "ĠShow": 4211,
      "Ġnorthwest": 4212,
      "ĠRome": 4213,
      "ingu": 4214,
      "Ġresults": 4215,
      "Ġtowns": 4216,
      "Ġfeel": 4217,
      "Ġmultiple": 4218,
      "Ġawards": 4219,
      "ati": 4220,
      "aters": 4221,
      "Ġmajority": 4222,
      "Ġhyd": 4223,
      "ĠSocial": 4224,
      "Ġpeak": 4225,
      "ĠSqu": 4226,
      "pose": 4227,
      "Ġtells": 4228,
      "Ġphilos": 4229,
      "Ġnoted": 4230,
      "Ġthr": 4231,
      "Ġproperty": 4232,
      "clus": 4233,
      "Ġ1942": 4234,
      "36": 4235,
      "Ġlegisl": 4236,
      "Ġconsists": 4237,
      "Ġpresidential": 4238,
      "ĠSwedish": 4239,
      "yo": 4240,
      "ĠUr": 4241,
      "ĠBank": 4242,
      "ĠAv": 4243,
      "ĠBul": 4244,
      "Ġ1958": 4245,
      "Ġprobably": 4246,
      "ĠMen": 4247,
      "chestra": 4248,
      "ĠMark": 4249,
      "Ã§": 4250,
      "Ġacting": 4251,
      "ynast": 4252,
      "change": 4253,
      "anning": 4254,
      "Pr": 4255,
      "house": 4256,
      "ĠMajor": 4257,
      "Ġelections": 4258,
      "Ġforeign": 4259,
      "Ġgraduated": 4260,
      "ection": 4261,
      "Ġtroops": 4262,
      "Ġmathemat": 4263,
      "Ġearned": 4264,
      "ties": 4265,
      "Ġhumans": 4266,
      "lah": 4267,
      "ĠAut": 4268,
      "Ġways": 4269,
      "ĠBig": 4270,
      "outheast": 4271,
      "Ã©e": 4272,
      "Ġwrest": 4273,
      "Ġ\"\"": 4274,
      "ctors": 4275,
      "ounds": 4276,
      "ĠMore": 4277,
      "Ġbehav": 4278,
      "Ġord": 4279,
      "Bill": 4280,
      "Ġscore": 4281,
      "Ġnearly": 4282,
      "Ġestim": 4283,
      "Ġreviews": 4284,
      "bit": 4285,
      "Ġcateg": 4286,
      "earch": 4287,
      "ĠKorean": 4288,
      "Ã´": 4289,
      "Ġrecords": 4290,
      "ĠSol": 4291,
      "ĠAlso": 4292,
      "ĠBBC": 4293,
      "Ġkept": 4294,
      "Ġaccident": 4295,
      "Ġhouses": 4296,
      "ĠDisney": 4297,
      "Ġhockey": 4298,
      "ĠBerlin": 4299,
      "Ġleaves": 4300,
      "chester": 4301,
      "Ġ70": 4302,
      "Ġremains": 4303,
      "Ġcovered": 4304,
      "ĠMu": 4305,
      "areer": 4306,
      "ĠSat": 4307,
      "illy": 4308,
      "ollowing": 4309,
      "ĠHung": 4310,
      "Ġcomposed": 4311,
      "Ġ1959": 4312,
      "ĠFrancisco": 4313,
      "Ġ1954": 4314,
      "Ġfort": 4315,
      "Ġreferred": 4316,
      "Ġcomplete": 4317,
      "ĠJo": 4318,
      "isation": 4319,
      "ricket": 4320,
      "burgh": 4321,
      "Ġcarry": 4322,
      "Ġtal": 4323,
      "ĠPolish": 4324,
      "Ġfast": 4325,
      "Ġsubsequ": 4326,
      "Ġ80": 4327,
      "ĠMot": 4328,
      "70": 4329,
      "ava": 4330,
      "Ġeconomic": 4331,
      "Ġanal": 4332,
      "Ġhappened": 4333,
      "ĠTri": 4334,
      "ĠOcean": 4335,
      "Ġdamage": 4336,
      "Ġ1949": 4337,
      "utt": 4338,
      "ologist": 4339,
      "Ġletter": 4340,
      "zech": 4341,
      "Ab": 4342,
      "Ġdu": 4343,
      "ora": 4344,
      "ĠHel": 4345,
      "Ġchampion": 4346,
      "amin": 4347,
      "Ġdistricts": 4348,
      "Ġincreased": 4349,
      "Ġadministrative": 4350,
      "oir": 4351,
      "Ġlog": 4352,
      "Ġtable": 4353,
      "Ġprevent": 4354,
      "Ġcauses": 4355,
      "otal": 4356,
      "Ġfle": 4357,
      "ĠTai": 4358,
      "Ġshowed": 4359,
      "Ġnewspaper": 4360,
      "esota": 4361,
      "standing": 4362,
      "Ġlabel": 4363,
      "ĠBroad": 4364,
      "Ġ1941": 4365,
      "ederation": 4366,
      "ampions": 4367,
      "ĠHow": 4368,
      "ients": 4369,
      "Ġships": 4370,
      "Ġver": 4371,
      "ennes": 4372,
      "And": 4373,
      "ĠHind": 4374,
      "Ġpaper": 4375,
      "Ġintern": 4376,
      "ĠBoston": 4377,
      "Ġspeed": 4378,
      "Ġconcern": 4379,
      "Ġflag": 4380,
      "Ġappears": 4381,
      "Ġ1946": 4382,
      "iced": 4383,
      "range": 4384,
      "Ġconditions": 4385,
      "Ġparish": 4386,
      "uals": 4387,
      "ĠEnter": 4388,
      "Ġsexual": 4389,
      "Ġsal": 4390,
      "Man": 4391,
      "raine": 4392,
      "Ġaltern": 4393,
      "Ġorganiz": 4394,
      "ĠNaz": 4395,
      "acing": 4396,
      "90": 4397,
      "ĠFer": 4398,
      "Geography": 4399,
      "ĠBavaria": 4400,
      "Ġwrite": 4401,
      "Ġroom": 4402,
      "Ġstaff": 4403,
      "stitu": 4404,
      "Ġrules": 4405,
      "Ġrate": 4406,
      "itting": 4407,
      "poration": 4408,
      "ibility": 4409,
      "Ġ90": 4410,
      "gu": 4411,
      "ĠTy": 4412,
      "ĠLong": 4413,
      "Ġevidence": 4414,
      "icine": 4415,
      "34": 4416,
      "uts": 4417,
      "mm": 4418,
      "ĠJud": 4419,
      "ĠMcC": 4420,
      "Ġcandidate": 4421,
      "Ġnort": 4422,
      "ĠLu": 4423,
      "ĠMinnesota": 4424,
      "ĠNations": 4425,
      "Ġproducts": 4426,
      "ila": 4427,
      "Ġrequired": 4428,
      "Ġassociated": 4429,
      "ault": 4430,
      "Ġinsp": 4431,
      "ĠBoth": 4432,
      "Ġpurch": 4433,
      "Ġpositive": 4434,
      "ĠKe": 4435,
      "akh": 4436,
      "Ġmechan": 4437,
      "ietn": 4438,
      "adel": 4439,
      "Ġnearby": 4440,
      "ĠLuc": 4441,
      "Ġlimited": 4442,
      "Ġdance": 4443,
      "Ġemb": 4444,
      "Ġvariety": 4445,
      "lahoma": 4446,
      "Ġprotect": 4447,
      "ĠTw": 4448,
      "uten": 4449,
      "Ã±": 4450,
      "Ġcode": 4451,
      "Ġbal": 4452,
      "Ġestablish": 4453,
      "Ġleaving": 4454,
      "ĠSeries": 4455,
      "ented": 4456,
      "thur": 4457,
      "ĠAustrian": 4458,
      "Ġepisodes": 4459,
      "Ġmerged": 4460,
      "wer": 4461,
      "Ġfought": 4462,
      "ĠWay": 4463,
      "ĠDirector": 4464,
      "war": 4465,
      "Ġbring": 4466,
      "sur": 4467,
      "aily": 4468,
      "ĠKar": 4469,
      "ĠTimes": 4470,
      "Ġegg": 4471,
      "Ġ1955": 4472,
      "iled": 4473,
      "Ġexc": 4474,
      "ĠRepresentatives": 4475,
      "Ġ35": 4476,
      "Ġcourse": 4477,
      "Ġgets": 4478,
      "orning": 4479,
      "Ġvictory": 4480,
      "Ġroute": 4481,
      "reater": 4482,
      "ĠBal": 4483,
      "iance": 4484,
      "ips": 4485,
      "oke": 4486,
      "rice": 4487,
      "ying": 4488,
      "ĠHon": 4489,
      "ĠDef": 4490,
      "Ġcontroll": 4491,
      "ĠWilliams": 4492,
      "illed": 4493,
      "Ġproduce": 4494,
      "47": 4495,
      "ez": 4496,
      "nes": 4497,
      "Ġtrue": 4498,
      "Ġincrease": 4499,
      "Ġhonor": 4500,
      "Ġplatform": 4501,
      "Ġterritory": 4502,
      "ĠEducation": 4503,
      "quarters": 4504,
      "ophy": 4505,
      "Is": 4506,
      "One": 4507,
      "obal": 4508,
      "Ġenem": 4509,
      "ails": 4510,
      "Ġspecific": 4511,
      "Ġlikely": 4512,
      "ĠService": 4513,
      "Ġour": 4514,
      "ĠWall": 4515,
      "ĠMat": 4516,
      "Ġbiggest": 4517,
      "Ġsenior": 4518,
      "Ġpil": 4519,
      "ĠCy": 4520,
      "Gr": 4521,
      "Ġtar": 4522,
      "Ġgives": 4523,
      "iography": 4524,
      "aya": 4525,
      "Ġtemperature": 4526,
      "ervation": 4527,
      "level": 4528,
      "ĠAlb": 4529,
      "Ġspir": 4530,
      "Ġfeet": 4531,
      "ription": 4532,
      "ĠOklahoma": 4533,
      "gress": 4534,
      "astic": 4535,
      "Ġinfluence": 4536,
      "ĠVictoria": 4537,
      "Ġfoot": 4538,
      "Ġfinancial": 4539,
      "Ġcle": 4540,
      "owers": 4541,
      "aped": 4542,
      "ĠUnivers": 4543,
      "oura": 4544,
      "ĠCzech": 4545,
      "ĠSong": 4546,
      "Ġvalue": 4547,
      "Will": 4548,
      "Ġbelieve": 4549,
      "ĠKentucky": 4550,
      "ĠEach": 4551,
      "Ġfootballer": 4552,
      "ronic": 4553,
      "Ġbirds": 4554,
      "Ġ180": 4555,
      "Ġrare": 4556,
      "Ġhar": 4557,
      "oln": 4558,
      "Ġrecent": 4559,
      "Ġnature": 4560,
      "bridge": 4561,
      "Ġannual": 4562,
      "Ġtrees": 4563,
      "Ġpal": 4564,
      "Ġoperations": 4565,
      "Ġnumerous": 4566,
      "Ġremoved": 4567,
      "ĠAirport": 4568,
      "riz": 4569,
      "Ġmeant": 4570,
      "Ġlack": 4571,
      "itage": 4572,
      "ĠBob": 4573,
      "Ġdiss": 4574,
      "ometimes": 4575,
      "Ġsu": 4576,
      "ĠScottish": 4577,
      "33": 4578,
      "SC": 4579,
      "Ġrecording": 4580,
      "ĠRevolution": 4581,
      "We": 4582,
      "rief": 4583,
      "ĠTechn": 4584,
      "Ġcycl": 4585,
      "ĠCO": 4586,
      "Ġbecomes": 4587,
      "phy": 4588,
      "Ġpressure": 4589,
      "Ġapproximately": 4590,
      "Ġmanaged": 4591,
      "Career": 4592,
      "ao": 4593,
      "ancy": 4594,
      "Ġmoving": 4595,
      "ĠNA": 4596,
      "ĠInc": 4597,
      "ĠTok": 4598,
      "ĠTour": 4599,
      "Ġblue": 4600,
      "ĠScience": 4601,
      "Ġmention": 4602,
      "Ġislands": 4603,
      "ĠOver": 4604,
      "ĠSystem": 4605,
      "Â°": 4606,
      "obile": 4607,
      "ĠLouisiana": 4608,
      "Ġautom": 4609,
      "Ġclaimed": 4610,
      "ĠPrem": 4611,
      "esc": 4612,
      "Ġoverall": 4613,
      "Ġwalk": 4614,
      "omy": 4615,
      "ĠHockey": 4616,
      "aven": 4617,
      "Ġcrime": 4618,
      "Ġ1953": 4619,
      "hew": 4620,
      "ĠBus": 4621,
      "Ġcomposer": 4622,
      "ynasty": 4623,
      "onse": 4624,
      "Ġwebsite": 4625,
      "ĠStar": 4626,
      "ĠDev": 4627,
      "no": 4628,
      "edd": 4629,
      "ĠLab": 4630,
      "allen": 4631,
      "rupt": 4632,
      "Ġbene": 4633,
      "Ġthous": 4634,
      "Ġcontest": 4635,
      "ĠArkansas": 4636,
      "ultural": 4637,
      "Ġlos": 4638,
      "Ġproduct": 4639,
      "Ġanti": 4640,
      "Ġexecutive": 4641,
      "Ġwidely": 4642,
      "ĠKenn": 4643,
      "ĠVietn": 4644,
      "leep": 4645,
      "ĠLife": 4646,
      "ocks": 4647,
      "Ġsaying": 4648,
      "According": 4649,
      "Ġ1943": 4650,
      "Ġface": 4651,
      "yes": 4652,
      "Ġsquare": 4653,
      "Ġcarried": 4654,
      "Se": 4655,
      "ero": 4656,
      "ĠOper": 4657,
      "more": 4658,
      "ĠMem": 4659,
      ".)": 4660,
      "ĠMatt": 4661,
      "Ġnation": 4662,
      "Ġinterview": 4663,
      "Ġtechnology": 4664,
      "Ġphysical": 4665,
      "Ġsilver": 4666,
      "ĠBh": 4667,
      "ailed": 4668,
      "lav": 4669,
      "imin": 4670,
      "ĠPen": 4671,
      "down": 4672,
      "ĠFederal": 4673,
      "odies": 4674,
      "Ġtaught": 4675,
      "Ġ1938": 4676,
      "Ġlevels": 4677,
      "Ġfailure": 4678,
      "Ġelements": 4679,
      "Ġfailed": 4680,
      "Ġago": 4681,
      "Ġprovin": 4682,
      "Ġlawyer": 4683,
      "nic": 4684,
      "Ġreach": 4685,
      "Ġmess": 4686,
      "ĠBefore": 4687,
      "ĠTim": 4688,
      "ĠOut": 4689,
      "Ġoperated": 4690,
      "inent": 4691,
      "aki": 4692,
      "ables": 4693,
      "Ġanimal": 4694,
      "RA": 4695,
      "Ġmission": 4696,
      "agon": 4697,
      "ji": 4698,
      "Ġsingles": 4699,
      "ĠOrder": 4700,
      "zy": 4701,
      "ĠJones": 4702,
      "ĠCoast": 4703,
      "cow": 4704,
      "lines": 4705,
      "osen": 4706,
      "umber": 4707,
      "Ġcharge": 4708,
      "Ġappearances": 4709,
      "Ġmotor": 4710,
      "mission": 4711,
      "Ġhundred": 4712,
      "osaur": 4713,
      "Ġimmedi": 4714,
      "Ġfinally": 4715,
      "ĠLove": 4716,
      "Ġdisplay": 4717,
      "Ġbranch": 4718,
      "ova": 4719,
      "Ġmeeting": 4720,
      "sex": 4721,
      "incoln": 4722,
      "aby": 4723,
      "mitted": 4724,
      "Ġbillion": 4725,
      "icted": 4726,
      "ĠNot": 4727,
      "rie": 4728,
      "ims": 4729,
      "Ġ1951": 4730,
      "Ġedition": 4731,
      "Ġlay": 4732,
      "ĠLo": 4733,
      "ĠJean": 4734,
      "ĠAk": 4735,
      "Ġ1934": 4736,
      "Ġarran": 4737,
      "Ġlink": 4738,
      "ĠUs": 4739,
      "TA": 4740,
      "ĠElizabeth": 4741,
      "ledge": 4742,
      "31": 4743,
      "ounded": 4744,
      "Ġwear": 4745,
      "Ġhistorical": 4746,
      "Ġdirectly": 4747,
      "ĠTem": 4748,
      "Ġwhether": 4749,
      "Ġopera": 4750,
      "Ġburied": 4751,
      "Ġinte": 4752,
      "iques": 4753,
      "ging": 4754,
      "ĠJac": 4755,
      "Ġideas": 4756,
      "Ġ1936": 4757,
      "Ã£": 4758,
      "ĠHong": 4759,
      "Ġthus": 4760,
      "ĠEv": 4761,
      "alais": 4762,
      "hess": 4763,
      "Ġcultural": 4764,
      "Ġresponsible": 4765,
      "ippi": 4766,
      "Ġsimply": 4767,
      "Ġsouthwest": 4768,
      "eral": 4769,
      "oto": 4770,
      "Ġpowerful": 4771,
      "light": 4772,
      "isk": 4773,
      "ĠHy": 4774,
      "Ġstarred": 4775,
      "ĠCorn": 4776,
      "Ġremain": 4777,
      "ysis": 4778,
      "ĠRailway": 4779,
      "ĠTurk": 4780,
      "ĠSom": 4781,
      "ĠOpen": 4782,
      "ieuten": 4783,
      "Ġregions": 4784,
      "orporated": 4785,
      "Ġbought": 4786,
      "ĠMississ": 4787,
      "iring": 4788,
      "Ġpresented": 4789,
      "Ed": 4790,
      "jan": 4791,
      "ĠTop": 4792,
      "ĠBre": 4793,
      "Ġcart": 4794,
      "Ġmeters": 4795,
      "Ġgrant": 4796,
      "ski": 4797,
      "Ġded": 4798,
      "vin": 4799,
      "arry": 4800,
      "mad": 4801,
      "tained": 4802,
      "Ġmixed": 4803,
      "Ġconsider": 4804,
      "Ġtwice": 4805,
      "ellig": 4806,
      "ĠAlbert": 4807,
      "ĠDi": 4808,
      "chen": 4809,
      "Ġquarter": 4810,
      "Ġund": 4811,
      "Ġlic": 4812,
      "osh": 4813,
      "ĠEll": 4814,
      "ĠId": 4815,
      "Ġtradition": 4816,
      "ĠSupreme": 4817,
      "mann": 4818,
      "International": 4819,
      "Ġissue": 4820,
      "ĠMax": 4821,
      "etro": 4822,
      "Ġwinner": 4823,
      "Ġsport": 4824,
      "ĠRadio": 4825,
      "Ġinn": 4826,
      "elle": 4827,
      "Ġmanagement": 4828,
      "ĠSa": 4829,
      "Ġexperience": 4830,
      "gal": 4831,
      "Ġacadem": 4832,
      "Ġfounder": 4833,
      "gn": 4834,
      "Ġsecret": 4835,
      "ĠMexican": 4836,
      "pon": 4837,
      "Ġnotable": 4838,
      "Ġsucceed": 4839,
      "Ġarrived": 4840,
      "ĠRam": 4841,
      "ully": 4842,
      "Ġlif": 4843,
      "Ġshare": 4844,
      "Ġplanned": 4845,
      "ieutenant": 4846,
      "32": 4847,
      "imum": 4848,
      "Ġproposed": 4849,
      "ntario": 4850,
      "ugby": 4851,
      "Ġ1933": 4852,
      "Ġleaders": 4853,
      "Ġcopies": 4854,
      "Other": 4855,
      "Ġequip": 4856,
      "Ġprincip": 4857,
      "rast": 4858,
      "water": 4859,
      "Ã¢": 4860,
      "Ġserve": 4861,
      "Ġfocus": 4862,
      "Ġdouble": 4863,
      "ening": 4864,
      "ĠVi": 4865,
      "Ġremaining": 4866,
      "ĠEmperor": 4867,
      "Ġbatt": 4868,
      "Ġkil": 4869,
      "Ġurban": 4870,
      "ĠÂ£": 4871,
      "Ġneighbor": 4872,
      "Ġtall": 4873,
      "ĠAbout": 4874,
      "rical": 4875,
      "Ġburn": 4876,
      "ruit": 4877,
      "ĠNews": 4878,
      "Ex": 4879,
      "Ġmaster": 4880,
      "andy": 4881,
      "Ġactually": 4882,
      "Ġreplace": 4883,
      "ĠFoundation": 4884,
      "vis": 4885,
      "ĠSu": 4886,
      "ĠBell": 4887,
      "ety": 4888,
      "Ġsomeone": 4889,
      "Ġ1935": 4890,
      "ĠMid": 4891,
      "Ġprin": 4892,
      "Ġpromoted": 4893,
      "Ġess": 4894,
      "Ġsolo": 4895,
      "Ġmunicipalities": 4896,
      "ĠTre": 4897,
      "Ġbeat": 4898,
      "ĠLy": 4899,
      "Ġcouncil": 4900,
      "apore": 4901,
      "izing": 4902,
      "ĠHarr": 4903,
      "orf": 4904,
      "Many": 4905,
      "abama": 4906,
      "Ġtrains": 4907,
      "ĠNord": 4908,
      "Ġruled": 4909,
      "Ġjournalist": 4910,
      "ĠTay": 4911,
      "Ġ45": 4912,
      "Ġadditional": 4913,
      "ĠStep": 4914,
      "ĠColor": 4915,
      "mas": 4916,
      "ĠOx": 4917,
      "Ġupper": 4918,
      "ĠWork": 4919,
      "overy": 4920,
      "ĠConference": 4921,
      "ĠUSA": 4922,
      "vi": 4923,
      "agan": 4924,
      "Ġmusician": 4925,
      "Ġbrain": 4926,
      "Ġpun": 4927,
      "abad": 4928,
      "ession": 4929,
      "Ġpath": 4930,
      "Ġ1937": 4931,
      "Ġdeclared": 4932,
      "amber": 4933,
      "osed": 4934,
      "rence": 4935,
      "ĠCentre": 4936,
      "Ġnormal": 4937,
      "ĠIndiana": 4938,
      "Ġrenamed": 4939,
      "ĠHu": 4940,
      "ĠEst": 4941,
      "Ġplans": 4942,
      "enna": 4943,
      "Ġmagn": 4944,
      "Ġbott": 4945,
      "ĠWinter": 4946,
      "Ġparticipated": 4947,
      "onto": 4948,
      "edom": 4949,
      "75": 4950,
      "ĠJeff": 4951,
      "Ġparticularly": 4952,
      "List": 4953,
      "Ġagreed": 4954,
      "ĠMov": 4955,
      "Ġpolicy": 4956,
      "Ġfighting": 4957,
      "Ġdiscuss": 4958,
      "ĠBad": 4959,
      "ĠGh": 4960,
      "Ġconfl": 4961,
      "cting": 4962,
      "Ġrat": 4963,
      "ĠRog": 4964,
      "adelph": 4965,
      "Ġadult": 4966,
      "Ġcommission": 4967,
      "FC": 4968,
      "Ġbrief": 4969,
      "ĠCensus": 4970,
      "Ġstore": 4971,
      "Ġfollows": 4972,
      "aded": 4973,
      "ager": 4974,
      "ĠBarb": 4975,
      "Ġflight": 4976,
      "kins": 4977,
      "etween": 4978,
      "uer": 4979,
      "ĠCD": 4980,
      "Ġdoctor": 4981,
      "velopment": 4982,
      "tainment": 4983,
      "Ġoffered": 4984,
      "Ġpotential": 4985,
      "49": 4986,
      "ĠHistor": 4987,
      "Ġcars": 4988,
      "Ġ500": 4989,
      "oa": 4990,
      "stone": 4991,
      "Ġordered": 4992,
      "Ã¼r": 4993,
      "ĠCa": 4994,
      "ĠOffice": 4995,
      "Ġstreng": 4996,
      "Å¡": 4997,
      "ĠCur": 4998,
      "ĠUnder": 4999,
      "ĠMoscow": 5000,
      "ĠAlabama": 5001,
      "ĠOtt": 5002,
      "ronze": 5003,
      "Ġactivity": 5004,
      "Ġeffects": 5005,
      "ĠCross": 5006,
      "inem": 5007,
      "inks": 5008,
      "adelphia": 5009,
      "mir": 5010,
      "Ġextra": 5011,
      "Ġrecognized": 5012,
      "enes": 5013,
      "utions": 5014,
      "ĠForm": 5015,
      "fecture": 5016,
      "ĠSund": 5017,
      "ĠMaria": 5018,
      "ĠBrook": 5019,
      "Ġresponse": 5020,
      "ĠCub": 5021,
      "ervative": 5022,
      "ĠGree": 5023,
      "ĠMississippi": 5024,
      "ais": 5025,
      "ĠPublic": 5026,
      "ÅĤ": 5027,
      "ograp": 5028,
      "ĠOntario": 5029,
      "ĠBow": 5030,
      "Ġnick": 5031,
      "irement": 5032,
      "ĠGolden": 5033,
      "Ã£o": 5034,
      "ĠRay": 5035,
      "ashion": 5036,
      "500": 5037,
      "ining": 5038,
      "ĠHor": 5039,
      "ĠRegion": 5040,
      "Ġpeace": 5041,
      "Ġgiving": 5042,
      "Ġast": 5043,
      "ĠFar": 5044,
      "Ġversions": 5045,
      "Ġcaptured": 5046,
      "ader": 5047,
      "ĠGirl": 5048,
      "Ġheadquarters": 5049,
      "Ġtreatment": 5050,
      "Ġprovides": 5051,
      "ĠLew": 5052,
      "ĠEle": 5053,
      "Ġmayor": 5054,
      "ĠJoe": 5055,
      "resh": 5056,
      "eding": 5057,
      "ĠPas": 5058,
      "ĠWater": 5059,
      "ĠKen": 5060,
      "Ġregional": 5061,
      "ĠGram": 5062,
      "ĠAnother": 5063,
      "Ġera": 5064,
      "Ġyellow": 5065,
      "urd": 5066,
      "Ġreligion": 5067,
      "vement": 5068,
      "Ġstarts": 5069,
      "ĠBah": 5070,
      "ĠNob": 5071,
      "ĠLittle": 5072,
      "Ġattacks": 5073,
      "Ġstra": 5074,
      "Ġconstitu": 5075,
      "ĠPers": 5076,
      "Ġcollabor": 5077,
      "Ġspoken": 5078,
      "throp": 5079,
      "roke": 5080,
      "ĠVan": 5081,
      "ĠProfessor": 5082,
      "Ġsimple": 5083,
      "Ġens": 5084,
      "ĠFour": 5085,
      "Ġprop": 5086,
      "Ġyounger": 5087,
      "real": 5088,
      "ĠGame": 5089,
      "ourg": 5090,
      "Ġpiece": 5091,
      "yal": 5092,
      "ito": 5093,
      "ĠGall": 5094,
      "which": 5095,
      "Ġinitially": 5096,
      "ĠCorporation": 5097,
      "Ġwild": 5098,
      "atively": 5099,
      "Ġcam": 5100,
      "Ġparliament": 5101,
      "Ġskin": 5102,
      "48": 5103,
      "Ġrom": 5104,
      "ori": 5105,
      "arp": 5106,
      "ĠNetwork": 5107,
      "Ġgetting": 5108,
      "ĠTeam": 5109,
      "apers": 5110,
      "fall": 5111,
      "ker": 5112,
      "ĠVice": 5113,
      "ĠPhilippines": 5114,
      "Ġ1931": 5115,
      "una": 5116,
      "Ġstopped": 5117,
      "Ġsides": 5118,
      "Ġability": 5119,
      "ĠNig": 5120,
      "ources": 5121,
      "izes": 5122,
      "Ġ1929": 5123,
      "Ġpieces": 5124,
      "By": 5125,
      "bach": 5126,
      "itted": 5127,
      "olved": 5128,
      "Total": 5129,
      "Ġdisp": 5130,
      "Ġcritics": 5131,
      "ĠOb": 5132,
      "Ġcrew": 5133,
      "Ġestimated": 5134,
      "Ġcerem": 5135,
      "Ġmic": 5136,
      "ĠSel": 5137,
      "dney": 5138,
      "Ġmeasure": 5139,
      "kin": 5140,
      "ĠSub": 5141,
      "Ġweight": 5142,
      "Ġdeliver": 5143,
      "Ġworldwide": 5144,
      "Ġcorn": 5145,
      "ĠRaj": 5146,
      "ersonal": 5147,
      "Ġdivor": 5148,
      "Ne": 5149,
      "fort": 5150,
      "46": 5151,
      "Ġlake": 5152,
      "Ġ179": 5153,
      "bass": 5154,
      "Ġconcept": 5155,
      "Ġchairman": 5156,
      "Ġcontinue": 5157,
      "Ġsevent": 5158,
      "ĠChild": 5159,
      "Ġallows": 5160,
      "ĠPhiladelphia": 5161,
      "ting": 5162,
      "ĠWW": 5163,
      "ĠSingapore": 5164,
      "arrow": 5165,
      "Ġfigure": 5166,
      "Ġcounties": 5167,
      "Ġflood": 5168,
      "Ġoperation": 5169,
      "ĠNight": 5170,
      "Ġcouple": 5171,
      "Ġliterature": 5172,
      "Ġvac": 5173,
      "Ġmachine": 5174,
      "Or": 5175,
      "gar": 5176,
      "Ġhop": 5177,
      "Ġassistant": 5178,
      "Since": 5179,
      "Ġcovers": 5180,
      "ennessee": 5181,
      "\";": 5182,
      "ĠAff": 5183,
      "ĠPop": 5184,
      "ĠResearch": 5185,
      "ĠBa": 5186,
      "Ġhighly": 5187,
      "ĠCard": 5188,
      "Ġrepe": 5189,
      "Ġgained": 5190,
      "ĠGood": 5191,
      "With": 5192,
      "Col": 5193,
      "onsin": 5194,
      "Ind": 5195,
      "ci": 5196,
      "Ġdistance": 5197,
      "ĠCommon": 5198,
      "ĠAlexander": 5199,
      "ĠJustice": 5200,
      "rong": 5201,
      "duce": 5202,
      "Ġpaid": 5203,
      "iab": 5204,
      "Ġsplit": 5205,
      "Ġmill": 5206,
      "ĠLincoln": 5207,
      "ĠJane": 5208,
      "Ġyouth": 5209,
      "Ġissued": 5210,
      "ĠFame": 5211,
      "achel": 5212,
      "ption": 5213,
      "ĠVen": 5214,
      "Ġstadium": 5215,
      "Ġfiction": 5216,
      "Ġattention": 5217,
      "Ġ1932": 5218,
      "Ġprior": 5219,
      "nce": 5220,
      "ĠFord": 5221,
      "Ġadopted": 5222,
      "iot": 5223,
      "ĠCop": 5224,
      "Ġdemon": 5225,
      "ĠOf": 5226,
      "isconsin": 5227,
      "Ġsquad": 5228,
      "ĠTime": 5229,
      "Ġyet": 5230,
      "Ġanimated": 5231,
      "with": 5232,
      "ĠRod": 5233,
      "Ġbor": 5234,
      "ĠMunicip": 5235,
      "Ġworkers": 5236,
      "Ġassociation": 5237,
      "Ġsoftware": 5238,
      "Ġpit": 5239,
      "Ġneeds": 5240,
      "ĠSanta": 5241,
      "anes": 5242,
      "ĠHealth": 5243,
      "Calais": 5244,
      "order": 5245,
      "uy": 5246,
      "edia": 5247,
      "ĠMir": 5248,
      "Ġdang": 5249,
      "Ġchosen": 5250,
      "ĠBlue": 5251,
      "Ġhosted": 5252,
      "des": 5253,
      "iac": 5254,
      "ĠCE": 5255,
      "ĠChannel": 5256,
      "ĠEntertainment": 5257,
      "Ġfix": 5258,
      "Ġfellow": 5259,
      "ĠChile": 5260,
      "Ġdial": 5261,
      "Ġinstrument": 5262,
      "Ġcontain": 5263,
      "ĠUkraine": 5264,
      "ĠâĢĶ": 5265,
      "'.": 5266,
      "Ġoperating": 5267,
      "iny": 5268,
      "Ġtracks": 5269,
      "bourne": 5270,
      "ĠAsh": 5271,
      "Ġstone": 5272,
      "icture": 5273,
      "Ġorganized": 5274,
      "rated": 5275,
      "Ġfell": 5276,
      "Ġetc": 5277,
      "Ġaired": 5278,
      "ĠFe": 5279,
      "ĠConne": 5280,
      "ĠSab": 5281,
      "Ġperman": 5282,
      "Ġjun": 5283,
      "ĠTheatre": 5284,
      "Ġarrested": 5285,
      "ĠHospital": 5286,
      "Ġcontrovers": 5287,
      "Ġconcent": 5288,
      "ĠAlf": 5289,
      "Ġpainting": 5290,
      "bed": 5291,
      "Ġcomment": 5292,
      "Ġtwenty": 5293,
      "icate": 5294,
      "Ġbass": 5295,
      "Â²": 5296,
      "irmed": 5297,
      "ĠWisconsin": 5298,
      "Ġsched": 5299,
      "pan": 5300,
      "Ġbound": 5301,
      "Ġtrial": 5302,
      "ĠTennessee": 5303,
      "ĠIndones": 5304,
      "Ġdraft": 5305,
      "eman": 5306,
      "Ġattacked": 5307,
      "da": 5308,
      "ĠDuke": 5309,
      "bra": 5310,
      "sky": 5311,
      "ees": 5312,
      "Ġserious": 5313,
      "Ġofficers": 5314,
      "Ġsens": 5315,
      "istance": 5316,
      "ilding": 5317,
      "Ġ1928": 5318,
      "ĠGuard": 5319,
      "Ġgrowth": 5320,
      "Ġsuffered": 5321,
      "Ġpan": 5322,
      "Her": 5323,
      "Ġvan": 5324,
      "mouth": 5325,
      "Ġ32": 5326,
      "Ġbroke": 5327,
      "Ġcontinu": 5328,
      "ĠDaniel": 5329,
      "Ġcompletely": 5330,
      "Ġathlet": 5331,
      "Ġnecess": 5332,
      "ĠThree": 5333,
      "Billboard": 5334,
      "met": 5335,
      "andon": 5336,
      "ffic": 5337,
      "Ġindustrial": 5338,
      "Ġconnected": 5339,
      "ĠBangl": 5340,
      "Ġdomin": 5341,
      "Ġbrown": 5342,
      "ĠBridge": 5343,
      "Ġbaseball": 5344,
      "ĠUt": 5345,
      "Ġsearch": 5346,
      "ĠStation": 5347,
      "Ġclubs": 5348,
      "ĠSydney": 5349,
      "SR": 5350,
      "commun": 5351,
      "Ġpack": 5352,
      "perial": 5353,
      "ĠBeach": 5354,
      "ami": 5355,
      "alo": 5356,
      "Ġowner": 5357,
      "Ġsymbol": 5358,
      "ĠColorado": 5359,
      "rÃ©": 5360,
      "Ġgraph": 5361,
      "Ġvotes": 5362,
      "bec": 5363,
      "antic": 5364,
      "ĠMaine": 5365,
      "ĠDak": 5366,
      "zo": 5367,
      "usc": 5368,
      "Ġdoing": 5369,
      "Ġpolitics": 5370,
      "Ġtitles": 5371,
      "Ġindependence": 5372,
      "ĠUN": 5373,
      "Ġcho": 5374,
      "ĠMaryland": 5375,
      "mph": 5376,
      "Ġcold": 5377,
      "Ġreasons": 5378,
      "ika": 5379,
      "Ġdry": 5380,
      "ĠHamp": 5381,
      "rics": 5382,
      "Ġ75": 5383,
      "ĠInt": 5384,
      "Ġyour": 5385,
      "Ġ1927": 5386,
      "Ġalongside": 5387,
      "Ġwinter": 5388,
      "They": 5389,
      "ĠConstitution": 5390,
      "Ġrestaur": 5391,
      "antry": 5392,
      "sey": 5393,
      "William": 5394,
      "ĠNHL": 5395,
      "ĠAndrew": 5396,
      "Ġaccepted": 5397,
      "ĠKir": 5398,
      "Ġcreation": 5399,
      "resp": 5400,
      "ĠBudd": 5401,
      "ensity": 5402,
      "Ġextended": 5403,
      "Ġstream": 5404,
      "lers": 5405,
      "athan": 5406,
      "Ġspring": 5407,
      "alle": 5408,
      "Ġsixth": 5409,
      "Ãº": 5410,
      "ighter": 5411,
      "Ġequal": 5412,
      ");": 5413,
      "cia": 5414,
      "ivity": 5415,
      "igg": 5416,
      "arrondissement": 5417,
      "ĠÅ": 5418,
      "Ġstreet": 5419,
      "orter": 5420,
      "ĠAh": 5421,
      "ĠRon": 5422,
      "obe": 5423,
      "65": 5424,
      "DP": 5425,
      "inals": 5426,
      "Ġwhy": 5427,
      "Ġarticle": 5428,
      "kh": 5429,
      "ns": 5430,
      "Ġonline": 5431,
      "Ġpartn": 5432,
      "Ġrefers": 5433,
      "Ġnuclear": 5434,
      "Ġrecently": 5435,
      "ĠToronto": 5436,
      "ĠTokyo": 5437,
      "ĠHam": 5438,
      "Ġshape": 5439,
      "ĠDar": 5440,
      "ĠHead": 5441,
      "Ġ1926": 5442,
      "plement": 5443,
      "ĠPit": 5444,
      "ously": 5445,
      "Ġsales": 5446,
      "elve": 5447,
      "Ġcoming": 5448,
      "ĠFIFA": 5449,
      "Ġforward": 5450,
      "portun": 5451,
      "Ġcontent": 5452,
      "ĠLady": 5453,
      "Ġletters": 5454,
      "put": 5455,
      "Ġconcert": 5456,
      "Ġve": 5457,
      "Ġvo": 5458,
      "Ġrivers": 5459,
      "Ġsemi": 5460,
      "heastern": 5461,
      "olis": 5462,
      "hedral": 5463,
      "igen": 5464,
      "Ġmyth": 5465,
      "Ġnickn": 5466,
      "Ġwa": 5467,
      "elly": 5468,
      "Ġfloor": 5469,
      "pet": 5470,
      "Ġflows": 5471,
      "Ġscientific": 5472,
      "ĠConfeder": 5473,
      "includ": 5474,
      "Ġbeaut": 5475,
      "Ġmole": 5476,
      "Ġreact": 5477,
      "ĠWild": 5478,
      "Te": 5479,
      "lywood": 5480,
      "Ġpattern": 5481,
      "May": 5482,
      "Ġ;": 5483,
      "Ġgreatest": 5484,
      "Ġpra": 5485,
      "ĠSher": 5486,
      "Ġdebuted": 5487,
      "Dav": 5488,
      "emeter": 5489,
      "ghan": 5490,
      "Ġancest": 5491,
      "Ġbul": 5492,
      "Ġlies": 5493,
      "icks": 5494,
      "Ġdefeat": 5495,
      "Ġheat": 5496,
      "Ġsuburb": 5497,
      "Ġcapac": 5498,
      "press": 5499,
      "Ġacid": 5500,
      "orge": 5501,
      "ĠCreek": 5502,
      "ĠBon": 5503,
      "cles": 5504,
      "Ġbasis": 5505,
      "vest": 5506,
      "enger": 5507,
      "Ġfestival": 5508,
      "ĠBand": 5509,
      "Ġrob": 5510,
      "ulpt": 5511,
      "ĠIndepend": 5512,
      "Ġquestion": 5513,
      "ishes": 5514,
      "lets": 5515,
      "itness": 5516,
      "Ġ1925": 5517,
      "ĠTurkey": 5518,
      "ĠPremier": 5519,
      "ĠJan": 5520,
      "Ġsecurity": 5521,
      "ĠWars": 5522,
      "Ġadvan": 5523,
      "ansion": 5524,
      "Ġflu": 5525,
      "ĠStadium": 5526,
      "hens": 5527,
      "Mon": 5528,
      "ĠWilson": 5529,
      "isa": 5530,
      "akers": 5531,
      "Ġconsum": 5532,
      "Ġcaptain": 5533,
      "Ġtrying": 5534,
      "Ġsusp": 5535,
      "VD": 5536,
      "Ġbrand": 5537,
      "load": 5538,
      "Ġsons": 5539,
      "Ġrevealed": 5540,
      "imal": 5541,
      "rogen": 5542,
      "Ġresidents": 5543,
      "Ġswim": 5544,
      "ĠQueens": 5545,
      "Ġsitu": 5546,
      "ĠNick": 5547,
      "Ġhousehold": 5548,
      "Ġgrowing": 5549,
      "Ġring": 5550,
      "Ġroyal": 5551,
      "ĠVill": 5552,
      "Ġelement": 5553,
      "Ġly": 5554,
      "Ġcolumn": 5555,
      "Ġdirection": 5556,
      "greg": 5557,
      "Ġir": 5558,
      "oration": 5559,
      "organ": 5560,
      "Ġhol": 5561,
      "Ġpiano": 5562,
      "Ġreform": 5563,
      "ĠRom": 5564,
      "99": 5565,
      "Ġfirm": 5566,
      "emporary": 5567,
      "ĠKhan": 5568,
      "aro": 5569,
      "iat": 5570,
      "raq": 5571,
      "Ġattra": 5572,
      "Ġcondition": 5573,
      "ĠJesus": 5574,
      "Ġacademic": 5575,
      "ographer": 5576,
      "ĠOp": 5577,
      "orph": 5578,
      "Ġcombined": 5579,
      "ĠRang": 5580,
      "Ġacquired": 5581,
      "ĠArgentina": 5582,
      "Most": 5583,
      "stead": 5584,
      "ĠList": 5585,
      "Ġparties": 5586,
      "ii": 5587,
      "Ġple": 5588,
      "osis": 5589,
      "ĠEp": 5590,
      "Ġsun": 5591,
      "esh": 5592,
      "Ġcounter": 5593,
      "Ġbegin": 5594,
      "Ġchap": 5595,
      "Ġholds": 5596,
      "ĠTaiwan": 5597,
      "ĠBure": 5598,
      "ĠGro": 5599,
      "Ġwall": 5600,
      "Ġseats": 5601,
      "oven": 5602,
      "ĠKim": 5603,
      "Ġmetres": 5604,
      "100": 5605,
      "asy": 5606,
      "Ġsources": 5607,
      "Ġalt": 5608,
      "Ġmorning": 5609,
      "ĠAnton": 5610,
      "Ġadministration": 5611,
      "aug": 5612,
      "Ġagric": 5613,
      "Ġquality": 5614,
      "AC": 5615,
      "Ã©n": 5616,
      "Ġtitled": 5617,
      "worth": 5618,
      "Ġcarbon": 5619,
      "Ġeconomy": 5620,
      "uguese": 5621,
      "icide": 5622,
      "Ġreign": 5623,
      "lyn": 5624,
      "ighth": 5625,
      "Ġscene": 5626,
      "Ġdiagn": 5627,
      "Ġranked": 5628,
      "Ġpurpose": 5629,
      "ĠDun": 5630,
      "anna": 5631,
      "Ġenter": 5632,
      "Ġserves": 5633,
      "ĠTa": 5634,
      "ctive": 5635,
      "Ġbasic": 5636,
      "Ġ1922": 5637,
      "Ġmountains": 5638,
      "ĠMas": 5639,
      "bo": 5640,
      "ĠSports": 5641,
      "Ġcontact": 5642,
      "Ġ1924": 5643,
      "atal": 5644,
      "ĠHuman": 5645,
      "ĠBalt": 5646,
      "ĠArthur": 5647,
      "Ġprec": 5648,
      "Ġprimarily": 5649,
      "ĠFire": 5650,
      "Ġcompared": 5651,
      "Ġuns": 5652,
      "ĠBol": 5653,
      "Ġeggs": 5654,
      "My": 5655,
      "ogue": 5656,
      "Ġkilomet": 5657,
      "aith": 5658,
      "Ġethnic": 5659,
      "ĠTaylor": 5660,
      "Ġpup": 5661,
      "Ġmaterials": 5662,
      "Ġincreasing": 5663,
      "stitutional": 5664,
      "ĠMain": 5665,
      "Ġweapons": 5666,
      "Personal": 5667,
      "Ġvalley": 5668,
      "42": 5669,
      "Ġsoutheast": 5670,
      "Ġflat": 5671,
      "Ġhands": 5672,
      "intend": 5673,
      "Ġcampus": 5674,
      "bro": 5675,
      "state": 5676,
      "eller": 5677,
      "ĠIntern": 5678,
      "EFA": 5679,
      "book": 5680,
      "li": 5681,
      "Ġcab": 5682,
      "ados": 5683,
      "Ġroll": 5684,
      "engers": 5685,
      "VID": 5686,
      "Ġlearning": 5687,
      "ĠNative": 5688,
      "Ġtherefore": 5689,
      "Ġdedicated": 5690,
      "55": 5691,
      "ĠToday": 5692,
      "Ġcommunities": 5693,
      "aging": 5694,
      "ĠPictures": 5695,
      "ĠCroat": 5696,
      "ione": 5697,
      "iley": 5698,
      "Ġopportun": 5699,
      "Ġtheme": 5700,
      "Ġcoin": 5701,
      "Ġhurricane": 5702,
      "Ġbusinessman": 5703,
      "orney": 5704,
      "ĠOxford": 5705,
      "aret": 5706,
      "Ġindividuals": 5707,
      "Biography": 5708,
      "joy": 5709,
      "ĠPost": 5710,
      "ĠHome": 5711,
      "Ġadj": 5712,
      "Ġracing": 5713,
      "--": 5714,
      "ĠNic": 5715,
      "ĠNorway": 5716,
      "song": 5717,
      "Ġimage": 5718,
      "Ġhistoric": 5719,
      "Ġinse": 5720,
      "Ġthir": 5721,
      "Ġlands": 5722,
      "Ġlatter": 5723,
      "ĠSerb": 5724,
      "West": 5725,
      "ania": 5726,
      "aux": 5727,
      "Ġconfirmed": 5728,
      "66": 5729,
      "Ġmentioned": 5730,
      "Ġult": 5731,
      "ĠInf": 5732,
      "Ġdespite": 5733,
      "Ġactivist": 5734,
      "atures": 5735,
      "ĠBir": 5736,
      "ĠGer": 5737,
      "iva": 5738,
      "ĠVietnam": 5739,
      "Ġfair": 5740,
      "ĠTest": 5741,
      "ĠTrump": 5742,
      "inth": 5743,
      "ĠTro": 5744,
      "ĠDie": 5745,
      "ĠHart": 5746,
      "weight": 5747,
      "uri": 5748,
      "ulated": 5749,
      "Ġtypically": 5750,
      "Ġbodies": 5751,
      "Ġarms": 5752,
      "Ġprep": 5753,
      "To": 5754,
      "Ġhabit": 5755,
      "ĠFederation": 5756,
      "set": 5757,
      "Ġfans": 5758,
      "iminal": 5759,
      "insula": 5760,
      "Ġdipl": 5761,
      "Ġbrothers": 5762,
      "Ġobjects": 5763,
      "wing": 5764,
      "Ġarts": 5765,
      "Ġresigned": 5766,
      "Ġcomed": 5767,
      "Ġteaching": 5768,
      "inners": 5769,
      "ifying": 5770,
      "cont": 5771,
      "Ġpartner": 5772,
      "ĠDakota": 5773,
      "Ġcricket": 5774,
      "Ġfoss": 5775,
      "ĠSav": 5776,
      "Ġreally": 5777,
      "ĠWel": 5778,
      "isms": 5779,
      "Ġbegins": 5780,
      "Ġagreement": 5781,
      "bi": 5782,
      "Ġiron": 5783,
      "Ġtell": 5784,
      "ĠKal": 5785,
      "Ġexpected": 5786,
      "ĠBos": 5787,
      "Ġwithd": 5788,
      "Ġsleep": 5789,
      "Ġpoll": 5790,
      "Ġsettlement": 5791,
      "Ġliber": 5792,
      "Ġnortheast": 5793,
      "ĠPope": 5794,
      "istered": 5795,
      "Ġ1923": 5796,
      "Ġoccurred": 5797,
      "En": 5798,
      "ĠSus": 5799,
      "ĠBru": 5800,
      "Ġscientists": 5801,
      "Ã¥": 5802,
      "Ġcenturies": 5803,
      "Ġtemple": 5804,
      "elligence": 5805,
      "lar": 5806,
      "89": 5807,
      "ĠDevelopment": 5808,
      "Ġkinds": 5809,
      "85": 5810,
      "ĠDam": 5811,
      "ĠCorps": 5812,
      "rizona": 5813,
      "Sup": 5814,
      "ĠTamil": 5815,
      "Ġvon": 5816,
      "Ġspeech": 5817,
      "emetery": 5818,
      "Ġbronze": 5819,
      "Ġharm": 5820,
      "ĠBeng": 5821,
      "Ġfavor": 5822,
      "44": 5823,
      "MA": 5824,
      "Ġcoal": 5825,
      "cha": 5826,
      "Ġpoly": 5827,
      "gery": 5828,
      "76": 5829,
      "MS": 5830,
      "Ġones": 5831,
      "Ġplane": 5832,
      "ardo": 5833,
      "othes": 5834,
      "Ġvillages": 5835,
      "uls": 5836,
      "glas": 5837,
      "Ġunion": 5838,
      "alymp": 5839,
      "ragon": 5840,
      "ĠLind": 5841,
      "Ġkid": 5842,
      "ographic": 5843,
      "ĠÐ": 5844,
      "Ġfashion": 5845,
      "room": 5846,
      "Ġconver": 5847,
      "Ġexperiment": 5848,
      "Ġeasily": 5849,
      "gram": 5850,
      "Ġfelt": 5851,
      "ĠAtt": 5852,
      "Ġmom": 5853,
      "icient": 5854,
      "Ġdefin": 5855,
      "cticut": 5856,
      "!\"": 5857,
      "Bar": 5858,
      "You": 5859,
      "iful": 5860,
      "ĠKat": 5861,
      "ĠTurkish": 5862,
      "ĠHay": 5863,
      "ĠLeon": 5864,
      "Ġknowledge": 5865,
      "Ġtransferred": 5866,
      "Ant": 5867,
      "ightly": 5868,
      "Ġimmediately": 5869,
      "Ġ1919": 5870,
      "Ġhair": 5871,
      "Ġspot": 5872,
      "ĠParalymp": 5873,
      "=\"": 5874,
      "estic": 5875,
      "Ġbelief": 5876,
      "Ġpositions": 5877,
      "Ġtouch": 5878,
      "pa": 5879,
      "rect": 5880,
      "onds": 5881,
      "Ġquite": 5882,
      "ĠAbb": 5883,
      "Ġhall": 5884,
      "Ġexact": 5885,
      "Ġtheatre": 5886,
      "ĠHun": 5887,
      "ĠLes": 5888,
      "ĠNow": 5889,
      "ĠOrgan": 5890,
      "ĠSenator": 5891,
      "ĠJon": 5892,
      "ĠEven": 5893,
      "Rh": 5894,
      "ĠSwiss": 5895,
      "Ġcreating": 5896,
      "gely": 5897,
      "Ġfeaturing": 5898,
      "ĠWrest": 5899,
      "Ġrural": 5900,
      "ui": 5901,
      "ĠPortuguese": 5902,
      "Ġsettled": 5903,
      "class": 5904,
      "Ġformat": 5905,
      "Ġpowers": 5906,
      "Ġdigital": 5907,
      "Ġinspired": 5908,
      "ĠConnecticut": 5909,
      "ipe": 5910,
      "ĠNap": 5911,
      "ĠJoh": 5912,
      "ugal": 5913,
      "uv": 5914,
      "onom": 5915,
      "Ġfolk": 5916,
      "stan": 5917,
      "Ġmind": 5918,
      "Ġlosing": 5919,
      "Ġequipment": 5920,
      "86": 5921,
      "kes": 5922,
      "Ġalone": 5923,
      "aga": 5924,
      "Ġfemales": 5925,
      "ĠLim": 5926,
      "ordan": 5927,
      "Ġadapt": 5928,
      "Ġbit": 5929,
      "ĠAz": 5930,
      "ikh": 5931,
      "encies": 5932,
      "lem": 5933,
      "Ġda": 5934,
      "ading": 5935,
      "Ġrich": 5936,
      "ĠIraq": 5937,
      "Ġunknown": 5938,
      "Ġsculpt": 5939,
      "Star": 5940,
      "Ġraces": 5941,
      "inity": 5942,
      "erick": 5943,
      "Ġbill": 5944,
      "ĠMun": 5945,
      "ĠBishop": 5946,
      "Ġmemory": 5947,
      "everal": 5948,
      "former": 5949,
      "77": 5950,
      "ĠTal": 5951,
      "Ġ1918": 5952,
      "ĠMarsh": 5953,
      "Ġacts": 5954,
      "ĠJews": 5955,
      "ĠEconom": 5956,
      "ĠAdd": 5957,
      "Ġgirls": 5958,
      "ĠGreece": 5959,
      "Ġeyes": 5960,
      "ĠUEFA": 5961,
      "pool": 5962,
      "Ġends": 5963,
      "anguage": 5964,
      "Ġsuggested": 5965,
      "char": 5966,
      "Ġhorse": 5967,
      "ĠArea": 5968,
      "section": 5969,
      "ĠMinistry": 5970,
      "Ġapplied": 5971,
      "ĠSpring": 5972,
      "Ġsubsequently": 5973,
      "amples": 5974,
      "ynam": 5975,
      "Ġcitizens": 5976,
      "ĠCab": 5977,
      "Ġunique": 5978,
      "ĠWat": 5979,
      "Ġprogress": 5980,
      "ĠFair": 5981,
      "Ġprime": 5982,
      "ĠCOVID": 5983,
      "ĠLight": 5984,
      "Ġvice": 5985,
      "Ġcontrolled": 5986,
      "Å«": 5987,
      "Ġwatch": 5988,
      "uther": 5989,
      "ĠGre": 5990,
      "osa": 5991,
      "Ġfinish": 5992,
      "Ġclasses": 5993,
      "itled": 5994,
      "Ġhero": 5995,
      "iform": 5996,
      "Ġ36": 5997,
      "ĠColomb": 5998,
      "Ġmodels": 5999,
      "ĠJer": 6000,
      "ĠStock": 6001,
      "Ġgeneration": 6002,
      "ĠCastle": 6003,
      "ĠBureau": 6004,
      "zen": 6005,
      "Ġkingdom": 6006,
      "coh": 6007,
      "ĠWalk": 6008,
      "Mus": 6009,
      "Ġlabor": 6010,
      "ĠElect": 6011,
      "ello": 6012,
      "ibb": 6013,
      "Ġretirement": 6014,
      "Ġdrink": 6015,
      "Ġimpact": 6016,
      "Ġinjury": 6017,
      "Death": 6018,
      "Ġmax": 6019,
      "ĠHan": 6020,
      "These": 6021,
      "regon": 6022,
      "Char": 6023,
      "Ġconducted": 6024,
      "Ġarchitecture": 6025,
      "Ġorganizations": 6026,
      "Ġattend": 6027,
      "95": 6028,
      "Ġ1921": 6029,
      "ĠKer": 6030,
      "Ġrequire": 6031,
      "Ġwing": 6032,
      "Ġmouth": 6033,
      "ĠLike": 6034,
      "Ġreceive": 6035,
      "Christ": 6036,
      "where": 6037,
      "Ġbow": 6038,
      "ums": 6039,
      "Ġ300": 6040,
      "Ġintended": 6041,
      "Ġstrugg": 6042,
      "Ġmales": 6043,
      "ears": 6044,
      "Ġleadership": 6045,
      "ĠHarry": 6046,
      "Ġengineering": 6047,
      "Ġliqu": 6048,
      "Ġbands": 6049,
      "ĠMike": 6050,
      "ĠField": 6051,
      "ĠOd": 6052,
      "Ġcloth": 6053,
      "Ġ65": 6054,
      "agh": 6055,
      "ĠClin": 6056,
      "ĠPolice": 6057,
      "Ġprominent": 6058,
      "RT": 6059,
      "Ġperformances": 6060,
      "ĠLibrary": 6061,
      "ĠChap": 6062,
      "ordin": 6063,
      "Ġshop": 6064,
      "Ġweather": 6065,
      "Gu": 6066,
      "rance": 6067,
      "Ġagent": 6068,
      "Ġspons": 6069,
      "Ġairport": 6070,
      "Ġille": 6071,
      "urches": 6072,
      "Ġven": 6073,
      "weet": 6074,
      "Ġsites": 6075,
      "Ġprojects": 6076,
      "Ġspirit": 6077,
      "ĠArizona": 6078,
      "ĠMember": 6079,
      "ĠMetropolitan": 6080,
      "PA": 6081,
      "ĠEnd": 6082,
      "ante": 6083,
      "rees": 6084,
      "lete": 6085,
      "Ġsucceeded": 6086,
      "Ġsand": 6087,
      "ÃŃa": 6088,
      "Car": 6089,
      "Ġâ": 6090,
      "Ġovers": 6091,
      "ĠAnne": 6092,
      "ĠAfghan": 6093,
      "Ġlasted": 6094,
      "Br": 6095,
      "Robert": 6096,
      "ĠChris": 6097,
      "je": 6098,
      "ĠKy": 6099,
      "ĠManchester": 6100,
      "Ġcritical": 6101,
      "Ġconflict": 6102,
      "Qu": 6103,
      "ĠAD": 6104,
      "Ġheight": 6105,
      "Ġassigned": 6106,
      "Ġanalysis": 6107,
      "ĠAffairs": 6108,
      "roc": 6109,
      "Ġenjoy": 6110,
      "Ġtarget": 6111,
      "ooth": 6112,
      "ĠDonald": 6113,
      "ĠVienna": 6114,
      "ĠRoss": 6115,
      "ĠLat": 6116,
      "ĠWindows": 6117,
      "hol": 6118,
      "po": 6119,
      "Ġmamm": 6120,
      "ĠPic": 6121,
      "place": 6122,
      "Ġdistinct": 6123,
      "41": 6124,
      "urer": 6125,
      "Ġheard": 6126,
      "Ġsupply": 6127,
      "ĠOnly": 6128,
      "Life": 6129,
      "olph": 6130,
      "ictional": 6131,
      "Ġrefused": 6132,
      "ĠLewis": 6133,
      "ĠAqu": 6134,
      "usion": 6135,
      "anga": 6136,
      "Ġfr": 6137,
      "ĠAvenue": 6138,
      "Ġ(),": 6139,
      "Ġjoint": 6140,
      "Ġcustom": 6141,
      "Ġdefined": 6142,
      "IA": 6143,
      "Ġfly": 6144,
      "Ġnob": 6145,
      "Ġonto": 6146,
      "Ġinfluenced": 6147,
      "Ste": 6148,
      "Ġsuppl": 6149,
      "Ġplanet": 6150,
      "dam": 6151,
      "Ġsac": 6152,
      "ĠHard": 6153,
      "ĠRel": 6154,
      "arks": 6155,
      "ĠHistory": 6156,
      "Ġelev": 6157,
      "Ġscholar": 6158,
      "ĠCape": 6159,
      "unte": 6160,
      "emic": 6161,
      "uf": 6162,
      "ĠBelg": 6163,
      "ĠIslamic": 6164,
      "Ġlargely": 6165,
      "Ġresulted": 6166,
      "Ġinitial": 6167,
      "Ġguns": 6168,
      "uh": 6169,
      "Ġfacilities": 6170,
      "pri": 6171,
      "rav": 6172,
      "Ġ400": 6173,
      "No": 6174,
      "ando": 6175,
      "ovak": 6176,
      "Ġconference": 6177,
      "Ġlongest": 6178,
      "Ġexamples": 6179,
      "Ġpremier": 6180,
      "People": 6181,
      "ĠSpecial": 6182,
      "ĠPo": 6183,
      "gers": 6184,
      "Ġconstructed": 6185,
      "force": 6186,
      "ĠMalays": 6187,
      "ĠGreg": 6188,
      "Ġincome": 6189,
      "Ġvisited": 6190,
      "If": 6191,
      "Ġcastle": 6192,
      "oral": 6193,
      "agement": 6194,
      "Ġextrem": 6195,
      "\":": 6196,
      "father": 6197,
      "Ġshr": 6198,
      "anner": 6199,
      "Ġentertain": 6200,
      "Ġaudience": 6201,
      "Ġenemy": 6202,
      "bai": 6203,
      "Ġcook": 6204,
      "ĠBall": 6205,
      "ĠBrad": 6206,
      "Ġidentified": 6207,
      "ĠOffic": 6208,
      "IS": 6209,
      "Ġcool": 6210,
      "Ġdie": 6211,
      "umes": 6212,
      "Ġoffers": 6213,
      "Ġmatter": 6214,
      "ĠChristmas": 6215,
      "ancing": 6216,
      "Ġseem": 6217,
      "Ġstraight": 6218,
      "Ġgreater": 6219,
      "ĠEth": 6220,
      "Ġadvert": 6221,
      "ĠMoh": 6222,
      "Ġcomic": 6223,
      "ocese": 6224,
      "ĠSciences": 6225,
      "Ġbact": 6226,
      "Ġlibrary": 6227,
      "ĠOregon": 6228,
      "ception": 6229,
      "aver": 6230,
      "Ġpet": 6231,
      "ircle": 6232,
      "Ġdriver": 6233,
      "Ġrapid": 6234,
      "ĠBangladesh": 6235,
      "ni": 6236,
      "endar": 6237,
      "iki": 6238,
      "Ġsurrounding": 6239,
      "Ġsell": 6240,
      "ĠNev": 6241,
      "Ġheav": 6242,
      "umed": 6243,
      "Ġgrass": 6244,
      "David": 6245,
      "eries": 6246,
      "Ġfully": 6247,
      "Ġ1917": 6248,
      "ĠFinn": 6249,
      "leyball": 6250,
      "Jos": 6251,
      "Ġfranch": 6252,
      "ĠBab": 6253,
      "ĠSri": 6254,
      "ĠEngine": 6255,
      "Ġfields": 6256,
      "Ġcapacity": 6257,
      "actions": 6258,
      "oming": 6259,
      "Ġdrive": 6260,
      "Ġdistribution": 6261,
      "ĠStephen": 6262,
      "OS": 6263,
      "position": 6264,
      "box": 6265,
      "ĠMayor": 6266,
      "ĠAdminist": 6267,
      "Ġscript": 6268,
      "ĠStat": 6269,
      "Ġinjured": 6270,
      "ĠHighway": 6271,
      "Ġlearned": 6272,
      "General": 6273,
      "Ġformerly": 6274,
      "ĠMountains": 6275,
      "friend": 6276,
      "43": 6277,
      "ĠPun": 6278,
      "uties": 6279,
      "CC": 6280,
      "lad": 6281,
      "ques": 6282,
      "rator": 6283,
      "Ġcontinues": 6284,
      "Ġjudge": 6285,
      "rons": 6286,
      "Ġwants": 6287,
      "Ġdiam": 6288,
      "ordon": 6289,
      "Ġofficials": 6290,
      "ĠTerrit": 6291,
      "Ġpage": 6292,
      "Ġaffected": 6293,
      "Ġactions": 6294,
      "Ġpurs": 6295,
      "ĠSaud": 6296,
      "ĠMarg": 6297,
      "Ġaddress": 6298,
      "Ġreaction": 6299,
      "ĠDer": 6300,
      "isted": 6301,
      "ĠMedia": 6302,
      "ĠBart": 6303,
      "ĠGen": 6304,
      "Ġearliest": 6305,
      "ĠDespite": 6306,
      "Ġescape": 6307,
      "ĠBulg": 6308,
      "August": 6309,
      "uters": 6310,
      "ĠPot": 6311,
      "otic": 6312,
      "ĠSax": 6313,
      "umin": 6314,
      "Ġillust": 6315,
      "mes": 6316,
      "itan": 6317,
      "ĠIndust": 6318,
      "AF": 6319,
      "Ġtries": 6320,
      "Ġgal": 6321,
      "ĠBrother": 6322,
      "Ġvess": 6323,
      "Ġglass": 6324,
      "ĠHawai": 6325,
      "ĠBush": 6326,
      "idi": 6327,
      "Ġalph": 6328,
      "Ġfounding": 6329,
      "Ġkilling": 6330,
      "Ġrespectively": 6331,
      "Ġfuel": 6332,
      "ĠBull": 6333,
      "Ġsinging": 6334,
      "Ġhelps": 6335,
      "Ġdropped": 6336,
      "ĠStone": 6337,
      "Ġneighborhood": 6338,
      "mov": 6339,
      "Ġshared": 6340,
      "Ġnotes": 6341,
      "Ġsense": 6342,
      "ĠMunicipality": 6343,
      "ĠMill": 6344,
      "ĠTelevision": 6345,
      "ĠNobel": 6346,
      "olas": 6347,
      "ĠMedal": 6348,
      "Ġsteam": 6349,
      "ygen": 6350,
      "ĠMand": 6351,
      "Ġtele": 6352,
      "iling": 6353,
      "idency": 6354,
      "Ġmethods": 6355,
      "keep": 6356,
      "ĠMelbourne": 6357,
      "Ġdra": 6358,
      "ĠMaster": 6359,
      "ĠArmen": 6360,
      "ĠâĢĺ": 6361,
      "Ġfinds": 6362,
      "etroit": 6363,
      "gor": 6364,
      "onne": 6365,
      "Ġcert": 6366,
      "ĠTony": 6367,
      "Ġdaily": 6368,
      "Ġreduced": 6369,
      "outs": 6370,
      "Ġexpanded": 6371,
      "cient": 6372,
      "onder": 6373,
      "Ġrequest": 6374,
      "Ġjazz": 6375,
      "ibly": 6376,
      "allenge": 6377,
      "ĠDor": 6378,
      "ĠDomin": 6379,
      "Ġperforming": 6380,
      "Ġhappen": 6381,
      "88": 6382,
      "zerbai": 6383,
      "Ġscale": 6384,
      "Ġguest": 6385,
      "ĠMountain": 6386,
      "pass": 6387,
      "chers": 6388,
      "ĠMemorial": 6389,
      "Ġastron": 6390,
      "Ġwarm": 6391,
      "ĠHou": 6392,
      "cu": 6393,
      "Ġsail": 6394,
      "Ġtower": 6395,
      "ocated": 6396,
      "Ġrough": 6397,
      "Ġconstituency": 6398,
      "Ġsituation": 6399,
      "Ġlaunch": 6400,
      "Ġshooting": 6401,
      "Ġpermanent": 6402,
      "Ġansw": 6403,
      "Ġcalls": 6404,
      "ĠAbd": 6405,
      "Ġformation": 6406,
      "Ġcompete": 6407,
      "Ġestate": 6408,
      "Ġcitizen": 6409,
      "Nov": 6410,
      "don": 6411,
      "tra": 6412,
      "Ġfictional": 6413,
      "ĠStorm": 6414,
      "Ġresear": 6415,
      "Ġsecondary": 6416,
      "ĠFinland": 6417,
      "Ġstayed": 6418,
      "Ġcommander": 6419,
      "Ġ150": 6420,
      "Ġpaintings": 6421,
      "iti": 6422,
      "itors": 6423,
      "Ġpassengers": 6424,
      "Ġprisoners": 6425,
      "Ġefforts": 6426,
      "Not": 6427,
      "ĠPower": 6428,
      "oslav": 6429,
      "Ġdidn": 6430,
      "Ġtwelve": 6431,
      "ĠPrix": 6432,
      "Ġsafety": 6433,
      "Fl": 6434,
      "US": 6435,
      "enz": 6436,
      "Ġpair": 6437,
      "udget": 6438,
      "wegian": 6439,
      "century": 6440,
      "Ġhyp": 6441,
      "ĠSteve": 6442,
      "ĠFree": 6443,
      "Ġwarn": 6444,
      "resident": 6445,
      "Ġmusicians": 6446,
      "Ġarticles": 6447,
      "inally": 6448,
      "ĠSometimes": 6449,
      "Ġevolution": 6450,
      "Ġlooking": 6451,
      "found": 6452,
      "Ä«": 6453,
      "Ġcry": 6454,
      "Ġcorresp": 6455,
      "thony": 6456,
      "ĠBurn": 6457,
      "iders": 6458,
      "Ġopposite": 6459,
      "ĠAli": 6460,
      "wealth": 6461,
      "Ġnewly": 6462,
      "alia": 6463,
      "Ġhuge": 6464,
      "Ġalcoh": 6465,
      "Ġmut": 6466,
      "Ġeye": 6467,
      "apes": 6468,
      "ĠGrammy": 6469,
      "87": 6470,
      "wich": 6471,
      "Ġsuit": 6472,
      "uled": 6473,
      "ĠHeritage": 6474,
      "Ġportray": 6475,
      "Ġx": 6476,
      "oster": 6477,
      "ĠHoly": 6478,
      "Ä±": 6479,
      "Ġinform": 6480,
      "ĠNeb": 6481,
      "Ġitems": 6482,
      "oute": 6483,
      "ĠPrin": 6484,
      "unting": 6485,
      "Ġfigures": 6486,
      "Ġgranted": 6487,
      "Can": 6488,
      "ogy": 6489,
      "claim": 6490,
      "Ġaccomp": 6491,
      "uns": 6492,
      "ĠDown": 6493,
      "ĠSpace": 6494,
      "Although": 6495,
      "Ġauthority": 6496,
      "Ġdocumentary": 6497,
      "Ġstores": 6498,
      "Ġbottom": 6499,
      "Ġdefend": 6500,
      "illing": 6501,
      "ĠMedical": 6502,
      "Ġloan": 6503,
      "Ġbehavior": 6504,
      "omot": 6505,
      "ĠRomania": 6506,
      "Ġintegr": 6507,
      "mont": 6508,
      "ĠNep": 6509,
      "Ġrisk": 6510,
      "2010": 6511,
      "iop": 6512,
      "aph": 6513,
      "Ġincident": 6514,
      "Brit": 6515,
      "erc": 6516,
      "agu": 6517,
      "Ġdevice": 6518,
      "Ġcategory": 6519,
      "James": 6520,
      "Mich": 6521,
      "enh": 6522,
      "ĠOak": 6523,
      "Ġunc": 6524,
      "Ġtail": 6525,
      "ierre": 6526,
      "Ġkm": 6527,
      "Ġcompon": 6528,
      "Ġvehicle": 6529,
      "Ġpull": 6530,
      "ĠKr": 6531,
      "Ġfruit": 6532,
      "aming": 6533,
      "ĠPortugal": 6534,
      "Ġnegative": 6535,
      "pur": 6536,
      "Ġteen": 6537,
      "Ġprogramming": 6538,
      "Ġlegs": 6539,
      "Ju": 6540,
      "king": 6541,
      "ivals": 6542,
      "irt": 6543,
      "Par": 6544,
      "die": 6545,
      "Ġnarrow": 6546,
      "Ġvocal": 6547,
      "Ġclosely": 6548,
      "ĠSum": 6549,
      "ĠStand": 6550,
      "Ġacted": 6551,
      "intendo": 6552,
      "rate": 6553,
      "ĠFollowing": 6554,
      "Ġchose": 6555,
      "RC": 6556,
      "ĠFamily": 6557,
      "ĠArm": 6558,
      "Ġtraffic": 6559,
      "ĠDouglas": 6560,
      "Sm": 6561,
      "cos": 6562,
      "dÃ©": 6563,
      "Ġchain": 6564,
      "Ġprofession": 6565,
      "Ġrepresenting": 6566,
      "Ġaim": 6567,
      "Ġfresh": 6568,
      "ĠSon": 6569,
      "Ġengineer": 6570,
      "Ġrear": 6571,
      "ĠDNA": 6572,
      "ĠLower": 6573,
      "Ġherself": 6574,
      "Ġprotection": 6575,
      "ĠTs": 6576,
      "Ġreject": 6577,
      "ĠHills": 6578,
      "Ġadvent": 6579,
      "inder": 6580,
      "ĠDavis": 6581,
      "Ġclaims": 6582,
      "amilton": 6583,
      "ĠForeign": 6584,
      "Ġalternative": 6585,
      "Ġsets": 6586,
      "atur": 6587,
      "ĠPress": 6588,
      "enny": 6589,
      "Ġending": 6590,
      "Ġguitarist": 6591,
      "Ġpoetry": 6592,
      "Ġabandon": 6593,
      "ĠPhilip": 6594,
      "oted": 6595,
      "Ġprint": 6596,
      "Ġdetect": 6597,
      "ĠCountry": 6598,
      "appe": 6599,
      "idden": 6600,
      "Ġdynasty": 6601,
      "ads": 6602,
      "iments": 6603,
      "Ġsyn": 6604,
      "Ġsteel": 6605,
      "Ġdoub": 6606,
      "awn": 6607,
      "Ġexchange": 6608,
      "ĠHollywood": 6609,
      "Ġdiplom": 6610,
      "ĠBelgium": 6611,
      "miss": 6612,
      "ĠDetroit": 6613,
      "ĠAirlines": 6614,
      "Ap": 6615,
      "SP": 6616,
      "oli": 6617,
      "Ġmarked": 6618,
      "rainian": 6619,
      "Ġwave": 6620,
      "Ġdesignated": 6621,
      "asket": 6622,
      "struction": 6623,
      "Ġut": 6624,
      "Ġ1914": 6625,
      "Ġcommittee": 6626,
      "Ġspect": 6627,
      "Ġdamaged": 6628,
      "ĠDh": 6629,
      "Ġwriters": 6630,
      "ĠColon": 6631,
      "ĠDeputy": 6632,
      "ĠCaptain": 6633,
      "Ġthing": 6634,
      "Ġ1900": 6635,
      "ĠDVD": 6636,
      "ĠNag": 6637,
      "rowd": 6638,
      "ĠQuebec": 6639,
      "Ġillness": 6640,
      "ĠForest": 6641,
      "aling": 6642,
      "odox": 6643,
      "ĠKaz": 6644,
      "Ġtrav": 6645,
      "enez": 6646,
      "Ġengines": 6647,
      "hatt": 6648,
      "Ġrow": 6649,
      "Ġfunctions": 6650,
      "ĠLabor": 6651,
      "Ġapproach": 6652,
      "Ġviolence": 6653,
      "bassador": 6654,
      "bar": 6655,
      "wick": 6656,
      "ĠCambridge": 6657,
      "Rich": 6658,
      "ĠRights": 6659,
      "iable": 6660,
      "Ġresulting": 6661,
      "Ġoccupied": 6662,
      "ĠHampshire": 6663,
      "ĠRoy": 6664,
      "ĠAlaska": 6665,
      "ĠStanley": 6666,
      "Ġconqu": 6667,
      "Ġoccurs": 6668,
      "',": 6669,
      "Ġnomination": 6670,
      "nel": 6671,
      "onde": 6672,
      "Ġdescribe": 6673,
      "Ġforests": 6674,
      "Ġpurchased": 6675,
      "ĠCost": 6676,
      "Ġconsec": 6677,
      "soft": 6678,
      "Ġusers": 6679,
      "ĠLawrence": 6680,
      "Sch": 6681,
      "life": 6682,
      "ĠPass": 6683,
      "aren": 6684,
      "Ġvehicles": 6685,
      "Ġstock": 6686,
      "ĠWy": 6687,
      "poses": 6688,
      "Ġsolid": 6689,
      "EC": 6690,
      "ĠTar": 6691,
      "Ġinstru": 6692,
      "Ġclean": 6693,
      "Ġfocused": 6694,
      "Ġax": 6695,
      "Ġ64": 6696,
      "Ġiniti": 6697,
      "ĠBaseball": 6698,
      "Ġstrength": 6699,
      "56": 6700,
      "ĠBat": 6701,
      "imore": 6702,
      "ĠLegisl": 6703,
      "oj": 6704,
      "Ġmis": 6705,
      "Ġconstant": 6706,
      "Ġ33": 6707,
      "ĠKennedy": 6708,
      "Ġdies": 6709,
      "ĠAst": 6710,
      "97": 6711,
      "Ġbishop": 6712,
      "ĠScient": 6713,
      "ĠEarl": 6714,
      "Ġinvasion": 6715,
      "Ġclassical": 6716,
      "gency": 6717,
      "ĠWeb": 6718,
      "urname": 6719,
      "Ġdepart": 6720,
      "ĠColl": 6721,
      "Ġvoted": 6722,
      "Ġprotest": 6723,
      "fe": 6724,
      "Ġguard": 6725,
      "ĠUpper": 6726,
      "ĠMoore": 6727,
      "ĠTechnology": 6728,
      "uerto": 6729,
      "law": 6730,
      "Ġwealth": 6731,
      "Ġbackground": 6732,
      "ĠLank": 6733,
      "uster": 6734,
      "Ġscoring": 6735,
      "Ġmedicine": 6736,
      "Ġprovinces": 6737,
      "olt": 6738,
      "Ġpresence": 6739,
      "Ġsurgery": 6740,
      "onym": 6741,
      "Ġreports": 6742,
      "Ġceremony": 6743,
      "rome": 6744,
      "ĠAthlet": 6745,
      "adi": 6746,
      "Ġrot": 6747,
      "Ġunderstand": 6748,
      "anny": 6749,
      "Ġproperties": 6750,
      "otte": 6751,
      "LA": 6752,
      "mpt": 6753,
      "rin": 6754,
      "Des": 6755,
      "Mart": 6756,
      "oca": 6757,
      "Ġexplos": 6758,
      "Ġthousands": 6759,
      "arus": 6760,
      "Ġbatter": 6761,
      "Ġdoll": 6762,
      "ĠNorwegian": 6763,
      "iginal": 6764,
      "ĠGulf": 6765,
      "Ġlect": 6766,
      "Ġunable": 6767,
      "Ġdeaths": 6768,
      "Ġdecre": 6769,
      "Ġhistorian": 6770,
      "aire": 6771,
      "Ġidentity": 6772,
      "Ġhomes": 6773,
      "Ġinstruments": 6774,
      "ĠCommonwealth": 6775,
      "Ġdates": 6776,
      "ĠJordan": 6777,
      "ĠVerm": 6778,
      "Ġlooks": 6779,
      "Ġimmigr": 6780,
      "ho": 6781,
      "ĠGil": 6782,
      "Ġvoc": 6783,
      "Ġmaintain": 6784,
      "ĠHoward": 6785,
      "ĠMiller": 6786,
      "ĠGir": 6787,
      "fully": 6788,
      "Ġnecessary": 6789,
      "Paul": 6790,
      "Ã¸": 6791,
      "oty": 6792,
      "Ġedge": 6793,
      "Ġthrow": 6794,
      "ĠBible": 6795,
      "Ġshell": 6796,
      "ĠHo": 6797,
      "aked": 6798,
      "nie": 6799,
      "ĠAzerbai": 6800,
      "Ġbeet": 6801,
      "Ġbuy": 6802,
      "rell": 6803,
      "Ġpicture": 6804,
      "alleng": 6805,
      "Ġfrogs": 6806,
      "Ġfranchise": 6807,
      "ĠHal": 6808,
      "ashi": 6809,
      "ĠProt": 6810,
      "Ġseparated": 6811,
      "ĠRobinson": 6812,
      "Ġorchestra": 6813,
      "Ġavoid": 6814,
      "Before": 6815,
      "Ġ1912": 6816,
      "ogether": 6817,
      "Ġstructures": 6818,
      "Ġveget": 6819,
      "Ġrival": 6820,
      "Ġpersonality": 6821,
      "Ġtennis": 6822,
      "ĠProgram": 6823,
      "ĠSquare": 6824,
      "haps": 6825,
      "ĠRio": 6826,
      "ĠMicro": 6827,
      "ĠShah": 6828,
      "wise": 6829,
      "Ð°": 6830,
      "ĠRose": 6831,
      "ache": 6832,
      "Ġnormally": 6833,
      "cell": 6834,
      "Ġmist": 6835,
      "ĠTen": 6836,
      "uting": 6837,
      "Ġearthqu": 6838,
      "Ġdensity": 6839,
      "ĠMP": 6840,
      "Ġsuicide": 6841,
      "iami": 6842,
      "Ġinvented": 6843,
      "Ġslightly": 6844,
      "South": 6845,
      "axy": 6846,
      "Ġshortly": 6847,
      "Ġglobal": 6848,
      "Ġadvant": 6849,
      "Ġlyrics": 6850,
      "oes": 6851,
      "ĠHeart": 6852,
      "Ġrang": 6853,
      "Ġexisting": 6854,
      "ĠEgyptian": 6855,
      "Ġcolour": 6856,
      "Ġreturning": 6857,
      "Ġsurvived": 6858,
      "Ġallowing": 6859,
      "Ġhappens": 6860,
      "ĠRa": 6861,
      "Ġimplement": 6862,
      "Ġfeed": 6863,
      "stitutions": 6864,
      "ĠRober": 6865,
      "Ġprize": 6866,
      "Ġpilot": 6867,
      "resents": 6868,
      "ologists": 6869,
      "ĠLabour": 6870,
      "ĠWrestling": 6871,
      "bu": 6872,
      "Ġmap": 6873,
      "ĠTemple": 6874,
      "ĠJacob": 6875,
      "iner": 6876,
      "oured": 6877,
      "ĠTig": 6878,
      "rip": 6879,
      "Ġoppon": 6880,
      "Ġexpress": 6881,
      "Ġauthorities": 6882,
      "ĠKl": 6883,
      "Ġdifference": 6884,
      "Ġeveryone": 6885,
      "ilip": 6886,
      "Ġ34": 6887,
      "osphere": 6888,
      "Ġbra": 6889,
      "ĠNintendo": 6890,
      "oyd": 6891,
      "called": 6892,
      "Ġhired": 6893,
      "Ġresources": 6894,
      "While": 6895,
      "Ġdrugs": 6896,
      "Ġrelatively": 6897,
      "ĠClinton": 6898,
      "Ġuser": 6899,
      "ĠAtlanta": 6900,
      "ĠIV": 6901,
      "Ġ38": 6902,
      "Ġadvanced": 6903,
      "dy": 6904,
      "dess": 6905,
      "yard": 6906,
      "ĠTel": 6907,
      "otten": 6908,
      "uda": 6909,
      "abet": 6910,
      "Ġrelations": 6911,
      "ĠMontreal": 6912,
      "boy": 6913,
      "Ġ1910": 6914,
      "imens": 6915,
      "Ġnovels": 6916,
      "ĠWalter": 6917,
      "96": 6918,
      "Ġthick": 6919,
      "Ġvide": 6920,
      "Ġrevolution": 6921,
      "ĠInternet": 6922,
      "Ġlat": 6923,
      "Ġlung": 6924,
      "Ġborders": 6925,
      "ĠMuslims": 6926,
      "Ġinaug": 6927,
      "Ġchampions": 6928,
      "Ġ37": 6929,
      "Ġsuppor": 6930,
      "Ġromantic": 6931,
      "chi": 6932,
      "aho": 6933,
      "Ġopin": 6934,
      "Ġdomestic": 6935,
      "zh": 6936,
      "Äį": 6937,
      "alem": 6938,
      "ĠSix": 6939,
      "uki": 6940,
      "ĠCommunist": 6941,
      "Ġwalls": 6942,
      "ferences": 6943,
      "ĠPalace": 6944,
      "ĠPeters": 6945,
      "itter": 6946,
      "Ġmel": 6947,
      "elson": 6948,
      "Ġobserv": 6949,
      "uj": 6950,
      "ĠFle": 6951,
      "Ġpolic": 6952,
      "Ġobtained": 6953,
      "endment": 6954,
      "ĠYouth": 6955,
      "Ġrepresents": 6956,
      "Ġopposition": 6957,
      "ĠLeb": 6958,
      "Ġchalleng": 6959,
      "Ġterror": 6960,
      "Ġpainted": 6961,
      "Ġhotel": 6962,
      "leveland": 6963,
      "Ġprincipal": 6964,
      "agen": 6965,
      "Ġjobs": 6966,
      "Ġphilosophy": 6967,
      "IC": 6968,
      "rete": 6969,
      "Ġsave": 6970,
      "stream": 6971,
      "ĠGard": 6972,
      "aved": 6973,
      "uccess": 6974,
      "ĠAdam": 6975,
      "Ġpainter": 6976,
      "ĠJunior": 6977,
      "dale": 6978,
      "Ġrecomm": 6979,
      "Ġcausing": 6980,
      "Ġhour": 6981,
      "Ġvolume": 6982,
      "TC": 6983,
      "Ġsnow": 6984,
      "ingen": 6985,
      "ingham": 6986,
      "thodox": 6987,
      "Ġdegrees": 6988,
      "ĠSaudi": 6989,
      "Ġmental": 6990,
      "Ġseek": 6991,
      "Ġsoil": 6992,
      "Ġcalendar": 6993,
      "ĠNazi": 6994,
      "ĠParalympics": 6995,
      "Ġwrong": 6996,
      "ĠYug": 6997,
      "ĠHindu": 6998,
      "ĠDC": 6999,
      "ples": 7000,
      "Ġemot": 7001,
      "mi": 7002,
      "rum": 7003,
      "omew": 7004,
      "eland": 7005,
      "ĠLive": 7006,
      "ulate": 7007,
      "ext": 7008,
      "Ġroads": 7009,
      "Ġboat": 7010,
      "Ġregarded": 7011,
      "ĠBusiness": 7012,
      "car": 7013,
      "apted": 7014,
      "Ġdescribes": 7015,
      "ĠDenmark": 7016,
      "racy": 7017,
      "ulty": 7018,
      "di": 7019,
      "oti": 7020,
      "Ġelimin": 7021,
      "June": 7022,
      "bell": 7023,
      "ifically": 7024,
      "ateur": 7025,
      "ĠStra": 7026,
      "Ġachieved": 7027,
      "Ġchurches": 7028,
      "Ġholding": 7029,
      "Ġseventh": 7030,
      "ĠWWE": 7031,
      "Ġvent": 7032,
      "Ġtrained": 7033,
      "Ġcalcul": 7034,
      "ti": 7035,
      "Us": 7036,
      "Ġdivorced": 7037,
      "Ġocean": 7038,
      "ĠTurn": 7039,
      "Ġcontemporary": 7040,
      "Ġapart": 7041,
      "isne": 7042,
      "Ġwins": 7043,
      "ĠCas": 7044,
      "Ġselection": 7045,
      "ĠBuddh": 7046,
      "Tr": 7047,
      "eless": 7048,
      "ownt": 7049,
      "Ġhighway": 7050,
      "Ġdeveloping": 7051,
      "ĠOrchestra": 7052,
      "Ã¨re": 7053,
      "ĠHarris": 7054,
      "hat": 7055,
      "ecutive": 7056,
      "Ġdefense": 7057,
      "Ġelectronic": 7058,
      "nia": 7059,
      "ushed": 7060,
      "ĠRen": 7061,
      "aste": 7062,
      "ucks": 7063,
      "ĠArn": 7064,
      "pedition": 7065,
      "ĠCentury": 7066,
      "Ġtreated": 7067,
      "Ġ1916": 7068,
      "ourney": 7069,
      "Ġuniversities": 7070,
      "ĠSunday": 7071,
      "achelor": 7072,
      "ĠUtah": 7073,
      "oen": 7074,
      "ĠNar": 7075,
      "ĠEP": 7076,
      "Ġvalues": 7077,
      "ĠLiberal": 7078,
      "Ġselling": 7079,
      "ĠMoon": 7080,
      "Ġ85": 7081,
      "Ġtrou": 7082,
      "ĠOt": 7083,
      "Ġtranslated": 7084,
      "%.": 7085,
      "ĠAllen": 7086,
      "Ġzone": 7087,
      "Ġoxygen": 7088,
      "78": 7089,
      "Ġgoods": 7090,
      "Ġapproved": 7091,
      "Ġfrequently": 7092,
      "illery": 7093,
      "Ġplate": 7094,
      "ĠPatrick": 7095,
      "movie": 7096,
      "sa": 7097,
      "Ġremember": 7098,
      "ĠPalest": 7099,
      "etime": 7100,
      "yd": 7101,
      "aron": 7102,
      "Ġshowing": 7103,
      "Born": 7104,
      "then": 7105,
      "Ġsurname": 7106,
      "tha": 7107,
      "Ġcod": 7108,
      "uration": 7109,
      "ĠGab": 7110,
      "avel": 7111,
      "Ġrecon": 7112,
      "Ġcandidates": 7113,
      "ĠImperial": 7114,
      "Ġcomedian": 7115,
      "Ġworth": 7116,
      "Ġresc": 7117,
      "atherine": 7118,
      "ĠPitts": 7119,
      "Ġcorrespond": 7120,
      "National": 7121,
      "alty": 7122,
      "Ġwheel": 7123,
      "ielder": 7124,
      "Ġportion": 7125,
      "Ġwaters": 7126,
      "ĠBetween": 7127,
      "Ġinterested": 7128,
      "Ġcharts": 7129,
      "ĠTan": 7130,
      "ĠPuerto": 7131,
      "rane": 7132,
      "Ġlegend": 7133,
      "ĠUkrainian": 7134,
      "PS": 7135,
      "only": 7136,
      "ĠWolf": 7137,
      "Ġencoura": 7138,
      "Ġ42": 7139,
      "Ġformal": 7140,
      "Ġincorporated": 7141,
      "town": 7142,
      "aints": 7143,
      "evin": 7144,
      "Ġrepresentative": 7145,
      "Ġeasy": 7146,
      "Ġtheore": 7147,
      "ĠHaut": 7148,
      "Ġaccused": 7149,
      "Ġpriest": 7150,
      "Eng": 7151,
      "gi": 7152,
      "Ġfired": 7153,
      "Ġsynd": 7154,
      "Ġsignal": 7155,
      "ĠBaltimore": 7156,
      "Michael": 7157,
      "September": 7158,
      "Ġflowers": 7159,
      "Em": 7160,
      "ĠNav": 7161,
      "ĠSecurity": 7162,
      "Ġtend": 7163,
      "ĠLin": 7164,
      "Black": 7165,
      "Ġgain": 7166,
      "igration": 7167,
      "Ġoffices": 7168,
      "Ġdescent": 7169,
      "Ġreference": 7170,
      "Ġsouthwestern": 7171,
      "Ġviews": 7172,
      "Ġmoment": 7173,
      "March": 7174,
      "heel": 7175,
      "Ġdoor": 7176,
      "Ġopposed": 7177,
      "Ġoccasion": 7178,
      "igenous": 7179,
      "Ġmaximum": 7180,
      "hattan": 7181,
      "ban": 7182,
      "January": 7183,
      "sm": 7184,
      "eline": 7185,
      "ĠBund": 7186,
      "ĠFur": 7187,
      "ĠLieutenant": 7188,
      "uma": 7189,
      "abi": 7190,
      "Ġsequel": 7191,
      "Ġdemonstr": 7192,
      "July": 7193,
      "Ġmotion": 7194,
      "oly": 7195,
      "ĠCarter": 7196,
      "Ġprotected": 7197,
      "borough": 7198,
      "ĠCommunity": 7199,
      "Ġstanding": 7200,
      "ĠFranklin": 7201,
      "adow": 7202,
      "Ġcriminal": 7203,
      "IV": 7204,
      "Per": 7205,
      "Ġconclud": 7206,
      "Ġconsisted": 7207,
      "Mont": 7208,
      "ayan": 7209,
      "Ġseg": 7210,
      "Ġplanning": 7211,
      "Ġboys": 7212,
      "Ġprepar": 7213,
      "Ġpregn": 7214,
      "Ġconnection": 7215,
      "Ġfalls": 7216,
      "rak": 7217,
      "Ġmoves": 7218,
      "Ġinvited": 7219,
      "Ġsounds": 7220,
      "do": 7221,
      "ĠPoint": 7222,
      "ĠRoute": 7223,
      "Ġ48": 7224,
      "ĠIsraeli": 7225,
      "],": 7226,
      "Ġrating": 7227,
      "Ġ49": 7228,
      "Ġorders": 7229,
      "Ġhits": 7230,
      "ĠMarie": 7231,
      "ĠÎ": 7232,
      "Ġquant": 7233,
      "Ġsupporting": 7234,
      "ĠTransport": 7235,
      "Ġmicro": 7236,
      "King": 7237,
      "fish": 7238,
      "oria": 7239,
      "Ġgender": 7240,
      "Ġprogramme": 7241,
      "ĠNFL": 7242,
      "iang": 7243,
      "ĠStr": 7244,
      "ĠChairman": 7245,
      "prise": 7246,
      "Ġskills": 7247,
      "pects": 7248,
      "ĠCra": 7249,
      "ĠCleveland": 7250,
      "Ġunus": 7251,
      "iar": 7252,
      "Ġqualified": 7253,
      "Ġrise": 7254,
      "Ġproviding": 7255,
      "ĠWelsh": 7256,
      "Ġliquid": 7257,
      "Ġexclus": 7258,
      "Ġdangerous": 7259,
      "ĠAisne": 7260,
      "ĠVenez": 7261,
      "Ġcharged": 7262,
      "Ġpassenger": 7263,
      "ĠHistoric": 7264,
      "yles": 7265,
      "ĠCalv": 7266,
      "while": 7267,
      "Jack": 7268,
      "Res": 7269,
      "ogen": 7270,
      "Ġsevere": 7271,
      "ĠForces": 7272,
      "Ġpoem": 7273,
      "Ã¶r": 7274,
      "Ġcycle": 7275,
      "raska": 7276,
      "ĠNort": 7277,
      "ctoral": 7278,
      "October": 7279,
      "Ġrepro": 7280,
      "ĠBarn": 7281,
      "oves": 7282,
      "ships": 7283,
      "Ġeffective": 7284,
      "ĠIndonesia": 7285,
      "allas": 7286,
      "Ġcrash": 7287,
      "Ġstands": 7288,
      "Ġpatients": 7289,
      "Ġliterary": 7290,
      "ĠHouston": 7291,
      "Ang": 7292,
      "Ġdram": 7293,
      "Ġcolors": 7294,
      "Ġsympt": 7295,
      "ĠAfghanistan": 7296,
      "iu": 7297,
      "ĠCook": 7298,
      "ĠKings": 7299,
      "ocol": 7300,
      "Alpes": 7301,
      "cious": 7302,
      "rim": 7303,
      "onoun": 7304,
      "Ġwings": 7305,
      "Ġbran": 7306,
      "ĠWag": 7307,
      "Ġconcer": 7308,
      "Ġactors": 7309,
      "Ġtrip": 7310,
      "ĠQueensland": 7311,
      "ES": 7312,
      "Ġdaughters": 7313,
      "Ġexistence": 7314,
      "Ġwrestling": 7315,
      "ĠFormula": 7316,
      "Gl": 7317,
      "Ġtribut": 7318,
      "Ġdiagnosed": 7319,
      "Dan": 7320,
      "Har": 7321,
      "star": 7322,
      "ipur": 7323,
      "ĠBelgian": 7324,
      "Ġcourts": 7325,
      "Ġdialect": 7326,
      "ÃŃn": 7327,
      "Ġextremely": 7328,
      "mers": 7329,
      "ĠClark": 7330,
      "oom": 7331,
      "Ġmonarch": 7332,
      "ĠMadrid": 7333,
      "Ġpremiered": 7334,
      "ĠMiami": 7335,
      "ĠGene": 7336,
      "ĠProject": 7337,
      "related": 7338,
      "Ġillegal": 7339,
      "North": 7340,
      "ĠHamilton": 7341,
      "Ġadults": 7342,
      "ĠWhit": 7343,
      "vard": 7344,
      "inter": 7345,
      "agues": 7346,
      "Ġchance": 7347,
      "iversary": 7348,
      "ĠSimon": 7349,
      "Sam": 7350,
      "Ġload": 7351,
      "Ġnom": 7352,
      "antasy": 7353,
      "ĠAlan": 7354,
      "Ġsurrounded": 7355,
      "Ġprice": 7356,
      "thlete": 7357,
      "Ġteach": 7358,
      "phone": 7359,
      "Ġtrust": 7360,
      "Ġroof": 7361,
      "active": 7362,
      "aware": 7363,
      "Ġanything": 7364,
      "ĠParish": 7365,
      "cano": 7366,
      "ĠVar": 7367,
      "Ġattempted": 7368,
      "ĠRoc": 7369,
      "Ġbroken": 7370,
      "ĠAnderson": 7371,
      "Ġeverything": 7372,
      "ĠPrincess": 7373,
      "idges": 7374,
      "Ġweak": 7375,
      "ĠTrust": 7376,
      "67": 7377,
      "Ġstages": 7378,
      "ista": 7379,
      "ieties": 7380,
      "Ġcorrect": 7381,
      "Ġhousing": 7382,
      "ĠYugoslav": 7383,
      "Ġreality": 7384,
      "Ġcommitted": 7385,
      "Ġ55": 7386,
      "ĠJuan": 7387,
      "ĠCommand": 7388,
      "Mc": 7389,
      "ss": 7390,
      "ÅŁ": 7391,
      "Ġgrown": 7392,
      "Ġjump": 7393,
      "ĠAmong": 7394,
      "ĠGordon": 7395,
      "ĠJournal": 7396,
      "Ġeducational": 7397,
      "Hen": 7398,
      "Ġbudget": 7399,
      "aku": 7400,
      "ĠChampions": 7401,
      "ampton": 7402,
      "Ã©s": 7403,
      "etty": 7404,
      "Ġimportance": 7405,
      "Ġimprove": 7406,
      "San": 7407,
      "track": 7408,
      "Ġgene": 7409,
      "ieval": 7410,
      "oda": 7411,
      "Ġuncle": 7412,
      "ĠAlexand": 7413,
      "Ġresign": 7414,
      "Ġturns": 7415,
      "Ġprotein": 7416,
      "ĠObama": 7417,
      "Äĥ": 7418,
      "bul": 7419,
      "inus": 7420,
      "Ġimages": 7421,
      "ĠPhys": 7422,
      "ĠFrederick": 7423,
      "Ġreaching": 7424,
      "ĠJam": 7425,
      "Ġproved": 7426,
      "Ġknew": 7427,
      "Ġflo": 7428,
      "GB": 7429,
      "ĠHans": 7430,
      "ĠDem": 7431,
      "ĠAlbum": 7432,
      "Ġcontrast": 7433,
      "Ġindic": 7434,
      "Ġphr": 7435,
      "scape": 7436,
      "Ġdogs": 7437,
      "Ġborough": 7438,
      "long": 7439,
      "oons": 7440,
      "ĠDal": 7441,
      "ĠÄ": 7442,
      "Ġreduce": 7443,
      "ĠFern": 7444,
      "ules": 7445,
      "amps": 7446,
      "ĠManhattan": 7447,
      "Ġapplication": 7448,
      "tery": 7449,
      "anton": 7450,
      "Ġtribes": 7451,
      "ĠIranian": 7452,
      "hyth": 7453,
      "81": 7454,
      "Val": 7455,
      "org": 7456,
      "Ġgall": 7457,
      "Ġclimb": 7458,
      "Ġcrowd": 7459,
      "ĠTower": 7460,
      "ĠHit": 7461,
      "ĠChart": 7462,
      "ranean": 7463,
      "hammad": 7464,
      "ĠApple": 7465,
      "Ġattempts": 7466,
      "Ġinstitutions": 7467,
      "Ġcaught": 7468,
      "itals": 7469,
      "Ġfer": 7470,
      "iants": 7471,
      "ellite": 7472,
      "ĠPa": 7473,
      "Ġgay": 7474,
      "chell": 7475,
      "Ġmedium": 7476,
      "Ġadvis": 7477,
      "ĠMetro": 7478,
      "Back": 7479,
      "PC": 7480,
      "orage": 7481,
      "ĠHug": 7482,
      "udden": 7483,
      "Ġadapted": 7484,
      "December": 7485,
      "Ġbirthday": 7486,
      "allel": 7487,
      "fits": 7488,
      "via": 7489,
      "ĠLt": 7490,
      "Ġmedals": 7491,
      "Ġdemand": 7492,
      "ĠVenezuel": 7493,
      "lan": 7494,
      "feld": 7495,
      "ĠBrian": 7496,
      "Ġdepression": 7497,
      "Ġsongwriter": 7498,
      "Ġdecor": 7499,
      "ĠBaron": 7500,
      "Me": 7501,
      "night": 7502,
      "Ð¾": 7503,
      "Ġtor": 7504,
      "Ġgiant": 7505,
      "raham": 7506,
      "Ġexam": 7507,
      "Ġcomputers": 7508,
      "Ġ39": 7509,
      "Ġpasses": 7510,
      "Ġelectricity": 7511,
      "Ġalcohol": 7512,
      "ÃŁ": 7513,
      "iden": 7514,
      "igade": 7515,
      "ĠDu": 7516,
      "Ġatm": 7517,
      "Ġneut": 7518,
      "Ġski": 7519,
      "Ġcombination": 7520,
      "Ġmathematics": 7521,
      "olar": 7522,
      "Ġsynt": 7523,
      "owntown": 7524,
      "andom": 7525,
      "Ġreceiving": 7526,
      "âĢĿ.": 7527,
      "har": 7528,
      "ĠAle": 7529,
      "Ġproducing": 7530,
      "Ġaffili": 7531,
      "ĠStudies": 7532,
      "November": 7533,
      "pir": 7534,
      "Ġsort": 7535,
      "Ġsettle": 7536,
      "Ġtim": 7537,
      "Ġcrown": 7538,
      "Ġbey": 7539,
      "Ġpropos": 7540,
      "ĠShort": 7541,
      "ĠConfederate": 7542,
      "Co": 7543,
      "ĠInstead": 7544,
      "Ġattract": 7545,
      "Ġcharges": 7546,
      "ĠBeat": 7547,
      "ĠHungarian": 7548,
      "April": 7549,
      "Ġflying": 7550,
      "Ġtoward": 7551,
      "ĠStaff": 7552,
      "Ġarmed": 7553,
      "iko": 7554,
      "ĠPlan": 7555,
      "ĠNepal": 7556,
      "rm": 7557,
      "orer": 7558,
      "Ġscenes": 7559,
      "Ġinsects": 7560,
      "Alex": 7561,
      "isp": 7562,
      "ĠMit": 7563,
      "iday": 7564,
      "Ġ1915": 7565,
      "Ġimpr": 7566,
      "Ġderived": 7567,
      "ĠMatthew": 7568,
      "ĠCare": 7569,
      "rac": 7570,
      "2011": 7571,
      "ML": 7572,
      "come": 7573,
      "ĠSound": 7574,
      "Ġslaves": 7575,
      "Ġfreedom": 7576,
      "Ġadvance": 7577,
      "Ġwinners": 7578,
      "aza": 7579,
      "Ġyoungest": 7580,
      "blast": 7581,
      "bishop": 7582,
      "Ġathlete": 7583,
      "Ġped": 7584,
      "Ġchoice": 7585,
      "Ġdistingu": 7586,
      "Ġmulti": 7587,
      "ĠBuilding": 7588,
      "ĠArgentine": 7589,
      "Ġgang": 7590,
      "Ġmarry": 7591,
      "Ġdevices": 7592,
      "Ġenvironmental": 7593,
      "Ġstrike": 7594,
      "ĠMalaysia": 7595,
      "Ġvideos": 7596,
      "83": 7597,
      "Ġcous": 7598,
      "Ġbed": 7599,
      "ĠKey": 7600,
      "Ġtechnical": 7601,
      "mingham": 7602,
      "ĠHungary": 7603,
      "asia": 7604,
      "Ġhip": 7605,
      "istical": 7606,
      "Ġconsult": 7607,
      "Ġsubs": 7608,
      "Ġvisual": 7609,
      "Ġsituated": 7610,
      "Ġconverted": 7611,
      "Ġbeyond": 7612,
      "Ġsure": 7613,
      "Ġce": 7614,
      "Ġcatch": 7615,
      "Ġhors": 7616,
      "ĠWell": 7617,
      "who": 7618,
      "tes": 7619,
      "ĠWes": 7620,
      "ĠChristopher": 7621,
      "ĠExecutive": 7622,
      "III": 7623,
      "Ġ+": 7624,
      "Ġcas": 7625,
      "ĠRap": 7626,
      "Ġcongress": 7627,
      "ĠLev": 7628,
      "Ġsed": 7629,
      "Ġcrop": 7630,
      "olished": 7631,
      "ĠBerg": 7632,
      "Ġrugby": 7633,
      "ource": 7634,
      "Ġpassing": 7635,
      "Ġclassification": 7636,
      "Ġapparent": 7637,
      "Ġfactory": 7638,
      "ĠChildren": 7639,
      "Ġcontaining": 7640,
      "Ġreserve": 7641,
      "Ġrebu": 7642,
      "sters": 7643,
      "ĠFront": 7644,
      "ĠYour": 7645,
      "Ġsurvey": 7646,
      "Ġrailroad": 7647,
      "Bel": 7648,
      "bal": 7649,
      "burn": 7650,
      "Ġcinem": 7651,
      "opes": 7652,
      "allow": 7653,
      "Ġobserved": 7654,
      "din": 7655,
      "igation": 7656,
      "Ġseconds": 7657,
      "ĠOrthodox": 7658,
      "Ġsuccessfully": 7659,
      "Ġvirt": 7660,
      "ĠAlfred": 7661,
      "Ġclothing": 7662,
      "Ġ1911": 7663,
      "rif": 7664,
      "Ġconvers": 7665,
      "Ġlocality": 7666,
      "Ġpromote": 7667,
      "Ġtribe": 7668,
      "Mic": 7669,
      "ĠSem": 7670,
      "ĠNich": 7671,
      "2017": 7672,
      "Ã©t": 7673,
      "Ġtypical": 7674,
      "ĠTerritory": 7675,
      "asketball": 7676,
      "ĠBatt": 7677,
      "Ġentry": 7678,
      "ĠCooper": 7679,
      "songwriter": 7680,
      "Ġalle": 7681,
      "Ġcombat": 7682,
      "Atlant": 7683,
      "WA": 7684,
      "omes": 7685,
      "ĠNa": 7686,
      "ĠAncient": 7687,
      "Ġdecades": 7688,
      "Ġfacility": 7689,
      "ĠStudios": 7690,
      "ĠRem": 7691,
      "Ġagency": 7692,
      "Ġcolony": 7693,
      "iverpool": 7694,
      "Ġfactors": 7695,
      "Ġbehavi": 7696,
      "ĠPittsburgh": 7697,
      "BE": 7698,
      "Following": 7699,
      "Ġmoth": 7700,
      "ĠLas": 7701,
      "Ġ88": 7702,
      "Ġdetermined": 7703,
      "ĠDiego": 7704,
      "run": 7705,
      "Ġhill": 7706,
      "ogne": 7707,
      "ĠConvention": 7708,
      "ĠAdams": 7709,
      "election": 7710,
      "SE": 7711,
      "ĠFinal": 7712,
      "Ġsubst": 7713,
      "Ġexpansion": 7714,
      "Ġlimit": 7715,
      "Ġmessage": 7716,
      "Tom": 7717,
      "Ġbaby": 7718,
      "ĠKam": 7719,
      "Ġdivisions": 7720,
      "69": 7721,
      "How": 7722,
      "ouver": 7723,
      "ĠBi": 7724,
      "otton": 7725,
      "Ġprefer": 7726,
      "ĠGrant": 7727,
      "iterranean": 7728,
      "communes": 7729,
      "Ġdeleg": 7730,
      "Ġsupposed": 7731,
      "Ġdifferences": 7732,
      "ĠMilan": 7733,
      "ĠIdaho": 7734,
      "57": 7735,
      "Ġsalt": 7736,
      "enburg": 7737,
      "ĠTun": 7738,
      "ĠDream": 7739,
      "ĠSeattle": 7740,
      "Ġentirely": 7741,
      "partement": 7742,
      "Ġfan": 7743,
      "ĠPradesh": 7744,
      "Ġjoining": 7745,
      "utation": 7746,
      "Ġrecognition": 7747,
      "Ġroutes": 7748,
      "Ġfixed": 7749,
      "East": 7750,
      "ĠAge": 7751,
      "Ġlocations": 7752,
      "Ġauth": 7753,
      "Ġeducated": 7754,
      "host": 7755,
      "Ġplot": 7756,
      "Ġjur": 7757,
      "Ġowners": 7758,
      "Ġcompetitions": 7759,
      "Ġpopularity": 7760,
      "Ã¶n": 7761,
      "Ġexperien": 7762,
      "Ġalphabet": 7763,
      "Ġbanks": 7764,
      "Ġmobile": 7765,
      "leton": 7766,
      "ĠEag": 7767,
      "Ġresistance": 7768,
      "ĠAnthony": 7769,
      "Ġpublication": 7770,
      "Ġrif": 7771,
      "from": 7772,
      "Ġbigger": 7773,
      "Ġinvestigation": 7774,
      "Ġopportunity": 7775,
      "ĠCalvados": 7776,
      "ĠCBS": 7777,
      "Ġ1913": 7778,
      "Ġentitled": 7779,
      "Ġhorror": 7780,
      "Pop": 7781,
      "ĠAud": 7782,
      "ĠNik": 7783,
      "Ġengaged": 7784,
      "Ġvolunte": 7785,
      "sch": 7786,
      "rec": 7787,
      "esl": 7788,
      "ĠAM": 7789,
      "ĠRick": 7790,
      "apolis": 7791,
      "text": 7792,
      "ibl": 7793,
      "Ġsecretary": 7794,
      "Ġrepeated": 7795,
      "ĠNebraska": 7796,
      "rik": 7797,
      "Ġbusinesses": 7798,
      "Ġreading": 7799,
      "Ġpurposes": 7800,
      "ĠCathedral": 7801,
      "Ġinternal": 7802,
      "First": 7803,
      "ĠChampion": 7804,
      "Ġmovements": 7805,
      "Ġ44": 7806,
      "Ġinstall": 7807,
      "zi": 7808,
      "ĠCru": 7809,
      "ĠLyn": 7810,
      "Ġ47": 7811,
      "Ġsetting": 7812,
      "Ġsubjects": 7813,
      "asm": 7814,
      "ĠSeveral": 7815,
      "Ġnote": 7816,
      "Ġrocks": 7817,
      "Ġapplications": 7818,
      "ibbean": 7819,
      "ugs": 7820,
      "ographical": 7821,
      "Ġcoastal": 7822,
      "Ġcorner": 7823,
      "ĠPap": 7824,
      "Ġyards": 7825,
      "ublin": 7826,
      "aduate": 7827,
      "Ġfemin": 7828,
      "Ġcriticized": 7829,
      "Ġlaid": 7830,
      "idel": 7831,
      "ĠPrefecture": 7832,
      "Ġscheduled": 7833,
      "Ġmart": 7834,
      "ancell": 7835,
      "February": 7836,
      "á»": 7837,
      "unch": 7838,
      "Ġactual": 7839,
      "Station": 7840,
      "Ġchanging": 7841,
      "Ġpersons": 7842,
      "ĠMovement": 7843,
      "bus": 7844,
      "such": 7845,
      "inburgh": 7846,
      "Ġsend": 7847,
      "Ġcup": 7848,
      "icts": 7849,
      "ifer": 7850,
      "issance": 7851,
      "inosaur": 7852,
      "Ġcontained": 7853,
      "ĠWarner": 7854,
      "2000": 7855,
      "ĠBou": 7856,
      "Ġseems": 7857,
      "ĠStory": 7858,
      "Ġlooked": 7859,
      "ĠOttoman": 7860,
      "ĠPunj": 7861,
      "ĠMicrosoft": 7862,
      "Ġment": 7863,
      "ĠDick": 7864,
      "Ġapartment": 7865,
      "Ġgraduating": 7866,
      "George": 7867,
      "ĠCatal": 7868,
      "ĠAntonio": 7869,
      "stad": 7870,
      "ige": 7871,
      "Ġlocomot": 7872,
      "irds": 7873,
      "uing": 7874,
      "Ġtask": 7875,
      "Ġnations": 7876,
      "Ġleads": 7877,
      "Two": 7878,
      "Ġban": 7879,
      "ĠFellow": 7880,
      "Ġ46": 7881,
      "annes": 7882,
      "ĠPrinc": 7883,
      "ĠPhill": 7884,
      "ĠMilitary": 7885,
      "Ġvirus": 7886,
      "ĠAzerbaijan": 7887,
      "Dr": 7888,
      "ture": 7889,
      "Ġtorn": 7890,
      "ĠCre": 7891,
      "estyle": 7892,
      "ĠVik": 7893,
      "enses": 7894,
      "Ġfoundation": 7895,
      "Ġcelebrated": 7896,
      "Ġsymptoms": 7897,
      "Ġpictures": 7898,
      "Ġtools": 7899,
      "term": 7900,
      "aks": 7901,
      "Ġmeets": 7902,
      "Ġassass": 7903,
      "Ġarchae": 7904,
      "ĠErn": 7905,
      "ĠPeninsula": 7906,
      "Ġbranches": 7907,
      "auc": 7908,
      "ĠHum": 7909,
      "Ġgarden": 7910,
      "Ġstroke": 7911,
      "ĠRun": 7912,
      "ĠJay": 7913,
      "ĠInn": 7914,
      "Ġ77": 7915,
      "ĠSingh": 7916,
      "ĠDelhi": 7917,
      "Ġliked": 7918,
      "ĠMichel": 7919,
      "body": 7920,
      "ĠTit": 7921,
      "Ã©es": 7922,
      "ĠMediterranean": 7923,
      "Ġexisted": 7924,
      "Ġchampionships": 7925,
      "Lou": 7926,
      "ĠPur": 7927,
      "Ġconstitution": 7928,
      "Ġcompar": 7929,
      "Ġ95": 7930,
      "Richard": 7931,
      "ntil": 7932,
      "ĠAnim": 7933,
      "Ġfinishing": 7934,
      "Ġcrimes": 7935,
      "Ġelectrical": 7936,
      "Ġstudying": 7937,
      "dÃ©partement": 7938,
      "after": 7939,
      "east": 7940,
      "Ġfishing": 7941,
      "ĠModern": 7942,
      "ĠSin": 7943,
      "ogan": 7944,
      "Ġdiscover": 7945,
      "ipping": 7946,
      "Ġhang": 7947,
      "ĠTreat": 7948,
      "ĠBan": 7949,
      "Ġnothing": 7950,
      "angel": 7951,
      "Ġmeat": 7952,
      "cules": 7953,
      "Peter": 7954,
      "ĠJose": 7955,
      "ignated": 7956,
      "celona": 7957,
      "Ġhundreds": 7958,
      "Ġchoose": 7959,
      "Ġheavily": 7960,
      "Ġpool": 7961,
      "ĠRyan": 7962,
      "ĠSamuel": 7963,
      "84": 7964,
      "NC": 7965,
      "mat": 7966,
      "Ġsick": 7967,
      "Ġdan": 7968,
      "ĠNorm": 7969,
      "aba": 7970,
      "akespe": 7971,
      "Ġextensive": 7972,
      "ĠArabia": 7973,
      "Ġrestaurant": 7974,
      "Ġcru": 7975,
      "Ġupd": 7976,
      "ĠBrun": 7977,
      "Ġimproved": 7978,
      "Ġcomplications": 7979,
      "Aust": 7980,
      "cm": 7981,
      "ĠKan": 7982,
      "inea": 7983,
      "Ġclassic": 7984,
      "ĠWeek": 7985,
      "France": 7986,
      "Ġadvantage": 7987,
      "Ġsust": 7988,
      "ashed": 7989,
      "ĠSud": 7990,
      "ĠMaur": 7991,
      "):": 7992,
      "Ãī": 7993,
      "Ġmammals": 7994,
      "ĠVermont": 7995,
      "Ġmort": 7996,
      "Ġdeputy": 7997,
      "Ġchildhood": 7998,
      "Ġdesigner": 7999,
      "ĠCEO": 8000,
      "Ġcosts": 8001,
      "Ġ87": 8002,
      "Ġsuccessor": 8003,
      "Ġexhibition": 8004,
      "Ġfra": 8005,
      "Ġ1908": 8006,
      "ĠGirls": 8007,
      "Ġearthquake": 8008,
      ")\"": 8009,
      "Over": 8010,
      "pret": 8011,
      "Ġsections": 8012,
      "ĠVeg": 8013,
      "ĠIndians": 8014,
      "ĠMagazine": 8015,
      "urance": 8016,
      "ĠEvery": 8017,
      "ĠVinc": 8018,
      "Ġdisappe": 8019,
      "Ġimpl": 8020,
      "Ġtechniques": 8021,
      "Ġsugar": 8022,
      "Ġcolonial": 8023,
      "Ġbeautiful": 8024,
      "300": 8025,
      "Ġcore": 8026,
      "ĠBuff": 8027,
      "odium": 8028,
      "neum": 8029,
      "ĠReal": 8030,
      "ĠBroadway": 8031,
      "IT": 8032,
      "Ty": 8033,
      "Ġtheater": 8034,
      "ivor": 8035,
      "ĠDraft": 8036,
      "Ġchair": 8037,
      "essions": 8038,
      "ĠMarc": 8039,
      "Ġuseful": 8040,
      "Ġabandoned": 8041,
      "hard": 8042,
      "aman": 8043,
      "ulu": 8044,
      "ĠVis": 8045,
      "Ġbright": 8046,
      "62": 8047,
      "zburg": 8048,
      "Ġchess": 8049,
      "Ġhun": 8050,
      "ĠLow": 8051,
      "Ġplayoff": 8052,
      "Ġrespond": 8053,
      "akespeare": 8054,
      "Mal": 8055,
      "Ġcommunication": 8056,
      "ĠNorman": 8057,
      "Ġsequence": 8058,
      "ĠSilver": 8059,
      "Ġconsecutive": 8060,
      "bes": 8061,
      "ĠDanish": 8062,
      "Ġelse": 8063,
      "Ġfaced": 8064,
      "ĠNBC": 8065,
      "Ġphone": 8066,
      "Ġstandards": 8067,
      "Ġpromotion": 8068,
      "Ġwinds": 8069,
      "Ġpeaked": 8070,
      "Ġjunior": 8071,
      "ĠGon": 8072,
      "Ġanaly": 8073,
      "teenth": 8074,
      "Ġregul": 8075,
      "Art": 8076,
      "Ġphysics": 8077,
      "07": 8078,
      "jo": 8079,
      "ussia": 8080,
      "ĠRangers": 8081,
      "flow": 8082,
      "jamin": 8083,
      "Ġtick": 8084,
      "Ġsomew": 8085,
      "ĠDog": 8086,
      "Ġintelligence": 8087,
      "Ġoccas": 8088,
      "Ġ1890": 8089,
      "Ġgraduate": 8090,
      "ĠRoberts": 8091,
      "05": 8092,
      "ĠTrain": 8093,
      "ĠLanc": 8094,
      "rient": 8095,
      "riff": 8096,
      "ods": 8097,
      "ourses": 8098,
      "Ġsitcom": 8099,
      "Ġmissing": 8100,
      "usalem": 8101,
      "ĠGarden": 8102,
      "scar": 8103,
      "Ġconductor": 8104,
      "Ġargued": 8105,
      "ĠLoire": 8106,
      "64": 8107,
      "enos": 8108,
      "ĠOw": 8109,
      "illes": 8110,
      "ĠOnce": 8111,
      "Ġinher": 8112,
      "Ġgrad": 8113,
      "annels": 8114,
      "ocked": 8115,
      "Ġbacteria": 8116,
      "Hol": 8117,
      "Pas": 8118,
      "Ð¸": 8119,
      "ĠAcc": 8120,
      "Ġstatement": 8121,
      "ancouver": 8122,
      "Sim": 8123,
      "isis": 8124,
      "Ġwire": 8125,
      "ĠDue": 8126,
      "ĠEdinburgh": 8127,
      "fielder": 8128,
      "orp": 8129,
      "alion": 8130,
      "Ġmos": 8131,
      "sea": 8132,
      "Ġunderground": 8133,
      "Ġemperor": 8134,
      "Ġdiscovery": 8135,
      "Ġhelping": 8136,
      "Ġfleet": 8137,
      "Ġlinked": 8138,
      "Red": 8139,
      "ultan": 8140,
      "Ġreserv": 8141,
      "ĠServices": 8142,
      "Ġfilled": 8143,
      "icial": 8144,
      "ĠSA": 8145,
      "eta": 8146,
      "ĠEric": 8147,
      "oviÄĩ": 8148,
      "oba": 8149,
      "Ġaccur": 8150,
      "Thomas": 8151,
      "ĠCaribbean": 8152,
      "Ġpoems": 8153,
      "2007": 8154,
      "However": 8155,
      "repre": 8156,
      "Ġinvent": 8157,
      "ĠAgency": 8158,
      "ĠMuhammad": 8159,
      "including": 8160,
      "Sw": 8161,
      "point": 8162,
      "vo": 8163,
      "asure": 8164,
      "Ġbat": 8165,
      "ĠBry": 8166,
      "ĠFive": 8167,
      "ĠOblast": 8168,
      "Ġperhaps": 8169,
      "What": 8170,
      "Ġterritories": 8171,
      "asa": 8172,
      "Ġleaf": 8173,
      "Ġ89": 8174,
      "ducing": 8175,
      "Ġminute": 8176,
      "Ġclassified": 8177,
      "Ġcapture": 8178,
      "celand": 8179,
      "Ġcamera": 8180,
      "ĠAdministration": 8181,
      "Pat": 8182,
      "ĠCrown": 8183,
      "ĠManu": 8184,
      "Ġobl": 8185,
      "Ġquestions": 8186,
      "Super": 8187,
      "ĠBengal": 8188,
      "ĠDeb": 8189,
      "ĠThrough": 8190,
      "Ġattached": 8191,
      "Ġcamps": 8192,
      "Ġsentence": 8193,
      "ĠRegiment": 8194,
      "ĠBirmingham": 8195,
      "reprene": 8196,
      "dis": 8197,
      "Ġdating": 8198,
      "ĠSky": 8199,
      "ĠHere": 8200,
      "Ġdriving": 8201,
      "ĠPeace": 8202,
      "Ġemergency": 8203,
      "ĠBruce": 8204,
      "Cal": 8205,
      "SS": 8206,
      "ĠABC": 8207,
      "ĠAnna": 8208,
      "Ġstrateg": 8209,
      "Ġsoccer": 8210,
      "Ġdiseases": 8211,
      "ĠEthiop": 8212,
      "British": 8213,
      "ĠCass": 8214,
      "olo": 8215,
      "2008": 8216,
      "Ġsentenced": 8217,
      "Ġessential": 8218,
      "ĠTournament": 8219,
      "ĠLux": 8220,
      "Ġsuggests": 8221,
      "ĠBowl": 8222,
      "Mad": 8223,
      "ĠHorn": 8224,
      "ĠKarl": 8225,
      "Ġdepend": 8226,
      "Ġtransform": 8227,
      "Ġgovernments": 8228,
      "Ġstreets": 8229,
      "ĠPicard": 8230,
      "oni": 8231,
      "Ġisol": 8232,
      "ussian": 8233,
      "ĠPrim": 8234,
      "Ġviolin": 8235,
      "Ġworship": 8236,
      "ĠFinnish": 8237,
      "ĠDerby": 8238,
      "Ġic": 8239,
      "arat": 8240,
      "ĠLang": 8241,
      "ĠChamber": 8242,
      "itionally": 8243,
      "ternal": 8244,
      "Ġfunding": 8245,
      "ĠAuthor": 8246,
      "ĠReb": 8247,
      "Ġemph": 8248,
      "ĠDoctor": 8249,
      "edding": 8250,
      "Norm": 8251,
      "Ġ51": 8252,
      "Ġdescend": 8253,
      "Ġpalace": 8254,
      "Sy": 8255,
      "ĠKu": 8256,
      "Ġteeth": 8257,
      "Ġshel": 8258,
      "Ġmilk": 8259,
      "Ġneighbour": 8260,
      "Che": 8261,
      "Ġaer": 8262,
      "Ġwounded": 8263,
      "ĠLiverpool": 8264,
      "ĠNelson": 8265,
      "Ġrecordings": 8266,
      "Ġdecide": 8267,
      "Ġcorpor": 8268,
      "%)": 8269,
      "Ġlots": 8270,
      "ĠBasketball": 8271,
      "cht": 8272,
      "seud": 8273,
      "Ġham": 8274,
      "ĠHop": 8275,
      "Ġbeach": 8276,
      "ĠGib": 8277,
      "ample": 8278,
      "vements": 8279,
      "Ġsale": 8280,
      "itis": 8281,
      "Ġfine": 8282,
      "Ġdocuments": 8283,
      "Ġcontributed": 8284,
      "Ev": 8285,
      "TO": 8286,
      "Ġvert": 8287,
      "emen": 8288,
      "istant": 8289,
      "2013": 8290,
      "ĠMedicine": 8291,
      "Ġbriefly": 8292,
      "DS": 8293,
      "Ġdivers": 8294,
      "ĠChen": 8295,
      "Ġrose": 8296,
      "olds": 8297,
      "Ġdepending": 8298,
      "Ġcrisis": 8299,
      "ĠMorgan": 8300,
      "Trans": 8301,
      "ĠWrit": 8302,
      "ĠThird": 8303,
      "ĠMario": 8304,
      "2014": 8305,
      "Ġsubt": 8306,
      "Ġcollected": 8307,
      "68": 8308,
      "Ġfal": 8309,
      "odd": 8310,
      "ften": 8311,
      "mphony": 8312,
      "ĠCemetery": 8313,
      "ĠLet": 8314,
      "Ġspin": 8315,
      "ĠCamer": 8316,
      "ĠHonor": 8317,
      "Ġprinted": 8318,
      "Charles": 8319,
      "uis": 8320,
      "Ġspecifically": 8321,
      "Ġrelative": 8322,
      "Ġvolleyball": 8323,
      "Ġaccompan": 8324,
      "mund": 8325,
      "Ġ82": 8326,
      "Ġsubd": 8327,
      "ĠYouT": 8328,
      "Ġscreenwriter": 8329,
      "Jean": 8330,
      "ĠMong": 8331,
      "Ġscientist": 8332,
      "Ġmemorial": 8333,
      "Ġconsisting": 8334,
      "Ġoperate": 8335,
      "Ġoperates": 8336,
      "ĠBarcelona": 8337,
      "ĠHawaii": 8338,
      "rine": 8339,
      "ĠAy": 8340,
      "Ġrub": 8341,
      "Ġextinct": 8342,
      "ĠChristians": 8343,
      "ivalent": 8344,
      "Ġpenalty": 8345,
      "Ġabsor": 8346,
      "Ġtiss": 8347,
      "ĠBud": 8348,
      "ĠGi": 8349,
      "ĠÃī": 8350,
      "ondissements": 8351,
      "Ġentertainment": 8352,
      "eenth": 8353,
      "ĠEver": 8354,
      "asts": 8355,
      "Ġconservative": 8356,
      "Ġmerch": 8357,
      "09": 8358,
      "top": 8359,
      "ilation": 8360,
      "ĠCart": 8361,
      "urrent": 8362,
      "Ġperfect": 8363,
      "ĠLeader": 8364,
      "Ġinstalled": 8365,
      "Ġcheck": 8366,
      "Ġbattles": 8367,
      "Ġpublisher": 8368,
      "aughter": 8369,
      "ĠGermans": 8370,
      "Ġsolution": 8371,
      "ĠSprings": 8372,
      "ĠLeban": 8373,
      "Ġrein": 8374,
      "uru": 8375,
      "iece": 8376,
      "Ġattrib": 8377,
      "Ġevening": 8378,
      "51": 8379,
      "ĠKelly": 8380,
      "ĠStew": 8381,
      "Ġsafe": 8382,
      "Ġhydro": 8383,
      "Ġrejected": 8384,
      "iens": 8385,
      "ĠVancouver": 8386,
      "ĠDeath": 8387,
      "astery": 8388,
      "Ġpione": 8389,
      "ĠCA": 8390,
      "unes": 8391,
      "ĠHeb": 8392,
      "Ġeleven": 8393,
      "ĠSingles": 8394,
      "ĠBrooklyn": 8395,
      "ancellor": 8396,
      "ĠBros": 8397,
      "oka": 8398,
      "CAA": 8399,
      "ĠNevada": 8400,
      "Ġunusual": 8401,
      "President": 8402,
      "Ġdefensive": 8403,
      "ĠKnight": 8404,
      "Donald": 8405,
      "63": 8406,
      "Ġ1000": 8407,
      "ĠWalt": 8408,
      "ĠReagan": 8409,
      "Ġentrance": 8410,
      "coming": 8411,
      "Ġphilosopher": 8412,
      "ĠPersian": 8413,
      "IN": 8414,
      "Later": 8415,
      "atra": 8416,
      "ĠTrade": 8417,
      "ĠHarvard": 8418,
      "uzz": 8419,
      "Ġgoddess": 8420,
      "Ġnucle": 8421,
      "ĠSid": 8422,
      "Ġ84": 8423,
      "oeing": 8424,
      "Ġpossibly": 8425,
      ".âĢĿ": 8426,
      "ER": 8427,
      "Ã«": 8428,
      "ĠTol": 8429,
      "Ġregistered": 8430,
      "nÃ©e": 8431,
      "Ġmilit": 8432,
      "Ġteachers": 8433,
      "Ġmolec": 8434,
      "72": 8435,
      "ilia": 8436,
      "Ġimag": 8437,
      "Ġsimpl": 8438,
      "Ġ...": 8439,
      "going": 8440,
      "Ġpraised": 8441,
      "ĠJerusalem": 8442,
      "LC": 8443,
      "Ġfaith": 8444,
      "Ġtox": 8445,
      "ĠUl": 8446,
      "ourse": 8447,
      "ĠProdu": 8448,
      "Ġsurre": 8449,
      "2006": 8450,
      "Ġparallel": 8451,
      "Ġregularly": 8452,
      "MP": 8453,
      "lon": 8454,
      "inch": 8455,
      "ĠPed": 8456,
      "Ġatom": 8457,
      "ĠMarine": 8458,
      "Ġelectron": 8459,
      "Ġweapon": 8460,
      "ĠRoger": 8461,
      "Ġpartnership": 8462,
      "ĠInfantry": 8463,
      "keeper": 8464,
      "Ġwet": 8465,
      "oro": 8466,
      "Ġhurt": 8467,
      "Ġsuperv": 8468,
      "Ġ1905": 8469,
      "Ġnewspapers": 8470,
      "ĠBach": 8471,
      "ĠLam": 8472,
      "Ġshut": 8473,
      "Ġpoison": 8474,
      "emocracy": 8475,
      "Ġgenetic": 8476,
      "ĠCuba": 8477,
      "ĠMunich": 8478,
      "79": 8479,
      "Sec": 8480,
      "person": 8481,
      "ilty": 8482,
      "Ġconst": 8483,
      "Ġkick": 8484,
      "ologies": 8485,
      "Ġstruck": 8486,
      "ĠRussell": 8487,
      "2009": 8488,
      "ĠSarah": 8489,
      "Ġsan": 8490,
      "ĠMach": 8491,
      "chang": 8492,
      "andal": 8493,
      "osm": 8494,
      "Ġinterests": 8495,
      "Ġpunish": 8496,
      "Ġdress": 8497,
      "Ġgone": 8498,
      "Ġstim": 8499,
      "ĠStev": 8500,
      "Ġappoint": 8501,
      "Ġparticipate": 8502,
      "ĠMargaret": 8503,
      "iler": 8504,
      "ĠRow": 8505,
      "ausen": 8506,
      "ĠExpress": 8507,
      "Ġcontroversial": 8508,
      "Ġfit": 8509,
      "ĠLar": 8510,
      "illo": 8511,
      "Ġanyone": 8512,
      "Ġvictims": 8513,
      "Ġthousand": 8514,
      "Ġlayer": 8515,
      "ĠNBA": 8516,
      "ĠExt": 8517,
      "elli": 8518,
      "ĠLaure": 8519,
      "ĠHotel": 8520,
      "ĠKa": 8521,
      "ixon": 8522,
      "ĠAustin": 8523,
      "Ġexecuted": 8524,
      "Ġthrone": 8525,
      "ĠSport": 8526,
      "ĠRena": 8527,
      "Ġfinding": 8528,
      "Ġarranged": 8529,
      "DA": 8530,
      "Ġtel": 8531,
      "Ġec": 8532,
      "ĠWright": 8533,
      "ĠThus": 8534,
      "Ġagree": 8535,
      "ĠShakespeare": 8536,
      "Ġexpressed": 8537,
      "Ġstrip": 8538,
      "ĠNigeria": 8539,
      "ĠCle": 8540,
      "rove": 8541,
      "riel": 8542,
      "Ġshares": 8543,
      "Ġdecade": 8544,
      "Ġinfection": 8545,
      "Ġestablishment": 8546,
      "ĠSelena": 8547,
      "59": 8548,
      "Ãł": 8549,
      "ĠSC": 8550,
      "ĠLl": 8551,
      "Ġgrade": 8552,
      "Ġrevers": 8553,
      "ĠPeru": 8554,
      "riday": 8555,
      "Ġunsuccess": 8556,
      "Ġultimately": 8557,
      "equ": 8558,
      "asters": 8559,
      "Ġdream": 8560,
      "ĠFel": 8561,
      "Ġveter": 8562,
      "Ġheaded": 8563,
      "Ġdoesn": 8564,
      "Ġmachines": 8565,
      "Ġslowly": 8566,
      "Land": 8567,
      "à¦": 8568,
      "Ġign": 8569,
      "Ġwitness": 8570,
      "ĠFarm": 8571,
      "acre": 8572,
      "Ġvary": 8573,
      "Ġcomposition": 8574,
      "casting": 8575,
      "Ġpian": 8576,
      "season": 8577,
      "ĠYorkshire": 8578,
      "ĠJosÃ©": 8579,
      "Ġphotograph": 8580,
      "ĠLanka": 8581,
      "aired": 8582,
      "anne": 8583,
      "Ġdiet": 8584,
      "ĠBaker": 8585,
      "ĠRab": 8586,
      "Ġjourney": 8587,
      "Ġ79": 8588,
      "Ġdefence": 8589,
      "ymn": 8590,
      "Ġsurvive": 8591,
      "ĠSah": 8592,
      "Ġcooper": 8593,
      "ĠArabic": 8594,
      "Work": 8595,
      "Ġvs": 8596,
      "Another": 8597,
      "Ġemployed": 8598,
      "Ġvisitors": 8599,
      "Sal": 8600,
      "pop": 8601,
      "Ġnut": 8602,
      "ithm": 8603,
      "oga": 8604,
      "Ġserial": 8605,
      "Ġdesigns": 8606,
      "Ġsang": 8607,
      "Ġconce": 8608,
      "Ġproduces": 8609,
      "Ġtests": 8610,
      "Ã´ne": 8611,
      "ĠWalker": 8612,
      "ĠCosta": 8613,
      "zes": 8614,
      "omi": 8615,
      "ĠIce": 8616,
      "ĠBack": 8617,
      "Ġanniversary": 8618,
      "Ġdiameter": 8619,
      "Ġcousin": 8620,
      "Cent": 8621,
      "inction": 8622,
      "Ġsulf": 8623,
      "aments": 8624,
      "rot": 8625,
      "igious": 8626,
      "Ġchrom": 8627,
      "Ġcollect": 8628,
      "Ġexpensive": 8629,
      "Ġconcerts": 8630,
      "'m": 8631,
      "Ġaid": 8632,
      "iri": 8633,
      "ĠDur": 8634,
      "hythm": 8635,
      "Port": 8636,
      "Ġ().": 8637,
      "ĠAlt": 8638,
      "Ġcalling": 8639,
      "othy": 8640,
      "Ġ86": 8641,
      "gement": 8642,
      "Ġahead": 8643,
      "ĠTrib": 8644,
      "ayed": 8645,
      "utor": 8646,
      "ailand": 8647,
      "Ġfat": 8648,
      "Ġlose": 8649,
      "Ġ72": 8650,
      "Ġmedieval": 8651,
      "ĠManagement": 8652,
      "ĠMcK": 8653,
      "ĠEmmy": 8654,
      "ĠLegislative": 8655,
      "ĠRugby": 8656,
      "ĠDublin": 8657,
      "ĠConstant": 8658,
      "ĠGuinea": 8659,
      "ĠSocialist": 8660,
      "82": 8661,
      "Pal": 8662,
      "Ġpneum": 8663,
      "ĠDec": 8664,
      "Ġseed": 8665,
      "Ġcompound": 8666,
      "Ġgenre": 8667,
      "ĠReserve": 8668,
      "Ġathletes": 8669,
      "Ġcodes": 8670,
      "Ġfear": 8671,
      "ĠFlore": 8672,
      "Ġspoke": 8673,
      "Ġroughly": 8674,
      "Ġvocals": 8675,
      "gom": 8676,
      "gate": 8677,
      "isf": 8678,
      "Ġeighth": 8679,
      "Ġchannels": 8680,
      "Ġ43": 8681,
      "Ġprey": 8682,
      "Ġ1909": 8683,
      "Ġnegoti": 8684,
      "ĠDefense": 8685,
      "ĠRural": 8686,
      "rix": 8687,
      "Ġsees": 8688,
      "ĠKit": 8689,
      "ĠAlger": 8690,
      "Ġdisorder": 8691,
      "Ġ52": 8692,
      "Ġ83": 8693,
      "Ġdepth": 8694,
      "onomous": 8695,
      "BI": 8696,
      "ĠHurricane": 8697,
      "ĠBed": 8698,
      "unction": 8699,
      "ithuan": 8700,
      "Ġassault": 8701,
      "Ġmetropolitan": 8702,
      "Ġprovincial": 8703,
      "Ġdrawn": 8704,
      "Ġimprison": 8705,
      "ĠPicardie": 8706,
      "?\"": 8707,
      "pine": 8708,
      "ĠBenn": 8709,
      "ĠLib": 8710,
      "osph": 8711,
      "Ġvision": 8712,
      "Ġru": 8713,
      "2012": 8714,
      "Ġphase": 8715,
      "Ġextension": 8716,
      "Ġreturns": 8717,
      "ĠConservative": 8718,
      "Ġconcentration": 8719,
      "avery": 8720,
      "million": 8721,
      "ĠSS": 8722,
      "ĠSn": 8723,
      "opter": 8724,
      "sterdam": 8725,
      "pat": 8726,
      "Ġsudden": 8727,
      "Ġcompounds": 8728,
      "ĠHolland": 8729,
      "Ġdetermine": 8730,
      "Ġprepared": 8731,
      "Euro": 8732,
      "Ġsoul": 8733,
      "ĠIl": 8734,
      "Ġalive": 8735,
      "ĠKon": 8736,
      "Ġ92": 8737,
      "Ġtwin": 8738,
      "Ġ1904": 8739,
      "Ġdetails": 8740,
      "ĠMonte": 8741,
      "Ġ1870": 8742,
      "Ġdrafted": 8743,
      "Ġwat": 8744,
      "Ġfaster": 8745,
      "ĠIron": 8746,
      "ĠPear": 8747,
      "ĠRy": 8748,
      "Ġevil": 8749,
      "Ġmining": 8750,
      "Ġsubsequent": 8751,
      "enberg": 8752,
      "ĠMaz": 8753,
      "Ġtraded": 8754,
      "Ġcircum": 8755,
      "ĠBoys": 8756,
      "ĠVillage": 8757,
      "'re": 8758,
      "Ġphen": 8759,
      "ĠMars": 8760,
      "ĠDean": 8761,
      "Ġstring": 8762,
      "ĠRegional": 8763,
      "Ġmyster": 8764,
      "hetic": 8765,
      "Ġhouseholds": 8766,
      "iph": 8767,
      "Ġ1907": 8768,
      "ĠBelarus": 8769,
      "ompson": 8770,
      "Ġcoun": 8771,
      "ĠAre": 8772,
      "ete": 8773,
      "ructure": 8774,
      "Ġtreaty": 8775,
      "holm": 8776,
      "ĠScientists": 8777,
      "ouch": 8778,
      "ĠSard": 8779,
      "ĠAires": 8780,
      "ĠBilly": 8781,
      "outheastern": 8782,
      "Ġwrites": 8783,
      "ĠCharlie": 8784,
      "ruption": 8785,
      "tical": 8786,
      "Ġaware": 8787,
      "Ġouter": 8788,
      "ĠSÃ£o": 8789,
      "amous": 8790,
      "imir": 8791,
      "ĠKevin": 8792,
      "arma": 8793,
      "ĠLiter": 8794,
      "osex": 8795,
      "Ġ78": 8796,
      "Ġrefuge": 8797,
      "Ġinfluential": 8798,
      "Ġfavour": 8799,
      "Ġscholars": 8800,
      "Ãª": 8801,
      "Ġnor": 8802,
      "ĠProtest": 8803,
      "Ġalleged": 8804,
      "53": 8805,
      "ĠWik": 8806,
      "ĠEarly": 8807,
      "Ġruler": 8808,
      "Ġbelongs": 8809,
      "Do": 8810,
      "ĠDa": 8811,
      "eoples": 8812,
      "Ġcoff": 8813,
      "wall": 8814,
      "ĠDisc": 8815,
      "Ġ41": 8816,
      "Ġcommissioned": 8817,
      "ĠGironde": 8818,
      "dr": 8819,
      "Ġ\"\".": 8820,
      "Ġstret": 8821,
      "andie": 8822,
      "Ġagricultural": 8823,
      "fly": 8824,
      "Ġinfl": 8825,
      "ĠOrange": 8826,
      "arest": 8827,
      "iba": 8828,
      "Ġresidence": 8829,
      "Ġfactor": 8830,
      "Ġmarine": 8831,
      "Ġprotests": 8832,
      "United": 8833,
      "Ġeasier": 8834,
      "Ġaltitude": 8835,
      "Bob": 8836,
      "Cor": 8837,
      "dorf": 8838,
      "pers": 8839,
      "aran": 8840,
      "ĠIceland": 8841,
      "oshi": 8842,
      "Ġshore": 8843,
      "angle": 8844,
      "Ġdepos": 8845,
      "clusion": 8846,
      "52": 8847,
      "ĠCirc": 8848,
      "Ġoverl": 8849,
      "Ġ81": 8850,
      "Ġcabinet": 8851,
      "Ġpolicies": 8852,
      "73": 8853,
      "Ġ:": 8854,
      "Ġready": 8855,
      "ovich": 8856,
      "ĠColombia": 8857,
      "mus": 8858,
      "mates": 8859,
      "unc": 8860,
      "ĠFA": 8861,
      "Ġexpert": 8862,
      "yrÃ©n": 8863,
      "atar": 8864,
      "itus": 8865,
      "Ġnit": 8866,
      "race": 8867,
      "ĠPolit": 8868,
      "Ã³w": 8869,
      "Plot": 8870,
      "Ġhorses": 8871,
      "Ġexperienced": 8872,
      "Ġturb": 8873,
      "ahn": 8874,
      "yrÃ©nÃ©es": 8875,
      "Air": 8876,
      "Pre": 8877,
      "Ġdated": 8878,
      "ĠCher": 8879,
      "ĠRub": 8880,
      "ĠUnlike": 8881,
      "Ġrooms": 8882,
      "rena": 8883,
      "Ġsoap": 8884,
      "bow": 8885,
      "oux": 8886,
      "ĠDave": 8887,
      "ogle": 8888,
      "2016": 8889,
      "Ġraise": 8890,
      "Ġheads": 8891,
      "Ġemployees": 8892,
      "ĠGallery": 8893,
      "ĠFried": 8894,
      "ĠLuke": 8895,
      "Big": 8896,
      "asis": 8897,
      "ĠCow": 8898,
      "Ġlists": 8899,
      "Ġgather": 8900,
      "Ġ66": 8901,
      "Ġexpand": 8902,
      "Ġdefeating": 8903,
      "ĠHas": 8904,
      "ĠDark": 8905,
      "ĠDallas": 8906,
      "away": 8907,
      "Ġreleg": 8908,
      "Ġ76": 8909,
      "ifications": 8910,
      "comune": 8911,
      "Ġ1906": 8912,
      "break": 8913,
      "ĠPlayStation": 8914,
      "ĠWayne": 8915,
      "Ġduty": 8916,
      "ĠFal": 8917,
      "rams": 8918,
      "ĠCommander": 8919,
      "ĠEnergy": 8920,
      "Ġcarrying": 8921,
      "Ġfossil": 8922,
      "ĠOfficer": 8923,
      "maker": 8924,
      "Ġcourses": 8925,
      "anta": 8926,
      "ĠThailand": 8927,
      "ĠProte": 8928,
      "ĠJefferson": 8929,
      "Ġopinion": 8930,
      "err": 8931,
      "Ġsought": 8932,
      "Ġpublishing": 8933,
      "Ġ91": 8934,
      "Ġsuffering": 8935,
      "cuador": 8936,
      "Ġindu": 8937,
      "Ġpitch": 8938,
      "ĠAld": 8939,
      "ĠDynasty": 8940,
      "ĠJama": 8941,
      "udson": 8942,
      "shaped": 8943,
      "2015": 8944,
      "Ġperiods": 8945,
      "Ġruling": 8946,
      "ĠBrothers": 8947,
      "74": 8948,
      "Ġnotably": 8949,
      "Ġguilty": 8950,
      "Ġtechnique": 8951,
      "rague": 8952,
      "ĠMontana": 8953,
      "ĠBuenos": 8954,
      "Ġkilometers": 8955,
      "ĠHunter": 8956,
      "ju": 8957,
      "Ġnaval": 8958,
      "Ġstood": 8959,
      "ĠFall": 8960,
      "ĠBarry": 8961,
      "Ġslave": 8962,
      "Note": 8963,
      "door": 8964,
      "Ġfram": 8965,
      "ĠSr": 8966,
      "ĠMol": 8967,
      "ĠPC": 8968,
      "Ġblind": 8969,
      "Ġ250": 8970,
      "Ġjustice": 8971,
      "Ġmythology": 8972,
      "inian": 8973,
      "ĠTak": 8974,
      "ĠMagn": 8975,
      "olia": 8976,
      "igs": 8977,
      "ĠNam": 8978,
      "ĠEnt": 8979,
      "acent": 8980,
      "Ġmaintained": 8981,
      "Ġexpression": 8982,
      "Ġcredited": 8983,
      "Ġswimming": 8984,
      "Ġbeetle": 8985,
      "Ġ120": 8986,
      "Ġreun": 8987,
      "upt": 8988,
      "Ġ1880": 8989,
      "Ã¤r": 8990,
      "Ã¨s": 8991,
      "Ġrecip": 8992,
      "Ġorganisation": 8993,
      "ĠAlliance": 8994,
      "ĠAmsterdam": 8995,
      "Ġappearing": 8996,
      "Ġintroduction": 8997,
      "Ġphrase": 8998,
      "ĠYouTube": 8999,
      "Ġsession": 9000,
      "encer": 9001,
      "ĠMond": 9002,
      "ĠFalls": 9003,
      "ĠYam": 9004,
      "Ġ93": 9005,
      "ĠAdvent": 9006,
      "elected": 9007,
      "acc": 9008,
      "Ġcloud": 9009,
      "ĠJohnny": 9010,
      "Ġ1902": 9011,
      "ST": 9012,
      "World": 9013,
      "Ġamounts": 9014,
      "Ġtranslation": 9015,
      "Ġneck": 9016,
      "ĠZh": 9017,
      "icians": 9018,
      "ĠSatur": 9019,
      "ĠMarshall": 9020,
      "Ðµ": 9021,
      "irates": 9022,
      "Ġfilmed": 9023,
      "Ġ1901": 9024,
      "Ġvolcano": 9025,
      "Ġhosts": 9026,
      "Ġboats": 9027,
      "Ġdefinition": 9028,
      "Ġatmosphere": 9029,
      "leans": 9030,
      "ĠMoz": 9031,
      "ĠRain": 9032,
      "Ã©l": 9033,
      "2001": 9034,
      "Ġinternet": 9035,
      "roph": 9036,
      "Ġthin": 9037,
      "tered": 9038,
      "gomery": 9039,
      "Ð½": 9040,
      "Ġpages": 9041,
      "ĠBuck": 9042,
      "ontin": 9043,
      "Ġdrummer": 9044,
      "appy": 9045,
      "Ġsolar": 9046,
      "Sir": 9047,
      "eto": 9048,
      "ĠPy": 9049,
      "ĠFriend": 9050,
      "ĠLane": 9051,
      "Ġspeaking": 9052,
      "Ġcoordin": 9053,
      "ijing": 9054,
      "Ġfunds": 9055,
      "Ġresidential": 9056,
      "Ġsatellite": 9057,
      "later": 9058,
      "ĠSi": 9059,
      "ĠHem": 9060,
      "iger": 9061,
      "antly": 9062,
      "ighters": 9063,
      "ĠCanal": 9064,
      "ĠPhoen": 9065,
      "Ġpersonnel": 9066,
      "zero": 9067,
      "Ġaffairs": 9068,
      "Ġhappy": 9069,
      "ĠMurray": 9070,
      "Cap": 9071,
      "hr": 9072,
      "Ġfile": 9073,
      "ĠLi": 9074,
      "Ġpartly": 9075,
      "profit": 9076,
      "Ġtemporary": 9077,
      "ĠSaturday": 9078,
      "ME": 9079,
      "Ġlit": 9080,
      "ĠNCAA": 9081,
      "rett": 9082,
      "Ġmeasures": 9083,
      "ĠOpera": 9084,
      "Ac": 9085,
      "hum": 9086,
      "xide": 9087,
      "Ġchamber": 9088,
      "Ġsoldier": 9089,
      "ĠSenior": 9090,
      "ĠCarlos": 9091,
      "ĠIndependent": 9092,
      "hered": 9093,
      "ĠSaf": 9094,
      "Ġnet": 9095,
      "ĠRav": 9096,
      "ĠGa": 9097,
      "ĠDead": 9098,
      "Ġattorney": 9099,
      "Ġkeyboard": 9100,
      "ovakia": 9101,
      "tÃ©": 9102,
      "ĠChel": 9103,
      "Ġroots": 9104,
      "2005": 9105,
      "Ġinjuries": 9106,
      "Ġuniverse": 9107,
      "Ġtunn": 9108,
      "heme": 9109,
      "Ġmir": 9110,
      "ĠHand": 9111,
      "ĠNash": 9112,
      "ople": 9113,
      "Ġconvention": 9114,
      "Ġtex": 9115,
      "Ġunderstanding": 9116,
      "ĠWho": 9117,
      "ĠGuy": 9118,
      "ĠRomanian": 9119,
      "Ġpatient": 9120,
      "Ġenemies": 9121,
      "Ġnickname": 9122,
      "net": 9123,
      "iser": 9124,
      "Ġpul": 9125,
      "ĠBoeing": 9126,
      "urst": 9127,
      "aco": 9128,
      "Ġuniform": 9129,
      "anger": 9130,
      "Ġdesert": 9131,
      "Ġbear": 9132,
      "Ġcann": 9133,
      "Frank": 9134,
      "Ġlegislature": 9135,
      "ĠStewart": 9136,
      "Ġmigr": 9137,
      "iah": 9138,
      "Ġremov": 9139,
      "Ġadding": 9140,
      "Ġelder": 9141,
      "ĠMrs": 9142,
      "kan": 9143,
      "uart": 9144,
      "ĠMes": 9145,
      "Ġstress": 9146,
      "Ġstorage": 9147,
      "ĠGran": 9148,
      "ĠEvent": 9149,
      "uez": 9150,
      "Ġinterpret": 9151,
      "Ġrequires": 9152,
      "Ġballet": 9153,
      "German": 9154,
      "agre": 9155,
      "enson": 9156,
      "ĠSoccer": 9157,
      "ĠLtd": 9158,
      "Gold": 9159,
      "ĠEmer": 9160,
      "abled": 9161,
      "Ġsole": 9162,
      "apping": 9163,
      "ĠRegister": 9164,
      "Ġ1861": 9165,
      "Ġmassive": 9166,
      "Ġdecisions": 9167,
      "Orig": 9168,
      "Rock": 9169,
      "roid": 9170,
      "amese": 9171,
      "ĠWarren": 9172,
      "ĠAngl": 9173,
      "Ġsupplies": 9174,
      "hand": 9175,
      "á¹": 9176,
      "Ġfiled": 9177,
      "Ġduties": 9178,
      "ĠMess": 9179,
      "ĠHell": 9180,
      "Ġinterior": 9181,
      "Ġfuneral": 9182,
      "Ġrapper": 9183,
      "ĠSquad": 9184,
      "ĠRonald": 9185,
      "Reg": 9186,
      "Ġgar": 9187,
      "Ġhear": 9188,
      "berry": 9189,
      "Ġseeds": 9190,
      "Ġchallenge": 9191,
      "achi": 9192,
      "ĠWhat": 9193,
      "Ġsupports": 9194,
      "Ġrefle": 9195,
      "SCO": 9196,
      "Ġpneumonia": 9197,
      "gie": 9198,
      "Ġbanned": 9199,
      "Ġhearing": 9200,
      "Ġplus": 9201,
      "ĠMarket": 9202,
      "Ġinvolves": 9203,
      "Ġconvicted": 9204,
      "ĠEngineering": 9205,
      "Im": 9206,
      "Its": 9207,
      "Rec": 9208,
      "inia": 9209,
      "ĠEcuador": 9210,
      "abil": 9211,
      "ĠVic": 9212,
      "Ġabuse": 9213,
      "ĠPlace": 9214,
      "ĠChristianity": 9215,
      "Ġtemperatures": 9216,
      "Ġrelationships": 9217,
      "Ġdelivered": 9218,
      "gon": 9219,
      "ĠTib": 9220,
      "Ġresemb": 9221,
      "Ġlock": 9222,
      "Ġairline": 9223,
      "central": 9224,
      "iji": 9225,
      "Ġcircuit": 9226,
      "54": 9227,
      "Ġstyles": 9228,
      "ĠFM": 9229,
      "ĠCampbell": 9230,
      "Ġoccupation": 9231,
      "71": 9232,
      "oan": 9233,
      "ĠFr": 9234,
      "ĠGriff": 9235,
      "Ġconvent": 9236,
      "ĠKum": 9237,
      "Ġentreprene": 9238,
      "elect": 9239,
      "ĠJimmy": 9240,
      "ĠUniversal": 9241,
      "Ġcartoon": 9242,
      "onounced": 9243,
      "Er": 9244,
      "atically": 9245,
      "itaine": 9246,
      "ĠRet": 9247,
      "Ġsector": 9248,
      "Ġproced": 9249,
      "Ġbutter": 9250,
      "Ġ96": 9251,
      "ĠConc": 9252,
      "ĠOrleans": 9253,
      "Ġportra": 9254,
      "ĠCapital": 9255,
      "avalry": 9256,
      "ãĥ": 9257,
      "Ġmine": 9258,
      "otes": 9259,
      "Ġstick": 9260,
      "Ġamateur": 9261,
      "Ġprocesses": 9262,
      "ĠDelaware": 9263,
      "ĠCroatia": 9264,
      "Music": 9265,
      "Carl": 9266,
      "stal": 9267,
      "ĠDJ": 9268,
      "essed": 9269,
      "Ġcomposers": 9270,
      "Ġadvoc": 9271,
      "Ġburned": 9272,
      "\"-": 9273,
      "Mil": 9274,
      "dd": 9275,
      "eas": 9276,
      "ww": 9277,
      "idal": 9278,
      "merce": 9279,
      "Ġdoctors": 9280,
      "Ġexplained": 9281,
      "Ġexists": 9282,
      "Ġtrap": 9283,
      "ierra": 9284,
      "Ġcategories": 9285,
      "cop": 9286,
      "Ġunf": 9287,
      "Ġclin": 9288,
      "Ġsmallest": 9289,
      "Ġmarks": 9290,
      "Ġwindow": 9291,
      "ĠPetersburg": 9292,
      "ĠHitler": 9293,
      "haw": 9294,
      "Ġur": 9295,
      "ĠLast": 9296,
      "avan": 9297,
      "Ġ54": 9298,
      "Ġ1903": 9299,
      "Ġtesting": 9300,
      "eda": 9301,
      "atab": 9302,
      "Ġpros": 9303,
      "Ġplastic": 9304,
      "udes": 9305,
      "Ġsettlers": 9306,
      "Ġeconomics": 9307,
      "Ġmurdered": 9308,
      "Ġwrestler": 9309,
      "omo": 9310,
      "ĠSac": 9311,
      "ĠAC": 9312,
      "Ġstops": 9313,
      "Ġ74": 9314,
      "designated": 9315,
      "ls": 9316,
      "ãģ": 9317,
      "Ġhunting": 9318,
      "Ġclothes": 9319,
      "Ġadmitted": 9320,
      "Ġmeasured": 9321,
      "Ġthirty": 9322,
      "ĠOrganization": 9323,
      "58": 9324,
      "ĠPA": 9325,
      "aye": 9326,
      "ema": 9327,
      "Ġorg": 9328,
      "Ġspend": 9329,
      "Ġevolved": 9330,
      "Ġslavery": 9331,
      "Ġinvolving": 9332,
      "Ġcontributions": 9333,
      "08": 9334,
      "Ġretail": 9335,
[...]
