{"<s>":0,"<pad>":1,"</s>":2,"<unk>":3,"<|endoftext|>":4,"<mask>":5,"!":6,"\"":7,"#":8,"$":9,"%":10,"&":11,"'":12,"(":13,")":14,"*":15,"+":16,",":17,"-":18,".":19,"/":20,"0":21,"1":22,"2":23,"3":24,"4":25,"5":26,"6":27,"7":28,"8":29,"9":30,":":31,";":32,"<":33,"=":34,">":35,"?":36,"@":37,"A":38,"B":39,"C":40,"D":41,"E":42,"F":43,"G":44,"H":45,"I":46,"J":47,"K":48,"L":49,"M":50,"N":51,"O":52,"P":53,"Q":54,"R":55,"S":56,"T":57,"U":58,"V":59,"W":60,"X":61,"Y":62,"Z":63,"[":64,"\\":65,"]":66,"^":67,"_":68,"`":69,"a":70,"b":71,"c":72,"d":73,"e":74,"f":75,"g":76,"h":77,"i":78,"j":79,"k":80,"l":81,"m":82,"n":83,"o":84,"p":85,"q":86,"r":87,"s":88,"t":89,"u":90,"v":91,"w":92,"x":93,"y":94,"z":95,"{":96,"|":97,"}":98,"~":99,"¡":100,"¢":101,"£":102,"¤":103,"¥":104,"¦":105,"§":106,"¨":107,"©":108,"ª":109,"«":110,"¬":111,"®":112,"¯":113,"°":114,"±":115,"²":116,"³":117,"´":118,"µ":119,"¶":120,"·":121,"¸":122,"¹":123,"º":124,"»":125,"¼":126,"½":127,"¾":128,"¿":129,"À":130,"Á":131,"Â":132,"Ã":133,"Ä":134,"Å":135,"Æ":136,"Ç":137,"È":138,"É":139,"Ê":140,"Ë":141,"Ì":142,"Í":143,"Î":144,"Ï":145,"Ð":146,"Ñ":147,"Ò":148,"Ó":149,"Ô":150,"Õ":151,"Ö":152,"×":153,"Ø":154,"Ù":155,"Ú":156,"Û":157,"Ü":158,"Ý":159,"Þ":160,"ß":161,"à":162,"á":163,"â":164,"ã":165,"ä":166,"å":167,"æ":168,"ç":169,"è":170,"é":171,"ê":172,"ë":173,"ì":174,"í":175,"î":176,"ï":177,"ð":178,"ñ":179,"ò":180,"ó":181,"ô":182,"õ":183,"ö":184,"÷":185,"ø":186,"ù":187,"ú":188,"û":189,"ü":190,"ý":191,"þ":192,"ÿ":193,"Ā":194,"ā":195,"Ă":196,"ă":197,"Ą":198,"ą":199,"Ć":200,"ć":201,"Ĉ":202,"ĉ":203,"Ċ":204,"ċ":205,"Č":206,"č":207,"Ď":208,"ď":209,"Đ":210,"đ":211,"Ē":212,"ē":213,"Ĕ":214,"ĕ":215,"Ė":216,"ė":217,"Ę":218,"ę":219,"Ě":220,"ě":221,"Ĝ":222,"ĝ":223,"Ğ":224,"ğ":225,"Ġ":226,"ġ":227,"Ģ":228,"ģ":229,"Ĥ":230,"ĥ":231,"Ħ":232,"ħ":233,"Ĩ":234,"ĩ":235,"Ī":236,"ī":237,"Ĭ":238,"ĭ":239,"Į":240,"į":241,"İ":242,"ı":243,"Ĳ":244,"ĳ":245,"Ĵ":246,"ĵ":247,"Ķ":248,"ķ":249,"ĸ":250,"Ĺ":251,"ĺ":252,"Ļ":253,"ļ":254,"Ľ":255,"ľ":256,"Ŀ":257,"ŀ":258,"Ł":259,"ł":260,"Ń":261,"**":262,"Ġt":263,"he":264,"Ġa":265,"**:":266,"ou":267,"Ġ**":268,"Ġ\\":269,"in":270,"Ġw":271,"Ġs":272,"re":273,"Ġthe":274,"ld":275,"it":276,"nd":277,"hi":278,"Ġb":279,"er":280,"ha":281,"Ġc":282,"Ġto":283,"ing":284,"Ġy":285,"Ġyou":286,"hild":287,"Child":288,"ĠI":289,"an":290,"Ġf":291,"Ġ\"":292,"Ġm":293,"Ġl":294,"on":295,"or":296,"Ġd":297,"'s":298,"Ġp":299,"ll":300,"Ġg":301,"et":302,"es":303,"om":304,"Ġit":305,"ay":306,"hat":307,"ow":308,"ke":309,"ea":310,"Ġn":311,"Ġand":312,"st":313,"ig":314,"ut":315,"Ġwe":316,"ve":317,"at":318,"le":319,"oo":320,"Ġo":321,"ĠT":322,"ed":323,"ĠS":324,"ad":325,"Ġha":326,"ar":327,"as":328,"Ġcan":329,"ot":330,"!\"":331,"Ġhe":332,"Ġi":333,"Ġbe":334,"igh":335,"en":336,"ck":337,"ĠW":338,"Ġst":339,".\"":340,"Ġu":341,"end":342,"ter":343,"se":344,"Ġli":345,"Ġin":346,"out":347,"ra":348,"id":349,"Ġon":350,"Ġfor":351,"Ġyour":352,"ĠY":353,"Ġthat":354,"ling":355,"ib":356,"?\"":357,"ight":358,"'t":359,"Ġre":360,"Ġof":361,"ex":362,"Ġh":363,"Ġlike":364,"ĠIt":365,"me":366,"ibling":367,"her":368,"Ġdo":369,"ĠSibling":370,"ith":371,"Ġj":372,"Mom":373,"Ġwith":374,"ir":375,"ab":376,"Dad":377,"ri":378,"Ġpl":379,"ch":380,"ys":381,"ant":382,"ce":383,"ĠA":384,"Ġr":385,"ĠB":386,"ct":387,"ext":388,"ver":389,"Ġwas":390,"ake":391,"nt":392,"al":393,"Ġis":394,"Ġab":395,"ĠH":396,"ĠL":397,"'ll":398,"ft":399,"Ġso":400,"Ġgo":401,"Ġabout":402,"itter":403,"lder":404,"ee":405,"Ġme":406,"his":407,"abys":408,"abysitter":409,"ome":410,"Ġe":411,"un":412,"ly":413,"Older":414,"Ġth":415,"ust":416,"ĠN":417,"all":418,"ĠC":419,"Babysitter":420,"Ġk":421,"Ġbut":422,"'re":423,"ood":424,"Ġhave":425,"oft":426,"Ġget":427,"<|":428,"|>":429,"Ġ<|":430,"endoft":431,"endoftext":432,"lp":433,"ĠWe":434,"ĠThe":435,"Ġup":436,"are":437,"Ġne":438,"ook":439,"ĠBut":440,"Ġhelp":441,"ure":442,"ĠYou":443,"Ġmy":444,"ore":445,"ĠO":446,"Ġwant":447,"Ġplay":448,"pp":449,"kay":450,"riend":451,"Ġnot":452,"ĠThat":453,"ro":454,"ould":455,"ear":456,"Ġti":457,"Ġwhe":458,"Ġan":459,"our":460,"Ġjust":461,"Ġmake":462,"ate":463,"Ġthis":464,"Ġlet":465,"tle":466,"Ġdon":467,"is":468,"ĠAnd":469,"Ġall":470,"ĠCan":471,"ry":472,"ind":473,"ur":474,"ĠLet":475,"Ġthey":476,"han":477,"ack":478,"ic":479,"ĠM":480,"Ġright":481,"ill":482,"ound":483,"Ġtime":484,"Ġtoo":485,"rand":486,"very":487,"art":488,"Ġsh":489,"hing":490,"ĠHe":491,"Ġsp":492,"Ġwhen":493,"ĠNow":494,"Ġneed":495,"mp":496,"'m":497,"ass":498,"Ġwhat":499,"ĠD":500,"Ġout":501,"ittle":502,"Ġlittle":503,"ion":504,"randp":505,"Ġsa":506,"Ġare":507,"ep":508,"ie":509,"cher":510,"Ġkn":511,"Ġthem":512,"eacher":513,"Ġbig":514,"ĠG":515,"one":516,"Ġsee":517,"Ġsome":518,"Ġstor":519,"Ġour":520,"ent":521,"gh":522,"ul":523,"mb":524,"ak":525,"hank":526,"bor":527,"arent":528,"ide":529,"ess":530,"lass":531,"ighbor":532,"ast":533,"Ġwor":534,"Ġdid":535,"us":536,"ink":537,"..":538,"ger":539,"Teacher":540,"Ġone":541,"Ġthere":542,"Ġat":543,"Ġif":544,"omet":545,"Ġea":546,"fe":547,"get":548,"ĠWhat":549,"Ne":550,"ally":551,"Ġor":552,"ell":553,"Neighbor":554,"Ġnow":555,"randparent":556,"lo":557,"You":558,"Ġgood":559,"Ġhow":560,"Grandparent":561,"Yes":562,"Ġhi":563,"ick":564,"qu":565,"ain":566,"own":567,"Ġwh":568,"au":569,"dy":570,"ater":571,"lean":572,"op":573,"Ġknow":574,"Ġsomet":575,"reat":576,"ice":577,"Ġstory":578,"rom":579,"gether":580,"Ġ'":581,"Friend":582,"Ġas":583,"ap":584,"Ġmore":585,"Ġthen":586,"Ġput":587,"Ġsw":588,"ool":589,"Ġtogether":590,"mate":591,"Ġ*":592,"Ġal":593,"il":594,"ag":595,"be":596,"lassmate":597,"Ġlook":598,"am":599,"Ġfun":600,"Classmate":601,"est":602,"Ġco":603,"Ġclean":604,"Ġsu":605,"ĠYes":606,"ĠP":607,"ful":608,"uck":609,"ob":610,"way":611,"im":612,"aybe":613,"nger":614,"Ġus":615,"fter":616,"Ġhapp":617,"my":618,"mber":619,"Younger":620,"and":621,"Ġcould":622,"ive":623,"ĠThank":624,"eet":625,"Ġpro":626,"Ġsomething":627,"That":628,"Ġevery":629,"ort":630,"Ġokay":631,"ove":632,"ite":633,"Ġeat":634,"eah":635,"member":636,"ec":637,"Ġfind":638,"Ġsha":639,"Ġbu":640,"ers":641,"ect":642,"ĠE":643,"ard":644,"ies":645,"Ġfrom":646,"ĠThey":647,"ough":648,"ty":649,"Ġjob":650,"ish":651,"Ġthink":652,"ause":653,"Ġthing":654,"Ġno":655,"act":656,"Ġback":657,"Ġpre":658,"ong":659,"ĠNo":660,"Ġtry":661,"ame":662,"ĠOh":663,"nder":664,"Ġex":665,"Ġbec":666,"Ġcare":667,"ĠOkay":668,"Ġafter":669,"Ġcar":670,"Ġsc":671,"Ġke":672,"Ġhand":673,"Ġsay":674,"ine":675,"Ġqu":676,"ĠR":677,"Ġany":678,"ĠHey":679,"row":680,"per":681,"Ġwill":682,"irst":683,"Ġmean":684,"Ġhere":685,"Ġread":686,"Ġwork":687,"Ġgoing":688,"um":689,"Ġhad":690,"Ġway":691,"Ġreally":692,"Ġsn":693,"Ġar":694,"ge":695,"Ġbr":696,"âĢ":697,"Ġgot":698,"Ġday":699,"ny":700,"Ġdoes":701,"Ġgu":702,"Ġdra":703,"Ġtur":704,"alk":705,"'ve":706,"Ġwater":707,"Ġad":708,"Ġstart":709,"Ġsure":710,"Ġcl":711,"side":712,"Ġtake":713,"ven":714,"Ġuse":715,"Ġv":716,"Ġfirst":717,"Ġwho":718,"Ġint":719,"He":720,"Ġimp":721,"earn":722,"actly":723,"ue":724,"Ġbecause":725,"Ġsound":726,"Ġcool":727,"ike":728,"ĠYeah":729,"Ġbo":730,"Ġcom":731,"ĠHow":732,"Ġkeep":733,"Ġremember":734,"low":735,"ĠSo":736,"les":737,"Ġfriend":738,"ff":739,"Ġlearn":740,"ther":741,"ĠJ":742,"Ġdown":743,"Ġbet":744,"...":745,"eetie":746,"Ġvery":747,"Ġag":748,"Ġwould":749,"Ġthings":750,"ĠDad":751,"Ġshow":752,"Ġen":753,"ĠMom":754,"atch":755,"ach":756,"ark":757,"Ġunder":758,"ĠMaybe":759,"Ġlove":760,"Ġtre":761,"Ġ(":762,"Ġfa":763,"Ġmak":764,"ting":765,"ĠThanks":766,"No":767,"Ġtell":768,"lf":769,"Ġtr":770,"Ġturn":771,"Ġover":772,"Ġbear":773,"xactly":774,"Ġeven":775,"Ġnew":776,"âĢĻ":777,"day":778,"Ġro":779,"Ġhis":780,"Okay":781,"Ġsm":782,"Ġcon":783,"Ġfee":784,"hy":785,"Ġby":786,"Ġwere":787,"lock":788,"Ġgreat":789,"ation":790,"Ġimport":791,"leep":792,"Ġpart":793,"oy":794,"ĠDo":795,"ol":796,"Ġother":797,"Ġmo":798,"Ġmight":799,"Ġimportant":800,"Ġpret":801,"Ġhands":802,"ĠF":803,"Ġnice":804,"Ġdi":805,"Ġhappy":806,"ss":807,"Ġbetter":808,"pl":809,"Ġbl":810,"Ġcareful":811,"Ġbot":812,"ĠGood":813,"Ġgame":814,"thing":815,"Ġra":816,"Ġagain":817,"Ġtheir":818,"vent":819,"Ġmu":820,"ĠLike":821,"Ġguess":822,"fore":823,"ject":824,"Ġnext":825,"The":826,"Ġshould":827,"ves":828,"Ġbeing":829,"Ġsuper":830,"Ġbefore":831,"Ġwa":832,"Ġinto":833,"el":834,"ways":835,"ĠDid":836,"Ġbit":837,"ild":838,"ĠPl":839,"ho":840,"Ġtoys":841,"Ġstu":842,"Ġblock":843,"Ġball":844,"Ġkind":845,"Ġwhere":846,"Ġshare":847,"Ġshe":848,"ving":849,"Ġtoy":850,"Ġhome":851,"ade":852,"Ġpe":853,"Ġfast":854,"Ġproject":855,"Ġaway":856,"Ġgive":857,"stand":858,"able":859,"Ġwhi":860,"Ġhear":861,"ous":862,"ird":863,"Ġfeel":864,"ull":865,"Ġfi":866,"Ġsounds":867,"Ġpo":868,"Good":869,"Ġalways":870,"Ġsk":871,"unny":872,"ease":873,"Ġeveryone":874,"Ġhappen":875,"Ġlot":876,"ople":877,"eal":878,"Ġsleep":879,"Hey":880,"Ġunderstand":881,"dd":882,"ĠWell":883,"Ġhar":884,"Ġche":885,"ial":886,"oach":887,"ump":888,"Ġwait":889,"ose":890,"Ġtoday":891,"Ġstr":892,"ffe":893,"Ġdraw":894,"ĠExactly":895,"ĠLook":896,"Ġfriends":897,"Ġcha":898,"ace":899,"ked":900,"ance":901,"right":902,"Ġmom":903,"Ġbook":904,"Ġsweetie":905,"Ġbest":906,"Ġsafe":907,"Ġstill":908,"Ġmuch":909,"venture":910,"oud":911,"Ġid":912,"old":913,"Ġhu":914,"ye":915,"Ġoutside":916,"Ġwon":917,"Ġsnack":918,"ĠJust":919,"Ġun":920,"Ġbre":921,"Ġpeople":922,"Ġready":923,"Ġadventure":924,"Ġwhy":925,"gg":926,"Ġdidn":927,"Ġboth":928,"Ġfin":929,"ĠSee":930,"other":931,"Ġidea":932,"Ġlea":933,"Ġcour":934,"Ġsl":935,"ise":936,"Ġgr":937,"ist":938,"Ġtalk":939,"Ġhas":940,"Ġfound":941,"Ġaround":942,"ble":943,"red":944,"ip":945,"ouse":946,"os":947,"Ġhim":948,"Ġcourse":949,"Ġplaying":950,"Ġhard":951,"Ġtw":952,"room":953,"Ġmeans":954,"hen":955,"ĠIf":956,"hes":957,"But":958,"Ġpick":959,"Ġthese":960,"Ġmade":961,"iz":962,"Ġapp":963,"Ġstay":964,"Ġcook":965,"Ġoff":966,"Ġtri":967,"ummy":968,"Ġtow":969,"Ġcome":970,"ract":971,"Ġbuild":972,"ĠMommy":973,"Ġmaybe":974,"Ġplant":975,"Ġtea":976,"ĠWhy":977,"Ġact":978,"als":979,"Ġblocks":980,"Ġplease":981,"Ġold":982,"ons":983,"Ġres":984,"Ġmakes":985,"ac":986,"Ġbunny":987,"Ġdone":988,"Ġhur":989,"ning":990,"lright":991,"ush":992,"Ġher":993,"Ġever":994,"Ġstuff":995,"arm":996,"utor":997,"Ġbird":998,"age":999,"Ġlater":1000,"Ġbeen":1001,"up":1002,"Ġwatch":1003,"nce":1004,"Ġbreak":1005,"Ġred":1006,"Ġpretty":1007,"night":1008,"Ġpr":1009,"th":1010,"mm":1011,"It":1012,"imes":1013,"Ġown":1014,"Ġbed":1015,"ment":1016,"ts":1017,"Ġanim":1018,"Ġbox":1019,"Ġthough":1020,"iny":1021,"ffere":1022,"Ġdin":1023,"chool":1024,"ream":1025,"ĠHere":1026,"randpa":1027,"eddy":1028,"ash":1029,"ity":1030,"Ġsomeone":1031,"hed":1032,"Ġdiffere":1033,"Ġthose":1034,"Tutor":1035,"Coach":1036,"Ġman":1037,"Ġsit":1038,"ms":1039,"ring":1040,"ti":1041,"ually":1042,"Ġfood":1043,"Ġkid":1044,"de":1045,"Ġspec":1046,"ĠMr":1047,"Ġdoing":1048,"Ġsaid":1049,"Ġwr":1050,"Ġreal":1051,"ner":1052,"Ġset":1053,"Ġschool":1054,"Ġstick":1055,"Ġhigh":1056,"ict":1057,"Ġrun":1058,"ĠDaddy":1059,"ne":1060,"iss":1061,"Ġfix":1062,"Ġfl":1063,"Ġdoesn":1064,"lor":1065,"ence":1066,"Ġfinish":1067,"ute":1068,"ĠSure":1069,"ĠRe":1070,"Ġtra":1071,"Ġwithout":1072,"Ġwhile":1073,"Ġtwo":1074,"Ġflow":1075,"Ġlist":1076,"Ġplan":1077,"ĠMy":1078,"Ġnight":1079,"Ġfair":1080,"asure":1081,"'d":1082,"ead":1083,"Ġsun":1084,"ath":1085,"ouch":1086,"Ġwind":1087,"Ġstrong":1088,"Ġaw":1089,"ions":1090,"iet":1091,"irlf":1092,"irlfriend":1093,"Ġblue":1094,"Ġwent":1095,"Ġlong":1096,"na":1097,"mor":1098,"Ġeverything":1099,"Ġgrow":1100,"Ġdrag":1101,"Ġle":1102,"ma":1103,"Ġmaking":1104,"Ġcolor":1105,"so":1106,"Ġtreasure":1107,"Girlfriend":1108,"Ġchan":1109,"Ġfo":1110,"ork":1111,"reen":1112,"Ġspecial":1113,"eep":1114,"ost":1115,"ĠRemember":1116,"rink":1117,"Ġkit":1118,"fect":1119,"ĠIs":1120,"Ġcall":1121,"Ġdifferent":1122,"Ġask":1123,"Ġhappened":1124,"Ġduck":1125,"friend":1126,"Ġde":1127,"akes":1128,"ler":1129,"ory":1130,"Ġhurt":1131,"Ġsaw":1132,"unch":1133,"Ġend":1134,"ps":1135,"Ġgen":1136,"ily":1137,"erfect":1138,"Ġpract":1139,"Ġpark":1140,"Ġanimals":1141,"ave":1142,"cc":1143,"Ġhelping":1144,"Ġse":1145,"anc":1146,"ppy":1147,"pen":1148,"ĠThen":1149,"gy":1150,"Ġinside":1151,"Ġdry":1152,"Ġsmall":1153,"Ġgl":1154,"Ġcr":1155,"ĠOf":1156,"Boy":1157,"Boyfriend":1158,"Ġmag":1159,"Ġtrying":1160,"icture":1161,"Ġwash":1162,"Ġlisten":1163,"oes":1164,"ount":1165,"arden":1166,"Ġgetting":1167,"Ġstories":1168,"esome":1169,"Ġdec":1170,"Ġroom":1171,"Ġwalk":1172,"ken":1173,"Ġcold":1174,"ĠWhen":1175,"Ġpu":1176,"Ġpicture":1177,"aper":1178,"Ġword":1179,"Ġgarden":1180,"We":1181,"Ġtruck":1182,"Ġdragon":1183,"Ġhold":1184,"Ġisn":1185,"ĠGrandpa":1186,"augh":1187,"Ġsqu":1188,"Ġhouse":1189,"work":1190,"weetie":1191,"ĠThis":1192,"ress":1193,"Ġdis":1194,"Ġpain":1195,"ins":1196,"Ġthan":1197,"Ġthr":1198,"Ġclo":1199,"Ġclass":1200,"Ġdinner":1201,"Ġupon":1202,"oney":1203,"Thank":1204,"Ġanything":1205,"Ġexpl":1206,"Ġmess":1207,"Ġjump":1208,"ĠPlus":1209,"Ġpie":1210,"Ġalso":1211,"Ġbra":1212,"vor":1213,"Ġanother":1214,"Ġsoon":1215,"Ġquiet":1216,"bb":1217,"What":1218,"Ġfish":1219,"Ġthrough":1220,"Yeah":1221,"ared":1222,"romise":1223,"Ġlast":1224,"Ġfall":1225,"irit":1226,"Ġinst":1227,"ary":1228,"Ġspirit":1229,"Ġproble":1230,"morrow":1231,"ĠThere":1232,"Ġtomorrow":1233,"Ġel":1234,"Ġtree":1235,"ĠAlright":1236,"ung":1237,"time":1238,"Ġteddy":1239,"ĠYay":1240,"Ġfly":1241,"ddler":1242,"bs":1243,"Ġmagic":1244,"Ġnap":1245,"ree":1246,"Ġyummy":1247,"Ġits":1248,"Ġeach":1249,"Ġgi":1250,"Ġlooks":1251,"Ġunt":1252,"ng":1253,"joy":1254,"Ġwarm":1255,"Ġchi":1256,"Oh":1257,"Ġgentle":1258,"Ġteam":1259,"And":1260,"Ġtower":1261,"Ġdir":1262,"Ġsometimes":1263,"oon":1264,"ign":1265,"ved":1266,"Ġelse":1267,"Ġtable":1268,"led":1269,"Ġstar":1270,"Ġsand":1271,"Ġfe":1272,"here":1273,"Ġhot":1274,"Ġju":1275,"Ġwo":1276,"Ġsad":1277,"Ġwear":1278,"Ġdrink":1279,"ense":1280,"Ġbad":1281,"Ġpaper":1282,"Ġwee":1283,"ĠRea":1284,"Ġgreen":1285,"Ġbring":1286,"Ġmove":1287,"cus":1288,"ret":1289,"Ġonly":1290,"Ġawesome":1291,"ĠU":1292,"Ġfavor":1293,"Ġflowers":1294,"eak":1295,"ĠShe":1296,"Ġfore":1297,"ious":1298,"Ġgra":1299,"Ġlight":1300,"Ġactually":1301,"Ġused":1302,"Ġthought":1303,"orry":1304,"ĠGreat":1305,"ĠGot":1306,"Ġch":1307,"Ġuntil":1308,"Ġgets":1309,"self":1310,"Ġcho":1311,"Ġresp":1312,"gs":1313,"Ġair":1314,"Ġswing":1315,"hir":1316,"Ġfavorite":1317,"Ġopen":1318,"rel":1319,"imb":1320,"Ġpretend":1321,"ience":1322,"ĠYour":1323,"Ġpractice":1324,"Ġlearning":1325,"ere":1326,"Ġcomp":1327,"Ġslow":1328,"Ġtouch":1329,"Ġsharing":1330,"bye":1331,"Ġplace":1332,"Ġsoft":1333,"Ġz":1334,"ĠPlay":1335,"ces":1336,"Ġhelps":1337,"Ġcont":1338,"Ġwanted":1339,"Ġbea":1340,"ates":1341,"aking":1342,"Ġtiny":1343,"amp":1344,"Ġsupp":1345,"lly":1346,"Ġplants":1347,"ange":1348,"Exactly":1349,"Ġthank":1350,"Ġscared":1351,"int":1352,"Ġwell":1353,"ail":1354,"Ġsky":1355,"Ġenjoy":1356,"Ġdance":1357,"ors":1358,"ĠOne":1359,"Ġdream":1360,"ank":1361,"Ġslide":1362,"Ġhist":1363,"Ġfr":1364,"Ġinstead":1365,"Ġrain":1366,"ĠK":1367,"Ġrest":1368,"Ġloved":1369,"Ġmommy":1370,"Ġdeal":1371,"ently":1372,"Ġflo":1373,"ddy":1374,"Ġhead":1375,"Ġ1":1376,"Great":1377,"ĠBe":1378,"ten":1379,"Ġwish":1380,"Ġhop":1381,"ating":1382,"Well":1383,"Ġsec":1384,"Ġpromise":1385,"aw":1386,"Ġcatch":1387,"Ġri":1388,"Ġsuch":1389,"Ġproblem":1390,"Ġwet":1391,"cle":1392,"irrel":1393,"Ġswim":1394,"Ġsnow":1395,"Ġfull":1396,"ans":1397,"ĠAre":1398,"Ġthrow":1399,"Ġclimb":1400,"Ġgoes":1401,"Ġlunch":1402,"Ġlooking":1403,"Ġnever":1404,"ock":1405,"Ġadd":1406,"Ġheard":1407,"ungry":1408,"Ġquick":1409,"ellow":1410,"ĠSt":1411,"Ġdri":1412,"ĠTh":1413,"Ġloud":1414,"Ġwhole":1415,"Ġwhich":1416,"Ġstarted":1417,"Ġwin":1418,"Ġkids":1419,"zy":1420,"ucky":1421,"Ġtoddler":1422,"Ġjuice":1423,"Ġshoes":1424,"Ġcra":1425,"Ġhelper":1426,"av":1427,"pt":1428,"Ġph":1429,"Ġfam":1430,"Ġquite":1431,"Ġbrave":1432,"Ġbel":1433,"Ġpaint":1434,"Ġsquirrel":1435,"Ġstop":1436,"sh":1437,"Ġtop":1438,"Ġbro":1439,"ĠAfter":1440,"Ġmon":1441,"Ġdark":1442,"Ġteacher":1443,"Ġexc":1444,"Ġcut":1445,"read":1446,"Ġbabysitter":1447,"Ġbas":1448,"**,":1449,"Ġenough":1450,"Ġrock":1451,"ĠDeal":1452,"Ġrec":1453,"Ġspl":1454,"igg":1455,"pped":1456,"Ġbutter":1457,"Ġclose":1458,".*":1459,"ĠNot":1460,"Ġcheck":1461,"Ġhistory":1462,"come":1463,"ated":1464,"anna":1465,"Ġmany":1466,"Ġwrite":1467,"Ġpen":1468,"ize":1469,"Ġforest":1470,"Ġdirty":1471,"Ġglad":1472,"oose":1473,"Ġeas":1474,"Ġhomework":1475,"Ġmus":1476,"ĠV":1477,"Ġperfect":1478,"Ġbrother":1479,"Ġfro":1480,"oup":1481,"Ġhat":1482,"Ġsmart":1483,"Ġhungry":1484,"ery":1485,"Ġcup":1486,"nderful":1487,"Ġspace":1488,"Ġsorry":1489,"Ġcalled":1490,"olute":1491,"orm":1492,"owl":1493,"Ġquest":1494,"olutely":1495,"Ġproud":1496,"Ġfunny":1497,"Ġyes":1498,"Ġpull":1499,"ci":1500,"ries":1501,"Did":1502,"Ġice":1503,"alt":1504,"Once":1505,"orn":1506,"Pl":1507,"Ġhaving":1508,"Ġgam":1509,"mag":1510,"atter":1511,"'?\"":1512,"St":1513,"ings":1514,"Ġmor":1515,"Ġlots":1516,"ower":1517,"Ġsense":1518,"rot":1519,"bsolutely":1520,"Ġpot":1521,"Ġsol":1522,"Ġcookies":1523,"aste":1524,"Ġwanna":1525,"Ġpush":1526,"ile":1527,"key":1528,"Sweetie":1529,"eas":1530,"cl":1531,"yes":1532,"Ġdes":1533,"Ġothers":1534,"erest":1535,"Ġpiece":1536,"man":1537,"Ġworking":1538,"Ġyellow":1539,"most":1540,"Ġhide":1541,"Yay":1542,"Ġcount":1543,"Ġsing":1544,"Ġdad":1545,"tain":1546,"uring":1547,"ets":1548,"Ġcat":1549,"Ġturns":1550,"Ġones":1551,"Ġmin":1552,"pping":1553,"Ġac":1554,"ggy":1555,"Ġeating":1556,"Ġeyes":1557,"Ġvroom":1558,"Can":1559,"Ġgently":1560,"lcome":1561,"Ġhug":1562,"Ġsibling":1563,"Ġmorning":1564,"Ġte":1565,"bo":1566,"ible":1567,"Look":1568,"Ġstand":1569,"Ġfine":1570,"more":1571,"fin":1572,"ipe":1573,"Ġcame":1574,"Ġride":1575,"Ġonce":1576,"Ġear":1577,"Ġlearned":1578,"ĠIn":1579,"Ġbuddy":1580,"Ġwelcome":1581,"Ġsick":1582,"Ġele":1583,"Ġhit":1584,"Ġinterest":1585,"Ġwonderful":1586,"ix":1587,"Ġrace":1588,"Ġorange":1589,"Let":1590,"ided":1591,"Ġanymore":1592,"Ġlo":1593,"Ġspot":1594,"Ġleaves":1595,"Ġbath":1596,"Ġparty":1597,"aces":1598,"Ġchange":1599,"ĠReady":1600,"Ġfamily":1601,"zing":1602,"Ġmov":1603,"Ġtired":1604,"Ġsweet":1605,"Ġwasn":1606,"'?":1607,"Ġstuck":1608,"Ġexplain":1609,"Alright":1610,"ĠEvery":1611,"Ġexcit":1612,"Ġsandw":1613,"Ġapple":1614,"appy":1615,"Play":1616,"ster":1617,"Ġcreat":1618,"ĠCoach":1619,"ĠAll":1620,"mon":1621,"oot":1622,"Ġfig":1623,"ical":1624,"Ġtrees":1625,"Ġsays":1626,"gu":1627,"ĠWow":1628,"Ġsticky":1629,"Ġthinking":1630,"Ġbite":1631,"Ġanyone":1632,"Ġlife":1633,"ecause":1634,"pe":1635,"Ġsur":1636,"Ġfeeling":1637,"Ġless":1638,"randma":1639,"ĠDon":1640,"Ġfocus":1641,"Ġfire":1642,"ug":1643,"Ġheav":1644,"sent":1645,"Ġdoor":1646,"ĠTo":1647,"if":1648,"Ġacc":1649,"Ġsame":1650,"eat":1651,"ĠMe":1652,"Ġjack":1653,"Ġkitty":1654,"Ġatt":1655,"Ġplayed":1656,"Ġdog":1657,"Ġpoint":1658,"Ġusing":1659,"finite":1660,"elt":1661,"Ġcomes":1662,"Of":1663,"Ġdecided":1664,"Ġfloor":1665,"Ġalmost":1666,"ub":1667,"ĠSp":1668,"finitely":1669,"hip":1670,"ooked":1671,"Ġbirds":1672,"Ġcars":1673,"Ġtaking":1674,"Ġgames":1675,"Ġmusic":1676,"Ġmost":1677,"Ġhoney":1678,"set":1679,"Ġimag":1680,"Ġpers":1681,"Ġclot":1682,"Ġheavy":1683,"iv":1684,"ilk":1685,"Ġunderstanding":1686,"ĠSomet":1687,"ĠWas":1688,"Ġstep":1689,"ĠOnce":1690,"Ġstars":1691,"uct":1692,"Ġho":1693,"less":1694,"Ġfelt":1695,"Ġbroken":1696,"llow":1697,"Ġdro":1698,"Ġyucky":1699,"Ġtalking":1700,"Ġext":1701,"Ġtold":1702,"Ġneeds":1703,"ents":1704,"Ġfigure":1705,"Ġbelie":1706,"ns":1707,"its":1708,"Ġbab":1709,"ĠHmm":1710,"astle":1711,"Ġduring":1712,"ire":1713,"Ġmiss":1714,"Ġgone":1715,"Ġcookie":1716,"Ġpir":1717,"Ġground":1718,"ules":1719,"ĠSha":1720,"Ġfew":1721,"Ġama":1722,"Ġsleepy":1723,"Ġcarry":1724,"Ġrel":1725,"ier":1726,"zz":1727,"onna":1728,"ĠHave":1729,"Ġcray":1730,"Ġsuperher":1731,"str":1732,"Ġknight":1733,"Ġtrain":1734,"Ġexper":1735,"Ġworry":1736,"ics":1737,"Ġscience":1738,"Ġpat":1739,"Ġshiny":1740,"Ġboat":1741,"Ġamazing":1742,"osed":1743,"Ġbus":1744,"Ġener":1745,"Ġtall":1746,"ĠMrs":1747,"Ġdrawing":1748,"ĠAbsolutely":1749,"cken":1750,"ices":1751,"Ġdear":1752,"Ġtook":1753,"ĠSometimes":1754,"Ġgonna":1755,"Ġworld":1756,"ross":1757,"Ġmoon":1758,"Ġlived":1759,"raw":1760,"Ġrules":1761,"ĠWould":1762,"Ġjacket":1763,"where":1764,"Ġrespons":1765,"Ġblow":1766,"ations":1767,"Ġmovie":1768,"Ġpop":1769,"kend":1770,"Ġprot":1771,"Ġpass":1772,"air":1773,"Ġtim":1774,"They":1775,"ĠWill":1776,"Ġwhite":1777,"Ġfollow":1778,"Ġenergy":1779,"ward":1780,"ĠSweetie":1781,"Ġpour":1782,"Ġcarrot":1783,"Ġcre":1784,"Ġweek":1785,"Ġweekend":1786,"Ġfrog":1787,"So":1788,"Ġfive":1789,"Ġwouldn":1790,"Ġtried":1791,"ese":1792,"Ġhelped":1793,"Ġtight":1794,"oring":1795,"Ġsupposed":1796,"Ġchild":1797,"Ġexactly":1798,"Ġskate":1799,"Ġwood":1800,"Ġmad":1801,"Ġcomm":1802,"Ġspill":1803,"Ġpresent":1804,"Ġside":1805,"Ġname":1806,"'.":1807,"Ġcream":1808,"Ġchair":1809,"Ġhealt":1810,"Ġsplash":1811,"Ġland":1812,"po":1813,"Ġhuh":1814,"Ġlost":1815,"chen":1816,"Ġmust":1817,"br":1818,"Ġsnacks":1819,"cks":1820,"der":1821,"Ġseen":1822,"dden":1823,"bbles":1824,"ax":1825,"Ġyourself":1826,"Ġthanks":1827,"Ġbeaut":1828,"ĠRight":1829,"Ġlooked":1830,"Ġadventures":1831,"Ġcow":1832,"Ġteach":1833,"Ġtick":1834,"ew":1835,"Ġmoney":1836,"ounds":1837,"Ġtonight":1838,"sty":1839,"Ġhang":1840,"Ġmilk":1841,"Ġneighbor":1842,"ges":1843,"Ġmine":1844,"Ġcoming":1845,"Ġexp":1846,"Ġrem":1847,"ints":1848,"ully":1849,"Ġsong":1850,"Ġru":1851,"Ġboo":1852,"Ġface":1853,"Ġcolors":1854,"Ġchicken":1855,"Ġcastle":1856,"ane":1857,"Ġkitchen":1858,"Ġknows":1859,"Ġes":1860,"Ġbal":1861,"ness":1862,"Ġscary":1863,"Ġhuge":1864,"ĠHi":1865,"co":1866,"Ġbrown":1867,"Ġcouldn":1868,"ds":1869,"Ġage":1870,"Ġsy":1871,"Ġforget":1872,"Ġperson":1873,"Ġwords":1874,"Ġinteresting":1875,"Ġblank":1876,"aps":1877,"Ġmet":1878,"hirsty":1879,"Ġguys":1880,"ĠDoes":1881,"fully":1882,"Ġhealthy":1883,"...\"":1884,"Ġtaste":1885,"Ġgrab":1886,"uts":1887,"Ġgave":1888,"Ġtrip":1889,"og":1890,"aur":1891,"ich":1892,"ens":1893,"ches":1894,"ient":1895,"Ġsecret":1896,"em":1897,"Ġbody":1898,"Ġfeed":1899,"Ġblack":1900,"uff":1901,"Ġleave":1902,"Ġbuy":1903,"Ġkick":1904,"Ġser":1905,"Ġseed":1906,"iful":1907,"Ġfre":1908,"Ġdet":1909,"col":1910,"Ġsaying":1911,"fl":1912,"ature":1913,"Ġlive":1914,"isy":1915,"Ġsave":1916,"Ġextra":1917,"ĠBecause":1918,"Ġmind":1919,"ĠFor":1920,"Ġdanc":1921,"ides":1922,"Ġhor":1923,"Bye":1924,"âĢĶ":1925,"ĠSw":1926,"llo":1927,"Ġwild":1928,"ĠBye":1929,"hind":1930,"pes":1931,"Ġbuilding":1932,"ls":1933,"Ġclothes":1934,"Ġart":1935,"Ġpuppy":1936,"form":1937,"Ġpictures":1938,"ĠAny":1939,"ĠKeep":1940,"Ġfarm":1941,"Ġrep":1942,"Ġbaby":1943,"Ġmagical":1944,"Ġcir":1945,"ants":1946,"Ġbooks":1947,"Ġwipe":1948,"ding":1949,"Ġfar":1950,"Ġbright":1951,"Ġbehind":1952,"hirt":1953,"Ġyet":1954,"Ġstarts":1955,"Ġbutt":1956,"ition":1957,"Ġseem":1958,"Ġbigger":1959,"Ġbelieve":1960,"ĠVroom":1961,"kes":1962,"uit":1963,"hant":1964,"ention":1965,"Ġroll":1966,"Ġrespect":1967,"Ġmath":1968,"Ġwall":1969,"Ġprotect":1970,"Ġmouse":1971,"Ġmix":1972,"osaur":1973,"io":1974,"Here":1975,"Ġban":1976,"Ġsweep":1977,"Ġbeautiful":1978,"sp":1979,"Ġweird":1980,"To":1981,"Help":1982,"Ġsandwich":1983,"uc":1984,"oof":1985,"Ġdrive":1986,"Ġpower":1987,"cess":1988,"eaking":1989,"rib":1990,"Ġstore":1991,"Ġhappens":1992,"Ġfill":1993,"Ġper":1994,"iggles":1995,"omps":1996,"ĠFine":1997,"Ġcloud":1998,"Ġwrong":1999,"ters":2000,"ident":2001,"Ġcover":2002,"kin":2003,"Ġdoggy":2004,"aught":2005,"Ġpig":2006,"ase":2007,"colate":2008,"Ġturtle":2009,"ape":2010,"ched":2011,"ĠThomps":2012,"ĠThompson":2013,"orts":2014,"ially":2015,"Ġshake":2016,"Ġ2":2017,"Ġtreat":2018,"Wow":2019,"ult":2020,"Ġknock":2021,"Ġbrush":2022,"Ġthree":2023,"Happy":2024,"Ġthirsty":2025,"Ġegg":2026,"ond":2027,"Ġant":2028,"ouble":2029,"Ġam":2030,"Ġfeet":2031,"eeth":2032,"Ġcleaning":2033,"ycle":2034,"Ġfit":2035,"ĠWant":2036,"ffect":2037,"ĠMore":2038,"Ġclear":2039,"Ġsuperhero":2040,"ĠWho":2041,"ils":2042,"Ġvide":2043,"All":2044,"light":2045,"Ġshirt":2046,"iced":2047,"Ġcheese":2048,"Ġtakes":2049,"Ġbowl":2050,"Ġexplore":2051,"illy":2052,"ric":2053,"Ġbat":2054,"Ġpirate":2055,"urn":2056,"ĠReally":2057,"ude":2058,"Ġleft":2059,"ccer":2060,"ĠPerfect":2061,"Ġcozy":2062,"Ġdreams":2063,"ought":2064,"Ġpieces":2065,"Ġfoot":2066,"ĠCome":2067,"anger":2068,"do":2069,"Ġarg":2070,"Ġlate":2071,"Ġhope":2072,"ars":2073,"Ġhorse":2074,"ield":2075,"ber":2076,"hie":2077,"ows":2078,"Ġbubbles":2079,"Ġrunning":2080,"Ġteeth":2081,"Ġolder":2082,"Ġgrass":2083,"Ġlistening":2084,"Ġapples":2085,"oom":2086,"Ġbalance":2087,"Ġyear":2088,"een":2089,"Ġtrue":2090,"sm":2091,"ang":2092,"Ġupset":2093,"Ġtest":2094,"Ġsmile":2095,"Ġmap":2096,"Ġinv":2097,"gr":2098,"Ġemp":2099,"More":2100,"iling":2101,"ĠTell":2102,"ues":2103,"Ġcoll":2104,"Ġsign":2105,"Ġchocolate":2106,"iles":2107,"Ġfeels":2108,"Ġspoon":2109,"pec":2110,"ards":2111,"ĠWhere":2112,"to":2113,"Me":2114,"ugg":2115,"dle":2116,"Ġwindy":2117,"Ġhair":2118,"alked":2119,"ished":2120,"Ġquestion":2121,"Ġproper":2122,"phant":2123,"Ġfort":2124,"Ġnoise":2125,"Ġpress":2126,"ale":2127,"pri":2128,"arts":2129,"Ġchoice":2130,"Ġstudy":2131,"ĠAl":2132,"els":2133,"See":2134,"Ġvis":2135,"ana":2136,"Ġsoccer":2137,"Ġdinosaur":2138,"Ġflower":2139,"Ġphone":2140,"Ġrabb":2141,"ines":2142,"pecially":2143,"Ġpic":2144,"Ġespecially":2145,"Ġcute":2146,"Maybe":2147,"ont":2148,"Ġwake":2149,"--":2150,"fet":2151,"izz":2152,"Ġblanket":2153,"Ġquickly":2154,"reci":2155,"ried":2156,"Ġhero":2157,"ities":2158,"Ġcake":2159,"ever":2160,"ime":2161,"ual":2162,"Ġstre":2163,"mmer":2164,"lex":2165,"Ġworks":2166,"Ġcons":2167,"Ġlau":2168,"Ġchoose":2169,"Ġjo":2170,"Ġmeet":2171,"Ġhidden":2172,"ĠClean":2173,"ĠSome":2174,".)":2175,"Ġtelling":2176,"utes":2177,"Ġbump":2178,"lue":2179,"ral":2180,"ĠEveryone":2181,"Ġmed":2182,"Ġcry":2183,"Ġclap":2184,"Ġcompl":2185,"Like":2186,"Ġoften":2187,"llen":2188,"no":2189,"ĠSounds":2190,"Ġhandle":2191,"Ġappreci":2192,"Ġaren":2193,"Ġcand":2194,"Ġvideo":2195,"Ġmatter":2196,"ming":2197,"Ġmist":2198,"eather":2199,"earch":2200,"Ġdress":2201,"Ġnear":2202,"Ġbread":2203,"Ġideas":2204,"ĠHelp":2205,"ready":2206,"Ġref":2207,"ĠGrandma":2208,"Ġdel":2209,"Ġseeds":2210,"ider":2211,"ipp":2212,"rect":2213,"Ġpond":2214,"Ġalright":2215,"vel":2216,"Ġkiss":2217,"Ġeasy":2218,"Ġdist":2219,"Ġplaces":2220,"ĠTeddy":2221,"Ġenv":2222,"Ġtrack":2223,"uce":2224,"Ġalready":2225,"Ġcor":2226,"ze":2227,"Ġpast":2228,"Ġdanger":2229,"Ġcouch":2230,"Night":2231,"vers":2232,"Ġcamp":2233,"rew":2234,"hh":2235,"ountain":2236,"If":2237,"fast":2238,"Ġnoticed":2239,"iron":2240,"Ġfield":2241,"imp":2242,"Ġtrick":2243,"Ġbutton":2244,"ife":2245,"Ġkeeps":2246,"ility":2247,"ironment":2248,"ket":2249,"Ġboring":2250,"!'":2251,"ered":2252,"Sure":2253,"Qu":2254,"How":2255,"Ġtough":2256,"ĠBig":2257,"ĠSharing":2258,"Ġsilly":2259,"Ġnoisy":2260,"Ġenvironment":2261,"fly":2262,"Ġglass":2263,"Ġminutes":2264,"Ġgiant":2265,"izza":2266,"Ġpri":2267,"rap":2268,"Ġgar":2269,"Ġass":2270,"lls":2271,"gest":2272,"Ġpuzz":2273,"ator":2274,"ument":2275,"Ġnam":2276,"ĠGo":2277,"outh":2278,"Ġcontro":2279,"Clean":2280,"Ġskill":2281,"Ġfaster":2282,"Ġappreciate":2283,"Ġter":2284,"Ġtrouble":2285,"eed":2286,"ution":2287,"ĠBu":2288,"Ġneeded":2289,"Ġusually":2290,"iting":2291,"Ġbedtime":2292,"ord":2293,"oth":2294,"ks":2295,"Ġelephant":2296,"Ġexcited":2297,"rr":2298,"Ġyard":2299,"Ġwaiting":2300,"Ġliving":2301,"ĠNext":2302,"aus":2303,"rac":2304,"Why":2305,"Ġkey":2306,"fety":2307,"Ġcommun":2308,"Ġtummy":2309,"Ġve":2310,"Ġexamp":2311,"Ġtimes":2312,"Ġhey":2313,"Ġcal":2314,"Ġrabbit":2315,"Ġfight":2316,"king":2317,"Ġgrandpa":2318,"nack":2319,"ather":2320,"Ġexciting":2321,"Ġsea":2322,"Ġmonkey":2323,"Ġairpl":2324,"ones":2325,"Ġbiggest":2326,"Ġpol":2327,"het":2328,"Ġed":2329,"Do":2330,"Ġcarrots":2331,"Ġinter":2332,"Ġla":2333,"Ġbike":2334,"ures":2335,"One":2336,"Ġdirt":2337,"hisk":2338,"Ġempty":2339,"Ġconf":2340,"Ġmot":2341,"ĠHold":2342,"Ġevent":2343,"Ġputting":2344,"efinitely":2345,"Ġpus":2346,"umb":2347,"Ġimagine":2348,"Ġtot":2349,"Ġdrop":2350,"Ġcoat":2351,"Ġserious":2352,"ball":2353,"Ġtickle":2354,"Ġcarefully":2355,"Ġcap":2356,"Thanks":2357,"Parent":2358,"Ġreading":2359,"Ġship":2360,"Ġbag":2361,"uffy":2362,"aughty":2363,"Ġsoup":2364,"Ġasleep":2365,"Ġwants":2366,"Ġowl":2367,"ren":2368,"Ġbecome":2369,"ince":2370,"Ġbreakfast":2371,"Ġanimal":2372,"Ġflying":2373,"Ġcrack":2374,"nect":2375,"Ġquestions":2376,"Ġpur":2377,"stem":2378,"ĠCool":2379,"Ġmountain":2380,"Ġshar":2381,"Ġcreate":2382,"Ġasking":2383,"ĠTr":2384,"Ġhour":2385,"Ġleg":2386,"aj":2387,"Ġsoap":2388,"Ġnothing":2389,"Ġwatching":2390,"Ġfing":2391,"Ġyeah":2392,"Ġgiving":2393,"ĠSam":2394,"Ġchase":2395,"Ġcu":2396,"ĠWith":2397,"Ġyours":2398,"lew":2399,"Ġchance":2400,"Ġplate":2401,"Ġnose":2402,"sing":2403,"Ġparent":2404,"Ġsoil":2405,"Ġeff":2406,"Ġpizza":2407,"Ġsurpri":2408,"hiskers":2409,"Ġreach":2410,"Ġbreat":2411,"Ġslowly":2412,"Ġchallen":2413,"Ġmoment":2414,"ĠHello":2415,"Rea":2416,"line":2417,"Ġjell":2418,"ert":2419,"Ġresponsib":2420,"Ġty":2421,"Ġworked":2422,"Ġfact":2423,"board":2424,"ĠAh":2425,"Ġlion":2426,"Ġarms":2427,"Ġphot":2428,"mat":2429,"Ġtear":2430,"Ġballoon":2431,"unt":2432,"ĠFirst":2433,"Ġsme":2434,"Ġducks":2435,"astic":2436,"ĠPlease":2437,"Ġcrayons":2438,"Ġdefinitely":2439,"Ġlaug":2440,"Ġeverywhere":2441,"Ġexplaining":2442,"After":2443,"Ġtrash":2444,"ĠEat":2445,"Ġbasket":2446,"iding":2447,"idge":2448,"Ġmid":2449,"Ġmoving":2450,"Eat":2451,"Ġbottle":2452,"gan":2453,"Ġpet":2454,"logy":2455,"Ġspread":2456,"Ġparts":2457,"Big":2458,"onger":2459,"Ġalong":2460,"Ġaccident":2461,"Ġpudd":2462,"Ġmyself":2463,"Ġpool":2464,"Ġfell":2465,"Ġincl":2466,"Ġate":2467,"ination":2468,"ĠâĢ":2469,"Ġbeans":2470,"Ġbott":2471,"ĠThink":2472,"Ġmod":2473,"Ġlad":2474,"ait":2475,"Ġconc":2476,"Ġbutterfly":2477,"Ġglue":2478,"Ġdangerous":2479,"ized":2480,"ĠWhiskers":2481,"head":2482,"ably":2483,"sed":2484,"):":2485,"Ġband":2486,"Ġbecame":2487,"ular":2488,"iger":2489,"ĠTV":2490,"ud":2491,"Ġproblems":2492,"Ġbrought":2493,"ific":2494,"Ġpainting":2495,"Ġsimp":2496,"Ġshot":2497,"oun":2498,"Ġmouth":2499,"Ġwalking":2500,"Ġfree":2501,"Ġnicely":2502,"Ġhappily":2503,"Ġshelf":2504,"ope":2505,"Ġnaughty":2506,"Ġgold":2507,"Ġshared":2508,"Ġmar":2509,"Ġexample":2510,"Ġpack":2511,"Ġwindow":2512,"Ġtech":2513,"ia":2514,"Now":2515,"heart":2516,"lves":2517,"aterial":2518,"ĠGoodnight":2519,"iqu":2520,"ging":2521,"ments":2522,"Ġpill":2523,"Ġconnect":2524,"Ġpuzzle":2525,"ah":2526,"Ġpanc":2527,"Ġpresentation":2528,"ĠYummy":2529,"ative":2530,"Ġairplane":2531,"kins":2532,"Ġremind":2533,"ground":2534,"Ġcaught":2535,"Ġyoung":2536,"aughs":2537,"Ġmark":2538,"Ġtoast":2539,"Very":2540,"urt":2541,"Ġdeep":2542,"Ġzoo":2543,"Ġelect":2544,"uh":2545,"Ġglo":2546,"Ġbuck":2547,"Ġbase":2548,"Ġlead":2549,"Ġclouds":2550,"bably":2551,"oh":2552,"Ġcur":2553,"ĠAw":2554,"Ġcandy":2555,"Ġmaterial":2556,"Ġvo":2557,"starts":2558,"Ġfruit":2559,"Ġtotally":2560,"Ġkiddo":2561,"Ġgroup":2562,"Ġfinding":2563,"Ġheart":2564,"Ġkept":2565,"Ġturned":2566,"Ġsneak":2567,"Ġparents":2568,"Deal":2569,"Ġret":2570,"Ġacross":2571,"irl":2572,"Ġsho":2573,"Ġvol":2574,"Ġcharac":2575,"ural":2576,"Ġlesson":2577,"umber":2578,"Ġcrayon":2579,"Ġstra":2580,"Ġdaddy":2581,"Ġsupport":2582,"Ġways":2583,"Ġeasier":2584,"Ġtowel":2585,"ĠBeing":2586,"Ġpump":2587,"Ġval":2588,"hetti":2589,"ĠWils":2590,"oop":2591,"Ġstraw":2592,"ĠWilson":2593,"ister":2594,"ĠMax":2595,"Ġeng":2596,"itch":2597,"Ġlift":2598,"bit":2599,"Ġknew":2600,"Ġmanage":2601,"Ġawake":2602,"Ġkinda":2603,"giggles":2604,"ged":2605,"cept":2606,".'":2607,"ĠâĢĵ":2608,"lic":2609,"aghetti":2610,"Ġpar":2611,"yard":2612,"Ġdays":2613,"ajam":2614,"Ġlose":2615,"land":2616,"Ġhunt":2617,"ĠSammy":2618,"Bear":2619,"irth":2620,"Ġlaw":2621,"ĠHigh":2622,"Ġnamed":2623,"Ġking":2624,"Ġtast":2625,"icks":2626,"Ġdr":2627,"arth":2628,"pic":2629,"crib":2630,"Ġmodel":2631,"Ġseek":2632,"Ġwoods":2633,"walk":2634,"Ġtrust":2635,"Ġpee":2636,"ĠEarth":2637,"selves":2638,"Ġline":2639,"Ġdig":2640,"ĠHa":2641,"Ġcorn":2642,"Ġprobably":2643,"monstr":2644,"Ġsink":2645,"Ġinc":2646,"Ġtown":2647,"Ġvisit":2648,"ĠPark":2649,"ony":2650,"ĠWatch":2651,"Ġround":2652,"anut":2653,"Ġshouldn":2654,"Goodnight":2655,"Ġsolve":2656,"Ġdancing":2657,"Ġreg":2658,"Ġcard":2659,"Ġsort":2660,"Ġshort":2661,"Ġfut":2662,"ky":2663,"ween":2664,"Ġoce":2665,"ades":2666,"ĠMake":2667,"nic":2668,"cal":2669,"ĠDefinitely":2670,"idy":2671,"Ġdesign":2672,"icing":2673,"Ġcrazy":2674,"Ġchar":2675,"Ġbanana":2676,"Ġaffect":2677,"plash":2678,"Ġsetting":2679,"Ġlick":2680,"Ġran":2681,"Ġsub":2682,"Hi":2683,"cked":2684,"Ġlegs":2685,"Ġproperly":2686,"ops":2687,"Ġargument":2688,"Ġroo":2689,"ertain":2690,"Not":2691,"Ġeggs":2692,"Ġimpro":2693,"Ġdump":2694,"Ġfuture":2695,"bra":2696,"ĠCar":2697,"Ġorgan":2698,"**.":2699,"Ġtale":2700,"app":2701,"Ġcase":2702,"Ġhurry":2703,"Ġdef":2704,"gar":2705,"Ġdoct":2706,"uess":2707,"Ġhiding":2708,"entle":2709,"Ġnature":2710,"log":2711,"Ġdifference":2712,"Ġmiddle":2713,"Ġconsider":2714,"Ġform":2715,"Ġlaugh":2716,"Ġsnowman":2717,"Ġquack":2718,"',":2719,"iches":2720,"Ġsafely":2721,"Ġresearch":2722,"Ġoh":2723,"Ġbackyard":2724,"Ġhum":2725,"Ġgrowing":2726,"Ġsafety":2727,"Ġmel":2728,"ĠSpeaking":2729,"ives":2730,"ails":2731,"terday":2732,"Ġwings":2733,"Ġspaghetti":2734,"Ġshows":2735,"Ġbottom":2736,"erms":2737,"Right":2738,"Ġprocess":2739,"Ġtape":2740,"Ġtooth":2741,"irthday":2742,"Ġtidy":2743,"Ġresponsible":2744,"ajamas":2745,"Sw":2746,"orrow":2747,"Ġsimple":2748,"ete":2749,"Ġagainst":2750,"house":2751,"ĠHappy":2752,"yc":2753,"ooth":2754,"Ġfixed":2755,"pect":2756,"Ġflew":2757,"Ġequ":2758,"Ġess":2759,"ĠSay":2760,"Ġrob":2761,"Ġhole":2762,"Ġassign":2763,"Ġsandwiches":2764,"ique":2765,"ian":2766,"ilt":2767,"Ġbin":2768,"Ġdelic":2769,"ĠYep":2770,"ĠCould":2771,"box":2772,"Ġyears":2773,"Ġbar":2774,"Ġmoves":2775,"Ġsecond":2776,"Ġjar":2777,"Ġforg":2778,"Ġstraight":2779,"Ġhaven":2780,"Ġfluffy":2781,"Ġgives":2782,"Ġbugs":2783,"Ġstea":2784,"ats":2785,"ĠAn":2786,"Ġgarage":2787,"Ġsince":2788,"oosh":2789,"Ġseems":2790,"Ġsystem":2791,"erv":2792,"Ġheal":2793,"ĠQu":2794,"ule":2795,"ancy":2796,"Ġluck":2797,"Ġplaytime":2798,"Ġpiggy":2799,"Was":2800,"laughs":2801,"Ġexperience":2802,"iness":2803,"hold":2804,"Ġchest":2805,"Ġslices":2806,"Ġboy":2807,"ĠYum":2808,"locks":2809,"ering":2810,"Ġbetween":2811,"Ġmud":2812,"Ġmach":2813,"My":2814,"Ġhill":2815,"Ġpeanut":2816,"com":2817,"ĠAwesome":2818,"ĠIsn":2819,"Ġsheep":2820,"Ġalone":2821,"Ġeye":2822,"ĠSh":2823,"Ġintense":2824,"Ġepic":2825,"Ġfresh":2826,"Ġcalm":2827,"Ġpay":2828,"iew":2829,"Ġdeer":2830,"issors":2831,"Ġstrawber":2832,"mit":2833,"ĠSorry":2834,"Ġcontrol":2835,"Ġgirl":2836,"Ġcost":2837,"Ġcertain":2838,"Ġbug":2839,"ined":2840,"ote":2841,"Ġkitten":2842,"points":2843,"Ġsharp":2844,"Ġbroom":2845,"Ġforward":2846,"ĠCl":2847,"Ġcreative":2848,"Ġpengu":2849,"bow":2850,"Ġnumber":2851,"Ġdiscus":2852,"Ġwriting":2853,"Ġtack":2854,"dies":2855,"Ġcere":2856,"Ġnat":2857,"ĠPe":2858,"Ġadv":2859,"ĠChe":2860,"Ġcolorful":2861,"Ġpajamas":2862,"fort":2863,"Ġlay":2864,"Ġhon":2865,"era":2866,"olved":2867,"Ġyesterday":2868,"ises":2869,"ĠEn":2870,"Ġattention":2871,"Ġnuts":2872,"Ġsitting":2873,"Ġmemor":2874,"Ġpracticing":2875,"Ġtalked":2876,"Ġkeeping":2877,"sc":2878,"ĠAnytime":2879,"Hold":2880,"Ġshowing":2881,"boo":2882,"Ġrip":2883,"Ġfas":2884,"Story":2885,"Ġeffort":2886,"Ġprin":2887,"ages":2888,"Ġbeach":2889,"Ġfinished":2890,"Ġsmell":2891,"oons":2892,"Ġow":2893,"Ġmessy":2894,"Ġbirthday":2895,"ph":2896,"Ġarm":2897,"Ġpotat":2898,"guing":2899,"Sha":2900,"Ġent":2901,"Ġinform":2902,"Ġzoom":2903,"sw":2904,"Ġswings":2905,"Ġmention":2906,"Ġgerms":2907,"Ġears":2908,"ses":2909,"Ġmain":2910,"Ġpotty":2911,"Ġocean":2912,"Ġbee":2913,"Ġpea":2914,"Ġpicnic":2915,"nch":2916,"Ġsto":2917,"Ġlevel":2918,"Ġreas":2919,"Ġflag":2920,"Ġboots":2921,"Ġvill":2922,"Bunny":2923,"Ġpants":2924,"Ġcircle":2925,"Ġpeas":2926,"Fine":2927,"Ġgrandma":2928,"itten":2929,"uper":2930,"Ġliked":2931,"Ġspark":2932,"Cl":2933,"Ġtiger":2934,"Ġarguing":2935,"Ġtowards":2936,"Ġfingers":2937,"Ġtail":2938,"Ġagree":2939,"corn":2940,"Ġscar":2941,"Ġprep":2942,"vo":2943,"Ġneck":2944,"Ġlights":2945,"Ġjelly":2946,"hoes":2947,"Ġcam":2948,"Ġgas":2949,"ustr":2950,"Ġrocks":2951,"Ġswimming":2952,"Ġcharacter":2953,"monstrates":2954,"ĠWhi":2955,"Ġable":2956,"Ġtag":2957,"Ġswea":2958,"Ġstreet":2959,"cycle":2960,"Ġdescrib":2961,"Ġdoll":2962,"Ġsal":2963,"pack":2964,"Ġcollect":2965,"Ġcamping":2966,"Ġmistakes":2967,"Ġskin":2968,"da":2969,"Ġonto":2970,"Ġfancy":2971,"ĠSa":2972,"Ġskills":2973,"Ġplayground":2974,"Ġdoctor":2975,"Ġasked":2976,"Ġpath":2977,"ĠGive":2978,"Ġpatient":2979,"Ġstrate":2980,"Ġimpress":2981,"Ġbucket":2982,"cing":2983,"Ġtext":2984,"Hmm":2985,"ta":2986,"ĠZ":2987,"Ġprom":2988,"ĠMine":2989,"Ġexperim":2990,"Ġdecide":2991,"Absolutely":2992,"Ġlikes":2993,"Ġsweetheart":2994,"Ġtackle":2995,"Ġcommunity":2996,"Ġpillow":2997,"Ġfront":2998,"Ġarea":2999,"Perfect":3000,"ĠEven":3001,"ruck":3002,"ores":3003,"Ġnatural":3004,"Ġweather":3005,"Ġgrades":3006,"Ġrobot":3007,"Ġspend":3008,"Ġaction":3009,"Ġsocks":3010,"Ġroad":3011,"Ġleast":3012,"Ġplanet":3013,"cient":3014,"Ġiss":3015,"aster":3016,"Ġstarting":3017,"Ġtun":3018,"Ġec":3019,"ences":3020,"ists":3021,"Ġdep":3022,"cise":3023,"Ġholding":3024,"Ġchanges":3025,"Ġstays":3026,"sit":3027,"Ġwat":3028,"There":3029,"Ġsitu":3030,"Ġins":3031,"Ġshowed":3032,"Ġtools":3033,"Ġforgot":3034,"---":3035,"Ġexpect":3036,"Ġpicking":3037,"Ġ---":3038,"Ġscare":3039,"Ġforever":3040,"Ġboard":3041,"ĠUn":3042,"Ġlamb":3043,"Ġfence":3044,"lide":3045,"ĠSweet":3046,"Ġcomb":3047,"Ġmedic":3048,"Ġob":3049,"Ġev":3050,"ced":3051,"Ġcous":3052,"Ġsmooth":3053,"Because":3054,"Ġscissors":3055,"mer":3056,"lent":3057,"Ġstir":3058,"Ġscr":3059,"antly":3060,"Ġrev":3061,"ining":3062,"Ġwar":3063,"Ġsticks":3064,"ele":3065,"iest":3066,"ĠNight":3067,"Ġago":3068,"ither":3069,"ted":3070,"ĠTom":3071,"Ġfriendly":3072,"Ġdecis":3073,"ĠPeople":3074,"ser":3075,"ĠVery":3076,"Ġhy":3077,"now":3078,"Ġjumping":3079,"Ġwolf":3080,"Ġshape":3081,"ovel":3082,"Ġsister":3083,"Ġbeat":3084,"ĠGuess":3085,"Ġwearing":3086,"ĠEnjoy":3087,"Snack":3088,"Ġlaughed":3089,"Ġbead":3090,"holds":3091,"Ġcooking":3092,"Ġexplorer":3093,"Mommy":3094,"Ġsoc":3095,"Ġpoor":3096,"ggies":3097,"Ġcuri":3098,"reed":3099,"Ġrainbow":3100,"ify":3101,"Ġsummer":3102,"Ġonline":3103,"ied":3104,"Ġgira":3105,"ĠUp":3106,"Ġtract":3107,"ĠOr":3108,"Ġgloves":3109,"Ġsched":3110,"ĠAlex":3111,"Ġcleaned":3112,"Fun":3113,"aptain":3114,"aged":3115,"ĠJen":3116,"ĠAlways":3117,"Ġsleeping":3118,"Ġriver":3119,"Ġtomat":3120,"Ġreact":3121,"ĠBlue":3122,"ĠBear":3123,"cin":3124,"ĠOn":3125,"Ġpumpkin":3126,"ĠWait":3127,"Ġclown":3128,"Ġsmaller":3129,"Ġap":3130,"oodles":3131,"ables":3132,"Ġslipp":3133,"Ġoven":3134,"ĠPush":3135,"ĠToday":3136,"Ġdough":3137,"Ġhelpful":3138,"Ġworried":3139,"In":3140,"fer":3141,"Ġessay":3142,"Ġseeing":3143,"Ġunf":3144,"Ġloves":3145,"ored":3146,"Ġbuilt":3147,"Ġcontin":3148,"Ġassignment":3149,"Ġpony":3150,"Ġlovely":3151,"Ġcereal":3152,"claps":3153,"Ġstri":3154,"Ġwashing":3155,"Ġbur":3156,"Sleep":3157,"ĠParker":3158,"Ġbackpack":3159,"izing":3160,"ager":3161,"Ġcountry":3162,"Ġstorm":3163,"Ġmis":3164,"Ġtype":3165,"Ġmaterials":3166,"Ġwalked":3167,"host":3168,"Ġbathroom":3169,"ĠWere":3170,"Ġactiv":3171,"Ġteamwork":3172,"ĠOur":3173,"omes":3174,"Ġimagination":3175,"Ġfacts":3176,"iled":3177,"Ġpoints":3178,"ĠCaptain":3179,"Ġfridge":3180,"Ġcaus":3181,"Ġknee":3182,"amie":3183,"Ġposter":3184,"Ġminute":3185,"Ġcousin":3186,"elling":3187,"Ġmachine":3188,"Ġschedule":3189,"smiles":3190,"cil":3191,"Ġou":3192,"Ġpaw":3193,"Ġsprink":3194,"boy":3195,"Ġgrapes":3196,"Ġfur":3197,"Ġpirates":3198,"Ġbrain":3199,"Bu":3200,"Ġnapkin":3201,"Hug":3202,"Ġbunch":3203,"Ġeasily":3204,"life":3205,"Ġleaf":3206,"Ġgrand":3207,"Ġpenguin":3208,"emp":3209,"Ġwaste":3210,"Ġsauce":3211,"airs":3212,"Ġresponsibility":3213,"Ġsplas":3214,"Ġperform":3215,"over":3216,"Up":3217,"keys":3218,"uice":3219,"Ġmeat":3220,"Ġahead":3221,"Ġlonger":3222,"Ġtricky":3223,"Ġcause":3224,"Ġfork":3225,"Ġmedicine":3226,"Ġind":3227,"Ġinclude":3228,"cha":3229,"lm":3230,"Ġharm":3231,"Ġplanning":3232,"ume":3233,"ism":3234,"Ġsalt":3235,"Ġste":3236,"Ġenc":3237,"Ġimprove":3238,"Ġsoda":3239,"Ġann":3240,"Ġsugar":3241,"Go":3242,"Ġfascin":3243,"Ġtou":3244,"Ġeffect":3245,"Ġfinally":3246,"Ġhealth":3247,"ello":3248,"Ġdam":3249,"icated":3250,"Ġspin":3251,"Ġstone":3252,"Ġdirect":3253,"can":3254,"Ġtractor":3255,"lect":3256,"Ġopp":3257,"Ġchamp":3258,"ungle":3259,"Ġpopcorn":3260,"Ġstress":3261,"Ġearly":3262,"Teddy":3263,"Ġghost":3264,"hood":3265,"Ġmeas":3266,"Ġrecyc":3267,"Ġmail":3268,"ĠSc":3269,"Ġspeed":3270,"ĠWhoa":3271,"Ġcamera":3272,"Ġterm":3273,"book":3274,"Ġpancakes":3275,"Is":3276,"Ġrad":3277,"Ġcond":3278,"Ġgrown":3279,"Ġappro":3280,"Ġspaces":3281,"Ġgotta":3282,"Then":3283,"Ġwinning":3284,"Ġcle":3285,"Ġcave":3286,"Ġjoin":3287,"Ġconfus":3288,"Ġclock":3289,"Ġancient":3290,"Ġbeg":3291,"Ġze":3292,"Ġtimer":3293,"Ġavo":3294,"ned":3295,"rup":3296,"Ġfrustr":3297,"Ġcrackers":3298,"Ġroof":3299,"obb":3300,"Ġinstr":3301,"Ġsurprise":3302,"Ġdragons":3303,"Ġtrans":3304,"Ġinformation":3305,"bble":3306,"icle":3307,"ised":3308,"Ġhig":3309,"Ġelectric":3310,"ĠHis":3311,"Ġbatter":3312,"Ġhalf":3313,"Ġunique":3314,"Ġer":3315,"ĠUh":3316,"Ġpicked":3317,"Ġvac":3318,"let":3319,"Ġcomput":3320,"Ġfeather":3321,"Ġprog":3322,"hose":3323,"Ġplent":3324,"Ġkite":3325,"Ġpatter":3326,"She":3327,"apping":3328,"Ġbusy":3329,"Vroom":3330,"Ġhammer":3331,"ĠJamie":3332,"osy":3333,"lk":3334,"ilities":3335,"ends":3336,"Ġbirdie":3337,"ron":3338,"Ġshi":3339,"Ġquietly":3340,"Ġfloat":3341,"Ġmonster":3342,"icky":3343,"Ġnut":3344,"cy":3345,"aches":3346,"Ġscient":3347,"Ġjungle":3348,"Ġrid":3349,"Ġfascinating":3350,"Book":3351,"urch":3352,"use":3353,"Ġsweater":3354,"Ġguide":3355,"Ġsunlight":3356,"Ġhours":3357,"Ġlemon":3358,"ĠTime":3359,"Ġgoal":3360,"Ġsteps":3361,"Ġexperiment":3362,"Ġplenty":3363,"!'\"":3364,"just":3365,"Ġpurp":3366,"roll":3367,"Ġbees":3368,"Ġallig":3369,"ĠCook":3370,"Ġjumped":3371,"Ġtent":3372,"Ġclimbing":3373,"Ġclever":3374,"urns":3375,"Ġfilled":3376,"Ġcompromise":3377,"fy":3378,"Ġhose":3379,"Ġspr":3380,"Ġ*(":3381,"Ġbio":3382,"omp":3383,"Ġharder":3384,"iter":3385,"Ġtemp":3386,"Really":3387,"Ġcross":3388,"Ġtwist":3389,"enter":3390,"Ġshovel":3391,"Ġfox":3392,"Ġcart":3393,"Ġdecor":3394,"Ġhate":3395,"Ġworries":3396,"Ġdrawer":3397,"pple":3398,"Ġsuperheroes":3399,"ĠHaha":3400,"apt":3401,"net":3402,"ĠRed":3403,"ĠAs":3404,"ession":3405,"Ġdelicious":3406,"Ġris":3407,"Ġcity":3408,"Ġheat":3409,"Ġturkey":3410,"etter":3411,"Ġworth":3412,"Ġrule":3413,"Ġladder":3414,"Ġgiraffe":3415,"ems":3416,"Ġbreath":3417,"elebr":3418,"Ġchem":3419,"Ġcomplete":3420,"ogurt":3421,"Ġwalls":3422,"Ġscarf":3423,"Ġnoodles":3424,"Ġcorrect":3425,"Ġouc":3426,"Blue":3427,"Ġmotor":3428,"ctually":3429,"ĠWater":3430,"Ġpops":3431,"Ġbreaks":3432,"Ġchilly":3433,"Ġtrucks":3434,"hand":3435,"Ġclimbed":3436,"ĠEach":3437,"Ġfeelings":3438,"Ġveggies":3439,"Ġsent":3440,"Ġplayer":3441,"Duck":3442,"nock":3443,"Ġcelebr":3444,"Ġnest":3445,"Ġcreatures":3446,"ped":3447,"Ġactions":3448,"Toddler":3449,"Ġmuff":3450,"Ġdinosaurs":3451,"Ġbye":3452,"ĠFl":3453,"Ġten":3454,"Ġfixing":3455,"flies":3456,"imics":3457,"Ġsomewhere":3458,"iff":3459,"Ġvoice":3460,"Ġwatched":3461,"Ġspeaking":3462,"stron":3463,"Ġpeace":3464,"Ġtaught":3465,"Yummy":3466,"isten":3467,"Sm":3468,"oura":3469,"Ġmoose":3470,"Ġdiscuss":3471,"Ġpotato":3472,"Ġmeant":3473,"ĠNice":3474,"licop":3475,"Ġsour":3476,"Ġchips":3477,"fortable":3478,"Ġfant":3479,"Sp":3480,")*":3481,"ĠSnack":3482,"ĠAr":3483,"aring":3484,"Ġaut":3485,"Ġdanced":3486,"Ġjour":3487,"Ġchallenge":3488,"inkle":3489,"Ġdistract":3490,"ĠSat":3491,"Ġsurv":3492,"takes":3493,"ically":3494,"Ġsinging":3495,"cover":3496,"Ġfla":3497,"Ġtricks":3498,"Ġisland":3499,"Ġansw":3500,"ĠSpark":3501,"Ġdescribe":3502,"Ġbake":3503,"ĠSplash":3504,"Ġlibr":3505,"wo":3506,"Ġimpact":3507,"Ġtap":3508,"ishing":3509,"Ġvolcan":3510,"ĠJenkins":3511,"Ġwide":3512,"esides":3513,"uch":3514,"Ġuns":3515,"itam":3516,"Wash":3517,"any":3518,"Ġchalk":3519,"dom":3520,"Ġsled":3521,"ĠSleep":3522,"Ġchurch":3523,"Hello":3524,"Ġgather":3525,"ĠUgh":3526,"Ġlamp":3527,"Ġseas":3528,"ĠThose":3529,"arr":3530,"ĠBook":3531,"Ġkeys":3532,"ĠLast":3533,"areful":3534,"Ġign":3535,"vered":3536,"Ġchores":3537,"mbered":3538,"Ġbears":3539,"Ġobs":3540,"Ġang":3541,"Ġdetect":3542,"Ġstudying":3543,"ĠTrue":3544,"ĠJake":3545,"Ġshoe":3546,"Ġmentioned":3547,"Ġrais":3548,"Ġletting":3549,"Ġwaves":3550,"Ġund":3551,"Ġgoose":3552,"Ġaccidentally":3553,"retruck":3554,"membered":3555,"Ġmistake":3556,"rop":3557,"Ġstud":3558,"ittens":3559,"lace":3560,"Ġcommon":3561,"ĠSuper":3562,"ĠTeacher":3563,"Ġinsp":3564,"cles":3565,"Ġmatch":3566,"Ġwigg":3567,"Ġcoun":3568,"Ġfalling":3569,"Ġreason":3570,"Ġdonkey":3571,"Ġcaptain":3572,"Ġstopped":3573,"ww":3574,"Car":3575,"Ġitself":3576,"Ġhistor":3577,"Ġsteady":3578,"Ġcurious":3579,"Ġpressure":3580,"Ġcowboy":3581,"Ġnorm":3582,"Ġbeads":3583,"tles":3584,"Ġsunny":3585,"ĠStory":3586,"Ġwinter":3587,"Ġsize":3588,"ential":3589,"Ġvillage":3590,"Ġflat":3591,"Ġnail":3592,"Ġimportance":3593,"Ġmovies":3594,"Ġremembered":3595,"Ġastron":3596,"Ġcompet":3597,"Ġneat":3598,"ĠFun":3599,"Ġsituation":3600,"Ġprod":3601,"ox":3602,"Ġpersonal":3603,"rate":3604,"Ġscen":3605,"Ġowie":3606,"picks":3607,"anas":3608,"Ġcircus":3609,"Ġdue":3610,"orses":3611,"Ġdetails":3612,"Ġbench":3613,"Ġpolice":3614,"Ġcomplicated":3615,"che":3616,"Ġdust":3617,"ĠEx":3618,"Red":3619,"ĠBy":3620,"Ġlan":3621,"Ġpushing":3622,"Ġlocal":3623,"auce":3624,"Ġcovered":3625,"Ġchildren":3626,"Ġplays":3627,"Ġrocket":3628,"Ġsnake":3629,"Ġtrad":3630,"Ġeduc":3631,"This":3632,"lar":3633,"Ġrecycling":3634,"ĠBunny":3635,"ugs":3636,"Ġdish":3637,"Ġyogurt":3638,"nods":3639,"Ġphoto":3640,"gen":3641,"Ġhelicop":3642,"rill":3643,"Be":3644,"Got":3645,"Ġpage":3646,"Ġwave":3647,"Ġboss":3648,"ĠKind":3649,"Ġchanged":3650,"Ġpowerful":3651,"Ġzebra":3652,"cake":3653,"ickle":3654,"Ready":3655,"Ġpudding":3656,"Ġguy":3657,"Ġgrade":3658,"Ġlawn":3659,"Ġcomputer":3660,"Ġcult":3661,"Ġpan":3662,"immy":3663,"Ġwheel":3664,"Ġslip":3665,"Ġplanets":3666,"Ġstanding":3667,"Ġhigher":3668,"Ġthrowing":3669,"ĠMakes":3670,"Ġexpress":3671,"Ġlately":3672,"rown":3673,"Ġ\"**":3674,"Ġstreng":3675,"Ġbattle":3676,"Ġfalls":3677,"idents":3678,"Ġbib":3679,"Ġneighborhood":3680,"ram":3681,"Ġsolution":3682,"Ġlibrary":3683,"Ġrooster":3684,"Shoes":3685,"gain":3686,"ĠJump":3687,"Ġbelong":3688,"Ġecosy":3689,"Ġplanting":3690,"Ġhurts":3691,"Ġflash":3692,"Ġveget":3693,"Ġlady":3694,"Ġscreen":3695,"brush":3696,"Ġalligator":3697,"Ġcoach":3698,"Ġfastest":3699,"etch":3700,"Ġavoid":3701,"Ġsat":3702,"Ġgaming":3703,"Ġcloth":3704,"att":3705,"cell":3706,"Ġrole":3707,"pper":3708,"Ġthemselves":3709,"Ġclub":3710,"Ġflavor":3711,"Ġyum":3712,"Ġpencil":3713,"sha":3714,"velo":3715,"Ġspeak":3716,"Ġgear":3717,"Ġstaying":3718,"fa":3719,"ction":3720,"Ġdisapp":3721,"Just":3722,"Ġeither":3723,"Ġsail":3724,"Ġscore":3725,"Ġchoices":3726,"auses":3727,"Ġstation":3728,"Ġstronger":3729,"like":3730,"obs":3731,"Ġmetal":3732,"Ġadjust":3733,"Ġbroke":3734,"ots":3735,"hion":3736,"Ġrough":3737,"ccess":3738,"nies":3739,"Ġhen":3740,"Ġnormal":3741,"lier":3742,"ĠWhe":3743,"ands":3744,"Ġyounger":3745,"Ġstack":3746,"ĠPre":3747,"uggle":3748,"Walk":3749,"Ġcoup":3750,"Ġpred":3751,"Ġglasses":3752,"Ġreminds":3753,"Ġmissing":3754,"Ġcrow":3755,"ĠJoh":3756,"Ġsend":3757,"ios":3758,"Ġfiretruck":3759,"lose":3760,"itty":3761,"und":3762,"vi":3763,"Ġsometime":3764,"Ġanyway":3765,"Ġvan":3766,"Ġmeasure":3767,"ĠLove":3768,"Ġresponsibilities":3769,"oke":3770,"Ġpoll":3771,"Ġlines":3772,"ators":3773,"magine":3774,"ograp":3775,"Ġadvice":3776,"Ġhonest":3777,"High":3778,"Ġbodies":3779,"ups":3780,"Ġspecific":3781,"rees":3782,"Ġcooler":3783,"Ġpor":3784,"Ġearlier":3785,"ired":3786,"sters":3787,"unk":3788,"Ġfantastic":3789,"Cook":3790,"Ġshapes":3791,"Ġunc":3792,"Ġsolid":3793,"Ġlemonade":3794,"thank":3795,"itions":3796,"Ġknife":3797,"Ġpenny":3798,"Ġamount":3799,"Ġannoy":3800,"When":3801,"ĠGentle":3802,"oor":3803,"Ġsearch":3804,"ffee":3805,"Ġcutting":3806,"Ġradio":3807,"Ġvitam":3808,"Ġhelicopter":3809,"Ġsock":3810,"Ġtalent":3811,"lish":3812,"ĠJohns":3813,"Ġwoke":3814,"Ġtraining":3815,"uits":3816,"smiling":3817,"Ġsudden":3818,"ney":3819,"Ġsaved":3820,"ĠTake":3821,"Ġbubble":3822,"Nice":3823,"Ġhelm":3824,"Ġapart":3825,"cul":3826,"fra":3827,"Ġemb":3828,"Ġstrawberries":3829,"Ġfishy":3830,"Ġsongs":3831,"ipper":3832,"Ġ3":3833,"ĠAnyway":3834,"ĠSit":3835,"Ġnecklace":3836,"Ġmotion":3837,"ĠJohnson":3838,"At":3839,"ighter":3840,"Ġpretz":3841,"Ġtopic":3842,"Ġargue":3843,"Ġmittens":3844,"Ġfeathers":3845,"Ġcouple":3846,"hoo":3847,"aint":3848,"Who":3849,"li":3850,"Ġsorts":3851,"Ġdropped":3852,"Ġstrategy":3853,"Ġtong":3854,"Ġriding":3855,"Ġgener":3856,"Ġvalu":3857,"Ġengine":3858,"ales":3859,"Ġvolcano":3860,"Ġuses":3861,"ounce":3862,"llip":3863,"Ġseemed":3864,"Don":3865,"hick":3866,"Ġlives":3867,"ĠThese":3868,"under":3869,"illa":3870,"Ġshower":3871,"Love":3872,"omed":3873,"Ġbutterflies":3874,"hor":3875,"icate":3876,"Ġplastic":3877,"Ġbandage":3878,"eans":3879,"Ġhabit":3880,"aging":3881,"ama":3882,"Ġturning":3883,"Ġrelax":3884,"ĠAt":3885,"ervous":3886,"huh":3887,"uum":3888,"vy":3889,"ĠHuh":3890,"uctantly":3891,"Ġposs":3892,"Ġreturn":3893,"aut":3894,"ĠImagine":3895,"Ġlaughing":3896,"Ġhorses":3897,"Ġourselves":3898,"Ġcrunch":3899,"Ġinstruct":3900,"Ġtries":3901,"ek":3902,"ĠSlide":3903,"Ġscrew":3904,"Ġlangu":3905,"Ġtutor":3906,"Ġallow":3907,"Ġbother":3908,"Ġafterward":3909,"Ġphotos":3910,"Ġsim":3911,"Ġnervous":3912,"Ġknights":3913,"empts":3914,"Ġcloser":3915,"Ġpushed":3916,"Share":3917,"Re":3918,"Ġcoins":3919,"retty":3920,"Ġacorn":3921,"rrr":3922,"Ġpromised":3923,"Ball":3924,"ĠBesides":3925,"ips":3926,"Ġdisc":3927,"Ġpancake":3928,"Ġstrength":3929,"Ġweren":3930,"Ġwise":3931,"ledge":3932,"urger":3933,"Ġoverhe":3934,"Ġswinging":3935,")*:":3936,"Ġsle":3937,"Ġmay":3938,"ital":3939,"Ġsty":3940,"Ġdogs":3941,"istic":3942,"Ġtoes":3943,"Ġstayed":3944,"Ġchill":3945,"Ġmelon":3946,"ĠDin":3947,"Ġcloset":3948,"Ġcorner":3949,"Ġhappening":3950,"Ġsofa":3951,"Ġsaving":3952,"Ġbelt":3953,"ourage":3954,"Your":3955,"Ġlar":3956,"Ġpile":3957,"Ġtomatoes":3958,"cellent":3959,"idence":3960,"Ġnotes":3961,"Ġmonkeys":3962,"Ġstove":3963,"Ġswitch":3964,"owers":3965,"noon":3966,"Ġfits":3967,"Ġcri":3968,"urday":3969,"Ġwhoosh":3970,"Ġcomplex":3971,"Ġdressed":3972,"Ġvaluable":3973,"val":3974,"Ġbegin":3975,"Ġstret":3976,"Ġchoo":3977,"ĠSaturday":3978,"apers":3979,"Ġafternoon":3980,"Ġbreathe":3981,"Ġprincess":3982,"enny":3983,"Daddy":3984,"ĠCha":3985,"Ġjourney":3986,"rag":3987,"Ġbaking":3988,"Ġvacuum":3989,"mo":3990,"erios":3991,"Ġnon":3992,"Ġguard":3993,"Ġseriously":3994,"fraid":3995,"rive":3996,"ids":3997,"Ġshorts":3998,"Ġsuccess":3999,"Ġsports":4000,"Ġknowing":4001,"Ġborrow":4002,"Sounds":4003,"ums":4004,"ĠToddler":4005,"ĠSparky":4006,"ien":4007,"Ġsold":4008,"urse":4009,"ĠBuddy":4010,"Ġnumbers":4011,"Ġfamous":4012,"Ġtool":4013,"Ġinterested":4014,"Ġunfair":4015,"erm":4016,"Ġbeha":4017,"iver":4018,"ĠTimmy":4019,"Ġfollowing":4020,"ĠBall":4021,"ĠMiss":4022,"Ġresolved":4023,"Ġregular":4024,"bage":4025,"ipping":4026,"Ġwhatever":4027,"Ġhistorical":4028,"ĠWash":4029,"Ġsalad":4030,"cisely":4031,"Ġlab":4032,"Ġkingdom":4033,"vity":4034,"mbol":4035,"Ġchew":4036,"Ġtreasures":4037,"ĠWork":4038,"Ġskating":4039,"Ġcalling":4040,"Ġmissed":4041,"Ġevents":4042,"Ġtasty":4043,"Dry":4044,"back":4045,"kab":4046,"Ġmountains":4047,"Ġbiology":4048,"resent":4049,"Ġcommit":4050,"Takes":4051,"Ġouchie":4052,"Ġcell":4053,"Ġfries":4054,"Ġinf":4055,"ĠBlocks":4056,"Ġspots":4057,"Ġbananas":4058,"Ġstring":4059,"iously":4060,"ĠAlso":4061,"Come":4062,"ĠTry":4063,"Ġteaching":4064,"ĠWhich":4065,"Ġelectricity":4066,"Ġeducation":4067,"Ġview":4068,"Ġcontext":4069,"Ġdriving":4070,"Ġcoin":4071,"dding":4072,"Ġmonth":4073,"Ġcrumb":4074,"Ġsolar":4075,"tycake":4076,"ires":4077,"Ġants":4078,"Ġconcer":4079,"kaboo":4080,"Ġnote":4081,"Ġcraft":4082,"Ġtiss":4083,"Ġprof":4084,"Ġsidewalk":4085,"Ġtuna":4086,"Ġsocial":4087,"water":4088,"Ġblo":4089,"Ġsafer":4090,"Ġtells":4091,"Ġfinger":4092,"Ġmop":4093,"ĠFin":4094,"Ġhopped":4095,"Ġwheels":4096,"oming":4097,"Ġmuddy":4098,"Ġmeal":4099,"Ġplates":4100,"ishy":4101,"rod":4102,"Ġhugs":4103,"Ġpopsicle":4104,"ĠShh":4105,"go":4106,"olution":4107,"ouses":4108,"Ġrecipe":4109,"eam":4110,"Ġtie":4111,"ggie":4112,"Ġsymbol":4113,"Ġclosed":4114,"Ġesc":4115,"ached":4116,"Ġlollip":4117,"Ġpurse":4118,"Ġrepl":4119,"ffic":4120,"Ġclassroom":4121,"Ġsandbox":4122,"Remember":4123,"Ġtricycle":4124,"Ġphys":4125,"Ġafraid":4126,"ication":4127,"ĠPut":4128,"Ġskateboard":4129,"ĠQuack":4130,"Ġlake":4131,"Ġblowing":4132,"Ġhanging":4133,"Ġscra":4134,"omeday":4135,"Ġspaceship":4136,"Ġbelly":4137,"Uh":4138,"Ġrub":4139,"Ġmission":4140,"Ġporch":4141,"Ġgrandparent":4142,"Ġposit":4143,"**!":4144,"pauses":4145,"Ġtas":4146,"Ġwip":4147,"Ġsoftly":4148,"Ġ10":4149,"Ġsides":4150,"Ġsell":4151,"Ġsect":4152,"Ġreward":4153,"Ġtravel":4154,"ey":4155,"lows":4156,"Ġstrawberry":4157,"Ġcoffee":4158,"Ġdiscover":4159,"Ġled":4160,"pens":4161,"mburger":4162,"Ġjello":4163,"Ġforce":4164,"Ġfocused":4165,"'.\"":4166,"ownt":4167,"Ġpartic":4168,"hic":4169,"Ġtele":4170,"Ġspilled":4171,"Ġjeans":4172,"Ġballs":4173,"Ġfighting":4174,"Ġwhis":4175,"Ġwore":4176,"Ġprevent":4177,"anches":4178,"look":4179,"Ġapo":4180,"reak":4181,"Ġinfl":4182,"Ġcows":4183,"Ġsneakers":4184,"Ġsomeday":4185,"Ġzip":4186,"Ġreport":4187,"Ġflashlight":4188,"Ġber":4189,"Ġmyster":4190,"Draw":4191,"pr":4192,"Ġdevelo":4193,"Push":4194,"Ġtongue":4195,"Blocks":4196,"Ġaud":4197,"phone":4198,"Ġstops":4199,"Ġpair":4200,"ĠSm":4201,"vern":4202,"Ġlearns":4203,"Ġhelmet":4204,"ture":4205,"ĠBird":4206,"Ġwashed":4207,"ited":4208,"miss":4209,"ĠJac":4210,"Ġpassion":4211,"Ġdecisions":4212,"icy":4213,"Ġaccidents":4214,"Friends":4215,"Ġcompetition":4216,"Ġscene":4217,"Ġuncle":4218,"Ġnotice":4219,"Ġsquirrels":4220,"Ġpulled":4221,"ĠJacobs":4222,"Ġwand":4223,"ĠEng":4224,"Ġbranches":4225,"ĠCheerios":4226,"ĠBl":4227,"Ġunex":4228,"Ġroots":4229,"Co":4230,"Nap":4231,"nam":4232,"Ġgum":4233,"ĠYup":4234,"Ġlanguage":4235,"anch":4236,"Ġdrinking":4237,"Ġrubb":4238,"Ġadventurer":4239,"Ġparrot":4240,"Ġissue":4241,"Ġcompletely":4242,"Ġhilar":4243,"Ġmuffin":4244,"Ġsuddenly":4245,"Ġvar":4246,"Ġapplesauce":4247,"Ġstream":4248,"erson":4249,"Ġtray":4250,"Ġinsane":4251,"ody":4252,"Ġweight":4253,"Ġvegetables":4254,"suit":4255,"ĠActually":4256,"Ġnoises":4257,"Ġapply":4258,"Ġlos":4259,"Ġfairy":4260,"Ġopened":4261,"Ġhilarious":4262,"cause":4263,"Ġhello":4264,"Ġstairs":4265,"ĠSafety":4266,"ĠSwing":4267,"Ġfear":4268,"Ġinstructions":4269,"Ġfold":4270,"ishes":4271,"Ġbic":4272,"Ġnob":4273,"Ġbreaking":4274,"whe":4275,"Ġhamburger":4276,"Ġshall":4277,"Ġrout":4278,"Today":4279,"ĠOnly":4280,"hoosh":4281,"sigh":4282,"Ġburn":4283,"Ġnapkins":4284,"Ġfruits":4285,"Ġlow":4286,"Ġcomfortable":4287,"demonstrates":4288,"Ġteen":4289,"for":4290,"ipped":4291,"itude":4292,"irty":4293,"Ġchallenges":4294,"Ġcent":4295,"Ġimm":4296,"Ġtips":4297,"iety":4298,"Ġhuman":4299,"Ġgardening":4300,"Ġtouching":4301,"Ġcrowd":4302,"aa":4303,"ushes":4304,"Th":4305,"erve":4306,"pples":4307,"owntown":4308,"Bed":4309,"Ġlions":4310,"Ġearth":4311,"Ġmessage":4312,"Ġissues":4313,"Ġdiaper":4314,"Ġdeb":4315,"Ġchickens":4316,"ĠPromise":4317,"inal":4318,"ĠHug":4319,"ĠDraw":4320,"Ġrepresent":4321,"Dance":4322,"Ġbeep":4323,"ĠRo":4324,"Ġwalks":4325,"ĠUnder":4326,"Ġearn":4327,"Ġwilling":4328,"olve":4329,"Ġstruct":4330,"Ġruns":4331,"Gentle":4332,"Ġpaws":4333,"Ġmailman":4334,"'!":4335,"ying":4336,"Ġtrade":4337,"Ġvalue":4338,"Ġcounter":4339,"Ġorder":4340,"ĠEverything":4341,"Ġhomes":4342,"Ġzipper":4343,"Ġperfectly":4344,"Ġgarbage":4345,"Ġcudd":4346,"Ġactivity":4347,"Ġchip":4348,"Ġedge":4349,"Mmm":4350,"kate":4351,"lies":4352,"onderful":4353,"Ġwrap":4354,"Ġpatience":4355,"Giggles":4356,"Ġlucky":4357,"Ġknowledge":4358,"Ġsurprised":4359,"imate":4360,"Ġcontrib":4361,"Ġsurf":4362,"ĠBuild":4363,"Ġvitamins":4364,"Ġ[":4365,"ĠDry":4366,"Ġstoryt":4367,"Ġholes":4368,"Ġtoothbrush":4369,"keep":4370,"roller":4371,"Ġpickle":4372,"Ġgravity":4373,"ĠTommy":4374,"Ġjew":4375,"ĠFast":4376,"Ġfireman":4377,"ults":4378,"Ġbranch":4379,"Ġevening":4380,"Ġenjoying":4381,"Sit":4382,"gently":4383,"ĠAunt":4384,"Park":4385,"Ha":4386,"Ġfour":4387,"roc":4388,"Ġbabies":4389,"ĠLearn":4390,"Ġsticker":4391,"Ġjud":4392,"Ġletters":4393,"fish":4394,"Ġfil":4395,"Ġmeeting":4396,"eriously":4397,"Ġhouses":4398,"anced":4399,"Splash":4400,"Ġmoder":4401,"ĠInside":4402,"Ġpuddles":4403,"run":4404,"itar":4405,"Ġem":4406,"Ġconso":4407,"Ġrealize":4408,"Ġcontroll":4409,"Ġconcert":4410,"ushing":4411,"Ġapproach":4412,"An":4413,"Ġjam":4414,"Ġanywhere":4415,"Ġresour":4416,"Ġtechno":4417,"Ġlollipop":4418,"ories":4419,"ĠDuck":4420,"ĠJack":4421,"olving":4422,"ĠWhile":4423,"Ġrolled":4424,"Ġblood":4425,"Ġended":4426,"Ġtemper":4427,"Ġannoying":4428,"Ġsip":4429,"Ġpink":4430,"Ġexploring":4431,"ĠPrecisely":4432,"Ġpad":4433,"Ġcla":4434,"uction":4435,"Yum":4436,"ĠSnow":4437,"Ġstones":4438,"oman":4439,"Ġrings":4440,"Ġanal":4441,"Ġcheer":4442,"Ġboxes":4443,"Ġfrogs":4444,"Ġanswer":4445,"pants":4446,"oulder":4447,"unnies":4448,"ilar":4449,"Ġmoved":4450,"Ġsweeping":4451,"Ġcrib":4452,"Ġtaken":4453,"Ġwatering":4454,"Ġreflect":4455,"Ġbicycle":4456,"Ġwra":4457,"sect":4458,"Ġmanaged":4459,"Ġcracker":4460,"ĠNap":4461,"Ġfinal":4462,"Ġplane":4463,"Ġworse":4464,"Ġfollowed":4465,"Ġtights":4466,"Ġconsole":4467,"Ġcenter":4468,"mble":4469,"Ġcounting":4470,"chy":4471,"choo":4472,"Ġcoolest":4473,"Ġweeks":4474,"Ġmotorcycle":4475,"ium":4476,"Ġabs":4477,"Ġwhenever":4478,"Ġbusiness":4479,"Ġmass":4480,"atic":4481,"ĠOpen":4482,"play":4483,"Ġmyst":4484,"Ġsmiles":4485,"ances":4486,"dow":4487,"Ġgross":4488,"rist":4489,"Ġadapt":4490,"Ġdemonstrates":4491,"ĠUse":4492,"Ġperspect":4493,"Ġcharge":4494,"Ġimpressive":4495,"Ġsurvive":4496,"Sc":4497,"bear":4498,"Ġing":4499,"Ġhelpers":4500,"urb":4501,"Ġprojects":4502,"Ġtechn":4503,"Ġge":4504,"Jump":4505,"Ġmill":4506,"Ġdive":4507,"Ġstrange":4508,"Ġlegend":4509,"Ġshopping":4510,"Ġadding":4511,"Ġcelebrate":4512,"Ġpositive":4513,"Hop":4514,"Ġmower":4515,"Ġbridge":4516,"Ġraining":4517,"Ġstorytime":4518,"Ġpost":4519,"Ġduckling":4520,"Ġcreating":4521,"ton":4522,"Ġill":4523,"acked":4524,"Ġbedroom":4525,"Ġperformance":4526,"Ġrather":4527,"ĠJuice":4528,"Ġdowntown":4529,"Ġchanging":4530,"Ġruin":4531,"Ġsection":4532,"Hot":4533,"Ġgovern":4534,"ĠDance":4535,"Ġbites":4536,"ival":4537,".'\"":4538,"Ġconcept":4539,"Ġtrave":4540,"Ġreaction":4541,"aves":4542,"Ġalive":4543,"walking":4544,"ege":4545,"Ġthoughtful":4546,"Ġsprinkler":4547,"iers":4548,"ror":4549,"alling":4550,"bel":4551,"Ġseat":4552,"ĠEnglish":4553,"Ġmuscles":4554,"Sh":4555,"eeze":4556,"olves":4557,"Ġfroggy":4558,"Ġpin":4559,"Ġglow":4560,"Ġdamage":4561,"ĠCo":4562,"Ġecosystem":4563,"Ġlock":4564,"load":4565,"Ġobject":4566,"hands":4567,"Ġdonut":4568,"ĠShould":4569,"Ġdecision":4570,"Shh":4571,"bu":4572,"Ġinde":4573,"ĠShare":4574,"Ġheroes":4575,"Ġincred":4576,"ĠBenny":4577,"ending":4578,"Ġbringing":4579,"by":4580,"Ġboats":4581,"Ġpurpose":4582,"Ġmatters":4583,"inate":4584,"Ġsens":4585,"cket":4586,"Ġslides":4587,"Ġtrail":4588,"Ġnames":4589,"Sleepy":4590,"Ġcausing":4591,"ĠBetter":4592,"Ġsimilar":4593,"Ġsugg":4594,"Ġsuggest":4595,"off":4596,"ĠZoom":4597,"cra":4598,"Ġmat":4599,"uments":4600,"Ġwaited":4601,"Ġbare":4602,"Ġshine":4603,"Ġbehavi":4604,"Ġtissue":4605,"ortun":4606,"uel":4607,"Ġholds":4608,"Ġmini":4609,"con":4610,"the":4611,"Ġstroller":4612,"Ġeats":4613,"ĠRun":4614,"Ġcruc":4615,"Ġmixed":4616,"tern":4617,"Ġhitting":4618,"Ġfarmer":4619,"Ġelephants":4620,"gged":4621,"Ġliqu":4622,"Ġsword":4623,"Ġcrucial":4624,"Ġinvent":4625,"Ġscoop":4626,"flict":4627,"Ġtradition":4628,"Ġwobb":4629,"End":4630,"bl":4631,"Ġbi":4632,"Ġcop":4633,"ĠHot":4634,"ĠWalk":4635,"Ġpattycake":4636,"Ġblankets":4637,"uggles":4638,"Ġvanilla":4639,"Ġindeed":4640,"Ġconse":4641,"iate":4642,"pid":4643,"Ġtoe":4644,"Ġcollege":4645,"inary":4646,"Ġkinds":4647,"umpy":4648,"Ġmystery":4649,"Ġthick":4650,"omb":4651,"icked":4652,"Ġspring":4653,"Ġbuttons":4654,"Ġrefers":4655,"sighs":4656,"Ġpicks":4657,"Ġheads":4658,"ĠStay":4659,"ĠTomorrow":4660,"Ġpatterns":4661,"Ġignore":4662,"greed":4663,"ĠLily":4664,"Ġaccept":4665,"\"?":4666,"Ġwea":4667,"ĠListen":4668,"Ġshoulder":4669,"Ġwildlife":4670,"Juice":4671,"ality":4672,"Ġdrawings":4673,"Ġentire":4674,"Ġdevelop":4675,"Wait":4676,"oub":4677,"Ġcol":4678,"ĠPu":4679,"arrass":4680,"ites":4681,"Ġloose":4682,"Ġdoc":4683,"ivity":4684,"Ġoil":4685,"aker":4686,"Ġdrinks":4687,"awns":4688,"Ġpotential":4689,"pill":4690,"Ġcus":4691,"Ġtor":4692,"Ġforth":4693,"ĠShow":4694,"reaches":4695,"ĠGreen":4696,"ĠFix":4697,"Ġexplo":4698,"Ġconnected":4699,"mimics":4700,"Ġsplit":4701,"Holds":4702,"Ġtouched":4703,"Ġballoons":4704,"Ġbasement":4705,"cip":4706,"essert":4707,"Ġsandc":4708,"Ġopportun":4709,"Ġprogress":4710,"Ġcards":4711,"Ġshop":4712,"osp":4713,"Ġtallest":4714,"pected":4715,"Ġteenager":4716,"eg":4717,"tub":4718,"wr":4719,"Ġhesit":4720,"Ġknown":4721,"Ġstickers":4722,"ational":4723,"ĠTogether":4724,"Ġslippery":4725,"Ġgoodnight":4726,"hies":4727,"ĠTw":4728,"Ġstage":4729,"Ġconflict":4730,"Ġcostume":4731,"Ġraisins":4732,"Ġmodern":4733,"nel":4734,"Ġliter":4735,"uth":4736,"places":4737,"Ġstrateg":4738,"Ġhearing":4739,"Ġwalker":4740,"Build":4741,"ĠOlder":4742,"angle":4743,"Ġtechnology":4744,"Ġbank":4745,"stems":4746,"Ġcups":4747,"standing":4748,"Ġconfused":4749,"Ġdetective":4750,"Ġwing":4751,"Ġrot":4752,"ulate":4753,"Ġpriv":4754,"son":4755,"Ġgolden":4756,"Ġtemperature":4757,"Bird":4758,"Ġracing":4759,"Ġlunchtime":4760,"Ġcreep":4761,"Ġbasketball":4762,"res":4763,"Ġnet":4764,"Ġnurse":4765,"Ġslice":4766,"Ġwrote":4767,"eer":4768,"Ġbend":4769,"Ġconsiderate":4770,"Ġstate":4771,"ĠDrink":4772,"Ġplans":4773,"Ġgy":4774,"Ġapolog":4775,"Ġbul":4776,"Ġvib":4777,"Ġenter":4778,"Ġacting":4779,"Ġinvolved":4780,"Water":4781,"Ġdeterm":4782,"Ġdelicate":4783,"Ġpil":4784,"Ġguitar":4785,"Ġembarrass":4786,"Ġcrunchy":4787,"Definitely":4788,"round":4789,"aterpill":4790,"urry":4791,"Ġreview":4792,"Ġsentence":4793,"Ġconsequ":4794,"utside":4795,"Ġoak":4796,"Ġopt":4797,"Ġstat":4798,"Ġneg":4799,"Ġwonder":4800,"Ġattitude":4801,"ĠMs":4802,"Ġunexpected":4803,"iences":4804,"Ġdishes":4805,"Ġcrew":4806,"Ġpossible":4807,"Ġdat":4808,"Ġlanded":4809,"Fast":4810,"ĠSoft":4811,"Ġlid":4812,"Ġprop":4813,"Ġcarp":4814,"kle":4815,"Ġoffic":4816,"ĠOops":4817,"Ġmas":4818,"Ġnecess":4819,"Ġdrills":4820,"we":4821,"Ġfab":4822,"Ġboun":4823,"Ġcoo":4824,"Ġcomfy":4825,"Ġdessert":4826,"Ġabove":4827,"Ġleader":4828,"ĠLearning":4829,"Ġ5":4830,"Ġdest":4831,"Ġcats":4832,"Ġprov":4833,"Ġagreed":4834,"Ġfoods":4835,"cue":4836,"east":4837,"ĠYellow":4838,"Ġwanting":4839,"roken":4840,"Ġunderpants":4841,"Ġsquare":4842,"afe":4843,"ays":4844,"Ġsmells":4845,"Ġpuddle":4846,"ĠWorking":4847,"Ġexer":4848,"Ġbrings":4849,"Ġdryer":4850,"Ġcountries":4851,"Ġcreature":4852,"Ġstyle":4853,"Ġbunnies":4854,"Ġareas":4855,"Ġmeaning":4856,"Ġsupplies":4857,"Ġpillows":4858,",'":4859,"Ġpupp":4860,"Ġspell":4861,"ĠFr":4862,"Ġdev":4863,"Ġcrit":4864,"ĠSeriously":4865,"ript":4866,"Ġjackets":4867,"Want":4868,"aid":4869,"Ġhyd":4870,"ĠArms":4871,"ĠGar":4872,"Ġunp":4873,"Ġpainted":4874,"Ġpulling":4875,"Ġhopping":4876,"Ġtastes":4877,"Ġprepared":4878,"Ġsight":4879,"rest":4880,"otally":4881,"Ġdiv":4882,"Ġcontinues":4883,"rows":4884,"Ġattract":4885,"Ġinsect":4886,"lesc":4887,"Ġjoy":4888,"Ġvine":4889,"Ġcheating":4890,"ĠSwim":4891,"ceed":4892,"uckles":4893,"Ġmarket":4894,"uding":4895,"Ġpun":4896,"Ġputs":4897,"Ġcatching":4898,"Ġexperiences":4899,"Ġfabric":4900,"ĠSqu":4901,"Ġhimself":4902,"Ġflies":4903,"Ġconsequences":4904,"ords":4905,"Ġmysterious":4906,"Ġsession":4907,"Ġbounce":4908,"Ġnews":4909,"Sticky":4910,"Ġingred":4911,"ndry":4912,"Ġpretzel":4913,"Ġpets":4914,"Ġrust":4915,"Ġbirdhouse":4916,"Ġgift":4917,"Ġpattern":4918,"Ġberries":4919,"Ġrush":4920,"Ġpres":4921,"Ġsubject":4922,"Ġcaterpill":4923,"Ġskates":4924,"Ġpages":4925,"Ġplayers":4926,"rops":4927,"Ġhid":4928,"Ġmoments":4929,"ĠQuiet":4930,"Ġfinds":4931,"Ġstuffed":4932,"Ġble":4933,"ĠOw":4934,"Ġcontinue":4935,"Ġdouble":4936,"Ġorig":4937,"ivil":4938,"Ġfrustrating":4939,"az":4940,"Ġwag":4941,"Ġbecoming":4942,"Ġadject":4943,"Ġprepare":4944,"Ġchat":4945,"Ġdead":4946,"Ġmemories":4947,"rent":4948,"Ġnutri":4949,"Ġescape":4950,"hips":4951,"Ġdumb":4952,"ĠSun":4953,"arah":4954,"Ġbathtub":4955,"Ġcarrying":4956,"Ġshaking":4957,"Ġleaving":4958,"Ġdistance":4959,"ontin":4960,"oint":4961,"oops":4962,"Ġcrumbs":4963,"eable":4964,"Ġunb":4965,"Ġhats":4966,"coa":4967,"Ġlaundry":4968,"ĠTruck":4969,"matic":4970,"Ġmagn":4971,"Ġtelesc":4972,"Ġrespectful":4973,"Ġcast":4974,"Ġcape":4975,"Ġpapers":4976,"Ġcarried":4977,"Ġunw":4978,"ĠSafe":4979,"Cold":4980,"ients":4981,"Ġprior":4982,"Ġcardboard":4983,"bon":4984,"lowers":4985,"Claps":4986,"Ġresources":4987,"ĠCold":4988,"ĠRead":4989,"Ġflip":4990,"ĠFluffy":4991,"Home":4992,"ĠEww":4993,"Ġflour":4994,"Ġclearly":4995,"men":4996,"range":4997,"Ġwha":4998,"Ġstudies":4999,"Ġsettle":5000,"hite":5001,"Ġbean":5002,"Ġsingle":5003,"Pu":5004,"Ġvers":5005,"ooky":5006,"Ġspecies":5007,"ĠTrust":5008,"coming":5009,"Ġletter":5010,"Ġlosing":5011,"Ġsandcastle":5012,"Ġcab":5013,"ĠSlow":5014,"Ġdoggie":5015,"ĠCh":5016,"Starts":5017,"Ġsources":5018,"Ġwiz":5019,"imals":5020,"gra":5021,"mies":5022,"Ġlips":5023,"born":5024,"Ġsnuggle":5025,"gebra":5026,"Ġchin":5027,"min":5028,"rets":5029,"Ġconvers":5030,"Ġartist":5031,"Ġmaintain":5032,"eavy":5033,"Ġrecycle":5034,"Ġbehavior":5035,"Ġaim":5036,"onom":5037,"ĠPlants":5038,"Ġdifferently":5039,"Ġconcent":5040,"anes":5041,"Ġdrew":5042,"Ġreached":5043,"Ġthrew":5044,"Ġactual":5045,"Ġtreats":5046,"Ġorganize":5047,"Ġscratch":5048,"Ġcreepy":5049,"Ġweak":5050,"Ġfuel":5051,"Ġcompany":5052,"Ġtruth":5053,"Ġglitter":5054,"Ġachie":5055,",\"":5056,"Aw":5057,"ĠWar":5058,"uster":5059,"Ġgym":5060,"Ġoverwhe":5061,"Ġconst":5062,"Ġpretending":5063,"Ġdrum":5064,"ĠAd":5065,"ĠApple":5066,"Ġwhether":5067,"Ġankle":5068,"Ġstructure":5069,"Ġsurface":5070,"ĠFound":5071,"Ġjewels":5072,"Ġdea":5073,"Ġwindows":5074,"Ġself":5075,"Ġcoloring":5076,"Ġmassive":5077,"igging":5078,"Ġdisturb":5079,"ervation":5080,"Ġtomato":5081,"Ġadjective":5082,"isible":5083,"ests":5084,"Ġbecomes":5085,"Ġconfusing":5086,"Ġseason":5087,"Ġrequ":5088,"Ġconv":5089,"ĠFro":5090,"Ġnutrients":5091,"Ġthinks":5092,"Ġrealized":5093,"Ġchef":5094,"Ġconditions":5095,"Grandma":5096,"xy":5097,"Ġtuck":5098,"Ġincluding":5099,"ouches":5100,"Ġuseful":5101,"Ġbuildings":5102,"Soft":5103,"rit":5104,"Ġcontain":5105,"Together":5106,"uggling":5107,"Ġeventually":5108,"ĠWithout":5109,"Ġcharacters":5110,"Ġtelephone":5111,"Run":5112,"Ġcheek":5113,"Ġsew":5114,"blows":5115,"ĠHome":5116,"indy":5117,"ental":5118,"gle":5119,"Ġnowhere":5120,"Ġaware":5121,"ĠUncle":5122,"ners":5123,"ocked":5124,"Ġdate":5125,"iring":5126,"Ġremove":5127,"Ġinflu":5128,"Ġdata":5129,"Ġnav":5130,"storm":5131,"Ġfigures":5132,"Ġdrank":5133,"Ġsoldiers":5134,"Ġcrying":5135,"Ġincredible":5136,"Ġgri":5137,"rupt":5138,"epar":5139,"Ġace":5140,"Ġflap":5141,"Toys":5142,"Ġpeel":5143,"Ġbatteries":5144,"Che":5145,"Ġbasics":5146,"Ġcirc":5147,"Grandpa":5148,"iggling":5149,"Ġevidence":5150,"amb":5151,"overed":5152,"Nods":5153,"Ġrecess":5154,"Ġenvironmental":5155,"Ġsmoothly":5156,"Ġcarpet":5157,"First":5158,"Ġtour":5159,"Ġgre":5160,"ĠLight":5161,"screen":5162,"Ġsplashing":5163,"iving":5164,"Ġdigging":5165,"Ġrains":5166,"Ġpos":5167,"gging":5168,"Ġdesk":5169,"father":5170,"Ġours":5171,"ĠEating":5172,"Doggy":5173,"Ġpushes":5174,"Ġactivities":5175,"lers":5176,"Ġpowers":5177,"Ġheld":5178,"Ġclues":5179,"ization":5180,"Ġpotatoes":5181,"Careful":5182,"fire":5183,"Ġfeast":5184,"Ġknocked":5185,"Ġsliding":5186,"Ġrelated":5187,"Ġdesigned":5188,"Ġeffective":5189,"cut":5190,"calling":5191,"dles":5192,"uri":5193,"Ġwoof":5194,"Ġblew":5195,"Ġmult":5196,"irm":5197,"Ġsport":5198,"Ġsepar":5199,"Ġending":5200,"Ġneighbors":5201,"Ġinternet":5202,"Ġbarely":5203,"ware":5204,"ĠIce":5205,"Ġswam":5206,"Ġrocking":5207,"Ġfrustrated":5208,"Ġnobody":5209,"aby":5210,"ĠOuch":5211,"Ġchairs":5212,"Ġbattles":5213,"Ġtypes":5214,"Ġwiggle":5215,"Ġgovernment":5216,"Ġring":5217,"Ġemot":5218,"ilder":5219,"tries":5220,"itive":5221,"Ġded":5222,"Ġgrew":5223,"ĠCatch":5224,"ĠMmm":5225,"Ġsmoke":5226,"Ġsecure":5227,"Ġpurple":5228,"ĠChild":5229,"Ġtank":5230,"chuckles":5231,"Ġsmiling":5232,"ason":5233,"Ġupd":5234,"random":5235,"Ġschoolwork":5236,"Ġexplorers":5237,"Ġcourage":5238,"Ġalgebra":5239,"Ġstupid":5240,"Ġgrumpy":5241,"ĠSticky":5242,"Ġmetho":5243,"ĠTeam":5244,"ional":5245,"think":5246,"Ġtreehouse":5247,"Ġsnowsuit":5248,"Ġdrops":5249,"Ġastronaut":5250,"chan":5251,"Ġmagnet":5252,"Ġrandom":5253,"Ġgoals":5254,"ability":5255,"Ġroar":5256,"Ġvolunt":5257,"Ġangle":5258,"ĠAgreed":5259,"Ġjobs":5260,"Ġtaller":5261,"Ġdocument":5262,"Hide":5263,"Ġgate":5264,"ĠYucky":5265,"Ġema":5266,"ĠRide":5267,"Ġbased":5268,"hield":5269,"Ġliquid":5270,"fit":5271,"Ġlistener":5272,"Ġmarkers":5273,"ians":5274,"Ġbush":5275,"ĠToy":5276,"Ġbull":5277,"Ġmuse":5278,"Ġruined":5279,"Ġscrub":5280,"olog":5281,"Ġgun":5282,"Ġbushes":5283,"Ġteachers":5284,"ontinues":5285,"bits":5286,"inse":5287,"Ġrecord":5288,"ĠInd":5289,"Ġfiref":5290,"Ġattic":5291,"Ġjoke":5292,"ĠBubbles":5293,"Ġposition":5294,"oos":5295,"aked":5296,"ĠThrow":5297,"Whoa":5298,"ray":5299,"riger":5300,"Ġdisag":5301,"Ġhurting":5302,"ivid":5303,"Ġserv":5304,"Ġperspective":5305,"gets":5306,"Ġorganized":5307,"Ġproduct":5308,"Somet":5309,"ĠCareful":5310,"Ġmessed":5311,"Ġeconom":5312,"iable":5313,"Ġbought":5314,"ipes":5315,"Ġmessing":5316,"Ġaudience":5317,"Will":5318,"ĠSn":5319,"New":5320,"Ġlaws":5321,"Ġships":5322,"knock":5323,"Ġbene":5324,"ĠMon":5325,"reluctantly":5326,"Ġlets":5327,"Ġcreativity":5328,"Ġerup":5329,"Ġstretch":5330,"puts":5331,"oms":5332,"Ġspooky":5333,"Ġchasing":5334,"oe":5335,"Ġclassmate":5336,"ender":5337,"Ġalb":5338,"Ġens":5339,"Smiles":5340,"Ġclea":5341,"ava":5342,"Ġsneaky":5343,"Ġrubber":5344,"ration":5345,"Ġtrains":5346,"Ġpouring":5347,"Cha":5348,"etic":5349,"Ġoffer":5350,"Ġtracks":5351,"Ġfamil":5352,"lt":5353,"Ġcooked":5354,"Ġmic":5355,"ĠSarah":5356,"cia":5357,"Ġvoices":5358,"Ġreasons":5359,"Ġtales":5360,"Ġlistened":5361,"Ġpassed":5362,"Better":5363,"Ġshoo":5364,"Ġsecrets":5365,"Quack":5366,"Green":5367,"making":5368,"rated":5369,"Ġhits":5370,"Ġpredict":5371,"itting":5372,"ĠBuster":5373,"Ġgrowth":5374,"ĠSomething":5375,"rench":5376,"Apple":5377,"ef":5378,"Ġver":5379,"Ġteamm":5380,"cipl":5381,"Ġrisk":5382,"check":5383,"Ġprofession":5384,"pensive":5385,"ĠGarcia":5386,"Ġteammates":5387,"pin":5388,"lph":5389,"Ġshoot":5390,"ĠPoor":5391,"Ġsignific":5392,"**?":5393,"Ġspee":5394,"Ġhiking":5395,"ĠPlaying":5396,"Ġpolit":5397,"Ġaff":5398,"Ġfaces":5399,"Ġterms":5400,"Ġpeaceful":5401,"Ġroutine":5402,"dri":5403,"hus":5404,"Ġocc":5405,"eller":5406,"Ġclapping":5407,"Ġagrees":5408,"Ġowner":5409,"Ġsigns":5410,"ĠTickle":5411,"Ġcode":5412,"Ġcocoa":5413,"Ġshel":5414,"Ġcorrectly":5415,"Ġwobbly":5416,"ĠLittle":5417,"Ġrare":5418,"Ġjumps":5419,"Ġdriver":5420,"zzy":5421,"ĠNe":5422,"Ġdrama":5423,"Ġbottles":5424,"?'":5425,"Again":5426,"For":5427,"ĠBo":5428,"urate":5429,"ams":5430,"Ġwizard":5431,"Slide":5432,"bles":5433,"car":5434,"Ġbell":5435,"Ġrib":5436,"Ġcommunicate":5437,"Ġconfident":5438,"mission":5439,"ison":5440,"Ġmoist":5441,"Ġpub":5442,"Ġapologize":5443,"Ġingredients":5444,"Ġtelescope":5445,"Honey":5446,"Ġsang":5447,"ĠClose":5448,"Ġcourt":5449,"ogn":5450,"Ġharmful":5451,"port":5452,"husi":5453,"Ġca":5454,"igate":5455,"Ġuncom":5456,"Ġpuff":5457,"Ġprincip":5458,"Nope":5459,"icals":5460,"Ġbones":5461,"anges":5462,"Ġthunder":5463,"Ġshout":5464,"acing":5465,"Ġaffects":5466,"Ġmemory":5467,"ĠBirds":5468,"vest":5469,"Ġtheme":5470,"mbled":5471,"Ġripped":5472,"Ġcaterpillar":5473,"Find":5474,"Tw":5475,"Ġhaunt":5476,"irt":5477,"rif":5478,"Ġscientists":5479,"Ġstudents":5480,"Ġdisappear":5481,"Sometimes":5482,"Tank":5483,"ĠDream":5484,"Ġthoughts":5485,"ĠStar":5486,"Ġmonsters":5487,"Ġinsects":5488,"Yucky":5489,"gives":5490,"pers":5491,"Ġfra":5492,"Ġlie":5493,"Ġtip":5494,"Ġcaring":5495,"Ġends":5496,"Ġlog":5497,"Ġum":5498,"ĠNah":5499,"Ġgrabb":5500,"Ġcontest":5501,"Ġdisagree":5502,"Ġwished":5503,"iggle":5504,"Ġfigured":5505,"Ġrefriger":5506,"ĠClimb":5507,"With":5508,"after":5509,"Ġshield":5510,"orld":5511,"Ġshining":5512,"sidered":5513,"ĠStop":5514,"Ġmostly":5515,"Ġinfo":5516,"Ġpatch":5517,"Ġconsidered":5518,"Ġshell":5519,"ĠFriends":5520,"ĠSpot":5521,"Ġvinegar":5522,"vroom":5523,"Ġfeat":5524,"Ġpleas":5525,"Ġfrench":5526,"Swing":5527,"ĠTeamwork":5528,"Ġmuseum":5529,"Ġmaster":5530,"Ġinj":5531,"allow":5532,"Ġkill":5533,"Ġboom":5534,"Ġharsh":5535,"Ġspray":5536,"Ġconversation":5537,"ury":5538,"Ġtar":5539,"ĠPretty":5540,"Ġnods":5541,"Ġappear":5542,"Ġfeeder":5543,"Ġbags":5544,"ĠShoes":5545,"ĠAgain":5546,"ĠOver":5547,"Ġsale":5548,"Ġexpensive":5549,"ĠFish":5550,"shine":5551,"Ġpasta":5552,"Ġenthusi":5553,"Ġkicked":5554,"ĠTheir":5555,"Ġshed":5556,"Ġspills":5557,"Ġsparkly":5558,"Ġsociety":5559,"Ġstressed":5560,"pret":5561,"sion":5562,"ĠWet":5563,"Ġsuit":5564,"Ġdistracted":5565,"On":5566,"Sad":5567,"Ġreduce":5568,"ancing":5569,"Ġdirection":5570,"bed":5571,"ulp":5572,"Ġrinse":5573,"Ġracc":5574,"Ġsticking":5575,"Ġchallenging":5576,"Ġstepping":5577,"Ġeffects":5578,"Ġchemicals":5579,"Ġgad":5580,"Ġrhy":5581,"Ġhike":5582,"Ġtwinkle":5583,"Ġrecogn":5584,"Ġsubst":5585,"Ġbarn":5586,"Every":5587,"Po":5588,"med":5589,"orms":5590,"Ġhun":5591,"Ġsunscreen":5592,"ĠBefore":5593,"ndred":5594,"ĠHist":5595,"Ġhundred":5596,"Ġbelief":5597,"Ġbalanced":5598,"Ġbaseball":5599,"mates":5600,"sy":5601,"hello":5602,"ĠPull":5603,"Yep":5604,"Ġthin":5605,"Ah":5606,"Ġstood":5607,"ĠPat":5608,"Ġstands":5609,"Ġdoub":5610,"Ġburied":5611,"Ġsuperp":5612,"Ġsearching":5613,"Ġlarge":5614,"ĠMany":5615,"ĠDone":5616,"please":5617,"Ġmovement":5618,"Ġpollution":5619,"Ġpilot":5620,"Guess":5621,"Ġprove":5622,"ified":5623,"Ġpopular":5624,"Ġcooper":5625,"zed":5626,"help":5627,"ĠTwo":5628,"Ġclimate":5629,"Ġcurrent":5630,"Ġdecorate":5631,"ĠGet":5632,"osity":5633,"Ġattack":5634,"Ġpuzzles":5635,"cer":5636,"asy":5637,"Ġspoons":5638,"Ġkicking":5639,"Ġcollection":5640,"Picks":5641,"te":5642,"Ġfund":5643,"eeper":5644,"Ġconsidering":5645,"Ġhumans":5646,"ĠClap":5647,"Ġcells":5648,"away":5649,"iens":5650,"Ġalien":5651,"Ġexcellent":5652,"Ġsolving":5653,"Ġscientist":5654,"Ġdrove":5655,"Ġcryst":5656,"Quiet":5657,"Ġcalcul":5658,"Ġwhisper":5659,"00":5660,"Cause":5661,"Ġcompost":5662,"Ġaccurate":5663,"ĠBlack":5664,"Ġdebate":5665,"ippy":5666,"rer":5667,"iggy":5668,"ĠDa":5669,"Ġslipping":5670,"ipment":5671,"Ġrescue":5672,"Next":5673,"auts":5674,"fall":5675,"aching":5676,"Ġpocket":5677,"ĠOrange":5678,"Ro":5679,"Sam":5680,"ĠNew":5681,"Ġmer":5682,"Ġedges":5683,"Ġsituations":5684,"belie":5685,"Bl":5686,"Wet":5687,"Ġinit":5688,"Ġstub":5689,"ĠInst":5690,"Ġproperty":5691,"phones":5692,"Ġstudent":5693,"Yellow":5694,"Ġfloating":5695,"Ġequipment":5696,"frown":5697,"inting":5698,"ened":5699,"Ġstomp":5700,"ĠOk":5701,"Ġdramatic":5702,"ĠShake":5703,"Ġcertainly":5704,"Ġspent":5705,"Ġclue":5706,"Ġpassing":5707,"Ġpeekaboo":5708,"ker":5709,"mpty":5710,"Ġsees":5711,"shm":5712,"Ġinteract":5713,"Ġdamaged":5714,"Ġstrategies":5715,"Ġemail":5716,"Two":5717,"Ġ&":5718,"Ġwires":5719,"entering":5720,"Ġcartoon":5721,"Ġcust":5722,"Ġmunch":5723,"igers":5724,"Ġvase":5725,"Ġfri":5726,"ening":5727,"Ġinvisible":5728,"Ġsil":5729,"Ġfishing":5730,"ashing":5731,"acy":5732,"keeper":5733,"Ġcycle":5734,"Ġthrill":5735,"ĠMan":5736,"Ġwooden":5737,"Ġcuddle":5738,"Din":5739,"ĠUm":5740,"Ġfreed":5741,"ĠAlmost":5742,"Open":5743,"ĠWanna":5744,"ĠApples":5745,"Ġsuc":5746,"Ġusual":5747,"Ġdiscipl":5748,"hicken":5749,"Ġprec":5750,"Ġperio":5751,"Ġspending":5752,"Ġacorns":5753,"Ġitems":5754,"Ġlif":5755,"Ġcomic":5756,"Ġident":5757,"Ġdemonstr":5758,"Ġrolling":5759,"Ġsucceed":5760,"As":5761,"Even":5762,"Fix":5763,"Ġcot":5764,"ision":5765,"Ġbud":5766,"Ġrivers":5767,"Ġairplanes":5768,"Ġeffic":5769,"Sweep":5770,"ooo":5771,"Ġdolph":5772,"Ġexcite":5773,"Stuck":5774,"Ġcounts":5775,"Ġrelig":5776,"Ġdefense":5777,"Ġtasks":5778,"pot":5779,"Ġmature":5780,"ĠSort":5781,"ĠWonderful":5782,"outs":5783,"ĠHide":5784,"Ġunst":5785,"xygen":5786,"Fi":5787,"made":5788,"Ġsear":5789,"ĠBed":5790,"Ġqueen":5791,"Ġremote":5792,"Ġrespecting":5793,"Ġvideos":5794,"Ow":5795,"Ġlava":5796,"eekaboo":5797,"Ġsqueeze":5798,"Actually":5799,"Tr":5800,"grand":5801,"**'":5802,"Ġquality":5803,"Ġdiffic":5804,"Ġbumped":5805,"Truck":5806,"Ġpause":5807,"iece":5808,"Ġbeauty":5809,"Ġtickles":5810,"driver":5811,"Ġstubborn":5812,"Tom":5813,"Ġtouches":5814,"ĠChase":5815,"Ġspeech":5816,"ĠHistory":5817,"Ġton":5818,"Ġrich":5819,"Ġvolume":5820,"Swim":5821,"Where":5822,"Ġtub":5823,"Ġwins":5824,"Ġsus":5825,"arting":5826,"Ġswear":5827,"Ġaliens":5828,"Ġchap":5829,"Fish":5830,"ubb":5831,"ising":5832,"ĠSleepy":5833,"Ġoriginal":5834,"Hungry":5835,"Read":5836,"ailed":5837,"ĠBabysitter":5838,"Pretty":5839,"Toy":5840,"care":5841,"mes":5842,"ĠSkate":5843,"Ġforks":5844,"ieval":5845,"Ġconstr":5846,"Ġplanted":5847,"Ġpermission":5848,"Ġmarshm":5849,"Ġpaying":5850,"Hat":5851,"not":5852,"Ġ...":5853,"Ġspong":5854,"Ġplanned":5855,"Ġexamples":5856,"ĠCookie":5857,"Ġphysical":5858,"Safe":5859,"Ġbeak":5860,"Ġnails":5861,"fts":5862,"ustain":5863,"Ġadult":5864,"Ġbelieved":5865,"Ġachieve":5866,"rack":5867,"agic":5868,"Ġsunshine":5869,"Ġcompass":5870,"Ġinclud":5871,"ĠDinner":5872,"ties":5873,"Ġpracticed":5874,"Ġstripes":5875,"utions":5876,"Ġprice":5877,"Ġmelt":5878,"Ġsprinkle":5879,"Ġabsor":5880,"Ġopin":5881,"Ġhall":5882,"ĠHungry":5883,"ĠMost":5884,"Ġshaped":5885,"Ġquieter":5886,"Ġkisses":5887,"Fly":5888,"Ġoxygen":5889,"icking":5890,"ilit":5891,"Ġclassmates":5892,"zzle":5893,"ĠWheee":5894,"ography":5895,"oned":5896,"ĠWipe":5897,"ĠBrrr":5898,"Ġath":5899,"Ġkindness":5900,"Ġsuppose":5901,"ĠKitty":5902,"Ġoppos":5903,"Ġemer":5904,"ping":5905,"eases":5906,"Ġpolite":5907,"Ġcabin":5908,"Pull":5909,"Tickle":5910,"Warm":5911,"hered":5912,"Ġopening":5913,"Ġlessons":5914,"Ġsneaker":5915,"Ġslipper":5916,"Ġdecorations":5917,"Ġcontribute":5918,"Ġnom":5919,"ĠAnt":5920,"Ġgoodbye":5921,"ĠJason":5922,"Ġadded":5923,"Ġscrewdriver":5924,"Ġpublic":5925,"Kitty":5926,"Ġfest":5927,"ĠTotally":5928,"ĠSing":5929,"ĠBack":5930,"ĠDoggy":5931,"Ġunre":5932,"Ġassist":5933,"Ġhaunted":5934,"Ġ4":5935,"Ġbark":5936,"Ġpit":5937,"Ġstom":5938,"ĠUmm":5939,"Mine":5940,"oss":5941,"Ġda":5942,"ĠHer":5943,"Ġcheering":5944,"Ġslipped":5945,"Ġgrows":5946,"Ġmedieval":5947,"Ġbattery":5948,"Ġborn":5949,"ighters":5950,"cep":5951,"arty":5952,"asting":5953,"ĠToys":5954,"Ġreminder":5955,"'!\"":5956,"sn":5957,"zer":5958,"Ġcas":5959,"Ġaband":5960,"Ġrefrigerator":5961,"Ġexcitement":5962,"ura":5963,"Ġord":5964,"Ġresolving":5965,"ĠSweep":5966,"od":5967,"zen":5968,"har":5969,"Ġdude":5970,"atory":5971,"eds":5972,"Ġclums":5973,"Ġducky":5974,"Ġversion":5975,"phic":5976,"Ġsteal":5977,"iday":5978,"ĠMar":5979,"ĠFly":5980,"Ġcrash":5981,"Ġopens":5982,"Ġcontent":5983,"Ġsurround":5984,"Ġcultures":5985,"ina":5986,"ĠOther":5987,"Ġturtles":5988,"Ġclaps":5989,"Ġpulls":5990,"Ġimagin":5991,"Cookie":5992,"Ġpassionate":5993,"Sun":5994,"Ġclay":5995,"Ġwad":5996,"ula":5997,"Ġleading":5998,"Ġknocking":5999,"toddler":6000,"Ġdiscussing":6001,"Ġrisky":6002,"Ġallowed":6003,"Ġopportunity":6004,"oups":6005,"Ġbill":6006,"Ġrely":6007,"Ġbuilder":6008,"new":6009,"Ġsquishy":6010,"Ġchecking":6011,"Ġincre":6012,"Ġculture":6013,"shakes":6014,"Att":6015,"Ġconcentrate":6016,"wy":6017,"Ġtab":6018,"Ġsix":6019,"Ġbri":6020,"Ġlower":6021,"Ġaspect":6022,"ĠPaint":6023,"Please":6024,"Ġrelie":6025,"build":6026,"Ġuncomfortable":6027,"Nigh":6028,"Ġtoss":6029,"Ġped":6030,"Ġnic":6031,"allows":6032,"Ġcoke":6033,"ĠPen":6034,"mma":6035,"ĠAnything":6036,"Ġspreading":6037,"Ġauthor":6038,"Ġshelter":6039,"orate":6040,"Ġfault":6041,"Ġresist":6042,"Ġslippers":6043,"Catch":6044,"nal":6045,"Ġlying":6046,"Ġhobb":6047,"Ġthrows":6048,"Ġcraw":6049,"priate":6050,"Ġastronauts":6051,"Ġprofessional":6052,"rush":6053,"urtle":6054,"ĠPro":6055,"Ġchain":6056,"Ġprotecting":6057,"proof":6058,"Ġframe":6059,"Close":6060,"word":6061,"Ġbored":6062,"Ġfus":6063,"ĠWhatever":6064,"Ġworrying":6065,"Ġengaging":6066,"Ġchemical":6067,"Ġafford":6068,"Box":6069,"list":6070,"waves":6071,"inj":6072,"une":6073,"ĠFind":6074,"Ġsleeps":6075,"Ġtwice":6076,"boys":6077,"Un":6078,"uate":6079,"Ġwishes":6080,"ĠCho":6081,"ĠMond":6082,"obble":6083,"Ġanytime":6084,"umes":6085,"Ġkidd":6086,"looking":6087,"Ġtechnique":6088,"Ġoranges":6089,"Ġaside":6090,"Ġchecked":6091,"Ġdino":6092,"Ġfocusing":6093,"Ġpenguins":6094,"ifying":6095,"ĠWhee":6096,"Ġsearched":6097,"Attempts":6098,"**?\"":6099,"Ġrehe":6100,"angled":6101,"Ġflex":6102,"ĠDude":6103,"Ġsetup":6104,"Ġsettings":6105,"Ġequation":6106,"Clap":6107,"Ġbegins":6108,"ĠUnderstanding":6109,"Would":6110,"how":6111,"Ġbac":6112,"Ġgroc":6113,"Wipe":6114,"cr":6115,"hest":6116,"eter":6117,"Ġlightning":6118,"Ġleaders":6119,"Ġmovements":6120,"Ġstoryteller":6121,"Ġyay":6122,"ashion":6123,"una":6124,"ushed":6125,"andy":6126,"Ġblend":6127,"Ġerupt":6128,"Puts":6129,"ira":6130,"inct":6131,"ĠHop":6132,"Ġsteam":6133,"Done":6134,"Loud":6135,"bird":6136,"Ġlimit":6137,"icles":6138,"Ġslid":6139,"Ġgrad":6140,"Ġgroups":6141,"Ġleve":6142,"awn":6143,"door":6144,"berries":6145,"Ġimpressed":6146,"Ġtextbook":6147,"meric":6148,"ĠMonday":6149,"Cool":6150,"Dirty":6151,"Shake":6152,"Ġwithin":6153,"Ġmember":6154,"ĠPo":6155,"Ġjuicy":6156,"ĠKnock":6157,"Ġexercise":6158,"usic":6159,"Ġnearby":6160,"ĠHelping":6161,"Ġcuriosity":6162,"Ġspinning":6163,"iverse":6164,"Ġnecessary":6165,"Slow":6166,"cils":6167,"utter":6168,"Ġswish":6169,"Ġadm":6170,"Ġtweet":6171,"aced":6172,"Ġwiping":6173,"eve":6174,"Ġmother":6175,"Ġtowers":6176,"Ġchose":6177,"Ġsyrup":6178,"Ġmedia":6179,"Ġmachines":6180,"Ġdifficult":6181,"Poor":6182,"reasure":6183,"Ġgiggles":6184,"Ġvict":6185,"Ġvote":6186,"berry":6187,"eenager":6188,"Ġdefend":6189,"Ġstepped":6190,"Ġhabitat":6191,"Ġreplace":6192,"Full":6193,"fact":6194,"Ġsustain":6195,"arn":6196,"Ġsculp":6197,"Ġarmor":6198,"Ġprint":6199,"ĠAnimals":6200,"Ġdiscovered":6201,"Ġskateboarding":6202,"mind":6203,"resp":6204,"ĠWi":6205,"ĠDrag":6206,"ĠDada":6207,"friendly":6208,"Ġbasically":6209,"Ġbuying":6210,"Ġrhyth":6211,"Ġfreedom":6212,"rong":6213,"**.\"":6214,"Ġsniff":6215,"Ġrode":6216,"Ġuniverse":6217,"Stop":6218,"Ġloc":6219,"Ġblows":6220,"Ġangry":6221,"ĠDaisy":6222,"ued":6223,"hier":6224,"Ġlone":6225,"lower":6226,"Ġadds":6227,"Ġcoats":6228,"Ġbeginning":6229,"Ġalbum":6230,"Ex":6231,"Ġwire":6232,"Ġreaches":6233,"Points":6234,"Ġsile":6235,"istry":6236,"shows":6237,"Ġsplashed":6238,"Ġchoosing":6239,"Ġpuppies":6240,"Ġseparate":6241,"Are":6242,"asm":6243,"Ġsnowball":6244,"Ġarguments":6245,"Ġconnection":6246,"Ġcauses":6247,"Ġkiddos":6248,"Dark":6249,"rain":6250,"Ġdip":6251,"Ġhoping":6252,"Ġinvest":6253,"Ġshots":6254,"Ġprogram":6255,"Ġpretzels":6256,"Ġcommitment":6257,"beard":6258,"Ġhook":6259,"Ġmechan":6260,"Ġfamilies":6261,"ĠInstead":6262,"Oops":6263,"Sorry":6264,"Ġimit":6265,"ĠWhoosh":6266,"Ġstable":6267,"Ġrum":6268,"oodle":6269,"Ġsits":6270,"Sing":6271,"child":6272,"continues":6273,"tuce":6274,"ĠWeren":6275,"Ġdiag":6276,"Ġclasses":6277,"Ġdreaming":6278,"Ġanswers":6279,"Kiss":6280,"arter":6281,"ĠBath":6282,"Ġthro":6283,"Ġfiguring":6284,"Ġexpert":6285,"Ġtorn":6286,"Ġstomach":6287,"Ġfan":6288,"Ġport":6289,"otic":6290,"agger":6291,"Were":6292,"Ġpredators":6293,"rite":6294,"Ġcartoons":6295,"Ġtask":6296,"Ġpacked":6297,"Ġuh":6298,"ĠAmeric":6299,"Ġbrushing":6300,"Ġpractical":6301,"uchie":6302,"appro":6303,"Ġhonor":6304,"Ġpromises":6305,"Ġprivate":6306,"Ġdestro":6307,"Ġcivil":6308,"Ġstink":6309,"Ġpointless":6310,"Ġraisin":6311,"Ġclaim":6312,"Ġpow":6313,"Ġdisaster":6314,"Ġdesert":6315,"ĠLe":6316,"Ġramp":6317,"Ġpickles":6318,"Ġaddress":6319,"haps":6320,"Ġfetch":6321,"Ġgrill":6322,"Ġskip":6323,"Ġbroad":6324,"Ġ20":6325,"Ġsplashes":6326,"Ġbloom":6327,"Ġlifes":6328,"Moon":6329,"emy":6330,"yawns":6331,"hirts":6332,"Ġowe":6333,"Ġallowance":6334,"Ġmultip":6335,"Ġpant":6336,"eath":6337,"Ġhills":6338,"Ġdiet":6339,"Ġrabbits":6340,"Ġcapture":6341,"Ġmillion":6342,"Super":6343,"ĠOld":6344,"ains":6345,"Ġadmit":6346,"Ġtasted":6347,"Ġdirectly":6348,"Ġecosystems":6349,"Scared":6350,"Ġshadow":6351,"Ġintrod":6352,"Ġdem":6353,"runs":6354,"press":6355,"yond":6356,"ĠLong":6357,"ured":6358,"Ġstorybook":6359,"Ġresults":6360,"down":6361,"ĠLoud":6362,"Ġstruggling":6363,"Ġpractices":6364,"Ġhesitate":6365,"Ġprovide":6366,"Ġitchy":6367,"Ġpencils":6368,"Cozy":6369,"Ġperiod":6370,"Ġrhythm":6371,"Ġaunt":6372,"Ġbone":6373,"stood":6374,"Ġsailing":6375,"Ġalarm":6376,"Ġrelease":6377,"Ġtotal":6378,"hearted":6379,"Ġscientific":6380,"Ġraccoon":6381,"omen":6382,"Ġhabits":6383,"Ġrope":6384,"Ġhugged":6385,"Ġlaunch":6386,"Ġclapped":6387,"Ġaccepted":6388,"aver":6389,"inter":6390,"ulation":6391,"Ġwhist":6392,"Ġdetail":6393,"Ġdoctors":6394,"Ġequations":6395,"Ġsurvival":6396,"cepts":6397,"Ġabandoned":6398,"Ġlonely":6399,"Mimics":6400,"ube":6401,"vable":6402,"ĠĠ":6403,"stairs":6404,"ĠSchool":6405,"ĠMo":6406,"orth":6407,"Ġsheet":6408,"Ġteaches":6409,"Ġsquish":6410,"ĠKick":6411,"fill":6412,"Ġbow":6413,"Ġmaj":6414,"Ġrights":6415,"Ġscales":6416,"Ġsignal":6417,"Ġlevels":6418,"ibility":6419,"Ġeco":6420,"Ġgiven":6421,"Ġlands":6422,"Ġmixing":6423,"Climb":6424,"Ġouchies":6425,"Ġbacter":6426,"reme":6427,"erg":6428,"Ġlettuce":6429,"usion":6430,"ffes":6431,"Ġenemy":6432,"Ġbookshe":6433,"Ġsponge":6434,"volution":6435,"Ġcred":6436,"Ġbeyond":6437,"ĠRoar":6438,"Ġshooting":6439,"App":6440,"Bath":6441,"Long":6442,"ga":6443,"Ġdeeper":6444,"Ġshade":6445,"Ġvoc":6446,"Ġwhale":6447,"ĠToo":6448,"Ġmagician":6449,"Ġdesc":6450,"Ġsparkling":6451,"ĠExcellent":6452,"Ġembarrassing":6453,"Ġmarshmallows":6454,"touches":6455,"Ġoper":6456,"Ġsore":6457,"Ġunif":6458,"Ġinvite":6459,"Ġmarker":6460,"Ġinspire":6461,"Ġwebs":6462,"Ġsac":6463,"Ġshad":6464,"Ġfail":6465,"Ġbiting":6466,"Ġcompare":6467,"ucked":6468,"Ġconcerned":6469,"Ġsilver":6470,"aff":6471,"react":6472,"hions":6473,"Ġfurn":6474,"ĠTurn":6475,"eng":6476,"vert":6477,"Ġthread":6478,"ĠOutside":6479,"Ġcleanup":6480,"Ġcarbon":6481,"Ġsounded":6482,"Ġrained":6483,"ensive":6484,"Ġfreaking":6485,"Bubbles":6486,"looks":6487,"Hands":6488,"wash":6489,"hill":6490,"Ġmaps":6491,"Ġoct":6492,"ĠSand":6493,"Ġsting":6494,"cho":6495,"Ġadults":6496,"Ġphones":6497,"Ġdoubt":6498,"Hand":6499,"Ġtrop":6500,"igs":6501,"ĠWarm":6502,"Ġ30":6503,"Ġstatue":6504,"Ġbookshelf":6505,"Fl":6506,"Paint":6507,"fashion":6508,"eared":6509,"Ġfields":6510,"ĠCookies":6511,"Ġbikes":6512,"Puppy":6513,"Ġcustom":6514,"orp":6515,"Ġdoors":6516,"Ġtied":6517,"Ġexplan":6518,"Ġmessages":6519,"ĠStand":6520,"Ġcushions":6521,"Fin":6522,"fr":6523,"ĠNope":6524,"opes":6525,"Ġscrib":6526,"ummies":6527,"Ġconqu":6528,"Ġbasic":6529,"Ġexperiments":6530,"ĠKinda":6531,"Ġstorytelling":6532,"osphere":6533,"Ġbulb":6534,"Ġbenef":6535,"Ġpace":6536,"Ġrein":6537,"rial":6538,"Ġrug":6539,"fting":6540,"Ġwritten":6541,"Ġgrape":6542,"rots":6543,"Ġache":6544,"Ġreturns":6545,"Ġlayer":6546,"Ġninj":6547,"ircle":6548,"ĠHurt":6549,"Ġpreser":6550,"aws":6551,"mar":6552,"Ġhay":6553,"Ġability":6554,"ĠCut":6555,"Ġplayd":6556,"Ġsketch":6557,"Ġheadphones":6558,"Ġcurtain":6559,"Ġessential":6560,"Ġearned":6561,"Ġobjects":6562,"Wonderful":6563,"ĠFriend":6564,"Ġmood":6565,"rave":6566,"Ġallows":6567,"Ġsuff":6568,"Ġgraphic":6569,"Ġamong":6570,"Ġfashion":6571,"Ġtournam":6572,"grandfather":6573,"fashioned":6574,"bug":6575,"ended":6576,"ĠNature":6577,"ĠDown":6578,"Ġconcl":6579,"Ġraise":6580,"Ġdesigns":6581,"Walking":6582,"Ġemergen":6583,"erves":6584,"rog":6585,"Ġfunction":6586,"ĠPick":6587,"ĠEw":6588,"Ġnewsp":6589,"Ġchased":6590,"Ġbeliefs":6591,"wow":6592,"ĠTaking":6593,"Ġlikely":6594,"ĠDirty":6595,"ĠPet":6596,"Ġconcepts":6597,"ĠFair":6598,"umps":6599,"awr":6600,"Ġattach":6601,"Ġprote":6602,"Being":6603,"Ġgadgets":6604,"Snow":6605,"mage":6606,"Ġur":6607,"Ġspo":6608,"Ġjugg":6609,"Bo":6610,"Ġdiss":6611,"Ġexhi":6612,"Ġrealistic":6613,"Ġcompan":6614,"Ġprize":6615,"Ġlarger":6616,"Ġvocab":6617,"eel":6618,"ĠCow":6619,"ulous":6620,"Ġtowels":6621,"Ġactive":6622,"Ġdisplay":6623,"Ġinterests":6624,"Ġaccount":6625,"Ġcampfire":6626,"Ġgrabbed":6627,"turns":6628,"Ġtigers":6629,"Ġdates":6630,"Ġoffice":6631,"uggled":6632,"Ġlicking":6633,"Ġslept":6634,"Ġchapter":6635,"Ġbacteria":6636,"neath":6637,"gers":6638,"Ġfollows":6639,"ĠSquirrel":6640,"Ġdiscipline":6641,"Al":6642,"Ġpal":6643,"asket":6644,"Ġhea":6645,"ĠYounger":6646,"Ġsmiled":6647,"ddles":6648,"Ġpretended":6649,"Ġtiming":6650,"Ġefforts":6651,"Ġcaused":6652,"Ġcondition":6653,"lines":6654,"Ġloop":6655,"ĠBlow":6656,"Ġpassword":6657,"Sweet":6658,"Ġphysics":6659,"Hurt":6660,"break":6661,"stop":6662,"arrow":6663,"ĠHend":6664,"Ġclassic":6665,"ension":6666,"Ġimproving":6667,"piece":6668,"Ġlect":6669,"ĠPour":6670,"Ġsooner":6671,"Ġcrab":6672,"Ġsolutions":6673,"Ġelectron":6674,"Ġmice":6675,"stac":6676,"ĠSir":6677,"aries":6678,"Ġstur":6679,"ĠDis":6680,"Ġtreated":6681,"Ġoverhearing":6682,"Ġparticip":6683,"ilitary":6684,"Drink":6685,"Knock":6686,"Pour":6687,"dge":6688,"la":6689,"omm":6690,"oots":6691,"urs":6692,"Ġslight":6693,"Ġcircles":6694,"Ġscrape":6695,"ĠFriday":6696,"Ġservice":6697,"*.":6698,"Ġselling":6699,"haw":6700,"ĠMama":6701,"ĠRock":6702,"Ġunless":6703,"ĠStories":6704,"Ġlouder":6705,"Ġrelations":6706,"rible":6707,"reg":6708,"ĠFull":6709,"Ġclosely":6710,"Ġbang":6711,"grabs":6712,"Ġconvin":6713,"Tiny":6714,"hugs":6715,"itor":6716,"used":6717,"Ġprank":6718,"Ġaccess":6719,"Ġcommunication":6720,"ĠCarry":6721,"Ġthroat":6722,"uals":6723,"iture":6724,"Ġspider":6725,"ĠGra":6726,"ĠPir":6727,"Ġraces":6728,"Ġfinishing":6729,"Later":6730,"mark":6731,"Ġfis":6732,"Ġmut":6733,"Ġnarr":6734,"ashed":6735,"Ġtire":6736,"Ġatm":6737,"ĠSomeone":6738,"ertil":6739,"craft":6740,"Ġinfluence":6741,"Ġopposite":6742,"Heavy":6743,"Say":6744,"ĠTank":6745,"ĠBroken":6746,"Ġtripped":6747,"Ġstaring":6748,"Ġcomplain":6749,"Ġorganizing":6750,"Ġdepends":6751,"ĠHenderson":6752,"Ġthir":6753,"Ġbuzz":6754,"Ġoverp":6755,"Ġchess":6756,"Ġtalks":6757,"Ġsequ":6758,"Ġparade":6759,"Ġfloaties":6760,"orning":6761,"ĠTower":6762,"Ġrenew":6763,"Ġcleaner":6764,"Ġoverreact":6765,"Ġmuffins":6766,"ĠShhh":6767,"Ġcontainer":6768,"Sn":6769,"Ġfol":6770,"ĠCars":6771,"Noisy":6772,"Ġtrap":6773,"Ġfrozen":6774,"Ġmindful":6775,"Ġghosts":6776,"Ġoptions":6777,"frowns":6778,"Ġcotton":6779,"Nana":6780,"Ġslo":6781,"Ġfake":6782,"ulti":6783,"Ġpollen":6784,"Ġmanaging":6785,"Ġpaints":6786,"Ġtraditional":6787,"ĠTwinkle":6788,"Ġentertain":6789,"jo":6790,"Ġmama":6791,"Ġpha":6792,"Ġgoo":6793,"ĠMilk":6794,"Ġarri":6795,"ĠFo":6796,"Ġresting":6797,"mony":6798,"osaurs":6799,"Ġassignments":6800,"Ġstrict":6801,"ĠNeighbor":6802,"Ġbudget":6803,"Tomorrow":6804,")**:":6805,"lming":6806,"uly":6807,"otty":6808,"Ġir":6809,"irls":6810,"ĠBoth":6811,"Ġprince":6812,"boos":6813,"Ġobservation":6814,"orse":6815,"Ġnigh":6816,"Ġshut":6817,"opens":6818,"Ġarc":6819,"Ġfeeding":6820,"Ġshark":6821,"Ġobstac":6822,"Ġbrainstorm":6823,"Ġweap":6824,"Ġdocumentary":6825,"Old":6826,"Ġfat":6827,"ĠButter":6828,"roke":6829,"Ġhandy":6830,"Ġwaterfall":6831,"izer":6832,"Ġflood":6833,"ĠRevolution":6834,"Ġdescribes":6835,"Ġencourage":6836,"ĠRoll":6837,"Cheese":6838,"view":6839,"orrect":6840,"each":6841,"ĠName":6842,"hesis":6843,"Ġ15":6844,"Ġmetap":6845,"Ġpigs":6846,"Ġvisited":6847,"Ġcopy":6848,"Ġemotions":6849,"Any":6850,"bell":6851,"draw":6852,"uries":6853,"Ġthie":6854,"Ġsippy":6855,"Ġrow":6856,"ĠLee":6857,"Ġeagle":6858,"Ġwarmer":6859,"uctive":6860,"urning":6861,"Ġchaos":6862,"Ġunl":6863,"Ġcompared":6864,"Ġoverwhelming":6865,"Ġmicro":6866,"ĠTiny":6867,"Ġthreat":6868,"ppers":6869,"Ġscored":6870,"Ġquiz":6871,"ĠRain":6872,"Looks":6873,"Ġjokes":6874,"Ġcostumes":6875,"Ġchemistry":6876,"Ġmir":6877,"rip":6878,"rict":6879,"ames":6880,"bras":6881,"Ġsorted":6882,"Ġindivid":6883,"Ġatmosphere":6884,"sits":6885,"oration":6886,"antage":6887,"Ġplayful":6888,"ĠGold":6889,"Ġgray":6890,"Ġdries":6891,"ĠCarter":6892,"Ġwiggly":6893,"Haha":6894,"ossible":6895,"Ġwakes":6896,"ĠBrown":6897,"Ġblast":6898,"Ġliterally":6899,"Squ":6900,"bal":6901,"kn":6902,"ĠWall":6903,"urity":6904,"Ġparties":6905,"Ġshells":6906,"Ġbabe":6907,"Ġcandle":6908,"Shhh":6909,"Ġfurniture":6910,"Kick":6911,"Outside":6912,"Ġlapt":6913,"ompl":6914,"ĠMars":6915,"Ġsnap":6916,"Stay":6917,"Ġextreme":6918,"ĠFinish":6919,"Ġtournament":6920,"Brrr":6921,"Watch":6922,"Ġmilitary":6923,"ulary":6924,"Ġexagger":6925,"Ġengines":6926,"Ġfilm":6927,"zard":6928,"ĠCon":6929,"Ġscale":6930,"Ġstumbled":6931,"Ġunic":6932,"izes":6933,"nov":6934,"Carry":6935,"Ġcontroller":6936,"Ġensure":6937,"Cut":6938,"Ġmig":6939,"Ġmall":6940,"Ġpian":6941,"ato":6942,"Ġpepper":6943,"Ġbravery":6944,"Ġstirring":6945,"Ġgrandchild":6946,"Ġindust":6947,"Ġparticular":6948,"Ġtablet":6949,"Ġamb":6950,"Ġexam":6951,"Ġexist":6952,"Ġfacing":6953,"hoe":6954,"Ġfurther":6955,"Ġcushion":6956,"Twinkle":6957,"Ġdestroy":6958,"Promise":6959,"iar":6960,"zes":6961,"ĠSad":6962,"Ġspins":6963,"ĠGen":6964,"Ġsurprises":6965,"Ġmarine":6966,"Ġoverhear":6967,"Ġvocabulary":6968,"pull":6969,"Ġske":6970,"Ġcher":6971,"Ġden":6972,"Ġham":6973,"Ġrat":6974,"ĠDrive":6975,"epend":6976,"ddle":6977,"Ġcalls":6978,"ĠAren":6979,"Ġdried":6980,"Ġrepair":6981,"fying":6982,"Ġlifesaver":6983,"hm":6984,"maker":6985,"uing":6986,"Ġnone":6987,"Ġworms":6988,"Ġworkers":6989,"Ġvet":6990,"Ġimpossible":6991,"Ġsmo":6992,"Ġleads":6993,"boat":6994,"Ġfires":6995,"Ġkicks":6996,"Ġconfidence":6997,"Ġsource":6998,"Ġlaptop":6999,"ĠHand":7000,"Ġoutline":7001,"Ġclick":7002,"mic":7003,"llie":7004,"Ġshook":7005,"ĠPer":7006,"Ġevenly":7007,"Ġchick":7008,"Ġlayers":7009,"ees":7010,"Ġtax":7011,"Ġfought":7012,"ights":7013,"ctar":7014,"aly":7015,"amond":7016,"Ġguid":7017,"Ġbits":7018,"Ġdetailed":7019,"ĠAuntie":7020,"Ġanaly":7021,"Ġfirefighters":7022,"Ġtucked":7023,"hew":7024,"Ġyarn":7025,"atches":7026,"cel":7027,"Ġreluctantly":7028,"Ġsharks":7029,"Ġstopping":7030,"Ġcrisp":7031,"ĠJackson":7032,"Ġcastles":7033,"Ġsignificant":7034,"thy":7035,"Ġcaps":7036,"Ġlighter":7037,"Ġpitch":7038,"ĠWhite":7039,"Ġhorn":7040,"ĠAm":7041,"aunt":7042,"ĠFire":7043,"Ġattempts":7044,"Ġdancer":7045,"angar":7046,"Ġroads":7047,"Ġenchant":7048,"Ġflavors":7049,"Listen":7050,"itize":7051,"Ġfer":7052,"arily":7053,"ĠChoo":7054,"Ġnectar":7055,"Ġaltern":7056,"ĠPop":7057,"Ġplanes":7058,"Ġappropriate":7059,"Ġwrapped":7060,"Ġdedication":7061,"iant":7062,"what":7063,"Ġtit":7064,"hange":7065,"ĠMusic":7066,"Ġsnakes":7067,"ĠFlowers":7068,"Ġflu":7069,"Ġmethods":7070,"carefully":7071,"Ġfuss":7072,"Back":7073,"gins":7074,"ckets":7075,"ĠBest":7076,"ĠNana":7077,"elly":7078,"ressive":7079,"ĠSuperher":7080,"Ġsatis":7081,"Ġhonestly":7082,"Ġnicer":7083,"Ġwhistle":7084,"Ġgal":7085,"omy":7086,"ediate":7087,"Ġink":7088,"ĠSoon":7089,"Ġunderwater":7090,"Ġfoundation":7091,"ĠStart":7092,"Ġloudly":7093,"ĠShall":7094,"Ġinvited":7095,"Ġjudge":7096,"ift":7097,"Ġfed":7098,"Ġinfect":7099,"ĠMike":7100,"amm":7101,"Ġhandling":7102,"Ġtrunk":7103,"Ġproof":7104,"Ġfully":7105,"ĠStick":7106,"Ġlegal":7107,"iques":7108,"ĠScience":7109,"put":7110,"sl":7111,"ingo":7112,"rams":7113,"ceful":7114,"Ġsailed":7115,"Ġspilling":7116,"Ġriddle":7117,"ĠDucks":7118,"Ġoccas":7119,"ivers":7120,"Ġtumb":7121,"Ġtables":7122,"Ġfirm":7123,"ĠCount":7124,"Ġprefer":7125,"Ġcomfort":7126,"Ġcheat":7127,"Ġinstance":7128,"Ġequal":7129,"ĠCheck":7130,"Ġsuccessfully":7131,"Chase":7132,"Mon":7133,"Ġtummies":7134,"inning":7135,"Ġmen":7136,"Ġcans":7137,"Ġimage":7138,"Ġlim":7139,"Ġroast":7140,"Ġreality":7141,"Ġmesses":7142,"Ġprotected":7143,"Ġdigest":7144,"Ġdigital":7145,"Ġsparkle":7146,"Ġinspiring":7147,"Ġafterwards":7148,"Ġmonths":7149,"Ice":7150,"Mr":7151,"ius":7152,"Ġ8":7153,"Dada":7154,"ĠBox":7155,"Ġhighlight":7156,"Ġload":7157,"ĠWasn":7158,"doors":7159,"Ġrisks":7160,"Ġimmediate":7161,"Ġflexible":7162,"Ġvictory":7163,"Ġmajor":7164,"ubs":7165,"Ġpy":7166,"Ġweeds":7167,"Ġexpand":7168,"Ġreprod":7169,"Ġterrible":7170,"Ġseconds":7171,"Ġproduce":7172,"Ġdealing":7173,"Ġnavigate":7174,"Ġenthusiasm":7175,"En":7176,"Ouch":7177,"Whoosh":7178,"mother":7179,"wi":7180,"Ġnib":7181,"lephant":7182,"ĠTrees":7183,"Ġhosp":7184,"Ġadap":7185,"ucing":7186,"Ġdisappoint":7187,"Ġdemonstrate":7188,"Skate":7189,"bet":7190,"Ġshirts":7191,"itates":7192,"ĠWorld":7193,"Ġeh":7194,"acket":7195,"Ġspy":7196,"elcome":7197,"Ġoffering":7198,"Ġminer":7199,"Ġsystems":7200,"Ġcovers":7201,"Ġmemorable":7202,"Ġmetaphor":7203,"Ġseal":7204,"ĠHoney":7205,"rope":7206,"Ġspelling":7207,"Ġguest":7208,"Ġtwink":7209,"Ġforests":7210,"Ġdeliver":7211,"Ġhunting":7212,"Ġdusty":7213,"Ġhydrated":7214,"Ġunicorn":7215,"Ġguidance":7216,"Hard":7217,"eaves":7218,"ching":7219,"ĠHard":7220,"ĠOuchie":7221,"ĠHehe":7222,"Ġtrend":7223,"istent":7224,"Ġhasn":7225,"ĠWouldn":7226,"Ġabsorb":7227,"Pick":7228,"field":7229,"ogy":7230,"ocul":7231,"sive":7232,"Ġtipt":7233,"Ġcoast":7234,"Ġexcept":7235,"Ġarrange":7236,"Ġmole":7237,"Ġcreates":7238,"Ġtests":7239,"Ġnegative":7240,"Ġsustainable":7241,"cast":7242,"ded":7243,"Ġaqu":7244,"Ġfertil":7245,"Ġmow":7246,"Ġdug":7247,"ĠPirates":7248,"pan":7249,"ĠDump":7250,"ractice":7251,"ĠKiss":7252,"ĠStuck":7253,"Stars":7254,"Ġcatches":7255,"Ġtightly":7256,"Ġvisual":7257,"Ġregret":7258,"Ġadvantage":7259,"Ġcombine":7260,"Ġsettled":7261,"ĠIndeed":7262,"Ġcompanies":7263,"bling":7264,"sis":7265,"yal":7266,"ĠBreak":7267,"Ġthumb":7268,"aky":7269,"Ġswamp":7270,"iment":7271,"Ġprecise":7272,"Ġdiseases":7273,"ĠCheese":7274,"Ġwatches":7275,"Smiling":7276,"attempts":7277,"Ġdetermination":7278,"anana":7279,"ĠMoon":7280,"Ġovercome":7281,"Ġtopics":7282,"Ġhealthier":7283,"Ġcowboys":7284,"Ġdiscussion":7285,"helps":7286,"Last":7287,"Windy":7288,"chie":7289,"ĠBaby":7290,"Ġvi":7291,"Ġfaced":7292,"Ġdiamond":7293,"Ġcrust":7294,"Ġchop":7295,"Ġpackage":7296,"Speaking":7297,"Ġdetectives":7298,"Throw":7299,"Ġcolored":7300,"Down":7301,"oc":7302,"Ġdolls":7303,"few":7304,"imon":7305,"Ġunus":7306,"Ġcontact":7307,"Ġtrained":7308,"Ġpanels":7309,"Empty":7310,"wise":7311,"onic":7312,"Ġdice":7313,"Ġneedle":7314,"Ġworn":7315,"opus":7316,"Ġsnuggled":7317,"ĠFit":7318,"Ġsets":7319,"Ġsunf":7320,"reek":7321,"irect":7322,"Ġfaraway":7323,"Ġclowns":7324,"Ġunsure":7325,"ĠAdventure":7326,"cuse":7327,"Ġ\"*":7328,"Ġrece":7329,"ĠHowever":7330,"Ġpride":7331,"headed":7332,"Ġgiraffes":7333,"Ġoverwhelm":7334,"Ġsturdy":7335,"Ġpiano":7336,"Man":7337,"eze":7338,"Ġrebuild":7339,"Ġspices":7340,"ĠDi":7341,"ĠFrench":7342,"Ġsoftware":7343,"Ġpennies":7344,"Ġbumps":7345,"Ġsteer":7346,"Ġcircuit":7347,"Ġfestival":7348,"hile":7349,"hical":7350,"ĠNeed":7351,"Ġneither":7352,"ĠMoo":7353,"fere":7354,"Ġgardener":7355,"Ġanalogy":7356,"Ġordinary":7357,"Ġrehears":7358,"Does":7359,"Give":7360,"Hes":7361,"Ġce":7362,"Ġcy":7363,"Ġmim":7364,"Ġlung":7365,"ĠSky":7366,"ĠHat":7367,"Ġthor":7368,"Ġkangar":7369,"ĠMagic":7370,"Ġchannel":7371,"Ġdrill":7372,"Ġdropping":7373,"Bad":7374,"Eww":7375,"Laughs":7376,"Make":7377,"kick":7378,"rig":7379,"wood":7380,"Ġtails":7381,"Ġcable":7382,"ashy":7383,"iration":7384,"ĠHeavy":7385,"Ġremembering":7386,"Ġacid":7387,"Ġresearching":7388,"Ġshadows":7389,"Have":7390,"Ġx":7391,"Ġwolves":7392,"ĠBoom":7393,"lasses":7394,"ĠPaper":7395,"Ġdraft":7396,"Ġstrings":7397,"ĠLooks":7398,"Ġtearing":7399,"Ġcurfew":7400,"Ġdefeat":7401,"cent":7402,"aying":7403,"Ġirr":7404,"cking":7405,"Ġswung":7406,"Ġcrown":7407,"Ġhighest":7408,"ĠDinosaurs":7409,"Ġrewarding":7410,"Awake":7411,"Ġmagnetic":7412,"makes":7413,"erving":7414,"Ġlat":7415,"Ġgain":7416,"ĠTouch":7417,"asp":7418,"Ġforms":7419,"Ġplug":7420,"acking":7421,"essions":7422,"ĠEgy":7423,"ĠRec":7424,"Ġarch":7425,"Ġtruly":7426,"Ġlean":7427,"Ġchances":7428,"struggles":7429,"sniff":7430,"Ġoctopus":7431,"Ġslightly":7432,"Anytime":7433,"Fishy":7434,"pre":7435,"Ġsoak":7436,"Ġdownload":7437,"Ġunpl":7438,"Ġstrongest":7439,"Ġripe":7440,"Ġrecycled":7441,"Ġrusty":7442,"Ġpolitical":7443,"hol":7444,"eats":7445,"Ġoutfit":7446,"Ġshakes":7447,"ĠRace":7448,"Ġarti":7449,"Ġresolve":7450,"Ġexcuse":7451,"Ġcandles":7452,"Ġfreeze":7453,"Ġcollecting":7454,"Ġsuperpowers":7455,"Ġdescript":7456,"Dump":7457,"Thirsty":7458,"aze":7459,"Ġlend":7460,"Ġplacing":7461,"ĠDark":7462,"mbling":7463,"Ġflight":7464,"Ġsunset":7465,"Ġtoothp":7466,"Ġrevolution":7467,"Ġobserve":7468,"Milk":7469,"drop":7470,"pushes":7471,"Ġlap":7472,"antic":7473,"ateful":7474,"ĠGl":7475,"Ġeager":7476,"ĠNoisy":7477,"Ġarmy":7478,"ĠDoesn":7479,"Ġburning":7480,"Ġcultural":7481,"Ġjudges":7482,"Ġpads":7483,"Ġdetermined":7484,"Ġofficial":7485,"Ġsilent":7486,"vious":7487,"Ġtangled":7488,"Ġtons":7489,"Ġnu":7490,"Ġstool":7491,"irus":7492,"Ġsaves":7493,"Ġsnowy":7494,"ĠCleaning":7495,"Ġmarks":7496,"Ġapron":7497,"Ġburst":7498,"Ġcritical":7499,"Ġconstruction":7500,"Ġbound":7501,"Ġdu":7502,"Ġrides":7503,"ĠRub":7504,"Ġmotiv":7505,"Ġlaughter":7506,"Ġzoomed":7507,"Ġproducts":7508,"Ġpaid":7509,"Ġgall":7510,"Ġgotten":7511,"Ġadvent":7512,"ĠFood":7513,"Ġtrips":7514,"Ġteams":7515,"Ġcraz":7516,"Ġcreated":7517,"Ġtears":7518,"Ġvibr":7519,"Ġpresident":7520,"Ġeffectively":7521,"Ġcredit":7522,"Orange":7523,"Ġ$":7524,"Ġdut":7525,"lev":7526,"ĠSl":7527,"ĠCute":7528,"Ġworst":7529,"Ġbond":7530,"Ġfoss":7531,"Ġincrease":7532,"Away":7533,"Apples":7534,"Cute":7535,"Welcome":7536,"eers":7537,"Ġwedding":7538,"ĠLife":7539,"ept":7540,"Ġcheered":7541,"throws":7542,"Ġpots":7543,"Ġmedical":7544,"Ġexpression":7545,"Ġbelongs":7546,"force":7547,"ĠLightning":7548,"Ġreligious":7549,"Ġincludes":7550,"Light":7551,"bid":7552,"ior":7553,"whis":7554,"ĠInt":7555,"Ġdom":7556,"ĠHouse":7557,"aming":7558,"Ġscrap":7559,"Ġmisunder":7560,"Ġconduct":7561,"Ġlegendary":7562,"Ġtraveled":7563,"Ġwondering":7564,"Ġdivide":7565,"Awesome":7566,"ĠFrogs":7567,"Ġimaginations":7568,"Ġpure":7569,"Ġmeow":7570,"ĠOff":7571,"Ġvillager":7572,"Ġchampions":7573,"Ġlabel":7574,"Ġrenewable":7575,"Ġfrag":7576,"Ġgod":7577,"using":7578,"Ġbravest":7579,"ĠSweetheart":7580,"?'\"":7581,"respect":7582,"\".":7583,"onies":7584,"Ġdie":7585,"Ġsteep":7586,"ĠChicken":7587,"ĠRes":7588,"Ġsmoot":7589,"Ġglide":7590,"Ġconcern":7591,"Ġoverwhelmed":7592,"Jacket":7593,"ik":7594,"alance":7595,"urous":7596,"Ġoutsm":7597,"ĠGr":7598,"Ġquad":7599,"ĠScared":7600,"Ġprioritize":7601,"ĠPengu":7602,"Ġgraphics":7603,"Tired":7604,"bee":7605,"Ġwool":7606,"eries":7607,"Ġiron":7608,"Ġumb":7609,"rying":7610,"oli":7611,"forest":7612,"Ġtraffic":7613,"Ġarticle":7614,"Ġriddles":7615,"Ġupdate":7616,"Ar":7617,"wear":7618,"cky":7619,"ĠPractice":7620,"Ġhappier":7621,"Ġposters":7622,"Ġcompar":7623,"Ġelements":7624,"Ġopportunities":7625,"Ġunusual":7626,"Gives":7627,"cial":7628,"owel":7629,"isa":7630,"Ġsnee":7631,"Ġroles":7632,"ache":7633,"Ġhobby":7634,"oculars":7635,"uous":7636,"vin":7637,"tering":7638,"agon":7639,"Ġbackground":7640,"Ġpartner":7641,"Ġhatch":7642,"Ġlanding":7643,"Ġtunnel":7644,"eria":7645,"Ġsunb":7646,"Ġboyfriend":7647,"Ġshiver":7648,"Ġtechniques":7649,"Ġilleg":7650,"thinks":7651,"pretends":7652,"Ġrecognize":7653,"Ġcrystal":7654,"Ġthrilling":7655,"Ġexplanation":7656,"Ġplaydough":7657,"Bite":7658,"NA":7659,"Ride":7660,"sister":7661,"Ġwrist":7662,"Ġpou":7663,"lla":7664,"seek":7665,"Ġrul":7666,"ulations":7667,"ĠPress":7668,"ĠReal":7669,"Ġfriendship":7670,"ths":7671,"Ġdisp":7672,"Ġenjoyed":7673,"ĠBees":7674,"Ġadventurers":7675,"Ġvariety":7676,"Ġiniti":7677,"Ġefficient":7678,"Ġemergency":7679,"sen":7680,"Ġcro":7681,"inger":7682,"uted":7683,"ĠTalk":7684,"Ġthous":7685,"Ġspicy":7686,"Ġsymp":7687,"Ġbats":7688,"Ġvillain":7689,"Ġrobots":7690,"Ġathlet":7691,"Ġtoothpaste":7692,"eves":7693,"hot":7694,"tered":7695,"Ġav":7696,"itate":7697,"starting":7698,"ĠThirsty":7699,"ĠCr":7700,"Ġblink":7701,"Ġmuscle":7702,"Ġdelight":7703,"Ġcapable":7704,"Ġpaths":7705,"Ġmethod":7706,"Sick":7707,"Zoom":7708,"lead":7709,"you":7710,"itation":7711,"happy":7712,"Ġyelling":7713,"Ġpoem":7714,"Ġdisrupt":7715,"Ġreliable":7716,"Ġserve":7717,"Ġrolls":7718,"angles":7719,"Ġinvolves":7720,"Ġpaintings":7721,"Ġcrossed":7722,"Ġyumm":7723,"Ġcrowded":7724,"Ġclearer":7725,"Ġprincipal":7726,"Ġpantry":7727,"presses":7728,"Gently":7729,"Hurry":7730,"Tell":7731,"doo":7732,"Ġgiggle":7733,"Ġstorms":7734,"Ġtramp":7735,"Ġgenes":7736,"bby":7737,"Ġwiped":7738,"Think":7739,"ĠJacket":7740,"Black":7741,"Ġfolks":7742,"Ġmirror":7743,"des":7744,"Ġ7":7745,"Ġouch":7746,"ley":7747,"ibly":7748,"Ġroyal":7749,"Ġtriangle":7750,"Ġreactions":7751,"Ġindepend":7752,"Ġchampion":7753,"Ġvibe":7754,"Ġexerc":7755,"Ġninja":7756,"Woof":7757,"vere":7758,"ĠWoof":7759,"ĠCivil":7760,"Ġdonuts":7761,"urp":7762,"Ġages":7763,"ĠGoodbye":7764,"Ġacts":7765,"Ġwond":7766,"awk":7767,"Ġcupboard":7768,"Ġroller":7769,"Ġowls":7770,"Ġbreathing":7771,"Ġvitamin":7772,"Ġsymbols":7773,"ĠPuppy":7774,"Ġhospital":7775,"onsider":7776,"Ġslower":7777,"Ġcovering":7778,"Ġimprovement":7779,"Hugs":7780,"pour":7781,"iders":7782,"ibbit":7783,"ĠLisa":7784,"Ġbinoculars":7785,"Ducks":7786,"Ind":7787,"Tower":7788,"ald":7789,"egr":7790,"ĠTeenager":7791,"arium":7792,"rier":7793,"Ġknot":7794,"Ġbubb":7795,"Ġbreeze":7796,"Ġleap":7797,"Ġgardens":7798,"logical":7799,"ĠSaturn":7800,"Ġgrip":7801,"Ġvolunteer":7802,"bag":7803,"band":7804,"inty":7805,"uting":7806,"ĠBeep":7807,"verse":7808,"Ġmagaz":7809,"Ġowies":7810,"Ġbelonged":7811,"ograph":7812,"Ġembarrassed":7813,"Ġbenefits":7814,"Ġceiling":7815,"Food":7816,"Ugh":7817,"af":7818,"Ġ-":7819,"Ġ6":7820,"Ġast":7821,"Ġlens":7822,"Ġdent":7823,"ĠSk":7824,"ĠEllie":7825,"Ġcares":7826,"Ġhadn":7827,"ereal":7828,"Ġthankful":7829,"coat":7830,"Ġcharm":7831,"Ġescap":7832,"Ġcurtains":7833,"Pat":7834,"crow":7835,"fight":7836,"meal":7837,"Ġtender":7838,"ĠSu":7839,"ĠBring":7840,"Ġknees":7841,"ĠPret":7842,"ĠPizza":7843,"Ġraw":7844,"Butter":7845,"Ġcuts":7846,"Ġrockets":7847,"Ġinvolve":7848,"Ġrefer":7849,"Ġreaching":7850,"Ġvarious":7851,"Ġpowder":7852,"Yawns":7853,"apped":7854,"Ġleng":7855,"Ġrunny":7856,"ĠBat":7857,"Ġcareer":7858,"place":7859,"Ġsquished":7860,"Ġwarmth":7861,"Ġstarving":7862,"Ġpretends":7863,"Ġartwork":7864,"Ġspoonful":7865,"udge":7866,"ĠJenny":7867,"Ġinstrument":7868,"Ġtransport":7869,"Ġcomputers":7870,"Cookies":7871,"Ġglowing":7872,"weight":7873,"Ġawareness":7874,"Ġdolphin":7875,"Ġlecture":7876,"ĠMark":7877,"Ġoutl":7878,"Ġsap":7879,"Ġpopped":7880,"umper":7881,"Ġunn":7882,"Ġsqueak":7883,"Ġdisrespect":7884,"Ġnaps":7885,"Ġtickled":7886,"feteria":7887,"racy":7888,"Ġinformed":7889,"Ġgears":7890,"Ġadmire":7891,"Almost":7892,"Time":7893,"eor":7894,"itantly":7895,"hable":7896,"aylor":7897,"Ġnarrow":7898,"Ġoink":7899,"Ġbegan":7900,"Ġsomehow":7901,"usive":7902,"apor":7903,"ĠPeekaboo":7904,"Ġbrushes":7905,"Ġvag":7906,"redict":7907,"Ġheavier":7908,"Ġbuckle":7909,"Ġdepending":7910,"Smile":7911,"oxide":7912,"Ġtravels":7913,"Ġrequires":7914,"Ġcafeteria":7915,"Ġcomparison":7916,"kward":7917,"table":7918,"Ġbesides":7919,"Ġupstairs":7920,"begins":7921,"Ġscript":7922,"Ġgrateful":7923,"ĠStars":7924,"Ġsignals":7925,"Ġinterview":7926,"walks":7927,"Ġexpected":7928,"Ġverb":7929,"Ġgroceries":7930,"Ġuniform":7931,"Ġadventurous":7932,"Ġbaa":7933,"ede":7934,"ĠComp":7935,"iculous":7936,"Ġspi":7937,"Ġroses":7938,"Ġfluff":7939,"Ġglug":7940,"Ġdisco":7941,"ĠUsing":7942,"Ġheading":7943,"Ġdriveway":7944,"Ġwarning":7945,"Ġalligators":7946,"Ġfirefighter":7947,"Ġvillagers":7948,"Ġumbre":7949,"bows":7950,"squ":7951,"oul":7952,"ĠSunny":7953,"artment":7954,"amed":7955,"Ġhomemade":7956,"Ġapps":7957,"Ġfallen":7958,"Ġrise":7959,"Ġfactors":7960,"ification":7961,"Ġcosts":7962,"Ġopinion":7963,"ĠChocolate":7964,"iation":7965,"ology":7966,"woman":7967,"hent":7968,"Ġcong":7969,"Ġmate":7970,"Ġsmarter":7971,"Ġskater":7972,"Ġdisease":7973,"Ġrested":7974,"Ġlocked":7975,"Ġconnections":7976,"Ġtarget":7977,"ĠPeterson":7978,"Brush":7979,"Pop":7980,"case":7981,"Ġmulti":7982,"ases":7983,"ris":7984,"los":7985,"ĠJones":7986,"Ġreset":7987,"awa":7988,"Ġprotects":7989,"Ġsmelled":7990,"Ġsoldier":7991,"Ġnecessarily":7992,"Dinner":7993,"Ġnarrative":7994,"Ġoverreacting":7995,"year":7996,"Ġwitch":7997,"Ġmead":7998,"rob":7999,"Ġshin":8000,"loses":8001,"Ġscream":8002,"Ġdrain":8003,"Ġvirus":8004,"hole":8005,"Ġpoke":8006,"Ġrespond":8007,"Ġtighten":8008,"Ġdances":8009,"Ġexcitedly":8010,"Ġtraditions":8011,"attered":8012,"Ġtrophy":8013,"Ad":8014,"Whe":8015,"White":8016,"bone":8017,"Ġmental":8018,"Ġdun":8019,"atives":8020,"unate":8021,"ĠGarden":8022,"Ġpretti":8023,"eless":8024,"Ġmane":8025,"Ġwrink":8026,"Ġtraps":8027,"Ġawkward":8028,"Ġmouths":8029,"Ġhyp":8030,"bre":8031,"weed":8032,"Ġwow":8033,"Ġsessions":8034,"itches":8035,"Ġbrand":8036,"Ġgirls":8037,"cker":8038,"ĠWindy":8039,"Ġplain":8040,"Ġsofter":8041,"Ġchee":8042,"Ġwipes":8043,"Bump":8044,"Ġwis":8045,"ĠAir":8046,"ĠLater":8047,"ĠOut":8048,"isms":8049,"icial":8050,"ĠDNA":8051,"Ġeaten":8052,"Ġgrant":8053,"Ġsupply":8054,"Ġsolved":8055,"Ġaccompl":8056,"Ġfootpr":8057,"Ġcollage":8058,"Ġaffecting":8059,"Ġbeef":8060,"believe":8061,"Ġconquer":8062,"Ġfragile":8063,"Tree":8064,"Ġtact":8065,"Ġaer":8066,"orter":8067,"eness":8068,"Ġswap":8069,"esty":8070,"Ġsnug":8071,"Ġenters":8072,"oline":8073,"Ġrainy":8074,"Ġfarmers":8075,"ajama":8076,"Ġrepresents":8077,"Ġconstell":8078,"Ġwomen":8079,"len":8080,"term":8081,"Ġsoggy":8082,"Ġdonate":8083,"Ġshock":8084,"Ġlighting":8085,"ĠShadow":8086,"ĠBuy":8087,"Ġfreezing":8088,"Ġfreezer":8089,"Ġaspects":8090,"Ġindividual":8091,"Ġlatest":8092,"Ġwoman":8093,"Ġcage":8094,"Ġcaut":8095,"Ġlit":8096,"ĠWrite":8097,"ĠCake":8098,"Ġknitting":8099,"Ġwhose":8100,"Ġdeciding":8101,"Ġsnows":8102,"ĠCooking":8103,"Ġignoring":8104,"Ġspeaker":8105,"Ġpinch":8106,"Ġelectronics":8107,"Cup":8108,"Cover":8109,"Ġera":8110,"hell":8111,"Ġfract":8112,"Ġfather":8113,"ĠTurns":8114,"ashes":8115,"Ġropes":8116,"ĠEmma":8117,"ĠSoccer":8118,"Ġunderstood":8119,"Ġstruggle":8120,"Ġresil":8121,"Ġgrabs":8122,"pology":8123,"ugging":8124,"Ġpolar":8125,"Ġcouncil":8126,"Everyone":8127,"Ġlimits":8128,"Ġmolec":8129,"Ġpoured":8130,"Blows":8131,"Moo":8132,"Peas":8133,"Soup":8134,"dling":8135,"free":8136,"lete":8137,"ratic":8138,"tail":8139,"inated":8140,"Ġsch":8141,"Ġfart":8142,"onnect":8143,"ĠBad":8144,"ĠCoke":8145,"ĠCandy":8146,"Ġsweat":8147,"ĠEu":8148,"Ġagg":8149,"Ġapplic":8150,"upiter":8151,"Ġexplained":8152,"Ġrelate":8153,"Ġprotest":8154,"Ġobserv":8155,"etchup":8156,"Ġstacking":8157,"Ġsensitive":8158,"Ġfeatures":8159,"Ġoutsmart":8160,"Rain":8161,"Ġsan":8162,"Ġcw":8163,"ĠII":8164,"Ġfountain":8165,"ĠAcc":8166,"Ġshy":8167,"Ġsails":8168,"ĠJupiter":8169,"Ġzipped":8170,"ĠAwake":8171,"Ġdepend":8172,"Ġtransform":8173,"Ġsentences":8174,"Spoon":8175,"Ġparticles":8176,"Ġdevelopment":8177,"Ġbouncy":8178,"Ġdisagreement":8179,"Ġhunters":8180,"Ġrelief":8181,"Ġlungs":8182,"green":8183,"giggling":8184,"Ġet":8185,"Ġbaker":8186,"Ġgn":8187,"ĠSick":8188,"ĠMath":8189,"ĠSpace":8190,"ugged":8191,"Ġlazy":8192,"Ġgenerations":8193,"Ġbothering":8194,"lin":8195,"ern":8196,"Ġdamp":8197,"Ġodd":8198,"ĠWon":8199,"âĢĿ":8200,"Ġmold":8201,"Ġraind":8202,"pense":8203,"Ġsyn":8204,"ausing":8205,"Ġdirections":8206,"Ġoppon":8207,"Ġmysteries":8208,"writing":8209,"Ġmasterpiece":8210,"Ġdolphins":8211,"ĠDragons":8212,"Ġwebsite":8213,"Ġthorough":8214,"Indeed":8215,"Fr":8216,"Turns":8217,"uation":8218,"watch":8219,"Ġcash":8220,"Ġgiggling":8221,"ĠTurtle":8222,"ĠWind":8223,".\"\\":8224,"eee":8225,"Ġswallow":8226,"Ġsever":8227,"Ġpasses":8228,"Ġpumpkins":8229,"Ġtwisty":8230,"Ġfears":8231,"eys":8232,"iently":8233,"Ġwobble":8234,"Ġcities":8235,"otion":8236,"Ġbent":8237,"Ġforces":8238,"Ġplus":8239,"ĠLots":8240,"Ġuncover":8241,"Ġcooks":8242,"Ġnights":8243,"Ġrecover":8244,"Ġrepeat":8245,"Ġknocks":8246,"Ġtoaster":8247,"Ġpeek":8248,"Ġsorting":8249,"Ġdepth":8250,"Ġsewing":8251,"Ġsuperpower":8252,"Ġthird":8253,"Under":8254,"chi":8255,"solving":8256,"tw":8257,"Ġmiles":8258,"orable":8259,"addle":8260,"ĠBoo":8261,"ĠEm":8262,"Ġbeds":8263,"Ġswimsuit":8264,"ĠâĢľ":8265,"Ġsprinkles":8266,"Ġtwisted":8267,"Ġrubbing":8268,"Ġperspectives":8269,"Ġrotten":8270,"Ġwagon":8271,"Ġclumsily":8272,"Ġinitiative":8273,"Ġest":8274,"Ġyaw":8275,"Ġallerg":8276,"oph":8277,"Ġadop":8278,"Ġpockets":8279,"naw":8280,"Ġdeck":8281,"ĠNothing":8282,"Star":8283,"Ġfeedback":8284,"Ġdistractions":8285,"Ġnotebook":8286,"Finish":8287,"ĠEurope":8288,"Rex":8289,"ba":8290,"sec":8291,"ĠFlo":8292,"Ġcheap":8293,"Ġchir":8294,"Ġwears":8295,"Ġlightly":8296,"Ġdreamland":8297,"Ġsecurity":8298,"ocks":8299,"Ġfilling":8300,"Ġaffected":8301,"chable":8302,"Ġguarded":8303,"levant":8304,"paper":8305,"Ġven":8306,"Ġmoo":8307,"Ġgat":8308,"ĠNever":8309,"Ġhappiness":8310,"Ġvast":8311,"ĠJoe":8312,"Ġherbs":8313,"Ġadvanced":8314,"osynt":8315,"Ġscrews":8316,"Ġmayor":8317,"Ġeducational":8318,"Ġspoil":8319,"Little":8320,"Rel":8321,"gentle":8322,"rl":8323,"Ġbars":8324,"ording":8325,"ette":8326,"Ġrushing":8327,"quack":8328,"Ġawful":8329,"Ġlever":8330,"Ġforgive":8331,"Ġmeasuring":8332,"Ġtempor":8333,"Ġkangaroo":8334,"De":8335,"Mad":8336,"Turn":8337,"atmeal":8338,"ency":8339,"race":8340,"ĠHear":8341,"Ġspect":8342,"Ġtraits":8343,"Ġsoftest":8344,"Ġproperties":8345,"Ġformula":8346,"ĠCozy":8347,"Ġliterature":8348,"Ġcrispy":8349,"Ġtitle":8350,"Ġgalax":8351,"bugs":8352,"cious":8353,"grandpa":8354,"hearing":8355,"Ġlack":8356,"etah":8357,"Ġnana":8358,"Ġhearts":8359,"Ġdoggies":8360,"Ġgogg":8361,"Ġmelo":8362,"gery":8363,"Ġgoods":8364,"ecess":8365,"Ġbrighter":8366,"Ġdial":8367,"Ġleak":8368,"Ġrunner":8369,"Ġnightlight":8370,"Ġteddybear":8371,"Ġnearly":8372,"fortunate":8373,"Ġsparkled":8374,"Ġjournal":8375,"Ġangles":8376,"Ġmagnifying":8377,"Dude":8378,"Fit":8379,"Totally":8380,"ghing":8381,"long":8382,"ode":8383,"Ġtend":8384,"step":8385,"Ġindoor":8386,"iddle":8387,"Ġep":8388,"Ġketchup":8389,"astics":8390,"ippers":8391,"Ġskilled":8392,"Ġchart":8393,"ycles":8394,"Ġzebras":8395,"Ġavoiding":8396,"Ġmeals":8397,"Coat":8398,"Ġfilter":8399,"Ġfundra":8400,"Ġfris":8401,"Ġassistant":8402,"Ġarcade":8403,"known":8404,"Choo":8405,"cakes":8406,"wich":8407,"Ġ9":8408,"igning":8409,"Ġbelow":8410,"Ġstitch":8411,"?\"\\":8412,"ctic":8413,"ustle":8414,"ĠClassmate":8415,"urance":8416,"Ġbrace":8417,"Ġdesp":8418,"Ġbalancing":8419,"Ġartists":8420,"Ġsailor":8421,"Ġhabitats":8422,"Ġunpredict":8423,"Roll":8424,"Put":8425,"Party":8426,"vie":8427,"wet":8428,"Ġtension":8429,"ino":8430,"Ġlink":8431,"Ġgirlfriend":8432,"ĠSince":8433,"ĠWo":8434,"isc":8435,"Ġbackup":8436,"Ġvivid":8437,"Ġchees":8438,"Ġimages":8439,"cohol":8440,"bern":8441,"Ġstreets":8442,"Ġstealing":8443,"Ġagreement":8444,"Ġsprout":8445,"Ġsubjects":8446,"Ġeconomy":8447,"Ġopinions":8448,"Ġconvinced":8449,"osynthesis":8450,"Brown":8451,"Ch":8452,"eolog":8453,"rub":8454,"Ġwasting":8455,"Ġpep":8456,"owwy":8457,"Ġvot":8458,"Ġboys":8459,"Ġtrib":8460,"Ġsuperv":8461,"Ġenjoyable":8462,"Ġrestaur":8463,"Ġreput":8464,"oopy":8465,"Ġreasonable":8466,"Ġtutoring":8467,"Ġcrafts":8468,"Ġscraps":8469,"Ġberry":8470,"Ġprivacy":8471,"Ġmultiply":8472,"Ġexhibit":8473,"Ġexercises":8474,"Race":8475,"good":8476,"late":8477,"school":8478,"arian":8479,"ĠBug":8480,"ĠLead":8481,"ella":8482,"ĠPiggy":8483,"Ġgenius":8484,"ailable":8485,"Ġcommand":8486,"Ġtickling":8487,"Ġbrightest":8488,"raph":8489,"Ġpeeking":8490,"Ġcelebration":8491,"ĠExcuse":8492,"they":8493,"Ġdevice":8494,"Ġidentify":8495,"Ġpitcher":8496,"Ġdaily":8497,"ĠSuperheroes":8498,"Ġnibble":8499,"Ġquadratic":8500,"hentic":8501,"Ġgathered":8502,"five":8503,"rat":8504,"Ġmimics":8505,"rise":8506,"Ġplot":8507,"iser":8508,"Ġhappiest":8509,"ishment":8510,"Ġsnapping":8511,"Ġsneeze":8512,"Ġintrig":8513,"Ġdizzy":8514,"plane":8515,"ĠDidn":8516,"Ġseven":8517,"works":8518,"Ġlunchbox":8519,"Ġtickets":8520,"Ġconservation":8521,"Ġpacking":8522,"Ġinspired":8523,"Ġtoolbox":8524,"ĠBoat":8525,"Ġsurroundings":8526,"Ġmembers":8527,"Ġsculpture":8528,"ĠAmerican":8529,"Pe":8530,"liness":8531,"ero":8532,"Ġmac":8533,"orous":8534,"Ġpests":8535,"eaut":8536,"lings":8537,"Ġscoring":8538,"Ġovernight":8539,"Ġinstall":8540,"shop":8541,"rotect":8542,"Ġsleepyhead":8543,"Ġflags":8544,"Ġtune":8545,"Ġhalfway":8546,"Ġinspiration":8547,"Ġcontrolled":8548,"ĠSnowball":8549,"Ġdisappointed":8550,"His":8551,"Lunch":8552,"Ġcough":8553,"Ġdim":8554,"ĠTaylor":8555,"Ġsolo":8556,"ĠOoh":8557,"itect":8558,"Ġprey":8559,"Ġdistr":8560,"Ġblades":8561,"Ġdrying":8562,"Strong":8563,"Ġsidekick":8564,"Ġminds":8565,"ucumber":8566,"rified":8567,"Ġillegal":8568,"Opens":8569,"kicks":8570,"rons":8571,"then":8572,"ux":8573,"Ġther":8574,"eating":8575,"ara":8576,"Ġworm":8577,"Ġrose":8578,"Ġzone":8579,"Ġ19":8580,"iggies":8581,"eased":8582,"Ġacade":8583,"Ġsiblings":8584,"Ġinterrupt":8585,"Ġdrone":8586,"Ġsubt":8587,"Ġannoyed":8588,"Ġnewspaper":8589,"Pret":8590,"gn":8591,"top":8592,"Ġson":8593,"Ġmast":8594,"Ġdrib":8595,"Ġpra":8596,"Ġjer":8597,"alty":8598,"Ġshines":8599,"Ġasse":8600,"Ġswords":8601,"ĠRawr":8602,"Ġredirect":8603,"ĠRemind":8604,"Ġfloats":8605,"Ġfreaked":8606,"Ġfootball":8607,"Ġconsistent":8608,"Ġsupporting":8609,"ĠZe":8610,"ĠShouldn":8611,"thinking":8612,"Ġribbit":8613,"cet":8614,"pop":8615,"Ġyell":8616,"Ġloos":8617,"Ġheight":8618,"Ġjunk":8619,"Ġbund":8620,"rings":8621,"Ġfreak":8622,"Ġprotection":8623,"Ġcoral":8624,"Ġfactory":8625,"Ġengage":8626,"Ġceremony":8627,"char":8628,"Ġridiculous":8629,"Ġautom":8630,"Ġsending":8631,"Ġexplode":8632,"Ġribbon":8633,"True":8634,"approaching":8635,"Ġprotein":8636,"ĠPenguins":8637,"Ġweal":8638,"Ġbon":8639,"Ġtox":8640,"atable":8641,"Ġstew":8642,"riving":8643,"Ġoutcome":8644,"Ġsamp":8645,"inky":8646,"icker":8647,"Ġexact":8648,"Ġdecides":8649,"Stand":8650,"Ġloss":8651,"Ġevil":8652,"Ġstructures":8653,"Ġclumsy":8654,"Ġsequence":8655,"Ġpyram":8656,"bound":8657,"rance":8658,"wog":8659,"world":8660,"Ġcucumber":8661,"ester":8662,"ased":8663,"ĠIts":8664,"rifying":8665,"Ġsumm":8666,"Ġcarries":8667,"Ġboiling":8668,"Ġblame":8669,"Ġtrapped":8670,"ĠGotcha":8671,"Ġmusical":8672,"Ġjoining":8673,"Ġprecious":8674,"Ġfrisbee":8675,"Cake":8676,"Cho":8677,"Found":8678,"zel":8679,"Ġboot":8680,"Ġfib":8681,"Ġfal":8682,"Ġlitter":8683,"Ġhoo":8684,"usty":8685,"ĠCol":8686,"Ġbrrr":8687,"Ġcheetah":8688,"Ġselect":8689,"Ġzomb":8690,"ception":8691,"Ġmemorizing":8692,"Ġprinter":8693,"Sharing":8694,"Ġtexture":8695,"Ġencoura":8696,"Ġtissues":8697,"Ġsignificance":8698,"Get":8699,"Makes":8700,"cest":8701,"jumps":8702,"owy":8703,"Ġweigh":8704,"Ġinnov":8705,"Ġrate":8706,"Ġorbit":8707,"Ġeveryday":8708,"mming":8709,"Ġ12":8710,"Ġmushy":8711,"Ġseats":8712,"Ġcurve":8713,"Ġdiscussed":8714,"Shiny":8715,"Ġsubstances":8716,"Ġartifact":8717,"Ġruler":8718,"Ġunnecess":8719,"Ġcweam":8720,"mons":8721,"rum":8722,"Ġsite":8723,"Ġsouth":8724,"stit":8725,"ĠBus":8726,"Ġunlike":8727,"Ġdismiss":8728,"Ġdrives":8729,"Ġglobe":8730,"ĠBooks":8731,"Ġcolon":8732,"Ġconvince":8733,"Ġyummiest":8734,"Ġcheeks":8735,"Mouse":8736,"Sky":8737,"ĠX":8738,"Ġwrench":8739,"edy":8740,"Ġdolly":8741,"ĠBump":8742,"ĠBalance":8743,"Ġupside":8744,"rolls":8745,"ĠPM":8746,"Ġguests":8747,"Ġmoat":8748,"Ġrooms":8749,"Ġsnowfl":8750,"Ġdeserve":8751,"Ġrequire":8752,"Ġcrystals":8753,"ference":8754,"Ġcraziest":8755,"MI":8756,"Some":8757,"scrib":8758,"Ġgem":8759,"Ġhibern":8760,"ained":8761,"ĠElephant":8762,"Ġsnail":8763,"Ġboil":8764,"Ġrude":8765,"Ġbumpy":8766,"Ġretri":8767,"ĠCarrots":8768,"Ġcalmly":8769,"Inside":8770,"Ġborrowed":8771,"Ġ100":8772,"ĠOwls":8773,"Ġcalculate":8774,"Ġgooey":8775,"Ġsmoothie":8776,"Ġdistrib":8777,"oid":8778,"rs":8779,"ĠSund":8780,"ĠBirthday":8781,"Ġthrive":8782,"ĠGu":8783,"Ġqual":8784,"Ġfailing":8785,"ĠFrom":8786,"ĠFred":8787,"achie":8788,"Ġchosen":8789,"Ġcharity":8790,"Ġpreparing":8791,"ĠDino":8792,"ĠSmile":8793,"Animals":8794,"Ġmask":8795,"pulls":8796,"Ġumbrella":8797,"Dream":8798,"Or":8799,"Ra":8800,"imber":8801,"lot":8802,"Ġtube":8803,"Ġcrops":8804,"ealing":8805,"Ġnum":8806,"stick":8807,"ĠSoup":8808,"Ġreass":8809,"ĠBee":8810,"ĠHands":8811,"Ġcoaster":8812,"ĠPanc":8813,"Ġtwirl":8814,"ccoli":8815,"Ġ18":8816,"Ġacrob":8817,"Ġmoonlight":8818,"ĠKeeping":8819,"Ġtesting":8820,"Ġcamps":8821,"Ġformal":8822,"Ġbarbe":8823,"Ġexpecting":8824,"Ġobvious":8825,"Ġwisely":8826,"Ġcrime":8827,"Ġselfish":8828,"ĠHomework":8829,"Ġpleasure":8830,"Ġcrawl":8831,"eautiful":8832,"lend":8833,"Ġoatmeal":8834,"essed":8835,"Ġcleans":8836,"ĠEmpty":8837,"Ġfoam":8838,"ĠStrong":8839,"Ġantic":8840,"Ġmarried":8841,"Ġfrustration":8842,"Ġgathering":8843,"Ġregularly":8844,"Ġeconomic":8845,"tock":8846,"Ġsen":8847,"reet":8848,"erie":8849,"Ġcav":8850,"ingu":8851,"ĠAway":8852,"Ġknack":8853,"Ġknives":8854,"ĠRoman":8855,"Ġclar":8856,"Ġclimber":8857,"Ġvirt":8858,"Ġshelves":8859,"Ġpointy":8860,"izations":8861,"Ġappl":8862,"ressed":8863,"Places":8864,"Ġbaths":8865,"Ġsweets":8866,"Ġmixture":8867,"Ġshoel":8868,"Ġincorp":8869,"Ġtutorial":8870,"Ġoverheard":8871,"Ġofficer":8872,"Ġpunct":8873,"Ġpriorities":8874,"Ġathlete":8875,"Ġimmediately":8876,"Ġcautious":8877,"*\"":8878,"DMI":8879,"Silly":8880,"ias":8881,"Ġlas":8882,"Ġdy":8883,"ĠSound":8884,"arc":8885,"Ġstates":8886,"Ġhost":8887,"unky":8888,"ĠCare":8889,"Ġkings":8890,"Ġsheets":8891,"Ġstruggles":8892,"Ġslim":8893,"Ġhorror":8894,"shaped":8895,"Ġmoisture":8896,"Ġarchitect":8897,"Ġraindrops":8898,"Ġunnecessary":8899,"Pauses":8900,"den":8901,"Ġsilk":8902,"hide":8903,"Ġbid":8904,"ĠTuna":8905,"Ġhood":8906,"ĠHDMI":8907,"lpha":8908,"Ġshore":8909,"Ġcosm":8910,"ĠPol":8911,"Ġexcus":8912,"Ġgreatest":8913,"Ġdioxide":8914,"Ġrail":8915,"Ġslime":8916,"Ġsem":8917,"ĠKn":8918,"Ġoceans":8919,"ĠTweet":8920,"Asleep":8921,"Ġresistance":8922,"Ġrumors":8923,"Ġrelationship":8924,"Five":8925,"cies":8926,"fied":8927,"Ġwaking":8928,"Ġcit":8929,"Ġfu":8930,"onest":8931,"hate":8932,"eding":8933,"Ġicky":8934,"sell":8935,"ĠMind":8936,"Ġspare":8937,"Ġscoo":8938,"Ġintell":8939,"Ġunderground":8940,"Ġfiction":8941,"istics":8942,"Ġmanual":8943,"Ġsquee":8944,"Ġrainforest":8945,"Ġforgetting":8946,"Ġsimpl":8947,"Ġgases":8948,"Ġerror":8949,"Ġvacation":8950,"Ġbaked":8951,"Ġgenerous":8952,"Ġvolunteers":8953,"Ġoccasion":8954,"Ġviol":8955,"Max":8956,"Nah":8957,"drops":8958,"fi":8959,"gent":8960,"cknow":8961,"ĠBr":8962,"Ġschools":8963,"ĠKing":8964,"Ġweekends":8965,"urtles":8966,"Ġtoug":8967,"Ġconcerns":8968,"ĠSmart":8969,"Ġtumble":8970,"ĠReminds":8971,"Drive":8972,"House":8973,"arch":8974,"unks":8975,"ĠCat":8976,"Ġsucks":8977,"ĠEnd":8978,"Ġunderneath":8979,"Ġsmoo":8980,"Ġkites":8981,"Ġgenetic":8982,"Ġboost":8983,"Ġvisiting":8984,"Ġwarri":8985,"Ġmischie":8986,"Ġwaddle":8987,"Ġpreserve":8988,"Boat":8989,"Cow":8990,"rors":8991,"ship":8992,"Ġoo":8993,"Ġwiggles":8994,"Ġlicked":8995,"Ġrelevant":8996,"ĠBite":8997,"ĠBrush":8998,"ĠBingo":8999,"ĠRu":9000,"âĢ¦":9001,"hyd":9002,"Ġdiary":9003,"olds":9004,"Ġlongest":9005,"Ġclosing":9006,"Ġwinner":9007,"Ġpotion":9008,"Ġantlers":9009,"Ġmelting":9010,"Ġsprints":9011,"Ġgeneration":9012,"Ġcritic":9013,"mester":9014,"Ġrestaurant":9015,"Touches":9016,"tr":9017,"Ġlaughs":9018,"Ġgap":9019,"arf":9020,"Ġgobble":9021,"ĠMorning":9022,"ĠDe":9023,"Ġsubs":9024,"ĠRip":9025,"Ġstunt":9026,"Ġlifting":9027,"Ġcorners":9028,"Ġdefensive":9029,"ĠSparkle":9030,"Ġviews":9031,"Ġabsolutely":9032,"Ġtraveling":9033,"Birds":9034,"Ġincluded":9035,"Ġeruption":9036,"Ġanalyze":9037,"Peekaboo":9038,"Work":9039,"nigh":9040,"via":9041,"hist":9042,"ench":9043,"abe":9044,"Ġeight":9045,"loc":9046,"Ġcluck":9047,"Ġpoison":9048,"Ġuncl":9049,"Ġbrains":9050,"ĠThree":9051,"Ġsmiley":9052,"Ġhaircut":9053,"Ġterrit":9054,"Ġmelts":9055,"Ġentrance":9056,"Ġsociet":9057,"Ġelectrical":9058,"Ġauthentic":9059,"Ġunderest":9060,"Ġbossy":9061,"Ġvegetable":9062,"Ġguarding":9063,"minute":9064,"Ġmimic":9065,"Ġunpredictable":9066,"cock":9067,"great":9068,"gull":9069,"erce":9070,"Ġrom":9071,"Ġplaylist":9072,"atell":9073,"ĠMoose":9074,"hings":9075,"Ġscent":9076,"Ġsneaking":9077,"Ġlearner":9078,"Ġcloses":9079,"anship":9080,"emies":9081,"Ġstores":9082,"Ġvision":9083,"Ġvalues":9084,"Ġkittens":9085,"Ġsalty":9086,"cientists":9087,"Ġshift":9088,"Ġcooperation":9089,"Ġweapon":9090,"ĠPerhaps":9091,"Ġchampionship":9092,"Ġcampsite":9093,"Feed":9094,"Naughty":9095,"coon":9096,"happ":9097,"Ġindoors":9098,"ĠYuck":9099,"ĠApp":9100,"Ġisol":9101,"Ġabilities":9102,"eeling":9103,"Ġecho":9104,"ĠCover":9105,"rypt":9106,"ĠMia":9107,"Ġalign":9108,"Ġintegr":9109,"Ġcomics":9110,"ĠJens":9111,"Ġenemies":9112,"ealous":9113,"Ġfinishes":9114,"Ġlandsc":9115,"Ġblankie":9116,"Reaches":9117,"Ġharmless":9118,"Ġsprint":9119,"Ġnests":9120,"Ġdistracting":9121,"Ġmatches":9122,"Ġshoulders":9123,"Ġmagnets":9124,"minded":9125,"ĠJensen":9126,"even":9127,"pat":9128,"ĠImp":9129,"Ġdense":9130,"stalk":9131,"Ġrou":9132,"Ġneeding":9133,"Ġpointing":9134,"Ġrainbows":9135,"ĠStir":9136,"ĠStill":9137,"Ġattached":9138,"Ġbelieving":9139,"Ġprotective":9140,"Ġconnecting":9141,"Ġdumped":9142,"Ġroute":9143,"Ġsubstance":9144,"urable":9145,"whispers":9146,"Ġavailable":9147,"Ġseveral":9148,"Table":9149,"doodle":9150,"gl":9151,"Ġcables":9152,"ĠThings":9153,"enters":9154,"ĠCrack":9155,"imal":9156,"Ġsnip":9157,"Ġswims":9158,"Ġbroccoli":9159,"Ġseries":9160,"Ġcontrols":9161,"Ġphotosynthesis":9162,"Ġspreads":9163,"Ġstrengths":9164,"Ġsuccessful":9165,"ĠSnowman":9166,"Ġlocker":9167,"Ġstatement":9168,"Ġneglect":9169,"While":9170,"Zip":9171,"erate":9172,"ĠTreasure":9173,"Ġcann":9174,"ĠBike":9175,"ĠLeg":9176,"Ġancest":9177,"Ġshorter":9178,"enty":9179,"fered":9180,"ĠEgg":9181,"Ġunderstands":9182,"Ġreducing":9183,"Ġsemester":9184,"Ġteammate":9185,"Ġexchange":9186,"Ġrecipes":9187,"Ġmoral":9188,"point":9189,"Ġsupportive":9190,"Ġhypot":9191,"ĠSmall":9192,"Ġhamburgers":9193,"forward":9194,"wean":9195,"Ġgoggles":9196,"lphabet":9197,"Ahh":9198,"Circle":9199,"Emma":9200,"Umm":9201,"âĻ":9202,"Ġamp":9203,"Ġyawn":9204,"oni":9205,"etics":9206,"Ġlip":9207,"Ġlizard":9208,"Ġgoat":9209,"Ġupcoming":9210,"ĠGira":9211,"ĠEd":9212,"Ġexams":9213,"Ġcarve":9214,"ĠJo":9215,"Ġdiving":9216,"Ġblind":9217,"issy":9218,"Ġflips":9219,"Ġfairies":9220,"Ġcrank":9221,"ĠMeow":9222,"hetic":9223,"Ġstrike":9224,"ĠScissors":9225,"Ġpopsicles":9226,"Ġgeese":9227,"Roar":9228,"Ġprecision":9229,"ĠDragon":9230,"Turtle":9231,"Ġlame":9232,"Ġlakes":9233,"otch":9234,"Ġinher":9235,"Ġdod":9236,"ĠCats":9237,"icnic":9238,"ĠMaking":9239,"Ġknit":9240,"orthy":9241,"Ġnoses":9242,"Ġsci":9243,"Ġbrut":9244,"Ġfaith":9245,"Ġsleepover":9246,"Ġmansion":9247,"ĠThumper":9248,"Ġpens":9249,"Ġdustpan":9250,"Ġbelongings":9251,"ĠFinny":9252,"urally":9253,"Ġhamster":9254,"Ġenchanted":9255,"Ġdiscovery":9256,"Ġprettiest":9257,"cat":9258,"dry":9259,"fus":9260,"lim":9261,"wind":9262,"ann":9263,"Ġfright":9264,"Ġment":9265,"Ġpiggies":9266,"ĠWood":9267,"rast":9268,"Ġhustle":9269,"Ġplat":9270,"Ġalcohol":9271,"Ġcones":9272,"Ġrake":9273,"stands":9274,"dder":9275,"working":9276,"Ġstarters":9277,"Ġlifted":9278,"Ġtasting":9279,"Ġouter":9280,"lifts":9281,"Ġreturned":9282,"Ġguardian":9283,"Ġconflicts":9284,"Ġinjury":9285,"Over":9286,"chant":9287,"pausing":9288,"Ġdull":9289,"Ġitem":9290,"ste":9291,"ĠSimon":9292,"Ġoffered":9293,"ĠHate":9294,"Ġswoop":9295,"ament":9296,"Ġbol":9297,"ĠFive":9298,"ĠFeed":9299,"Ġteasing":9300,"Ġmindset":9301,"Ġclearing":9302,"Ġseagull":9303,"Ġmidnight":9304,"Ġmarath":9305,"Ġengaged":9306,"ĠClown":9307,"Ġmailbox":9308,"Ġscenes":9309,"Ġcommitments":9310,"Ġhunter":9311,"Ġminerals":9312,"rlie":9313,"âĻª":9314,"vas":9315,"Ġcub":9316,"igation":9317,"Ġreef":9318,"Ġsoar":9319,"Ġmeets":9320,"Ġtires":9321,"Ġguards":9322,"Ġbold":9323,"ola":9324,"Ġleather":9325,"Ġwinds":9326,"Ġdreamed":9327,"ĠWashing":9328,"ounter":9329,"Ġvalid":9330,"rupting":9331,"Ġjewel":9332,"Ġconclusion":9333,"Ġdisrespectful":9334,"Taste":9335,"rition":9336,"rang":9337,"Ġacknow":9338,"eral":9339,"Ġdots":9340,"ĠTired":9341,"ĠBaa":9342,"usions":9343,"umn":9344,"Ġblueberries":9345,"aughter":9346,"Ġripping":9347,"Ġrespected":9348,"Ġdressing":9349,"Ġcampa":9350,"Ġfights":9351,"Ġsimpler":9352,"scope":9353,"Ġunfor":9354,"Ġgrandk":9355,"Ġsleeves":9356,"Ġnoble":9357,"Ġaquarium":9358,"Blow":9359,"Magic":9360,"Sand":9361,"rys":9362,"tra":9363,"Ġsooo":9364,"Ġtopp":9365,"Ġpies":9366,"Ġnovel":9367,"Ġstro":9368,"ysis":9369,"ĠCup":9370,"ĠPeas":9371,"oby":9372,"Ġconven":9373,"Ġstranger":9374,"mmed":9375,"ĠUnt":9376,"Ġforehead":9377,"Ġrefres":9378,"Ġsurprising":9379,"Ġzookeeper":9380,"Ġhonk":9381,"Ġinfluen":9382,"Ġenthusiastic":9383,"Ġintroduce":9384,"Ġarrives":9385,"Ġdentist":9386,"Beep":9387,"Imit":9388,"dis":9389,"eater":9390,"ĠScientists":9391,"ĠMouse":9392,"ĠMuch":9393,"ĠMhm":9394,"Ġvapor":9395,"Ġfrown":9396,"Ġsurgery":9397,"balls":9398,"holding":9399,"Ġstudied":9400,"Ġladybug":9401,"Ġoption":9402,"Ġcritically":9403,"Ġbenefit":9404,"ĠMonkey":9405,"Ġsacrif":9406,"ĠFollow":9407,"Ġloosen":9408,"Ġbarbecue":9409,"Take":9410,"cont":9411,"master":9412,"Ġbrill":9413,"erved":9414,"etry":9415,"stone":9416,"vey":9417,"Ġjitter":9418,"Ġjars":9419,"Ġange":9420,"ills":9421,"asty":9422,"Ġcools":9423,"Ġmanners":9424,"Ġrecently":9425,"climb":9426,"Ġelement":9427,"Ġmeteor":9428,"Ġfrequ":9429,"sweep":9430,"Ġillustr":9431,"knocks":9432,"draws":9433,"Ġaggressive":9434,"Reluctantly":9435,"Ġreputation":9436,"mas":9437,"ĠâĻª":9438,"Ġtheater":9439,"Ġtoil":9440,"Ġpear":9441,"Ġpipes":9442,"Ġgest":9443,"Ġroot":9444,"ĠHam":9445,"ĠLions":9446,"ppies":9447,"Ġtimeline":9448,"getting":9449,"open":9450,"Ġcolder":9451,"Ġmode":9452,"Ġunlock":9453,"Ġappoint":9454,"Ġtrial":9455,"Ġrestrict":9456,"reading":9457,"Ġgrandmother":9458,"Ġstressful":9459,"Ġinstruments":9460,"Ġunders":9461,"ĠOwie":9462,"Ġjuggling":9463,"Ġtwinkling":9464,"Ġsunflower":9465,"Ġathletes":9466,"dog":9467,"rough":9468,"Ġtodd":9469,"Ġmush":9470,"eted":9471,"atched":9472,"Ġrect":9473,"hern":9474,"Ġbeard":9475,"ĠFore":9476,"Ġlemons":9477,"Ġkitties":9478,"Ġasks":9479,"Ġsmallest":9480,"Ġchlor":9481,"anket":9482,"eatable":9483,"Ġbooth":9484,"Ġtransfer":9485,"ĠWhether":9486,"Birdie":9487,"Ġparticipate":9488,"Ġwonders":9489,"ĠAccidents":9490,"Ġtemporary":9491,"Ġbrutal":9492,"Ant":9493,"Could":9494,"Try":9495,"oufl":9496,"inating":9497,"Ġcreek":9498,"sticks":9499,"ĠTear":9500,"ado":9501,"Ġheated":9502,"Ġhens":9503,"Ġhoop":9504,"ĠBella":9505,"ĠHo":9506,"ĠDeer":9507,"obody":9508,"Ġsnuck":9509,"ĠFarm":9510,"Ġpole":9511,"Ġflick":9512,"Ġdemo":9513,"Ġthroughout":9514,"Ġpenis":9515,"cloth":9516,"Ġfarming":9517,"Ġstraightforward":9518,"Ġnaturally":9519,"Ġreveal":9520,"ĠBuilding":9521,"ĠZoomy":9522,"Ġinteractive":9523,"Snowman":9524,"Ġobstacles":9525,"Continues":9526,"vate":9527,"**!\"":9528,"Ġbes":9529,"Ġbatch":9530,"order":9531,"Ġpsy":9532,"raoh":9533,"ĠAb":9534,"ĠDuring":9535,"ulf":9536,"lop":9537,"Ġfunn":9538,"active":9539,"Ġunit":9540,"Ġgiants":9541,"Ġreco":9542,"Ġfrost":9543,"Ġinterpret":9544,"Ġcapital":9545,"Ġbands":9546,"Ġgeneral":9547,"Ġcenturies":9548,"Ġreflects":9549,"Ġstatus":9550,"Ġpuffy":9551,"Ġunstuck":9552,"Ġgrocery":9553,"Ġgrilled":9554,"Ġmultiple":9555,"Ġwisdom":9556,"ĠSunday":9557,"ban":9558,"cons":9559,"Ġnorth":9560,"semble":9561,"Ġlily":9562,"ĠNorth":9563,"Ġvio":9564,"Ġwaving":9565,"Ġfierce":9566,"Ġpopping":9567,"Ġtwenty":9568,"Ġblueberry":9569,"Ġaddition":9570,"ĠStraw":9571,"Ġenvironments":9572,"Ġlaid":9573,"singing":9574,"Ġparag":9575,"Ġregion":9576,"Ġgrandfather":9577,"Space":9578,"ographic":9579,"Ġhelmets":9580,"Ġdeath":9581,"Ġlocation":9582,"Ġobstacle":9583,"Ġthief":9584,"Ġcapsule":9585,"Gra":9586,"Ooh":9587,"Treasure":9588,"baa":9589,"dream":9590,"roud":9591,"Ġwars":9592,"stops":9593,"!\"\\":9594,"sel":9595,"Ġhol":9596,"Ġsoaked":9597,"ĠGerms":9598,"loves":9599,"Ġhandled":9600,"Ġarcha":9601,"Ġbru":9602,"Hehe":9603,"Ġboing":9604,"fferent":9605,"Ġflashy":9606,"maid":9607,"Ġpainful":9608,"ddenly":9609,"Ġreminded":9610,"ĠExpl":9611,"moves":9612,"Ġmaintaining":9613,"Ġinitial":9614,"Squirrel":9615,"Ġrehearsal":9616,"Ġdespite":9617,"Ġslimy":9618,"Ġmarathon":9619,"Imitates":9620,"Lick":9621,"dled":9622,"moo":9623,"worms":9624,"Ġwrest":9625,"Ġbins":9626,"ĠAf":9627,"ctor":9628,"Ġshove":9629,"Ġshhh":9630,"Ġpros":9631,"ĠEasy":9632,"pering":9633,"Ġflipping":9634,"Ġcru":9635,"Ġgraph":9636,"Ġquicker":9637,"Soap":9638,"ĠSwish":9639,"Doggie":9640,"Ġtyp":9641,"Ġhumor":9642,"Ġpanel":9643,"Ġcentury":9644,"Ġearthqu":9645,"Ġfossil":9646,"ĠRufus":9647,"Ġcampaign":9648,"fo":9649,"worm":9650,"Ġmamm":9651,"Ġglor":9652,"ĠTurtles":9653,"ady":9654,"Ġsaf":9655,"ĠGame":9656,"Ġlookout":9657,"Ġarrive":9658,"Ġwaters":9659,"ĠSoap":9660,"Ġovers":9661,"Ġdiapers":9662,"plant":9663,"Ġrecords":9664,"Ġcandies":9665,"Ġdiagram":9666,"Ġsmoking":9667,"Both":9668,"Fro":9669,"Wake":9670,"gin":9671,"Ġteet":9672,"itchen":9673,"Ġgummy":9674,"usted":9675,"Ġswept":9676,"Ġsug":9677,"ĠPipp":9678,"Ġcarn":9679,"Ġcarving":9680,"Ġvines":9681,"Ġrod":9682,"Ġgene":9683,"Whatever":9684,"Ġstandard":9685,"Ġclothing":9686,"Ġvacc":9687,"Ġexpressing":9688,"Ġsailors":9689,"lifting":9690,"Ġexplosion":9691,"Ġdedicated":9692,"Ġthousands":9693,"ĠCrunch":9694,"Demonstrates":9695,"Ġfundraiser":9696,"happily":9697,"Ġbrilliant":9698,"Pre":9699,"Teenager":9700,"eled":9701,"pro":9702,"Ġfau":9703,"Ġloy":9704,"onight":9705,"ĠTooth":9706,"Ġreck":9707,"Ġrays":9708,"ĠLunch":9709,"Ġstorage":9710,"agging":9711,"ĠPot":9712,"uckle":9713,"Ġclaws":9714,"ventually":9715,"iggly":9716,"Ġmetals":9717,"Ġprices":9718,"Ġcharged":9719,"Ġsales":9720,"Buy":9721,"Ġcrossing":9722,"Ġhonesty":9723,"Ġrelaxing":9724,"ĠCharlie":9725,"Ġflashlights":9726,"Ġwandered":9727,"Ġ50":9728,"Ġshouting":9729,"Owie":9730,"Ġdiamonds":9731,"Ġmolecules":9732,"ĠFreddy":9733,"Broken":9734,"Rip":9735,"cup":9736,"Ġsid":9737,"Ġsatell":9738,"Ġtheory":9739,"Ġbobs":9740,"Ġmale":9741,"eaf":9742,"ĠSouth":9743,"Ġbeet":9744,"ĠWelcome":9745,"apse":9746,"ĠYesterday":9747,"Ġvall":9748,"Ġoverdo":9749,"ĠFall":9750,"Ġraced":9751,"Ġresult":9752,"Ġinstinct":9753,"Ġrecent":9754,"Ġdeserves":9755,"Ġpresents":9756,"Ġfarms":9757,"Ġpolicy":9758,"Ġpetun":9759,"Ġdumping":9760,"Ġsweaty":9761,"Ġsledding":9762,"Ġpuppet":9763,"ĠAnts":9764,"Ġstinky":9765,"lendid":9766,"Ġexcuses":9767,"Fall":9768,"giving":9769,"lit":9770,"sk":9771,"slow":9772,"anuts":9773,"Ġfry":9774,"onse":9775,"organ":9776,"ĠSalt":9777,"idges":9778,"ircus":9779,"ĠHurry":9780,"rol":9781,"Goodbye":9782,"Ġgrind":9783,"Ġtrim":9784,"Ġherself":9785,"orsie":9786,"Ġimagined":9787,"Ġhoriz":9788,"Ġcollar":9789,"Meow":9790,"ĠQuest":9791,"Ġforgotten":9792,"Ġtorto":9793,"write":9794,"ĠFroggy":9795,"urious":9796,"Ġfeature":9797,"Ġmeadow":9798,"Ġopponent":9799,"wetty":9800,"find":9801,"whoosh":9802,"Ġsends":9803,"ĠWish":9804,"Ġstiff":9805,"Ġinha":9806,"ĠDrop":9807,"Ġoutdoor":9808,"Ġatoms":9809,"qual":9810,"Ġfung":9811,"ĠEver":9812,"Ġexha":9813,"ĠRibbit":9814,"Ġsupports":9815,"Ġarticles":9816,"Ġzooming":9817,"Ġguidelines":9818,"Ġdecoration":9819,"Ġadjusting":9820,"Ġsleeve":9821,"Ġgeography":9822,"Ġbounced":9823,"Ġsurrounded":9824,"Ġsuffer":9825,"Ġindependent":9826,"Ġspectac":9827,"scribbles":9828,"*:":9829,"Talk":9830,"heet":9831,"Ġcact":9832,"Ġpec":9833,"ĠTur":9834,"aded":9835,"Ġjealous":9836,"ctions":9837,"ĠCall":9838,"Ġneut":9839,"Ġshowers":9840,"Ġpeck":9841,"Ġgran":9842,"reeze":9843,"Ġexperts":9844,"Ġfortress":9845,"Ġvisuals":9846,"Ġpetals":9847,"cribe":9848,"Ġhumid":9849,"Ġimitate":9850,"Ġfisher":9851,"Ġax":9852,"Ġtone":9853,"Ġtoddles":9854,"ananas":9855,"Ġdare":9856,"Ġgods":9857,"ĠCorrect":9858,"ateg":9859,"ĠMad":9860,"ĠDay":9861,"Ġbudd":9862,"hog":9863,"Ġspirits":9864,"Ġrice":9865,"Ġclimbs":9866,"pod":9867,"Ġremo":9868,"Ġruining":9869,"Ġcord":9870,"ustrated":9871,"elect":9872,"Ġwiggled":9873,"Ġgeomet":9874,"Ġhallway":9875,"Ġdemand":9876,"Ġtoppings":9877,"Zoo":9878,"grandma":9879,"Ġwit":9880,"itable":9881,"rim":9882,"ĠHallow":9883,"Ġey":9884,"andal":9885,"Ġprob":9886,"Ġscatter":9887,"ĠRa":9888,"Ġguides":9889,"Ġenvelo":9890,"ĠDogs":9891,"Ġgenetics":9892,"Ġcatchy":9893,"Ġdrift":9894,"guard":9895,"Ġworlds":9896,"Ġshortcut":9897,"ĠCloud":9898,"Ġprogra":9899,"ĠArt":9900,"Ġneatly":9901,"Ġhydro":9902,"ĠReading":9903,"ĠMonkeys":9904,"Ġinjuries":9905,"Ġcases":9906,"Ġpharaoh":9907,"Ġreceive":9908,"Agreed":9909,"broken":9910,"from":9911,"uces":9912,"woof":9913,"Ġtan":9914,"Ġtoot":9915,"Ġlun":9916,"arse":9917,"Ġbeneath":9918,"Ġstain":9919,"ĠGently":9920,"aughing":9921,"ilize":9922,"Ġcock":9923,"Ġscores":9924,"umpkin":9925,"Ġstray":9926,"Ġappeared":9927,"Ġoffense":9928,"Ġfairness":9929,"soci":9930,"Ġdeg":9931,"Ġlogs":9932,"Ġfigur":9933,"Ġdresses":9934,"Ġvanished":9935,"Ġengineering":9936,"Ġstretches":9937,"Ġpilots":9938,"ĠChrist":9939,"Ġservices":9940,"Ġcabinet":9941,"Ġleadership":9942,"front":9943,"ĠSquirrels":9944,"Ġlength":9945,"Ġfuzzy":9946,"Ġparagraph":9947,"Gen":9948,"mers":9949,"Ġvent":9950,"Ġgreed":9951,"ĠWinning":9952,"Ġrit":9953,"rove":9954,"ĠJul":9955,"Ġpeanuts":9956,"Ġskipping":9957,"Ġcheated":9958,"Ġfog":9959,"Ġdecent":9960,"rete":9961,"Ġgrains":9962,"Ġcompete":9963,"Ġsweetest":9964,"Ġimaginary":9965,"ogue":9966,"Ġperman":9967,"Ġcapt":9968,"Ġmodels":9969,"Ġdefine":9970,"Ġburger":9971,"empt":9972,"Ġstretched":9973,"Ġnegot":9974,"ĠTrucks":9975,"ĠEgypt":9976,"Ġconstellations":9977,"Ġmelody":9978,"Boots":9979,"uddle":9980,"Ġbirth":9981,"Ġlin":9982,"Ġnational":9983,"Ġhass":9984,"ĠMag":9985,"ĠMoney":9986,"apes":9987,"Ġproced":9988,"Ġthingy":9989,"Ġadorable":9990,"Ġblurry":9991,"Ġfizz":9992,"Ġsunrise":9993,"male":9994,"amping":9995,"ĠKnow":9996,"eresting":9997,"Ġbuckets":9998,"Bedtime":9999,"keeping":10000,"Ġincredibly":10001,"Ġwhispering":10002,"Ġhobbies":10003,"Ġproteins":10004,"Ġsunburn":10005,"Ġanticip":10006,"Ġpetunias":10007,"Ġtortoise":10008,"Dis":10009,"Mess":10010,"aits":10011,"cop":10012,"chick":10013,"ka":10014,"text":10015,"well":10016,"anish":10017,"estern":10018,"Ġweb":10019,"ĠTape":10020,"Ġrange":10021,"ĠLE":10022,"que":10023,"quiet":10024,"Ġquit":10025,"Ġclams":10026,"Ġenhan":10027,"Ġtriangles":10028,"Ġresolution":10029,"timey":10030,"Ġskyd":10031,"Ġdistances":10032,"calming":10033,"Ġimprov":10034,"Ġorganisms":10035,"ĠBears":10036,"Ġprograms":10037,"Ġwrapper":10038,"Ġsculpt":10039,"Ġsacred":10040,"Ġcomplaining":10041,"Ġtiptoe":10042,"ouflage":10043,"ĠHalloween":10044,"Best":10045,"Wo":10046,"lon":10047,"Ġtaps":10048,"oudy":10049,"Ġyouth":10050,"Ġmaze":10051,"asher":10052,"ĠWake":10053,"Ġdodge":10054,"celer":10055,"ĠHy":10056,"Ġthorn":10057,"ica":10058,"ĠMed":10059,"Ġcoord":10060,"ĠElect":10061,"ĠRep":10062,"ĠRest":10063,"Ġmoons":10064,"Ġfins":10065,"Ġelbow":10066,"Ġrecomm":10067,"Ġrelay":10068,"Ġtreating":10069,"Ġtreatment":10070,"Ġpressing":10071,"Ġmedal":10072,"Ġpeeling":10073,"Ġformed":10074,"ĠPeanut":10075,"Ġimpression":10076,"Ġnutrition":10077,"Ġdistraction":10078,"Ġsavings":10079,"Ġapology":10080,"Ġcustomers":10081,"Ġweapons":10082,"Ġgalaxy":10083,"Ġbracelet":10084,"Ġsocieties":10085,"ĠAfric":10086,"Ġfaucet":10087,"Ġbuddies":10088,"Drag":10089,"Touch":10090,"Write":10091,"ĠQ":10092,"Ġtin":10093,"Ġponies":10094,"ĠTap":10095,"ĠToby":10096,"ĠSilly":10097,"Ġstamp":10098,"Ġul":10099,"Ġhung":10100,"Ġmyt":10101,"icating":10102,"Ġspit":10103,"Ġsplendid":10104,"Ġsuits":10105,"Ġturb":10106,"ĠSoda":10107,"Ġcrush":10108,"Ġspotted":10109,"Ġsigned":10110,"ĠBugs":10111,"Ġcentip":10112,"Ġdevices":10113,"Ġdestroyed":10114,"wiends":10115,"Ġresilience":10116,"Ġcheesy":10117,"Pen":10118,"clean":10119,"park":10120,"alf":10121,"acks":10122,"ĠMart":10123,"ielder":10124,"ĠRound":10125,"Ġdaydream":10126,"Ġskated":10127,"osition":10128,"Ġresponse":10129,"Ġexcess":10130,"Stowy":10131,"ĠToast":10132,"Ġpresenting":10133,"Ġterrifying":10134,"Ġequally":10135,"Ġevolved":10136,"Ġfantasy":10137,"Ġreflection":10138,"ĠOwl":10139,"Ġguns":10140,"ĠProbably":10141,"Ġhealing":10142,"Ġfishies":10143,"Ġvagina":10144,"Ġshoelaces":10145,"Ġtoddlers":10146,"Ġfunniest":10147,"Ġarchaeolog":10148,"Sl":10149,"ðŁ":10150,"resh":10151,"eras":10152,"oral":10153,"see":10154,"ĠLope":10155,"Ġshh":10156,"ĠPar":10157,"Ġreader":10158,"Ġwaved":10159,"Ġtripping":10160,"Ġtowns":10161,"Ġpron":10162,"Ġpractically":10163,"Ġswimmer":10164,"Ġlandfill":10165,"Ġmarig":10166,"Ġmemorize":10167,"ĠSaid":10168,"leton":10169,"Ġburned":10170,"Ġhides":10171,"Ġconstant":10172,"Ġgadget":10173,"Ġimaginative":10174,"ĠChoco":10175,"Ġsnowballs":10176,"Ġindustrial":10177,"sniffles":10178,"Ġduty":10179,"Ġyawned":10180,"Ġhassle":10181,"ĠLopez":10182,"Air":10183,"Kind":10184,"Press":10185,"glue":10186,"tee":10187,"this":10188,"heat":10189,"Ġalphabet":10190,"Ġsire":10191,"Ġcoop":10192,"Ġdot":10193,"otal":10194,"ĠBrit":10195,"ĠBrave":10196,"ĠLo":10197,"ĠMove":10198,"Ġspiders":10199,"Ġhier":10200,"Ġsway":10201,"Ġsuck":10202,"Ġbury":10203,"Ġgrasp":10204,"Ġkidding":10205,"dered":10206,"Ġgramm":10207,"Ġheadache":10208,"Ġsinger":10209,"uffin":10210,"Ġlively":10211,"Ġcompliment":10212,"Holding":10213,"ĠSnacks":10214,"Ġvolcanoes":10215,"itamins":10216,"Ġrelaxed":10217,"Ġwander":10218,"Ġbusinesses":10219,"Ġglowed":10220,"frowning":10221,"Ġrattle":10222,"Ġboundaries":10223,"Ġbubbly":10224,"Ġfluffiest":10225,"Ġfarther":10226,"Ġdynam":10227,"Ġscooter":10228,"Ġappointment":10229,"Ġnons":10230,"ĠNom":10231,"Ġalert":10232,"Ġbrushed":10233,"Ġfist":10234,"Ġdefin":10235,"Ġlistens":10236,"Ġexcl":10237,"body":10238,"Ġconnects":10239,"Ġglove":10240,"Ġsubmit":10241,"Ġexperimenting":10242,"Ġimmune":10243,"keepers":10244,"Ġanalysis":10245,"Ġcheerful":10246,"Ġweakness":10247,"ubbing":10248,"ĠGardening":10249,"Ġsanct":10250,"Ġsnowflakes":10251,"?!":10252,"gue":10253,"Ã©":10254,"high":10255,"Ġbail":10256,"Ġphi":10257,"Ġgolf":10258,"Ġcoal":10259,"Ġsund":10260,"ĠEmp":10261,"Ġworkshop":10262,"Ġtroub":10263,"Ġpoly":10264,"Ġskit":10265,"Ġunsc":10266,"Ġfinals":10267,"ractor":10268,"Ġresc":10269,"Ġjug":10270,"returns":10271,"ĠKnight":10272,"Ġfloppy":10273,"Ġmissions":10274,"uffle":10275,"ordinary":10276,"Ġcommunities":10277,"Ġsmelly":10278,"Ġlifts":10279,"Ġbehave":10280,"Ġseatbel":10281,"Ġnetwork":10282,"Ġbouncing":10283,"Ġfamiliar":10284,"Ġreligion":10285,"Ġbarking":10286,"ĠLego":10287,"Ġconclusions":10288,"ĠSuddenly":10289,"Ġschol":10290,"Ġintellig":10291,"Morning":10292,"Seriously":10293,"Wish":10294,"nels":10295,"pats":10296,"uary":10297,"erry":10298,"Ġcakes":10299,"Ġnative":10300,"Ġstroke":10301,"ĠApology":10302,"ĠLa":10303,"akers":10304,"Ġassoci":10305,"Ġcocoon":10306,"Ġmighty":10307,"Ġunin":10308,"Ġfemale":10309,"reads":10310,"Ġfireworks":10311,"ĠSpoon":10312,"uffs":10313,"Ġbowls":10314,"ĠBuzz":10315,"Ġmarble":10316,"Ġparach":10317,"Ġseasons":10318,"Ġlanguages":10319,"Ġhesitantly":10320,"Ġadapting":10321,"gment":10322,"hum":10323,"tical":10324,"vous":10325,"wah":10326,"Ġful":10327,"Ġdar":10328,"Ġpeak":10329,"Ġeerie":10330,"uns":10331,"getic":10332,"ilty":10333,"ĠParty":10334,"Ġfindings":10335,"Ġclip":10336,"Ġoverd":10337,"oses":10338,"Ġflows":10339,"Ġfairly":10340,"Ġchore":10341,"ĠThurs":10342,"Ġpaintbrush":10343,"Ġfiremen":10344,"Ġattend":10345,"lessness":10346,"Ġpats":10347,"uffles":10348,"Ġglobal":10349,"shake":10350,"Ġcommitted":10351,"going":10352,"Ġvariable":10353,"Ġloses":10354,"Ġdeveloping":10355,"Ġstrategic":10356,"Ġchatting":10357,"Ġscribble":10358,"pours":10359,"Ġvirtual":10360,"Ġtoilet":10361,"ĠThursday":10362,"Boo":10363,"Bib":10364,"Gl":10365,"Game":10366,"Paper":10367,"Yup":10368,"fat":10369,"nces":10370,"warm":10371,"ycl":10372,"zzing":10373,"Ġwound":10374,"Ġshat":10375,"rep":10376,"Ġcore":10377,"Ġgoof":10378,"ĠTable":10379,"Ġicy":10380,"riage":10381,"ĠBang":10382,"ĠNobody":10383,"Ġarrang":10384,"Ġcloudy":10385,"Ġdrawn":10386,"ĠSheep":10387,"Ġcontract":10388,"Ġdarker":10389,"clap":10390,"ĠDonkey":10391,"ĠSpanish":10392,"Ġpersist":10393,"Ġamazed":10394,"Ġamuse":10395,"Ġjoined":10396,"Ġmanagement":10397,"Ġtrusty":10398,"Ġinsight":10399,"Ġdisappeared":10400,"ĠTrying":10401,"Ġpolitics":10402,"Ġinjured":10403,"Excellent":10404,"Ġnewspapers":10405,"fortunately":10406,"Ġepis":10407,"bread":10408,"Ġtul":10409,"Ġmant":10410,"ĠTri":10411,"ĠBet":10412,"ĠHen":10413,"amental":10414,"Ġarrows":10415,"Ġagent":10416,"ĠFishy":10417,"Ġdifferences":10418,"Ġglued":10419,"Ġthrown":10420,"Ġcloak":10421,"Ġfloated":10422,"struggling":10423,"Ġremain":10424,"Ġremains":10425,"Ġstrengthen":10426,"Ġtalented":10427,"Ġchilling":10428,"Ġlabels":10429,"Ġdiscovering":10430,"Ġcontrolling":10431,"Ġtemperatures":10432,"ĠAdams":10433,"Ġmicrow":10434,"gazing":10435,"Ġfertilizer":10436,"Ġadopt":10437,"Bw":10438,"ole":10439,"pea":10440,"paw":10441,"Ġnerves":10442,"igator":10443,"ĠTree":10444,"Ġstem":10445,"Ġinput":10446,"usting":10447,"Ġnoticing":10448,"icies":10449,"Ġstormy":10450,"mbly":10451,"Ġshaker":10452,"Ġcomment":10453,"Nose":10454,"Ġshares":10455,"Ġunh":10456,"osing":10457,"Ġwriter":10458,"Ġtrails":10459,"Ġendurance":10460,"Ġwallet":10461,"rical":10462,"yclo":10463,"comes":10464,"Ġwiggling":10465,"ĠBalloon":10466,"Ġmashed":10467,"Ġprinciples":10468,"Ġstrokes":10469,"ĠPippa":10470,"Boom":10471,"Mhm":10472,"gly":10473,"that":10474,"ĠðŁ":10475,"itched":10476,"ingers":10477,"Ġlull":10478,"eting":10479,"stra":10480,"ĠTaste":10481,"ĠLick":10482,"Ġshame":10483,"Ġwax":10484,"Ġpray":10485,"Ġnighttime":10486,"Ġbeast":10487,"Ġpolicies":10488,"Door":10489,"horse":10490,"Ġinvention":10491,"Ġreviewing":10492,"Ġaiming":10493,"Ġdisturbing":10494,"Ġupdated":10495,"ĠAmerica":10496,"Ġrelationships":10497,"Ġalternative":10498,"Hesitantly":10499,"Ġfootprint":10500,"Ġrouter":10501,"?!\"":10502,"beat":10503,"win":10504,"Ġsor":10505,"Ġditch":10506,"Ġpiles":10507,"arry":10508,"Ġcancer":10509,"ott":10510,"Ġranger":10511,"urpri":10512,"imid":10513,"Ġbacks":10514,"Ġbron":10515,"Ġbolt":10516,"Ġpoles":10517,"Ġredo":10518,"Ġthanked":10519,"Ġdarkness":10520,"Ġhover":10521,"ricate":10522,"Ġsharpen":10523,"Ġprinting":10524,"Ġscarecrow":10525,"Ġlambs":10526,"overhearing":10527,"Ġuncon":10528,"Ġemotion":10529,"Owl":10530,"Ġjuggle":10531,"Ġmigrate":10532,"ĠElephants":10533,"Ġjewelry":10534,"Care":10535,"but":10536,"cook":10537,"iac":10538,"overs":10539,"uv":10540,"Ġaf":10541,"itious":10542,"Ġbomb":10543,"ercial":10544,"Ġcateg":10545,"anilla":10546,"Ġfid":10547,"Ġloops":10548,"Ġder":10549,"Ġpunch":10550,"athy":10551,"ĠWhis":10552,"Ġoutd":10553,"apan":10554,"ĠPotty":10555,"ĠRab":10556,"Ġtwir":10557,"Ġtrike":10558,"Ġfavorites":10559,"shh":10560,"clear":10561,"Ġdesire":10562,"Ġdeli":10563,"Ġvehi":10564,"Ġmarked":10565,"Ġobserving":10566,"Ġwhales":10567,"Ġintriguing":10568,"Ġterritory":10569,"\"!":10570,"Drop":10571,"bur":10572,"mal":10573,"name":10574,"tell":10575,"Ġtense":10576,"itage":10577,"Ġbald":10578,"lement":10579,"Ġreun":10580,"rish":10581,"ĠBananas":10582,"Ġspice":10583,"ĠGames":10584,"ulum":10585,"Ġhandful":10586,"ĠJapan":10587,"Ġharvest":10588,"Ġleash":10589,"Ġcrashing":10590,"Ġjuic":10591,"Ġsaddle":10592,"Ġchecks":10593,"ĠSpaghetti":10594,"nodding":10595,"Ġlegit":10596,"Ġphotography":10597,"Ġdrums":10598,"Ġentered":10599,"Ġsuggestion":10600,"Ġweave":10601,"ĠThrowing":10602,"Pushes":10603,"Sowwy":10604,"cuts":10605,"eering":10606,"wipes":10607,"yon":10608,"Ġaid":10609,"Ġwid":10610,"Ġsips":10611,"Ġnoodle":10612,"ighty":10613,"ĠLeaves":10614,"Ġplayhouse":10615,"road":10616,"astles":10617,"Ġworkout":10618,"Ġguiding":10619,"Ġunknown":10620,"ugal":10621,"Ġpointed":10622,"struct":10623,"uced":10624,"Ġjoking":10625,"Ġorganic":10626,"Ġcameras":10627,"Ġraising":10628,"Ġspecifically":10629,"Ġtongues":10630,"wheel":10631,"Ġentirely":10632,"Ġpunishment":10633,"ĠMovie":10634,"frustrated":10635,"ĠFocus":10636,"Ġthreatened":10637,"Ġadapted":10638,"ĠDifferent":10639,"Ġallergic":10640,"Ġcitiz":10641,"Ġgreedy":10642,"Ġcer":10643,"lence":10644,"ĠTra":10645,"ĠAM":10646,"Ġrushed":10647,"ĠLion":10648,"ĠComm":10649,"chers":10650,"ĠGrand":10651,"loat":10652,"Ġquarter":10653,"Ġsmud":10654,"Ġdior":10655,"Ġdied":10656,"Ġdivers":10657,"Ġblocking":10658,"Ġslacking":10659,"Ġappet":10660,"Ġmanager":10661,"Ġparks":10662,"Ġfloors":10663,"boards":10664,"Ġexperien":10665,"opsicle":10666,"apper":10667,"Ġadvance":10668,"Ġessays":10669,"Ġgoalie":10670,"ĠAsleep":10671,"mod":10672,"Ġteenagers":10673,"believer":10674,"Ġpedal":10675,"Ġimitates":10676,"Monkey":10677,"Ġreproduce":10678,"Ġfractions":10679,"Ġtoxic":10680,"Ġincorporate":10681,"onestly":10682,"Pitty":10683,"foot":10684,"wee":10685,"Ġaster":10686,"Ġwhisk":10687,"onal":10688,"Ġnine":10689,"ĠCorn":10690,"Ġanch":10691,"ĠMay":10692,"illed":10693,"Ġsax":10694,"Ġbackward":10695,"Ġquant":10696,"Ġquart":10697,"Ġwaterproof":10698,"Ġuseless":10699,"Ġlotion":10700,"Ġtwitch":10701,"Ġbuilds":10702,"Ġgrain":10703,"Ġextraordinary":10704,"together":10705,"Ġbumping":10706,"Ġdistant":10707,"Ġincident":10708,"Ġstraighten":10709,"ĠQuick":10710,"Ġcamouflage":10711,"Ġbounces":10712,"Ġpriority":10713,"Ġcircum":10714,"Ġbullet":10715,"Ġmoisturi":10716,"Ġpleasant":10717,"Ġappearance":10718,"ĠPatience":10719,"Ġuniforms":10720,"Entering":10721,"Ġmisunderstanding":10722,"Ġmagazine":10723,"achiever":10724,"Ġlandscape":10725,"Hear":10726,"Tall":10727,"Wind":10728,"Ġsex":10729,"ldo":10730,"ingle":10731,"Ġlaces":10732,"Ġstrap":10733,"Ġthump":10734,"Ġspoke":10735,"ĠDancing":10736,"Ġprocra":10737,"Ġintently":10738,"Ġblu":10739,"Ġtwigs":10740,"Ġflowing":10741,"aved":10742,"ĠStreet":10743,"shot":10744,"Ġfewer":10745,"airy":10746,"Ġcreamy":10747,"osaurus":10748,"Ġvisible":10749,"Ġmarbles":10750,"boxing":10751,"Ġscaring":10752,"ographer":10753,"Ġdocuments":10754,"Ġrelieved":10755,"Ġlimited":10756,"Ġromantic":10757,"Ġprocrast":10758,"Cwean":10759,"Piggy":10760,"aving":10761,"spl":10762,"Ġpand":10763,"Ġgor":10764,"ĠSea":10765,"Ġrent":10766,"meow":10767,"Ġplun":10768,"ĠChill":10769,"ĠCircle":10770,"Ġki":10771,"ĠDec":10772,"ĠGrandparent":10773,"ophy":10774,"ageable":10775,"ĠPwetty":10776,"ĠEventually":10777,"Ġscattered":10778,"Ġoverall":10779,"olic":10780,"Ġfixes":10781,"intage":10782,"Ġgrounded":10783,"Ġantib":10784,"Ġfactories":10785,"ĠZiggy":10786,"Ġcousins":10787,"Ġstretchy":10788,"Show":10789,"ological":10790,"Ġprinciple":10791,"Ġdissolve":10792,"Ġencouragement":10793,"Ġcucumbers":10794,"ĠLED":10795,"Ġsiren":10796,"Round":10797,"aft":10798,"pee":10799,"pti":10800,"person":10801,"Ġsoo":10802,"Ġsizes":10803,"Ġcried":10804,"Ġfool":10805,"Ġlux":10806,"stri":10807,"Ġhal":10808,"Ġstance":10809,"Ġhus":10810,"roaching":10811,"Ġknob":10812,"ĠPri":10813,"umin":10814,"olt":10815,"elon":10816,"osal":10817,"Ġgenu":10818,"Ġclassical":10819,"Ġspiritual":10820,"Ġcompon":10821,"Ġminim":10822,"Ġcircul":10823,"spring":10824,"Ġheroic":10825,"Ġtagged":10826,"Ġspaceships":10827,"Ġpersonality":10828,"Before":10829,"Ġwhispers":10830,"Ġcaterpillars":10831,"Ġgymn":10832,"Ġraccoons":10833,"ĠEgypti":10834,"Ġdelightful":10835,"Ġacademic":10836,"ĠForest":10837,"Ġcactus":10838,"Ġtroubles":10839,"Ġepisode":10840,"Mama":10841,"Wawa":10842,"catch":10843,"kind":10844,"ront":10845,"tes":10846,"taking":10847,"Ġwine":10848,"Ġdared":10849,"tery":10850,"Ġplugged":10851,"ĠAma":10852,"ĠAhh":10853,"ĠDucky":10854,"estic":10855,"Ġexec":10856,"Ġcareless":10857,"Ġintimid":10858,"Ġoverf":10859,"Ġsharer":10860,"Ġideal":10861,"ggle":10862,"Ġchoco":10863,"Ġphr":10864,"Ġeleg":10865,"Ġhitch":10866,"pered":10867,"Ġbuses":10868,"Ġrepack":10869,"Ġstrip":10870,"Ġmeasures":10871,"Ġconfusion":10872,"Ġteleport":10873,"Ġresourceful":10874,"Ġingredient":10875,"Ġsuitable":10876,"Dino":10877,"Ġcivilizations":10878,"Ġconvincing":10879,"ĠPopcorn":10880,"Ġsubtract":10881,"Break":10882,"Banana":10883,"Beautiful":10884,"Off":10885,"Other":10886,"Sock":10887,"ailing":10888,"cot":10889,"cited":10890,"frog":10891,"some":10892,"zip":10893,"Ġtatt":10894,"inc":10895,"Ġbapt":10896,"has":10897,"orange":10898,"Ġox":10899,"Ġstab":10900,"ĠBanana":10901,"Ġwashes":10902,"aline":10903,"Ġtilt":10904,"ĠDes":10905,"Ġasp":10906,"Ġfile":10907,"Ġhugging":10908,"Ġbadly":10909,"Stir":10910,"Ġminus":10911,"Ġpassage":10912,"Ġwoodpe":10913,"Ġticket":10914,"ewwow":10915,"Ġprim":10916,"Ġresponsibly":10917,"logist":10918,"ĠZip":10919,"Ġautumn":10920,"Carrot":10921,"Ġcompetitive":10922,"Ġstyles":10923,"Shows":10924,"amboo":10925,"Ġproductive":10926,"ĠPretend":10927,"Ġshiniest":10928,"Ġgnome":10929,"ycloped":10930,"aftig":10931,"big":10932,"closes":10933,"ivor":10934,"pass":10935,"rant":10936,"soft":10937,"Ġwider":10938,"real":10939,"hal":10940,"Ġcou":10941,"Ġmit":10942,"Ġpound":10943,"Ġgel":10944,"uttered":10945,"Ġcanvas":10946,"Ġhedge":10947,"Ġreuse":10948,"antastic":10949,"Ġupper":10950,"illow":10951,"imitates":10952,"ĠOhh":10953,"Ġbridges":10954,"ĠJello":10955,"Ġmosqu":10956,"Ġguessing":10957,"Ġwhiz":10958,"Ġsquirt":10959,"Ġraincoat":10960,"ĠShakes":10961,"Ġrelatable":10962,"Ġpours":10963,"ĠWhoever":10964,"Ġcollab":10965,"Ġconfirm":10966,"Ġbarrel":10967,"Ġsparkles":10968,"Ġsteering":10969,"Ġwhispered":10970,"Ġfolding":10971,"Ġcentral":10972,"Ġcuddles":10973,"Ġspells":10974,"Ġcalculator":10975,"Owange":10976,"Ġtrampoline":10977,"Ġsamples":10978,"Ġinfluenced":10979,"30":10980,"50":10981,"Ew":10982,"Fo":10983,"Out":10984,"Potty":10985,"Um":10986,"Weee":10987,"ckey":10988,"glasses":10989,"Ġdorm":10990,"Ġol":10991,"ĠSet":10992,"othes":10993,"Ġheats":10994,"Ġplastics":10995,"ĠCom":10996,"Ġmyths":10997,"Ġanger":10998,"Ġproceed":10999,"Ġintention":11000,"Ġtheirs":11001,"Ġmural":11002,"Ġhardest":11003,"Ġdrivers":11004,"avy":11005,"ĠShar":11006,"Ġreleases":11007,"Ġcommotion":11008,"grown":11009,"Ġcollapse":11010,"Ġdistinct":11011,"Ġdeeply":11012,"ertainly":11013,"Ġburgers":11014,"Ġdiscussions":11015,"Ġpanic":11016,"Ġamounts":11017,"Ġcontributing":11018,"Ġbehaviors":11019,"Only":11020,"Ġcooperative":11021,"ĠOtherwise":11022,"Ġbricks":11023,"breaker":11024,"Ġdomin":11025,"Ġsympt":11026,"tweet":11027,"Ġchirp":11028,"Ġassembly":11029,"Ġpermanent":11030,"Col":11031,"Mo":11032,"cross":11033,"kiss":11034,"anic":11035,"onk":11036,"eaten":11037,"level":11038,"ĠSy":11039,"ĠSpl":11040,"oty":11041,"ĠHorse":11042,"ĠGlue":11043,"asters":11044,"Ġalm":11045,"Ġarrow":11046,"plets":11047,"Ġheritage":11048,"timate":11049,"Ġduckie":11050,"Ġdecomp":11051,"clip":11052,"ĠSpill":11053,"Ġmisses":11054,"Ġpassen":11055,"Ġfitting":11056,"urned":11057,"Ġinvas":11058,"Ġconfront":11059,"ounced":11060,"Ġdrown":11061,"Beans":11062,"Three":11063,"written":11064,"birds":11065,"Ġsilence":11066,"ĠCowboys":11067,"Ġcontacts":11068,"Ġoutlining":11069,"Ġtactics":11070,"Ġwarrior":11071,"Ġmischievous":11072,"Precisely":11073,"ĠAfrica":11074,"Ġmarigolds":11075,"Ġmicrowave":11076,"peare":11077,"Ġoutdated":11078,"Ġdiorama":11079,"Class":11080,"Egg":11081,"cular":11082,"cycles":11083,"fare":11084,"gien":11085,"met":11086,"erman":11087,"Ġstock":11088,"Ġdock":11089,"Ġeast":11090,"loy":11091,"Ġcleanest":11092,"ĠPony":11093,"Ġguilty":11094,"Ġunhe":11095,"Ġunhappy":11096,"avenger":11097,"Ġtablecloth":11098,"ptic":11099,"Ġreturning":11100,"lands":11101,"Ġobl":11102,"Ġevap":11103,"Ġevolution":11104,"Buddy":11105,"Ġencounter":11106,"Ġastronomy":11107,"Ġapplying":11108,"Ġwraps":11109,"Ġpresence":11110,"ĠPattycake":11111,"Ġefficiently":11112,"Ġachievements":11113,"ĠMarvin":11114,"Ġentertainment":11115,"Ġduties":11116,"Ġpraise":11117,"Dreams":11118,"ĠPancakes":11119,"Ġancestors":11120,"ĠBritish":11121,"ĠShakespeare":11122,"Jamie":11123,"Picnic":11124,"Rock":11125,"azz":11126,"power":11127,"worthy":11128,"Ġsir":11129,"Ġbass":11130,"ĠSec":11131,"Ġrh":11132,"ĠHitting":11133,"abysit":11134,"Ġnecks":11135,"Ġjustice":11136,"Ġcared":11137,"ĠRome":11138,"Ġvintage":11139,"Ġchains":11140,"Ġdew":11141,"Ġwarming":11142,"erer":11143,"ifully":11144,"Ġleftover":11145,"ĠBigger":11146,"Ġocelot":11147,"Ġcharging":11148,"Ġimproved":11149,"ĠShiny":11150,"Ġdollars":11151,"Carrots":11152,"Ġlollipops":11153,"sighing":11154,"rochet":11155,"Ġpaddle":11156,"Ġmillions":11157,"Ġhundreds":11158,"ĠPolly":11159,"appropriate":11160,"ĠButterflies":11161,"brevi":11162,"ĠEmily":11163,"Chick":11164,"talk":11165,"Ġmob":11166,"Ġgig":11167,"Ġplaced":11168,"ĠHugs":11169,"ĠNoodles":11170,"ĠCows":11171,"ĠCereal":11172,"Ġchaotic":11173,"Ġunlo":11174,"Ġoffers":11175,"acc":11176,"Ġparking":11177,"ression":11178,"Ġchicks":11179,"Ġstargazing":11180,"Ġrechar":11181,"Ġhideout":11182,"Looking":11183,"Ġbeautifully":11184,"Ġremark":11185,"aneous":11186,"ordan":11187,"Doll":11188,"Ġlegends":11189,"Ġprocesses":11190,"Ġgrandd":11191,"Ġsplashy":11192,"Ġeras":11193,"Ġunsafe":11194,"iency":11195,"Ġsymbolize":11196,"Ġwandering":11197,"Ġcontrollers":11198,"ĠPuppies":11199,"Ġdeadline":11200,"Ġconcentration":11201,"ubber":11202,"Ġdefenders":11203,"Ġindustry":11204,"Ġcherry":11205,"Adventure":11206,"Raises":11207,"Ġenhance":11208,"Ġamusement":11209,"Ġlullaby":11210,"Ġgenuine":11211,"mus":11212,"manship":11213,"opp":11214,"rous":11215,"Ġbitter":11216,"Ġbait":11217,"Ġmur":11218,"Ġnit":11219,"ĠTigers":11220,"Ġinch":11221,"Ġhoops":11222,"ceive":11223,"Ġgoats":11224,"Ġthemes":11225,"ulating":11226,"Ġwhine":11227,"ander":11228,"andel":11229,"Ġprops":11230,"Ġsounding":11231,"Ġsmash":11232,"Ġconvent":11233,"Ġwherever":11234,"acious":11235,"Ġflapping":11236,"eads":11237,"Ġflyers":11238,"Ġchoke":11239,"clapping":11240,"poke":11241,"ensity":11242,"Ġmixes":11243,"Ġconserve":11244,"Ġmeetings":11245,"Ġkissed":11246,"Ġprison":11247,"Ġretro":11248,"Ġdroopy":11249,"Ġinformative":11250,"Ġerrors":11251,"Ġeducate":11252,"blood":11253,"Ġbulbs":11254,"Ġdestr":11255,"Ġmunching":11256,"Ġreinforce":11257,"Ġsunflowers":11258,"Ġdescription":11259,"Ġmagazines":11260,"Ġdunno":11261,"Bread":11262,"Cat":11263,"Ducky":11264,"occ":11265,"rid":11266,"splash":11267,"wire":11268,"Ġtac":11269,"Ġcomet":11270,"Ġfle":11271,"atural":11272,"Ġicon":11273,"Ġrefe":11274,"Ġrearr":11275,"Ġrig":11276,"rost":11277,"Ġtil":11278,"isin":11279,"ĠGP":11280,"entially":11281,"being":11282,"ĠPicture":11283,"Ġwhoever":11284,"Ġbetray":11285,"Ġherb":11286,"Ġbirdies":11287,"Ġuntangle":11288,"Ġcompartment":11289,"Ġcontam":11290,"Stick":11291,"Ġcamel":11292,"Ġperhaps":11293,"Ġsoapy":11294,"Ġreminding":11295,"ĠAww":11296,"Ġvocal":11297,"Ġdescribed":11298,"ĠZoo":11299,"Ġerase":11300,"Ġdeveloped":11301,"ĠSmith":11302,"Ġsenses":11303,"Ġfriction":11304,"Ġdiagrams":11305,"Approaching":11306,"Ġarrived":11307,"Ġleaning":11308,"Baby":11309,"Her":11310,"Nom":11311,"aiting":11312,"cold":11313,"nes":11314,"rad":11315,"Ġlined":11316,"ĠTutor":11317,"Ġhail":11318,"ĠAye":11319,"ĠMik":11320,"Ġshri":11321,"Ġoutf":11322,"usable":11323,"inker":11324,"Ġbuff":11325,"Ġunimp":11326,"Ġhardly":11327,"Ġchili":11328,"Ġstarry":11329,"Ġbeats":11330,"Ġrecycl":11331,"Ġskatepark":11332,"Ġtickly":11333,"ogen":11334,"Toast":11335,"smith":11336,"Ġworksheet":11337,"Ġcapes":11338,"Ġpeeked":11339,"Ġstole":11340,"Ġdecorating":11341,"Ġcounse":11342,"shadow":11343,"Ġimmig":11344,"Ġwobbles":11345,"Ġrustling":11346,"Ġpedals":11347,"Butterfly":11348,"Ġcentipede":11349,"Noodles":11350,"Pway":11351,"patter":11352,"Ġtug":11353,"Ġly":11354,"Ġnick":11355,"Ġnug":11356,"ĠTummy":11357,"Ġstaff":11358,"Ġliking":11359,"ĠAust":11360,"ĠLuna":11361,"Ġties":11362,"Ġarts":11363,"Ġads":11364,"Ġadvert":11365,"Ġoverboard":11366,"Ġblaming":11367,"Ġrally":11368,"Ġpoetry":11369,"Ġharmony":11370,"Ġchamber":11371,"Ġgraceful":11372,"Ġchoir":11373,"Ġloudest":11374,"Ġpenalty":11375,"Ġexplored":11376,"Ġdangers":11377,"Ġcollected":11378,"ĠUnited":11379,"Ġevac":11380,"Ġtractors":11381,"Isn":11382,"Ġproduction":11383,"Ġscreens":11384,"Ġpositions":11385,"Ġjammies":11386,"Ġmasks":11387,"building":11388,"Ġurban":11389,"watching":11390,"Ġfalse":11391,"Ġhibernate":11392,"ĠGuys":11393,"Ġstrangers":11394,"ĠJulie":11395,"Ġultimate":11396,"Ġtulips":11397,"Bus":11398,"Fw":11399,"Rawr":11400,"beep":11401,"chet":11402,"nap":11403,"erts":11404,"Ġcone":11405,"Ġpipe":11406,"ĠTall":11407,"addles":11408,"ĠWest":11409,"Ġstitches":11410,"sever":11411,"ĠBand":11412,"uncle":11413,"ĠNeat":11414,"ĠNaughty":11415,"ĠClass":11416,"akery":11417,"ĠPool":11418,"Ġscavenger":11419,"Ġgulp":11420,"Ġcliff":11421,"Ġvig":11422,"Ġovercoming":11423,"Ġtricked":11424,"ĠStates":11425,"Ġdrip":11426,"Ġcracked":11427,"Ġcreaky":11428,"Ġbanner":11429,"Ġincon":11430,"Ġsubmar":11431,"Ġsweaters":11432,"ĠZzz":11433,"Ġwarn":11434,"Ġwidely":11435,"ĠChair":11436,"ĠDrinking":11437,"Ġupdates":11438,"Ġidentity":11439,"Ġpyramids":11440,"Alex":11441,"Cr":11442,"Candy":11443,"rubs":11444,"vet":11445,"inters":11446,"Ġwast":11447,"Ġfans":11448,"Ġpairs":11449,"Ġlimb":11450,"Ġoutdoors":11451,"Ġatom":11452,"ometer":11453,"Ġbackst":11454,"Ġrailing":11455,"Ġraised":11456,"Ġtrait":11457,"Ġawaits":11458,"avender":11459,"Ġglam":11460,"Ġcrump":11461,"ĠUns":11462,"Ġchecklist":11463,"ĠVen":11464,"Ġcupcakes":11465,"Ġmusician":11466,"ivable":11467,"Ġfres":11468,"Ġpetition":11469,"Ġbarrier":11470,"Ġagreeing":11471,"rupted":11472,"Ġignored":11473,"Ġscrambled":11474,"Ġsections":11475,"Ġbeneficial":11476,"ĠFairy":11477,"Ġsync":11478,"steps":11479,"Ġviolin":11480,"Ġdegrees":11481,"Brave":11482,"cap":11483,"fold":11484,"of":11485,"pie":11486,"uver":11487,"washing":11488,"ourish":11489,"reck":11490,"ĠTonight":11491,"ari":11492,"Ġheater":11493,"Ġugly":11494,"Ġinner":11495,"ĠNuts":11496,"roar":11497,"Ġworship":11498,"gettable":11499,"ĠRel":11500,"ĠRusty":11501,"Ġsnag":11502,"Ġrack":11503,"ĠPlan":11504,"Ġwhip":11505,"Ġcheaper":11506,"Ġtoward":11507,"Ġforecast":11508,"Ġhops":11509,"Ġswimmers":11510,"ĠStep":11511,"Ġelev":11512,"Helps":11513,"Ġcontrovers":11514,"Ġseaweed":11515,"Ġcurved":11516,"ĠAnother":11517,"Cloud":11518,"Ġcombination":11519,"Ġhygien":11520,"istency":11521,"Ġcuddly":11522,"Ġsurfaces":11523,"ĠCoffee":11524,"Ġcleats":11525,"Chair":11526,"Ġclaimed":11527,"Superher":11528,"Ġreinfor":11529,"joining":11530,"Ġdisruptive":11531,"Ġzombie":11532,"Ġartifacts":11533,"Ġrecovery":11534,"Basket":11535,"Di":11536,"Li":11537,"Leaves":11538,"careful":11539,"laces":11540,"rust":11541,"uity":11542,"hells":11543,"Ġaver":11544,"Ġsout":11545,"itas":11546,"Ġtore":11547,"Ġpale":11548,"Ġgust":11549,"ĠTick":11550,"Ġjail":11551,"ĠBoots":11552,"alls":11553,"icine":11554,"Ġadmin":11555,"...'":11556,"Ġenzy":11557,"Ġtrunks":11558,"ĠFour":11559,"ĠPlant":11560,"achable":11561,"Ġowners":11562,"Ġendless":11563,"Ġexploration":11564,"Ġslows":11565,"ĠStomp":11566,"Ġspacecraft":11567,"brushes":11568,"Ġassume":11569,"Ġediting":11570,"Ġmelted":11571,"ycling":11572,"voke":11573,"Ġencycloped":11574,"Ġjudgment":11575,"Ġmeaningful":11576,"Ġblender":11577,"Ġcleared":11578,"Ġpolitic":11579,"Ġgrabbing":11580,"Ġunreal":11581,"Ġheaven":11582,"Ġdupl":11583,"Ġrefreshing":11584,"Ġloyal":11585,"Ġsorce":11586,"Ġwoodpecker":11587,")**":11588,"Funny":11589,"Wed":11590,"nee":11591,"sized":11592,"vil":11593,"wing":11594,"Ġsou":11595,"Ġsoul":11596,"hift":11597,"Ġbamboo":11598,"Ġdurable":11599,"Ġgang":11600,"adder":11601,"Ġheating":11602,"ĠWild":11603,"Ġstere":11604,"Ġyourselves":11605,"Ġjog":11606,"ĠYouT":11607,"inder":11608,"urf":11609,"Ġorg":11610,"Ġash":11611,"aph":11612,"Ġshaping":11613,"Ġhanding":11614,"umm":11615,"Ġpeppers":11616,"igned":11617,"Ġjuj":11618,"ĠAfterward":11619,"Ġpacket":11620,"Ġstrain":11621,"Ġflapped":11622,"Ġobsessed":11623,"Ġbeeps":11624,"ĠFrog":11625,"Ġdemonstration":11626,"Ġbuilders":11627,"ĠTurned":11628,"Ġninjas":11629,"Ġvibrations":11630,"Ġscraped":11631,"Ġconductor":11632,"Ġapplications":11633,"Fruit":11634,"Ġbeside":11635,"Froggy":11636,"Ġwitness":11637,"Ġmosquit":11638,"pow":11639,"ras":11640,"Ġtease":11641,"Ġauction":11642,"Ġ**(":11643,"Ġbakery":11644,"Ġdaring":11645,"Ġpajama":11646,"ading":11647,"Ġcancel":11648,"Ġsteel":11649,"ĠBilly":11650,"hanging":11651,"entive":11652,"actic":11653,"Ġscan":11654,"Ġracer":11655,"Ġfoil":11656,"Ġelk":11657,"Ġimagining":11658,"Ġlandmark":11659,"Ġcollaps":11660,"Ġsignature":11661,"Ġformation":11662,"comb":11663,"ĠStorytime":11664,"Ġgrandparents":11665,"Ġdiscoveries":11666,"ĠBirdie":11667,"Ġweights":11668,"Ġweaken":11669,"Ġbends":11670,"Ġprovides":11671,"Ġfeathered":11672,"Ġsusp":11673,"Ġbroadly":11674,"Snuggle":11675,"Ġarchitecture":11676,"Ġvalley":11677,"Ġsanctuary":11678,"Ġphilos":11679,"Ġsaxoph":11680,"Beach":11681,"Dog":11682,"Fork":11683,"Panc":11684,"],":11685,"wit":11686,"wait":11687,"Ġut":11688,"Ġtee":11689,"Ġtents":11690,"Ġsis":11691,"habit":11692,"Ġweep":11693,"ĠWed":11694,"Ġjot":11695,"Ġgobl":11696,"eek":11697,"ĠNon":11698,"earing":11699,"Ġtill":11700,"uses":11701,"Ġfunctions":11702,"ĠPart":11703,"ĠPower":11704,"ĠRen":11705,"Ġvital":11706,"Ġintricate":11707,"ffle":11708,"ĠFunny":11709,"Ġblade":11710,"ĠLooking":11711,"Ġunco":11712,"Ġbragging":11713,"Ġflyer":11714,"Ġhotel":11715,"ĠUs":11716,"Ġbeating":11717,"Ġrips":11718,"Ġcrabs":11719,"Ġenergetic":11720,"Ġkickfl":11721,"iology":11722,"lights":11723,"Ġfortune":11724,"umble":11725,"ĠHaving":11726,"Ġscarves":11727,"Ġstressing":11728,"Ġadaptable":11729,"Ġthicker":11730,"Ġemotional":11731,"Ġcooperate":11732,"Ġassistance":11733,"Ġcasual":11734,"Ġbrief":11735,"Ġmechanical":11736,"asketti":11737,"ĠAdventures":11738,"Ġfossils":11739,"Ġobservations":11740,"Ġtutorials":11741,"Ġunforgettable":11742,"Ġgranola":11743,"Ġparachute":11744,"Ġdelivery":11745,"Ġjuiciest":11746,"Br":11747,"Closes":11748,"Sits":11749,"Tur":11750,"bers":11751,"ech":11752,"rating":11753,"hib":11754,"Ġmal":11755,"orant":11756,"ooster":11757,"Ġben":11758,"Ġumm":11759,"Ġinno":11760,"Ġreusable":11761,"ĠMet":11762,"ĠDr":11763,"ĠGerman":11764,"Ġcopper":11765,"Ġprecip":11766,"ĠNose":11767,"Ġquote":11768,"Ġvary":11769,"hesitantly":11770,"Ġplank":11771,"Ġsevere":11772,"Ġcrot":11773,"ĠYours":11774,"ankie":11775,"Ġfroze":11776,"Ġacceler":11777,"Ġweirdest":11778,"rics":11779,"Eats":11780,"pically":11781,"Ġtrusted":11782,"Ġprepar":11783,"Ġfurry":11784,"Ġmeasurements":11785,"Ġdisconnect":11786,"Ġorders":11787,"Ġbrick":11788,"Ġgradually":11789,"Ġwebsites":11790,"Ġpreserving":11791,"Ġdelighted":11792,"Whee":11793,"Ġdialogue":11794,"Ġinherit":11795,"Pool":11796,"Those":11797,"bar":11798,"effic":11799,"mis":11800,"root":11801,"su":11802,"uracy":11803,"Ġdab":11804,"Ġsteak":11805,"Ġforming":11806,"Ġrink":11807,"cturn":11808,"ĠHit":11809,"ĠOink":11810,"Ġshops":11811,"Ġsav":11812,"ĠPh":11813,"amel":11814,"Ġveter":11815,"Ġtrig":11816,"Ġwaist":11817,"elic":11818,"Ġactor":11819,"Ġrecording":11820,"eated":11821,"Ġdroplets":11822,"Ġpopulation":11823,"Ġmotions":11824,"atively":11825,"Ġexpectations":11826,"Ġburrow":11827,"Ġperforming":11828,"rolled":11829,"Ġslips":11830,"Ġrotate":11831,"Ġcott":11832,"Ġscribbles":11833,"Ġalternatives":11834,"Ġinfection":11835,"Ġmultipl":11836,"Ġwrinkly":11837,"Ġencouraging":11838,"Ġisolate":11839,"Ġgrandkids":11840,"Ġreckless":11841,"Ġneutral":11842,"Wolf":11843,"Aunt":11844,"Crack":11845,"Happ":11846,"jud":11847,"sorry":11848,"Ġsed":11849,"Ġcens":11850,"orize":11851,"Ġdw":11852,"Ġpap":11853,"ctors":11854,"ustrial":11855,"urses":11856,"ĠMust":11857,"Ġspat":11858,"Ġneedles":11859,"ĠGross":11860,"amic":11861,"ĠPig":11862,"Ġbuzzing":11863,"Ġque":11864,"Ġdiff":11865,"Ġskies":11866,"Ġplanks":11867,"Ġzero":11868,"ĠThunder":11869,"Ġreconsider":11870,"ĠVe":11871,"cluck":11872,"Ġcounted":11873,"Ġmusicians":11874,"Ġbushy":11875,"Ġpresses":11876,"Ġcubby":11877,"erald":11878,"Ġburp":11879,"Ġspeedy":11880,"Ġbreaths":11881,"Ġstreaming":11882,"Ġbulldo":11883,"Ġremoved":11884,"Ġstretching":11885,"Ġensuring":11886,"Ġsuffering":11887,"ĠGoldie":11888,"aunted":11889,"ĠBreakfast":11890,"ĠGlug":11891,"Ġsneezed":11892,"Peanut":11893,"Ġwealth":11894,"Ġunderestimate":11895,"Ġsidest":11896,"Ġarranged":11897,"Ġanchor":11898,"Ġsymptoms":11899,"cturnal":11900,"Trees":11901,"din":11902,"nis":11903,"ointing":11904,"wa":11905,"Ġetch":11906,"Ġgur":11907,"Ġgerm":11908,"Ġginger":11909,"leg":11910,"ĠTreat":11911,"ĠSame":11912,"adays":11913,"rable":11914,"Ġabbrevi":11915,"ares":11916,"isher":11917,"Ġknots":11918,"Ġhowl":11919,"Ġshallow":11920,"Ġbully":11921,"ĠRob":11922,"lowing":11923,"Ġ(*":11924,"Ġconvert":11925,"Ġoldest":11926,"Ġwrites":11927,"Ġhurtful":11928,"Ġsandy":11929,"ailman":11930,"Ġextract":11931,"Ġrelates":11932,"Ġreleased":11933,"Ġcreaking":11934,"Ġfills":11935,"Ġflowerbed":11936,"Ġintern":11937,"umbered":11938,"Ġpurs":11939,"Ġpetting":11940,"Ġpackages":11941,"Ġannounce":11942,"Ġeros":11943,"Ġundo":11944,"Ġtrading":11945,"Ġspeakers":11946,"forms":11947,"Ġsensors":11948,"Ġtrailer":11949,"connect":11950,"ĠPudding":11951,"Ġdeaf":11952,"Ġpleased":11953,"Ġappears":11954,"Ġconstructive":11955,"Ġinvestigate":11956,"Ġpepperoni":11957,"Ġshivering":11958,"Ġjerse":11959,"ĠUntil":11960,"Ġsatellite":11961,"Ġrecommend":11962,"Shoe":11963,"Tear":11964,"Towel":11965,"class":11966,"post":11967,"take":11968,"**)":11969,"Ġbiz":11970,"Ġcrochet":11971,"Ġfiles":11972,"Ġmint":11973,"kered":11974,"Ġhorsie":11975,"Ġjazz":11976,"ĠHum":11977,"ĠNut":11978,"Ġshown":11979,"Ġshrink":11980,"ĠGreek":11981,"ulated":11982,"Ġorche":11983,"aud":11984,"ested":11985,"Ġsupers":11986,"Ġuneven":11987,"Ġtwee":11988,"Ġstarfish":11989,"Ġfever":11990,"ugar":11991,"Ġaccording":11992,"spec":11993,"spreads":11994,"Ġgarlic":11995,"Ġtypically":11996,"Ġcharger":11997,"Ġpeacefully":11998,"Ġpollute":11999,"Ġwrapping":12000,"Ġentering":12001,"Sammy":12002,"Ġtornado":12003,"ĠGrass":12004,"fighting":12005,"ĠWolf":12006,"Ġunscrew":12007,"Ġappetite":12008,"ĠGPS":12009,"ĠAustral":12010,"Deer":12011,"Elephant":12012,"close":12013,"eous":12014,"gun":12015,"while":12016,"Ġtart":12017,"Ġtapping":12018,"Ġsings":12019,"Ġbrow":12020,"Ġdandel":12021,"Ġpuck":12022,"Ġpave":12023,"igators":12024,"ĠSpe":12025,"Ġhazard":12026,"otes":12027,"raises":12028,"Ġjet":12029,"ĠBasket":12030,"Ġwasher":12031,"ĠHeal":12032,"ĠHorses":12033,"ĠMade":12034,"ĠDet":12035,"ĠDip":12036,"uss":12037,"ĠPass":12038,"Ġexcel":12039,"Ġsnuggles":12040,"venge":12041,"Ġroaring":12042,"Ġfriendships":12043,"Ġflames":12044,"ĠWhenever":12045,"ressing":12046,"Ġthrone":12047,"Ġminor":12048,"Ġloving":12049,"Ġextinct":12050,"Ġcalf":12051,"Ġstraws":12052,"Ġhyper":12053,"Ġmislead":12054,"Ġencrypt":12055,"Ġtransition":12056,"ĠFluffles":12057,"Ġcontributes":12058,"Ġinventions":12059,"Ġorigin":12060,"Ġbeanstalk":12061,"ĠBoing":12062,"Ġkiller":12063,"Ġrecognizing":12064,"ĠBedtime":12065,"Ġmechanic":12066,"Ġemergencies":12067,"ĠCowboy":12068,"ĠGrapes":12069,"Ġphase":12070,"Ġskeleton":12071,"Ġbonds":12072,"Ġhypnot":12073,"Ġaccomplish":12074,"ĠFloppy":12075,"Ġhypothesis":12076,"Ġmushroom":12077,"Ġfrosting":12078,"Ġgeometry":12079,"Ġplunger":12080,"Ġcounselor":12081,"Geen":12082,"Ham":12083,"Sort":12084,"tick":12085,"oust":12086,"ini":12087,"Ġwhiskers":12088,"Ġcale":12089,"Ġma":12090,"Ġlob":12091,"Ġding":12092,"Ġgut":12093,"Ġgems":12094,"state":12095,"ĠTiger":12096,"Ġstam":12097,"sels":12098,"ĠLamb":12099,"ĠComb":12100,"ĠGoose":12101,"imed":12102,"ortion":12103,"Ġexpense":12104,"Ġadren":12105,"Ġdownstairs":12106,"Ġtresp":12107,"Ġconvey":12108,"Ġmock":12109,"Ġsuperglue":12110,"osh":12111,"iction":12112,"Ġflame":12113,"Ġflutter":12114,"Ġgreenhouse":12115,"Ġbases":12116,"alted":12117,"Ġacqu":12118,"ĠInter":12119,"Ġextension":12120,"Ġextingu":12121,"Ġkickboxing":12122,"formed":12123,"Helping":12124,"Ġinviting":12125,"Ġkeyboard":12126,"Ġtrusting":12127,"Ġpeeled":12128,"Ġregard":12129,"Ġsmelling":12130,"Ġtunes":12131,"Ġinspect":12132,"Ġprincesses":12133,"Ġaudio":12134,"Ġstreamers":12135,"Ġillness":12136,"Ġliquids":12137,"Ġacceptable":12138,"Ġofficially":12139,"Tweet":12140,"Ġdisagreements":12141,"ĠClimbing":12142,"Ġbrainstorming":12143,"Ġunplug":12144,"Ġtherm":12145,"Ġsmoother":12146,"ĠEduc":12147,"Ġhitchhi":12148,"kisses":12149,"Lifts":12150,"Ġorgans":12151,"Ġcalend":12152,"Ġtrespass":12153,".\\":12154,"Corn":12155,"La":12156,"Music":12157,"Ouchie":12158,"pipe":12159,"heavy":12160,"reate":12161,"Ġlaps":12162,"oning":12163,"omers":12164,"arre":12165,"ener":12166,"Ġhint":12167,"ĠCray":12168,"Ġoutcomes":12169,"essor":12170,"quet":12171,"ĠPr":12172,"Ġbummer":12173,"Ġscamp":12174,"Ġintent":12175,"Ġskys":12176,"Ġstrum":12177,"Ġpicky":12178,"tile":12179,"Ġrealizing":12180,"ĠBeans":12181,"Ġmonitor":12182,"Ġaccused":12183,"ĠTrash":12184,"Ġcurren":12185,"Ġvisitors":12186,"Ġequals":12187,"Ġtransl":12188,"Ġimpacts":12189,"Ġstylish":12190,"Ġmathe":12191,"rested":12192,"Ġconstantly":12193,"Ġgrey":12194,"Ġexplanations":12195,"Ġtaxes":12196,"Ġdescriptive":12197,"estyle":12198,"Ġbundled":12199,"Ġconvenient":12200,"climbs":12201,"ĠAbout":12202,"Ġearthquake":12203,"Ġnuggets":12204,"Ġerosion":12205,"Horse":12206,"Pony":12207,"Pajama":12208,"gling":12209,"game":12210,"iance":12211,"nics":12212,"shirt":12213,"Ġted":12214,"Ġtighter":12215,"Ġsher":12216,"rec":12217,"Ġcass":12218,"Ġtock":12219,"Ġfoo":12220,"ĠWaiting":12221,"rify":12222,"anted":12223,"ĠBaking":12224,"ĠHead":12225,"eem":12226,"Ġkay":12227,"Ġanx":12228,"Ġdaytime":12229,"Ġstump":12230,"Ġhuff":12231,"through":12232,"Ġmanageable":12233,"Ġdisg":12234,"ĠDonut":12235,"Ġcommercial":12236,"âĢĶ\"":12237,"ulture":12238,"Ġedit":12239,"Ġconcrete":12240,"Ġstraps":12241,"Ġparall":12242,"Ġdepartment":12243,"rolling":12244,"ĠFlap":12245,"Ġpollination":12246,"Ġlabor":12247,"Napkin":12248,"Ġcuddled":12249,"ĠColl":12250,"Ġbending":12251,"Ġmascot":12252,"Ġcontainers":12253,"Ġgrease":12254,"ologist":12255,"Ġkilling":12256,"Ġoverprotect":12257,"Ġirre":12258,"Ġfluid":12259,"Ġvisualize":12260,"Ġvibrant":12261,"ĠBattle":12262,"Ġcranky":12263,"Ġrectangle":12264,"Ġspectacle":12265,"Ġprogramming":12266,"Ġseatbelt":12267,"Bee":12268,"Hate":12269,"bath":12270,"face":12271,"makers":12272,"Ġfwog":12273,"Ġmort":12274,"Ġnort":12275,"ckled":12276,"Ġstim":12277,"Ġlies":12278,"Ġhoot":12279,"abies":12280,"riers":12281,"Ġrider":12282,"ears":12283,"Ġtimeless":12284,"chery":12285,"mbr":12286,"loaf":12287,"ainting":12288,"agn":12289,"ĠPenny":12290,"imi":12291,"orted":12292,"Ġnewt":12293,"Ġgroo":12294,"Ġtweak":12295,"Ġowned":12296,"Ġfolder":12297,"Ġsnowing":12298,"Ġfireflies":12299,"ifier":12300,"Ġaccuracy":12301,"Ġhog":12302,"Ġlegacy":12303,"Ġstolen":12304,"Ġgasoline":12305,"Ġreacts":12306,"Ġburns":12307,"Ġghostly":12308,"ĠScrub":12309,"Ġspeeds":12310,"Ġshimmer":12311,"print":12312,"Ġparrots":12313,"Ġwagging":12314,"Ġdisciplined":12315,"Ġbeaks":12316,"sniffling":12317,"Ġfootprints":12318,"Ġwealthy":12319,"Ġretrieve":12320,"Ġtougher":12321,"Ġmammals":12322,"ĠMiko":12323,"Ġcalendar":12324,"?\\":12325,"Dw":12326,"Pizza":12327,"iator":12328,"words":12329,"Ġwiring":12330,"Ġcure":12331,"Ġcope":12332,"Ġcaves":12333,"Ġ\"...":12334,"oric":12335,"Ġdye":12336,"Ġnailed":12337,"strip":12338,"eder":12339,"ĠHalf":12340,"earches":12341,"ulty":12342,"Ġsnapped":12343,"Ġroam":12344,"jecting":12345,"Ġskull":12346,"Ġunint":12347,"osis":12348,"Ġoffensive":12349,"Ġstuffy":12350,"angered":12351,"ĠStone":12352,"cond":12353,"enses":12354,"Ġanten":12355,"Ġdelay":12356,"Ġceremon":12357,"Ġnecklaces":12358,"Ġpromising":12359,"Ġdamaging":12360,"Ġlibrarian":12361,"Ġlabeled":12362,"ĠFinally":12363,"Ġcentaur":12364,"Ġtechnical":12365,"Ġsquares":12366,"Ġdivided":12367,"Ġwagged":12368,"Ġtelescopes":12369,"Ġchefs":12370,"tech":12371,"Trash":12372,"Ġauthority":12373,"Ġrumor":12374,"Ġelectronic":12375,"ĠSuperhero":12376,"Ġthousand":12377,"Pretends":12378,"Ġintegrity":12379,"ĠCrackers":12380,"ĠJoey":12381,"Ġtypical":12382,"Ġbeetle":12383,"Ġrecharge":12384,"Ġqueens":12385,"Cereal":12386,"Feet":12387,"Flowers":12388,"Sarah":12389,"bul":12390,"cend":12391,"iot":12392,"tight":12393,"waddles":12394,"zards":12395,"Ġtrow":12396,"innam":12397,"Ġsin":12398,"reaching":12399,"Ġfade":12400,"Ġmul":12401,"Ġmax":12402,"Ġlavender":12403,"Ġdil":12404,"Ġgaz":12405,"Ġnation":12406,"atile":12407,"archy":12408,"Ġstages":12409,"Ġlic":12410,"ĠBread":12411,"Ġmembr":12412,"ĠChange":12413,"Ġoutn":12414,"ucket":12415,"Ġhandc":12416,"Ġbod":12417,"ĠJimmy":12418,"Ġtroops":12419,"ĠDoing":12420,"ĠFingers":12421,"Ġharmon":12422,"Ġharming":12423,"izers":12424,"Ġdining":12425,"Ġmanner":12426,"Ġrunners":12427,"Ġsunglasses":12428,"Ġbrag":12429,"Ġstartle":12430,"tenance":12431,"Ġphon":12432,"Ġcreation":12433,"Ġchildhood":12434,"Ġdancers":12435,"spect":12436,"Ġempire":12437,"Ġparas":12438,"Ġlaying":12439,"Ġlayout":12440,"backs":12441,"Ġrewards":12442,"Ġposted":12443,"Ġcopies":12444,"Ġsuspic":12445,"Ġdemol":12446,"Ġpalm":12447,"ĠRocks":12448,"Ġsneezing":12449,"Ġvenom":12450,"Ġhorizon":12451,"Follow":12452,"Ġremarkable":12453,"Ġaverage":12454,"Ġbizarre":12455,"innamon":12456,"Head":12457,"Shirt":12458,"Tiger":12459,"fix":12460,"iotic":12461,"pher":12462,"pane":12463,"Ġcrink":12464,"eaby":12465,"Ġnasty":12466,"Ġlicks":12467,"Ġinex":12468,"Ġinches":12469,"idal":12470,"Ġreti":12471,"abber":12472,"ĠBunnies":12473,"alize":12474,"ĠHoo":12475,"Ġplayroom":12476,"Ġspine":12477,"ĠDav":12478,"Ġorbits":12479,"fulness":12480,"ĠEl":12481,"Ġmeanings":12482,"Ġreads":12483,"Ġreaders":12484,"Ġclim":12485,"Ġovershadow":12486,"ĠFork":12487,"Ġwaits":12488,"Ġslack":12489,"Ġuntr":12490,"Ġhollow":12491,"Ġpopulations":12492,"Ġdelete":12493,"Ġtoasty":12494,"Ġelection":12495,"scotch":12496,"Ġburnt":12497,"Spill":12498,"Ġislands":12499,"ooray":12500,"Ġchewing":12501,"Ġaudition":12502,"Ġroutes":12503,"ĠPuzzle":12504,"Ġscratchy":12505,"ĠSinging":12506,"Ġcrawling":12507,"Ġintroduction":12508,"Ġplaydate":12509,"Ġmicroscope":12510,"Ġmowing":12511,"Ġtransportation":12512,"Ġdribble":12513,"ĠGiraffe":12514,"Ġreefs":12515,"Ġexperienced":12516,"nesday":12517,"Fwiends":12518,"Ribbit":12519,"aired":12520,"brings":12521,"flowers":12522,"hop":12523,"oed":12524,"wk":12525,"Ġtroll":12526,"Ġwest":12527,"Ġsoot":12528,"Ġthesis":12529,"hair":12530,"atin":12531,"ibber":12532,"Ġreapp":12533,"Ġhom":12534,"unct":12535,"ĠCons":12536,"Ġplayfully":12537,"Ġwhee":12538,"ourn":12539,"ĠMis":12540,"Ġeverybody":12541,"Ġhandwriting":12542,"Ġclips":12543,"ssy":12544,"plate":12545,"Ġracket":12546,"Ġslither":12547,"Ġsquir":12548,"Ġlasts":12549,"boom":12550,"brown":12551,"Ġpige":12552,"Ġpuzzled":12553,"Ġhumming":12554,"voc":12555,"Ġapproaches":12556,"obby":12557,"Ġflatten":12558,"Ġbattlefield":12559,"Ġinventor":12560,"rounded":12561,"Ġstatues":12562,"Ġoccur":12563,"Ġcurrents":12564,"Ġwaddled":12565,"respons":12566,"Ġpranks":12567,"Ġsatisfying":12568,"Ġmineral":12569,"ĠChickens":12570,"Ġlaser":12571,"Ġclamshell":12572,"Ġprimary":12573,"ĠWednesday":12574,"Aww":12575,"Teeth":12576,"cur":12577,"later":12578,"pick":12579,"Ġmoth":12580,"Ġnee":12581,"Ġnoun":12582,"atis":12583,"ĠYogurt":12584,"Ġshone":12585,"Ġorchar":12586,"ĠProt":12587,"ĠRos":12588,"ĠJelly":12589,"ĠDog":12590,"Ġdiction":12591,"Ġunset":12592,"Ġduckies":12593,"Ġglitch":12594,"Ġcrooked":12595,"Ġlighthouse":12596,"Ġcomprom":12597,"Ġrainwater":12598,"Ġcutest":12599,"Ġpersu":12600,"Ġwoodcar":12601,"Ġkicker":12602,"Ġterrified":12603,"Ġhumil":12604,"Ġjellyfish":12605,"Ġsaliv":12606,"Ġtexting":12607,"Ġtempting":12608,"Ġcarton":12609,"Ġdisappointing":12610,"Ġvanish":12611,"Ġengineer":12612,"Ġengineers":12613,"Ġcrafting":12614,"Ġreplaced":12615,"eyow":12616,"Ġwrappers":12617,"Ġsuggested":12618,"Ġproposal":12619,"Ġofficers":12620,"Ġmigration":12621,"Hesitates":12622,"ĠInteresting":12623,"Ġdribbling":12624,"Ġsimplify":12625,"Ġooh":12626,"ĠWoods":12627,"Ġacknowled":12628,"Ġenvelope":12629,"Ġfulfill":12630,"Ġalmond":12631,"oppable":12632,"severance":12633,"ĠYouTube":12634,"ĠUsually":12635,"*,":12636,"Bat":12637,"Chicken":12638,"Keep":12639,"Moose":12640,"Proud":12641,"Tight":12642,"Tape":12643,"hoot":12644,"uke":12645,"Ġta":12646,"Ġtide":12647,"Ġpup":12648,"star":12649,"still":12650,"stuck":12651,"otor":12652,"Ġstash":12653,"ĠHonestly":12654,"atered":12655,"iceable":12656,"ĠMac":12657,"Ġspies":12658,"Ġseeking":12659,"leans":12660,"Ġswell":12661,"Ġscouts":12662,"Ġsnoo":12663,"Ġenjo":12664,"Ġdiverse":12665,"Ġfizzy":12666,"Ġhumble":12667,"def":12668,"Ġdehyd":12669,"Ġendangered":12670,"Ġjumper":12671,"Ġuntou":12672,"Ġchrys":12673,"Ġrising":12674,"cium":12675,"rawls":12676,"Ġcreak":12677,"Ġmilkshake":12678,"Ġexped":12679,"Ġperf":12680,"Ġmedium":12681,"Ġinternal":12682,"Ġinterrupting":12683,"Ġalongside":12684,"Ġelectrons":12685,"Ġcurric":12686,"Shakes":12687,"Ġtunnels":12688,"chain":12689,"Ġmatching":12690,"lift":12691,"Ġreplant":12692,"Ġweaving":12693,"Ġexplosive":12694,"ĠIndustrial":12695,"Ġefficiency":12696,"Fluffy":12697,"Ġsketching":12698,"Ġfunctional":12699,"Ġsmoky":12700,"Ġbundle":12701,"Ġhooves":12702,"Ġdistribute":12703,"Ġcosmic":12704,"Ġpsych":12705,"Ġinstincts":12706,"Ġfisherman":12707,"Ġgrammar":12708,"Ġintelligence":12709,"Ġtrowel":12710,"Int":12711,"Sled":12712,"tling":12713,"Ġig":12714,"erable":12715,"Ġclocks":12716,"Ġcinnamon":12717,"Ġfaint":12718,"stream":12719,"athe":12720,"ĠTowel":12721,"Ġplush":12722,"ĠBlock":12723,"ĠHope":12724,"ĠCam":12725,"Ġwheat":12726,"Ġalg":12727,"amine":12728,"Ġshaky":12729,"Ġcarouse":12730,"Ġwavy":12731,"iping":12732,"Ġsadness":12733,"Ġbadge":12734,"ĠKids":12735,"Ġrises":12736,"Ġdripping":12737,"Ġcutter":12738,"Ġrecon":12739,"Ġpatiently":12740,"Ġrepeating":12741,"Ġantique":12742,"Ġpressed":12743,"Ġcube":12744,"Ġmomentum":12745,"Ġphotograph":12746,"Ġbuckled":12747,"Ġcurse":12748,"Ġpumped":12749,"Ġorganism":12750,"ĠAnna":12751,"Ġcharacteristics":12752,"Ġstems":12753,"Ġradiation":12754,"Ġladybugs":12755,"Ġtalents":12756,"Ġswitching":12757,"Ġstreams":12758,"Ġfearless":12759,"Ġadaptations":12760,"black":12761,"writer":12762,"Ġmagnific":12763,"ĠChurch":12764,"Ġgreater":12765,"Ġfundamental":12766,"Ġperiods":12767,"hard":12768,"Ġmechanism":12769,"Ġscribbling":12770,"Wheee":12771,"Ġdodging":12772,"sweeps":12773,"Ġholiday":12774,"ĠTurkey":12775,"ĠMedicine":12776,"Ġdictionary":12777,".âĢĿ":12778,"Bike":12779,"Count":12780,"Caw":12781,"Surpri":12782,"Waves":12783,"bump":12784,"ders":12785,"zon":12786,"zers":12787,"hape":12788,"Ġdying":12789,"Ġnumb":12790,"atical":12791,"Ġovere":12792,"ĠTea":12793,"rained":12794,"Ġjan":12795,"Ġeject":12796,"unction":12797,"ĠMid":12798,"ented":12799,"Ġnocturnal":12800,"ĠDoctors":12801,"acken":12802,"Ġcritter":12803,"Ġcracks":12804,"Ġaccus":12805,"Ġholl":12806,"Ġmeters":12807,"ogly":12808,"Ġrepet":12809,"Ġstored":12810,"Ġempathy":12811,"alent":12812,"Ġstreak":12813,"Ġcurled":12814,"Ġpays":12815,"Ġtexts":12816,"Ġhelicopters":12817,"hooting":12818,"Ġsimulate":12819,"ĠSnowy":12820,"Ġlocks":12821,"Ġdestination":12822,"Ġtosses":12823,"Ġtropical":12824,"Arm":12825,"ĠWoah":12826,"Ġtribe":12827,"Ġzombies":12828,"Ġnumer":12829,"Ġstunts":12830,"Ġfrequency":12831,"ĠStrawberries":12832,"Ġprocedure":12833,"human":12834,"Ġcontroversial":12835,"Ġorchard":12836,"Ġcurriculum":12837,"Nuts":12838,"glass":12839,"Ġsill":12840,"Ġcel":12841,"Ġmil":12842,"omatic":12843,"atoes":12844,"asing":12845,"Ġicing":12846,"rage":12847,"Ġdoable":12848,"irs":12849,"ĠBw":12850,"ĠButton":12851,"Ġnotices":12852,"ĠMud":12853,"ĠHelicop":12854,"ushy":12855,"feed":12856,"Ġhowling":12857,"amily":12858,"Ġbackdrop":12859,"Ġguilt":12860,"ueen":12861,"Ġenforce":12862,"ĠThanksgiving":12863,"ĠFi":12864,"ĠFer":12865,"Ġunity":12866,"Weren":12867,"Ġairport":12868,"Ġreconnect":12869,"ĠVitamins":12870,"Ġserved":12871,"Ġhopefully":12872,"grad":12873,"uggish":12874,"Ġdelive":12875,"Ġregulations":12876,"ĠSays":12877,"Ġtackling":12878,"Ġrobotics":12879,"Ġdirector":12880,"Ġcelebrated":12881,"Ġsandcastles":12882,"Pudding":12883,"Puzzle":12884,"Ġgreasy":12885,"Ġthunderstorm":12886,"Ġattacks":12887,"Ġtubes":12888,"ubby":12889,"Ġwaddles":12890,"Ġhealed":12891,"ĠFireman":12892,"ocate":12893,"Ġqualities":12894,"ĠPolice":12895,"Ġillustrate":12896,"Ġsugary":12897,"Ġremoving":12898,"Cw":12899,"Cuddle":12900,"Pot":12901,"kers":12902,"yp":12903,"Ġwig":12904,"itant":12905,"Ġfue":12906,"Ġlent":12907,"igher":12908,"ata":12909,"ĠSave":12910,"Ġstair":12911,"Ġhorm":12912,"Ġjay":12913,"Ġanat":12914,"Ġdonkeys":12915,"ĠMeat":12916,"ĠMiddle":12917,"ĠMimi":12918,"Ġspar":12919,"Ġease":12920,"Ġwhit":12921,"ĠPopsicle":12922,"imeter":12923,"Ġshave":12924,"ĠRet":12925,"Ġturkeys":12926,"Ġves":12927,"Ġvoy":12928,"ĠFeet":12929,"Ġstrut":12930,"izzy":12931,"Ġdisgu":12932,"Ġripen":12933,"Ġcattle":12934,"Ġpatri":12935,"Ġconsistency":12936,"Ġjogging":12937,"Ġcommunicating":12938,"Ġcapti":12939,"Ġdefending":12940,"Ġmaintenance":12941,"llipop":12942,"Ġblooming":12943,"ĠFinley":12944,"missions":12945,"ĠSqueak":12946,"Ġgifts":12947,"Ġconversations":12948,"harm":12949,"Ġcustomer":12950,"iversary":12951,"Ġdigestive":12952,"Ġspikes":12953,"Ġallergies":12954,"stitution":12955,"Ġcannon":12956,"Ġwrestling":12957,"Ġtangy":12958,"ĠKnowing":12959,"Airplane":12960,"Ġinconven":12961,"Happily":12962,"Ġadrenaline":12963,"ĠEducation":12964,"BC":12965,"Bring":12966,"Foot":12967,"Ze":12968,"avery":12969,"cool":12970,"clock":12971,"dark":12972,"grow":12973,"gles":12974,"mill":12975,"pron":12976,"sleep":12977,"vio":12978,"war":12979,"inge":12980,"Ġ\"'":12981,"orch":12982,"Ġdash":12983,"Ġdawn":12984,"Ġpiv":12985,"Ġine":12986,"mele":12987,"ĠLift":12988,"ĠOri":12989,"uls":12990,"Ġtrump":12991,"Ġoverl":12992,"ĠFaster":12993,"ssss":12994,"Ġbless":12995,"Ġblown":12996,"Ġrapid":12997,"hosp":12998,"Ġslot":12999,"Ġslam":13000,"Ġacted":13001,"Ġreson":13002,"Ġrestart":13003,"Ġdeals":13004,"Ġrival":13005,"grade":13006,"Ġcharts":13007,"Ġrobin":13008,"Ġscratches":13009,"ĠBluebeard":13010,"Small":13011,"Ġsuggestions":13012,"ĠRunning":13013,"Ġdetermine":13014,"ĠFrance":13015,"ambling":13016,"Ġunstoppable":13017,"Ġmarshmallow":13018,"Ġcaptured":13019,"Ġexaggerated":13020,"Ġsatisfied":13021,"Ġfirmly":13022,"Ġescaped":13023,"Pattycake":13024,"Choco":13025,"Ġbolts":13026,"Ġenthusiastically":13027,"Ġvaccines":13028,"ĠChristmas":13029,"Ġscholars":13030,"Ġquartz":13031,"Ġcomponents":13032,"Ġpounding":13033,"Color":13034,"Ġnickname":13035,"Ġevacuate":13036,"Superhero":13037,"Bug":13038,"Con":13039,"Hit":13040,"Rub":13041,"full":13042,"got":13043,"lest":13044,"minal":13045,"ocr":13046,"pet":13047,"İ¶":13048,"itating":13049,"Ġbun":13050,"erc":13051,"Ġtops":13052,"Ġmating":13053,"Ġmatt":13054,"orating":13055,"Ġga":13056,"ĠItaly":13057,"ĠBabe":13058,"Ġupward":13059,"ĠMill":13060,"ĠDef":13061,"ĠPinky":13062,"Ġintro":13063,"Ġdict":13064,"Ġrag":13065,"Ġhears":13066,"Ġfiery":13067,"Ġpod":13068,"Ġdraws":13069,"Ġcomeback":13070,"Ġflush":13071,"Ġnightm":13072,"Ġhousehold":13073,"Ġbrakes":13074,"Ġcontrast":13075,"ĠStore":13076,"ĠStack":13077,"ptical":13078,"Ġteens":13079,"fined":13080,"Ġsickness":13081,"Ġextend":13082,"Ġenerg":13083,"Ġperseverance":13084,"Ġpicnics":13085,"Ġcalming":13086,"Ġfactor":13087,"Ġgoldfish":13088,"Ġseeker":13089,"Ġregions":13090,"ĠJenna":13091,"Ġfascinated":13092,"Ġcelebrating":13093,"unders":13094,"Ġcriminal":13095,"Ġblocked":13096,"Ġvari":13097,"ĠDrawing":13098,"Ġvibrate":13099,"Ġunwind":13100,"Ġnavig":13101,"Tommy":13102,"Uncle":13103,"Ġreferring":13104,"Ġapplication":13105,"Ġvoting":13106,"ĠColor":13107,"ĠGiraffes":13108,"Ġshovels":13109,"qualified":13110,"Dragon":13111,"Ġcitizens":13112,"Ġsmudgy":13113,"Ġrearrange":13114,"Ġkickflip":13115,"Muffin":13116,"Tummy":13117,"ikes":13118,"mine":13119,"searches":13120,"with":13121,"inch":13122,"inic":13123,"Ġwoo":13124,"Ġwal":13125,"Ġsissy":13126,"Ġbay":13127,"Ġpouch":13128,"eady":13129,"Ġoval":13130,"arters":13131,"ighs":13132,"Ġstations":13133,"seed":13134,"Ġreen":13135,"Ġrewrite":13136,"excited":13137,"Ġjag":13138,"ĠCong":13139,"ĠGloves":13140,"mbo":13141,"ilot":13142,"Ġpregn":13143,"Ġcargo":13144,"Ġclicked":13145,"Ġboards":13146,"ĠJane":13147,"ĠDolly":13148,"placed":13149,"Ġsket":13150,"umpt":13151,"Ġgrat":13152,"Ġactors":13153,"Ġhurric":13154,"Ġpainter":13155,"Ġclogged":13156,"Ġlighten":13157,"Ġperfection":13158,"Ġbaton":13159,"matched":13160,"ĠâĢĺ":13161,"Ġzookeepers":13162,"Ġsinking":13163,"Ġshortcuts":13164,"Ġdefender":13165,"Ġskinny":13166,"Ġrevol":13167,"Ġsaltwater":13168,"Ġanniversary":13169,"Sheep":13170,"Smart":13171,"Ġunsha":13172,"Balloon":13173,"Ġchewy":13174,"Ġreviews":13175,"Ġmultitas":13176,"Ġbills":13177,"ĠSandwich":13178,"Ġexamine":13179,"Ġrehearsals":13180,"Ġcycl":13181,"Ġgallery":13182,"Ġspiky":13183,"Fridge":13184,"Ġacrobats":13185,"Ġviolent":13186,"Ġdiversity":13187,"Ġkiwi":13188,"ivorous":13189,"Ġpassengers":13190,"Ġinternational":13191,"ĠAustralia":13192,"20":13193,"Giggling":13194,"Hen":13195,"Mittens":13196,"].":13197,"bones":13198,"hors":13199,"jack":13200,"milk":13201,"wide":13202,"white":13203,"Ġtet":13204,"Ġwilt":13205,"itated":13206,"hive":13207,"Ġcork":13208,"Ġfoul":13209,"Ġmes":13210,"omin":13211,"leen":13212,"legged":13213,"ĠSub":13214,"ĠSister":13215,"arriving":13216,"Ġcanoe":13217,"otive":13218,"Ġstakes":13219,"Ġstability":13220,"ibilities":13221,"Ġreverse":13222,"ungy":13223,"Ġnoticeable":13224,"Ġmakeup":13225,"Ġspons":13226,"ainted":13227,"ĠPigs":13228,"Ġagric":13229,"Ġovercrow":13230,"Ġroared":13231,"Ġpartners":13232,"olk":13233,"Ġdiver":13234,"Ġstumble":13235,"Ġunderstandable":13236,"Ġchases":13237,"Ġunivers":13238,"Ġwrit":13239,"Ġflaw":13240,"ĠIsland":13241,"Ġcrashed":13242,"Ġdecre":13243,"Ġsandpaper":13244,"Ġfloss":13245,"Ġrif":13246,"easing":13247,"Ġspotlight":13248,"ĠAlligators":13249,"pond":13250,"Ġrefract":13251,"Ġedible":13252,"Ġpurr":13253,"Ġchallenged":13254,"opsided":13255,"Ġmeantime":13256,"Donkey":13257,"Ġcomplexity":13258,"Ġbeginner":13259,"Ġloser":13260,"Ġsurvived":13261,"bury":13262,"Ġinvented":13263,"urize":13264,"ĠApplesauce":13265,"ĠMostly":13266,"ĠHeroes":13267,"Ġaffordable":13268,"gae":13269,"ĠGolden":13270,"Ġproofread":13271,"Ġindependence":13272,"breaking":13273,"Ġpyramid":13274,"Ġsemi":13275,"Ġoccasionally":13276,"ĠBrother":13277,"ĠEggs":13278,"Ġplatform":13279,"Ġpersistence":13280,"Crunch":13281,"Ġpreparation":13282,"Ġcurrency":13283,"'âĢĶ":13284,"Gu":13285,"Garden":13286,"Gween":13287,"Our":13288,"cards":13289,"gie":13290,"grandparent":13291,"houses":13292,"nut":13293,"tay":13294,"yellow":13295,"Ġtad":13296,"Ġaye":13297,"Ġmend":13298,"Ġmash":13299,"Ġlord":13300,"Ġlining":13301,"Ġgaps":13302,"Ġner":13303,"Ġwel":13304,"ĠWolves":13305,"Ġlizards":13306,"ighted":13307,"Ġreject":13308,"Ġrebell":13309,"melon":13310,"rich":13311,"Ġthri":13312,"ĠCry":13313,"Ġupright":13314,"ĠDep":13315,"Ġoutrun":13316,"Ġhowever":13317,"aple":13318,"Ġcodes":13319,"oven":13320,"ĠRules":13321,"ĠFill":13322,"Ġfinanc":13323,"Ġslug":13324,"Ġslavery":13325,"ringe":13326,"Ġglands":13327,"Ġgardeners":13328,"Ġripples":13329,"ĠVanilla":13330,"Ġprotector":13331,"spoon":13332,"Ġanti":13333,"Ġclears":13334,"Ġjoins":13335,"Ġprick":13336,"Ġcurl":13337,"Ġsinks":13338,"ĠCarrot":13339,"Ġbarked":13340,"Ġexpects":13341,"Ġscratched":13342,"Ġunfold":13343,"chase":13344,"handed":13345,"Ġtennis":13346,"Ġseasick":13347,"Ġlantern":13348,"Ġwobbling":13349,"Ġproviding":13350,"Ġsubstit":13351,"Ġaccurately":13352,"Ġimitating":13353,"Ġclaims":13354,"Ġmutual":13355,"Ġentertaining":13356,"Ġindividuals":13357,"Ġexaggerating":13358,"Ġtiptoed":13359,"Ġmimicking":13360,"Ġastro":13361,"Ġacknowledge":13362,"Ġviolence":13363,"Ġbobsle":13364,"electric":13365,"ĠQueen":13366,"Ġmytho":13367,"Ġhierogly":13368,"ĠKnights":13369,"Ġgoofy":13370,"Ġreferee":13371,"Ġwasted":13372,"Ġhygiene":13373,"Ġenjoys":13374,"Ġmagnificent":13375,"Circus":13376,"Fire":13377,"Jelly":13378,"Life":13379,"Pee":13380,"Wee":13381,"cence":13382,"laughing":13383,"oly":13384,"par":13385,"udy":13386,"Ġtus":13387,"Ġwife":13388,"Ġsling":13389,"hap":13390,"Ġcling":13391,"Ġcops":13392,"orke":13393,"Ġpacing":13394,"llect":13395,"Ġnag":13396,"atically":13397,"Ġump":13398,"idays":13399,"Ġrank":13400,"ĠHar":13401,"ĠHair":13402,"Ġsoared":13403,"Ġmyth":13404,"isit":13405,"hane":13406,"ĠMountain":13407,"Ġshuffle":13408,"loom":13409,"Ġalgae":13410,"Ġcoding":13411,"Ġshady":13412,"umed":13413,"Ġvul":13414,"Ġcomments":13415,"Ġunderachiever":13416,"sses":13417,"mail":13418,"Ġsquiggly":13419,"Ġgreens":13420,"related":13421,"Ġ11":13422,"awake":13423,"Ġcramp":13424,"iggled":13425,"ormal":13426,"Ġmornings":13427,"Ġstandards":13428,"Ġexplains":13429,"Playground":13430,"Ġpatches":13431,"Ġmustard":13432,"Ġfootage":13433,"toddles":13434,"Ġsimply":13435,"Ġmarriage":13436,"Ġregional":13437,"Ġwarfare":13438,"Ġtemple":13439,"Ġcompeting":13440,"Ġgenerate":13441,"Ġgeology":13442,"Ġposts":13443,"Ġposture":13444,"ĠCoat":13445,"Ġcooling":13446,"Ġunbeatable":13447,"Ġoccup":13448,"ĠGetting":13449,"Ġrehearse":13450,"Ġsniffing":13451,"Ġmotivated":13452,"Ġouchy":13453,"Ġconstellation":13454,"Ġsupervision":13455,"Ġunderestim":13456,"Ġbolted":13457,"Grabs":13458,"ĠAmazon":13459,"Ġencyclopedia":13460,"Bub":13461,"Baa":13462,"Chill":13463,"Gar":13464,"Leg":13465,"Mother":13466,"Pajamas":13467,"Tick":13468,"aire":13469,"blue":13470,"dec":13471,"hook":13472,"oids":13473,"picking":13474,"Ġ+":13475,"Ġwatered":13476,"itis":13477,"Ġtoad":13478,"Ġyawns":13479,"Ġlag":13480,"orious":13481,"Ġpiling":13482,"Ġguts":13483,"strap":13484,"lem":13485,"leeve":13486,"ĠTold":13487,"ĠSeed":13488,"ottle":13489,"Ġforced":13490,"Ġplumber":13491,"alm":13492,"alis":13493,"ĠHose":13494,"ĠCastle":13495,"asso":13496,"Ġswipe":13497,"uckling":13498,"Ġscri":13499,"Ġdaylight":13500,"...?":13501,"Ġotherwise":13502,"ĠFantastic":13503,"neys":13504,"Ġaward":13505,"Ġdemon":13506,"Ġglac":13507,"returning":13508,"Ġsnowmen":13509,"Ġlogo":13510,"people":13511,"Ġattempt":13512,"ĠSpain":13513,"irection":13514,"Ġmissp":13515,"bridge":13516,"Ġticking":13517,"Ġgrassho":13518,"Ġemphas":13519,"rapy":13520,"Ġcalcium":13521,"Ġconfid":13522,"Ġcursed":13523,"Ġdrugs":13524,"Ġorganization":13525,"Ġdollar":13526,"Ġwasteful":13527,"Spwash":13528,"ĠArm":13529,"Ġadaptation":13530,"Ġcopying":13531,"Ġpuppets":13532,"Ġachiever":13533,"Ġeconomics":13534,"Ġcaution":13535,"Ġsuspense":13536,"Ġconstruct":13537,"ĠGravity":13538,"Ġmenu":13539,"Ġroasted":13540,"ĠAirplane":13541,"Ġresilient":13542,"Understanding":13543,"Ġglory":13544,"Ġsafari":13545,"Ġexcessive":13546,"ophyll":13547,"efficient":13548,"Ġmultiplication":13549,"!âĢĿ":13550,"Bown":13551,"Frown":13552,"Frog":13553,"Per":13554,"bowl":13555,"Ġdaughter":13556,"ĠTrain":13557,"ĠSowwy":13558,"Ġinappropriate":13559,"Ġreform":13560,"Ġhula":13561,"ĠABC":13562,"ĠBats":13563,"ĠLess":13564,"ĠNigh":13565,"ĠObs":13566,"Ġalli":13567,"ĠMess":13568,"ĠGe":13569,"ĠGoo":13570,"mbles":13571,"Ġhive":13572,"amorp":13573,"Ġintest":13574,"Ġremembers":13575,"Ġpeer":13576,"Ġpoetic":13577,"Ġskid":13578,"Ġmoms":13579,"Ġmommies":13580,"tif":13581,"Ġdisasters":13582,"Ġhotter":13583,"ĠKitchen":13584,"Ġbelts":13585,"shhh":13586,"Ġmonarch":13587,"Ġsmartest":13588,"Ġtreatments":13589,"Ġfootsteps":13590,"Ġconscious":13591,"Ġlaun":13592,"Ġtying":13593,"boarding":13594,"Ġelectroc":13595,"Ġparad":13596,"Ġranch":13597,"Ġfreshwater":13598,"ĠClara":13599,"Ġindig":13600,"ĠAsk":13601,"Ġmotorcycles":13602,"iffy":13603,"Ġlawnm":13604,"Ġcommittee":13605,"Ġphysically":13606,"Ġtanks":13607,"ĠSnuggles":13608,"Ġshoots":13609,"Ġfailure":13610,"Ġparticipating":13611,"ĠGrab":13612,"ĠConf":13613,"Ġskeptical":13614,"Ġblinking":13615,"Ġasth":13616,"Ġscreaming":13617,"Ġhyphen":13618,"ĠZebras":13619,"Ġsample":13620,"Ġfibers":13621,"Ġpoisonous":13622,"ĠClouds":13623,"Messy":13624,"Ġhusband":13625,"Ġelegant":13626,"Ġmaxim":13627,"responsible":13628,"Ġjanitor":13629,"Ġreenact":13630,"Apology":13631,"Castle":13632,"Sunny":13633,"Top":13634,"ae":13635,"ault":13636,"bat":13637,"flower":13638,"geable":13639,"know":13640,"taps":13641,"windy":13642,"Ġtid":13643,"Ġtame":13644,"Ġwart":13645,"Ġcig":13646,"Ġtomb":13647,"Ġlure":13648,"Ġlact":13649,"Ġpease":13650,"Ġpins":13651,"eave":13652,"Ġnapping":13653,"Ġnorms":13654,"ooper":13655,"ĠShirt":13656,"Ġhare":13657,"about":13658,"ĠAstron":13659,"ĠBake":13660,"eehaw":13661,"Ġtipping":13662,"ĠCanyon":13663,"Ġswoosh":13664,"ilized":13665,"Ġscout":13666,"Ġoverc":13667,"ĠDoll":13668,"ssip":13669,"Ġtwists":13670,"alsa":13671,"Ġmakeshift":13672,"Ġflatter":13673,"rinkles":13674,"bbed":13675,"Ġwarmed":13676,"Ġforeign":13677,"Ġthankfully":13678,"click":13679,"Ġdoorbell":13680,"Ġruins":13681,"Ġartistic":13682,"Ġreplen":13683,"ontail":13684,"Ġjoint":13685,".)*":13686,"Ġsealed":13687,"Ġfreezes":13688,"Ġsubtle":13689,"ĠUnion":13690,"Ġhyped":13691,"Ġaprons":13692,"Ġstrips":13693,"woken":13694,"Ġreplica":13695,"ĠBlanket":13696,"ombie":13697,"Ġversatile":13698,"Ġcircular":13699,"Ġdedicate":13700,"Ġrecognized":13701,"Ġseesaw":13702,"Ġmechanics":13703,"slides":13704,"Ġlenses":13705,"Ġescaping":13706,"Ġsqueaky":13707,"Ġsenior":13708,"Overhearing":13709,"Ġbobsled":13710,"Ġritual":13711,"ĠRabbit":13712,"Ġintimidating":13713,"Ġrecyclable":13714,"Ġorchestra":13715,"ĠFiretruck":13716,"Em":13717,"aling":13718,"dro":13719,"lets":13720,"pare":13721,"ride":13722,"vised":13723,"za":13724,"Ġpoof":13725,"Ġoils":13726,"ĠTop":13727,"Ġonions":13728,"ĠBiology":13729,"ĠChi":13730,"ĠCertainly":13731,"aret":13732,"arely":13733,"isins":13734,"ĠGween":13735,"Ġkeeper":13736,"Ġdipl":13737,"Ġraft":13738,"abled":13739,"Button":13740,"Ġredes":13741,"Ġprints":13742,"tier":13743,"issance":13744,"Ġflippers":13745,"Ġdefl":13746,"Ġlightweight":13747,"Ġcompelling":13748,"Stomp":13749,"Ġlolly":13750,"Ġexposed":13751,"Ġforgets":13752,"chedule":13753,"Ġleftovers":13754,"uality":13755,"Ġfreely":13756,"Ġpeels":13757,"Ġincorrect":13758,"brained":13759,"ĠUnfortunately":13760,"Ġinstructor":13761,"Ġdiscount":13762,"Ġsymbolism":13763,"Ġunexpl":13764,"Ġpunish":13765,"ritious":13766,"Ġrhyme":13767,"Ġmerchant":13768,"Ġmermaid":13769,"Ġpriceless":13770,"Ġmicrophone":13771,"Ġparticularly":13772,"aunting":13773,"Applesauce":13774,"Ġsnowshoe":13775,"Lunchtime":13776,"Ġcavities":13777,"ĠHammer":13778,"ĠCommun":13779,"ĠEgyptians":13780,"Ġlyrics":13781,"ĠVenus":13782,"Pancake":13783,"Ġoverprotective":13784,"Ġmembrane":13785,"Ġmattress":13786,"grandparents":13787,"Keys":13788,"Kitchen":13789,"Ret":13790,"cript":13791,"tic":13792,"hem":13793,"Ġsulf":13794,"Ġlatch":13795,"Ġlumber":13796,"Ġdart":13797,"owing":13798,"ada":13799,"asper":13800,"Ġbells":13801,"Ġstats":13802,"sex":13803,"ĠApo":13804,"alp":13805,"ĠLand":13806,"Ġeclip":13807,"robe":13808,"Ġspe":13809,"ĠDilly":13810,"ĠGum":13811,"ulas":13812,"Ġnowadays":13813,"amous":13814,"Ġcob":13815,"ĠPhew":13816,"ĠPhot":13817,"Ġbuoy":13818,"ĠEar":13819,"ongue":13820,"Ġsche":13821,"ĠRex":13822,"Ġbrat":13823,"Ġprojector":13824,"Ġcheater":13825,"Ġchamele":13826,"Ġleague":13827,"Ġmanages":13828,"issue":13829,"Ġgrowling":13830,"Ġfoggy":13831,"Ġdism":13832,"Ġchor":13833,"Ġswimmy":13834,"Ġbasil":13835,"Ġsmartphone":13836,"Ġpatio":13837,"Ġsideways":13838,"ĠAnyone":13839,"Ġprime":13840,"Ġconfuse":13841,"ĠTrans":13842,"Ġhunts":13843,"Ġspinach":13844,"Ġhistorian":13845,"Ġpredator":13846,"Ġtravelers":13847,"Ġinflate":13848,"Ġillusion":13849,"Ġdocumentaries":13850,"Ġachievement":13851,"Ġsniffed":13852,"Ġthreads":13853,"ĠInto":13854,"ĠSkating":13855,"Ġrawhide":13856,"Ġestab":13857,"Ġclarify":13858,"ĠExplore":13859,"Ġprobability":13860,"Ġpharaohs":13861,"Ġthorns":13862,"ĠðŁİ¶":13863,"Ġfidget":13864,"Ġenzymes":13865,"Ġcrotchet":13866,"Room":13867,"cro":13868,"don":13869,"lan":13870,"last":13871,"ufact":13872,"vis":13873,"vag":13874,"wease":13875,"Ġtiring":13876,"Ġthaw":13877,"Ġbust":13878,"ergy":13879,"Ġlopsided":13880,"Ġpes":13881,"Ġpion":13882,"keye":13883,"ĠTech":13884,"ĠSled":13885,"ĠSugar":13886,"Ġhaird":13887,"ĠWee":13888,"mell":13889,"ĠBiting":13890,"verb":13891,"unning":13892,"urrect":13893,"Ġproactive":13894,"Ġtryouts":13895,"Ġsnorke":13896,"Ġcomedy":13897,"Ġconver":13898,"ĠFries":13899,"Ġcrater":13900,"Ġchomp":13901,"Ġslowing":13902,"Ġsplatter":13903,"althy":13904,"Str":13905,"Ġdesper":13906,"Ġcountrys":13907,"Playing":13908,"monade":13909,"Ġfireplace":13910,"Ġwoodworking":13911,"Ġmixer":13912,"ĠGoing":13913,"Ġinterfere":13914,"Ġmarch":13915,"Ġbucks":13916,"Ġsupported":13917,"ooping":13918,"Swish":13919,"Ġassigned":13920,"Ġlays":13921,"Ġzooms":13922,"Ġinsult":13923,"ĠOranges":13924,"Ġfoxes":13925,"Ġscenar":13926,"cheese":13927,"Ġexpressions":13928,"Ġuncertain":13929,"Ġnonfat":13930,"Ġcrumbly":13931,"Ġblond":13932,"Ġbarefoot":13933,"Ġapologized":13934,"Ġpropose":13935,"Ġvolunteering":13936,"000":13937,"Ġcomposting":13938,"ĠBlackbeard":13939,"Rolls":13940,"Trust":13941,"Ġcompassion":13942,"Ġsketchy":13943,"Always":13944,"regular":13945,"Ġexaggerate":13946,"Ġinfected":13947,"Ġcomfortably":13948,"Monkeys":13949,"Ġseals":13950,"Ġtrends":13951,"ĠRecycling":13952,"Ġmotivation":13953,"Ġgallop":13954,"Ġscrapbook":13955,"ĠTalking":13956,"Ġleapfrog":13957,"Ġacadem":13958,"Ġcolonial":13959,"Ġswooped":13960,"ĠWhispering":13961,"Ġadvertise":13962,"...'\"":13963,"Ġsouven":13964,"Ġsaxophone":13965,"ĠSpeedy":13966,"Ġcountryside":13967,"dough":13968,"non":13969,"ridge":13970,"rann":13971,"tap":13972,"urist":13973,"Ġsake":13974,"Ġschoo":13975,"itary":13976,"Ġtoler":13977,"anned":13978,"Ġmitten":13979,"Ġdunk":13980,"Ġpm":13981,"Ġpeep":13982,"Ġgau":13983,"Ġgender":13984,"ommod":13985,"ĠTues":13986,"ĠSim":13987,"adventure":13988,"Ġheir":13989,"Ġforbid":13990,"ĠYewwow":13991,"Ġplag":13992,"lying":13993,"Ġspun":13994,"amas":13995,"ĠPajamas":13996,"Ġbuds":13997,"Ġscandal":13998,"irsty":13999,"geon":14000,"Ġimpat":14001,"ĠJew":14002,"Ġdowns":14003,"Ġsmudge":14004,"Ġhandsome":14005,"Ġblot":14006,"Ġpecking":14007,"ddled":14008,"Ġbookmark":14009,"Ġunbelie":14010,"Ġslurp":14011,"Ġsites":14012,"ĠUnd":14013,"Ġchocol":14014,"Ġsynt":14015,"Ġhorsey":14016,"Ġhorseback":14017,"Ġtracking":14018,"Ġterror":14019,"Ġpolish":14020,"Ġshocked":14021,"Swings":14022,"Ġforgiving":14023,"Ġluckily":14024,"Ġpeacock":14025,"Ġevolve":14026,"Ġbackpacks":14027,"Ġperformers":14028,"Ġnutritious":14029,"Ġdecorated":14030,"ĠTeachers":14031,"Ġpollut":14032,"Ġconcerts":14033,"Ġprofessor":14034,"Throws":14035,"Ġmoderation":14036,"ĠWalking":14037,"Ġdeadlines":14038,"Ġbudge":14039,"Ġresistant":14040,"Ġgraduate":14041,"Ġfolk":14042,"Ġambul":14043,"Ġinfections":14044,"Ġoccasions":14045,"Ġswamped":14046,"Ġwondered":14047,"Ġskaters":14048,"Ġgranted":14049,"Ġbonus":14050,"ĠPancake":14051,"Ġ1800":14052,"Ġacrobat":14053,"limits":14054,"Ġjitterbug":14055,"texting":14056,"Brother":14057,"Ġsuspicious":14058,"Ġchrysalis":14059,"Ġcarousel":14060,"Ġscrimm":14061,"Ġalliances":14062,"ĠTuesday":14063,"Gr":14064,"Lion":14065,"Meat":14066,"Point":14067,"Simon":14068,"Team":14069,"cers":14070,"gum":14071,"ilo":14072,"iated":14073,"lant":14074,"rint":14075,"sions":14076,"tish":14077,"west":14078,"washer":14079,"yucky":14080,"inet":14081,"Ġmol":14082,"Ġmile":14083,"stant":14084,"ĠTen":14085,"ĠTractor":14086,"ĠShoe":14087,"ĠWin":14088,"Ġstall":14089,"mered":14090,"Ġplop":14091,"Ġsod":14092,"Ġthunders":14093,"Ġkart":14094,"Ġalley":14095,"assy":14096,"ĠGinger":14097,"elled":14098,"Ġ*[":14099,"agious":14100,"Ġpreheat":14101,"Ġclubs":14102,"Ġimplic":14103,"ĠSocks":14104,"Ġaggra":14105,"ĠDoctor":14106,"Ġfift":14107,"Ġski":14108,"ffeine":14109,"Ġbreast":14110,"Ġslang":14111,"osc":14112,"acles":14113,"Ġsettles":14114,"Ġcrun":14115,"Ġdisin":14116,"Ġclos":14117,"Ġcompound":14118,"Ġbeams":14119,"ĠKe":14120,"Ġbrothers":14121,"Plate":14122,"Ġgamer":14123,"guin":14124,"riced":14125,"izzle":14126,"Ġassass":14127,"ifications":14128,"Ġlawy":14129,"Ġmelons":14130,"ĠCouldn":14131,"Ġscares":14132,"empty":14133,"Ġroofs":14134,"Ġtransmit":14135,"Ġshim":14136,"Ġnormally":14137,"Ġproduces":14138,"Ġwheelb":14139,"Ġdiscoura":14140,"moking":14141,"Ġfinalize":14142,"offs":14143,
[...]
