{"<|endoftext|>":0,"<UNK>":1,"!":2,"\"":3,"#":4,"$":5,"%":6,"&":7,"'":8,"(":9,")":10,"*":11,"+":12,",":13,"-":14,".":15,"/":16,"0":17,"1":18,"2":19,"3":20,"4":21,"5":22,"6":23,"7":24,"8":25,"9":26,":":27,";":28,"<":29,"=":30,">":31,"?":32,"@":33,"A":34,"B":35,"C":36,"D":37,"E":38,"F":39,"G":40,"H":41,"I":42,"J":43,"K":44,"L":45,"M":46,"N":47,"O":48,"P":49,"Q":50,"R":51,"S":52,"T":53,"U":54,"V":55,"W":56,"X":57,"Y":58,"Z":59,"[":60,"\\":61,"]":62,"^":63,"_":64,"`":65,"a":66,"b":67,"c":68,"d":69,"e":70,"f":71,"g":72,"h":73,"i":74,"j":75,"k":76,"l":77,"m":78,"n":79,"o":80,"p":81,"q":82,"r":83,"s":84,"t":85,"u":86,"v":87,"w":88,"x":89,"y":90,"z":91,"{":92,"|":93,"}":94,"~":95,"¡":96,"¢":97,"£":98,"¤":99,"¥":100,"¦":101,"§":102,"¨":103,"©":104,"ª":105,"«":106,"¬":107,"®":108,"¯":109,"°":110,"±":111,"²":112,"³":113,"´":114,"µ":115,"¶":116,"·":117,"¸":118,"¹":119,"º":120,"»":121,"¼":122,"½":123,"¾":124,"¿":125,"À":126,"Á":127,"Â":128,"Ã":129,"Ä":130,"Å":131,"Æ":132,"Ç":133,"È":134,"É":135,"Ê":136,"Ë":137,"Ì":138,"Í":139,"Î":140,"Ï":141,"Ð":142,"Ñ":143,"Ò":144,"Ó":145,"Ô":146,"Õ":147,"Ö":148,"×":149,"Ø":150,"Ù":151,"Ú":152,"Û":153,"Ü":154,"Ý":155,"Þ":156,"ß":157,"à":158,"á":159,"â":160,"ã":161,"ä":162,"å":163,"æ":164,"ç":165,"è":166,"é":167,"ê":168,"ë":169,"ì":170,"í":171,"î":172,"ï":173,"ð":174,"ñ":175,"ò":176,"ó":177,"ô":178,"õ":179,"ö":180,"÷":181,"ø":182,"ù":183,"ú":184,"û":185,"ü":186,"ý":187,"þ":188,"ÿ":189,"Ā":190,"ā":191,"Ă":192,"ă":193,"Ą":194,"ą":195,"Ć":196,"ć":197,"Ĉ":198,"ĉ":199,"Ċ":200,"ċ":201,"Č":202,"č":203,"Ď":204,"ď":205,"Đ":206,"đ":207,"Ē":208,"ē":209,"Ĕ":210,"ĕ":211,"Ė":212,"ė":213,"Ę":214,"ę":215,"Ě":216,"ě":217,"Ĝ":218,"ĝ":219,"Ğ":220,"ğ":221,"Ġ":222,"ġ":223,"Ģ":224,"ģ":225,"Ĥ":226,"ĥ":227,"Ħ":228,"ħ":229,"Ĩ":230,"ĩ":231,"Ī":232,"ī":233,"Ĭ":234,"ĭ":235,"Į":236,"į":237,"İ":238,"ı":239,"Ĳ":240,"ĳ":241,"Ĵ":242,"ĵ":243,"Ķ":244,"ķ":245,"ĸ":246,"Ĺ":247,"ĺ":248,"Ļ":249,"ļ":250,"Ľ":251,"ľ":252,"Ŀ":253,"ŀ":254,"Ł":255,"ł":256,"Ń":257,"Ġt":258,"he":259,"Ġa":260,"in":261,"er":262,"Ġthe":263,"on":264,"re":265,"an":266,"Ġo":267,"is":268,"Ġw":269,"Ġs":270,"ed":271,"or":272,"at":273,"en":274,"ar":275,"es":276,"Ġin":277,"Ġc":278,"Ġof":279,"it":280,"al":281,"Ġf":282,"nd":283,"as":284,"Ġb":285,"Ġp":286,"Ġand":287,"ic":288,"ing":289,"Ġm":290,"ou":291,"Ġto":292,"ion":293,"le":294,"om":295,"Ġd":296,"ĠS":297,"Ġh":298,"Ġ1":299,"ĠT":300,"ĠA":301,"il":302,"ĠC":303,"Ġis":304,"am":305,"ent":306,"st":307,"Ġwas":308,"ro":309,"el":310,"Ġl":311,"ĠM":312,"ol":313,"Ġre":314,"ĠI":315,"Ġn":316,"ĠH":317,"Ġ2":318,"ad":319,"ct":320,"Ġth":321,"ĠB":322,"et":323,"Ġon":324,"us":325,"Ġ\"":326,"iv":327,"ch":328,"ur":329,"ĠP":330,"Ġfor":331,"id":332,"ot":333,"Ġe":334,"ir":335,"Ġ(":336,"ay":337,"Ġ19":338,"Ġg":339,"ce":340,"ly":341,"im":342,"ow":343,"ĠThe":344,"ation":345,"ig":346,"Ġbe":347,"Ġ20":348,"ter":349,"un":350,"Ġst":351,"ut":352,"her":353,"Ġas":354,"ĠR":355,"ers":356,"ĠF":357,"em":358,"ĠD":359,"ra":360,"and":361,"ĠL":362,"ith":363,"ĠG":364,"ĠN":365,"ist":366,"th":367,"ul":368,"ĠJ":369,"ĠW":370,"Ġal":371,"Ġan":372,"Ġby":373,"Ġwith":374,"ver":375,"rom":376,"op":377,"os":378,"ag":379,"Ġhe":380,"ĠE":381,"Ġat":382,"um":383,"Ġ=":384,"Ġwh":385,"ber":386,"est":387,"Ġthat":388,"ri":389,"'s":390,"Ġfrom":391,"art":392,"ac":393,"The":394,"av":395,"Ġare":396,"ity":397,"ain":398,"od":399,"all":400,"ĠHe":401,"ĠO":402,"Ġit":403,"ĠU":404,"Ġcom":405,"Ġde":406,"ia":407,"Ġcon":408,"ill":409,"ian":410,"Ġse":411,"ĠIt":412,"res":413,"if":414,"ies":415,"ov":416,"ĠK":417,"oc":418,"ak":419,"Ġv":420,"Ġ201":421,"Ġpro":422,"Ġor":423,"Ġpl":424,"ate":425,"nt":426,"Ġhis":427,"ud":428,"ld":429,"ap":430,"ore":431,"ard":432,"ew":433,"ort":434,"Ġr":435,"ab":436,"pe":437,"ant":438,"ich":439,"ĠSt":440,"ame":441,"ip":442,"se":443,"igh":444,"ub":445,"ary":446,"ĠIn":447,"Ġch":448,"ge":449,"up":450,"ong":451,"âĢ":452,"ess":453,"ere":454,"ated":455,"our":456,"so":457,"mer":458,"Ġk":459,"qu":460,"ive":461,"ie":462,"ment":463,"end":464,"ast":465,"ĠCh":466,"ound":467,"ear":468,"Ġwere":469,"ust":470,"00":471,"ost":472,"ell":473,"gh":474,"ish":475,"ep":476,"Ġex":477,"orn":478,"Ġalso":479,"Ġle":480,"ran":481,"ount":482,"ial":483,"ord":484,"Ġhas":485,"ĠV":486,"ine":487,"Ġsh":488,"ire":489,"Ġus":490,"Ġ200":491,"ĠUn":492,"ther":493,"Ġwhich":494,"Ġy":495,"og":496,"uc":497,"own":498,"ure":499,"ave":500,"irst":501,"Ġnot":502,"ork":503,"ight":504,"are":505,"ction":506,"ical":507,"Ġplay":508,"ome":509,"rit":510,"ok":511,"any":512,"cl":513,"Ġfirst":514,"Ġcomp":515,"Ġar":516,"out":517,"ric":518,"ry":519,"ough":520,"ue":521,"Ġte":522,"Ġhad":523,"land":524,"ack":525,"Ġwhe":526,"âĢĵ":527,"Ġun":528,"Ġbec":529,"fter":530,"ous":531,"ide":532,"amp":533,"\".":534,"age":535,"ond":536,"ates":537,"ĠTh":538,"ang":539,"Ġab":540,"ember":541,"ne":542,"Ġpart":543,"ff":544,"ass":545,"ater":546,"Ġcl":547,"Ġhave":548,"ied":549,"In":550,"ited":551,"ational":552,"Ġone":553,"Ġ18":554,"port":555,"ke":556,"iz":557,"Ġtheir":558,"per":559,"ĠĊ":560,"eop":561,"te":562,"ime":563,"\",":564,"wo":565,"ice":566,"ng":567,").":568,"ican":569,"ach":570,"ug":571,"ree":572,"eople":573,"Ġ199":574,"Ġher":575,"Ġser":576,"Ġ3":577,"sh":578,"Ġwho":579,"ign":580,"man":581,"wn":582,"ade":583,"to":584,"ition":585,"),":586,"Ġbut":587,"Ġyear":588,"Ġcan":589,"ens":590,"ory":591,"Ġthey":592,"Ġmov":593,"ĠY":594,"hed":595,"Ġag":596,"Ġj":597,"Ġkn":598,"Ġother":599,"ĠAmer":600,"ally":601,"ĠAl":602,"pl":603,"Ġits":604,"Ġcont":605,"und":606,"over":607,"ould":608,"ts":609,"Ġpeople":610,"tern":611,"Ġthis":612,"ru":613,"Ġad":614,"fer":615,"clud":616,"ĠMar":617,"Ġcomm":618,"aw":619,"low":620,"Ġtwo":621,"ib":622,"ild":623,"Ġap":624,"Ġgr":625,"Ġro":626,"||":627,"ence":628,"one":629,"orm":630,"ace":631,"ĠShe":632,"ased":633,"les":634,"Ġwork":635,"ec":636,"ĠUnited":637,"ult":638,"ph":639,"Ġinclud":640,"Ġ198":641,"ect":642,"old":643,"aus":644,"Ġafter":645,"uring":646,"Ġbeen":647,"ind":648,"ans":649,"Ġres":650,"ubl":651,"Ġknown":652,"ĠAmerican":653,"ark":654,"uch":655,"ood":656,"act":657,"we":658,"iss":659,"Ġsc":660,"ations":661,"ĠAr":662,"ath":663,"orld":664,"Ġper":665,"eb":666,"ob":667,"Ġac":668,"19":669,"ivers":670,"Ġshe":671,"ons":672,"ward":673,"outh":674,"pt":675,"ile":676,"ress":677,"ool":678,"Ġ197":679,"Ġsp":680,"Ġrec":681,"ĠNew":682,"Ġcall":683,"ident":684,"ake":685,"oin":686,"orth":687,"vel":688,"io":689,"Ġ4":690,"Ġen":691,"Ġabout":692,"ings":693,"ounty":694,"Ġused":695,"une":696,"Ġact":697,"Ġup":698,"Ġdis":699,"ince":700,"Ġim":701,"Ġinto":702,"ite":703,"ren":704,"ĠDe":705,"ĠStates":706,"Ġmost":707,"ĠLe":708,"Ġspe":709,"ics":710,"20":711,"Ġmade":712,"ah":713,"ĠThis":714,"gan":715,"ors":716,"Ġtime":717,"Ġall":718,"Ġra":719,"Ġfound":720,"oy":721,"ĠThey":722,"Ġele":723,"ces":724,"Ġpol":725,"Ġout":726,"ail":727,"cted":728,"Ġwhen":729,"Ġme":730,"Ġover":731,"ook":732,"Ġthere":733,"Ġ5":734,"Ġoff":735,"Ġmore":736,"red":737,"Ġne":738,"ĠAs":739,"Ġ196":740,"ents":741,"Ġnew":742,"ft":743,"Ġcalled":744,"Ġev":745,"ision":746,"erm":747,"Ġreg":748,"als":749,"Ġmany":750,"oh":751,"ose":752,"ve":753,"Ġbet":754,"ick":755,"ton":756,"Ġteam":757,"ĠâĢĵ":758,"Ġform":759,"oot":760,"ely":761,"very":762,"ten":763,"Ġborn":764,"Ġdes":765,"oup":766,"chool":767,"ral":768,"urn":769,"Ġyears":770,"pr":771,"Ġcol":772,"Ã©":773,"Ġcity":774,"Ġbecame":775,"way":776,"au":777,"Ġsec":778,"Ġhim":779,"Ġfam":780,"ram":781,"ase":782,"ved":783,"anu":784,"ted":785,"Ġpop":786,"rough":787,"ĠFran":788,"Ġdied":789,"che":790,"ance":791,"Ġatt":792,"ily":793,"able":794,"Ġcent":795,"Ġ6":796,"Ġbu":797,"reat":798,"Âł":799,"Ġthem":800,"Ġtra":801,"ween":802,"Ġonly":803,"ks":804,"ause":805,"Ġrele":806,"overn":807,"ions":808,"ober":809,"Ġmus":810,"son":811,"Ġdo":812,"under":813,"ship":814,"ĠSh":815,"Ġpre":816,"ike":817,"iversity":818,"Ġstud":819,"ĠCom":820,"ll":821,"ife":822,"Ġplayed":823,"ĠInd":824,"ames":825,"oth":826,"rib":827,"ball":828,"Ġloc":829,"ix":830,"Ġ7":831,"Ġpr":832,"ik":833,"Ġagain":834,"Ġpopul":835,"ived":836,"du":837,"Ġso":838,"ont":839,"Ġwould":840,"Ġwhere":841,"Ġsome":842,"Ġduring":843,"Ġdist":844,"Ġbetween":845,"Ġthan":846,"ĠEng":847,"ener":848,"Ġ195":849,"Ġ194":850,"ict":851,"Ġnum":852,"cess":853,"ason":854,"born":855,"az":856,"Ġsy":857,"fore":858,"Ġunder":859,"ann":860,"Ġ8":861,"ept":862,"olog":863,"Ġlar":864,"duc":865,"ished":866,"Ġear":867,"form":868,"inal":869,"Ġspec":870,"enn":871,"ious":872,"Ġname":873,"ier":874,"ĠCounty":875,"Ġthree":876,"aj":877,"ĠRe":878,"iver":879,"Ġpubl":880,"hen":881,"anuary":882,"Ġstart":883,"ced":884,"Ġpres":885,"oun":886,"iel":887,"ars":888,"ins":889,"Ġwe":890,"ever":891,"iet":892,"ilm":893,"til":894,"bum":895,"ĠMay":896,"ities":897,"Ġqu":898,"ines":899,"Ġwrit":900,"Ġsup":901,"Ġdep":902,"inn":903,"Ġdif":904,"Ġsuch":905,"Ġop":906,"ollow":907,"air":908,"Ġco":909,"Ġret":910,"Ġthen":911,"Ġend":912,"ina":913,"Ġcount":914,"ĠJanuary":915,"Ġsing":916,"Ġcons":917,"ative":918,"ouse":919,"ury":920,"Ġlater":921,"ale":922,"ĠZ":923,"der":924,"ash":925,"Ġthrough":926,"Ġsecond":927,"ĠCol":928,"Ġind":929,"Ġwon":930,"ĠUniversity":931,"ays":932,"Ġrel":933,"Ġ193":934,"erson":935,"ley":936,"ock":937,"rans":938,"att":939,"Ġsub":940,"Ġgroup":941,"Ġdire":942,"rict":943,"Ġuntil":944,"Ġ9":945,"ather":946,"Ġstate":947,"Ġshow":948,"Ġmovie":949,"imes":950,"Ġfe":951,"ugust":952,"Ġ17":953,"Ġalbum":954,"ĠJu":955,"Ġfl":956,"ck":957,"other":958,"Ġbl":959,"arri":960,"ement":961,"ĠWorld":962,"ex":963,"ual":964,"amed":965,"eptember":966,"Ġtr":967,"Ġgo":968,"Ġreleased":969,"Ġsong":970,"aid":971,"000":972,"ually":973,"ĠAn":974,"emb":975,"ohn":976,"ĠIs":977,"ister":978,"iam":979,"Ġmay":980,"icip":981,"ern":982,"Ġtown":983,"ĠAust":984,"Ġfour":985,"ĠAugust":986,"ists":987,"ctober":988,"mber":989,"ating":990,"ower":991,"ootball":992,"ĠBrit":993,"Ġpolit":994,"Ġmain":995,"Ġ10":996,"Ġfollow":997,"Ġwell":998,"pril":999,"Ġsm":1000,"ĠSeptember":1001,"Ġrem":1002,"ism":1003,"Ġcre":1004,"Ġam":1005,"ĠAt":1006,"Ġnumber":1007,"ĠMarch":1008,"ros":1009,"Ġinter":1010,"apan":1011,"ĠNov":1012,"ional":1013,"ey":1014,"ĠJune":1015,"Ġbeing":1016,"Ġseries":1017,"Ġdiffer":1018,"Ġass":1019,"ĠPro":1020,"cember":1021,"Ġbecause":1022,"ctor":1023,"Ġph":1024,"ĠJuly":1025,"Ġmusic":1026,"ĠSc":1027,"Ġarea":1028,"Ġcap":1029,"ĠOctober":1030,"oss":1031,"ĠCl":1032,"Ġprov":1033,"Ġchar":1034,"Ġmet":1035,"Ġlong":1036,"stem":1037,"Ġinv":1038,"ality":1039,"ron":1040,"Ġdef":1041,"Ġrecord":1042,"ific":1043,"ĠApril":1044,"Ġgovern":1045,".\"":1046,"Ġcare":1047,"cy":1048,"uro":1049,"ank":1050,"cc":1051,"ital":1052,"uss":1053,"Ġseason":1054,"ĠJapan":1055,"owever":1056,"ague":1057,"Ġlead":1058,"pro":1059,"ures":1060,"Ġbefore":1061,"Ġwill":1062,"Ġ2010":1063,"Ġ15":1064,"ĠDecember":1065,"ives":1066,"ĠOn":1067,"Ġappe":1068,"Ġman":1069,"velop":1070,"ebru":1071,"Ġschool":1072,"ebruary":1073,"artment":1074,"mp":1075,"Ġagainst":1076,"ai":1077,"Ġart":1078,"Ġ16":1079,"arl":1080,"Ġbro":1081,"Ġfilm":1082,"Ġown":1083,"ett":1084,"Ġfamily":1085,"ird":1086,"ĠSp":1087,"Ġvery":1088,"ĠNovember":1089,"ĠFrance":1090,"ject":1091,"Ġsur":1092,"its":1093,"ĠNational":1094,"ĠSouth":1095,"ert":1096,"ĠWar":1097,"my":1098,"Ġent":1099,"ven":1100,"ax":1101,"ĠCon":1102,"ield":1103,"ature":1104,"Ġsame":1105,"ĠCan":1106,"Ġchild":1107,"lish":1108,"ys":1109,"ired":1110,"Ġuse":1111,"Ġdec":1112,"ĠFebruary":1113,"Ġtrans":1114,"Ġage":1115,"row":1116,"ĠYork":1117,"Ġlike":1118,"ets":1119,"Ġincluding":1120,"ters":1121,"ternational":1122,"Ġserv":1123,"ĠJohn":1124,"ants":1125,"Ġformer":1126,"Ġed":1127,"yl":1128,"rop":1129,"Ġmember":1130,"ered":1131,"istory":1132,"ise":1133,"Ġmed":1134,"oman":1135,"ĠHis":1136,"Ġdifferent":1137,"Ġworld":1138,"Ġsmall":1139,"Ġboth":1140,"omen":1141,"ution":1142,"stit":1143,"Ġno":1144,"ese":1145,"ular":1146,"ĠQ":1147,"ull":1148,"erv":1149,"ger":1150,"lev":1151,"br":1152,"omet":1153,"Ġmon":1154,"ampion":1155,"rist":1156,"Ġback":1157,"Ġdid":1158,"Ġmod":1159,"Ġnamed":1160,"Ġsever":1161,"fess":1162,"raph":1163,"On":1164,"He":1165,"ĠBritish":1166,"Ġacc":1167,"ient":1168,"Ġsystem":1169,"Ġbook":1170,"Ġmin":1171,"ium":1172,"Ġnational":1173,"ica":1174,"Ġfootball":1175,"Ġbel":1176,"ĠSw":1177,"Ġ12":1178,"ural":1179,"ĠPr":1180,"Ġhigh":1181,"ĠEuro":1182,"gest":1183,"elf":1184,"ane":1185,"ĠNorth":1186,"Ġgame":1187,"Ġorig":1188,"Ġ192":1189,"ped":1190,"let":1191,"Ġadd":1192,"ĠPh":1193,"Ġsince":1194,"ared":1195,"Ġnorth":1196,"Ġinc":1197,"Ġmat":1198,"erman":1199,"ĠBl":1200,"ĠCal":1201,"ble":1202,"ized":1203,"Ġthese":1204,"Ġdevelop":1205,"ĠComm":1206,"ful":1207,"ĠGr":1208,"Ġsign":1209,"iew":1210,"Ġoffic":1211,"Ġwhile":1212,"pos":1213,"unicip":1214,"Ġlife":1215,"Ġhel":1216,"ĠFor":1217,"Ġnear":1218,"ty":1219,"Ġcareer":1220,"urch":1221,"Ġcur":1222,"Ġbuild":1223,"Ġfin":1224,"Ġpopulation":1225,"Ġband":1226,"Ġgener":1227,"angu":1228,"ĠCity":1229,"arm":1230,"Ġperson":1231,"Ġrep":1232,"rent":1233,"Ġany":1234,"cial":1235,"els":1236,"aking":1237,"ctions":1238,"iving":1239,"Ġgovernment":1240,"Ġ202":1241,"ĠRep":1242,"ox":1243,"ĠBe":1244,"Ġplace":1245,"Ġrece":1246,"Ġstarted":1247,"Ġland":1248,"ĠPres":1249,"Ġbegan":1250,"ĠKing":1251,"Ġoper":1252,"Ġsaid":1253,"ajor":1254,"Ġseveral":1255,"ĠSe":1256,"arn":1257,"Ġold":1258,"Ġ11":1259,"ĠThere":1260,"ĠAd":1261,"Ġyou":1262,"Ġmake":1263,"levision":1264,"hes":1265,"Ġrun":1266,"ĠEurope":1267,"Ġplayer":1268,"ages":1269,"ician":1270,"ĠAustral":1271,"illion":1272,"ilt":1273,"Ġbest":1274,"ange":1275,"Ġorgan":1276,"by":1277,"Ġ2019":1278,"rat":1279,"ink":1280,"âĢĻ":1281,"Ġcould":1282,"ret":1283,"Ġproduc":1284,"Ġ14":1285,"vent":1286,"Ġoften":1287,"Ġest":1288,"Ġsuc":1289,"Ġprog":1290,"ĠEnglish":1291,"Ġdr":1292,"Ġair":1293,"ene":1294,"Ġ13":1295,"Ġaut":1296,"Ġregion":1297,"Ġ2018":1298,"ĠCent":1299,"ĠAfter":1300,"Ġty":1301,"ĠMin":1302,"St":1303,"ove":1304,"itt":1305,"ross":1306,"Ġdeath":1307,"Ġob":1308,"Th":1309,"Ġearly":1310,"the":1311,"ae":1312,"ains":1313,"Ġ2014":1314,"Ġint":1315,"Ġeach":1316,"Ġopen":1317,"Ġaround":1318,"led":1319,"get":1320,"ology":1321,"xt":1322,"Ch":1323,"Ġhead":1324,"akes":1325,"ĠCanad":1326,"ĠGe":1327,"Ġsim":1328,"ries":1329,"fl":1330,"wards":1331,"Ġann":1332,"Ġlaw":1333,"eng":1334,"ided":1335,"ze":1336,"ille":1337,"18":1338,"ĠPl":1339,"Ġmarri":1340,"Ġext":1341,"ible":1342,"ĠCar":1343,"Ġdepartment":1344,"Ġclub":1345,"Ġwater":1346,"ott":1347,"Ġdesign":1348,"Ġ2017":1349,"Ġinst":1350,"Ġjoin":1351,"ograph":1352,"Ġem":1353,"ĠBr":1354,"resent":1355,"ĠAf":1356,"ract":1357,"ute":1358,"ony":1359,"rench":1360,"Ġprodu":1361,"Ġvar":1362,"ampionship":1363,"Ġhome":1364,"oci":1365,"ĠMus":1366,"augh":1367,"ĠLeague":1368,"Ġbr":1369,"ĠAll":1370,"Ġlangu":1371,"Ġlast":1372,"Ġmunicip":1373,"ĠOr":1374,"Ġtelevision":1375,"ĠPresident":1376,"ung":1377,"Ġcolle":1378,"af":1379,"Ġ2020":1380,"ĠWh":1381,"Ġdisc":1382,"ison":1383,"Ġ'":1384,"Ġgu":1385,"erg":1386,"ained":1387,"Ġprofess":1388,"Ġbased":1389,"ĠHowever":1390,"arch":1391,"Ġsouth":1392,"Ġpublic":1393,"Ġcompet":1394,"ek":1395,"Ġ2011":1396,"embers":1397,"por":1398,"ple":1399,"Ġstr":1400,"Ġcharact":1401,"Ġ2016":1402,"me":1403,"arr":1404,"cer":1405,"aint":1406,"reen":1407,"Ġcontin":1408,"ats":1409,"min":1410,"Ġ(\"":1411,"ĠGerman":1412,"Ġ2013":1413,"Ġ2015":1414,"Ġdistrict":1415,"Ġcompany":1416,"Ġcommun":1417,"urg":1418,"for":1419,"ues":1420,"uck":1421,"oard":1422,"van":1423,"ula":1424,"con":1425,"ĠItal":1426,"Ġinclude":1427,"ĠSchool":1428,"ales":1429,"yn":1430,"eth":1431,"Ġ.":1432,"ĠPart":1433,"ino":1434,"Ġdesc":1435,"Ġnow":1436,"side":1437,"Ġterm":1438,"com":1439,"Ġcentury":1440,"ster":1441,"Ġcar":1442,"Ġ-":1443,"Ġimport":1444,"Ġchildren":1445,"ised":1446,"Ġleft":1447,"Ġtook":1448,"Ġheld":1449,"Ġprogram":1450,"ĠPar":1451,"ĠII":1452,"10":1453,"ĠFrench":1454,"eter":1455,"Ġkill":1456,"Ġmil":1457,"Ġlarge":1458,"Ġreturn":1459,"app":1460,"ourn":1461,"Ġ$":1462,"Ġfollowing":1463,"cept":1464,"\")":1465,"ham":1466,"ling":1467,"ody":1468,"co":1469,"Ġmajor":1470,"de":1471,"Ġcounty":1472,"ought":1473,"Ġright":1474,"Ġtit":1475,"ĠMan":1476,"ator":1477,"Ġdiv":1478,"Ġsupport":1479,"ĠGu":1480,"gr":1481,"Ġbuilt":1482,"Ġpass":1483,"Ġserved":1484,"Ġspecies":1485,"Ġalong":1486,"ĠUS":1487,"ĠHer":1488,"hem":1489,"ĠTe":1490,"ĠAss":1491,"ĠEd":1492,"estern":1493,"Ġcountry":1494,"ians":1495,"ior":1496,"Ã¡":1497,"Ġbas":1498,"ĠPol":1499,"Ġmembers":1500,"ĠChrist":1501,"ĠAm":1502,"Ġbus":1503,"Ġhum":1504,"ĠRuss":1505,"ches":1506,"omin":1507,"Ġ2012":1508,"ensus":1509,"Ġsuccess":1510,"ode":1511,"iven":1512,"eder":1513,"ĠFl":1514,"Ġcommune":1515,"ald":1516,"Ġcreated":1517,"inc":1518,"It":1519,"Ġcurrent":1520,"Ġlist":1521,"Ġvill":1522,"ĠWill":1523,"Ġstat":1524,"ience":1525,"ĠWest":1526,"ĠAb":1527,"day":1528,"Ġ25":1529,"rew":1530,"Ġsingle":1531,"ĠBro":1532,"Ġ2008":1533,"ically":1534,"Ġpoin":1535,"ission":1536,"Ġexamp":1537,"Ġif":1538,"ility":1539,"ices":1540,"Ġday":1541,"Ġpolitician":1542,"Ġwent":1543,"ondon":1544,"ĠState":1545,"Ġlived":1546,"aced":1547,"Ġleg":1548,"Ġcommon":1549,"Ġpo":1550,"Ġsoc":1551,"ney":1552,"uk":1553,"aving":1554,"lands":1555,"iness":1556,"ĠGeor":1557,"ued":1558,"ermany":1559,"Ġcr":1560,"chn":1561,"Ġstation":1562,"Ġcontro":1563,"ĠEngland":1564,"Ġshort":1565,"ival":1566,"Ġpower":1567,"Ġclass":1568,"ara":1569,"Ġ30":1570,"Ġsix":1571,"iforn":1572,"Ġ2007":1573,"Ġlocated":1574,"Ġpos":1575,"ments":1576,"ored":1577,"ourt":1578,"Ġocc":1579,"ĠAfric":1580,"Ġeff":1581,"ĠBar":1582,"Ġ2009":1583,"Ġdown":1584,"ĠGermany":1585,"ington":1586,"ifornia":1587,"Ġattack":1588,"alk":1589,"ĠLondon":1590,"Ġsk":1591,"Ġtop":1592,"Ġstill":1593,"Ġmoved":1594,"ĠRepubl":1595,"ner":1596,"Al":1597,"Ġ2006":1598,"Ġvers":1599,"Ġevent":1600,"aster":1601,"hor":1602,"Ġsl":1603,"Ġeng":1604,"Ġpopular":1605,"Ġmillion":1606,"Ġwomen":1607,"Ġimportant":1608,"alth":1609,"ides":1610,"Ġchang":1611,"ĠCalifornia":1612,"Ġfive":1613,"Ġword":1614,"Ġrev":1615,"17":1616,"Ġapp":1617,"ĠAir":1618,"Ġmarried":1619,"rote":1620,"Ġcamp":1621,"ended":1622,"ĠCup":1623,"ves":1624,"sp":1625,"iod":1626,"que":1627,"ĠAng":1628,"ana":1629,"Ġusually":1630,"ĠAnd":1631,"ĠThese":1632,"Ġthird":1633,"idd":1634,"Ġlive":1635,"lex":1636,"ford":1637,"rest":1638,"ĠParty":1639,"ps":1640,"Ġprom":1641,"Ġreceived":1642,"ief":1643,"Ġevery":1644,"ĠRiver":1645,"Ġpresident":1646,"Ġexp":1647,"Ġmuch":1648,"Ġsold":1649,"Ġset":1650,"Ġcame":1651,"Ġallow":1652,"ms":1653,"Ġway":1654,"Ġline":1655,"ined":1656,"ien":1657,"istor":1658,"Ġfather":1659,"amb":1660,"Ġorder":1661,"ata":1662,"Ġpublished":1663,"uff":1664,"osp":1665,"Ġson":1666,"Ġwhat":1667,"Ġanother":1668,"Ġwritten":1669,"ones":1670,"ĠIndian":1671,"Ġ24":1672,"adem":1673,"riend":1674,"ĠâĢ":1675,"aul":1676,"Ġmunicipality":1677,"zer":1678,"ĠMc":1679,"Ġtri":1680,"Ġjust":1681,"Ġwar":1682,"Ġsomet":1683,"idge":1684,"ummer":1685,"12":1686,"Ġcaus":1687,"Ġmen":1688,"Ġexample":1689,"ler":1690,"Ġanim":1691,"Ġworked":1692,"attle":1693,"Ġofficial":1694,"Ġref":1695,"ĠBra":1696,"Ġrole":1697,"Ġeven":1698,"Ġwrote":1699,"ĠColle":1700,"ĠEl":1701,"Ġbecome":1702,"200":1703,"key":1704,"iety":1705,"dom":1706,"Ġ21":1707,"Ġrest":1708,"ĠCo":1709,"gin":1710,"itions":1711,"ev":1712,"Ġtimes":1713,"ĠHouse":1714,"umb":1715,"Ġmark":1716,"Ġdeb":1717,"rog":1718,"ĠX":1719,"itary":1720,"ĠWhen":1721,"oon":1722,"ording":1723,"Ġep":1724,"15":1725,"16":1726,"Ġgiven":1727,"Ġhistory":1728,"med":1729,"Ġgames":1730,"ness":1731,"ified":1732,"raft":1733,"though":1734,"ency":1735,"ĠPark":1736,"ĠChampionship":1737,"hern":1738,"ama":1739,"Ġpar":1740,"inning":1741,"Ġlocal":1742,"Ã¼":1743,"Ġelect":1744,"Ġrefer":1745,"ĠTr":1746,"ele":1747,"Ġcensus":1748,"ĠRoman":1749,"Ġperform":1750,"Ġ&":1751,"Ġperiod":1752,"Ġyoung":1753,"Ġmanag":1754,"Ġrepresent":1755,"ĠSy":1756,"ged":1757,"int":1758,"sc":1759,"Ġannoun":1760,"Ġconsid":1761,"Ġestab":1762,"Ġ22":1763,"Ã¶":1764,"ĠSec":1765,"omb":1766,"ization":1767,"Ġneed":1768,"Ġ()":1769,"alt":1770,"ĠIndia":1771,"uted":1772,"Ġvis":1773,"Ġhouse":1774,"Ġbre":1775,"Ġpresent":1776,"cent":1777,"Ġlargest":1778,"Ġbuilding":1779,"ĠMe":1780,"ĠJapanese":1781,"Ġlanguage":1782,"ĠWilliam":1783,"cil":1784,"emoc":1785,"ĠAmerica":1786,"Ġtw":1787,"astern":1788,"Ġfew":1789,"work":1790,"14":1791,"na":1792,"Ġget":1793,"Ġrepl":1794,"lymp":1795,"orthern":1796,"Ġsol":1797,"aur":1798,"ĠDist":1799,"lin":1800,"Ġvillage":1801,"epend":1802,"Ġ2000":1803,"Ġdue":1804,"ipp":1805,"Ġmonth":1806,"Ġincluded":1807,"alf":1808,"Ġdescrib":1809,"Ġ23":1810,"ges":1811,"Ġ190":1812,"Ġlevel":1813,"par":1814,"Ġ2005":1815,"anc":1816,"Ġspecial":1817,"ole":1818,"ĠPhil":1819,"ĠOlymp":1820,"Ġcharacter":1821,"ĠEx":1822,"conom":1823,"Ġfinal":1824,"ĠMinister":1825,"Ġaward":1826,"Ġtrad":1827,"Ġcapital":1828,"ilar":1829,"ago":1830,"Ġreport":1831,"Ġdirected":1832,"Ġhand":1833,"ask":1834,"iter":1835,"13":1836,"An":1837,"hel":1838,"ivil":1839,"ĠHar":1840,"Ġgreat":1841,"..":1842,"ories":1843,"Ġhelp":1844,"Ġstand":1845,"ĠOne":1846,"ĠAustralia":1847,"ize":1848,"ĠSome":1849,"Ġcountries":1850,"of":1851,"Ġwin":1852,"ĠMed":1853,"ĠEast":1854,"ady":1855,"ĠIts":1856,"Ġdoes":1857,"Ġequ":1858,"ĠGovern":1859,"sk":1860,"stru":1861,"Ġbusiness":1862,"Ġcrit":1863,"Ġfounded":1864,"Ġ26":1865,"ideo":1866,"Ġnext":1867,"oll":1868,"ÃŃ":1869,"Ġgood":1870,"Ġappro":1871,"Ġtem":1872,"aim":1873,"Ġappear":1874,"Ġelection":1875,"Ġusing":1876,"tain":1877,"adu":1878,"Ġactiv":1879,"ĠCollege":1880,"Ġla":1881,"ĠMich":1882,"thern":1883,"reet":1884,"ote":1885,"ases":1886,"Ġgen":1887,"ography":1888,"Ġled":1889,"ĠInternational":1890,"ĠAward":1891,"Cl":1892,"outhern":1893,"Ġcor":1894,"Ġresult":1895,"Ġthose":1896,"Ġmeans":1897,"Ġmag":1898,"rain":1899,"aces":1900,"eneral":1901,"ĠHigh":1902,"Ġ2004":1903,"Ġhow":1904,"Ġfamous":1905,"isc":1906,"ville":1907,"ouncil":1908,"Ġav":1909,"ours":1910,"ico":1911,"ately":1912,"ush":1913,"Ġsent":1914,"oad":1915,"tal":1916,"Ġworks":1917,"pect":1918,"Ġes":1919,"oney":1920,"Ġwithin":1921,"Ġlate":1922,"Ġ27":1923,"ĠSan":1924,"Ġwant":1925,"Ġprofessional":1926,"Ġexper":1927,"ape":1928,"ured":1929,"Ġexpl":1930,"Ġside":1931,"ĠReg":1932,"Ġbody":1933,"Ġrad":1934,"oph":1935,"rick":1936,"Ġturn":1937,"Ġhig":1938,"Ġ28":1939,"Ġproduced":1940,"ĠAc":1941,"Ġorigin":1942,"ched":1943,"Ġjoined":1944,"Ġdet":1945,"urb":1946,"Ġtitle":1947,"ots":1948,"Ġprote":1949,"Ġcult":1950,"Ġoriginal":1951,"Ġeast":1952,"Ġeduc":1953,"iber":1954,"emocrat":1955,"Ġcompos":1956,"ĠDistrict":1957,"reg":1958,"burg":1959,"Ġtoget":1960,"Ġtogether":1961,"Ġtake":1962,"ĠDav":1963,"aut":1964,"Ġfore":1965,"ently":1966,"Ġpolitical":1967,"ĠEuropean":1968,"Ã³":1969,"ering":1970,"ĠCor":1971,"ument":1972,"ached":1973,"arent":1974,"Ġannounced":1975,"ĠPenn":1976,"Ġresp":1977,"Ġfem":1978,"Ġval":1979,"Ġsw":1980,"ĠEn":1981,"yle":1982,"Ġincre":1983,"ĠUnion":1984,"Ġactor":1985,"ĠBel":1986,"rab":1987,"ead":1988,"ĠSen":1989,"ĠSup":1990,"Ġ2021":1991,"ĠSoc":1992,"Ġpost":1993,"ĠLou":1994,"ael":1995,"ĠMon":1996,"Ġ189":1997,"ells":1998,"Ġ100":1999,"Ġauthor":2000,"ĠPer":2001,"After":2002,"ĠEm":2003,"Ġwest":2004,"west":2005,"ala":2006,"Ġ1990":2007,"Ġliving":2008,"pes":2009,"Ġtotal":2010,"ĠCanada":2011,"ration":2012,"aken":2013,"Ġseat":2014,"ades":2015,"vers":2016,"ĠGl":2017,"ociation":2018,"Ġrequ":2019,"ean":2020,"Ġ2001":2021,"Ġaff":2022,"Ġfact":2023,"oe":2024,"Ġinternational":2025,"Ġbig":2026,"ĠSch":2027,"Ġposs":2028,"11":2029,"Ġproble":2030,"ittle":2031,"Ġport":2032,"Ġmean":2033,"Ġfriend":2034,"minist":2035,"cle":2036,"Ġsimilar":2037,"Ġ2022":2038,"Ġide":2039,"Ġlight":2040,"ylvan":2041,"Ġfind":2042,"Ġ29":2043,"ĠDep":2044,"Ġservice":2045,"This":2046,"ery":2047,"eg":2048,"Ġ2003":2049,"Ġgeneral":2050,"Ġdays":2051,"Ġsinger":2052,"most":2053,"ĠPort":2054,"vious":2055,"Ġaged":2056,"Ġput":2057,"ament":2058,"Ġsett":2059,"Ġmaking":2060,"Ġplays":2061,"Ġamong":2062,"As":2063,"aff":2064,"ards":2065,"Ġhapp":2066,"Ġrul":2067,"Ġnon":2068,"Ġbelie":2069,"irl":2070,"avy":2071,"ida":2072,"Ġvol":2073,"Ġpat":2074,"Ġiss":2075,"ĠYou":2076,"ylvania":2077,"olution":2078,"Ġfield":2079,"Ġel":2080,"Ġappeared":2081,"There":2082,"Ġ1980":2083,"ports":2084,"Ġformed":2085,"eum":2086,"ense":2087,"Ġprocess":2088,"Ġstory":2089,"ansas":2090,"self":2091,"Ġvideo":2092,"istics":2093,"50":2094,"Ġbeh":2095,"cast":2096,"ris":2097,"Ġfun":2098,"ruct":2099,"ĠComp":2100,"Ġ2002":2101,"Ġrock":2102,"eh":2103,"anish":2104,"ively":2105,"ops":2106,"ĠDuring":2107,"Ġship":2108,"off":2109,"Ġclos":2110,"Ar":2111,"overed":2112,"berg":2113,"ope":2114,"Ġeffect":2115,"Ġarch":2116,"Ġlost":2117,"Ġ186":2118,"Ġ,":2119,"Ġkilled":2120,"Ġbrother":2121,"flu":2122,"lished":2123,"Ġepis":2124,"Ġter":2125,"Ġplaying":2126,"Ġelected":2127,"tt":2128,"Ġdaugh":2129,"sylvania":2130,"Ġlook":2131,"'t":2132,"gy":2133,"ari":2134,"ĠChurch":2135,"rian":2136,"Ġwithout":2137,"ĠBut":2138,"Ġless":2139,"Ġmother":2140,"ĠSer":2141,"Ġhaving":2142,"ĠMiss":2143,"Ġparty":2144,"rem":2145,"ĠVir":2146,"ĠDemocrat":2147,"ander":2148,"Ġversion":2149,"ĠPennsylvania":2150,"uel":2151,"itional":2152,"ĠHol":2153,"Ġrese":2154,"Ġmilitary":2155,"Ġhuman":2156,"Ġhistor":2157,"199":2158,"Ġinvol":2159,"Ġnov":2160,"line":2161,"Ġtrain":2162,"ĠNor":2163,"field":2164,"oyal":2165,"Ġhost":2166,"ront":2167,"Ġgrow":2168,"ĠMex":2169,"ĠChar":2170,"ĠQue":2171,"urs":2172,"Ġdirector":2173,"ened":2174,"ee":2175,"Ġparts":2176,"hip":2177,"ĠTex":2178,"ĠArmy":2179,"Ġpe":2180,"ĠBy":2181,"ways":2182,"Ġdel":2183,"Ġcontrol":2184,"Ġtechn":2185,"Ġ188":2186,"ya":2187,"Ġcomple":2188,"Ġbeg":2189,"Ġriver":2190,"Ġwife":2191,"Ġgl":2192,"History":2193,"zil":2194,"Ġround":2195,"iddle":2196,"uter":2197,"ream":2198,"ertain":2199,"reek":2200,"Ġdefe":2201,"Ġsit":2202,"Ġdem":2203,"ĠVal":2204,"Ġfre":2205,"Ġcommunity":2206,"iron":2207,"istan":2208,"Ġengine":2209,"Ġseen":2210,"ma":2211,"ĠKingdom":2212,"Ġconf":2213,"âĢĿ":2214,"Ġdest":2215,"ij":2216,"BC":2217,"cts":2218,"Ġestablished":2219,"etwork":2220,"Ġ1970":2221,"Ã¤":2222,"era":2223,"Ġshould":2224,"Ġmatch":2225,"ĠJames":2226,"iers":2227,"bor":2228,"ogn":2229,"pecial":2230,"ĠLa":2231,"ning":2232,"Ġsometimes":2233,"ĠSwed":2234,"ius":2235,"Ġeconom":2236,"ashington":2237,"Ġgot":2238,"km":2239,"bert":2240,"duced":2241,"Ġsocial":2242,"formation":2243,"raw":2244,"Ġrail":2245,"Ġmodern":2246,"rag":2247,"edy":2248,"Ġfeature":2249,"Ġothers":2250,"Ġreal":2251,"Ġhalf":2252,"ills":2253,"iol":2254,"ĠChina":2255,"ĠItalian":2256,"Ġaway":2257,"roy":2258,"aves":2259,"ĠJack":2260,"ĠGeneral":2261,"ĠWe":2262,"ĠPal":2263,"ĠAnt":2264,"Ġareas":2265,"ule":2266,"ria":2267,"Ġgave":2268,"Ġinf":2269,"oor":2270,"ellow":2271,"ĠRepublic":2272,"eal":2273,"Ġhold":2274,"ĠSm":2275,"here":2276,"ademy":2277,"Ġtype":2278,"ĠBer":2279,"Ġprovince":2280,"Ġmount":2281,"oviet":2282,"Ġfood":2283,"ĠKh":2284,"Ġsound":2285,"ights":2286,"Ġstrong":2287,"ĠAngel":2288,"ĠRec":2289,"ĠBrazil":2290,"ĠGeorge":2291,"Ġvarious":2292,"ĠAg":2293,"Ġconsidered":2294,"ĠTexas":2295,"Ġpoint":2296,"Ġstudents":2297,"Ġhy":2298,"obert":2299,"ĠIsland":2300,"Ġ1999":2301,"ĠProv":2302,"Ġfeat":2303,"posed":2304,"forman":2305,"arliam":2306,"Ġprim":2307,"shire":2308,"ĠRich":2309,"Ġproject":2310,"hest":2311,"Sh":2312,"Ġthought":2313,"Ġsee":2314,"aper":2315,"Ġpartic":2316,"Ġblack":2317,"atural":2318,"ĠPri":2319,"Ġsele":2320,"Ġflow":2321,"less":2322,"ena":2323,"arliament":2324,"used":2325,"ids":2326,"Ġsongs":2327,"ĠTur":2328,"Ġtest":2329,"Ġoffice":2330,"itor":2331,"olic":2332,"ĠVirgin":2333,"ivision":2334,"ĠMor":2335,"ĠâĢľ":2336,"icago":2337,"Ġincludes":2338,"Ġindepend":2339,"arth":2340,"Ġappoin":2341,"Ġrace":2342,"Ġreturned":2343,"Ġprevious":2344,"Ġfull":2345,"Ġlet":2346,"now":2347,"abor":2348,"ĠWashington":2349,"Ġindust":2350,"Ġconne":2351,"Ġstar":2352,"Ġstudy":2353,"ĠKore":2354,"ĠLouis":2355,"Ġposition":2356,"Ġstop":2357,"Ġinflu":2358,"ither":2359,"Ġopened":2360,"ĠAp":2361,"Ġgroups":2362,"Ġisland":2363,"aker":2364,"ĠRes":2365,"atch":2366,"30":2367,"Ġ187":2368,"unt":2369,"lear":2370,"Ġ1960":2371,"ĠPaul":2372,"Ġarr":2373,"asons":2374,"ĠSoviet":2375,"inese":2376,"ĠHall":2377,"ĠAustralian":2378,"Ġmult":2379,"Ġadv":2380,"ĠQu":2381,"Ġfail":2382,"Ġclaim":2383,"Ġcomb":2384,"ention":2385,"Ġ1998":2386,"Ġconc":2387,"ospital":2388,"Ġbroad":2389,"Ġbooks":2390,"ump":2391,"Ġdirect":2392,"ccording":2393,"Ġplan":2394,"Ġant":2395,"Ġformula":2396,"Ġmovies":2397,"Ġ1996":2398,"Ġworking":2399,"ĠCouncil":2400,"Ġconstru":2401,"Ġdeveloped":2402,"Ġthings":2403,"ef":2404,"ĠNo":2405,"Ġnomin":2406,"Ġphys":2407,"Ġsay":2408,"Ġroad":2409,"Ġinterest":2410,"eep":2411,"ript":2412,"ĠTown":2413,"ota":2414,"Ġhowever":2415,"itte":2416,"ederal":2417,"Ġdevelopment":2418,"ha":2419,"Ġmoney":2420,"Ġrecorded":2421,"Ġnever":2422,"Ġmy":2423,"Ġcaused":2424,"Ġfrog":2425,"She":2426,"ĠCanadian":2427,"Ġrelig":2428,"ude":2429,"Ġteams":2430,"ences":2431,"imate":2432,"ĠMary":2433,"Ġactress":2434,"Ġdaughter":2435,"Ġshows":2436,"itzer":2437,"Ġmust":2438,"go":2439,"ĠAcademy":2440,"ĠRed":2441,"ĠArt":2442,"wood":2443,"Ġthough":2444,"Ġintro":2445,"ination":2446,"Ġknow":2447,"mb":2448,"Ġmar":2449,"ĠRussian":2450,"omas":2451,"Ġchanged":2452,"ending":2453,"Ġaver":2454,"Ġfire":2455,"ĠMany":2456,"ming":2457,"Ġbecom":2458,"Ġmot":2459,"ances":2460,"ĠCong":2461,"Ġcoach":2462,"Ġpri":2463,"Ġsuccessful":2464,"stitute":2465,"Ġtour":2466,"Ġcond":2467,"Mar":2468,"atic":2469,"Ġlow":2470,"Ġsigned":2471,"Ġfree":2472,"Ġten":2473,"Ġgradu":2474,"lant":2475,"ĠChicago":2476,"Ġlim":2477,"rown":2478,"At":2479,"ĠMil":2480,"ĠItaly":2481,"Ġ|":2482,"ivid":2483,"yr":2484,"year":2485,"Ġ1994":2486,"cis":2487,"Ġ1995":2488,"ournal":2489,"Ġfac":2490,"Ġking":2491,"ergy":2492,"ĠStreet":2493,"ĠMal":2494,"wh":2495,"Ġsex":2496,"ably":2497,"ords":2498,"Ġstates":2499,"ĠAfrica":2500,"ĠIll":2501,"odes":2502,"Ġcontinued":2503,"oo":2504,"ring":2505,"Ġplayers":2506,"ĠMount":2507,"Ġstage":2508,"amm":2509,"Ġfight":2510,"aign":2511,"Ġdescribed":2512,"Ġtre":2513,"ĠAct":2514,"Ġproduction":2515,"ĠHen":2516,"Ġpract":2517,"Ġ1992":2518,"Ġsepar":2519,"atin":2520,"irth":2521,"atter":2522,"Ġlearn":2523,"Ġchurch":2524,"ological":2525,"Ġhard":2526,"Ġimp":2527,"itive":2528,"ye":2529,"Ġdebut":2530,"ĠMart":2531,"Ġfur":2532,"Ġwhite":2533,"estival":2534,"Ġcurrently":2535,"Ġident":2536,"Ġexist":2537,"Ġ31":2538,"Ġchange":2539,"itar":2540,"alls":2541,"oul":2542,"ĠBlack":2543,"rama":2544,"Ġmater":2545,"rap":2546,"Ġtaken":2547,"Ġhimself":2548,"ĠTV":2549,"Ġsqu":2550,"Ġdam":2551,"oice":2552,"irc":2553,"ĠDavid":2554,"198":2555,"ĠGreat":2556,"ux":2557,"mit":2558,"Ġmid":2559,"atives":2560,"abit":2561,"ano":2562,"ĠRoyal":2563,"Ġhon":2564,"Ġproper":2565,"Ġsite":2566,"Ġperforman":2567,"elling":2568,"Ġ50":2569,"iqu":2570,"Ġresearch":2571,"ification":2572,"Ġdi":2573,"ĠAssociation":2574,"board":2575,"sy":2576,"Ġparticip":2577,"Ġbord":2578,"Ġmostly":2579,"Ġleader":2580,"ĠSl":2581,"ĠSpanish":2582,"Ġable":2583,"Ġsug":2584,"ĠFlor":2585,"Ġdeg":2586,"ston":2587,"ockey":2588,"ores":2589,"ĠJew":2590,"ĠFrom":2591,"ĠChinese":2592,"ential":2593,"Ġcop":2594,"ĠJos":2595,"ĠCath":2596,"Ġstars":2597,"cher":2598,"rey":2599,"play":2600,"Ġstudied":2601,"Ġcenter":2602,"Ġmonths":2603,"Ġ1997":2604,"Ġcase":2605,"Ġacross":2606,"Ġview":2607,"ploy":2608,"Ġparent":2609,"ĠCentral":2610,"iment":2611,"Ġnovel":2612,"ĠWith":2613,"ĠSing":2614,"Ġred":2615,"utch":2616,"Ġ1993":2617,"Ġwriter":2618,"writ":2619,"Ġstruct":2620,"ĠMost":2621,"Ġadminist":2622,"Ġmeet":2623,"ĠVirginia":2624,"ĠAfrican":2625,"ka":2626,"Ġground":2627,"den":2628,"Ġcivil":2629,"Ġcast":2630,"ĠBest":2631,"Ġstudio":2632,"ĠGrand":2633,"Ġperformed":2634,"oma":2635,"ements":2636,"Ġeight":2637,"ictor":2638,"Ã¨":2639,"nown":2640,"ĠMet":2641,"Ġrecogn":2642,"ĠPeople":2643,"Ġanc":2644,"ĠLos":2645,"itzerland":2646,"hi":2647,",\"":2648,"oms":2649,"Ġabove":2650,"ittee":2651,"aly":2652,"Ġdise":2653,"ĠCourt":2654,"Ġinit":2655,"utes":2656,"ether":2657,"ona":2658,"Ġappl":2659,"Ġmakes":2660,"eph":2661,"ĠDel":2662,"ĠSal":2663,"ĠPat":2664,"ĠChristian":2665,"Ġheart":2666,"ĠDr":2667,"annel":2668,"band":2669,"ĠParis":2670,"Ġaverage":2671,"Ġpriv":2672,"Ġcy":2673,"ĠUK":2674,"ĠBay":2675,"Ġonce":2676,"Ġweek":2677,"Ġreached":2678,"ĠMont":2679,"Ġseven":2680,"Ġvot":2681,"ky":2682,"ĠDemocratic":2683,"Ġfinished":2684,"ĠSwitzerland":2685,"Ġalmost":2686,"oz":2687,"ĠSam":2688,"craft":2689,"mpire":2690,"Ġdev":2691,"Ge":2692,"sel":2693,"mon":2694,"ein":2695,"ropical":2696,"itch":2697,"Ġdistrib":2698,"iction":2699,"ĠMad":2700,"Amer":2701,"Ġreview":2702,"Ġlives":2703,"Ġ1991":2704,"uit":2705,"aria":2706,"Ġinvest":2707,"isl":2708,"Ġkind":2709,"ĠCarol":2710,"ference":2711,"ray":2712,"Ġevents":2713,"itect":2714,"inois":2715,"Ġrights":2716,"Ġradio":2717,"Ġtreat":2718,"aine":2719,"Ġrelease":2720,"ender":2721,"Ġattem":2722,"heast":2723,"urt":2724,"Ġ[":2725,"Ġread":2726,"ĠDon":2727,"Ġappointed":2728,"Ġ0":2729,"hing":2730,"Ġavail":2731,"âĢĶ":2732,"ĠCenter":2733,"ĠÃ":2734,"Ġended":2735,"hib":2736,"Ġtoo":2737,"Ġplant":2738,"Ġdivision":2739,"ising":2740,"ateg":2741,"Ġwanted":2742,"Ġbetter":2743,"Ġhit":2744,"197":2745,"Ġindivid":2746,"acy":2747,"be":2748,"ique":2749,"ĠNe":2750,"view":2751,"agn":2752,"men":2753,"icle":2754,"acher":2755,"ĠGold":2756,"Ġcancer":2757,"uz":2758,"ĠFirst":2759,"ournament":2760,"ada":2761,"Ġcant":2762,"utive":2763,"Ġpress":2764,"Ġfemale":2765,"Ġsour":2766,"Ġnorthern":2767,"25":2768,"ĠAngeles":2769,"Ġ(;":2770,"ĠGames":2771,"Ġweb":2772,"aining":2773,"olit":2774,"ĠWomen":2775,"Ġinj":2776,"Ġins":2777,"ĠCap":2778,"ĠGod":2779,"Ġartist":2780,"arly":2781,"Ġcand":2782,"Ġmaterial":2783,"round":2784,"ĠFlorida":2785,"Ġcome":2786,"Ġreplaced":2787,"ĠIllinois":2788,"Ġbi":2789,"Ġstyle":2790,"iation":2791,"idence":2792,"ands":2793,"Ġran":2794,"Ġleague":2795,"Ġoriginally":2796,"lt":2797,"Ġtrib":2798,"Ġretired":2799,"retary":2800,"Ġdecl":2801,"Ġdecided":2802,"ĠBas":2803,"Ġstatistics":2804,"read":2805,"Ġinformation":2806,"Ġclose":2807,"time":2808,"Ġhealth":2809,"Ġcoll":2810,"Ġservices":2811,"lam":2812,"azine":2813,"Ġpromot":2814,"Ġlot":2815,"Ġviol":2816,"olf":2817,"Ġprison":2818,"Ġparticular":2819,"Ġexec":2820,"ify":2821,"Ġawarded":2822,"ani":2823,"Ġcoast":2824,"Ġcal":2825,"ranch":2826,"Ġmix":2827,"Ġlaun":2828,"FA":2829,"De":2830,"ults":2831,"Ġ1989":2832,"Ġcampaign":2833,"Ġsuff":2834,"Ġpark":2835,"ado":2836,"ĠCharles":2837,"like":2838,"ications":2839,"ware":2840,"ĠArab":2841,"ĠSummer":2842,"Ġproblems":2843,"lim":2844,"not":2845,"ĠMichael":2846,"ators":2847,"ĠOff":2848,"ĠWestern":2849,"Ġscient":2850,"Ġsea":2851,"ength":2852,"Ġaddition":2853,"ression":2854,"Ġleast":2855,"ĠGovernor":2856,"stitution":2857,"ĠDivision":2858,"Ġeducation":2859,"iding":2860,"Ġwoman":2861,"ites":2862,"iting":2863,"rael":2864,"ensive":2865,"ĠOlympics":2866,"Ġearl":2867,"ibr":2868,"Ġcross":2869,"Ġmodel":2870,"ĠRobert":2871,"Ġeither":2872,"aud":2873,"Ġregular":2874,"ĠChe":2875,"ym":2876,"val":2877,"airs":2878,"Ġcities":2879,"igned":2880,"Ġsouthern":2881,"ems":2882,"Ġmarket":2883,"Ġmass":2884,"Ġpolice":2885,"Ġcentral":2886,"Ġreported":2887,"ĠSim":2888,"Wh":2889,"lect":2890,"Ġsurv":2891,"Ġadded":2892,"Ġill":2893,"Ġavailable":2894,"Ġvict":2895,"Ġprot":2896,"Ġhighest":2897,"ĠScott":2898,"Ġdesigned":2899,"stand":2900,"och":2901,"ĠSant":2902,"40":2903,"Ġnatural":2904,"ĠRail":2905,"Ġcourt":2906,"Ġfront":2907,"Ġgold":2908,"ĠLaw":2909,"ini":2910,"Ġforces":2911,"Ġagre":2912,"ĠDes":2913,"Ġcapt":2914,"ĠIf":2915,"American":2916,"Ġgoal":2917,"Ġwind":2918,"Ġ1950":2919,"ĠCongress":2920,"ĠOther":2921,"fic":2922,"Ġlik":2923,"Ġrank":2924,"Ġ185":2925,"Ġpast":2926,"ĠMexico":2927,"Ġfoc":2928,"Ġpain":2929,"Ġfourth":2930,"ror":2931,"Ġcost":2932,"Ġsil":2933,"ĠKansas":2934,"Ġchem":2935,"Ġwid":2936,"Ġspace":2937,"Ġdestroy":2938,"leg":2939,"Ġpoints":2940,"Ġalthough":2941,"Ġliter":2942,"ĠAlex":2943,"ĠPak":2944,"Ġphot":2945,"Ġepisode":2946,"Ġkeep":2947,"lor":2948,"ĠCatholic":2949,"ĠZeal":2950,"Ġinstead":2951,"Ġhous":2952,"Ġcondu":2953,"Äģ":2954,"Ġjob":2955,"Ġdone":2956,"ĠFin":2957,"Ġplaces":2958,"chie":2959,"ĠSpain":2960,"viron":2961,"Ġren":2962,"Ġ1988":2963,"Ġoffer":2964,"unk":2965,"iana":2966,"ĠRussia":2967,"Ġstri":2968,"pecially":2969,"cks":2970,"ĠZealand":2971,"Ġbar":2972,"Ġmovement":2973,"ĠCompany":2974,"Ġfif":2975,"Ġfollowed":2976,"Ġz":2977,"Ġbo":2978,"Le":2979,"cing":2980,"Ġmeas":2981,"bour":2982,"Ġdoc":2983,"Ġtravel":2984,"II":2985,"ication":2986,"ĠStud":2987,"aps":2988,"Ġobject":2989,"Ġcomes":2990,"Com":2991,"ĠCam":2992,"eds":2993,"ĠDay":2994,"Ġschools":2995,"22":2996,"aries":2997,"olk":2998,"face":2999,"Ġcarri":3000,"ishing":3001,"Fran":3002,"Ġcover":3003,"Ġsays":3004,"ĠRoad":3005,"Ġnetwork":3006,"atory":3007,"Ġbirth":3008,"known":3009,"ishop":3010,"Ġrelation":3011,"reland":3012,"Ġuniversity":3013,"Ġ1987":3014,"Ġ40":3015,"196":3016,"Ġfeatures":3017,"Ġuses":3018,"ows":3019,"Ġlanguages":3020,"ĠProvince":3021,"ĠGroup":3022,"ĠGeorg":3023,"Ġfurther":3024,"ĠFrank":3025,"ĠRepublican":3026,"la":3027,"Ġhelped":3028,"ĠMer":3029,"Ġarmy":3030,"eck":3031,"Ġpie":3032,"\").":3033,"ĠFrancis":3034,"Ġcandid":3035,"Ġtrack":3036,"Ġcharacters":3037,"ply":3038,"ĠPrime":3039,"ĠDutch":3040,"ĠHenry":3041,"ĠEarth":3042,"Ġever":3043,"Ġwriting":3044,"bers":3045,"Ġqual":3046,"ially":3047,"rought":3048,"icated":3049,"str":3050,"ĠIr":3051,"Ġask":3052,"erous":3053,"Ġfar":3054,"ĠVictor":3055,"Ġnight":3056,"iff":3057,"ires":3058,"bon":3059,"Ġlab":3060,"Ġgun":3061,"Ġmove":3062,"Ġcompetition":3063,"Ġcertain":3064,"ĠLake":3065,"ĠTom":3066,"va":3067,"ĠDan":3068,"Ġrout":3069,"ĠInstitute":3070,"ĠClub":3071,"Ġmeth":3072,"iro":3073,"Ġcollege":3074,"asc":3075,"Ġbur":3076,"sequ":3077,"ership":3078,"21":3079,"za":3080,"ket":3081,"Ġroles":3082,"aged":3083,"ĠAwards":3084,"Ġmainly":3085,"Ġscored":3086,"ĠFootball":3087,"Ġamount":3088,"Ġlittle":3089,"owa":3090,"Ġgive":3091,"bs":3092,".,":3093,"Ġrange":3094,"Ġanimals":3095,"ĠAtlant":3096,"ny":3097,"sych":3098,"ĠRichard":3099,"ĠGreek":3100,"Ġfamil":3101,"pen":3102,"amil":3103,"Ġste":3104,"Ġallowed":3105,"Ġ1986":3106,"ĠIsrael":3107,"ĠMass":3108,"istry":3109,"Ġ1984":3110,"ĠThomas":3111,"Ġimpro":3112,"Ġoutside":3113,"fect":3114,"Ġforce":3115,"Bl":3116,"elt":3117,"hood":3118,"Ġsister":3119,"Ġfund":3120,"cean":3121,"ecause":3122,"ĠGreen":3123,"Ġcontract":3124,"arian":3125,"Ġcour":3126,"Ġ1981":3127,"ĠSince":3128,"ams":3129,"Ġthroughout":3130,"ĠHill":3131,"ĠTer":3132,"apt":3133,"Ġsuggest":3134,"Ġmem":3135,"Ġpossible":3136,"Ġkey":3137,"ĠEmpire":3138,"ground":3139,"Ġgirl":3140,"ĠTheir":3141,"Ġsaw":3142,"ĠIran":3143,"ĠSte":3144,"vert":3145,"Ġcut":3146,"igan":3147,"ola":3148,"idae":3149,"Ġassist":3150,"Ġentire":3151,"Ġpaint":3152,"Ġ1983":3153,"back":3154,"Un":3155,"Ġ1979":3156,"Ġpur":3157,"Ġpay":3158,"embly":3159,"uke":3160,"ulation":3161,"ĠThat":3162,"23":3163,"Ġfarm":3164,"Ġcompan":3165,"gypt":3166,"NA":3167,"rd":3168,"Ġdisease":3169,"ils":3170,"ĠMusic":3171,"Ġ1972":3172,"Ġ1985":3173,"Ġthink":3174,"ĠPe":3175,"ĠFilm":3176,"TV":3177,"Ġcause":3178,"Ġtry":3179,"Ġleading":3180,"Ġespecially":3181,"Ġcreat":3182,"Ġeas":3183,"Ġlower":3184,"rel":3185,"Ġwords":3186,"ĠDepartment":3187,"Ġenergy":3188,"Ġarchitect":3189,"ĠIreland":3190,"ĠWil":3191,"ĠSaint":3192,"adium":3193,"Ġ1982":3194,"During":3195,"gt":3196,"ĠTra":3197,"ĠPeter":3198,"ĠWhite":3199,"Ġchart":3200,"Ġbird":3201,"ental":3202,"Ġdrama":3203,"iles":3204,"ita":3205,"ĠWin":3206,"Ġowned":3207,"vironment":3208,"For":3209,"Ġtro":3210,"When":3211,"gent":3212,"ĠCommun":3213,"Ġmeaning":3214,"CA":3215,"ĠMac":3216,"Ġjournal":3217,"Ġtemper":3218,"Ġhom":3219,"Ġterrit":3220,"Ġcirc":3221,"Ġchampionship":3222,"Ġsem":3223,"ta":3224,"illa":3225,"rid":3226,"arter":3227,"Ġfall":3228,"ĠIm":3229,"Ġche":3230,"Ġshown":3231,"ĠTo":3232,"Ġtoday":3233,"24":3234,"udd":3235,"ĠRock":3236,"Ġwestern":3237,"Ġparents":3238,"ĠPakistan":3239,"head":3240,"ĠParliament":3241,"Ġcontrib":3242,"ĠUp":3243,"ios":3244,"pite":3245,"HL":3246,"Ġeventually":3247,"anded":3248,"Ġbattle":3249,"reme":3250,"aching":3251,"Ġhospital":3252,"Ġtypes":3253,"ato":3254,"Ġbuildings":3255,"Ġfig":3256,"John":3257,"Ġinvolved":3258,"bl":3259,"Ġscience":3260,"Ġsubject":3261,"ĠPet":3262,"ĠMuseum":3263,"cel":3264,"Ġtax":3265,"Ġge":3266,"ĠBen":3267,"Ġ1976":3268,"Ġproducer":3269,"Ġcritic":3270,"Ġbreak":3271,"Ġinh":3272,"27":3273,"ĠEgypt":3274,"Ġsystems":3275,"atre":3276,"ĠTor":3277,"icles":3278,"mun":3279,"mercial":3280,"ilities":3281,"ulf":3282,"Ġblood":3283,"Ġhor":3284,"Ġbrought":3285,"ĠScot":3286,"Ġdegree":3287,"Pl":3288,"urric":3289,"Ġtakes":3290,"ĠRob":3291,"Ġactive":3292,"Ġnames":3293,"Ġ1978":3294,"Ġchanges":3295,"Ġstay":3296,"ĠGra":3297,"Ġaction":3298,"oud":3299,"Ġplants":3300,"Ġaud":3301,"Ġnorm":3302,"ends":3303,"ondiss":3304,"Ġintroduced":3305,"Ġdata":3306,"Ġprivate":3307,"ĠCarolina":3308,"ura":3309,"etic":3310,"Ġrelated":3311,"\"),":3312,"Ġemploy":3313,"iple":3314,"Ġhot":3315,"ĠMy":3316,"ĠKent":3317,"ĠGo":3318,"Ġmight":3319,"imately":3320,"Ġalways":3321,"Ġgoing":3322,"Ġbroadcast":3323,"Ġrespons":3324,"Ġlength":3325,"ĠMos":3326,"ali":3327,"Ġcat":3328,"Ġcomedy":3329,"ima":3330,"mar":3331,"Ġder":3332,"Ġtournament":3333,"Ġboard":3334,"ĠOk":3335,"aught":3336,"Ġperformance":3337,"Ġpot":3338,"ĠIowa":3339,"Ġrelationship":3340,"erve":3341,"Ġcomputer":3342,"Ġmusical":3343,"ĠSweden":3344,"Ġwood":3345,"Ġtransl":3346,"Ġbeginning":3347,"Ġoccur":3348,"Ġassoci":3349,"Ġattempt":3350,"Ġprob":3351,"uth":3352,"ĠDis":3353,"Ġfeatured":3354,"Ġpred":3355,"26":3356,"ĠWhile":3357,"nder":3358,"Ġtraining":3359,"ĠMel":3360,"Ġmur":3361,"ayer":3362,"Ġstre":3363,"gen":3364,"Ġ1973":3365,"ĠServ":3366,"ĠNorthern":3367,"Ġmatches":3368,"uty":3369,"ador":3370,"ability":3371,"Ad":3372,"Ġgrand":3373,"Ġ1974":3374,"ĠSenate":3375,"hold":3376,"Ġboy":3377,"stra":3378,"ĠMag":3379,"itz":3380,"Ġdou":3381,"rial":3382,"Ġobs":3383,"Ġcompleted":3384,"writer":3385,"Ġmedia":3386,"Ġsports":3387,"Ġneigh":3388,"Ġmethod":3389,"win":3390,"ĠSun":3391,"itiz":3392,"Ġmedal":3393,"Ġseasons":3394,"ĠYear":3395,"Ġselected":3396,"Ġquick":3397,"Ġwinning":3398,"stant":3399,"mark":3400,"Ġsen":3401,"Ġindependent":3402,"ĠMic":3403,"anned":3404,"ĠSociety":3405,"Ġcele":3406,"ĠRecords":3407,"ĠBur":3408,"ĠRad":3409,"Ġreb":3410,"ĠArch":3411,"Ġsoon":3412,"oid":3413,"Ġidea":3414,"Ġsize":3415,"wan":3416,"Ġmanager":3417,"uture":3418,"Ġearn":3419,"ĠBu":3420,"Ġconsist":3421,"Åį":3422,"Ġ<":3423,"Ġscreen":3424,"Ġdefeated":3425,"Ġstorm":3426,"Ġtree":3427,"ume":3428,"Ġ1968":3429,"fact":3430,"Ġcanton":3431,"ĠColumb":3432,"Ġruns":3433,"Ġ1975":3434,"Ġbehind":3435,"ĠSmith":3436,"ube":3437,"Ġcolor":3438,"rup":3439,"ĠLatin":3440,"stitut":3441,"ersey":3442,"Ġenc":3443,"ĠSo":3444,"Ġcentre":3445,"Ġitself":3446,"Be":3447,"Ġaccess":3448,"Ġice":3449,"Ġlonger":3450,"iences":3451,"ĠPac":3452,"ĠOl":3453,"Ġnewsp":3454,"elled":3455,"Ġenough":3456,"Ġ1930":3457,"ouri":3458,"Ġorganization":3459,"gl":3460,"icy":3461,"Ġcontains":3462,"ĠCat":3463,"urity":3464,"Ġfamilies":3465,"ificant":3466,"see":3467,"Ġspent":3468,"road":3469,"Ġpen":3470,"ĠAccording":3471,"ceed":3472,"Ġspok":3473,"ĠCommittee":3474,"Ġremained":3475,"ĠSea":3476,"Ġjud":3477,"inner":3478,"Ġconstruction":3479,"Ġ1971":3480,"oved":3481,"60":3482,"Ġbad":3483,"ĠCast":3484,"iÄ":3485,"Ġball":3486,"Ġbelieved":3487,"overs":3488,"Ġ1977":3489,"asing":3490,"anda":3491,"hy":3492,"ests":3493,"Ġmagazine":3494,"oint":3495,"ID":3496,"All":3497,"enced":3498,"SA":3499,"sec":3500,"ĠCamp":3501,"Ġcompeted":3502,"Ġ1969":3503,"ĠDou":3504,"Ġbank":3505,"28":3506,"New":3507,"Ġlo":3508,"eball":3509,"ua":3510,"Ġguitar":3511,"gg":3512,"Ġlove":3513,"Ġdecision":3514,"Ġpoet":3515,"ficult":3516,"ving":3517,"Ġrailway":3518,"peror":3519,"ĠBill":3520,"Ġdivided":3521,"ĠCons":3522,"Ġaccept":3523,"Ġcompanies":3524,"Ġeastern":3525,"uation":3526,"Ġphil":3527,"ĠJust":3528,"ipl":3529,"Ġet":3530,"Ġplaced":3531,"Ġesc":3532,"Ġhigher":3533,"ĠUk":3534,"airman":3535,"ĠRev":3536,"sw":3537,"Ġ(,":3538,"ĠDire":3539,"ĠSecretary":3540,"Ġmer":3541,"ĠMa":3542,"ĠBoy":3543,"ider":3544,"duction":3545,"Ġ184":3546,"Ġdead":3547,"Ġaircraft":3548,"Early":3549,"Ġachie":3550,"Ġinside":3551,"iller":3552,"Ġdifficult":3553,"Ġmach":3554,"uments":3555,"Ġnominated":3556,"Ġdig":3557,"Ġexcept":3558,"ĠRepresent":3559,"Ġgra":3560,"ĠFore":3561,"ĠBrown":3562,"ĠHot":3563,"Ġrather":3564,"Ġ1967":3565,"vey":3566,"iy":3567,"inet":3568,"Ġarg":3569,"Ġ1964":3570,"ĠFestival":3571,"ift":3572,"enth":3573,"ih":3574,"orial":3575,"Ġgoals":3576,"cul":3577,"een":3578,"Ġsummer":3579,"bur":3580,"ĠMartin":3581,"eff":3582,"Ġmale":3583,"thlet":3584,"ĠLee":3585,"Ġlarger":3586,"Club":3587,"ĠAsia":3588,"ĠCont":3589,"Ġcommercial":3590,"ressed":3591,"Ġ1940":3592,"action":3593,"Ġbelong":3594,"alled":3595,"Ġnumbers":3596,"ĠJr":3597,"Ġraised":3598,"Ġsignificant":3599,"selves":3600,"rig":3601,"ĠPan":3602,"ĠTrans":3603,"Ġsoft":3604,"ping":3605,"chol":3606,"iano":3607,"Ġthemselves":3608,"ĠLater":3609,"ĠSuper":3610,"ĠSouthern":3611,"Ġculture":3612,"ĠDen":3613,"aval":3614,"Ġmountain":3615,"abeth":3616,"Ġtraditional":3617,"ĠLiber":3618,"Ġbox":3619,"Ġmanu":3620,"ises":3621,"ĠGovernment":3622,"ready":3623,"Ġtheory":3624,"ĠInter":3625,"hemat":3626,"chan":3627,"ĠJackson":3628,"Ġgenerally":3629,"Ġinstr":3630,"Ġshot":3631,"29":3632,"ĠIslam":3633,"Ġcreate":3634,"ca":3635,"part":3636,"anks":3637,"awa":3638,"Ġarrest":3639,"Ġacqu":3640,"Ġsmaller":3641,"use":3642,"ĠWales":3643,"rol":3644,"Ġdeal":3645,"Ġsuper":3646,"Ġdiscovered":3647,"Ġmiddle":3648,"umn":3649,"Ġdraw":3650,"uman":3651,"ugu":3652,"Ġminor":3653,"Ġmunicipal":3654,"ĠMo":3655,"Ġrespect":3656,"Ġcell":3657,"Ġindustry":3658,"ĠOh":3659,"wide":3660,"usband":3661,"Ġvir":3662,"rad":3663,"Ġteacher":3664,"ella":3665,"Ġmiss":3666,"Ġresident":3667,"Ġrepresented":3668,"Ġsurround":3669,"imb":3670,"Ġoccup":3671,"inary":3672,"Ġlaws":3673,"ucky":3674,"ĠBritain":3675,"ĠMuslim":3676,"ĠChampionships":3677,"Ġbecoming":3678,"ga":3679,"urricane":3680,"Ġtold":3681,"Ġfunction":3682,"oper":3683,"ension":3684,"ĠCarl":3685,"ĠRos":3686,"onia":3687,"Ġwhose":3688,"ki":3689,"Ġcelebr":3690,"right":3691,"Ġforest":3692,"Ġwebs":3693,"aches":3694,"Ġforms":3695,"ĠArgent":3696,"ĠMur":3697,"heim":3698,"Ġ1945":3699,"omp":3700,"ĠSur":3701,"Ġdrug":3702,"Ġoppos":3703,"Sc":3704,"Ġloss":3705,"Ġupon":3706,"Ġrap":3707,"Ġfav":3708,"Ġancient":3709,"Ġcompl":3710,"well":3711,"bre":3712,"37":3713,"ĠHaw":3714,"Ġtaking":3715,"ols":3716,"Ġsection":3717,"azz":3718,"Ġlisted":3719,"arring":3720,"ĠCommission":3721,"Ġcases":3722,"Ġshoot":3723,"ĠSecond":3724,"istic":3725,"Ġminister":3726,"Ġsequ":3727,"ĠForce":3728,"ĠBang":3729,"igr":3730,"Ġstudies":3731,"Ġconv":3732,"rative":3733,"ibrary":3734,"stein":3735,"ette":3736,"ĠAlthough":3737,"Ġimm":3738,"ĠLeg":3739,"Ġprimary":3740,"Ġfederal":3741,"La":3742,"Ġstories":3743,"Ġbelow":3744,"His":3745,"cies":3746,"Ġcolon":3747,"Ã³n":3748,"Ġattended":3749,"etherlands":3750,"ublic":3751,"Ġdocument":3752,"ĠRh":3753,"ĠAssembly":3754,"Some":3755,"ĠEr":3756,"Ġcollection":3757,"Ġ#":3758,"ili":3759,"Pro":3760,"Ġalready":3761,"lo":3762,"Ġgod":3763,"Ġvoice":3764,"Ġcomplet":3765,"Ġgrew":3766,"ducation":3767,"uge":3768,"Ġprofessor":3769,"Ġhusband":3770,"asion":3771,"medi":3772,"inct":3773,"ĠWal":3774,"Ġstarting":3775,"Ġprograms":3776,"uses":3777,"Ġpers":3778,"Ġsoldiers":3779,"yer":3780,"ĠHa":3781,"Ġmedical":3782,"Ġbase":3783,"ĠBattle":3784,"ĠThen":3785,"ĠÂ":3786,"pected":3787,"ĠQueen":3788,"Ġborder":3789,"eria":3790,"ĠPrize":3791,"ĠGeorgia":3792,"Ġrunning":3793,"Ġinhabit":3794,"ĠBC":3795,"etts":3796,"ario":3797,"Ġeat":3798,"ĠPre":3799,"ĠLand":3800,"Ġneg":3801,"uan":3802,"aring":3803,"Ġ60":3804,"Ġtransfer":3805,"Ġtyp":3806,"ĠChief":3807,"aled":3808,"Ġcitiz":3809,"Ġ1966":3810,"Ġprovided":3811,"Ġsupported":3812,"Ġfriends":3813,"Ġmurder":3814,"lement":3815,"ĠOld":3816,"het":3817,"Ġterms":3818,"ĠJoseph":3819,"ĠMissouri":3820,"Ġfrequ":3821,"Ġstructure":3822,"Re":3823,"Ġpsych":3824,"sen":3825,"orpor":3826,"Ġlegal":3827,"ĠJewish":3828,"ĠKorea":3829,"Ġhere":3830,"ĠSpr":3831,"Ġsurface":3832,"ĠCount":3833,"Ġleave":3834,"Ġcannot":3835,"Ġprem":3836,"omm":3837,"ĠNetherlands":3838,"erry":3839,"Ġsat":3840,"ĠWind":3841,"ĠBecause":3842,"Ġsomething":3843,"Ph":3844,"unn":3845,"ĠTwo":3846,"Ġquest":3847,"ĠMr":3848,"Ġtalk":3849,"ĠWood":3850,"Ġmetal":3851,"ja":3852,"à¸":3853,"Ġsum":3854,"ĠMichigan":3855,"Ġtowards":3856,"roll":3857,"Ġstated":3858,"Ġreligious":3859,"Ġunits":3860,"ĠValley":3861,"arily":3862,"ĠCivil":3863,"ĠFI":3864,"35":3865,"ĠBo":3866,"ctic":3867,"Ġprovide":3868,"ĠOlympic":3869,"Ġaffect":3870,"ĠSar":3871,"Con":3872,"inson":3873,"Ġlines":3874,"Ġcomplex":3875,"Ġoldest":3876,"ĠCro":3877,"Ġnine":3878,"achus":3879,"Ġearlier":3880,"ĠDo":3881,"Ġwide":3882,"also":3883,"Ġsus":3884,"Ġgoes":3885,"Ġpassed":3886,"ĠMah":3887,"Ġentered":3888,"adesh":3889,"Ġbridge":3890,"enty":3891,"onic":3892,"Ġer":3893,"Ġprinc":3894,"Ġlaunched":3895,"ĠFort":3896,"Ġtou":3897,"gian":3898,"Ġreve":3899,"aka":3900,"ĠArts":3901,"itation":3902,"lying":3903,"ĠAsian":3904,"Ġelectric":3905,"Ġasked":3906,"Ġ1965":3907,"Ġgenus":3908,"ĠEastern":3909,"Ġartists":3910,"ĠAnn":3911,"irm":3912,"Ġaccording":3913,"Ġenvironment":3914,"vention":3915,"Ġfilms":3916,"Ġvote":3917,"Ġnuc":3918,"Ġchemical":3919,"Ġ1963":3920,"eks":3921,"olitan":3922,"ĠEdward":3923,"Ġclear":3924,"Ġpreviously":3925,"ricts":3926,"Saint":3927,"Ġhours":3928,"Ġdate":3929,"Ġclosed":3930,"amily":3931,"Ġquickly":3932,"Ġfuture":3933,"Ġwor":3934,"Ġdon":3935,"wa":3936,"Ġ)":3937,"ĠRo":3938,"ried":3939,"Ġcommonly":3940,"Ġindividual":3941,"pts":3942,"bury":3943,"rich":3944,"ocal":3945,"Ġturned":3946,"Ġtried":3947,"ĠTownship":3948,"teen":3949,"Ġsymb":3950,"ĠFred":3951,"urban":3952,"ĠAmericans":3953,"Ġspeak":3954,"iÄĩ":3955,"achusetts":3956,"iest":3957,"oring":3958,"Ġstudent":3959,"Ġmiles":3960,"Ġself":3961,"oles":3962,"Ġofficer":3963,"ĠScotland":3964,"ĠOs":3965,"Ġ1961":3966,"Ġ1948":3967,"pre":3968,"ĠSpe":3969,"Ġforced":3970,"thing":3971,"ba":3972,"ĠBor":3973,"ĠBav":3974,"Ġalbums":3975,"Ġneeded":3976,"western":3977,"Ġ1962":3978,"ras":3979,"spe":3980,"ancial":3981,"ĠJersey":3982,"Ġeditor":3983,"Ġdrop":3984,"Ġrain":3985,"atform":3986,"Ġbasket":3987,"ĠPacific":3988,"rack":3989,"Ġexhib":3990,"ares":3991,"Ġsaf":3992,"Ġdog":3993,"rea":3994,"Ġgas":3995,"ĠKn":3996,"Ġstep":3997,"195":3998,"Ġolder":3999,"ĠJul":4000,"Ġemer":4001,"Ġtext":4002,"...":4003,"can":4004,"ictures":4005,"Ġdeterm":4006,"ĠMassachusetts":4007,"iga":4008,"ĠOhio":4009,"ĠFre":4010,"Ġnews":4011,"Ġchief":4012,"ias":4013,"Ġveh":4014,"Ġrule":4015,"Ġi":4016,"quar":4017,"inger":4018,"Ġstations":4019,"col":4020,"ĠIII":4021,"Ġox":4022,"ĠFC":4023,"38":4024,"Ġaccount":4025,"based":4026,"erem":4027,"Ġtransport":4028,"Ġeth":4029,"Ġden":4030,"Ġopt":4031,"Ġ/":4032,"Ġ1956":4033,"Ġadop":4034,"Ġmarriage":4035,"Ġinvestig":4036,"ĠSil":4037,"Ġappearance":4038,"Ġcells":4039,"Ġnative":4040,"Ġregard":4041,"iant":4042,"isher":4043,"Ġpersonal":4044,"ĠPhilipp":4045,"ĠNavy":4046,"ĠGar":4047,"Ġmuseum":4048,"Ġ1947":4049,"ira":4050,"ĠFound":4051,"Ġstandard":4052,"Ġpick":4053,"uries":4054,"Ġreason":4055,"Ġstarring":4056,"Sp":4057,"ĠMod":4058,"ko":4059,"Ġheavy":4060,"Ġapprox":4061,"mond":4062,"Ġdark":4063,"ela":4064,"ĠAustria":4065,"eld":4066,"Ġwhom":4067,"ounter":4068,"ĠSk":4069,"ĠBoard":4070,"Ġsource":4071,"Ġofficially":4072,"Ġtropical":4073,"ulture":4074,"ĠPlay":4075,"ĠKong":4076,"ĠProfess":4077,"Ġweeks":4078,"ĠMiddle":4079,"Ġunivers":4080,"||||":4081,"Ġblock":4082,"omer":4083,"Ġdom":4084,"Ġarm":4085,"ĠArk":4086,"39":4087,"ois":4088,"ĠIrish":4089,"fit":4090,"ondissement":4091,"ĠClass":4092,"Ġminutes":4093,"han":4094,"Ġclimate":4095,"ĠJohnson":4096,"Ġtrade":4097,"El":4098,"ugg":4099,"Ġabs":4100,"Ġbomb":4101,"add":4102,"Ġpoor":4103,"Ġfifth":4104,"From":4105,"Ġfish":4106,"Ġmerg":4107,"aska":4108,"Ġsociety":4109,"ken":4110,"Ġcust":4111,"Ġopening":4112,"Ġvisit":4113,"Ġ1939":4114,"ĠMinn":4115,"Ġgovernor":4116,"ĠLine":4117,"opher":4118,"ech":4119,"Ġschol":4120,"Ġcard":4121,"Ġcoup":4122,"ropolitan":4123,"Ġsn":4124,"Ġweap":4125,"Ġbasketball":4126,"Don":4127,"porary":4128,"Ġthreat":4129,"Ġdestroyed":4130,"ĠYoung":4131,"Ġcommand":4132,"oday":4133,"Ġdistributed":4134,"ĠCr":4135,"à¤":4136,"ĠCharl":4137,"oston":4138,"Ġmanufact":4139,"Ġcred":4140,"ĠStan":4141,"Ġslow":4142,"ĠPrince":4143,"ĠJim":4144,"ennis":4145,"ĠJes":4146,"ĠEs":4147,"Ġwhole":4148,"yan":4149,"itude":4150,"Ġlocation":4151,"Ġseparate":4152,"ĠSand":4153,"Ġvia":4154,"ĠPoland":4155,"ĠColumbia":4156,"Ġoil":4157,"ĠBern":4158,"Ġpercent":4159,"ĠBook":4160,"ecess":4161,"Ġissues":4162,"Ġ1952":4163,"ĠIslands":4164,"FL":4165,"80":4166,"ĠGal":4167,"undred":4168,"erved":4169,"Ġspl":4170,"Ġ1957":4171,"Ġdeep":4172,"Ġ1944":4173,"ĠConf":4174,"Ġearth":4175,"Ġstatus":4176,"Ġeffort":4177,"Ġactivities":4178,"Ġinhabitants":4179,"Ġchannel":4180,"ĠVol":4181,"BA":4182,"Ġproblem":4183,"arden":4184,"ĠVer":4185,"45":4186,"ĠFox":4187,"Ġang":4188,"ĠSir":4189,"etting":4190,"venue":4191,"Ġserving":4192,"Ġpractice":4193,"ĠLord":4194,"ĠAtlantic":4195,"Ġgreen":4196,"ĠJun":4197,"izabeth":4198,"Ġspread":4199,"BS":4200,"Am":4201,"Ġunit":4202,"Ã¡n":4203,"ĠBrazilian":4204,"Ġri":4205,"Ġ1920":4206,"ĠShow":4207,"Ġnorthwest":4208,"ĠRome":4209,"ingu":4210,"Ġresults":4211,"Ġtowns":4212,"Ġfeel":4213,"Ġmultiple":4214,"Ġawards":4215,"ati":4216,"aters":4217,"Ġmajority":4218,"Ġhyd":4219,"ĠSocial":4220,"Ġpeak":4221,"ĠSqu":4222,"pose":4223,"Ġtells":4224,"Ġphilos":4225,"Ġnoted":4226,"Ġthr":4227,"Ġproperty":4228,"clus":4229,"Ġ1942":4230,"36":4231,"Ġlegisl":4232,"Ġconsists":4233,"Ġpresidential":4234,"ĠSwedish":4235,"yo":4236,"ĠUr":4237,"ĠBank":4238,"ĠAv":4239,"ĠBul":4240,"Ġ1958":4241,"Ġprobably":4242,"ĠMen":4243,"chestra":4244,"ĠMark":4245,"Ã§":4246,"Ġacting":4247,"ynast":4248,"change":4249,"anning":4250,"Pr":4251,"house":4252,"ĠMajor":4253,"Ġelections":4254,"Ġforeign":4255,"Ġgraduated":4256,"ection":4257,"Ġtroops":4258,"Ġmathemat":4259,"Ġearned":4260,"ties":4261,"Ġhumans":4262,"lah":4263,"ĠAut":4264,"Ġways":4265,"ĠBig":4266,"outheast":4267,"Ã©e":4268,"Ġwrest":4269,"Ġ\"\"":4270,"ctors":4271,"ounds":4272,"ĠMore":4273,"Ġbehav":4274,"Ġord":4275,"Bill":4276,"Ġscore":4277,"Ġnearly":4278,"Ġestim":4279,"Ġreviews":4280,"bit":4281,"Ġcateg":4282,"earch":4283,"ĠKorean":4284,"Ã´":4285,"Ġrecords":4286,"ĠSol":4287,"ĠAlso":4288,"ĠBBC":4289,"Ġkept":4290,"Ġaccident":4291,"Ġhouses":4292,"ĠDisney":4293,"Ġhockey":4294,"ĠBerlin":4295,"Ġleaves":4296,"chester":4297,"Ġ70":4298,"Ġremains":4299,"Ġcovered":4300,"ĠMu":4301,"areer":4302,"ĠSat":4303,"illy":4304,"ollowing":4305,"ĠHung":4306,"Ġcomposed":4307,"Ġ1959":4308,"ĠFrancisco":4309,"Ġ1954":4310,"Ġfort":4311,"Ġreferred":4312,"Ġcomplete":4313,"ĠJo":4314,"isation":4315,"ricket":4316,"burgh":4317,"Ġcarry":4318,"Ġtal":4319,"ĠPolish":4320,"Ġfast":4321,"Ġsubsequ":4322,"Ġ80":4323,"ĠMot":4324,"70":4325,"ava":4326,"Ġeconomic":4327,"Ġanal":4328,"Ġhappened":4329,"ĠTri":4330,"ĠOcean":4331,"Ġdamage":4332,"Ġ1949":4333,"utt":4334,"ologist":4335,"Ġletter":4336,"zech":4337,"Ab":4338,"Ġdu":4339,"ora":4340,"ĠHel":4341,"Ġchampion":4342,"amin":4343,"Ġdistricts":4344,"Ġincreased":4345,"Ġadministrative":4346,"oir":4347,"Ġlog":4348,"Ġtable":4349,"Ġprevent":4350,"Ġcauses":4351,"otal":4352,"Ġfle":4353,"ĠTai":4354,"Ġshowed":4355,"Ġnewspaper":4356,"esota":4357,"standing":4358,"Ġlabel":4359,"ĠBroad":4360,"Ġ1941":4361,"ederation":4362,"ampions":4363,"ĠHow":4364,"ients":4365,"Ġships":4366,"Ġver":4367,"ennes":4368,"And":4369,"ĠHind":4370,"Ġpaper":4371,"Ġintern":4372,"ĠBoston":4373,"Ġspeed":4374,"Ġconcern":4375,"Ġflag":4376,"Ġappears":4377,"Ġ1946":4378,"iced":4379,"range":4380,"Ġconditions":4381,"Ġparish":4382,"uals":4383,"ĠEnter":4384,"Ġsexual":4385,"Ġsal":4386,"Man":4387,"raine":4388,"Ġaltern":4389,"Ġorganiz":4390,"ĠNaz":4391,"acing":4392,"90":4393,"ĠFer":4394,"Geography":4395,"ĠBavaria":4396,"Ġwrite":4397,"Ġroom":4398,"Ġstaff":4399,"stitu":4400,"Ġrules":4401,"Ġrate":4402,"itting":4403,"poration":4404,"ibility":4405,"Ġ90":4406,"gu":4407,"ĠTy":4408,"ĠLong":4409,"Ġevidence":4410,"icine":4411,"34":4412,"uts":4413,"mm":4414,"ĠJud":4415,"ĠMcC":4416,"Ġcandidate":4417,"Ġnort":4418,"ĠLu":4419,"ĠMinnesota":4420,"ĠNations":4421,"Ġproducts":4422,"ila":4423,"Ġrequired":4424,"Ġassociated":4425,"ault":4426,"Ġinsp":4427,"ĠBoth":4428,"Ġpurch":4429,"Ġpositive":4430,"ĠKe":4431,"akh":4432,"Ġmechan":4433,"ietn":4434,"adel":4435,"Ġnearby":4436,"ĠLuc":4437,"Ġlimited":4438,"Ġdance":4439,"Ġemb":4440,"Ġvariety":4441,"lahoma":4442,"Ġprotect":4443,"ĠTw":4444,"uten":4445,"Ã±":4446,"Ġcode":4447,"Ġbal":4448,"Ġestablish":4449,"Ġleaving":4450,"ĠSeries":4451,"ented":4452,"thur":4453,"ĠAustrian":4454,"Ġepisodes":4455,"Ġmerged":4456,"wer":4457,"Ġfought":4458,"ĠWay":4459,"ĠDirector":4460,"war":4461,"Ġbring":4462,"sur":4463,"aily":4464,"ĠKar":4465,"ĠTimes":4466,"Ġegg":4467,"Ġ1955":4468,"iled":4469,"Ġexc":4470,"ĠRepresentatives":4471,"Ġ35":4472,"Ġcourse":4473,"Ġgets":4474,"orning":4475,"Ġvictory":4476,"Ġroute":4477,"reater":4478,"ĠBal":4479,"iance":4480,"ips":4481,"oke":4482,"rice":4483,"ying":4484,"ĠHon":4485,"ĠDef":4486,"Ġcontroll":4487,"ĠWilliams":4488,"illed":4489,"Ġproduce":4490,"47":4491,"ez":4492,"nes":4493,"Ġtrue":4494,"Ġincrease":4495,"Ġhonor":4496,"Ġplatform":4497,"Ġterritory":4498,"ĠEducation":4499,"quarters":4500,"ophy":4501,"Is":4502,"One":4503,"obal":4504,"Ġenem":4505,"ails":4506,"Ġspecific":4507,"Ġlikely":4508,"ĠService":4509,"Ġour":4510,"ĠWall":4511,"ĠMat":4512,"Ġbiggest":4513,"Ġsenior":4514,"Ġpil":4515,"ĠCy":4516,"Gr":4517,"Ġtar":4518,"Ġgives":4519,"iography":4520,"aya":4521,"Ġtemperature":4522,"ervation":4523,"level":4524,"ĠAlb":4525,"Ġspir":4526,"Ġfeet":4527,"ription":4528,"ĠOklahoma":4529,"gress":4530,"astic":4531,"Ġinfluence":4532,"ĠVictoria":4533,"Ġfoot":4534,"Ġfinancial":4535,"Ġcle":4536,"owers":4537,"aped":4538,"ĠUnivers":4539,"oura":4540,"ĠCzech":4541,"ĠSong":4542,"Ġvalue":4543,"Will":4544,"Ġbelieve":4545,"ĠKentucky":4546,"ĠEach":4547,"Ġfootballer":4548,"ronic":4549,"Ġbirds":4550,"Ġ180":4551,"Ġrare":4552,"Ġhar":4553,"oln":4554,"Ġrecent":4555,"Ġnature":4556,"bridge":4557,"Ġannual":4558,"Ġtrees":4559,"Ġpal":4560,"Ġoperations":4561,"Ġnumerous":4562,"Ġremoved":4563,"ĠAirport":4564,"riz":4565,"Ġmeant":4566,"Ġlack":4567,"itage":4568,"ĠBob":4569,"Ġdiss":4570,"ometimes":4571,"Ġsu":4572,"ĠScottish":4573,"33":4574,"SC":4575,"Ġrecording":4576,"ĠRevolution":4577,"We":4578,"rief":4579,"ĠTechn":4580,"Ġcycl":4581,"ĠCO":4582,"Ġbecomes":4583,"phy":4584,"Ġpressure":4585,"Ġapproximately":4586,"Ġmanaged":4587,"Career":4588,"ao":4589,"ancy":4590,"Ġmoving":4591,"ĠNA":4592,"ĠInc":4593,"ĠTok":4594,"ĠTour":4595,"Ġblue":4596,"ĠScience":4597,"Ġmention":4598,"Ġislands":4599,"ĠOver":4600,"ĠSystem":4601,"Â°":4602,"obile":4603,"ĠLouisiana":4604,"Ġautom":4605,"Ġclaimed":4606,"ĠPrem":4607,"esc":4608,"Ġoverall":4609,"Ġwalk":4610,"omy":4611,"ĠHockey":4612,"aven":4613,"Ġcrime":4614,"Ġ1953":4615,"hew":4616,"ĠBus":4617,"Ġcomposer":4618,"ynasty":4619,"onse":4620,"Ġwebsite":4621,"ĠStar":4622,"ĠDev":4623,"no":4624,"edd":4625,"ĠLab":4626,"allen":4627,"rupt":4628,"Ġbene":4629,"Ġthous":4630,"Ġcontest":4631,"ĠArkansas":4632,"ultural":4633,"Ġlos":4634,"Ġproduct":4635,"Ġanti":4636,"Ġexecutive":4637,"Ġwidely":4638,"ĠKenn":4639,"ĠVietn":4640,"leep":4641,"ĠLife":4642,"ocks":4643,"Ġsaying":4644,"According":4645,"Ġ1943":4646,"Ġface":4647,"yes":4648,"Ġsquare":4649,"Ġcarried":4650,"Se":4651,"ero":4652,"ĠOper":4653,"more":4654,"ĠMem":4655,".)":4656,"ĠMatt":4657,"Ġnation":4658,"Ġinterview":4659,"Ġtechnology":4660,"Ġphysical":4661,"Ġsilver":4662,"ĠBh":4663,"ailed":4664,"lav":4665,"imin":4666,"ĠPen":4667,"down":4668,"ĠFederal":4669,"odies":4670,"Ġtaught":4671,"Ġ1938":4672,"Ġlevels":4673,"Ġfailure":4674,"Ġelements":4675,"Ġfailed":4676,"Ġago":4677,"Ġprovin":4678,"Ġlawyer":4679,"nic":4680,"Ġreach":4681,"Ġmess":4682,"ĠBefore":4683,"ĠTim":4684,"ĠOut":4685,"Ġoperated":4686,"inent":4687,"aki":4688,"ables":4689,"Ġanimal":4690,"RA":4691,"Ġmission":4692,"agon":4693,"ji":4694,"Ġsingles":4695,"ĠOrder":4696,"zy":4697,"ĠJones":4698,"ĠCoast":4699,"cow":4700,"lines":4701,"osen":4702,"umber":4703,"Ġcharge":4704,"Ġappearances":4705,"Ġmotor":4706,"mission":4707,"Ġhundred":4708,"osaur":4709,"Ġimmedi":4710,"Ġfinally":4711,"ĠLove":4712,"Ġdisplay":4713,"Ġbranch":4714,"ova":4715,"Ġmeeting":4716,"sex":4717,"incoln":4718,"aby":4719,"mitted":4720,"Ġbillion":4721,"icted":4722,"ĠNot":4723,"rie":4724,"ims":4725,"Ġ1951":4726,"Ġedition":4727,"Ġlay":4728,"ĠLo":4729,"ĠJean":4730,"ĠAk":4731,"Ġ1934":4732,"Ġarran":4733,"Ġlink":4734,"ĠUs":4735,"TA":4736,"ĠElizabeth":4737,"ledge":4738,"31":4739,"ounded":4740,"Ġwear":4741,"Ġhistorical":4742,"Ġdirectly":4743,"ĠTem":4744,"Ġwhether":4745,"Ġopera":4746,"Ġburied":4747,"Ġinte":4748,"iques":4749,"ging":4750,"ĠJac":4751,"Ġideas":4752,"Ġ1936":4753,"Ã£":4754,"ĠHong":4755,"Ġthus":4756,"ĠEv":4757,"alais":4758,"hess":4759,"Ġcultural":4760,"Ġresponsible":4761,"ippi":4762,"Ġsimply":4763,"Ġsouthwest":4764,"eral":4765,"oto":4766,"Ġpowerful":4767,"light":4768,"isk":4769,"ĠHy":4770,"Ġstarred":4771,"ĠCorn":4772,"Ġremain":4773,"ysis":4774,"ĠRailway":4775,"ĠTurk":4776,"ĠSom":4777,"ĠOpen":4778,"ieuten":4779,"Ġregions":4780,"orporated":4781,"Ġbought":4782,"ĠMississ":4783,"iring":4784,"Ġpresented":4785,"Ed":4786,"jan":4787,"ĠTop":4788,"ĠBre":4789,"Ġcart":4790,"Ġmeters":4791,"Ġgrant":4792,"ski":4793,"Ġded":4794,"vin":4795,"arry":4796,"mad":4797,"tained":4798,"Ġmixed":4799,"Ġconsider":4800,"Ġtwice":4801,"ellig":4802,"ĠAlbert":4803,"ĠDi":4804,"chen":4805,"Ġquarter":4806,"Ġund":4807,"Ġlic":4808,"osh":4809,"ĠEll":4810,"ĠId":4811,"Ġtradition":4812,"ĠSupreme":4813,"mann":4814,"International":4815,"Ġissue":4816,"ĠMax":4817,"etro":4818,"Ġwinner":4819,"Ġsport":4820,"ĠRadio":4821,"Ġinn":4822,"elle":4823,"Ġmanagement":4824,"ĠSa":4825,"Ġexperience":4826,"gal":4827,"Ġacadem":4828,"Ġfounder":4829,"gn":4830,"Ġsecret":4831,"ĠMexican":4832,"pon":4833,"Ġnotable":4834,"Ġsucceed":4835,"Ġarrived":4836,"ĠRam":4837,"ully":4838,"Ġlif":4839,"Ġshare":4840,"Ġplanned":4841,"ieutenant":4842,"32":4843,"imum":4844,"Ġproposed":4845,"ntario":4846,"ugby":4847,"Ġ1933":4848,"Ġleaders":4849,"Ġcopies":4850,"Other":4851,"Ġequip":4852,"Ġprincip":4853,"rast":4854,"water":4855,"Ã¢":4856,"Ġserve":4857,"Ġfocus":4858,"Ġdouble":4859,"ening":4860,"ĠVi":4861,"Ġremaining":4862,"ĠEmperor":4863,"Ġbatt":4864,"Ġkil":4865,"Ġurban":4866,"ĠÂ£":4867,"Ġneighbor":4868,"Ġtall":4869,"ĠAbout":4870,"rical":4871,"Ġburn":4872,"ruit":4873,"ĠNews":4874,"Ex":4875,"Ġmaster":4876,"andy":4877,"Ġactually":4878,"Ġreplace":4879,"ĠFoundation":4880,"vis":4881,"ĠSu":4882,"ĠBell":4883,"ety":4884,"Ġsomeone":4885,"Ġ1935":4886,"ĠMid":4887,"Ġprin":4888,"Ġpromoted":4889,"Ġess":4890,"Ġsolo":4891,"Ġmunicipalities":4892,"ĠTre":4893,"Ġbeat":4894,"ĠLy":4895,"Ġcouncil":4896,"apore":4897,"izing":4898,"ĠHarr":4899,"orf":4900,"Many":4901,"abama":4902,"Ġtrains":4903,"ĠNord":4904,"Ġruled":4905,"Ġjournalist":4906,"ĠTay":4907,"Ġ45":4908,"Ġadditional":4909,"ĠStep":4910,"ĠColor":4911,"mas":4912,"ĠOx":4913,"Ġupper":4914,"ĠWork":4915,"overy":4916,"ĠConference":4917,"ĠUSA":4918,"vi":4919,"agan":4920,"Ġmusician":4921,"Ġbrain":4922,"Ġpun":4923,"abad":4924,"ession":4925,"Ġpath":4926,"Ġ1937":4927,"Ġdeclared":4928,"amber":4929,"osed":4930,"rence":4931,"ĠCentre":4932,"Ġnormal":4933,"ĠIndiana":4934,"Ġrenamed":4935,"ĠHu":4936,"ĠEst":4937,"Ġplans":4938,"enna":4939,"Ġmagn":4940,"Ġbott":4941,"ĠWinter":4942,"Ġparticipated":4943,"onto":4944,"edom":4945,"75":4946,"ĠJeff":4947,"Ġparticularly":4948,"List":4949,"Ġagreed":4950,"ĠMov":4951,"Ġpolicy":4952,"Ġfighting":4953,"Ġdiscuss":4954,"ĠBad":4955,"ĠGh":4956,"Ġconfl":4957,"cting":4958,"Ġrat":4959,"ĠRog":4960,"adelph":4961,"Ġadult":4962,"Ġcommission":4963,"FC":4964,"Ġbrief":4965,"ĠCensus":4966,"Ġstore":4967,"Ġfollows":4968,"aded":4969,"ager":4970,"ĠBarb":4971,"Ġflight":4972,"kins":4973,"etween":4974,"uer":4975,"ĠCD":4976,"Ġdoctor":4977,"velopment":4978,"tainment":4979,"Ġoffered":4980,"Ġpotential":4981,"49":4982,"ĠHistor":4983,"Ġcars":4984,"Ġ500":4985,"oa":4986,"stone":4987,"Ġordered":4988,"Ã¼r":4989,"ĠCa":4990,"ĠOffice":4991,"Ġstreng":4992,"Å¡":4993,"ĠCur":4994,"ĠUnder":4995,"ĠMoscow":4996,"ĠAlabama":4997,"ĠOtt":4998,"ronze":4999,"Ġactivity":5000,"Ġeffects":5001,"ĠCross":5002,"inem":5003,"inks":5004,"adelphia":5005,"mir":5006,"Ġextra":5007,"Ġrecognized":5008,"enes":5009,"utions":5010,"ĠForm":5011,"fecture":5012,"ĠSund":5013,"ĠMaria":5014,"ĠBrook":5015,"Ġresponse":5016,"ĠCub":5017,"ervative":5018,"ĠGree":5019,"ĠMississippi":5020,"ais":5021,"ĠPublic":5022,"ÅĤ":5023,"ograp":5024,"ĠOntario":5025,"ĠBow":5026,"Ġnick":5027,"irement":5028,"ĠGolden":5029,"Ã£o":5030,"ĠRay":5031,"ashion":5032,"500":5033,"ining":5034,"ĠHor":5035,"ĠRegion":5036,"Ġpeace":5037,"Ġgiving":5038,"Ġast":5039,"ĠFar":5040,"Ġversions":5041,"Ġcaptured":5042,"ader":5043,"ĠGirl":5044,"Ġheadquarters":5045,"Ġtreatment":5046,"Ġprovides":5047,"ĠLew":5048,"ĠEle":5049,"Ġmayor":5050,"ĠJoe":5051,"resh":5052,"eding":5053,"ĠPas":5054,"ĠWater":5055,"ĠKen":5056,"Ġregional":5057,"ĠGram":5058,"ĠAnother":5059,"Ġera":5060,"Ġyellow":5061,"urd":5062,"Ġreligion":5063,"vement":5064,"Ġstarts":5065,"ĠBah":5066,"ĠNob":5067,"ĠLittle":5068,"Ġattacks":5069,"Ġstra":5070,"Ġconstitu":5071,"ĠPers":5072,"Ġcollabor":5073,"Ġspoken":5074,"throp":5075,"roke":5076,"ĠVan":5077,"ĠProfessor":5078,"Ġsimple":5079,"Ġens":5080,"ĠFour":5081,"Ġprop":5082,"Ġyounger":5083,"real":5084,"ĠGame":5085,"ourg":5086,"Ġpiece":5087,"yal":5088,"ito":5089,"ĠGall":5090,"which":5091,"Ġinitially":5092,"ĠCorporation":5093,"Ġwild":5094,"atively":5095,"Ġcam":5096,"Ġparliament":5097,"Ġskin":5098,"48":5099,"Ġrom":5100,"ori":5101,"arp":5102,"ĠNetwork":5103,"Ġgetting":5104,"ĠTeam":5105,"apers":5106,"fall":5107,"ker":5108,"ĠVice":5109,"ĠPhilippines":5110,"Ġ1931":5111,"una":5112,"Ġstopped":5113,"Ġsides":5114,"Ġability":5115,"ĠNig":5116,"ources":5117,"izes":5118,"Ġ1929":5119,"Ġpieces":5120,"By":5121,"bach":5122,"itted":5123,"olved":5124,"Total":5125,"Ġdisp":5126,"Ġcritics":5127,"ĠOb":5128,"Ġcrew":5129,"Ġestimated":5130,"Ġcerem":5131,"Ġmic":5132,"ĠSel":5133,"dney":5134,"Ġmeasure":5135,"kin":5136,"ĠSub":5137,"Ġweight":5138,"Ġdeliver":5139,"Ġworldwide":5140,"Ġcorn":5141,"ĠRaj":5142,"ersonal":5143,"Ġdivor":5144,"Ne":5145,"fort":5146,"46":5147,"Ġlake":5148,"Ġ179":5149,"bass":5150,"Ġconcept":5151,"Ġchairman":5152,"Ġcontinue":5153,"Ġsevent":5154,"ĠChild":5155,"Ġallows":5156,"ĠPhiladelphia":5157,"ting":5158,"ĠWW":5159,"ĠSingapore":5160,"arrow":5161,"Ġfigure":5162,"Ġcounties":5163,"Ġflood":5164,"Ġoperation":5165,"ĠNight":5166,"Ġcouple":5167,"Ġliterature":5168,"Ġvac":5169,"Ġmachine":5170,"Or":5171,"gar":5172,"Ġhop":5173,"Ġassistant":5174,"Since":5175,"Ġcovers":5176,"ennessee":5177,"\";":5178,"ĠAff":5179,"ĠPop":5180,"ĠResearch":5181,"ĠBa":5182,"Ġhighly":5183,"ĠCard":5184,"Ġrepe":5185,"Ġgained":5186,"ĠGood":5187,"With":5188,"Col":5189,"onsin":5190,"Ind":5191,"ci":5192,"Ġdistance":5193,"ĠCommon":5194,"ĠAlexander":5195,"ĠJustice":5196,"rong":5197,"duce":5198,"Ġpaid":5199,"iab":5200,"Ġsplit":5201,"Ġmill":5202,"ĠLincoln":5203,"ĠJane":5204,"Ġyouth":5205,"Ġissued":5206,"ĠFame":5207,"achel":5208,"ption":5209,"ĠVen":5210,"Ġstadium":5211,"Ġfiction":5212,"Ġattention":5213,"Ġ1932":5214,"Ġprior":5215,"nce":5216,"ĠFord":5217,"Ġadopted":5218,"iot":5219,"ĠCop":5220,"Ġdemon":5221,"ĠOf":5222,"isconsin":5223,"Ġsquad":5224,"ĠTime":5225,"Ġyet":5226,"Ġanimated":5227,"with":5228,"ĠRod":5229,"Ġbor":5230,"ĠMunicip":5231,"Ġworkers":5232,"Ġassociation":5233,"Ġsoftware":5234,"Ġpit":5235,"Ġneeds":5236,"ĠSanta":5237,"anes":5238,"ĠHealth":5239,"Calais":5240,"order":5241,"uy":5242,"edia":5243,"ĠMir":5244,"Ġdang":5245,"Ġchosen":5246,"ĠBlue":5247,"Ġhosted":5248,"des":5249,"iac":5250,"ĠCE":5251,"ĠChannel":5252,"ĠEntertainment":5253,"Ġfix":5254,"Ġfellow":5255,"ĠChile":5256,"Ġdial":5257,"Ġinstrument":5258,"Ġcontain":5259,"ĠUkraine":5260,"ĠâĢĶ":5261,"'.":5262,"Ġoperating":5263,"iny":5264,"Ġtracks":5265,"bourne":5266,"ĠAsh":5267,"Ġstone":5268,"icture":5269,"Ġorganized":5270,"rated":5271,"Ġfell":5272,"Ġetc":5273,"Ġaired":5274,"ĠFe":5275,"ĠConne":5276,"ĠSab":5277,"Ġperman":5278,"Ġjun":5279,"ĠTheatre":5280,"Ġarrested":5281,"ĠHospital":5282,"Ġcontrovers":5283,"Ġconcent":5284,"ĠAlf":5285,"Ġpainting":5286,"bed":5287,"Ġcomment":5288,"Ġtwenty":5289,"icate":5290,"Ġbass":5291,"Â²":5292,"irmed":5293,"ĠWisconsin":5294,"Ġsched":5295,"pan":5296,"Ġbound":5297,"Ġtrial":5298,"ĠTennessee":5299,"ĠIndones":5300,"Ġdraft":5301,"eman":5302,"Ġattacked":5303,"da":5304,"ĠDuke":5305,"bra":5306,"sky":5307,"ees":5308,"Ġserious":5309,"Ġofficers":5310,"Ġsens":5311,"istance":5312,"ilding":5313,"Ġ1928":5314,"ĠGuard":5315,"Ġgrowth":5316,"Ġsuffered":5317,"Ġpan":5318,"Her":5319,"Ġvan":5320,"mouth":5321,"Ġ32":5322,"Ġbroke":5323,"Ġcontinu":5324,"ĠDaniel":5325,"Ġcompletely":5326,"Ġathlet":5327,"Ġnecess":5328,"ĠThree":5329,"Billboard":5330,"met":5331,"andon":5332,"ffic":5333,"Ġindustrial":5334,"Ġconnected":5335,"ĠBangl":5336,"Ġdomin":5337,"Ġbrown":5338,"ĠBridge":5339,"Ġbaseball":5340,"ĠUt":5341,"Ġsearch":5342,"ĠStation":5343,"Ġclubs":5344,"ĠSydney":5345,"SR":5346,"commun":5347,"Ġpack":5348,"perial":5349,"ĠBeach":5350,"ami":5351,"alo":5352,"Ġowner":5353,"Ġsymbol":5354,"ĠColorado":5355,"rÃ©":5356,"Ġgraph":5357,"Ġvotes":5358,"bec":5359,"antic":5360,"ĠMaine":5361,"ĠDak":5362,"zo":5363,"usc":5364,"Ġdoing":5365,"Ġpolitics":5366,"Ġtitles":5367,"Ġindependence":5368,"ĠUN":5369,"Ġcho":5370,"ĠMaryland":5371,"mph":5372,"Ġcold":5373,"Ġreasons":5374,"ika":5375,"Ġdry":5376,"ĠHamp":5377,"rics":5378,"Ġ75":5379,"ĠInt":5380,"Ġyour":5381,"Ġ1927":5382,"Ġalongside":5383,"Ġwinter":5384,"They":5385,"ĠConstitution":5386,"Ġrestaur":5387,"antry":5388,"sey":5389,"William":5390,"ĠNHL":5391,"ĠAndrew":5392,"Ġaccepted":5393,"ĠKir":5394,"Ġcreation":5395,"resp":5396,"ĠBudd":5397,"ensity":5398,"Ġextended":5399,"Ġstream":5400,"lers":5401,"athan":5402,"Ġspring":5403,"alle":5404,"Ġsixth":5405,"Ãº":5406,"ighter":5407,"Ġequal":5408,");":5409,"cia":5410,"ivity":5411,"igg":5412,"arrondissement":5413,"ĠÅ":5414,"Ġstreet":5415,"orter":5416,"ĠAh":5417,"ĠRon":5418,"obe":5419,"65":5420,"DP":5421,"inals":5422,"Ġwhy":5423,"Ġarticle":5424,"kh":5425,"ns":5426,"Ġonline":5427,"Ġpartn":5428,"Ġrefers":5429,"Ġnuclear":5430,"Ġrecently":5431,"ĠToronto":5432,"ĠTokyo":5433,"ĠHam":5434,"Ġshape":5435,"ĠDar":5436,"ĠHead":5437,"Ġ1926":5438,"plement":5439,"ĠPit":5440,"ously":5441,"Ġsales":5442,"elve":5443,"Ġcoming":5444,"ĠFIFA":5445,"Ġforward":5446,"portun":5447,"Ġcontent":5448,"ĠLady":5449,"Ġletters":5450,"put":5451,"Ġconcert":5452,"Ġve":5453,"Ġvo":5454,"Ġrivers":5455,"Ġsemi":5456,"heastern":5457,"olis":5458,"hedral":5459,"igen":5460,"Ġmyth":5461,"Ġnickn":5462,"Ġwa":5463,"elly":5464,"Ġfloor":5465,"pet":5466,"Ġflows":5467,"Ġscientific":5468,"ĠConfeder":5469,"includ":5470,"Ġbeaut":5471,"Ġmole":5472,"Ġreact":5473,"ĠWild":5474,"Te":5475,"lywood":5476,"Ġpattern":5477,"May":5478,"Ġ;":5479,"Ġgreatest":5480,"Ġpra":5481,"ĠSher":5482,"Ġdebuted":5483,"Dav":5484,"emeter":5485,"ghan":5486,"Ġancest":5487,"Ġbul":5488,"Ġlies":5489,"icks":5490,"Ġdefeat":5491,"Ġheat":5492,"Ġsuburb":5493,"Ġcapac":5494,"press":5495,"Ġacid":5496,"orge":5497,"ĠCreek":5498,"ĠBon":5499,"cles":5500,"Ġbasis":5501,"vest":5502,"enger":5503,"Ġfestival":5504,"ĠBand":5505,"Ġrob":5506,"ulpt":5507,"ĠIndepend":5508,"Ġquestion":5509,"ishes":5510,"lets":5511,"itness":5512,"Ġ1925":5513,"ĠTurkey":5514,"ĠPremier":5515,"ĠJan":5516,"Ġsecurity":5517,"ĠWars":5518,"Ġadvan":5519,"ansion":5520,"Ġflu":5521,"ĠStadium":5522,"hens":5523,"Mon":5524,"ĠWilson":5525,"isa":5526,"akers":5527,"Ġconsum":5528,"Ġcaptain":5529,"Ġtrying":5530,"Ġsusp":5531,"VD":5532,"Ġbrand":5533,"load":5534,"Ġsons":5535,"Ġrevealed":5536,"imal":5537,"rogen":5538,"Ġresidents":5539,"Ġswim":5540,"ĠQueens":5541,"Ġsitu":5542,"ĠNick":5543,"Ġhousehold":5544,"Ġgrowing":5545,"Ġring":5546,"Ġroyal":5547,"ĠVill":5548,"Ġelement":5549,"Ġly":5550,"Ġcolumn":5551,"Ġdirection":5552,"greg":5553,"Ġir":5554,"oration":5555,"organ":5556,"Ġhol":5557,"Ġpiano":5558,"Ġreform":5559,"ĠRom":5560,"99":5561,"Ġfirm":5562,"emporary":5563,"ĠKhan":5564,"aro":5565,"iat":5566,"raq":5567,"Ġattra":5568,"Ġcondition":5569,"ĠJesus":5570,"Ġacademic":5571,"ographer":5572,"ĠOp":5573,"orph":5574,"Ġcombined":5575,"ĠRang":5576,"Ġacquired":5577,"ĠArgentina":5578,"Most":5579,"stead":5580,"ĠList":5581,"Ġparties":5582,"ii":5583,"Ġple":5584,"osis":5585,"ĠEp":5586,"Ġsun":5587,"esh":5588,"Ġcounter":5589,"Ġbegin":5590,"Ġchap":5591,"Ġholds":5592,"ĠTaiwan":5593,"ĠBure":5594,"ĠGro":5595,"Ġwall":5596,"Ġseats":5597,"oven":5598,"ĠKim":5599,"Ġmetres":5600,"100":5601,"asy":5602,"Ġsources":5603,"Ġalt":5604,"Ġmorning":5605,"ĠAnton":5606,"Ġadministration":5607,"aug":5608,"Ġagric":5609,"Ġquality":5610,"AC":5611,"Ã©n":5612,"Ġtitled":5613,"worth":5614,"Ġcarbon":5615,"Ġeconomy":5616,"uguese":5617,"icide":5618,"Ġreign":5619,"lyn":5620,"ighth":5621,"Ġscene":5622,"Ġdiagn":5623,"Ġranked":5624,"Ġpurpose":5625,"ĠDun":5626,"anna":5627,"Ġenter":5628,"Ġserves":5629,"ĠTa":5630,"ctive":5631,"Ġbasic":5632,"Ġ1922":5633,"Ġmountains":5634,"ĠMas":5635,"bo":5636,"ĠSports":5637,"Ġcontact":5638,"Ġ1924":5639,"atal":5640,"ĠHuman":5641,"ĠBalt":5642,"ĠArthur":5643,"Ġprec":5644,"Ġprimarily":5645,"ĠFire":5646,"Ġcompared":5647,"Ġuns":5648,"ĠBol":5649,"Ġeggs":5650,"My":5651,"ogue":5652,"Ġkilomet":5653,"aith":5654,"Ġethnic":5655,"ĠTaylor":5656,"Ġpup":5657,"Ġmaterials":5658,"Ġincreasing":5659,"stitutional":5660,"ĠMain":5661,"Ġweapons":5662,"Personal":5663,"Ġvalley":5664,"42":5665,"Ġsoutheast":5666,"Ġflat":5667,"Ġhands":5668,"intend":5669,"Ġcampus":5670,"bro":5671,"state":5672,"eller":5673,"ĠIntern":5674,"EFA":5675,"book":5676,"li":5677,"Ġcab":5678,"ados":5679,"Ġroll":5680,"engers":5681,"VID":5682,"Ġlearning":5683,"ĠNative":5684,"Ġtherefore":5685,"Ġdedicated":5686,"55":5687,"ĠToday":5688,"Ġcommunities":5689,"aging":5690,"ĠPictures":5691,"ĠCroat":5692,"ione":5693,"iley":5694,"Ġopportun":5695,"Ġtheme":5696,"Ġcoin":5697,"Ġhurricane":5698,"Ġbusinessman":5699,"orney":5700,"ĠOxford":5701,"aret":5702,"Ġindividuals":5703,"Biography":5704,"joy":5705,"ĠPost":5706,"ĠHome":5707,"Ġadj":5708,"Ġracing":5709,"--":5710,"ĠNic":5711,"ĠNorway":5712,"song":5713,"Ġimage":5714,"Ġhistoric":5715,"Ġinse":5716,"Ġthir":5717,"Ġlands":5718,"Ġlatter":5719,"ĠSerb":5720,"West":5721,"ania":5722,"aux":5723,"Ġconfirmed":5724,"66":5725,"Ġmentioned":5726,"Ġult":5727,"ĠInf":5728,"Ġdespite":5729,"Ġactivist":5730,"atures":5731,"ĠBir":5732,"ĠGer":5733,"iva":5734,"ĠVietnam":5735,"Ġfair":5736,"ĠTest":5737,"ĠTrump":5738,"inth":5739,"ĠTro":5740,"ĠDie":5741,"ĠHart":5742,"weight":5743,"uri":5744,"ulated":5745,"Ġtypically":5746,"Ġbodies":5747,"Ġarms":5748,"Ġprep":5749,"To":5750,"Ġhabit":5751,"ĠFederation":5752,"set":5753,"Ġfans":5754,"iminal":5755,"insula":5756,"Ġdipl":5757,"Ġbrothers":5758,"Ġobjects":5759,"wing":5760,"Ġarts":5761,"Ġresigned":5762,"Ġcomed":5763,"Ġteaching":5764,"inners":5765,"ifying":5766,"cont":5767,"Ġpartner":5768,"ĠDakota":5769,"Ġcricket":5770,"Ġfoss":5771,"ĠSav":5772,"Ġreally":5773,"ĠWel":5774,"isms":5775,"Ġbegins":5776,"Ġagreement":5777,"bi":5778,"Ġiron":5779,"Ġtell":5780,"ĠKal":5781,"Ġexpected":5782,"ĠBos":5783,"Ġwithd":5784,"Ġsleep":5785,"Ġpoll":5786,"Ġsettlement":5787,"Ġliber":5788,"Ġnortheast":5789,"ĠPope":5790,"istered":5791,"Ġ1923":5792,"Ġoccurred":5793,"En":5794,"ĠSus":5795,"ĠBru":5796,"Ġscientists":5797,"Ã¥":5798,"Ġcenturies":5799,"Ġtemple":5800,"elligence":5801,"lar":5802,"89":5803,"ĠDevelopment":5804,"Ġkinds":5805,"85":5806,"ĠDam":5807,"ĠCorps":5808,"rizona":5809,"Sup":5810,"ĠTamil":5811,"Ġvon":5812,"Ġspeech":5813,"emetery":5814,"Ġbronze":5815,"Ġharm":5816,"ĠBeng":5817,"Ġfavor":5818,"44":5819,"MA":5820,"Ġcoal":5821,"cha":5822,"Ġpoly":5823,"gery":5824,"76":5825,"MS":5826,"Ġones":5827,"Ġplane":5828,"ardo":5829,"othes":5830,"Ġvillages":5831,"uls":5832,"glas":5833,"Ġunion":5834,"alymp":5835,"ragon":5836,"ĠLind":5837,"Ġkid":5838,"ographic":5839,"ĠÐ":5840,"Ġfashion":5841,"room":5842,"Ġconver":5843,"Ġexperiment":5844,"Ġeasily":5845,"gram":5846,"Ġfelt":5847,"ĠAtt":5848,"Ġmom":5849,"icient":5850,"Ġdefin":5851,"cticut":5852,"!\"":5853,"Bar":5854,"You":5855,"iful":5856,"ĠKat":5857,"ĠTurkish":5858,"ĠHay":5859,"ĠLeon":5860,"Ġknowledge":5861,"Ġtransferred":5862,"Ant":5863,"ightly":5864,"Ġimmediately":5865,"Ġ1919":5866,"Ġhair":5867,"Ġspot":5868,"ĠParalymp":5869,"=\"":5870,"estic":5871,"Ġbelief":5872,"Ġpositions":5873,"Ġtouch":5874,"pa":5875,"rect":5876,"onds":5877,"Ġquite":5878,"ĠAbb":5879,"Ġhall":5880,"Ġexact":5881,"Ġtheatre":5882,"ĠHun":5883,"ĠLes":5884,"ĠNow":5885,"ĠOrgan":5886,"ĠSenator":5887,"ĠJon":5888,"ĠEven":5889,"Rh":5890,"ĠSwiss":5891,"Ġcreating":5892,"gely":5893,"Ġfeaturing":5894,"ĠWrest":5895,"Ġrural":5896,"ui":5897,"ĠPortuguese":5898,"Ġsettled":5899,"class":5900,"Ġformat":5901,"Ġpowers":5902,"Ġdigital":5903,"Ġinspired":5904,"ĠConnecticut":5905,"ipe":5906,"ĠNap":5907,"ĠJoh":5908,"ugal":5909,"uv":5910,"onom":5911,"Ġfolk":5912,"stan":5913,"Ġmind":5914,"Ġlosing":5915,"Ġequipment":5916,"86":5917,"kes":5918,"Ġalone":5919,"aga":5920,"Ġfemales":5921,"ĠLim":5922,"ordan":5923,"Ġadapt":5924,"Ġbit":5925,"ĠAz":5926,"ikh":5927,"encies":5928,"lem":5929,"Ġda":5930,"ading":5931,"Ġrich":5932,"ĠIraq":5933,"Ġunknown":5934,"Ġsculpt":5935,"Star":5936,"Ġraces":5937,"inity":5938,"erick":5939,"Ġbill":5940,"ĠMun":5941,"ĠBishop":5942,"Ġmemory":5943,"everal":5944,"former":5945,"77":5946,"ĠTal":5947,"Ġ1918":5948,"ĠMarsh":5949,"Ġacts":5950,"ĠJews":5951,"ĠEconom":5952,"ĠAdd":5953,"Ġgirls":5954,"ĠGreece":5955,"Ġeyes":5956,"ĠUEFA":5957,"pool":5958,"Ġends":5959,"anguage":5960,"Ġsuggested":5961,"char":5962,"Ġhorse":5963,"ĠArea":5964,"section":5965,"ĠMinistry":5966,"Ġapplied":5967,"ĠSpring":5968,"Ġsubsequently":5969,"amples":5970,"ynam":5971,"Ġcitizens":5972,"ĠCab":5973,"Ġunique":5974,"ĠWat":5975,"Ġprogress":5976,"ĠFair":5977,"Ġprime":5978,"ĠCOVID":5979,"ĠLight":5980,"Ġvice":5981,"Ġcontrolled":5982,"Å«":5983,"Ġwatch":5984,"uther":5985,"ĠGre":5986,"osa":5987,"Ġfinish":5988,"Ġclasses":5989,"itled":5990,"Ġhero":5991,"iform":5992,"Ġ36":5993,"ĠColomb":5994,"Ġmodels":5995,"ĠJer":5996,"ĠStock":5997,"Ġgeneration":5998,"ĠCastle":5999,"ĠBureau":6000,"zen":6001,"Ġkingdom":6002,"coh":6003,"ĠWalk":6004,"Mus":6005,"Ġlabor":6006,"ĠElect":6007,"ello":6008,"ibb":6009,"Ġretirement":6010,"Ġdrink":6011,"Ġimpact":6012,"Ġinjury":6013,"Death":6014,"Ġmax":6015,"ĠHan":6016,"These":6017,"regon":6018,"Char":6019,"Ġconducted":6020,"Ġarchitecture":6021,"Ġorganizations":6022,"Ġattend":6023,"95":6024,"Ġ1921":6025,"ĠKer":6026,"Ġrequire":6027,"Ġwing":6028,"Ġmouth":6029,"ĠLike":6030,"Ġreceive":6031,"Christ":6032,"where":6033,"Ġbow":6034,"ums":6035,"Ġ300":6036,"Ġintended":6037,"Ġstrugg":6038,"Ġmales":6039,"ears":6040,"Ġleadership":6041,"ĠHarry":6042,"Ġengineering":6043,"Ġliqu":6044,"Ġbands":6045,"ĠMike":6046,"ĠField":6047,"ĠOd":6048,"Ġcloth":6049,"Ġ65":6050,"agh":6051,"ĠClin":6052,"ĠPolice":6053,"Ġprominent":6054,"RT":6055,"Ġperformances":6056,"ĠLibrary":6057,"ĠChap":6058,"ordin":6059,"Ġshop":6060,"Ġweather":6061,"Gu":6062,"rance":6063,"Ġagent":6064,"Ġspons":6065,"Ġairport":6066,"Ġille":6067,"urches":6068,"Ġven":6069,"weet":6070,"Ġsites":6071,"Ġprojects":6072,"Ġspirit":6073,"ĠArizona":6074,"ĠMember":6075,"ĠMetropolitan":6076,"PA":6077,"ĠEnd":6078,"ante":6079,"rees":6080,"lete":6081,"Ġsucceeded":6082,"Ġsand":6083,"ÃŃa":6084,"Car":6085,"Ġâ":6086,"Ġovers":6087,"ĠAnne":6088,"ĠAfghan":6089,"Ġlasted":6090,"Br":6091,"Robert":6092,"ĠChris":6093,"je":6094,"ĠKy":6095,"ĠManchester":6096,"Ġcritical":6097,"Ġconflict":6098,"Qu":6099,"ĠAD":6100,"Ġheight":6101,"Ġassigned":6102,"Ġanalysis":6103,"ĠAffairs":6104,"roc":6105,"Ġenjoy":6106,"Ġtarget":6107,"ooth":6108,"ĠDonald":6109,"ĠVienna":6110,"ĠRoss":6111,"ĠLat":6112,"ĠWindows":6113,"hol":6114,"po":6115,"Ġmamm":6116,"ĠPic":6117,"place":6118,"Ġdistinct":6119,"41":6120,"urer":6121,"Ġheard":6122,"Ġsupply":6123,"ĠOnly":6124,"Life":6125,"olph":6126,"ictional":6127,"Ġrefused":6128,"ĠLewis":6129,"ĠAqu":6130,"usion":6131,"anga":6132,"Ġfr":6133,"ĠAvenue":6134,"Ġ(),":6135,"Ġjoint":6136,"Ġcustom":6137,"Ġdefined":6138,"IA":6139,"Ġfly":6140,"Ġnob":6141,"Ġonto":6142,"Ġinfluenced":6143,"Ste":6144,"Ġsuppl":6145,"Ġplanet":6146,"dam":6147,"Ġsac":6148,"ĠHard":6149,"ĠRel":6150,"arks":6151,"ĠHistory":6152,"Ġelev":6153,"Ġscholar":6154,"ĠCape":6155,"unte":6156,"emic":6157,"uf":6158,"ĠBelg":6159,"ĠIslamic":6160,"Ġlargely":6161,"Ġresulted":6162,"Ġinitial":6163,"Ġguns":6164,"uh":6165,"Ġfacilities":6166,"pri":6167,"rav":6168,"Ġ400":6169,"No":6170,"ando":6171,"ovak":6172,"Ġconference":6173,"Ġlongest":6174,"Ġexamples":6175,"Ġpremier":6176,"People":6177,"ĠSpecial":6178,"ĠPo":6179,"gers":6180,"Ġconstructed":6181,"force":6182,"ĠMalays":6183,"ĠGreg":6184,"Ġincome":6185,"Ġvisited":6186,"If":6187,"Ġcastle":6188,"oral":6189,"agement":6190,"Ġextrem":6191,"\":":6192,"father":6193,"Ġshr":6194,"anner":6195,"Ġentertain":6196,"Ġaudience":6197,"Ġenemy":6198,"bai":6199,"Ġcook":6200,"ĠBall":6201,"ĠBrad":6202,"Ġidentified":6203,"ĠOffic":6204,"IS":6205,"Ġcool":6206,"Ġdie":6207,"umes":6208,"Ġoffers":6209,"Ġmatter":6210,"ĠChristmas":6211,"ancing":6212,"Ġseem":6213,"Ġstraight":6214,"Ġgreater":6215,"ĠEth":6216,"Ġadvert":6217,"ĠMoh":6218,"Ġcomic":6219,"ocese":6220,"ĠSciences":6221,"Ġbact":6222,"Ġlibrary":6223,"ĠOregon":6224,"ception":6225,"aver":6226,"Ġpet":6227,"ircle":6228,"Ġdriver":6229,"Ġrapid":6230,"ĠBangladesh":6231,"ni":6232,"endar":6233,"iki":6234,"Ġsurrounding":6235,"Ġsell":6236,"ĠNev":6237,"Ġheav":6238,"umed":6239,"Ġgrass":6240,"David":6241,"eries":6242,"Ġfully":6243,"Ġ1917":6244,"ĠFinn":6245,"leyball":6246,"Jos":6247,"Ġfranch":6248,"ĠBab":6249,"ĠSri":6250,"ĠEngine":6251,"Ġfields":6252,"Ġcapacity":6253,"actions":6254,"oming":6255,"Ġdrive":6256,"Ġdistribution":6257,"ĠStephen":6258,"OS":6259,"position":6260,"box":6261,"ĠMayor":6262,"ĠAdminist":6263,"Ġscript":6264,"ĠStat":6265,"Ġinjured":6266,"ĠHighway":6267,"Ġlearned":6268,"General":6269,"Ġformerly":6270,"ĠMountains":6271,"friend":6272,"43":6273,"ĠPun":6274,"uties":6275,"CC":6276,"lad":6277,"ques":6278,"rator":6279,"Ġcontinues":6280,"Ġjudge":6281,"rons":6282,"Ġwants":6283,"Ġdiam":6284,"ordon":6285,"Ġofficials":6286,"ĠTerrit":6287,"Ġpage":6288,"Ġaffected":6289,"Ġactions":6290,"Ġpurs":6291,"ĠSaud":6292,"ĠMarg":6293,"Ġaddress":6294,"Ġreaction":6295,"ĠDer":6296,"isted":6297,"ĠMedia":6298,"ĠBart":6299,"ĠGen":6300,"Ġearliest":6301,"ĠDespite":6302,"Ġescape":6303,"ĠBulg":6304,"August":6305,"uters":6306,"ĠPot":6307,"otic":6308,"ĠSax":6309,"umin":6310,"Ġillust":6311,"mes":6312,"itan":6313,"ĠIndust":6314,"AF":6315,"Ġtries":6316,"Ġgal":6317,"ĠBrother":6318,"Ġvess":6319,"Ġglass":6320,"ĠHawai":6321,"ĠBush":6322,"idi":6323,"Ġalph":6324,"Ġfounding":6325,"Ġkilling":6326,"Ġrespectively":6327,"Ġfuel":6328,"ĠBull":6329,"Ġsinging":6330,"Ġhelps":6331,"Ġdropped":6332,"ĠStone":6333,"Ġneighborhood":6334,"mov":6335,"Ġshared":6336,"Ġnotes":6337,"Ġsense":6338,"ĠMunicipality":6339,"ĠMill":6340,"ĠTelevision":6341,"ĠNobel":6342,"olas":6343,"ĠMedal":6344,"Ġsteam":6345,"ygen":6346,"ĠMand":6347,"Ġtele":6348,"iling":6349,"idency":6350,"Ġmethods":6351,"keep":6352,"ĠMelbourne":6353,"Ġdra":6354,"ĠMaster":6355,"ĠArmen":6356,"ĠâĢĺ":6357,"Ġfinds":6358,"etroit":6359,"gor":6360,"onne":6361,"Ġcert":6362,"ĠTony":6363,"Ġdaily":6364,"Ġreduced":6365,"outs":6366,"Ġexpanded":6367,"cient":6368,"onder":6369,"Ġrequest":6370,"Ġjazz":6371,"ibly":6372,"allenge":6373,"ĠDor":6374,"ĠDomin":6375,"Ġperforming":6376,"Ġhappen":6377,"88":6378,"zerbai":6379,"Ġscale":6380,"Ġguest":6381,"ĠMountain":6382,"pass":6383,"chers":6384,"ĠMemorial":6385,"Ġastron":6386,"Ġwarm":6387,"ĠHou":6388,"cu":6389,"Ġsail":6390,"Ġtower":6391,"ocated":6392,"Ġrough":6393,"Ġconstituency":6394,"Ġsituation":6395,"Ġlaunch":6396,"Ġshooting":6397,"Ġpermanent":6398,"Ġansw":6399,"Ġcalls":6400,"ĠAbd":6401,"Ġformation":6402,"Ġcompete":6403,"Ġestate":6404,"Ġcitizen":6405,"Nov":6406,"don":6407,"tra":6408,"Ġfictional":6409,"ĠStorm":6410,"Ġresear":6411,"Ġsecondary":6412,"ĠFinland":6413,"Ġstayed":6414,"Ġcommander":6415,"Ġ150":6416,"Ġpaintings":6417,"iti":6418,"itors":6419,"Ġpassengers":6420,"Ġprisoners":6421,"Ġefforts":6422,"Not":6423,"ĠPower":6424,"oslav":6425,"Ġdidn":6426,"Ġtwelve":6427,"ĠPrix":6428,"Ġsafety":6429,"Fl":6430,"US":6431,"enz":6432,"Ġpair":6433,"udget":6434,"wegian":6435,"century":6436,"Ġhyp":6437,"ĠSteve":6438,"ĠFree":6439,"Ġwarn":6440,"resident":6441,"Ġmusicians":6442,"Ġarticles":6443,"inally":6444,"ĠSometimes":6445,"Ġevolution":6446,"Ġlooking":6447,"found":6448,"Ä«":6449,"Ġcry":6450,"Ġcorresp":6451,"thony":6452,"ĠBurn":6453,"iders":6454,"Ġopposite":6455,"ĠAli":6456,"wealth":6457,"Ġnewly":6458,"alia":6459,"Ġhuge":6460,"Ġalcoh":6461,"Ġmut":6462,"Ġeye":6463,"apes":6464,"ĠGrammy":6465,"87":6466,"wich":6467,"Ġsuit":6468,"uled":6469,"ĠHeritage":6470,"Ġportray":6471,"Ġx":6472,"oster":6473,"ĠHoly":6474,"Ä±":6475,"Ġinform":6476,"ĠNeb":6477,"Ġitems":6478,"oute":6479,"ĠPrin":6480,"unting":6481,"Ġfigures":6482,"Ġgranted":6483,"Can":6484,"ogy":6485,"claim":6486,"Ġaccomp":6487,"uns":6488,"ĠDown":6489,"ĠSpace":6490,"Although":6491,"Ġauthority":6492,"Ġdocumentary":6493,"Ġstores":6494,"Ġbottom":6495,"Ġdefend":6496,"illing":6497,"ĠMedical":6498,"Ġloan":6499,"Ġbehavior":6500,"omot":6501,"ĠRomania":6502,"Ġintegr":6503,"mont":6504,"ĠNep":6505,"Ġrisk":6506,"2010":6507,"iop":6508,"aph":6509,"Ġincident":6510,"Brit":6511,"erc":6512,"agu":6513,"Ġdevice":6514,"Ġcategory":6515,"James":6516,"Mich":6517,"enh":6518,"ĠOak":6519,"Ġunc":6520,"Ġtail":6521,"ierre":6522,"Ġkm":6523,"Ġcompon":6524,"Ġvehicle":6525,"Ġpull":6526,"ĠKr":6527,"Ġfruit":6528,"aming":6529,"ĠPortugal":6530,"Ġnegative":6531,"pur":6532,"Ġteen":6533,"Ġprogramming":6534,"Ġlegs":6535,"Ju":6536,"king":6537,"ivals":6538,"irt":6539,"Par":6540,"die":6541,"Ġnarrow":6542,"Ġvocal":6543,"Ġclosely":6544,"ĠSum":6545,"ĠStand":6546,"Ġacted":6547,"intendo":6548,"rate":6549,"ĠFollowing":6550,"Ġchose":6551,"RC":6552,"ĠFamily":6553,"ĠArm":6554,"Ġtraffic":6555,"ĠDouglas":6556,"Sm":6557,"cos":6558,"dÃ©":6559,"Ġchain":6560,"Ġprofession":6561,"Ġrepresenting":6562,"Ġaim":6563,"Ġfresh":6564,"ĠSon":6565,"Ġengineer":6566,"Ġrear":6567,"ĠDNA":6568,"ĠLower":6569,"Ġherself":6570,"Ġprotection":6571,"ĠTs":6572,"Ġreject":6573,"ĠHills":6574,"Ġadvent":6575,"inder":6576,"ĠDavis":6577,"Ġclaims":6578,"amilton":6579,"ĠForeign":6580,"Ġalternative":6581,"Ġsets":6582,"atur":6583,"ĠPress":6584,"enny":6585,"Ġending":6586,"Ġguitarist":6587,"Ġpoetry":6588,"Ġabandon":6589,"ĠPhilip":6590,"oted":6591,"Ġprint":6592,"Ġdetect":6593,"ĠCountry":6594,"appe":6595,"idden":6596,"Ġdynasty":6597,"ads":6598,"iments":6599,"Ġsyn":6600,"Ġsteel":6601,"Ġdoub":6602,"awn":6603,"Ġexchange":6604,"ĠHollywood":6605,"Ġdiplom":6606,"ĠBelgium":6607,"miss":6608,"ĠDetroit":6609,"ĠAirlines":6610,"Ap":6611,"SP":6612,"oli":6613,"Ġmarked":6614,"rainian":6615,"Ġwave":6616,"Ġdesignated":6617,"asket":6618,"struction":6619,"Ġut":6620,"Ġ1914":6621,"Ġcommittee":6622,"Ġspect":6623,"Ġdamaged":6624,"ĠDh":6625,"Ġwriters":6626,"ĠColon":6627,"ĠDeputy":6628,"ĠCaptain":6629,"Ġthing":6630,"Ġ1900":6631,"ĠDVD":6632,"ĠNag":6633,"rowd":6634,"ĠQuebec":6635,"Ġillness":6636,"ĠForest":6637,"aling":6638,"odox":6639,"ĠKaz":6640,"Ġtrav":6641,"enez":6642,"Ġengines":6643,"hatt":6644,"Ġrow":6645,"Ġfunctions":6646,"ĠLabor":6647,"Ġapproach":6648,"Ġviolence":6649,"bassador":6650,"bar":6651,"wick":6652,"ĠCambridge":6653,"Rich":6654,"ĠRights":6655,"iable":6656,"Ġresulting":6657,"Ġoccupied":6658,"ĠHampshire":6659,"ĠRoy":6660,"ĠAlaska":6661,"ĠStanley":6662,"Ġconqu":6663,"Ġoccurs":6664,"',":6665,"Ġnomination":6666,"nel":6667,"onde":6668,"Ġdescribe":6669,"Ġforests":6670,"Ġpurchased":6671,"ĠCost":6672,"Ġconsec":6673,"soft":6674,"Ġusers":6675,"ĠLawrence":6676,"Sch":6677,"life":6678,"ĠPass":6679,"aren":6680,"Ġvehicles":6681,"Ġstock":6682,"ĠWy":6683,"poses":6684,"Ġsolid":6685,"EC":6686,"ĠTar":6687,"Ġinstru":6688,"Ġclean":6689,"Ġfocused":6690,"Ġax":6691,"Ġ64":6692,"Ġiniti":6693,"ĠBaseball":6694,"Ġstrength":6695,"56":6696,"ĠBat":6697,"imore":6698,"ĠLegisl":6699,"oj":6700,"Ġmis":6701,"Ġconstant":6702,"Ġ33":6703,"ĠKennedy":6704,"Ġdies":6705,"ĠAst":6706,"97":6707,"Ġbishop":6708,"ĠScient":6709,"ĠEarl":6710,"Ġinvasion":6711,"Ġclassical":6712,"gency":6713,"ĠWeb":6714,"urname":6715,"Ġdepart":6716,"ĠColl":6717,"Ġvoted":6718,"Ġprotest":6719,"fe":6720,"Ġguard":6721,"ĠUpper":6722,"ĠMoore":6723,"ĠTechnology":6724,"uerto":6725,"law":6726,"Ġwealth":6727,"Ġbackground":6728,"ĠLank":6729,"uster":6730,"Ġscoring":6731,"Ġmedicine":6732,"Ġprovinces":6733,"olt":6734,"Ġpresence":6735,"Ġsurgery":6736,"onym":6737,"Ġreports":6738,"Ġceremony":6739,"rome":6740,"ĠAthlet":6741,"adi":6742,"Ġrot":6743,"Ġunderstand":6744,"anny":6745,"Ġproperties":6746,"otte":6747,"LA":6748,"mpt":6749,"rin":6750,"Des":6751,"Mart":6752,"oca":6753,"Ġexplos":6754,"Ġthousands":6755,"arus":6756,"Ġbatter":6757,"Ġdoll":6758,"ĠNorwegian":6759,"iginal":6760,"ĠGulf":6761,"Ġlect":6762,"Ġunable":6763,"Ġdeaths":6764,"Ġdecre":6765,"Ġhistorian":6766,"aire":6767,"Ġidentity":6768,"Ġhomes":6769,"Ġinstruments":6770,"ĠCommonwealth":6771,"Ġdates":6772,"ĠJordan":6773,"ĠVerm":6774,"Ġlooks":6775,"Ġimmigr":6776,"ho":6777,"ĠGil":6778,"Ġvoc":6779,"Ġmaintain":6780,"ĠHoward":6781,"ĠMiller":6782,"ĠGir":6783,"fully":6784,"Ġnecessary":6785,"Paul":6786,"Ã¸":6787,"oty":6788,"Ġedge":6789,"Ġthrow":6790,"ĠBible":6791,"Ġshell":6792,"ĠHo":6793,"aked":6794,"nie":6795,"ĠAzerbai":6796,"Ġbeet":6797,"Ġbuy":6798,"rell":6799,"Ġpicture":6800,"alleng":6801,"Ġfrogs":6802,"Ġfranchise":6803,"ĠHal":6804,"ashi":6805,"ĠProt":6806,"Ġseparated":6807,"ĠRobinson":6808,"Ġorchestra":6809,"Ġavoid":6810,"Before":6811,"Ġ1912":6812,"ogether":6813,"Ġstructures":6814,"Ġveget":6815,"Ġrival":6816,"Ġpersonality":6817,"Ġtennis":6818,"ĠProgram":6819,"ĠSquare":6820,"haps":6821,"ĠRio":6822,"ĠMicro":6823,"ĠShah":6824,"wise":6825,"Ð°":6826,"ĠRose":6827,"ache":6828,"Ġnormally":6829,"cell":6830,"Ġmist":6831,"ĠTen":6832,"uting":6833,"Ġearthqu":6834,"Ġdensity":6835,"ĠMP":6836,"Ġsuicide":6837,"iami":6838,"Ġinvented":6839,"Ġslightly":6840,"South":6841,"axy":6842,"Ġshortly":6843,"Ġglobal":6844,"Ġadvant":6845,"Ġlyrics":6846,"oes":6847,"ĠHeart":6848,"Ġrang":6849,"Ġexisting":6850,"ĠEgyptian":6851,"Ġcolour":6852,"Ġreturning":6853,"Ġsurvived":6854,"Ġallowing":6855,"Ġhappens":6856,"ĠRa":6857,"Ġimplement":6858,"Ġfeed":6859,"stitutions":6860,"ĠRober":6861,"Ġprize":6862,"Ġpilot":6863,"resents":6864,"ologists":6865,"ĠLabour":6866,"ĠWrestling":6867,"bu":6868,"Ġmap":6869,"ĠTemple":6870,"ĠJacob":6871,"iner":6872,"oured":6873,"ĠTig":6874,"rip":6875,"Ġoppon":6876,"Ġexpress":6877,"Ġauthorities":6878,"ĠKl":6879,"Ġdifference":6880,"Ġeveryone":6881,"ilip":6882,"Ġ34":6883,"osphere":6884,"Ġbra":6885,"ĠNintendo":6886,"oyd":6887,"called":6888,"Ġhired":6889,"Ġresources":6890,"While":6891,"Ġdrugs":6892,"Ġrelatively":6893,"ĠClinton":6894,"Ġuser":6895,"ĠAtlanta":6896,"ĠIV":6897,"Ġ38":6898,"Ġadvanced":6899,"dy":6900,"dess":6901,"yard":6902,"ĠTel":6903,"otten":6904,"uda":6905,"abet":6906,"Ġrelations":6907,"ĠMontreal":6908,"boy":6909,"Ġ1910":6910,"imens":6911,"Ġnovels":6912,"ĠWalter":6913,"96":6914,"Ġthick":6915,"Ġvide":6916,"Ġrevolution":6917,"ĠInternet":6918,"Ġlat":6919,"Ġlung":6920,"Ġborders":6921,"ĠMuslims":6922,"Ġinaug":6923,"Ġchampions":6924,"Ġ37":6925,"Ġsuppor":6926,"Ġromantic":6927,"chi":6928,"aho":6929,"Ġopin":6930,"Ġdomestic":6931,"zh":6932,"Äį":6933,"alem":6934,"ĠSix":6935,"uki":6936,"ĠCommunist":6937,"Ġwalls":6938,"ferences":6939,"ĠPalace":6940,"ĠPeters":6941,"itter":6942,"Ġmel":6943,"elson":6944,"Ġobserv":6945,"uj":6946,"ĠFle":6947,"Ġpolic":6948,"Ġobtained":6949,"endment":6950,"ĠYouth":6951,"Ġrepresents":6952,"Ġopposition":6953,"ĠLeb":6954,"Ġchalleng":6955,"Ġterror":6956,"Ġpainted":6957,"Ġhotel":6958,"leveland":6959,"Ġprincipal":6960,"agen":6961,"Ġjobs":6962,"Ġphilosophy":6963,"IC":6964,"rete":6965,"Ġsave":6966,"stream":6967,"ĠGard":6968,"aved":6969,"uccess":6970,"ĠAdam":6971,"Ġpainter":6972,"ĠJunior":6973,"dale":6974,"Ġrecomm":6975,"Ġcausing":6976,"Ġhour":6977,"Ġvolume":6978,"TC":6979,"Ġsnow":6980,"ingen":6981,"ingham":6982,"thodox":6983,"Ġdegrees":6984,"ĠSaudi":6985,"Ġmental":6986,"Ġseek":6987,"Ġsoil":6988,"Ġcalendar":6989,"ĠNazi":6990,"ĠParalympics":6991,"Ġwrong":6992,"ĠYug":6993,"ĠHindu":6994,"ĠDC":6995,"ples":6996,"Ġemot":6997,"mi":6998,"rum":6999,"omew":7000,"eland":7001,"ĠLive":7002,"ulate":7003,"ext":7004,"Ġroads":7005,"Ġboat":7006,"Ġregarded":7007,"ĠBusiness":7008,"car":7009,"apted":7010,"Ġdescribes":7011,"ĠDenmark":7012,"racy":7013,"ulty":7014,"di":7015,"oti":7016,"Ġelimin":7017,"June":7018,"bell":7019,"ifically":7020,"ateur":7021,"ĠStra":7022,"Ġachieved":7023,"Ġchurches":7024,"Ġholding":7025,"Ġseventh":7026,"ĠWWE":7027,"Ġvent":7028,"Ġtrained":7029,"Ġcalcul":7030,"ti":7031,"Us":7032,"Ġdivorced":7033,"Ġocean":7034,"ĠTurn":7035,"Ġcontemporary":7036,"Ġapart":7037,"isne":7038,"Ġwins":7039,"ĠCas":7040,"Ġselection":7041,"ĠBuddh":7042,"Tr":7043,"eless":7044,"ownt":7045,"Ġhighway":7046,"Ġdeveloping":7047,"ĠOrchestra":7048,"Ã¨re":7049,"ĠHarris":7050,"hat":7051,"ecutive":7052,"Ġdefense":7053,"Ġelectronic":7054,"nia":7055,"ushed":7056,"ĠRen":7057,"aste":7058,"ucks":7059,"ĠArn":7060,"pedition":7061,"ĠCentury":7062,"Ġtreated":7063,"Ġ1916":7064,"ourney":7065,"Ġuniversities":7066,"ĠSunday":7067,"achelor":7068,"ĠUtah":7069,"oen":7070,"ĠNar":7071,"ĠEP":7072,"Ġvalues":7073,"ĠLiberal":7074,"Ġselling":7075,"ĠMoon":7076,"Ġ85":7077,"Ġtrou":7078,"ĠOt":7079,"Ġtranslated":7080,"%.":7081,"ĠAllen":7082,"Ġzone":7083,"Ġoxygen":7084,"78":7085,"Ġgoods":7086,"Ġapproved":7087,"Ġfrequently":7088,"illery":7089,"Ġplate":7090,"ĠPatrick":7091,"movie":7092,"sa":7093,"Ġremember":7094,"ĠPalest":7095,"etime":7096,"yd":7097,"aron":7098,"Ġshowing":7099,"Born":7100,"then":7101,"Ġsurname":7102,"tha":7103,"Ġcod":7104,"uration":7105,"ĠGab":7106,"avel":7107,"Ġrecon":7108,"Ġcandidates":7109,"ĠImperial":7110,"Ġcomedian":7111,"Ġworth":7112,"Ġresc":7113,"atherine":7114,"ĠPitts":7115,"Ġcorrespond":7116,"National":7117,"alty":7118,"Ġwheel":7119,"ielder":7120,"Ġportion":7121,"Ġwaters":7122,"ĠBetween":7123,"Ġinterested":7124,"Ġcharts":7125,"ĠTan":7126,"ĠPuerto":7127,"rane":7128,"Ġlegend":7129,"ĠUkrainian":7130,"PS":7131,"only":7132,"ĠWolf":7133,"Ġencoura":7134,"Ġ42":7135,"Ġformal":7136,"Ġincorporated":7137,"town":7138,"aints":7139,"evin":7140,"Ġrepresentative":7141,"Ġeasy":7142,"Ġtheore":7143,"ĠHaut":7144,"Ġaccused":7145,"Ġpriest":7146,"Eng":7147,"gi":7148,"Ġfired":7149,"Ġsynd":7150,"Ġsignal":7151,"ĠBaltimore":7152,"Michael":7153,"September":7154,"Ġflowers":7155,"Em":7156,"ĠNav":7157,"ĠSecurity":7158,"Ġtend":7159,"ĠLin":7160,"Black":7161,"Ġgain":7162,"igration":7163,"Ġoffices":7164,"Ġdescent":7165,"Ġreference":7166,"Ġsouthwestern":7167,"Ġviews":7168,"Ġmoment":7169,"March":7170,"heel":7171,"Ġdoor":7172,"Ġopposed":7173,"Ġoccasion":7174,"igenous":7175,"Ġmaximum":7176,"hattan":7177,"ban":7178,"January":7179,"sm":7180,"eline":7181,"ĠBund":7182,"ĠFur":7183,"ĠLieutenant":7184,"uma":7185,"abi":7186,"Ġsequel":7187,"Ġdemonstr":7188,"July":7189,"Ġmotion":7190,"oly":7191,"ĠCarter":7192,"Ġprotected":7193,"borough":7194,"ĠCommunity":7195,"Ġstanding":7196,"ĠFranklin":7197,"adow":7198,"Ġcriminal":7199,"IV":7200,"Per":7201,"Ġconclud":7202,"Ġconsisted":7203,"Mont":7204,"ayan":7205,"Ġseg":7206,"Ġplanning":7207,"Ġboys":7208,"Ġprepar":7209,"Ġpregn":7210,"Ġconnection":7211,"Ġfalls":7212,"rak":7213,"Ġmoves":7214,"Ġinvited":7215,"Ġsounds":7216,"do":7217,"ĠPoint":7218,"ĠRoute":7219,"Ġ48":7220,"ĠIsraeli":7221,"],":7222,"Ġrating":7223,"Ġ49":7224,"Ġorders":7225,"Ġhits":7226,"ĠMarie":7227,"ĠÎ":7228,"Ġquant":7229,"Ġsupporting":7230,"ĠTransport":7231,"Ġmicro":7232,"King":7233,"fish":7234,"oria":7235,"Ġgender":7236,"Ġprogramme":7237,"ĠNFL":7238,"iang":7239,"ĠStr":7240,"ĠChairman":7241,"prise":7242,"Ġskills":7243,"pects":7244,"ĠCra":7245,"ĠCleveland":7246,"Ġunus":7247,"iar":7248,"Ġqualified":7249,"Ġrise":7250,"Ġproviding":7251,"ĠWelsh":7252,"Ġliquid":7253,"Ġexclus":7254,"Ġdangerous":7255,"ĠAisne":7256,"ĠVenez":7257,"Ġcharged":7258,"Ġpassenger":7259,"ĠHistoric":7260,"yles":7261,"ĠCalv":7262,"while":7263,"Jack":7264,"Res":7265,"ogen":7266,"Ġsevere":7267,"ĠForces":7268,"Ġpoem":7269,"Ã¶r":7270,"Ġcycle":7271,"raska":7272,"ĠNort":7273,"ctoral":7274,"October":7275,"Ġrepro":7276,"ĠBarn":7277,"oves":7278,"ships":7279,"Ġeffective":7280,"ĠIndonesia":7281,"allas":7282,"Ġcrash":7283,"Ġstands":7284,"Ġpatients":7285,"Ġliterary":7286,"ĠHouston":7287,"Ang":7288,"Ġdram":7289,"Ġcolors":7290,"Ġsympt":7291,"ĠAfghanistan":7292,"iu":7293,"ĠCook":7294,"ĠKings":7295,"ocol":7296,"Alpes":7297,"cious":7298,"rim":7299,"onoun":7300,"Ġwings":7301,"Ġbran":7302,"ĠWag":7303,"Ġconcer":7304,"Ġactors":7305,"Ġtrip":7306,"ĠQueensland":7307,"ES":7308,"Ġdaughters":7309,"Ġexistence":7310,"Ġwrestling":7311,"ĠFormula":7312,"Gl":7313,"Ġtribut":7314,"Ġdiagnosed":7315,"Dan":7316,"Har":7317,"star":7318,"ipur":7319,"ĠBelgian":7320,"Ġcourts":7321,"Ġdialect":7322,"ÃŃn":7323,"Ġextremely":7324,"mers":7325,"ĠClark":7326,"oom":7327,"Ġmonarch":7328,"ĠMadrid":7329,"Ġpremiered":7330,"ĠMiami":7331,"ĠGene":7332,"ĠProject":7333,"related":7334,"Ġillegal":7335,"North":7336,"ĠHamilton":7337,"Ġadults":7338,"ĠWhit":7339,"vard":7340,"inter":7341,"agues":7342,"Ġchance":7343,"iversary":7344,"ĠSimon":7345,"Sam":7346,"Ġload":7347,"Ġnom":7348,"antasy":7349,"ĠAlan":7350,"Ġsurrounded":7351,"Ġprice":7352,"thlete":7353,"Ġteach":7354,"phone":7355,"Ġtrust":7356,"Ġroof":7357,"active":7358,"aware":7359,"Ġanything":7360,"ĠParish":7361,"cano":7362,"ĠVar":7363,"Ġattempted":7364,"ĠRoc":7365,"Ġbroken":7366,"ĠAnderson":7367,"Ġeverything":7368,"ĠPrincess":7369,"idges":7370,"Ġweak":7371,"ĠTrust":7372,"67":7373,"Ġstages":7374,"ista":7375,"ieties":7376,"Ġcorrect":7377,"Ġhousing":7378,"ĠYugoslav":7379,"Ġreality":7380,"Ġcommitted":7381,"Ġ55":7382,"ĠJuan":7383,"ĠCommand":7384,"Mc":7385,"ss":7386,"ÅŁ":7387,"Ġgrown":7388,"Ġjump":7389,"ĠAmong":7390,"ĠGordon":7391,"ĠJournal":7392,"Ġeducational":7393,"Hen":7394,"Ġbudget":7395,"aku":7396,"ĠChampions":7397,"ampton":7398,"Ã©s":7399,"etty":7400,"Ġimportance":7401,"Ġimprove":7402,"San":7403,"track":7404,"Ġgene":7405,"ieval":7406,"oda":7407,"Ġuncle":7408,"ĠAlexand":7409,"Ġresign":7410,"Ġturns":7411,"Ġprotein":7412,"ĠObama":7413,"Äĥ":7414,"bul":7415,"inus":7416,"Ġimages":7417,"ĠPhys":7418,"ĠFrederick":7419,"Ġreaching":7420,"ĠJam":7421,"Ġproved":7422,"Ġknew":7423,"Ġflo":7424,"GB":7425,"ĠHans":7426,"ĠDem":7427,"ĠAlbum":7428,"Ġcontrast":7429,"Ġindic":7430,"Ġphr":7431,"scape":7432,"Ġdogs":7433,"Ġborough":7434,"long":7435,"oons":7436,"ĠDal":7437,"ĠÄ":7438,"Ġreduce":7439,"ĠFern":7440,"ules":7441,"amps":7442,"ĠManhattan":7443,"Ġapplication":7444,"tery":7445,"anton":7446,"Ġtribes":7447,"ĠIranian":7448,"hyth":7449,"81":7450,"Val":7451,"org":7452,"Ġgall":7453,"Ġclimb":7454,"Ġcrowd":7455,"ĠTower":7456,"ĠHit":7457,"ĠChart":7458,"ranean":7459,"hammad":7460,"ĠApple":7461,"Ġattempts":7462,"Ġinstitutions":7463,"Ġcaught":7464,"itals":7465,"Ġfer":7466,"iants":7467,"ellite":7468,"ĠPa":7469,"Ġgay":7470,"chell":7471,"Ġmedium":7472,"Ġadvis":7473,"ĠMetro":7474,"Back":7475,"PC":7476,"orage":7477,"ĠHug":7478,"udden":7479,"Ġadapted":7480,"December":7481,"Ġbirthday":7482,"allel":7483,"fits":7484,"via":7485,"ĠLt":7486,"Ġmedals":7487,"Ġdemand":7488,"ĠVenezuel":7489,"lan":7490,"feld":7491,"ĠBrian":7492,"Ġdepression":7493,"Ġsongwriter":7494,"Ġdecor":7495,"ĠBaron":7496,"Me":7497,"night":7498,"Ð¾":7499,"Ġtor":7500,"Ġgiant":7501,"raham":7502,"Ġexam":7503,"Ġcomputers":7504,"Ġ39":7505,"Ġpasses":7506,"Ġelectricity":7507,"Ġalcohol":7508,"ÃŁ":7509,"iden":7510,"igade":7511,"ĠDu":7512,"Ġatm":7513,"Ġneut":7514,"Ġski":7515,"Ġcombination":7516,"Ġmathematics":7517,"olar":7518,"Ġsynt":7519,"owntown":7520,"andom":7521,"Ġreceiving":7522,"âĢĿ.":7523,"har":7524,"ĠAle":7525,"Ġproducing":7526,"Ġaffili":7527,"ĠStudies":7528,"November":7529,"pir":7530,"Ġsort":7531,"Ġsettle":7532,"Ġtim":7533,"Ġcrown":7534,"Ġbey":7535,"Ġpropos":7536,"ĠShort":7537,"ĠConfederate":7538,"Co":7539,"ĠInstead":7540,"Ġattract":7541,"Ġcharges":7542,"ĠBeat":7543,"ĠHungarian":7544,"April":7545,"Ġflying":7546,"Ġtoward":7547,"ĠStaff":7548,"Ġarmed":7549,"iko":7550,"ĠPlan":7551,"ĠNepal":7552,"rm":7553,"orer":7554,"Ġscenes":7555,"Ġinsects":7556,"Alex":7557,"isp":7558,"ĠMit":7559,"iday":7560,"Ġ1915":7561,"Ġimpr":7562,"Ġderived":7563,"ĠMatthew":7564,"ĠCare":7565,"rac":7566,"2011":7567,"ML":7568,"come":7569,"ĠSound":7570,"Ġslaves":7571,"Ġfreedom":7572,"Ġadvance":7573,"Ġwinners":7574,"aza":7575,"Ġyoungest":7576,"blast":7577,"bishop":7578,"Ġathlete":7579,"Ġped":7580,"Ġchoice":7581,"Ġdistingu":7582,"Ġmulti":7583,"ĠBuilding":7584,"ĠArgentine":7585,"Ġgang":7586,"Ġmarry":7587,"Ġdevices":7588,"Ġenvironmental":7589,"Ġstrike":7590,"ĠMalaysia":7591,"Ġvideos":7592,"83":7593,"Ġcous":7594,"Ġbed":7595,"ĠKey":7596,"Ġtechnical":7597,"mingham":7598,"ĠHungary":7599,"asia":7600,"Ġhip":7601,"istical":7602,"Ġconsult":7603,"Ġsubs":7604,"Ġvisual":7605,"Ġsituated":7606,"Ġconverted":7607,"Ġbeyond":7608,"Ġsure":7609,"Ġce":7610,"Ġcatch":7611,"Ġhors":7612,"ĠWell":7613,"who":7614,"tes":7615,"ĠWes":7616,"ĠChristopher":7617,"ĠExecutive":7618,"III":7619,"Ġ+":7620,"Ġcas":7621,"ĠRap":7622,"Ġcongress":7623,"ĠLev":7624,"Ġsed":7625,"Ġcrop":7626,"olished":7627,"ĠBerg":7628,"Ġrugby":7629,"ource":7630,"Ġpassing":7631,"Ġclassification":7632,"Ġapparent":7633,"Ġfactory":7634,"ĠChildren":7635,"Ġcontaining":7636,"Ġreserve":7637,"Ġrebu":7638,"sters":7639,"ĠFront":7640,"ĠYour":7641,"Ġsurvey":7642,"Ġrailroad":7643,"Bel":7644,"bal":7645,"burn":7646,"Ġcinem":7647,"opes":7648,"allow":7649,"Ġobserved":7650,"din":7651,"igation":7652,"Ġseconds":7653,"ĠOrthodox":7654,"Ġsuccessfully":7655,"Ġvirt":7656,"ĠAlfred":7657,"Ġclothing":7658,"Ġ1911":7659,"rif":7660,"Ġconvers":7661,"Ġlocality":7662,"Ġpromote":7663,"Ġtribe":7664,"Mic":7665,"ĠSem":7666,"ĠNich":7667,"2017":7668,"Ã©t":7669,"Ġtypical":7670,"ĠTerritory":7671,"asketball":7672,"ĠBatt":7673,"Ġentry":7674,"ĠCooper":7675,"songwriter":7676,"Ġalle":7677,"Ġcombat":7678,"Atlant":7679,"WA":7680,"omes":7681,"ĠNa":7682,"ĠAncient":7683,"Ġdecades":7684,"Ġfacility":7685,"ĠStudios":7686,"ĠRem":7687,"Ġagency":7688,"Ġcolony":7689,"iverpool":7690,"Ġfactors":7691,"Ġbehavi":7692,"ĠPittsburgh":7693,"BE":7694,"Following":7695,"Ġmoth":7696,"ĠLas":7697,"Ġ88":7698,"Ġdetermined":7699,"ĠDiego":7700,"run":7701,"Ġhill":7702,"ogne":7703,"ĠConvention":7704,"ĠAdams":7705,"election":7706,"SE":7707,"ĠFinal":7708,"Ġsubst":7709,"Ġexpansion":7710,"Ġlimit":7711,"Ġmessage":7712,"Tom":7713,"Ġbaby":7714,"ĠKam":7715,"Ġdivisions":7716,"69":7717,"How":7718,"ouver":7719,"ĠBi":7720,"otton":7721,"Ġprefer":7722,"ĠGrant":7723,"iterranean":7724,"communes":7725,"Ġdeleg":7726,"Ġsupposed":7727,"Ġdifferences":7728,"ĠMilan":7729,"ĠIdaho":7730,"57":7731,"Ġsalt":7732,"enburg":7733,"ĠTun":7734,"ĠDream":7735,"ĠSeattle":7736,"Ġentirely":7737,"partement":7738,"Ġfan":7739,"ĠPradesh":7740,"Ġjoining":7741,"utation":7742,"Ġrecognition":7743,"Ġroutes":7744,"Ġfixed":7745,"East":7746,"ĠAge":7747,"Ġlocations":7748,"Ġauth":7749,"Ġeducated":7750,"host":7751,"Ġplot":7752,"Ġjur":7753,"Ġowners":7754,"Ġcompetitions":7755,"Ġpopularity":7756,"Ã¶n":7757,"Ġexperien":7758,"Ġalphabet":7759,"Ġbanks":7760,"Ġmobile":7761,"leton":7762,"ĠEag":7763,"Ġresistance":7764,"ĠAnthony":7765,"Ġpublication":7766,"Ġrif":7767,"from":7768,"Ġbigger":7769,"Ġinvestigation":7770,"Ġopportunity":7771,"ĠCalvados":7772,"ĠCBS":7773,"Ġ1913":7774,"Ġentitled":7775,"Ġhorror":7776,"Pop":7777,"ĠAud":7778,"ĠNik":7779,"Ġengaged":7780,"Ġvolunte":7781,"sch":7782,"rec":7783,"esl":7784,"ĠAM":7785,"ĠRick":7786,"apolis":7787,"text":7788,"ibl":7789,"Ġsecretary":7790,"Ġrepeated":7791,"ĠNebraska":7792,"rik":7793,"Ġbusinesses":7794,"Ġreading":7795,"Ġpurposes":7796,"ĠCathedral":7797,"Ġinternal":7798,"First":7799,"ĠChampion":7800,"Ġmovements":7801,"Ġ44":7802,"Ġinstall":7803,"zi":7804,"ĠCru":7805,"ĠLyn":7806,"Ġ47":7807,"Ġsetting":7808,"Ġsubjects":7809,"asm":7810,"ĠSeveral":7811,"Ġnote":7812,"Ġrocks":7813,"Ġapplications":7814,"ibbean":7815,"ugs":7816,"ographical":7817,"Ġcoastal":7818,"Ġcorner":7819,"ĠPap":7820,"Ġyards":7821,"ublin":7822,"aduate":7823,"Ġfemin":7824,"Ġcriticized":7825,"Ġlaid":7826,"idel":7827,"ĠPrefecture":7828,"Ġscheduled":7829,"Ġmart":7830,"ancell":7831,"February":7832,"á»":7833,"unch":7834,"Ġactual":7835,"Station":7836,"Ġchanging":7837,"Ġpersons":7838,"ĠMovement":7839,"bus":7840,"such":7841,"inburgh":7842,"Ġsend":7843,"Ġcup":7844,"icts":7845,"ifer":7846,"issance":7847,"inosaur":7848,"Ġcontained":7849,"ĠWarner":7850,"2000":7851,"ĠBou":7852,"Ġseems":7853,"ĠStory":7854,"Ġlooked":7855,"ĠOttoman":7856,"ĠPunj":7857,"ĠMicrosoft":7858,"Ġment":7859,"ĠDick":7860,"Ġapartment":7861,"Ġgraduating":7862,"George":7863,"ĠCatal":7864,"ĠAntonio":7865,"stad":7866,"ige":7867,"Ġlocomot":7868,"irds":7869,"uing":7870,"Ġtask":7871,"Ġnations":7872,"Ġleads":7873,"Two":7874,"Ġban":7875,"ĠFellow":7876,"Ġ46":7877,"annes":7878,"ĠPrinc":7879,"ĠPhill":7880,"ĠMilitary":7881,"Ġvirus":7882,"ĠAzerbaijan":7883,"Dr":7884,"ture":7885,"Ġtorn":7886,"ĠCre":7887,"estyle":7888,"ĠVik":7889,"enses":7890,"Ġfoundation":7891,"Ġcelebrated":7892,"Ġsymptoms":7893,"Ġpictures":7894,"Ġtools":7895,"term":7896,"aks":7897,"Ġmeets":7898,"Ġassass":7899,"Ġarchae":7900,"ĠErn":7901,"ĠPeninsula":7902,"Ġbranches":7903,"auc":7904,"ĠHum":7905,"Ġgarden":7906,"Ġstroke":7907,"ĠRun":7908,"ĠJay":7909,"ĠInn":7910,"Ġ77":7911,"ĠSingh":7912,"ĠDelhi":7913,"Ġliked":7914,"ĠMichel":7915,"body":7916,"ĠTit":7917,"Ã©es":7918,"ĠMediterranean":7919,"Ġexisted":7920,"Ġchampionships":7921,"Lou":7922,"ĠPur":7923,"Ġconstitution":7924,"Ġcompar":7925,"Ġ95":7926,"Richard":7927,"ntil":7928,"ĠAnim":7929,"Ġfinishing":7930,"Ġcrimes":7931,"Ġelectrical":7932,"Ġstudying":7933,"dÃ©partement":7934,"after":7935,"east":7936,"Ġfishing":7937,"ĠModern":7938,"ĠSin":7939,"ogan":7940,"Ġdiscover":7941,"ipping":7942,"Ġhang":7943,"ĠTreat":7944,"ĠBan":7945,"Ġnothing":7946,"angel":7947,"Ġmeat":7948,"cules":7949,"Peter":7950,"ĠJose":7951,"ignated":7952,"celona":7953,"Ġhundreds":7954,"Ġchoose":7955,"Ġheavily":7956,"Ġpool":7957,"ĠRyan":7958,"ĠSamuel":7959,"84":7960,"NC":7961,"mat":7962,"Ġsick":7963,"Ġdan":7964,"ĠNorm":7965,"aba":7966,"akespe":7967,"Ġextensive":7968,"ĠArabia":7969,"Ġrestaurant":7970,"Ġcru":7971,"Ġupd":7972,"ĠBrun":7973,"Ġimproved":7974,"Ġcomplications":7975,"Aust":7976,"cm":7977,"ĠKan":7978,"inea":7979,"Ġclassic":7980,"ĠWeek":7981,"France":7982,"Ġadvantage":7983,"Ġsust":7984,"ashed":7985,"ĠSud":7986,"ĠMaur":7987,"):":7988,"Ãī":7989,"Ġmammals":7990,"ĠVermont":7991,"Ġmort":7992,"Ġdeputy":7993,"Ġchildhood":7994,"Ġdesigner":7995,"ĠCEO":7996,"Ġcosts":7997,"Ġ87":7998,"Ġsuccessor":7999,"Ġexhibition":8000,"Ġfra":8001,"Ġ1908":8002,"ĠGirls":8003,"Ġearthquake":8004,")\"":8005,"Over":8006,"pret":8007,"Ġsections":8008,"ĠVeg":8009,"ĠIndians":8010,"ĠMagazine":8011,"urance":8012,"ĠEvery":8013,"ĠVinc":8014,"Ġdisappe":8015,"Ġimpl":8016,"Ġtechniques":8017,"Ġsugar":8018,"Ġcolonial":8019,"Ġbeautiful":8020,"300":8021,"Ġcore":8022,"ĠBuff":8023,"odium":8024,"neum":8025,"ĠReal":8026,"ĠBroadway":8027,"IT":8028,"Ty":8029,"Ġtheater":8030,"ivor":8031,"ĠDraft":8032,"Ġchair":8033,"essions":8034,"ĠMarc":8035,"Ġuseful":8036,"Ġabandoned":8037,"hard":8038,"aman":8039,"ulu":8040,"ĠVis":8041,"Ġbright":8042,"62":8043,"zburg":8044,"Ġchess":8045,"Ġhun":8046,"ĠLow":8047,"Ġplayoff":8048,"Ġrespond":8049,"akespeare":8050,"Mal":8051,"Ġcommunication":8052,"ĠNorman":8053,"Ġsequence":8054,"ĠSilver":8055,"Ġconsecutive":8056,"bes":8057,"ĠDanish":8058,"Ġelse":8059,"Ġfaced":8060,"ĠNBC":8061,"Ġphone":8062,"Ġstandards":8063,"Ġpromotion":8064,"Ġwinds":8065,"Ġpeaked":8066,"Ġjunior":8067,"ĠGon":8068,"Ġanaly":8069,"teenth":8070,"Ġregul":8071,"Art":8072,"Ġphysics":8073,"07":8074,"jo":8075,"ussia":8076,"ĠRangers":8077,"flow":8078,"jamin":8079,"Ġtick":8080,"Ġsomew":8081,"ĠDog":8082,"Ġintelligence":8083,"Ġoccas":8084,"Ġ1890":8085,"Ġgraduate":8086,"ĠRoberts":8087,"05":8088,"ĠTrain":8089,"ĠLanc":8090,"rient":8091,"riff":8092,"ods":8093,"ourses":8094,"Ġsitcom":8095,"Ġmissing":8096,"usalem":8097,"ĠGarden":8098,"scar":8099,"Ġconductor":8100,"Ġargued":8101,"ĠLoire":8102,"64":8103,"enos":8104,"ĠOw":8105,"illes":8106,"ĠOnce":8107,"Ġinher":8108,"Ġgrad":8109,"annels":8110,"ocked":8111,"Ġbacteria":8112,"Hol":8113,"Pas":8114,"Ð¸":8115,"ĠAcc":8116,"Ġstatement":8117,"ancouver":8118,"Sim":8119,"isis":8120,"Ġwire":8121,"ĠDue":8122,"ĠEdinburgh":8123,"fielder":8124,"orp":8125,"alion":8126,"Ġmos":8127,"sea":8128,"Ġunderground":8129,"Ġemperor":8130,"Ġdiscovery":8131,"Ġhelping":8132,"Ġfleet":8133,"Ġlinked":8134,"Red":8135,"ultan":8136,"Ġreserv":8137,"ĠServices":8138,"Ġfilled":8139,"icial":8140,"ĠSA":8141,"eta":8142,"ĠEric":8143,"oviÄĩ":8144,"oba":8145,"Ġaccur":8146,"Thomas":8147,"ĠCaribbean":8148,"Ġpoems":8149,"2007":8150,"However":8151,"repre":8152,"Ġinvent":8153,"ĠAgency":8154,"ĠMuhammad":8155,"including":8156,"Sw":8157,"point":8158,"vo":8159,"asure":8160,"Ġbat":8161,"ĠBry":8162,"ĠFive":8163,"ĠOblast":8164,"Ġperhaps":8165,"What":8166,"Ġterritories":8167,"asa":8168,"Ġleaf":8169,"Ġ89":8170,"ducing":8171,"Ġminute":8172,"Ġclassified":8173,"Ġcapture":8174,"celand":8175,"Ġcamera":8176,"ĠAdministration":8177,"Pat":8178,"ĠCrown":8179,"ĠManu":8180,"Ġobl":8181,"Ġquestions":8182,"Super":8183,"ĠBengal":8184,"ĠDeb":8185,"ĠThrough":8186,"Ġattached":8187,"Ġcamps":8188,"Ġsentence":8189,"ĠRegiment":8190,"ĠBirmingham":8191,"reprene":8192,"dis":8193,"Ġdating":8194,"ĠSky":8195,"ĠHere":8196,"Ġdriving":8197,"ĠPeace":8198,"Ġemergency":8199,"ĠBruce":8200,"Cal":8201,"SS":8202,"ĠABC":8203,"ĠAnna":8204,"Ġstrateg":8205,"Ġsoccer":8206,"Ġdiseases":8207,"ĠEthiop":8208,"British":8209,"ĠCass":8210,"olo":8211,"2008":8212,"Ġsentenced":8213,"Ġessential":8214,"ĠTournament":8215,"ĠLux":8216,"Ġsuggests":8217,"ĠBowl":8218,"Mad":8219,"ĠHorn":8220,"ĠKarl":8221,"Ġdepend":8222,"Ġtransform":8223,"Ġgovernments":8224,"Ġstreets":8225,"ĠPicard":8226,"oni":8227,"Ġisol":8228,"ussian":8229,"ĠPrim":8230,"Ġviolin":8231,"Ġworship":8232,"ĠFinnish":8233,"ĠDerby":8234,"Ġic":8235,"arat":8236,"ĠLang":8237,"ĠChamber":8238,"itionally":8239,"ternal":8240,"Ġfunding":8241,"ĠAuthor":8242,"ĠReb":8243,"Ġemph":8244,"ĠDoctor":8245,"edding":8246,"Norm":8247,"Ġ51":8248,"Ġdescend":8249,"Ġpalace":8250,"Sy":8251,"ĠKu":8252,"Ġteeth":8253,"Ġshel":8254,"Ġmilk":8255,"Ġneighbour":8256,"Che":8257,"Ġaer":8258,"Ġwounded":8259,"ĠLiverpool":8260,"ĠNelson":8261,"Ġrecordings":8262,"Ġdecide":8263,"Ġcorpor":8264,"%)":8265,"Ġlots":8266,"ĠBasketball":8267,"cht":8268,"seud":8269,"Ġham":8270,"ĠHop":8271,"Ġbeach":8272,"ĠGib":8273,"ample":8274,"vements":8275,"Ġsale":8276,"itis":8277,"Ġfine":8278,"Ġdocuments":8279,"Ġcontributed":8280,"Ev":8281,"TO":8282,"Ġvert":8283,"emen":8284,"istant":8285,"2013":8286,"ĠMedicine":8287,"Ġbriefly":8288,"DS":8289,"Ġdivers":8290,"ĠChen":8291,"Ġrose":8292,"olds":8293,"Ġdepending":8294,"Ġcrisis":8295,"ĠMorgan":8296,"Trans":8297,"ĠWrit":8298,"ĠThird":8299,"ĠMario":8300,"2014":8301,"Ġsubt":8302,"Ġcollected":8303,"68":8304,"Ġfal":8305,"odd":8306,"ften":8307,"mphony":8308,"ĠCemetery":8309,"ĠLet":8310,"Ġspin":8311,"ĠCamer":8312,"ĠHonor":8313,"Ġprinted":8314,"Charles":8315,"uis":8316,"Ġspecifically":8317,"Ġrelative":8318,"Ġvolleyball":8319,"Ġaccompan":8320,"mund":8321,"Ġ82":8322,"Ġsubd":8323,"ĠYouT":8324,"Ġscreenwriter":8325,"Jean":8326,"ĠMong":8327,"Ġscientist":8328,"Ġmemorial":8329,"Ġconsisting":8330,"Ġoperate":8331,"Ġoperates":8332,"ĠBarcelona":8333,"ĠHawaii":8334,"rine":8335,"ĠAy":8336,"Ġrub":8337,"Ġextinct":8338,"ĠChristians":8339,"ivalent":8340,"Ġpenalty":8341,"Ġabsor":8342,"Ġtiss":8343,"ĠBud":8344,"ĠGi":8345,"ĠÃī":8346,"ondissements":8347,"Ġentertainment":8348,"eenth":8349,"ĠEver":8350,"asts":8351,"Ġconservative":8352,"Ġmerch":8353,"09":8354,"top":8355,"ilation":8356,"ĠCart":8357,"urrent":8358,"Ġperfect":8359,"ĠLeader":8360,"Ġinstalled":8361,"Ġcheck":8362,"Ġbattles":8363,"Ġpublisher":8364,"aughter":8365,"ĠGermans":8366,"Ġsolution":8367,"ĠSprings":8368,"ĠLeban":8369,"Ġrein":8370,"uru":8371,"iece":8372,"Ġattrib":8373,"Ġevening":8374,"51":8375,"ĠKelly":8376,"ĠStew":8377,"Ġsafe":8378,"Ġhydro":8379,"Ġrejected":8380,"iens":8381,"ĠVancouver":8382,"ĠDeath":8383,"astery":8384,"Ġpione":8385,"ĠCA":8386,"unes":8387,"ĠHeb":8388,"Ġeleven":8389,"ĠSingles":8390,"ĠBrooklyn":8391,"ancellor":8392,"ĠBros":8393,"oka":8394,"CAA":8395,"ĠNevada":8396,"Ġunusual":8397,"President":8398,"Ġdefensive":8399,"ĠKnight":8400,"Donald":8401,"63":8402,"Ġ1000":8403,"ĠWalt":8404,"ĠReagan":8405,"Ġentrance":8406,"coming":8407,"Ġphilosopher":8408,"ĠPersian":8409,"IN":8410,"Later":8411,"atra":8412,"ĠTrade":8413,"ĠHarvard":8414,"uzz":8415,"Ġgoddess":8416,"Ġnucle":8417,"ĠSid":8418,"Ġ84":8419,"oeing":8420,"Ġpossibly":8421,".âĢĿ":8422,"ER":8423,"Ã«":8424,"ĠTol":8425,"Ġregistered":8426,"nÃ©e":8427,"Ġmilit":8428,"Ġteachers":8429,"Ġmolec":8430,"72":8431,"ilia":8432,"Ġimag":8433,"Ġsimpl":8434,"Ġ...":8435,"going":8436,"Ġpraised":8437,"ĠJerusalem":8438,"LC":8439,"Ġfaith":8440,"Ġtox":8441,"ĠUl":8442,"ourse":8443,"ĠProdu":8444,"Ġsurre":8445,"2006":8446,"Ġparallel":8447,"Ġregularly":8448,"MP":8449,"lon":8450,"inch":8451,"ĠPed":8452,"Ġatom":8453,"ĠMarine":8454,"Ġelectron":8455,"Ġweapon":8456,"ĠRoger":8457,"Ġpartnership":8458,"ĠInfantry":8459,"keeper":8460,"Ġwet":8461,"oro":8462,"Ġhurt":8463,"Ġsuperv":8464,"Ġ1905":8465,"Ġnewspapers":8466,"ĠBach":8467,"ĠLam":8468,"Ġshut":8469,"Ġpoison":8470,"emocracy":8471,"Ġgenetic":8472,"ĠCuba":8473,"ĠMunich":8474,"79":8475,"Sec":8476,"person":8477,"ilty":8478,"Ġconst":8479,"Ġkick":8480,"ologies":8481,"Ġstruck":8482,"ĠRussell":8483,"2009":8484,"ĠSarah":8485,"Ġsan":8486,"ĠMach":8487,"chang":8488,"andal":8489,"osm":8490,"Ġinterests":8491,"Ġpunish":8492,"Ġdress":8493,"Ġgone":8494,"Ġstim":8495,"ĠStev":8496,"Ġappoint":8497,"Ġparticipate":8498,"ĠMargaret":8499,"iler":8500,"ĠRow":8501,"ausen":8502,"ĠExpress":8503,"Ġcontroversial":8504,"Ġfit":8505,"ĠLar":8506,"illo":8507,"Ġanyone":8508,"Ġvictims":8509,"Ġthousand":8510,"Ġlayer":8511,"ĠNBA":8512,"ĠExt":8513,"elli":8514,"ĠLaure":8515,"ĠHotel":8516,"ĠKa":8517,"ixon":8518,"ĠAustin":8519,"Ġexecuted":8520,"Ġthrone":8521,"ĠSport":8522,"ĠRena":8523,"Ġfinding":8524,"Ġarranged":8525,"DA":8526,"Ġtel":8527,"Ġec":8528,"ĠWright":8529,"ĠThus":8530,"Ġagree":8531,"ĠShakespeare":8532,"Ġexpressed":8533,"Ġstrip":8534,"ĠNigeria":8535,"ĠCle":8536,"rove":8537,"riel":8538,"Ġshares":8539,"Ġdecade":8540,"Ġinfection":8541,"Ġestablishment":8542,"ĠSelena":8543,"59":8544,"Ãł":8545,"ĠSC":8546,"ĠLl":8547,"Ġgrade":8548,"Ġrevers":8549,"ĠPeru":8550,"riday":8551,"Ġunsuccess":8552,"Ġultimately":8553,"equ":8554,"asters":8555,"Ġdream":8556,"ĠFel":8557,"Ġveter":8558,"Ġheaded":8559,"Ġdoesn":8560,"Ġmachines":8561,"Ġslowly":8562,"Land":8563,"à¦":8564,"Ġign":8565,"Ġwitness":8566,"ĠFarm":8567,"acre":8568,"Ġvary":8569,"Ġcomposition":8570,"casting":8571,"Ġpian":8572,"season":8573,"ĠYorkshire":8574,"ĠJosÃ©":8575,"Ġphotograph":8576,"ĠLanka":8577,"aired":8578,"anne":8579,"Ġdiet":8580,"ĠBaker":8581,"ĠRab":8582,"Ġjourney":8583,"Ġ79":8584,"Ġdefence":8585,"ymn":8586,"Ġsurvive":8587,"ĠSah":8588,"Ġcooper":8589,"ĠArabic":8590,"Work":8591,"Ġvs":8592,"Another":8593,"Ġemployed":8594,"Ġvisitors":8595,"Sal":8596,"pop":8597,"Ġnut":8598,"ithm":8599,"oga":8600,"Ġserial":8601,"Ġdesigns":8602,"Ġsang":8603,"Ġconce":8604,"Ġproduces":8605,"Ġtests":8606,"Ã´ne":8607,"ĠWalker":8608,"ĠCosta":8609,"zes":8610,"omi":8611,"ĠIce":8612,"ĠBack":8613,"Ġanniversary":8614,"Ġdiameter":8615,"Ġcousin":8616,"Cent":8617,"inction":8618,"Ġsulf":8619,"aments":8620,"rot":8621,"igious":8622,"Ġchrom":8623,"Ġcollect":8624,"Ġexpensive":8625,"Ġconcerts":8626,"'m":8627,"Ġaid":8628,"iri":8629,"ĠDur":8630,"hythm":8631,"Port":8632,"Ġ().":8633,"ĠAlt":8634,"Ġcalling":8635,"othy":8636,"Ġ86":8637,"gement":8638,"Ġahead":8639,"ĠTrib":8640,"ayed":8641,"utor":8642,"ailand":8643,"Ġfat":8644,"Ġlose":8645,"Ġ72":8646,"Ġmedieval":8647,"ĠManagement":8648,"ĠMcK":8649,"ĠEmmy":8650,"ĠLegislative":8651,"ĠRugby":8652,"ĠDublin":8653,"ĠConstant":8654,"ĠGuinea":8655,"ĠSocialist":8656,"82":8657,"Pal":8658,"Ġpneum":8659,"ĠDec":8660,"Ġseed":8661,"Ġcompound":8662,"Ġgenre":8663,"ĠReserve":8664,"Ġathletes":8665,"Ġcodes":8666,"Ġfear":8667,"ĠFlore":8668,"Ġspoke":8669,"Ġroughly":8670,"Ġvocals":8671,"gom":8672,"gate":8673,"isf":8674,"Ġeighth":8675,"Ġchannels":8676,"Ġ43":8677,"Ġprey":8678,"Ġ1909":8679,"Ġnegoti":8680,"ĠDefense":8681,"ĠRural":8682,"rix":8683,"Ġsees":8684,"ĠKit":8685,"ĠAlger":8686,"Ġdisorder":8687,"Ġ52":8688,"Ġ83":8689,"Ġdepth":8690,"onomous":8691,"BI":8692,"ĠHurricane":8693,"ĠBed":8694,"unction":8695,"ithuan":8696,"Ġassault":8697,"Ġmetropolitan":8698,"Ġprovincial":8699,"Ġdrawn":8700,"Ġimprison":8701,"ĠPicardie":8702,"?\"":8703,"pine":8704,"ĠBenn":8705,"ĠLib":8706,"osph":8707,"Ġvision":8708,"Ġru":8709,"2012":8710,"Ġphase":8711,"Ġextension":8712,"Ġreturns":8713,"ĠConservative":8714,"Ġconcentration":8715,"avery":8716,"million":8717,"ĠSS":8718,"ĠSn":8719,"opter":8720,"sterdam":8721,"pat":8722,"Ġsudden":8723,"Ġcompounds":8724,"ĠHolland":8725,"Ġdetermine":8726,"Ġprepared":8727,"Euro":8728,"Ġsoul":8729,"ĠIl":8730,"Ġalive":8731,"ĠKon":8732,"Ġ92":8733,"Ġtwin":8734,"Ġ1904":8735,"Ġdetails":8736,"ĠMonte":8737,"Ġ1870":8738,"Ġdrafted":8739,"Ġwat":8740,"Ġfaster":8741,"ĠIron":8742,"ĠPear":8743,"ĠRy":8744,"Ġevil":8745,"Ġmining":8746,"Ġsubsequent":8747,"enberg":8748,"ĠMaz":8749,"Ġtraded":8750,"Ġcircum":8751,"ĠBoys":8752,"ĠVillage":8753,"'re":8754,"Ġphen":8755,"ĠMars":8756,"ĠDean":8757,"Ġstring":8758,"ĠRegional":8759,"Ġmyster":8760,"hetic":8761,"Ġhouseholds":8762,"iph":8763,"Ġ1907":8764,"ĠBelarus":8765,"ompson":8766,"Ġcoun":8767,"ĠAre":8768,"ete":8769,"ructure":8770,"Ġtreaty":8771,"holm":8772,"ĠScientists":8773,"ouch":8774,"ĠSard":8775,"ĠAires":8776,"ĠBilly":8777,"outheastern":8778,"Ġwrites":8779,"ĠCharlie":8780,"ruption":8781,"tical":8782,"Ġaware":8783,"Ġouter":8784,"ĠSÃ£o":8785,"amous":8786,"imir":8787,"ĠKevin":8788,"arma":8789,"ĠLiter":8790,"osex":8791,"Ġ78":8792,"Ġrefuge":8793,"Ġinfluential":8794,"Ġfavour":8795,"Ġscholars":8796,"Ãª":8797,"Ġnor":8798,"ĠProtest":8799,"Ġalleged":8800,"53":8801,"ĠWik":8802,"ĠEarly":8803,"Ġruler":8804,"Ġbelongs":8805,"Do":8806,"ĠDa":8807,"eoples":8808,"Ġcoff":8809,"wall":8810,"ĠDisc":8811,"Ġ41":8812,"Ġcommissioned":8813,"ĠGironde":8814,"dr":8815,"Ġ\"\".":8816,"Ġstret":8817,"andie":8818,"Ġagricultural":8819,"fly":8820,"Ġinfl":8821,"ĠOrange":8822,"arest":8823,"iba":8824,"Ġresidence":8825,"Ġfactor":8826,"Ġmarine":8827,"Ġprotests":8828,"United":8829,"Ġeasier":8830,"Ġaltitude":8831,"Bob":8832,"Cor":8833,"dorf":8834,"pers":8835,"aran":8836,"ĠIceland":8837,"oshi":8838,"Ġshore":8839,"angle":8840,"Ġdepos":8841,"clusion":8842,"52":8843,"ĠCirc":8844,"Ġoverl":8845,"Ġ81":8846,"Ġcabinet":8847,"Ġpolicies":8848,"73":8849,"Ġ:":8850,"Ġready":8851,"ovich":8852,"ĠColombia":8853,"mus":8854,"mates":8855,"unc":8856,"ĠFA":8857,"Ġexpert":8858,"yrÃ©n":8859,"atar":8860,"itus":8861,"Ġnit":8862,"race":8863,"ĠPolit":8864,"Ã³w":8865,"Plot":8866,"Ġhorses":8867,"Ġexperienced":8868,"Ġturb":8869,"ahn":8870,"yrÃ©nÃ©es":8871,"Air":8872,"Pre":8873,"Ġdated":8874,"ĠCher":8875,"ĠRub":8876,"ĠUnlike":8877,"Ġrooms":8878,"rena":8879,"Ġsoap":8880,"bow":8881,"oux":8882,"ĠDave":8883,"ogle":8884,"2016":8885,"Ġraise":8886,"Ġheads":8887,"Ġemployees":8888,"ĠGallery":8889,"ĠFried":8890,"ĠLuke":8891,"Big":8892,"asis":8893,"ĠCow":8894,"Ġlists":8895,"Ġgather":8896,"Ġ66":8897,"Ġexpand":8898,"Ġdefeating":8899,"ĠHas":8900,"ĠDark":8901,"ĠDallas":8902,"away":8903,"Ġreleg":8904,"Ġ76":8905,"ifications":8906,"comune":8907,"Ġ1906":8908,"break":8909,"ĠPlayStation":8910,"ĠWayne":8911,"Ġduty":8912,"ĠFal":8913,"rams":8914,"ĠCommander":8915,"ĠEnergy":8916,"Ġcarrying":8917,"Ġfossil":8918,"ĠOfficer":8919,"maker":8920,"Ġcourses":8921,"anta":8922,"ĠThailand":8923,"ĠProte":8924,"ĠJefferson":8925,"Ġopinion":8926,"err":8927,"Ġsought":8928,"Ġpublishing":8929,"Ġ91":8930,"Ġsuffering":8931,"cuador":8932,"Ġindu":8933,"Ġpitch":8934,"ĠAld":8935,"ĠDynasty":8936,"ĠJama":8937,"udson":8938,"shaped":8939,"2015":8940,"Ġperiods":8941,"Ġruling":8942,"ĠBrothers":8943,"74":8944,"Ġnotably":8945,"Ġguilty":8946,"Ġtechnique":8947,"rague":8948,"ĠMontana":8949,"ĠBuenos":8950,"Ġkilometers":8951,"ĠHunter":8952,"ju":8953,"Ġnaval":8954,"Ġstood":8955,"ĠFall":8956,"ĠBarry":8957,"Ġslave":8958,"Note":8959,"door":8960,"Ġfram":8961,"ĠSr":8962,"ĠMol":8963,"ĠPC":8964,"Ġblind":8965,"Ġ250":8966,"Ġjustice":8967,"Ġmythology":8968,"inian":8969,"ĠTak":8970,"ĠMagn":8971,"olia":8972,"igs":8973,"ĠNam":8974,"ĠEnt":8975,"acent":8976,"Ġmaintained":8977,"Ġexpression":8978,"Ġcredited":8979,"Ġswimming":8980,"Ġbeetle":8981,"Ġ120":8982,"Ġreun":8983,"upt":8984,"Ġ1880":8985,"Ã¤r":8986,"Ã¨s":8987,"Ġrecip":8988,"Ġorganisation":8989,"ĠAlliance":8990,"ĠAmsterdam":8991,"Ġappearing":8992,"Ġintroduction":8993,"Ġphrase":8994,"ĠYouTube":8995,"Ġsession":8996,"encer":8997,"ĠMond":8998,"ĠFalls":8999,"ĠYam":9000,"Ġ93":9001,"ĠAdvent":9002,"elected":9003,"acc":9004,"Ġcloud":9005,"ĠJohnny":9006,"Ġ1902":9007,"ST":9008,"World":9009,"Ġamounts":9010,"Ġtranslation":9011,"Ġneck":9012,"ĠZh":9013,"icians":9014,"ĠSatur":9015,"ĠMarshall":9016,"Ðµ":9017,"irates":9018,"Ġfilmed":9019,"Ġ1901":9020,"Ġvolcano":9021,"Ġhosts":9022,"Ġboats":9023,"Ġdefinition":9024,"Ġatmosphere":9025,"leans":9026,"ĠMoz":9027,"ĠRain":9028,"Ã©l":9029,"2001":9030,"Ġinternet":9031,"roph":9032,"Ġthin":9033,"tered":9034,"gomery":9035,"Ð½":9036,"Ġpages":9037,"ĠBuck":9038,"ontin":9039,"Ġdrummer":9040,"appy":9041,"Ġsolar":9042,"Sir":9043,"eto":9044,"ĠPy":9045,"ĠFriend":9046,"ĠLane":9047,"Ġspeaking":9048,"Ġcoordin":9049,"ijing":9050,"Ġfunds":9051,"Ġresidential":9052,"Ġsatellite":9053,"later":9054,"ĠSi":9055,"ĠHem":9056,"iger":9057,"antly":9058,"ighters":9059,"ĠCanal":9060,"ĠPhoen":9061,"Ġpersonnel":9062,"zero":9063,"Ġaffairs":9064,"Ġhappy":9065,"ĠMurray":9066,"Cap":9067,"hr":9068,"Ġfile":9069,"ĠLi":9070,"Ġpartly":9071,"profit":9072,"Ġtemporary":9073,"ĠSaturday":9074,"ME":9075,"Ġlit":9076,"ĠNCAA":9077,"rett":9078,"Ġmeasures":9079,"ĠOpera":9080,"Ac":9081,"hum":9082,"xide":9083,"Ġchamber":9084,"Ġsoldier":9085,"ĠSenior":9086,"ĠCarlos":9087,"ĠIndependent":9088,"hered":9089,"ĠSaf":9090,"Ġnet":9091,"ĠRav":9092,"ĠGa":9093,"ĠDead":9094,"Ġattorney":9095,"Ġkeyboard":9096,"ovakia":9097,"tÃ©":9098,"ĠChel":9099,"Ġroots":9100,"2005":9101,"Ġinjuries":9102,"Ġuniverse":9103,"Ġtunn":9104,"heme":9105,"Ġmir":9106,"ĠHand":9107,"ĠNash":9108,"ople":9109,"Ġconvention":9110,"Ġtex":9111,"Ġunderstanding":9112,"ĠWho":9113,"ĠGuy":9114,"ĠRomanian":9115,"Ġpatient":9116,"Ġenemies":9117,"Ġnickname":9118,"net":9119,"iser":9120,"Ġpul":9121,"ĠBoeing":9122,"urst":9123,"aco":9124,"Ġuniform":9125,"anger":9126,"Ġdesert":9127,"Ġbear":9128,"Ġcann":9129,"Frank":9130,"Ġlegislature":9131,"ĠStewart":9132,"Ġmigr":9133,"iah":9134,"Ġremov":9135,"Ġadding":9136,"Ġelder":9137,"ĠMrs":9138,"kan":9139,"uart":9140,"ĠMes":9141,"Ġstress":9142,"Ġstorage":9143,"ĠGran":9144,"ĠEvent":9145,"uez":9146,"Ġinterpret":9147,"Ġrequires":9148,"Ġballet":9149,"German":9150,"agre":9151,"enson":9152,"ĠSoccer":9153,"ĠLtd":9154,"Gold":9155,"ĠEmer":9156,"abled":9157,"Ġsole":9158,"apping":9159,"ĠRegister":9160,"Ġ1861":9161,"Ġmassive":9162,"Ġdecisions":9163,"Orig":9164,"Rock":9165,"roid":9166,"amese":9167,"ĠWarren":9168,"ĠAngl":9169,"Ġsupplies":9170,"hand":9171,"á¹":9172,"Ġfiled":9173,"Ġduties":9174,"ĠMess":9175,"ĠHell":9176,"Ġinterior":9177,"Ġfuneral":9178,"Ġrapper":9179,"ĠSquad":9180,"ĠRonald":9181,"Reg":9182,"Ġgar":9183,"Ġhear":9184,"berry":9185,"Ġseeds":9186,"Ġchallenge":9187,"achi":9188,"ĠWhat":9189,"Ġsupports":9190,"Ġrefle":9191,"SCO":9192,"Ġpneumonia":9193,"gie":9194,"Ġbanned":9195,"Ġhearing":9196,"Ġplus":9197,"ĠMarket":9198,"Ġinvolves":9199,"Ġconvicted":9200,"ĠEngineering":9201,"Im":9202,"Its":9203,"Rec":9204,"inia":9205,"ĠEcuador":9206,"abil":9207,"ĠVic":9208,"Ġabuse":9209,"ĠPlace":9210,"ĠChristianity":9211,"Ġtemperatures":9212,"Ġrelationships":9213,"Ġdelivered":9214,"gon":9215,"ĠTib":9216,"Ġresemb":9217,"Ġlock":9218,"Ġairline":9219,"central":9220,"iji":9221,"Ġcircuit":9222,"54":9223,"Ġstyles":9224,"ĠFM":9225,"ĠCampbell":9226,"Ġoccupation":9227,"71":9228,"oan":9229,"ĠFr":9230,"ĠGriff":9231,"Ġconvent":9232,"ĠKum":9233,"Ġentreprene":9234,"elect":9235,"ĠJimmy":9236,"ĠUniversal":9237,"Ġcartoon":9238,"onounced":9239,"Er":9240,"atically":9241,"itaine":9242,"ĠRet":9243,"Ġsector":9244,"Ġproced":9245,"Ġbutter":9246,"Ġ96":9247,"ĠConc":9248,"ĠOrleans":9249,"Ġportra":9250,"ĠCapital":9251,"avalry":9252,"ãĥ":9253,"Ġmine":9254,"otes":9255,"Ġstick":9256,"Ġamateur":9257,"Ġprocesses":9258,"ĠDelaware":9259,"ĠCroatia":9260,"Music":9261,"Carl":9262,"stal":9263,"ĠDJ":9264,"essed":9265,"Ġcomposers":9266,"Ġadvoc":9267,"Ġburned":9268,"\"-":9269,"Mil":9270,"dd":9271,"eas":9272,"ww":9273,"idal":9274,"merce":9275,"Ġdoctors":9276,"Ġexplained":9277,"Ġexists":9278,"Ġtrap":9279,"ierra":9280,"Ġcategories":9281,"cop":9282,"Ġunf":9283,"Ġclin":9284,"Ġsmallest":9285,"Ġmarks":9286,"Ġwindow":9287,"ĠPetersburg":9288,"ĠHitler":9289,"haw":9290,"Ġur":9291,"ĠLast":9292,"avan":9293,"Ġ54":9294,"Ġ1903":9295,"Ġtesting":9296,"eda":9297,"atab":9298,"Ġpros":9299,"Ġplastic":9300,"udes":9301,"Ġsettlers":9302,"Ġeconomics":9303,"Ġmurdered":9304,"Ġwrestler":9305,"omo":9306,"ĠSac":9307,"ĠAC":9308,"Ġstops":9309,"Ġ74":9310,"designated":9311,"ls":9312,"ãģ":9313,"Ġhunting":9314,"Ġclothes":9315,"Ġadmitted":9316,"Ġmeasured":9317,"Ġthirty":9318,"ĠOrganization":9319,"58":9320,"ĠPA":9321,"aye":9322,"ema":9323,"Ġorg":9324,"Ġspend":9325,"Ġevolved":9326,"Ġslavery":9327,"Ġinvolving":9328,"Ġcontributions":9329,"08":9330,"Ġretail":9331,"Ġremove":9332,"Ġsigns":9333,"ĠAmaz":9334,"ĠMcG":9335,"helm":9336,"||||||||":9337,"Ġexactly":9338,"uber":9339,"eler":9340,"ĠFund":9341,"ĠWa":9342,"Ġformally":9343,"Ġqueen":9344,"ĠRepresentative":9345,"gressive":9346,"98":9347,"vision":9348,"original":9349,"Ġinstitution":9350,"icit":9351,"ĠBourg":9352,"Ġmanusc":9353,"Ġcompeting":9354,"Ġcovering":9355,"Mah":9356,"Ser":9357,"ĠShan":9358,"ĠClar":9359,"Ġgrows":9360,"Ġsurviving":9361,"mother":9362,"Ġnose":9363,"ĠThompson":9364,"nee":9365,"Ġotherwise":9366,"incorporated":9367,"Ġradiation":9368,"amental":9369,"Ġcopy":9370,"ĠWard":9371,"Ġextreme":9372,"ĠAnglo":9373,"Ġ1860":9374,"Ġachieve":9375,"Because":9376,"Part":9377,"esar":9378,"Ġcable":9379,"Ġmand":9380,"Ġdinosaur":9381,"ĠLaur":9382,"istrict":9383,"Ġexpedition":9384,"Ġdecides":9385,"Ġcopper":9386,"ĠBenjamin":9387,"mate":9388,"rele":9389,"isi":9390,"lee":9391,"odge":9392,"hedron":9393,"2002":9394,"ĠHarvey":9395,"Ġvoting":9396,"Ġeaten":9397,"ĠCharlotte":9398,"Ġframe":9399,"01":9400,"ĠEston":9401,"Ġclim":9402,"Ġdismiss":9403,"ĠBeijing":9404,"Ġequivalent":9405,"Ġsisters":9406,"power":9407,"Ġtank":9408,"ref":9409,"Ġasks":9410,"ĠRan":9411,"Ġheritage":9412,"Ġstrongly":9413,"Ġthreatened":9414,"Ġrarely":9415,"06":9416,"Ep":9417,"Ġtube":9418,"Ġpy":9419,"ocation":9420,"Ġpret":9421,"Ġartillery":9422,"Ġswitch":9423,"Ag":9424,"Go":9425,"Leg":9426,"orus":9427,"Ġtool":9428,"ĠLeeds":9429,"Ġdepartments":9430,"ĠAbraham":9431,"Ġvisible":9432,"ĠPaulo":9433,"Ġtraveled":9434,"Ġfrequency":9435,"Ġvoiced":9436,"master":9437,"Ġcattle":9438,"ĠCob":9439,"raf":9440,"Ġchemistry":9441,"Ġgeomet":9442,"Ġimmigrants":9443,"Ġauthors":9444,"ĠPunjab":9445,"Ø§":9446,"ĠBald":9447,"owder":9448,"Ġconsequ":9449,"oku":9450,"Ġpicked":9451,"ĠVenezuela":9452,"Out":9453,"vant":9454,"onies":9455,"Ġster":9456,"Ġstating":9457,"ĠNation":9458,"Ġmidfielder":9459,"rolled":9460,"ĠBorough":9461,"ĠAuthority":9462,"OC":9463,"uver":9464,"erk":9465,"aration":9466,"Ġhosp":9467,"ĠLithuan":9468,"ĠDesign":9469,"Ġgods":9470,"ĠChem":9471,"ĠVas":9472,"Ġ56":9473,"Ġstatue":9474,"ĠArnold":9475,"esliga":9476,"HS":9477,"Japan":9478,"Ġwine":9479,"Ġbats":9480,"ĠPyrÃ©nÃ©es":9481,"ido":9482,"ĠDiv":9483,"ĠJenn":9484,"Ġspr":9485,"Ġflav":9486,"ristol":9487,"uka":9488,"osexual":9489,"92":9490,"Ġabbre":9491,"Ġresort":9492,"cester":9493,"Ġmuscle":9494,"Stat":9495,"Ġvacc":9496,"Mark":9497,"fare":9498,"Ġprovision":9499,"ĠGraham":9500,"ĠMotor":9501,"ĠSaxony":9502,"ĠTreaty":9503,"Ben":9504,"ĠBomb":9505,"ĠRud":9506,"Ġchlor":9507,"ensed":9508,"ĠZe":9509,"ĠGlobe":9510,"ĠAgain":9511,"Ġwooden":9512,"ĠDoubs":9513,"ĠDevon":9514,"Ġcontroversy":9515,"Little":9516,"Ma":9517,"ners":9518,"Ġlakes":9519,"ĠChand":9520,"ĠVo":9521,"ĠTherefore":9522,"Ġinstance":9523,"Ġrenew":9524,"Ġplatforms":9525,"Ġstrict":9526,"velt":9527,"Ġvessels":9528,"ĠMitchell":9529,"Normandie":9530,"Ġtied":9531,"ĠTam":9532,"ĠCP":9533,"ĠCry":9534,"Ġforming":9535,"Ġweaken":9536,"ĠAssoci":9537,"wright":9538,"Ġtheat":9539,"Ġcou":9540,"Ġcards":9541,"ĠBox":9542,"iffer":9543,"ogs":9544,"Ġcollaboration":9545,"Ġspiritual":9546,"Ah":9547,"bles":9548,"ridge":9549,"Ġtack":9550,"Ġcanc":9551,"Ġ53":9552,"Ġsyndrome":9553,"Ġid":9554,"ĠHamb":9555,"ĠDig":9556,"ĠKash":9557,"abilities":9558,"ĠAndy":9559,"Ġrestored":9560,"Ġarrival":9561,"Ġfalse":9562,"Ġhills":9563,"using":9564,"Ġdownload":9565,"Ġexperiences":9566,"ĠMorris":9567,"Ġhonour":9568,"ĠFurther":9569,"Ġfest":9570,"ĠTogether":9571,"olves":9572,"Ġorange":9573,"iper":9574,"Ġju":9575,"athers":9576,"ĠSee":9577,"ĠLuxemb":9578,"Ġcircle":9579,"ĠLuther":9580,"Ġvow":9581,"Ġorbit":9582,"Ġunincorporated":9583,"ĠPerry":9584,"ĠSalv":9585,"Ġqualification":9586,"ĠIndependence":9587,"Ġagriculture":9588,"claimed":9589,"Ġtornado":9590,"Ol":9591,"uary":9592,"Ġsung":9593,"oren":9594,"2018":9595,"Ã©r":9596,"ushing":9597,"Ġfriendly":9598,"ĠDemocrats":9599,"Ġsoundtrack":9600,"Ġdrawing":9601,"Ġwebsites":9602,"Ġeliminated":9603,"aton":9604,"ĠCamb":9605,"ellion":9606,"Ġweekly":9607,"ĠBasse":9608,"Ġboundary":9609,"ivia":9610,"ĠDance":9611,"athy":9612,"Ġassembly":9613,"Ġmembership":9614,"Ġtrading":9615,"Ġviolent":9616,"Ġranking":9617,"Today":9618,"finals":9619,"Ġfrag":9620,"Ġbull":9621,"ĠPel":9622,"ieu":9623,"ruits":9624,"Ġdispl":9625,"azines":9626,"Ġassumed":9627,"ĠGlobal":9628,"Ġpractices":9629,"Ġcantons":9630,"Ġattracted":9631,"Ġadaptation":9632,"Ġdowntown":9633,"ĠRA":9634,"ĠNaval":9635,"ĠShel":9636,"Ġscheme":9637,"eneration":9638,"ĠTele":9639,"2004":9640,"Ġgrounds":9641,"Ġfarming":9642,"Ġere":9643,"rov":9644,"iege":9645,"ruction":9646,"ector":9647,"formula":9648,"Ġgrav":9649,"Ġstable":9650,"Ġinvestment":9651,"Ġthinking":9652,"Ġduo":9653,"Ġcustomers":9654,"Ġ1800":9655,"ĠBlues":9656,"ĠSeven":9657,"amba":9658,"ĠCricket":9659,"Ġnarr":9660,"emor":9661,"orne":9662,"Ġpresidency":9663,"cycl":9664,"Ġcollections":9665,"Ġregarding":9666,"ĠCroatian":9667,"Ġliberal":9668,"iago":9669,"ĠMi":9670,"acon":9671,"ĠOcc":9672,"Ġrates":9673,"Ġ57":9674,"ĠReview":9675,"Ġmoder":9676,"grade":9677,"Ġbreed":9678,"ĠUrugu":9679,"Ġanswer":9680,"RS":9681,"amount":9682,"ĠDol":9683,"Ġprosec":9684,"Ġfled":9685,"ĠSymphony":9686,"ĠEnvironment":9687,"Ġ1899":9688,"Ġcriticism":9689,"Ġresponsibility":9690,"Ġreplacement":9691,"Ġnicknamed":9692,"Bre":9693,"ĠSoon":9694,"Ġhat":9695,"estone":9696,"Ġspending":9697,"inned":9698,"ĠMerc":9699,"Ġtaxes":9700,"Joseph":9701,"PD":9702,"wig":9703,"Ġtort":9704,"Ġwides":9705,"ĠAin":9706,"ĠAges":9707,"ĠBond":9708,"ĠComics":9709,"Ġpopulations":9710,"Ġ1896":9711,"Rep":9712,"Rob":9713,"Ġ59":9714,"Ġregiment":9715,"Ġfinals":9716,"Ġtourist":9717,"Ġgrandfather":9718,"Az":9719,"aun":9720,"ester":9721,"avia":9722,"odern":9723,"ĠVI":9724,"Ġpreced":9725,"Ġamb":9726,"ervatory":9727,"Ġparticles":9728,"Ġhydrogen":9729,"ĠHebrew":9730,"ivan":9731,"ĠPont":9732,"ĠGot":9733,"iev":9734,"osevelt":9735,"Ġ69":9736,"Ġindigenous":9737,"aptist":9738,"Grand":9739,"rez":9740,"asi":9741,"ĠTag":9742,"rock":9743,"ĠMack":9744,"igo":9745,"ĠWarri":9746,"Ġcloser":9747,"1990":9748,"Ġartistic":9749,"Ġconduct":9750,"Ġtalks":9751,"Nor":9752,"alu":9753,"Ġrent":9754,"Ġcontext":9755,"Ġcenters":9756,"Ġincreases":9757,"ĠSalzburg":9758,"Atlantiques":9759,"alph":9760,"ĠIan":9761,"orms":9762,"Ġ600":9763,"Ġ800":9764,"Ġobtain":9765,"ĠVictorian":9766,"ĠBroadcasting":9767,"Ġbehaviour":9768,"Ġproteins":9769,"Ġlicense":9770,"Ġpure":9771,"Ġninth":9772,"ĠFriday":9773,"ĠUnd":9774,"Ã¼n":9775,"ĠRailroad":9776,"Ġresearchers":9777,"Ġdancer":9778,"ET":9779,"ESCO":9780,"etes":9781,"ĠNi":9782,"Ġsky":9783,"ÑĢ":9784,"encing":9785,"ĠActor":9786,"ĠBeck":9787,"ivate":9788,"ĠFac":9789,"61":9790,"eed":9791,"Ġfantasy":9792,"Ġbones":9793,"ĠCrit":9794,"apped":9795,"Ġrandom":9796,"inding":9797,"ĠAthens":9798,"Ġcolleges":9799,"Ġpublications":9800,"Ġturning":9801,"Ġtested":9802,"ĠTropical":9803,"ĠMind":9804,"adian":9805,"ĠEqu":9806,"Ġassign":9807,"Ġmarkets":9808,"1999":9809,"she":9810,"isch":9811,"ĠBron":9812,"venge":9813,"ĠAttorney":9814,"Martin":9815,"Ġinner":9816,"irk":9817,"ĠLud":9818,"ĠUC":9819,"Ġneuro":9820,"Ġblocks":9821,"language":9822,"Ġnerv":9823,"eton":9824,"ĠPin":9825,"utter":9826,"ĠKo":9827,"ĠKap":9828,"ĠShar":9829,"Ġsurf":9830,"Ġmonument":9831,"ĠSyria":9832,"Ġpurchase":9833,"à¥":9834,"Ġfil":9835,"ompl":9836,"ĠTas":9837,"ĠBert":9838,"ĠRic":9839,"ĠAlice":9840,"2019":9841,"ommod":9842,"pent":9843,"winning":9844,"Ġpand":9845,"ĠBurg":9846,"ĠWoman":9847,"geon":9848,"ĠOrig":9849,"formance":9850,"Ġparks":9851,"ĠKerala":9852,"03":9853,"ĠTang":9854,"ĠCall":9855,"ategy":9856,"Ġcontra":9857,"Ġlanding":9858,"ĠAmendment":9859,"ĠApp":9860,"Ġtomb":9861,"ĠCarm":9862,"ĠPubl":9863,"owell":9864,"Ġadmin":9865,"Ġpresenter":9866,"Polit":9867,"present":9868,"pread":9869,"Ġwaste":9870,"ellect":9871,"Ġlieutenant":9872,"Ġninet":9873,"ĠHudson":9874,"ĠPad":9875,"ĠRico":9876,"Ġreputation":9877,"umbent":9878,"ComtÃ©":9879,"include":9880,"ladimir":9881,"Henry":9882,"]]":9883,"foot":9884,"uous":9885,"Ġpunk":9886,"Ġforg":9887,"Ġexerc":9888,"aws":9889,"Ġoffensive":9890,"Ġ68":9891,"Ġcultures":9892,"ĠBarbara":9893,"Ġkidn":9894,"Ġnav":9895,"Ġempire":9896,"ĠOber":9897,"icken":9898,"Ġstrategy":9899,"span":9900,"Ġdenied":9901,"BO":9902,"lie":9903,"ĠRol":9904,"Ġ1850":9905,"Ġvisiting":9906,"Ġcharacteristics":9907,"ĠCommissioner":9908,"Ġconcluded":9909,"ĠBourgogne":9910,"ĠML":9911,"ĠRoll":9912,"ubs":9913,"Ġ73":9914,"Ġweigh":9915,"Ġtownship":9916,"Ġpublicly":9917,"Ġmagazines":9918,"Ġbroadcasting":9919,"Ġtalent":9920,"ĠColonel":9921,"family":9922,"hill":9923,"nal":9924,"Ġfaces":9925,"ilst":9926,"rose":9927,"Ġalgor":9928,"Ġsheep":9929,"Ġkeeping":9930,"Ġparliamentary":9931,"Ġgalaxy":9932,"Ġjuris":9933,"Cast":9934,"ĠLot":9935,"ĠGor":9936,"Ġalleg":9937,"rows":9938,"ĠFerr":9939,"English":9940,"kov":9941,"Ġtherap":9942,"Ġbone":9943,"ĠSuch":9944,"ĠMalt":9945,"Ġappropri":9946,"Ġcrossing":9947,"Franche":9948,"Ġaccompanied":9949,"400":9950,"Dem":9951,"tr":9952,"ĠPra":9953,"overe":9954,"Ġlandscape":9955,"Ġbelieves":9956,"ĠSanders":9957,"Europe":9958,"Ġinducted":9959,"Mur":9960,"Ġbes":9961,"leman":9962,"ĠBass":9963,"Ġexpect":9964,"Ġmainland":9965,"ossible":9966,"Ġgreatly":9967,"miral":9968,"Ġeating":9969,"ĠJerry":9970,"Ġ67":9971,"ĠRichmond":9972,"Ġexcell":9973,"ĠEconomic":9974,"ĠBulgaria":9975,"Ġliver":9976,"Ġproceed":9977,"Ġreplacing":9978,"Ġbringing":9979,"Ġtouchdown":9980,"Luc":9981,"ders":9982,"erals":9983,"anthrop":9984,"ĠGust":9985,"Ġrated":9986,"Ġorganic":9987,"ĠBrand":9988,"formerly":9989,"dest":9990,"iary":9991,"Ġbath":9992,"amer":9993,"ĠRat":9994,"ĠKoh":9995,"Ġusual":9996,"Ġdisaster":9997,"Ġannounce":9998,"Ġrenov":9999,"Ġqualifying":10000,"Ġcredit":10001,"Ġbenefit":10002,"Ġpianist":10003,"Mary":10004,"ĠArena":10005,"arting":10006,"ichi":10007,"eca":10008,"Ġorganisms":10009,"ĠAmbassador":10010,"Ġindustries":10011,"ĠMontgomery":10012,"Ġinsurance":10013,"furt":10014,"asks":10015,"otan":10016,"Ġ71":10017,"Ġinfect":10018,"ategory":10019,"Ġwindows":10020,"Ġspeakers":10021,"Ġrapidly":10022,"ĠFlorence":10023,"So":10024,"bat":10025,"vens":10026,"Ġsweet":10027,"arin":10028,"Ġpric":10029,"iration":10030,"ĠDra":10031,"Ġtransmission":10032,"Ġequation":10033,"ĠSeb":10034,"eters":10035,"irit":10036,"uto":10037,"osl":10038,"uba":10039,"Just":10040,"ãĤ":10041,"Ġmoon":10042,"ste":10043,"lymouth":10044,"Ġsubstant":10045,"Ġtruth":10046,"yler":10047,"Ġstronger":10048,"Ġportrayed":10049,"ĠTunis":10050,"Spe":10051,"oi":10052,"ÅĦ":10053,"Ġpeoples":10054,"Ġmaps":10055,"ĠGreater":10056,"ĠNatural":10057,"eston":10058,"ĠManipur":10059,"Ġmeetings":10060,"ĠArchbishop":10061,"ĠWarsaw":10062,"Ġadventure":10063,"TS":10064,"ĠRand":10065,"ouses":10066,"arrison":10067,"Ġcommunes":10068,"Ġconnect":10069,"Ġrestaurants":10070,"Ġsupporters":10071,"Bad":10072,"lu":10073,"Ġmal":10074,"ĠMaced":10075,"ĠIvan":10076,"Ġanime":10077,"ĠNova":10078,"Ġownership":10079,"Ġanimation":10080,"ĠPortland":10081,"Ġ1862":10082,"Ġlowest":10083,"Ġsettlements":10084,"Ġloyal":10085,"ĠNet":10086,"Ġracial":10087,"Ġaccompl":10088,"ĠParker":10089,"Ġverte":10090,"Ġcomponents":10091,"onlyinclude":10092,"selling":10093,"erian":10094,"Ġworn":10095,"roat":10096,"owski":10097,"kee":10098,"itarian":10099,"Ġpsychology":10100,"ĠRogers":10101,"FM":10102,"Good":10103,"Ġtact":10104,"inated":10105,"asant":10106,"enda":10107,"Ġ1898":10108,"White":10109,"Ġaudio":10110,"Ġholiday":10111,"Ġadjacent":10112,"Af":10113,"Best":10114,"ED":10115,"Ġtow":10116,"Ġanch":10117,"Ġhem":10118,"anto":10119,"Ġkings":10120,"ĠThough":10121,"assic":10122,"2003":10123,"Ġseeing":10124,"Ġminority":10125,"Ġconcerns":10126,"Ġfossils":10127,"Ġwithdraw":10128,"lik":10129,"Ġmac":10130,"Ġgate":10131,"Ġaspects":10132,"Ġcommit":10133,"Ġproducers":10134,"Ġdebate":10135,"Ġfalling":10136,"Ġratio":10137,"Ġrevenue":10138,"ĠPrague":10139,"ĠNon":10140,"ĠNadu":10141,"ĠOscar":10142,"overnment":10143,"Ġaccommod":10144,"Ġlanded":10145,"Ġhyper":10146,"ĠRoosevelt":10147,"ĠDefence":10148,"ĠUniverse":10149,"ĠSerbian":10150,"Dou":10151,"lock":10152,"Ġmile":10153,"Ġexposed":10154,"ĠVel":10155,"aceae":10156,"Ġdomain":10157,"ĠVegas":10158,"04":10159,"Ġfold":10160,"ilo":10161,"Ġelectoral":10162,"Ġorganised":10163,"engu":10164,"Ġgenes":10165,"Ġnetworks":10166,"Ġthriller":10167,"ĠStockholm":10168,"ĠWagner":10169,"Ġrebuilt":10170,"ĠToy":10171,"ĠIS":10172,"ĠRing":10173,"Ġcompris":10174,"insky":10175,"lington":10176,"Ġfaculty":10177,"atoes":10178,"Ġpanel":10179,"94":10180,"French":10181,"Old":10182,"orship":10183,"Ġlinks":10184,"ĠHond":10185,"abul":10186,"overty":10187,"Ġroot":10188,"Ġ63":10189,"Ġunderst":10190,"aji":10191,"Ġedited":10192,"ĠAdela":10193,"Ġexception":10194,"Bo":10195,"pm":10196,"Ġwedding":10197,"Ġcm":10198,"ĠCer":10199,"ĠCold":10200,"ĠCatherine":10201,"ĠMak":10202,"rency":10203,"Ġoutput":10204,"Ġ62":10205,"Ġsubmar":10206,"arrondissements":10207,"graduate":10208,"Ġswit":10209,"Ġfarmers":10210,"ĠSerbia":10211,"Ber":10212,"Les":10213,"inations":10214,"Ġbond":10215,"Ġpapers":10216,"ĠHend":10217,"uras":10218,"ĠRacing":10219,"ĠThose":10220,"Ġempt":10221,"ĠSuff":10222,"ĠMend":10223,"Ġnurs":10224,"ĠFilip":10225,"ensis":10226,"ribed":10227,"Ġwidespread":10228,"bing":10229,"ĠThor":10230,"Ġspaces":10231,"Ġ1865":10232,"Ġtalking":10233,"ĠJudge":10234,"ĠBundesliga":10235,"Background":10236,"Jul":10237,"ĠMans":10238,"cho":10239,"ĠGary":10240,"Ġconstitutional":10241,"ĠShaw":10242,"asha":10243,"Ġtransition":10244,"ĠFlight":10245,"ambig":10246,"Ġranks":10247,"Ġtransportation":10248,"Ġinnov":10249,"ĠProductions":10250,"Under":10251,"noon":10252,"ĠCulture":10253,"ĠStars":10254,"inee":10255,"Ġreflect":10256,"Ġidentify":10257,"cons":10258,"ĠRound":10259,"ĠLis":10260,"ĠLad":10261,"ials":10262,"Ġtoured":10263,"ĠBosnia":10264,"ĠYugoslavia":10265,"Min":10266,"iw":10267,"tic":10268,"Ġfurn":10269,"ĠSey":10270,"ĠHunt":10271,"Ġorche":10272,"orders":10273,"Ġpreserved":10274,"Ġ94":10275,"ĠPlayer":10276,"comm":10277,"Ġwearing":10278,"Ġgard":10279,"ĠFem":10280,"acks":10281,"acter":10282,"Ġrac":10283,"Ġcapable":10284,"ĠKirk":10285,"Ġmolecules":10286,"Ġpatterns":10287,"Ġzero":10288,"Ġblow":10289,"ortion":10290,"Ġafterwards":10291,"ĠSchools":10292,"Ġoriginated":10293,"Ġinternationally":10294,"Ġ1889":10295,"ĠMoroc":10296,"ĠUpon":10297,"ĠOliver":10298,"ĠOperation":10299,"ĠEvans":10300,"Ġbeliefs":10301,"otype":10302,"ipedia":10303,"Ġjury":10304,"annon":10305,"Ġapply":10306,"Ġdirectors":10307,"ĠÃĸ":10308,"Ġhonorary":10309,"ĠVincent":10310,"Sa":10311,"Ġhole":10312,"ĠShin":10313,"type":10314,"1980":10315,"Ġhoriz":10316,"ĠJulian":10317,"ĠFreedom":10318,"ĠTibet":10319,"core":10320,"fire":10321,"uits":10322,"icist":10323,"ivated":10324,"arts":10325,"Ġmode":10326,"elfare":10327,"Ġbreaking":10328,"Ġmechanical":10329,"Ġsomewhat":10330,"War":10331,"iology":10332,"made":10333,"ĪĴ":10334,"Ġwaves":10335,"ĠPle":10336,"ĠLie":10337,"ĠInvest":10338,"inda":10339,"chel":10340,"Ġthemes":10341,"Ġcaps":10342,"ĠAllied":10343,"ĠTurner":10344,"Every":10345,"ĠPays":10346,"opal":10347,"izz":10348,"Ġagents":10349,"Ġcoat":10350,"ĠGoogle":10351,"----":10352,"RO":10353,"Ġtens":10354,"ĠNear":10355,"agers":10356,"acle":10357,"antine":10358,"ĠZone":10359,"Ġannually":10360,"Ġfewer":10361,"Ġconcrete":10362,"Ġcolonies":10363,"ĠCabinet":10364,"ĠKazakh":10365,"nor":10366,"ifted":10367,"ĠUNESCO":10368,"ĠTrophy":10369,"GBT":10370,"ĠPhoenix":10371,"CO":10372,"Mel":10373,"Ġsaved":10374,"rost":10375,"Ġreorgan":10376,"ĠNever":10377,"isters":10378,"ĠDiocese":10379,"ĠHarrison":10380,"ĠAbbey":10381,"EA":10382,"world":10383,"ching":10384,"Ġtruck":10385,"Ġcargo":10386,"Ġlimits":10387,"ĠPakistani":10388,"Ġpercentage":10389,"ĠArmenian":10390,"Ġcongressional":10391,"Family":10392,"Ġfame":10393,"ĠSide":10394,"ĠSyl":10395,"ivation":10396,"Ġorb":10397,"ĠYan":10398,"Ġdepends":10399,"Ġ99":10400,"Ġflower":10401,"Ġaccounts":10402,"Ġoption":10403,"know":10404,"Ġmanner":10405,"ĠImp":10406,"ĠLan":10407,"Ġ1888":10408,"ĠNazis":10409,"len":10410,"Ġmasc":10411,"Ġbeating":10412,"apse":10413,"abel":10414,"Ġspeaker":10415,"Ġ58":10416,"Ġreleases":10417,"Three":10418,"Ġrestrict":10419,"emocratic":10420,"Ġ1863":10421,"ĠGrace":10422,"Ġangry":10423,"Ã±a":10424,"GA":10425,"pson":10426,"Ġmo":10427,"ĠBristol":10428,"Ġ\"\",":10429,"irus":10430,"Ġgrey":10431,"ĠLamb":10432,"ĠOm":10433,"Ġproport":10434,"Ġminimum":10435,"Ġsteps":10436,"Ġmanufacturing":10437,"MI":10438,"Ġtie":10439,"aning":10440,"Ġhal":10441,"irty":10442,"ĠWonder":10443,"ĠEug":10444,"ĠCollins":10445,"Ha":10446,"Mer":10447,"Ġcats":10448,"ĠMort":10449,"Ġride":10450,"gebra":10451,"ieg":10452,"auer":10453,"Ġphotographer":10454,"ĠLuxembourg":10455,"ĠIv":10456,"ĠKil":10457,"airo":10458,"Ġsigning":10459,"Ġrocket":10460,"Ġfocuses":10461,"Ġpredecess":10462,"ĠBaden":10463,"Ġrescue":10464,"Ġtherm":10465,"omon":10466,"ĠRange":10467,"ĠFood":10468,"Ġlosses":10469,"ĠUsually":10470,"case":10471,"Ġwars":10472,"ĠFitz":10473,"ipper":10474,"ĠFrances":10475,"Ġcontrols":10476,"Ġdestruction":10477,"Ġrifle":10478,"Ġgradually":10479,"bian":10480,"Ġregime":10481,"Ġnortheastern":10482,"Ġproposal":10483,"ĠBuffalo":10484,"inos":10485,"Ġfung":10486,"Ġfighter":10487,"Ġmob":10488,"ĠMother":10489,"ĠJason":10490,"odore":10491,"rang":10492,"atha":10493,"Ġdefending":10494,"ĠModel":10495,"Bra":10496,"MC":10497,"enc":10498,"Ġexpos":10499,"Ġspots":10500,"ĠIsa":10501,"incinn":10502,"ĠButler":10503,"hibition":10504,"ĠSteven":10505,"ĠHelen":10506,"Ġmagnetic":10507,"Ġstrengthen":10508,"Ġsegment":10509,"Cont":10510,"mo":10511,"ĠAFC":10512,"ĠHold":10513,"ĠPier":10514,"Ġrice":10515,"phal":10516,"Ġrecre":10517,"Ġexperiments":10518,"ĠSupport":10519,"ĠAlberta":10520,"Ġtravelled":10521,"02":10522,"Pol":10523,"Ġsoutheastern":10524,"ĠSite":10525,"ĠSultan":10526,"ĠPay":10527,"ĠFu":10528,"Ġentering":10529,"Ġinfantry":10530,"Ġfluid":10531,"Ġrequirements":10532,"Ġstruggle":10533,"Ġelevation":10534,"ĠProtestant":10535,"Ġpip":10536,"ghai":10537,"Ġsingers":10538,"iency":10539,"Ġphysician":10540,"Ġcredits":10541,"ĠElectric":10542,"Int":10543,"Sk":10544,"TP":10545,"UC":10546,"harm":10547,"iere":10548,"eras":10549,"oust":10550,"ĠObs":10551,"ificial":10552,"Ġmonastery":10553,"Ġnovelist":10554,"Ġcrossed":10555,"ĠBernard":10556,"Ġcrops":10557,"ĠHamburg":10558,"Bro":10559,"GC":10560,"Ġpolo":10561,"Ġwhereas":10562,"Ġappeal":10563,"Ġlegislation":10564,"Ġpandemic":10565,"93":10566,"ĠMaj":10567,"Ġstored":10568,"ĠJess":10569,"Ġshorter":10570,"hesis":10571,"Ġrunner":10572,"Ġcoron":10573,"Ġrounds":10574,"Ġworst":10575,"ĠVenice":10576,"incinnati":10577,"Mount":10578,"Ġlin":10579,"Ã¡s":10580,"ĠAgric":10581,"Ġcivilian":10582,"ĠAthletic":10583,"py":10584,"ĠPil":10585,"ovo":10586,"Ġaggreg":10587,"pha":10588,"ĠAround":10589,"Ġrecept":10590,"pective":10591,"Ġbordered":10592,"canic":10593,"Ġbenefits":10594,"nell":10595,"Ġnone":10596,"ĠBour":10597,"Ġclock":10598,"ĠSyrian":10599,"Ġ1897":10600,"ĠSchw":10601,"Ġcalc":10602,"ĠSpeed":10603,"ndered":10604,"ĠSalt":10605,"ĠGill":10606,"Ġkit":10607,"ibi":10608,"ĠAntar":10609,"Ġensure":10610,"Ġhabitat":10611,"Ġtrouble":10612,"nik":10613,"ĠBened":10614,"ĠUntil":10615,"ĠPlaces":10616,"uckland":10617,"Ġdescription":10618,"Daniel":10619,"High":10620,"Kh":10621,"sor":10622,"tar":10623,"Å¾":10624,"Ġinsc":10625,"ĠRu":10626,"Ġdeploy":10627,"Ġrelief":10628,"Ġvolumes":10629,"Ġnominations":10630,"Ġtissue":10631,"ĠAdelaide":10632,"Ġtelling":10633,"anim":10634,"Ġmm":10635,"Ġdict":10636,"Ġdatab":10637,"ĠCelt":10638,"ĠGand":10639,"Ġanthrop":10640,"Ġrising":10641,"Ġabroad":10642,"aceous":10643,"Ġrepresentatives":10644,"Ġ1864":10645,"boro":10646,"Ã¨res":10647,"ĠNicholas":10648,"Rel":10649,"quarter":10650,"Ġshops":10651,"ĠNewton":10652,"etta":10653,"atsu":10654,"Ġ1893":10655,"heimer":10656,"rastructure":10657,"ĠLloyd":10658,"Ġphenomen":10659,"Love":10660,"folk":10661,"ĠPierre":10662,"idad":10663,"ĠRot":10664,"ĠOri":10665,"shi":10666,"Ġfoods":10667,"ĠTigers":10668,"ambiguation":10669,"bie":10670,"entin":10671,"Ġles":10672,"ĠMA":10673,"ĠDub":10674,"ĠStein":10675,"ĠReport":10676,"ĠAdvis":10677,"def":10678,"Ġrefere":10679,"ĠDepression":10680,"Ġphotos":10681,"Ġsignificantly":10682,"ĠWorks":10683,"Ġmartial":10684,"Ġtexts":10685,"hero":10686,"style":10687,"ĠTheater":10688,"ĠKurd":10689,"Ġevac":10690,"ĠShir":10691,"arrier":10692,"exual":10693,"Ġprocessing":10694,"Ġsuspended":10695,"Desc":10696,"Ġaster":10697,"Ġcoc":10698,"ĠTob":10699,"Ġreaches":10700,"ĠIP":10701,"Ġcommanded":10702,"Ġrod":10703,"ĠHispan":10704,"Ġexplain":10705,"Ġamongst":10706,"Ġresignation":10707,"cott":10708,"gne":10709,"sole":10710,"Ġshield":10711,"Ġnotice":10712,"Ġflights":10713,"ĠBrah":10714,"Ġapproval":10715,"Ġbiology":10716,"disambiguation":10717,"ĠLocal":10718,"ĠNext":10719,"umps":10720,"isha":10721,"Ġhumid":10722,"Ġ1895":10723,"Ġassistance":10724,"Ġdonated":10725,"Ġcasual":10726,"Green":10727,"Hel":10728,"anth":10729,"ĠSic":10730,"ĠRah":10731,"Ġages":10732,"lett":10733,"Ass":10734,"Ġconnects":10735,"Ġjudges":10736,"Ġmerger":10737,"ĠRhine":10738,"ĠLuis":10739,"Ġoccasionally":10740,"ĠBennett":10741,"ĠITV":10742,"Ġemp":10743,"ĠDennis":10744,"ĠWing":10745,"ishn":10746,"pring":10747,"ournaments":10748,"Ġoffering":10749,"Ġbalance":10750,"Ġwalking":10751,"Ġentrepreneur":10752,"Ġorgans":10753,"Education":10754,"but":10755,"woman":10756,"agne":10757,"ĠHeights":10758,"Ġdefender":10759,"ullah":10760,"Ġmixture":10761,"speaking":10762,"Ġmessages":10763,"ĠAquitaine":10764,"EP":10765,"Ir":10766,"Sur":10767,"Ġtill":10768,"Ġhorn":10769,"Ġarc":10770,"arked":10771,"Ġrainfall":10772,"amo":10773,"ĠPsych":10774,"Ġgross":10775,"Ġstem":10776,"ĠGoth":10777,"ĠWald":10778,"berto":10779,"ripts":10780,"Ġdischar":10781,"Ġindex":10782,"Ġmodified":10783,"minster":10784,"Ġposted":10785,"ĠPercy":10786,"ĠColumbus":10787,"Ġencounter":10788,"Ġadvertising":10789,"Ġsubsidi":10790,"Ġhope":10791,"ĠStuart":10792,"ĠVers":10793,"anni":10794,"Ġfifteen":10795,"Ġmissions":10796,"ĠIndonesian":10797,"ĠEventually":10798,"DC":10799,"gender":10800,"Ġske":10801,"uni":10802,"ĠFace":10803,"ĠGun":10804,"agar":10805,"Ġjail":10806,"ĠSpencer":10807,"ĠSeason":10808,"Ġintellect":10809,"Ġprisoner":10810,"Ġescaped":10811,"Ġdiplomat":10812,"Ġdollars":10813,"ĠSor":10814,"ĠUlt":10815,"Ġrit":10816,"Ġresolution":10817,"Ġarrondissement":10818,"Ġvoters":10819,"Ġsummit":10820,"ĠSoutheast":10821,"ĠDaily":10822,"ĠOz":10823,"1970":10824,"ĠArchitect":10825,"ĠSabha":10826,"Ġencouraged":10827,"gow":10828,"Ġfib":10829,"Ġbid":10830,"ĠSony":10831,"Ġlingu":10832,"ĠBrew":10833,"ĠLen":10834,"ovsky":10835,"rank":10836,"Ġelectrons":10837,"Ġbegun":10838,"ĠPalestine":10839,"Ġjurisd":10840,"Each":10841,"ĠSierra":10842,"ĠHerman":10843,"etter":10844,"ĠPlymouth":10845,"ĠUg":10846,"Ġrhythm":10847,"ĠGray":10848,"Ġbasin":10849,"Ġbelonged":10850,"Ġ/&":10851,"ĠGonz":10852,"Ġoccasions":10853,"vol":10854,"atics":10855,"Ġpushed":10856,"ĠCincinnati":10857,"ĠVideo":10858,"Ġcommemor":10859,"Ġretained":10860,"Ġremix":10861,"Ġintersection":10862,"ĠSecret":10863,"Ġspecialized":10864,"Ġ[[":10865,"Ġmarketing":10866,"Ġcoverage":10867,"Ġsatisf":10868,"Ġcoffee":10869,"Ġindicated":10870,"ĠClare":10871,"Ġcharity":10872,"Ġpoliticians":10873,"Ġdecline":10874,"Ġflew":10875,"ĠAdditionally":10876,"ĠDominican":10877,"Ġutil":10878,"Wil":10879,"onso":10880,"ingly":10881,"ĠBA":10882,"chair":10883,"oses":10884,"ephew":10885,"Ġexternal":10886,"Ġsharp":10887,"ogo":10888,"aha":10889,"Ġwritings":10890,"etti":10891,"Ġextens":10892,"ĠByz":10893,"ĠSloven":10894,"Ġqualify":10895,"ĠDenver":10896,"ĠSpeaker":10897,"Ġmechanism":10898,"ĠCzechosl":10899,"ĠStandard":10900,"ĠSnow":10901,"Ġreactions":10902,"ĠBachelor":10903,"usa":10904,"iguel":10905,"aple":10906,"manuel":10907,"1997":10908,"Ġcertified":10909,"Ġexercise":10910,"Bur":10911,"MO":10912,"Mr":10913,"Ġpale":10914,"Ġdrew":10915,"ĠLag":10916,"ifts":10917,"ienne":10918,"Ġhistorians":10919,"ĠSteel":10920,"\"'":10921,"aser":10922,"Ġlob":10923,"ĠFif":10924,"tenance":10925,"Ġnorthwestern":10926,"ĠEdwards":10927,"Ġbreast":10928,"Ġdivorce":10929,"Ġskiing":10930,"Austral":10931,"Ġcancelled":10932,"Med":10933,"Men":10934,"hu":10935,"ĠGÃ¶":10936,"ags":10937,"Ġpermission":10938,"ĠMean":10939,"ollo":10940,"ifferent":10941,"%,":10942,"Ġwel":10943,"icing":10944,"Ġhidden":10945,"ocene":10946,"Ġproof":10947,"usted":10948,"ĠClay":10949,"Ġrepresentation":10950,"Ġconcerned":10951,"Ġdiesel":10952,"aude":10953,"olid":10954,"ĠRace":10955,"ĠDanny":10956,"Ġtraditions":10957,"ĠActress":10958,"Ġexecution":10959,"ĠSantiago":10960,"Ġassociate":10961,"Ġvessel":10962,"Ġopponent":10963,"ser":10964,"iza":10965,"Ġdriven":10966,"Ġidentical":10967,"Ġviewers":10968,"Ġbiological":10969,"Between":10970,"gae":10971,"uct":10972,"Ġtons":10973,"onian":10974,"Ġsitting":10975,"ĠMTV":10976,"ĠPul":10977,"ĠOur":10978,"ĠInformation":10979,"emberg":10980,"Ġhelic":10981,"ĠEddie":10982,"Ġhonored":10983,"ĠÃģ":10984,"ĠWallace":10985,"ĠOttawa":10986,"ĠNapole":10987,"Sil":10988,"ĠHus":10989,"ulum":10990,"Ġdoors":10991,"iamond":10992,"Ġexplains":10993,"Ġ1891":10994,"Ġgoalkeeper":10995,"Play":10996,"Ġremembered":10997,"ĠGeneva":10998,"child":10999,"Ġprof":11000,"issa":11001,"ĠMadison":11002,"Ġprinciple":11003,"Ġcontinuous":11004,"Ġcomponent":11005,"ĠRenaissance":11006,"hour":11007,"inental":11008,"Ġcemetery":11009,"Ġstom":11010,"okes":11011,"Inter":11012,"achment":11013,"ĠYang":11014,"ĠBeg":11015,"Ġdrivers":11016,"atinum":11017,"Ġlegislative":11018,"Ġancestry":11019,"Ġpulled":11020,"Ġneutral":11021,"Ġpunishment":11022,"CDP":11023,"Que":11024,"isons":11025,"Ġsight":11026,"ĠSR":11027,"occ":11028,"Ġcolours":11029,"ĠGrande":11030,"Ġargument":11031,"ĠRevolutionary":11032,"Ġinstrumental":11033,"ĠLebanon":11034,"gets":11035,"Ġmate":11036,"Ġdub":11037,"ĠSul":11038,"ĠProm":11039,"iao":11040,"uclear":11041,"Ġowns":11042,"Ġcoalition":11043,"ĠLimited":11044,"Ġshopping":11045,"Ġhypothes":11046,"Ver":11047,"Ġcited":11048,"igible":11049,"Ġatoms":11050,"ĠKid":11051,"ĠKnow":11052,"Ġputting":11053,"1998":11054,"Ġdeclined":11055,"Commun":11056,"Ġclearly":11057,"Ġjunction":11058,"Ġdrinking":11059,"Ġbattery":11060,"Ġpregnant":11061,"Ġcinema":11062,"Sl":11063,"Sar":11064,"Ġwick":11065,"Ġanthe":11066,"aja":11067,"Ġassets":11068,"ĠGlen":11069,"ĠCongo":11070,"yright":11071,"ĠYears":11072,"ĠFleet":11073,"Ġfestivals":11074,"Jac":11075,"Ġloved":11076,"ĠMission":11077,"ĠFact":11078,"umm":11079,"oded":11080,"Ġvul":11081,"ampa":11082,"ansk":11083,"uchi":11084,"Ġalliance":11085,"Ġblues":11086,"Ġfacing":11087,"Ġgolden":11088,"ĠRhode":11089,"bound":11090,"Ġtournaments":11091,"anian":11092,"Ġsailed":11093,"ĠMall":11094,"ĠIC":11095,"ĠLanguage":11096,"Ġcanal":11097,"Ġagencies":11098,"Ġtopics":11099,"Ġsponsored":11100,"Ġphotographs":11101,"\"\"":11102,"fra":11103,"gil":11104,"hus":11105,"iture":11106,"Ġplain":11107,"ĠChang":11108,"ishi":11109,"Ġ61":11110,"Ġcoached":11111,"ĠAboriginal":11112,"ĠNASA":11113,"Ġinnings":11114,"ĠRomans":11115,"End":11116,"Fred":11117,"Ġsessions":11118,"alam":11119,"icas":11120,"Ġdio":11121,"ĠAuckland":11122,"rob":11123,"ewhere":11124,"Ġ98":11125,"Ġmultipl":11126,"wyn":11127,"Ġthinks":11128,"Ġunless":11129,"Ġpartially":11130,"ricketer":11131,"ocolate":11132,"WW":11133,"vet":11134,"Î±":11135,"Ġdynam":11136,"ĠCS":11137,"ellar":11138,"theless":11139,"1996":11140,"Ġpitched":11141,"Ġbeauty":11142,"ĠMeth":11143,"agi":11144,"Ġprove":11145,"yla":11146,"ĠFinance":11147,"iffe":11148,"senal":11149,"Ġadopt":11150,"Ġopponents":11151,"DR":11152,"Jo":11153,"final":11154,"ĠSoul":11155,"ĠSuz":11156,"ĠAction":11157,"ĠGrey":11158,"ĠYe":11159,"Ġcorruption":11160,"Ġ1894":11161,"Ġsymbols":11162,"Like":11163,"cut":11164,"ĠKath":11165,"Ġchoir":11166,"Ġshift":11167,"Ġflash":11168,"Ġ1887":11169,"Ġfeelings":11170,"Mac":11171,"lia":11172,"Ġcere":11173,"ĠKel":11174,"Ġrh":11175,"Ġparas":11176,"Ġcreative":11177,"Ġfeeling":11178,"Ġprecip":11179,"Ġcoins":11180,"Ġenjoyed":11181,"Ġaimed":11182,"Ġtoxic":11183,"Jim":11184,"ê¯":11185,"Ġsoci":11186,"Ġbin":11187,"Ġbon":11188,"Ġpseud":11189,"amas":11190,"ĠBase":11191,"Ġgro":11192,"Ġheir":11193,"Ġsecure":11194,"ĠHarbor":11195,"ymph":11196,"Ġbelonging":11197,"Ġpink":11198,"Ġmines":11199,"Ġdancing":11200,"ĠBaptist":11201,"ĠJava":11202,"acht":11203,"Ġrab":11204,"Ġprince":11205,"Ġmanage":11206,"ĠBlood":11207,"ĠPresidential":11208,"ĠExamples":11209,"Ġmagic":11210,"Ġcarries":11211,"Ġben":11212,"Ġmanga":11213,"ipped":11214,"izer":11215,"borne":11216,"Ġbridges":11217,"Ġguide":11218,"ĠMahar":11219,"Vill":11220,"eli":11221,"ulus":11222,"ups":11223,"Ġassemb":11224,"venth":11225,"Ġvariable":11226,"Ġeldest":11227,"1995":11228,"ĠFinally":11229,"ĠSongs":11230,"Ġconsiderable":11231,"Ġprinciples":11232,"RhÃ´ne":11233,"Ġappointment":11234,"eer":11235,"fers":11236,"free":11237,"instein":11238,"itol":11239,"ĠRest":11240,"ĠRidge":11241,"ĠLate":11242,"ocent":11243,"pei":11244,"Ġcompilation":11245,"Ġspelled":11246,"Ġenforce":11247,"Ġ1885":11248,"Ġsuburbs":11249,"ĠWyoming":11250,"released":11251,"Ġion":11252,"Ġfill":11253,"olition":11254,"Ġafternoon":11255,"athi":11256,"eyer":11257,"Ġincorpor":11258,"Ġ1892":11259,"Ġinfluences":11260,"Ġplanets":11261,"Ġkilometres":11262,"Ġtelephone":11263,"pi":11264,"Ġbay":11265,"ĠMann":11266,"utton":11267,"ocial":11268,"ework":11269,"athon":11270,"Ġflour":11271,"Ġvalid":11272,"Ġantib":11273,"Ġfifty":11274,"Ġfarms":11275,"ĠCommunications":11276,"Ġoxid":11277,"ĠEssex":11278,".'":11279,";/":11280,"two":11281,"ĠLoc":11282,"anti":11283,"Ġ97":11284,"Ġcream":11285,"Ġassess":11286,"ĠMinor":11287,"Ġeffectively":11288,"Ġinvolvement":11289,"Ġadvice":11290,"Ġpersu":11291,"Ġcitizenship":11292,"Fe":11293,"erted":11294,"sts":11295,"etry":11296,"ĠPrussia":11297,"works":11298,"1994":11299,"ĠRecord":11300,"Ġdissolved":11301,"Ġpartners":11302,"Ġtributary":11303,"Ġsubstance":11304,"four":11305,"making":11306,"ĠCultural":11307,"stock":11308,"that":11309,"ĠAlong":11310,"Ġscores":11311,"Ġtourism":11312,"Ġbadly":11313,"Ġmathematical":11314,"Ġlifetime":11315,"ĠWikipedia":11316,"Mor":11317,"Sub":11318,"Ġton":11319,"Ġtheories":11320,"ĠDays":11321,"ĠUtt":11322,"Ġconvert":11323,"Ġprofit":11324,"Ġretiring":11325,"Ġindicate":11326,"ĠBrigade":11327,"minute":11328,"Ġwidow":11329,"ĠEthiopia":11330,"Fre":11331,"PM":11332,"Roman":11333,"rand":11334,"trans":11335,"Ġbrick":11336,"Ġdual":11337,"erset":11338,"Ġvast":11339,"Ġfollowers":11340,"Ġconvin":11341,"species":11342,"Disc":11343,"Law":11344,"Ġvic":11345,"keley":11346,"Ġgenera":11347,"Ġdiscip":11348,"ĠPoly":11349,"ĠHarold":11350,"castle":11351,"ĠSlav":11352,"ĠPatri":11353,"References":11354,"gregation":11355,"91":11356,"Time":11357,"Wal":11358,"ĠSaints":11359,"otion":11360,"ĠFa":11361,"Ġriding":11362,"nex":11363,"ĠCommons":11364,"ĠPerformance":11365,"Ã§ois":11366,"Ġtraditionally":11367,"Ġdispute":11368,"Ġsculpture":11369,"Ġcorporate":11370,"uvergne":11371,"ections":11372,"si":11373,"Ġing":11374,"ĠRaw":11375,"ĠEmp":11376,"ĠChair":11377,"uku":11378,"ĠXbox":11379,"Ġdistinguished":11380,"Ġgardens":11381,"itic":11382,"Ġpoverty":11383,"Ġmemb":11384,"Ġnephew":11385,"urers":11386,"ĠGiants":11387,"Ġconservation":11388,"Ġsmooth":11389,"Ġbread":11390,"Ġcoaching":11391,"written":11392,"Blue":11393,"Phil":11394,"God":11395,"rates":11396,"ĠCyr":11397,"ĠBear":11398,"Ġrecovered":11399,"Ġdisband":11400,"ieth":11401,"ĠStudio":11402,"Ġarchitectural":11403,"Ġphilanthrop":11404,"ĠBooks":11405,"Ġwithdrew":11406,"ĠJonathan":11407,"Louis":11408,"Tra":11409,"alan":11410,"ĠAx":11411,"ĠChess":11412,"ĠFather":11413,"ĠLarry":11414,"ĠJoy":11415,"acles":11416,"Ġtea":11417,"Ġclaiming":11418,"Ġemerged":11419,"ĠBiden":11420,"etics":11421,"ĠPant":11422,"ifies":11423,"Ġvel":11424,"Ġtrail":11425,"ĠSha":11426,"Ġrelatives":11427,"Ġsignals":11428,"Ġbases":11429,"Ġhumor":11430,"ĠSerge":11431,"Ġconfused":11432,"Ġviewed":11433,"ĠCurrent":11434,"Let":11435,"Ġcotton":11436,"ĠSay":11437,"ĠTu":11438,"Ġdrum":11439,"Ġmargin":11440,"Ġcollaps":11441,"ĠCampaign":11442,"Ġfrequent":11443,"ĠSuffolk":11444,"ĠPep":11445,"ĠKham":11446,"Ġexport":11447,"Ġambassador":11448,"Ġtransmit":11449,"Ġschedule":11450,"More":11451,"zing":11452,"reck":11453,"icular":11454,"ĠCinem":11455,"Ġrum":11456,"igny":11457,"Ġsurpr":11458,"ttemberg":11459,"Ġtenure":11460,"dinand":11461,"Ġplayoffs":11462,"Ray":11463,"high":11464,"Ġcarn":11465,"ĠFisher":11466,"ĠVilla":11467,"Ġworker":11468,"Ġneither":11469,"Ġproductions":11470,"Ġ1884":11471,"ĠPrior":11472,"Ġknows":11473,"ourage":11474,"Ġimmediate":11475,"Ġlatest":11476,"Ġvertical":11477,"Del":11478,"Game":11479,"gov":11480,"rors":11481,"Ġol":11482,"olve":11483,"ĠDom":11484,"irect":11485,"inae":11486,"Ġeditions":11487,"Ġacceler":11488,"Ġoperas":11489,"Ġeducator":11490,"1993":11491,"Ġimpress":11492,"ĠTrail":11493,"Ġdisplayed":11494,"Ġcontinuing":11495,"Ġcooking":11496,"ĠErnest":11497,"ĠMonday":11498,"ĠAmazon":11499,"BM":11500,"Long":11501,"isition":11502,"arc":11503,"stall":11504,"roe":11505,"ĠFine":11506,"Ġattacking":11507,"ĠTrin":11508,"Ġdetailed":11509,"ĠRobin":11510,"ĠContest":11511,"ĠJoan":11512,"ĠCruz":11513,"800":11514,"hal":11515,"listed":11516,"uable":11517,"was":11518,"Ġcash":11519,"ĠWhe":11520,"ĠEis":11521,"Ġdefended":11522,"Ġrepair":11523,"Ġcrashed":11524,"ĠSmall":11525,"ĠProvin":11526,"Ġdescendants":11527,"Ġunsuccessful":11528,"NHL":11529,"asgow":11530,"ĠBuch":11531,"ĠRivers":11532,"agg":11533,"umi":11534,"illon":11535,"Ġrid":11536,"Ġrig":11537,"Ġshall":11538,"ricted":11539,"Ġeleph":11540,"Ġprefecture":11541,"ĠHenri":11542,"ĠJosh":11543,"Ġcontribution":11544,"Ġcathedral":11545,"ĠVietnamese":11546,"ĠTreas":11547,"ĠGregory":11548,"founder":11549,"Ġinherited":11550,"ĠTasman":11551,"ĠCurt":11552,"ĠVern":11553,"Ġunlike":11554,"angered":11555,"Ġjew":11556,"ĠLouise":11557,"Ġinteresting":11558,"ĠWilhelm":11559,"ĠMurphy":11560,"ĠCrime":11561,"Ġwarning":11562,"Ġsubdivision":11563,"European":11564,"Ele":11565,"RE":11566,"wald":11567,"Ġtaste":11568,"Ġwore":11569,"Ġswe":11570,"ĠCec":11571,"stances":11572,"ĠReyn":11573,"Ġcreates":11574,"ozo":11575,"Ã¼rttemberg":11576,"Ġexplosion":11577,"Ġdiverse":11578,"Down":11579,"Ã¦":11580,"Ġtenth":11581,"Ġfruits":11582,"chief":11583,"abe":11584,"Ġknock":11585,"ĠMarvel":11586,"ĠDeep":11587,"annah":11588,"Ġorigins":11589,"Ġdiscontin":11590,"1992":11591,"Ġweekend":11592,"Ġmathematician":11593,"Ġpitcher":11594,"Ġdominated":11595,"Ð²":11596,"olen":11597,"adder":11598,"ĠPick":11599,"imo":11600,"Ġdisability":11601,"ictions":11602,"Ġintention":11603,"Ġversus":11604,"Ġimpossible":11605,"ĠBillboard":11606,"ĠControl":11607,"ĠChilean":11608,"ĠStatistical":11609,"ĠAlbums":11610,"ĠSardinia":11611,"hop":11612,"story":11613,"ĠMembers":11614,"ĠEC":11615,"ecca":11616,"prus":11617,"ĠPlant":11618,"ĠTeh":11619,"Ġpointed":11620,"Ġprompt":11621,"Ġhealthy":11622,"Ġsufficient":11623,"ĠTommy":11624,"Ġbreaks":11625,"Ġfastest":11626,"ĠKeith":11627,"Hon":11628,"Up":11629,"rod":11630,"ĠLGBT":11631,"Ġmini":11632,"Step":11633,"ĠOthers":11634,"Ġsilent":11635,"Ġarmies":11636,"Ġchapter":11637,"'ve":11638,"Mo":11639,"gra":11640,"parent":11641,"icia":11642,"avian":11643,"avier":11644,"quer":11645,"ango":11646,"aze":11647,"Ġlandmark":11648,"Ġcontinental":11649,"viously":11650,"Ġ1881":11651,"1989":11652,"Ġcyclone":11653,"ĠKenya":11654,"Ġthirteen":11655,"Ġwealthy":11656,"Cr":11657,"Cy":11658,"Ger":11659,"Great":11660,"Ron":11661,"wil":11662,"erts":11663,"alin":11664,"olute":11665,"about":11666,"Ġartificial":11667,"ĠPhilippine":11668,"ĠBattalion":11669,"gun":11670,"athered":11671,"Ġboss":11672,"ĠTon":11673,"ĠMuch":11674,"ĠNat":11675,"ĠWol":11676,"ĠEU":11677,"Ġrings":11678,"Ġfunded":11679,"Ġprofessionally":11680,"ĠBuddhist":11681,"ĠSudan":11682,"cat":11683,"ĠRiley":11684,"ĠKos":11685,"Ġrecover":11686,"ĠIsle":11687,"Ġcommunist":11688,"Ġreligions":11689,"stadt":11690,"ĠShanghai":11691,"uros":11692,"Ġfiles":11693,"ĠAer":11694,"ĠHamm":11695,"ĠDragon":11696,"ĠJur":11697,"ĠEsp":11698,"owned":11699,"sha":11700,"Ġparticipation":11701,"Ġmillions":11702,"Ġincreasingly":11703,"Ġtheorem":11704,"Mat":11705,"rations":11706,"var":11707,"rehens":11708,"ĠIF":11709,"ĠHad":11710,"ĠChan":11711,"ocket":11712,"Ġinvaded":11713,"Ġmanaging":11714,"Ġconnections":11715,"Ġrecognised":11716,"Ġerupt":11717,"Ġarrangement":11718,"Ġexperimental":11719,"Statistics":11720,"Description":11721,"But":11722,"fred":11723,"Ð»":11724,"ente":11725,"Ġstyl":11726,"ĠLisa":11727,"ellation":11728,"Ġadm":11729,"Ġsciences":11730,"Ġupgr":11731,"Ġmaintenance":11732,"Ġbelt":11733,"Ġpowered":11734,"ĠPlayers":11735,"Ġdanger":11736,"Ġtunnel":11737,"ĠUruguay":11738,"las":11739,"ede":11740,"enne":11741,"Ġdrain":11742,"ĠCN":11743,"Ġrect":11744,"ĠRou":11745,"ĠDod":11746,"uli":11747,"ricks":11748,"duces":11749,"ennial":11750,"iveness":11751,"Ġabsence":11752,"Ġessay":11753,"ĠGrove":11754,"Despite":11755,"ĠAnglican":11756,"ĠMeanwhile":11757,"Ġwarri":11758,"ĠAuvergne":11759,"oker":11760,"Ġskull":11761,"verse":11762,"Ġselect":11763,"Ġpractical":11764,"Ġcelebrate":11765,"ĠCaesar":11766,"ĠBulgarian":11767,"ĠCraig":11768,"HA":11769,"Met":11770,"caster":11771,"kir":11772,"onna":11773,"iche":11774,"imar":11775,"ĠLiving":11776,"Ġcomfort":11777,"Ġtrials":11778,"ska":11779,"Ġpeninsula":11780,"Ġnominee":11781,"Rad":11782,"Ġchest":11783,"ĠMason":11784,"Ġnest":11785,"ĠPent":11786,"Ġbeings":11787,"ĠLor":11788,"Ġshock":11789,"Ġphosph":11790,"Ġkiller":11791,"Ġwider":11792,"Ġworse":11793,"Ġordinary":11794,"About":11795,"ĠHughes":11796,"Ġappropriate":11797,"ĠWor":11798,"Ġclar":11799,"ĠLeo":11800,"ahl":11801,"ĠFranco":11802,"Ġairpl":11803,"Ġpatron":11804,"ĠTerry":11805,"Ġsenator":11806,"Ġdominant":11807,"ĠSalvador":11808,"Ġstomach":11809,"Den":11810,"Ġcul":11811,"ivic":11812,"ĠPrice":11813,"apest":11814,"rys":11815,"Ġoutbreak":11816,"ĠHerbert":11817,"Ġbreeding":11818,"Ġtalked":11819,"Ġtallest":11820,"Ġelementary":11821,"Ġisolated":11822,"anced":11823,"Ġmit":11824,"Ġdying":11825,"Ġdiab":11826,"ĠHob":11827,"ĠDj":11828,"ĠNixon":11829,"Ġlisting":11830,"Ġtempor":11831,"Ġtourists":11832,"ĠPotter":11833,"Ġrecommended":11834,"ĠBeatles":11835,"cyclop":11836,"Jan":11837,"mina":11838,"rene":11839,"Ġcyl":11840,"ĠBanks":11841,"ĠNY":11842,"ĠKate":11843,"izard":11844,"ĠAndre":11845,"Ġpromised":11846,"Ġeconomist":11847,"Ġgirlfriend":11848,"ĠUrban":11849,"Ġranges":11850,"Ġtram":11851,"Ġsample":11852,"itime":11853,"asp":11854,"ĠCrist":11855,"Ġ\"(":11856,"ĠLP":11857,"bery":11858,"ĠHeavy":11859,"Ġfourteen":11860,"Ġdebt":11861,"Ġtemples":11862,"Ġbehalf":11863,"Ġdemolished":11864,"ĠNeil":11865,"Ġvenue":11866,"Ġrelegated":11867,";&":11868,"green":11869,"ĠSche":11870,"ĠPink":11871,"ĠKle":11872,"ĠIndies":11873,"Ġdrums":11874,"Ġintent":11875,"Ġpassage":11876,"scale":11877,"Ġministers":11878,"Ġstreams":11879,"Young":11880,"ĠCarey":11881,"Ġdioxide":11882,"SL":11883,"Tur":11884,"atus":11885,"Ġpig":11886,"ĠBath":11887,"oyage":11888,"Ġquiet":11889,"Ġsubsc":11890,"ambers":11891,"egro":11892,"Ġtrend":11893,"Ġpsychological":11894,"Ġchemicals":11895,"bek":11896,"Ġaqu":11897,"atz":11898,"ĠSig":11899,"ĠAj":11900,"ĠJazz":11901,"ĠChancellor":11902,"Ġcommunications":11903,"ĠRomanized":11904,"Climate":11905,"Ġphysicist":11906,"Ġtouring":11907,"ĠAthletics":11908,"fa":11909,"Ġow":11910,"Ġfinger":11911,"Ġtot":11912,"aders":11913,"ĠWinn":11914,"Ġprest":11915,"Ġreporter":11916,"Ġmounted":11917,"Ġ1871":11918,"Ġfavorite":11919,"ĠLeonard":11920,"//":11921,"eor":11922,"ĠAur":11923,"ĠCode":11924,"Ġwasn":11925,"ĠHig":11926,"ĠHav":11927,"ĠFoster":11928,"ĠLav":11929,"ĠChase":11930,"ritic":11931,"Ġdisk":11932,"Ġstudios":11933,"cycle":11934,"Charl":11935,"comp":11936,"Ġbarrel":11937,"Ġtravels":11938,"Ġsuitable":11939,"Ġcow":11940,"Ġfeud":11941,"stitutes":11942,"Ã¶p":11943,"Ġ1886":11944,"ĠSimpson":11945,"Ġcardiac":11946,"Ġsituations":11947,"ĠSusan":11948,"Ġtorped":11949,"ĠLiterature":11950,"IP":11951,"Ġsovere":11952,"ĠNature":11953,"Ġwhilst":11954,"ective":11955,"uchy":11956,"Ġacknow":11957,"iolet":11958,"Ġdetail":11959,"ammad":11960,"Ġoverseas":11961,"ĠPhillips":11962,"ĠStevens":11963,"Ġchromos":11964,"Ġhorizont":11965,"Lo":11966,"Os":11967,"kg":11968,"rh":11969,"Ñģ":11970,"ĠÂł":11971,"ĠCrow":11972,"igi":11973,"ĠFly":11974,"Ġconsole":11975,"quir":11976,"Ġsharing":11977,"ĠArctic":11978,"Ġenters":11979,"ĠWestminster":11980,"Ġexplan":11981,"Ġglac":11982,"ĠBerkeley":11983,"ĠSantos":11984,"ĠDarwin":11985,"Ġattraction":11986,"Ġchapel":11987,"Rhin":11988,"SCA":11989,"iem":11990,"ugh":11991,"Ġinches":11992,"ĠCraw":11993,"ĠIN":11994,"Ġash":11995,"Ġrecru":11996,"ĠReform":11997,"Ġsubstitute":11998,"byter":11999,"Ġideal":12000,"Ġindicates":12001,"ĠPearl":12002,"sup":12003,"Ġpor":12004,"Ġmild":12005,"ĠTed":12006,"ĠStef":12007,"Ġcharacterized":12008,"Ġclosest":12009,"ĠMotors":12010,"Ã¯":12011,"Ġdish":12012,"Ġorn":12013,"Ġdesire":12014,"azi":12015,"rowing":12016,"Ġangle":12017,"ĠMovie":12018,"ĠPrincip":12019,"ĠTraining":12020,"ĠPedro":12021,"bird":12022,"Ġions":12023,"Ġodd":12024,"alian":12025,"ĠSoph":12026,"andra":12027,"ĠGate":12028,"ĠWins":12029,"akov":12030,"Ġsmart":12031,"Ġheadquarter":12032,"ospel":12033,"Ġplanes":12034,"strong":12035,"ÅĤaw":12036,"Ġvoices":12037,"Ġkidney":12038,"ĠEconomics":12039,"Ġconquered":12040,"ON":12041,"bane":12042,"founded":12043,"Ġtur":12044,"Ġble":12045,"Ġpairs":12046,"Ġmarch":12047,"Ġholes":12048,"ĠCad":12049,"Ġforty":12050,"Ġgear":12051,"hers":12052,"ĠRus":12053,"apur":12054,"ĠGuild":12055,"iddles":12056,"ĠNorfolk":12057,"Ġcolumns":12058,"stanbul":12059,"Ġtelesc":12060,"ĠSebast":12061,"game":12062,"ned":12063,"ĠAP":12064,"empt":12065,"Ġdeck":12066,"anted":12067,"Ġ700":12068,"Ġmatters":12069,"inking":12070,"ĠManila":12071,"Ġopportunities":12072,"ĠJohann":12073,"ĠNashville":12074,"ĠSquadron":12075,"Russian":12076,"Tim":12077,"named":12078,"post":12079,"zig":12080,"Ġfract":12081,"Ġfires":12082,"ashes":12083,"Ġmask":12084,"Ġdrag":12085,"Ġongoing":12086,"ĠKun":12087,"ĠStre":12088,"ubes":12089,"Ġusage":12090,"Ġscandal":12091,"ullivan":12092,"ĠAbu":12093,"Ġparticipating":12094,"ĠPanama":12095,"hausen":12096,"Ġtum":12097,"iciency":12098,"ĠMills":12099,"Ġalien":12100,"ĠKrist":12101,"Ġmineral":12102,"Ġvictim":12103,"ĠTwenty":12104,"Ġcontested":12105,"ĠIndustry":12106,"onymous":12107,"Ġswitched":12108,"Ġingred":12109,"ÈĻ":12110,"anie":12111,"Ġorient":12112,"Ġpanc":12113,"Ġmor":12114,"ĠSad":12115,"ĠSind":12116,"Ġhide":12117,"Ġannex":12118,"ĠEld":12119,"Ġleagues":12120,"ĠSpirit":12121,"ĠAssistant":12122,"1991":12123,"Ġcutting":12124,"ĠCuban":12125,"ĠRaymond":12126,"Ġticket":12127,"ĠBenedict":12128,"Hy":12129,"kar":12130,"ĠCand":12131,"ĠMD":12132,"Ġasc":12133,"ĠRalph":12134,"ĠGang":12135,"ĠJa":12136,"Ġexcess":12137,"Ġearning":12138,"ĠAndrÃ©":12139,"ofen":12140,"ĠDelta":12141,"ĠClassic":12142,"Japanese":12143,"AA":12144,"Far":12145,"Water":12146,"ĠHein":12147,"abited":12148,"Ġcompetitive":12149,"Ġkills":12150,"Ġsolve":12151,"Ġerror":12152,"ĠProfessional":12153,"Ã´te":12154,"uttle":12155,"Ġremainder":12156,"ĠSomme":12157,"Ġintegrated":12158,"Ġapparently":12159,"Ġexcellent":12160,"Miss":12161,"Ġcricketer":12162,"rah":12163,"enders":12164,"Ġopenly":12165,"Ġguar":12166,"Ġaffair":12167,"Ġpredators":12168,"ĠChapel":12169,"ĠArmenia":12170,"Ġrecommend":12171,"ĠOriginally":12172,"Ġlibr":12173,"ĠYok":12174,"Ġministry":12175,"Ġsignature":12176,"Ġparticle":12177,"Ġ1875":12178,"Ġparticipants":12179,"Ġbankrupt":12180,"Ġchallenges":12181,"Ġattributed":12182,"ĠJamaica":12183,"bel":12184,"fast":12185,"Ġcave":12186,"ĠMul":12187,"ĠBranch":12188,"urse":12189,"ĠFull":12190,"opl":12191,"ĠEsc":12192,"Ġshaped":12193,"Ġbreath":12194,"ischer":12195,"ĠGlasgow":12196,"Ġ1873":12197,"Ġmissed":12198,"Ġreveals":12199,"Ġlicensed":12200,"Ġtherapy":12201,"ĠUttar":12202,"'ll":12203,"TE":12204,"care":12205,"went":12206,"Ġrib":12207,"Ġtanks":12208,"eno":12209,"Ġloud":12210,"ĠIg":12211,"Ġplates":12212,"Ġabilities":12213,"ĠYale":12214,"That":12215,"Arthur":12216,"Ġ1882":12217,"Ġcopyright":12218,"Ġcollapse":12219,"Edward":12220,"ĠHugh":12221,"Ġanthem":12222,"Ġprecipitation":12223,"600":12224,"Kim":12225,"new":12226,"pel":12227,"Ġsad":12228,"Ġpap":12229,"ĠWed":12230,"Ġvit":12231,"âĢľ":12232,"ĠAny":12233,"Ġreceives":12234,"Ġconnecting":12235,"Ġmanufacturer":12236,"Ġlayers":12237,"viated":12238,"ĠâĤ":12239,"aturally":12240,"Ġtributaries":12241,"isphere":12242,"Ġmosque":12243,"ĠClarke":12244,"tel":12245,"ĠNak":12246,"arta":12247,"abs":12248,"oking":12249,"Ġgenerated":12250,"Ġbuses":12251,"Ġpossibility":12252,"ĠRepublicans":12253,"Ġlabour":12254,"Ġescort":12255,"ĠJaneiro":12256,"Ġwatching":12257,"Ġseeking":12258,"pin":12259,"Ġaw":12260,"Ġcock":12261,"itially":12262,"Ġbars":12263,"Ġalgebra":12264,"Ġconfess":12265,"oots":12266,"Ġamph":12267,"Ġautonomous":12268,"otta":12269,"Ġelectro":12270,"Ġhandle":12271,"Ġavo":12272,"Ġrulers":12273,"Ġvolcanic":12274,"ĠArtist":12275,"Ġoxide":12276,"ĠJunction":12277,"ĠHindi":12278,"ĠCyprus":12279,"Ġdiscussed":12280,"ocaust":12281,"ĠKashmir":12282,"Camp":12283,"mail":12284,"vy":12285,"Ġoct":12286,"ilton":12287,"lando":12288,"Ġclay":12289,"ahan":12290,"oya":12291,"Ġsocieties":12292,"Ġ1868":12293,"Ġrebellion":12294,"Ġimmune":12295,"Ġmanufactured":12296,"hawks":12297,"Ġalgorithm":12298,"Ġlinear":12299,"Gar":12300,"cill":12301,"lived":12302,"Ġov":12303,"ilian":12304,"ĠHat":12305,"ĠBuc":12306,"Ġgolf":12307,"ĠDale":12308,"Ġdeer":12309,"Ġshark":12310,"ritz":12311,"Ġwheels":12312,"ĠShip":12313,"Ġasking":12314,"Ġfundamental":12315,"Ġpredomin":12316,"ĠSomerset":12317,"Ġsacred":12318,"Ġvocalist":12319,"ĠManuel":12320,"Ġprices":12321,"Ġsubsidiary":12322,"iations":12323,"piece":12324,"itable":12325,"ĠSart":12326,"ĠBes":12327,"ĠDrama":12328,"ĠLiga":12329,"ĠNancy":12330,"ardy":12331,"ĠChallenge":12332,"Ġmuscles":12333,"Ġcurrency":12334,"ĠAdv":12335,"Ġarrives":12336,"legraph":12337,"Ġdifficulty":12338,"Ġunderstood":12339,"ĠFilipino":12340,"\"|":12341,"Ġdemocracy":12342,"ĠPack":12343,"ĠPrest":12344,"ĠNy":12345,"awi":12346,"grand":12347,"Ġexperts":12348,"Ġ1859":12349,"Ġcreator":12350,"IDS":12351,"ĠBradford":12352,"ĠFriends":12353,"ĠØ":12354,"Ġturt":12355,"ĠSV":12356,"Ġha":12357,"apa":12358,"ĠAmericas":12359,"ultane":12360,"ĠSean":12361,"Ġterminal":12362,"Ġautomatic":12363,"Ġboundaries":12364,"ĠIntelligence":12365,"rimination":12366,"Est":12367,"him":12368,"onge":12369,"ĠCav":12370,"ĠYu":12371,"Ġgray":12372,"ometown":12373,"ĠSeoul":12374,"ĠParamount":12375,"Bern":12376,"cz":12377,"log":12378,"ÙĦ":12379,"Ġels":12380,"Ġmail":12381,"ĠSz":12382,"ĠCos":12383,"Ġlift":12384,"ĠHir":12385,"ĠVladimir":12386,"ĠUnit":12387,"oked":12388,"ooks":12389,"Ġattending":12390,"Ġfee":12391,"Ġemigr":12392,"Ġsword":12393,"Ġtribute":12394,"Ġkeeps":12395,"Ġcomplicated":12396,"JosÃ©":12397,"ĠFriedrich":12398,"Sing":12399,"Wind":12400,"Wood":12401,"nan":12402,"sis":12403,"sized":12404,"rets":12405,"Ġsending":12406,"Ġsodium":12407,"alog":12408,"Ġfever":12409,"ĠCour":12410,"ĠMust":12411,"Ġsteal":12412,"agram":12413,"Ġcharter":12414,"Ġ1879":12415,"ĠGeorgian":12416,"Ġcheese":12417,"ĠScotia":12418,"ĠBurns":12419,"Ġstrategic":12420,"Ġelsewhere":12421,"Hurricane":12422,"Pri":12423,"eri":12424,"ĠSak":12425,"elia":12426,"ĠMiy":12427,"ĠDiamond":12428,"ĠBloom":12429,"Ġjoins":12430,"ĠTech":12431,"Ġmonthly":12432,"Arch":12433,"ĠPalmer":12434,"Ġlogo":12435,"Ġdeparture":12436,"Ġlocomotives":12437,"anj":12438,"ĠBun":12439,"ĠRight":12440,"ĠVent":12441,"Ġ1840":12442,"Ġ1867":12443,"Ġ1878":12444,"Ġsustain":12445,"Ġempty":12446,"://":12447,"Harry":12448,"Lee":12449,"Van":12450,"isations":12451,"Ġbachelor":12452,"ĠSug":12453,"ĠCircle":12454,"ĠVaud":12455,"angular":12456,"Ġnearest":12457,"Ġinterpre":12458,"Ġmeter":12459,"ographics":12460,"ĠCycl":12461,"Ġburning":12462,"Ġpupils":12463,"ĠIndustrial":12464,"Ġpreferred":12465,"Ġfraud":12466,"Pierre":12467,"bey":12468,"Ġtone":12469,"Ġsizes":12470,"Ġhoney":12471,"stown":12472,"ĠBil":12473,"uta":12474,"acco":12475,"Ġworksh":12476,"Ġservant":12477,"Ġlisten":12478,"ĠBarack":12479,"Ġradical":12480,"Ġpossession":12481,"Ġ1866":12482,"riptions":12483,"Ġseemed":12484,"Ġpreparation":12485,"Ġhospitals":12486,"Ġrevenge":12487,"ĠBird":12488,"ceived":12489,"ĠRuth":12490,"Ġclan":12491,"ylum":12492,"Ġbrands":12493,"Äģn":12494,"ĠCauc":12495,"ĠÅł":12496,"Ġfertil":12497,"Ġmerchant":12498,"Ġmolecular":12499,"Main":12500,"ÑĤ":12501,"Ġsau":12502,"Ġmud":12503,"enton":12504,"Ġgymn":12505,"Ġgathered":12506,"ĠLomb":12507,"ĠJe":12508,"ĠJoint":12509,"usters":12510,"ighton":12511,"ĠAlz":12512,"Ġreportedly":12513,"ĠPeak":12514,"Ġrespective":12515,"addy":12516,"Population":12517,"Ġcircumstances":12518,"Ġadministered":12519,"horn":12520,"ĠPicture":12521,"Ġseal":12522,"ĠKaw":12523,"Ġexclud":12524,"Ġlocally":12525,"Ġtransc":12526,"Ġcurve":12527,"Ġgenerations":12528,"icester":12529,"Ġgrave":12530,"Ġcompletion":12531,"Ġemotional":12532,"Ġbicy":12533,"omorph":12534,"Ġdolph":12535,"Ġdrove":12536,"ĠFun":12537,"ĠLion":12538,"ĠStrat":12539,"Ġovert":12540,"atty":12541,"League":12542,"Ġgrandson":12543,"zyme":12544,"Team":12545,"rus":12546,"ĠHeaven":12547,"tense":12548,"ĠEurovision":12549,"Ġsket":12550,"Ġ1869":12551,"Ġarrive":12552,"1987":12553,"ĠDrive":12554,"Ġtraveling":12555,"ĠCornwall":12556,"Ġquarterback":12557,"Ġathletics":12558,"Ġdoubles":12559,"Ġsupporter":12560,"Alexander":12561,"ĠEagles":12562,"Ġsubtropical":12563,"Histor":12564,"iors":12565,"Ġtiny":12566,"olics":12567,"ĠBog":12568,"etary":12569,"Ġconj":12570,"Ġconson":12571,"ĠVe":12572,"odeon":12573,"Ġefficient":12574,"ĠTrinity":12575,"ĠStudents":12576,"Ġsuddenly":12577,"UN":12578,"elodeon":12579,"rike":12580,"aca":12581,"ĠKur":12582,"eway":12583,"lla":12584,"ĠQing":12585,"Ġ110":12586,"ĠMcL":12587,"Ġclosing":12588,"Ġhistorically":12589,"Ġrealized":12590,"ĠMagic":12591,"Ġaccurate":12592,"Ġveteran":12593,"Ġdisplays":12594,"DF":12595,"Lake":12596,"ÄŁ":12597,"ĠCant":12598,"sted":12599,"ĠLok":12600,"ĠLah":12601,"oys":12602,"Ġquad":12603,"Ġfinance":12604,"Ġdrives":12605,"Ġsixteen":12606,"Ġ1872":12607,"Ġdenomin":12608,"agonist":12609,"Ġprogressive":12610,"imensional":12611,"Ġexclusive":12612,"Ġfloors":12613,"Def":12614,"hey":12615,"Ġpist":12616,"Ġmoral":12617,"ĠPav":12618,"ĠEight":12619,"Ġstrings":12620,"umbai":12621,"ĠAnimation":12622,"Ġimprisoned":12623,"hn":12624,"ystem":12625,"ĠSent":12626,"Ġhorm":12627,"ĠHaz":12628,"ĠJar":12629,"odia":12630,"endum":12631,"Ġ1877":12632,"ĠDesert":12633,"Ġ1857":12634,"Ġgraphics":12635,"ĠGilbert":12636,"Ġterrorist":12637,"ĠGabriel":12638,"Es":12639,"Ġfasc":12640,"ĠTodd":12641,"ĠCord":12642,"Ġstones":12643,"ĠRaid":12644,"Ġundert":12645,"Ġsubspecies":12646,"Ġmonitor":12647,"ĠBlock":12648,"1960":12649,"Ġmerc":12650,"Ġpremiere":12651,"Ġsnake":12652,"ĠSystems":12653,"Ġpursue":12654,"Ġfisher":12655,"Ġhometown":12656,"Ġghost":12657,"through":12658,"ovanni":12659,"Ġkin":12660,"Ġincumbent":12661,"ĠIndianapolis":12662,"Ġvisits":12663,"Ġdelayed":12664,"Ġlawsuit":12665,"Ġfairly":12666,"Ġreferee":12667,"Ter":12668,"XT":12669,"nai":12670,"Ðº":12671,"ĠDin":12672,"ĠBeaut":12673,"Ġguests":12674,"Ġ1883":12675,"borg":12676,"ĠAppe":12677,"Ġhardware":12678,"monary":12679,"ĠOakland":12680,"Ġpredecessor":12681,"Av":12682,"dal":12683,"zz":12684,"ĠLem":12685,"ĠJerem":12686,"ĠKay":12687,"Ġric":12688,"ĠArmed":12689,"Ġoutdoor":12690,"ĠComedy":12691,"Ġ1500":12692,"erground":12693,"plex":12694,"Ġcarrier":12695,"warf":12696,"Ġnoble":12697,"ĠBaldwin":12698,"Mag":12699,"Tor":12700,"uction":12701,"Ġbab":12702,"olan":12703,"Ġreducing":12704,"ĠDet":12705,"ĠGren":12706,"thal":12707,"essa":12708,"Ġlandfall":12709,"ĠGhana":12710,"enesis":12711,"Ġprinting":12712,"vae":12713,"walk":12714,"reis":12715,"ĠCret":12716,"ĠHom":12717,"ĠGay":12718,"Ġshipping":12719,"ĠPresbyter":12720,"Ġcompleting":12721,"Ġsumm":12722,"Ġexhibitions":12723,"Ġbombing":12724,"ĠAhmed":12725,"Ġprepare":12726,"ĠDigital":12727,"Cam":12728,"Rev":12729,"tains":12730,"ĠBak":12731,"ĠBran":12732,"ĠPir":12733,"ĠGP":12734,"appro":12735,"rica":12736,"Ġmainstream":12737,"ĠCole":12738,"Ġpossess":12739,"Ġcivilians":12740,"Ġexcav":12741,"Ġlaboratory":12742,"ĠPolitical":12743,"LR":12744,"Ly":12745,"ĠCris":12746,"ĠRica":12747,"Ġallies":12748,"Ġpole":12749,"Ġinfrastructure":12750,"ĠCapitol":12751,"ĠFerdinand":12752,"Ġinaugural":12753,"Ġexposure":12754,"Dis":12755,"FI":12756,"Hz":12757,"Several":12758,"handed":12759,"onomy":12760,"ndez":12761,"ĠMold":12762,"Ġthrew":12763,"idan":12764,"ĠLak":12765,"ĠKids":12766,"ĠReed":12767,"ĠConstruction":12768,"Ġphotography":12769,"Ġadvertis":12770,"Ġwireless":12771,"Ba":12772,"Ġsav":12773,"Ġnam":12774,"Ġgift":12775,"ĠDS":12776,"rano":12777,"ĠThai":12778,"Ġthanks":12779,"Ġdevoted":12780,"Ġreaders":12781,"Ġliterally":12782,"colspan":12783,"Ġbeaten":12784,"ĠAbdul":12785,"Ġdramatic":12786,"Second":12787,"Ġnervous":12788,"Awards":12789,"Four":12790,"IM":12791,"Ġtape":12792,"Ġwish":12793,"stract":12794,"ĠPut":12795,"ĠGamb":12796,"ĠNott":12797,"antle":12798,"Ġgramm":12799,"Ġextent":12800,"Ġguards":12801,"1988":12802,"Christian":12803,"Ġweakened":12804,"Ġheadquartered":12805,"Both":12806,"Ġfights":12807,"ĠHes":12808,"ĠFranz":12809,"brid":12810,"ĠFilms":12811,"ĠTestament":12812,"largest":12813,"ĠMethod":12814,"front":12815,"list":12816,"mid":12817,"anium":12818,"Ġgap":12819,"Ġbeer":12820,"ĠLov":12821,"alli":12822,"ĠKem":12823,"ĠKarn":12824,"ĠIng":12825,"Ġmedian":12826,"Ġexplo":12827,"Ġinfections":12828,"ĠStanford":12829,"Ġconsumption":12830,"Ġscholarship":12831,"Ġdelegates":12832,"Ġwatched":12833,"Ġannouncement":12834,"ĠByzantine":12835,"Day":12836,"Ġurg":12837,"Ġtip":12838,"inite":12839,"Ġwelfare":12840,"ĠLear":12841,"Ġyield":12842,"Ġplaywright":12843,"Ġretreat":12844,"afe":12845,"Ġmassacre":12846,"Ġcuts":12847,"ĠHorse":12848,"Ġgeometry":12849,"ĠMorocco":12850,"Ġdictator":12851,"Ġhypothesis":12852,"dig":12853,"áº":12854,"reated":12855,"Ġinput":12856,"ĠMut":12857,"alling":12858,"ibia":12859,"ĠRef":12860,"Ġendangered":12861,"Ġdescribing":12862,"Ġ1876":12863,"Ġcampaigns":12864,"Ġassisted":12865,"Fort":12866,"Jon":12867,"Rol":12868,"uil":12869,"inas":12870,"anz":12871,"Ġcir":12872,"ĠAube":12873,"amoto":12874,"ĠBaby":12875,"etz":12876,"ĠGy":12877,"rier":12878,"ovan":12879,"ĠKin":12880,"abwe":12881,"Ġupcoming":12882,"Ġremake":12883,"archy":12884,"Ġcruc":12885,"ĠExper":12886,"Ġscreenplay":12887,"ĠOtto":12888,"Ġexclusively":12889,"ĠRoche":12890,"ĠCircuit":12891,"Econom":12892,"Ur":12893,"gas":12894,"onte":12895,"aty":12896,"icus":12897,"Ġdemocratic":12898,"ĠSign":12899,"ĠWang":12900,"Ġalumin":12901,"ighting":12902,"ffield":12903,"Ġinteract":12904,"Ġ1854":12905,"ĠLiberty":12906,"ĠNigerian":12907,"brook":12908,"rocod":12909,"Ġventure":12910,"ĠBuddhism":12911,"Ġceased":12912,"flower":12913,"Current":12914,"Sun":12915,"disc":12916,"alg":12917,"olith":12918,"ĠBey":12919,"ĠPath":12920,"irts":12921,"terbury":12922,"Ġconclusion":12923,"Ġfounders":12924,"ooking":12925,"ĠPhD":12926,"Ġprogrammes":12927,"ĠMalay":12928,"Ġachievement":12929,"Ġdiscussion":12930,"Ġbullet":12931,"Ġportrait":12932,"CD":12933,"Moh":12934,"Nick":12935,"Victor":12936,"cap":12937,"oque":12938,"ĠMRT":12939,"agle":12940,"Ġexile":12941,"ĠShiva":12942,"lli":12943,"Ġconscious":12944,"Ġskill":12945,"ĠApollo":12946,"Ġbroadcasts":12947,"Gen":12948,"bin":12949,"Ġties":12950,"Ġsiege":12951,"Ġcavalry":12952,"Ġpush":12953,"ctrine":12954,"ĠPand":12955,"ĠKra":12956,"ĠKane":12957,"Ġprohib":12958,"Ġabolished":12959,"ĠCarson":12960,"Ġwarfare":12961,"Ġfactories":12962,"Marie":12963,"Ġpromoting":12964,"Ġinspiration":12965,"Ġwait":12966,"five":12967,"isode":12968,"omical":12969,"ĠAR":12970,"Ġlady":12971,"ĠEve":12972,"ĠOil":12973,"ochem":12974,"ĠMarx":12975,"ĠArsenal":12976,"Ġoutstanding":12977,"ĠAna":12978,"Ġhighlight":12979,"Ġsuccession":12980,"white":12981,"Ġhomosexual":12982,"ĠEagle":12983,"Ġdismissed":12984,"ĠLithuania":12985,"AS":12986,"Bas":12987,"cock":12988,"jection":12989,"eded":12990,"atche":12991,"Ġcogn":12992,"ĠTall":12993,"ĠCase":12994,"ĠCarn":12995,"ountry":12996,"arried":12997,"ĠHolocaust":12998,"ĠPalm":12999,"ĠSimilar":13000,"Ġcirculation":13001,"ĠInterior":13002,"ĠMathemat":13003,"umberland":13004,"ĠProtection":13005,"ĠChelsea":13006,"Ġaggregate":13007,"Ġdatabase":13008,"(\"":13009,"sometimes":13010,"itudes":13011,"Ġfab":13012,"ĠTree":13013,"ĠFil":13014,"ĠLock":13015,"acked":13016,"Ġabortion":13017,"Ġencl":13018,"Ġpopulated":13019,"Ġtransgender":13020,"ĠAdolf":13021,"Ġsimultane":13022,"ĠCarr":13023,"Ġvariation":13024,"Ġrestricted":13025,"Ġdemands":13026,"Ġphoto":13027,"imbabwe":13028,"Ġcelebration":13029,"Ġflooding":13030,"Ġmoderate":13031,"ych":13032,"Ġwal":13033,"Ġpowder":13034,"elo":13035,"ĠBerm":13036,"Ġacademy":13037,"Ġpharm":13038,"Ġbrings":13039,"Ġbrigade":13040,"Ġcharacteristic":13041,"mediate":13042,"Ġinterviews":13043,"Ġcommented":13044,"Ġaffiliated":13045,"ĠGustav":13046,"RI":13047,"nut":13048,"onial":13049,"alis":13050,"ĠHels":13051,"Ġthroat":13052,"ĠPied":13053,"ulating":13054,"auf":13055,"Ġverse":13056,"1986":13057,"ĠInterstate":13058,"Ġlogic":13059,"ĠTaipei":13060,"fortun":13061,"ĠNaples":13062,"ĠShortly":13063,"Ġemphas":13064,"Ġdisbanded":13065,"his":13066,"unct":13067,"thood":13068,"osing":13069,"odor":13070,"Ġpopulous":13071,"ĠReich":13072,"Ġremote":13073,"Ġmetals":13074,"Ġoperational":13075,"ĠGuide":13076,"group":13077,"ĠExchange":13078,"Ann":13079,"ĠPerth":13080,"ĠCompet":13081,"Ġlessons":13082,"Ġsexually":13083,"Ġpracticed":13084,"Ġstorms":13085,"Smith":13086,"Ros":13087,"lain":13088,"ĠBeth":13089,"ĠNine":13090,"Ġconven":13091,"ocy":13092,"Ġplacing":13093,"ĠArd":13094,"auge":13095,"ĠIndo":13096,"Ġpray":13097,"Ġedges":13098,"Ġafford":13099,"ĠWithin":13100,"Ġrecognize":13101,"ĠSoft":13102,"osaurus":13103,"ĠLyon":13104,"ĠWorkers":13105,"Ġconsumer":13106,"Ġvolunteers":13107,"Ġregulations":13108,"Elect":13109,"Mas":13110,"eric":13111,"Ġfighters":13112,"ento":13113,"ĠDrag":13114,"Ġchore":13115,"elles":13116,"cliffe":13117,"Ġwheat":13118,"actic":13119,"aukee":13120,"Ġprev":13121,"Ġloop":13122,"Ġdecorated":13123,"ĠMichelle":13124,"ĠCameron":13125,"Arab":13126,"Sax":13127,"Ġgran":13128,"Ġarena":13129,"ĠKill":13130,"ĠChad":13131,"Ġshapes":13132,"Ġenzyme":13133,"common":13134,"Ġlikes":13135,"Ġfamiliar":13136,"ĠHawks":13137,"ĠTyrol":13138,"Ġlegendary":13139,"Ġinterpretation":13140,"Ġdiabetes":13141,"bone":13142,"lay":13143,"Ġintense":13144,"Ġrenown":13145,"Ġbeaches":13146,"berger":13147,"ifa":13148,"Ġpronounced":13149,"mberg":13150,"Ġautob":13151,"Ġcrust":13152,"rapped":13153,"Ġcrosses":13154,"Ġprobability":13155,"Ġmanuscript":13156,"Ġjurisdiction":13157,"ben":13158,"bank":13159,"first":13160,"gio":13161,"gren":13162,"Ġtru":13163,"lez":13164,"Ġrepr":13165,"ĠHerm":13166,"than":13167,"esty":13168,"Ġdeals":13169,"perm":13170,"Ġfeels":13171,"ĠBeh":13172,"ĠEdmund":13173,"Also":13174,"attered":13175,"ĠAviation":13176,"ĠSussex":13177,"ĠWatson":13178,"Ġranging":13179,"iblings":13180,"ĠCeltic":13181,"Ġtours":13182,"Ġtasks":13183,"stop":13184,"ĠIstanbul":13185,"Ġraising":13186,"Ġtraits":13187,"Ġsymp":13188,"stituted":13189,"Ġvariant":13190,"ĠManit":13191,"ĠCoal":13192,"Ġvolt":13193,"ĠWithout":13194,"Ġequipped":13195,"Ġcollaborated":13196,"Ġsegments":13197,"Ġpregnancy":13198,"Ġmilitia":13199,"ĠIsaac":13200,"Ke":13201,"alysis":13202,"ĠTir":13203,"ilit":13204,"ĠMumbai":13205,"ĠHod":13206,"ĠRice":13207,"ĠWii":13208,"rift":13209,"ĠVend":13210,"ampire":13211,"ondo":13212,"ĠYellow":13213,"ĠShep":13214,"ĠGrade":13215,"Ġepic":13216,"Ġlights":13217,"Ġhonors":13218,"Ġproperly":13219,"Ġ1856":13220,"ĠOsaka":13221,"Ġalternate":13222,"Ġwaiting":13223,"Ġrequested":13224,"ĠWellington":13225,"Ġresponded":13226,"Ġdiscontinued":13227,"Kar":13228,"NS":13229,"VP":13230,"Ġreward":13231,"ĠDy":13232,"pled":13233,"ĠLeft":13234,"Ġinterchange":13235,"ĠXV":13236,"anca":13237,"Ġzones":13238,"Ġspokes":13239,"Ġ1848":13240,"Ġassassination":13241,"Ġdisappeared":13242,"Works":13243,"drama":13244,"iate":13245,"municip":13246,"rooms":13247,"ĠGolf":13248,"ĠERA":13249,"oche":13250,"ountain":13251,"Ġcompens":13252,"Ġraced":13253,"Ġsupern":13254,"arms":13255,"Ġterminus":13256,"Ġhosting":13257,"monton":13258,"1976":13259,"Ġvictories":13260,"Ġpollution":13261,"EE":13262,"Ġdim":13263,"ĠHope":13264,"ĠRican":13265,"ĠNu":13266,"abl":13267,"ĠNewport":13268,"ĠPlains":13269,"ĠUSSR":13270,"1984":13271,"ĠRhodes":13272,"Ġfortress":13273,"ĠGerald":13274,"Ġtravelling":13275,"ĠUnderground":13276,"rehensive":13277,"AM":13278,"Brown":13279,"Lu":13280,"district":13281,"wen":13282,"omers":13283,"ĠFab":13284,"Ġchronic":13285,"Ġ1830":13286,"ointed":13287,"ahi":13288,"Ġextend":13289,"Ġpetition":13290,"Ġdiplomatic":13291,"Ġlocomotive":13292,"Ġconcepts":13293,"ĠNapoleon":13294,"GM":13295,"Pe":13296,"Vol":13297,"Ġdiver":13298,"ĠLions":13299,"ĠNathan":13300,"Ġherb":13301,"ĠRey":13302,"Ġoperator":13303,"ĠBris":13304,"Ġsolitary":13305,"ophone":13306,"ĠChester":13307,"Ġemployment":13308,"Ġflee":13309,"ĠAlzheimer":13310,"rection":13311,"Ġbare":13312,"Their":13313,"ifican":13314,"shan":13315,"1974":13316,"ĠJacques":13317,"Ġconflicts":13318,"Ġcounterpart":13319,"ĠJohannes":13320,"Top":13321,"Ġsch":13322,"aru":13323,"ĠMiguel":13324,"Ġnaturally":13325,"ĠNg":13326,"ĠWells":13327,"acional":13328,"ĠOS":13329,"oki":13330,"ĠSheffield":13331,"ĠLeicester":13332,"Ġcoaches":13333,"Stud":13334,"ĠPhilharm":13335,"1985":13336,"iffs":13337,"Administ":13338,"Ġcommentator":13339,"ĠAlgeria":13340,"waukee":13341,"Ġward":13342,"ĠTroy":13343,"amy":13344,"ĠPok":13345,"ĠRachel":13346,"three":13347,"ĠKor":13348,"ongs":13349,"Ġsubmitted":13350,"Ġ101":13351,"Ġreception":13352,"ĠSection":13353,"Ġorganism":13354,"Ġsurvival":13355,"Francis":13356,"ĠSurrey":13357,"Ġdistinctive":13358,"SCAR":13359,"mn":13360,"tz":13361,"wheel":13362,"ÅĽ":13363,"arance":13364,"ĠSyn":13365,"ĠCond":13366,"amation":13367,"airy":13368,"Through":13369,"Child":13370,"Ġvaries":13371,"Ġports":13372,"Ġ1874":13373,"Ġcondem":13374,"Ġconducting":13375,"Ġburial":13376,"Ġaccessible":13377,"Ġdemonst":13378,"ĠTitans":13379,"ĠJennifer":13380,"ĠPresbyterian":13381,"UK":13382,"Ġnerve":13383,"ĠBod":13384,"Ġquit":13385,"Ġnumbered":13386,"ĠBrig":13387,"Ġvaluable":13388,"Ġlearns":13389,"ĠTransit":13390,"Ġsuperior":13391,"ĠBrooks":13392,"ĠNormandy":13393,"ĠEstonia":13394,"Ġsubstantial":13395,"hent":13396,"oline":13397,"ĠPos":13398,"ĠOften":13399,"Ġcomics":13400,"Ġris":13401,"Ġpartial":13402,"phoon":13403,"Ġpreserve":13404,"Ġfilming":13405,"Ġrepublic":13406,"ĠGeoff":13407,"hyd":13408,"Ġsuperhero":13409,"colm":13410,"ĠVolleyball":13411,"Ġinstructions":13412,"Mir":13413,"USA":13414,"polit":13415,"ĠTong":13416,"Ġlie":13417,"ĠPi":13418,"unning":13419,"Ġsubfamily":13420,"ĠCarroll":13421,"ĠHero":13422,"Ġreferendum":13423,"uxili":13424,"ĠCatholics":13425,"Ġ1858":13426,"Ġpropag":13427,"Ġborrow":13428,"Ġadvisor":13429,"Ġneighbouring":13430,"ĠProvincial":13431,"ificance":13432,"FF":13433,"XX":13434,"word":13435,"yers":13436,"ĠHous":13437,"imm":13438,"imp":13439,"ĠFra":13440,"avi":13441,"phis":13442,"Ġimmun":13443,"Ġimperial":13444,"ĠDeuts":13445,"ĠPlate":13446,"ĠAngola":13447,"Ġtwinned":13448,"ĠPhilos":13449,"1969":13450,"ĠLucas":13451,"Ġneighboring":13452,"Home":13453,"vas":13454,"Ġtong":13455,"Ġpill":13456,"ĠRush":13457,"ĠLenn":13458,"Ġnoticed":13459,"Ġ360":13460,"Ġdisapp":13461,"plete":13462,"Ġepid":13463,"Ġequations":13464,"ÃŃs":13465,"ĠFrankfurt":13466,"Ġgrandmother":13467,"ĠTechnical":13468,"Ġbassist":13469,"ĠSpringfield":13470,"700":13471,"court":13472,"rill":13473,"rise":13474,"omed":13475,"chw":13476,"lyde":13477,"ĠDuc":13478,"agua":13479,"ĠThunder":13480,"ĠArc":13481,"ahu":13482,"Ġlarvae":13483,"Ġendors":13484,"meaning":13485,"Scott":13486,"ĠSaturn":13487,"Ġtheoretical":13488,"ĠHugo":13489,"Max":13490,"inement":13491,"Ġporn":13492,"Ġpump":13493,"ĠCox":13494,"ĠCairo":13495,"ĠMorning":13496,"Ġstrange":13497,"ĠRotten":13498,"ĠFuture":13499,"ĠDiet":13500,"bern":13501,"ungle":13502,"grim":13503,"Ġreferring":13504,"Ġtwent":13505,"Ġconfig":13506,"Ġstructural":13507,"Ġsuspected":13508,"Prince":13509,"Ġinsect":13510,"ĠCrawford":13511,"Ġnamely":13512,"Sports":13513,"WÃ¼rttemberg":13514,"bad":13515,"length":13516,"edo":13517,"ĠMult":13518,"ĠBot":13519,"urring":13520,"ĠNas":13521,"ested":13522,"Ġshallow":13523,"Ġabund":13524,"Ġaboard":13525,"ikk":13526,"Ġconspir":13527,"ĠCanterbury":13528,"forced":13529,"ĠAirbus":13530,"Ġhotels":13531,"Ġdigit":13532,"Ġpilots":13533,"Ġhabitats":13534,"ĠReynolds":13535,"ĠCretaceous":13536,"held":13537,"Ġtoys":13538,"adier":13539,"ĠBord":13540,"ĠBever":13541,"ayette":13542,"ĠLakes":13543,"ĠWheel":13544,"anyon":13545,"Ġknight":13546,"Ġacres":13547,"Ġreleasing":13548,"Ġremark":13549,"Ġvariations":13550,"Ġcontinent":13551,"Ġcorps":13552,"Ġfreed":13553,"rupted":13554,"Ġviruses":13555,"Ġprevented":13556,"Group":13557,"Ã¢te":13558,"Ġinitiative":13559,"Ġchallenged":13560,"Ġarchaeological":13561,"sub":13562,"atem":13563,"album":13564,"Ġflex":13565,"Ġmad":13566,"Ġtoler":13567,"olly":13568,"Ġjack":13569,"âĢĿ,":13570,"Examples":13571,"ĠMaurice":13572,"ĠOwen":13573,"Ġconstellation":13574,"ĠKazakhstan":13575,"Ġconvinced":13576,"Ã¶ppen":13577,"Ġacknowled":13578,"Even":13579,"House":13580,"ĠSask":13581,"ĠCay":13582,"ĠFlow":13583,"eme":13584,"Ġanth":13585,"Ġenrolled":13586,"2020":13587,"Ġdepicted":13588,"Ġfeathers":13589,"Ġgoverned":13590,"Ã¡r":13591,"Ġputs":13592,"Ġeligible":13593,"Ġflowering":13594,"ymes":13595,"ĠFernando":13596,"ĠNottingham":13597,"Battle":13598,"has":13599,"pit":13600,"uated":13601,"Ġib":13602,"Ġpounds":13603,"icious":13604,"ĠTrent":13605,"Ġey":13606,"thy":13607,"Ġdisagre":13608,"ribution":13609,"zegov":13610,"ĠSilva":13611,"ĠVerde":13612,"Ġratings":13613,"ĠGuardian":13614,"ĠHauts":13615,"Ġconversion":13616,"Ġintellectual":13617,"urated":13618,"Ġspell":13619,"Ġundergraduate":13620,"Ġtrig":13621,"lette":13622,"Ġtrio":13623,"ĠOslo":13624,"Ġmuseums":13625,"ĠBobby":13626,"Ġmagnet":13627,"Ġcooperation":13628,"Ġruins":13629,"ĠSupporting":13630,"Jeff":13631,"gary":13632,"Ġbold":13633,"ĠCategory":13634,"umped":13635,"ocity":13636,"Ġsecured":13637,"ĠAnat":13638,"Ġshortened":13639,"Ġgraphic":13640,"ĠPhysics":13641,"ĠAgriculture":13642,"City":13643,"Matt":13644,"vor":13645,"Ġsin":13646,"ĠRNA":13647,"rawn":13648,"ardi":13649,"ĠVIII":13650,"Ġspy":13651,"Ġdisturb":13652,"Ġrelocated":13653,"Ġminerals":13654,"Chinese":13655,"1983":13656,"Ġ1855":13657,"Ġaudiences":13658,"swick":13659,"Ġimmigration":13660,"ĠTwitter":13661,"ĠBallet":13662,"</":13663,"Ġsiblings":13664,"Ġhunt":13665,"ĠAmy":13666,"ĠMoney":13667,"Ġnaming":13668,"imen":13669,"andro":13670,"never":13671,"Ġdisorders":13672,"Ġpresc":13673,"ĠZur":13674,"axies":13675,"ĠNorthwest":13676,"ĠCohen":13677,"regular":13678,"ĠComputer":13679,"Ġtechnologies":13680,"Ġengineers":13681,"Ġgraduation":13682,"ĠMunicipal":13683,"ĠLinux":13684,"Ġclimbing":13685,"ĠRavens":13686,"ĠMercury":13687,"ĠâĤ¬":13688,"Coll":13689,"tor":13690,"Ġcosm":13691,"ĠTues":13692,"iratory":13693,"andin":13694,"agger":13695,"ubble":13696,"Ġcluster":13697,"Ġdistinction":13698,"ĠGround":13699,"Ġtopic":13700,"Ġrestoration":13701,"ĠCoach":13702,"Ġindependently":13703,"Ġtargets":13704,"ĠAlexandria":13705,"Ġaffiliate":13706,"Ġvulner":13707,"Il":13708,"Tropical":13709,"edge":13710,"ĠCore":13711,"ĠMale":13712,"arted":13713,"ursday":13714,"Ġhoused":13715,"Ġballot":13716,"ĠDuncan":13717,"Ġatomic":13718,"ĠMachine":13719,"Ġawareness":13720,"Sen":13721,"Tw":13722,"hl":13723,"nam":13724,"zan":13725,"Ġcer":13726,"ĠSang":13727,"Ġhind":13728,"ĠTampa":13729,"ĠMath":13730,"ĠMouse":13731,"Ġrept":13732,"usually":13733,"ĠLess":13734,"ricia":13735,"ibilities":13736,"ĠCommerce":13737,"ĠPolicy":13738,"1977":13739,"Ġattempting":13740,"Ġdifficulties":13741,"ĠNickelodeon":13742,"ĠLaboratory":13743,"Ġtheatrical":13744,"Ġcollapsed":13745,"zegovina":13746,"Po":13747,"gart":13748,"asaki":13749,"Ġbrew":13750,"Ġmast":13751,"ĠBet":13752,"ĠPS":13753,"Ġquar":13754,"Ġendemic":13755,"Ġmanages":13756,"Ġfallen":13757,"ĠEss":13758,"Ġmechanics":13759,"Ġancestors":13760,"Ġprofessionals":13761,"Ġrecipient":13762,"Hans":13763,"Ġ),":13764,"Ġaims":13765,"Ġfiring":13766,"ilogy":13767,"ĠHomer":13768,"igion":13769,"ishops":13770,"ilda":13771,"pton":13772,"Ġpolar":13773,"azar":13774,"Ġdesignation":13775,"ĠCompan":13776,"Ġdestination":13777,"Ġrebels":13778,"ĠBudapest":13779,"Ġpioneer":13780,"Ġsurrender":13781,"Rog":13782,"Var":13783,"à¹":13784,"Ġsamples":13785,"Ġballs":13786,"ĠCoun":13787,"Ġnar":13788,"ĠNewcastle":13789,"ĠZimbabwe":13790,"Ġnoise":13791,"ĠPrison":13792,"Ġdiscrimination":13793,"Ġcarb":13794,"atorial":13795,"Ġstrongest":13796,"iability":13797,"Ġgallery":13798,"Ġupdated":13799,"oustic":13800,"Ġextensively":13801,"Ġrenowned":13802,"Ġtag":13803,"ĠMix":13804,"adh":13805,"ĠRams":13806,"ths":13807,"ĠOst":13808,"Ġchim":13809,"Ġexceed":13810,"Ġunited":13811,"ensen":13812,"ĠMarin":13813,"rible":13814,"Ġinterface":13815,"Ġmetro":13816,"Ġenthus":13817,"Ġvaried":13818,"ĠOrlando":13819,"ĠEdmonton":13820,"Ġaviation":13821,"Reception":13822,"Ġpsychiat":13823,"ĠType":13824,"Ġcameras":13825,"ĠLatvia":13826,"Ġimplemented":13827,"ĠFaculty":13828,"ĠHispanic":13829,"ĠManitoba":13830,"jud":13831,"Ġsor":13832,"atas":13833,"Ġbinary":13834,"Ġlux":13835,"Ġgrain":13836,"utors":13837,"aping":13838,"Ġflies":13839,"ussion":13840,"erving":13841,"Ġaccord":13842,"Ġorganisations":13843,"Ġautumn":13844,"Ġrespiratory":13845,"ĠBlackhawks":13846,"ĠOutstanding":13847,"building":13848,"Ġdemonstrated":13849,"Ġrefugees":13850,"Ġerected":13851,"Ġhorizontal":13852,"Modern":13853,"Now":13854,"Where":13855,"inja":13856,"onn":13857,"Ġlap":13858,"ĠMS":13859,"Ġsteep":13860,"rition":13861,"izations":13862,"redited":13863,"Chicago":13864,"Ġgenres":13865,"Ġshoulder":13866,"untary":13867,"ĠBasil":13868,"ĠLiberation":13869,"Ġlifestyle":13870,"ĠMasters":13871,"Ġvegetables":13872,"ĠLaura":13873,"Ġmembrane":13874,"Ober":13875,"iated":13876,"Ġcraft":13877,"Ġbonds":13878,"ĠAber":13879,"ammed":13880,"Ġgent":13881,"Ġscales":13882,"chez":13883,"Ġextends":13884,"ĠBrid":13885,"Ġdiscovers":13886,"ĠWeather":13887,"Ġmeasuring":13888,"ĠTomatoes":13889,"Ġsemif":13890,"Ġboxing":13891,"ĠSolar":13892,"ĠNATO":13893,"Ġpermanently":13894,"Ġancestor":13895,"Ġillustrated":13896,"ĠMalta":13897,"Ġmoist":13898,"Ġtemporarily":13899,"ĠPiedmont":13900,"Final":13901,"inery":13902,"Ġbell":13903,"Ġtoll":13904,"Ġstolen":13905,"quin":13906,"ieve":13907,"ĠVery":13908,"Ġunex":13909,"Ġrecovery":13910,"ĠShim":13911,"Ġflank":13912,"levard":13913,"ĠXia":13914,"Ġspecialist":13915,"ĠProvence":13916,"ĠMilwaukee":13917,"ĠRailways":13918,"Ġimprovements":13919,"ĠNASCAR":13920,"Ġnucleus":13921,"Demographics":13922,"ĠGothic":13923,"Ġprestigious":13924,"ingers":13925,"ĠMiddles":13926,"Ġreduction":13927,"ĠBM":13928,"ĠPab":13929,"emi":13930,"ĠDoll":13931,"umer":13932,"Ġvector":13933,"landers":13934,"unda":13935,"Ġbuff":13936,"emble":13937,"Ġsurprise":13938,"ĠOriginal":13939,"ĠCollection":13940,"ĠGarc":13941,"ĠAviv":13942,"Ġdecreased":13943,"Ġcomparison":13944,"Ġsubmarine":13945,"anskrit":13946,"HC":13947,"IF":13948,"ĠCu":13949,"ĠIsh":13950,"ĠBag":13951,"irie":13952,"Ġalter":13953,"ĠEc":13954,"rio":13955,"ĠKang":13956,"apor":13957,"ubb":13958,"Ġchocolate":13959,"astics":13960,"ĠThames":13961,"ects":13962,"Ġoverth":13963,"Ġbrow":13964,"inki":13965,"affe":13966,"1972":13967,"ĠJustin":13968,"ĠRoom":13969,"Ġblocked":13970,"Ġelevated":13971,"ĠGibson":13972,"ĠCzechoslovakia":13973,"Die":13974,"Royal":13975,"fi":13976,"non":13977,"vik":13978,"zed":13979,"Ġdorm":13980,"ĠTab":13981,"elong":13982,"urai":13983,"emed":13984,"iane":13985,"ibal":13986,"ĠShield":13987,"Ġblog":13988,"Ġapproaches":13989,"Ġcorporation":13990,"Ġposts":13991,"ĠApost":13992,"ĠArtists":13993,"years":13994,"1973":13995,"ĠTrip":13996,"Ġconcerning":13997,"ĠGardens":13998,"Michel":13999,"Ġcounsel":14000,"Ġvowel":14001,"Cop":14002,"GN":14003,"Ret":14004,"ĠRaf":14005,"employ":14006,"Ġvag":14007,"atta":14008,"ĠHerzegovina":14009,"Ġreferences":14010,"ĠBelize":14011,"Ġobservation":14012,"Ġconsistent":14013,"ĠSurvey":14014,"ĠGalaxy":14015,"Ġautomatically":14016,"ĠCardiff":14017,"Ġpackage":14018,"Ġreforms":14019,"Ġsailing":14020,"ĠPalestinian":14021,"Ġvirtual":14022,"Ġnarrative":14023,"Queen":14024,"Ġdust":14025,"ĠAw":14026,"Ġthor":14027,"ĠFat":14028,"ĠData":14029,"ĠColony":14030,"Ġamendment":14031,"Ġrepubl":14032,"flies":14033,"Ġhappening":14034,"Ġinvolve":14035,"ĠRodrig":14036,"ĠStrait":14037,"ĠPrimary":14038,"Cons":14039,"EM":14040,"Ġwitch":14041,"Ġsits":14042,"Ġsends":14043,"ĠPÃ©":14044,"oting":14045,"rium":14046,"ablished":14047,"Ġspelling":14048,"aek":14049,"Ġvarieties":14050,"Ġsolutions":14051,"Ġfriendship":14052,"Ġfreestyle":14053,"Ġspacecraft":14054,"ĠMickey":14055,"Ġexhibited":14056,"Ġuniversal":14057,"Ġdecrease":14058,"boys":14059,"Ġhelicopter":14060,"yg":14061,"ĠAaron":14062,"eling":14063,"ĠMobile":14064,"ĠPor":14065,"Ġkids":14066,"oko":14067,"ĠThom":14068,"Ġraid":14069,"forest":14070,"Ġestimate":14071,"Ġpresidents":14072,"Ġreporting":14073,"munition":14074,"Ġresearcher":14075,"Ġquantum":14076,"ĠCameroon":14077,"ĠConstantine":14078,"Ġphenomenon":14079,"ĠTyler":14080,"amma":14081,"Ġthrown":14082,"igne":14083,"ĠDaw":14084,"ĠLoren":14085,"this":14086,"ĠJak":14087,"ĠWorth":14088,"umble":14089,"ende":14090,"Ġinteraction":14091,"Ġsurve":14092,"ĠEuropeans":14093,"ĠGuj":14094,"Ġpassion":14095,"ĠAirways":14096,"ĠAnders":14097,"speed":14098,"ĠFourth":14099,"Ġreserves":14100,"Hung":14101,"OR":14102,"loo":14103,"ĠCanton":14104,"ĠMis":14105,"Ġbears":14106,"rians":14107,"ifier":14108,"earing":14109,"okia":14110,"team":14111,"icking":14112,"Ġrelay":14113,"restrial":14114,"Ġtriple":14115,"Ġadministrator":14116,"Ġaccidentally":14117,"ĠTriple":14118,"ipeg":14119,"Ġgalaxies":14120,"ĠBrunswick":14121,"electric":14122,"Ġenforcement":14123,"ht":14124,"Ġtune":14125,"ĠSiber":14126,"ĠAS":14127,"ĠLil":14128,"Ġitem":14129,"ipher":14130,"Ġscope":14131,"Ġspan":14132,"aiden":14133,"Ġactivists":14134,"iscopal":14135,"official":14136,"vironments":14137,"Ġobjective":14138,"Ġcontracts":14139,"Ġsummers":14140,"Ġcustomer":14141,"Ġdelivery":14142,"ĠCardinal":14143,"ĠAhmad":14144,"Anton":14145,"ĠWednes":14146,"Los":14147,"join":14148,"enza":14149,"ĠToul":14150,"Ġheter":14151,"iaz":14152,"Ġsignificance":14153,"ĠValent":14154,"Ġdocumented":14155,"ĠSherman":14156,"Central":14157,"Ġnegotiations":14158,"ĠCritics":14159,"Bu":14160,"Ġtight":14161,"edi":14162,"Ġcrocod":14163,"Ġpel":14164,"Ġhence":14165,"ĠKab":14166,"ipel":14167,"âĢ¢":14168,"Ġ350":14169,"Ġcentres":14170,"ĠMaya":14171,"ctorate":14172,"ĠScar":14173,"Ġmetre":14174,"1979":14175,"Comp":14176,"Ġdealing":14177,"Ġbombs":14178,"uyeh":14179,"Ġsuspension":14180,"Ġinitiated":14181,"ĠTanz":14182,"Ġinventor":14183,"Ġsurrendered":14184,"Fur":14185,"sal":14186,"Ġtheaters":14187,"isse":14188,"itimate":14189,"Ġfa":14190,"onda":14191,"Ġindoor":14192,"ĠSwan":14193,"ĠMeg":14194,"ĠCaroline":14195,"Ġacquisition":14196,"ĠBoris":14197,"Ġconsultant":14198,"Ġsediment":14199,"ĠShirley":14200,"'d":14201,"GS":14202,"anche":14203,"Ġcater":14204,"Ġforb":14205,"idian":14206,"ĠLucky":14207,"oints":14208,"Ġregister":14209,"Ġmanif":14210,"ĠDayton":14211,"sequently":14212,"Ġpayment":14213,"ĠConfederation":14214,"Ġhoped":14215,"ikhail":14216,"Ġdeparted":14217,"Ġcasualties":14218,"Pet":14219,"inh":14220,"ĠCov":14221,"amar":14222,"ĠHass":14223,"Ġonwards":14224,"Ġchron":14225,"keys":14226,"ĠMarqu":14227,"Ġsheet":14228,"arriage":14229,"cole":14230,"ĠPorts":14231,"Ġseparation":14232,"Ġterritorial":14233,"ĠLeslie":14234,"Ġaxis":14235,"ĠTransportation":14236,"Ġremoval":14237,"Ġabbreviated":14238,"ĠFacebook":14239,"Cas":14240,"Nic":14241,"Oper":14242,"PR":14243,"aum":14244,"brit":14245,"card":14246,"Ġwool":14247,"Ġnoun":14248,"ĠBooth":14249,"Ġcanon":14250,"ĠConn":14251,"Ġaccum":14252,"ĠMusical":14253,"Ġcommunicate":14254,"ĠXI":14255,"Ġcompositions":14256,"Ġarriving":14257,"Ġharder":14258,"Ġverb":14259,"Ġmolecule":14260,"Ġclinical":14261,"Ġtowers":14262,"ĠLisbon":14263,"ĠPhilharmonic":14264,"fr":14265,"half":14266,"orig":14267,"Ġinland":14268,"Ġcad":14269,"Ġpent":14270,"ĠAra":14271,"Ġlying":14272,"opened":14273,"ĠStage":14274,"Ġperm":14275,"ussels":14276,"ĠConst":14277,"Ġhanded":14278,"Ġapproached":14279,"1967":14280,"Ġneighb":14281,"Ġmagnitude":14282,"ĠBailey":14283,"Ġholy":14284,"Ġsacrif":14285,"ĠGriffith":14286,"municipality":14287,"Ash":14288,"Der":14289,"PV":14290,"gang":14291,"how":14292,"mons":14293,"sun":14294,"Î¿":14295,"hee":14296,"icz":14297,"ĠSO":14298,"ĠCou":14299,"Ġaspect":14300,"ĠNumber":14301,"ĠVÃ¤":14302,"ĠVoice":14303,"ĠDecl":14304,"ĠBritt":14305,"Ġgoverning":14306,"Ġdeveloper":14307,"flix":14308,"Ã¶l":14309,"ĠSenators":14310,"Ġpatri":14311,"month":14312,"ĠRocky":14313,"Ġdialogue":14314,"Ġvoltage":14315,"iÃ³n":14316,"math":14317,"Ġtrick":14318,"arians":14319,"Ġfatal":14320,"Ġpara":14321,"ĠMing":14322,"ĠLÃ©":14323,"Ġprol":14324,"Ġrises":14325,"ĠMarion":14326,"Ġroster":14327,"Ã©mon":14328,"ramid":14329,"othing":14330,"Ġfeeding":14331,"ĠConstitutional":14332,"rews":14333,"Ġrevival":14334,"Ġeveryday":14335,"Ġpatrol":14336,"ĠTurin":14337,"Ġpriests":14338,"ĠGreatest":14339,"1975":14340,"1966":14341,"ĠMoses":14342,"Ġdrawings":14343,"Abd":14344,"Ġmeasurement":14345,"ĠBruins":14346,"Ġgravity":14347,"Ġphilanthropist":14348,"DI":14349,"Ham":14350,"Pan":14351,"last":14352,"wal":14353,"ĠTian":14354,"ĠHIV":14355,"Ġgases":14356,"ipzig":14357,"ĠChron":14358,"week":14359,"Ġenvironments":14360,"ergus":14361,"1981":14362,"1982":14363,"Ġperspective":14364,"Ġconcentrated":14365,"Ġseriously":14366,"Ġdialects":14367,"Due":14368,"bas":14369,"Ġpuzz":14370,"ĠTax":14371,"amen":14372,"ĠMull":14373,"ĠHur":14374,"chard":14375,"herd":14376,"ĠDoc":14377,"ĠVII":14378,"acker":14379,"Ġcancel":14380,"phan":14381,
[...]
