{
  "version": "1.0",
  "truncation": null,
  "padding": null,
  "added_tokens": [
    {
      "id": 0,
      "content": "<|endoftext|>",
      "single_word": false,
      "lstrip": false,
      "rstrip": false,
      "normalized": false,
      "special": true
    },
    {
      "id": 1,
      "content": "<UNK>",
      "single_word": false,
      "lstrip": false,
      "rstrip": false,
      "normalized": false,
      "special": true
    }
  ],
  "normalizer": null,
  "pre_tokenizer": {
    "type": "ByteLevel",
    "add_prefix_space": false,
    "trim_offsets": true,
    "use_regex": true
  },
  "post_processor": {
    "type": "ByteLevel",
    "add_prefix_space": true,
    "trim_offsets": false,
    "use_regex": true
  },
  "decoder": {
    "type": "ByteLevel",
    "add_prefix_space": true,
    "trim_offsets": true,
    "use_regex": true
  },
  "model": {
    "type": "BPE",
    "dropout": null,
    "unk_token": null,
    "continuing_subword_prefix": "",
    "end_of_word_suffix": "",
    "fuse_unk": false,
    "byte_fallback": false,
    "vocab": {
      "<|endoftext|>": 0,
      "<UNK>": 1,
      "!": 2,
      "\"": 3,
      "#": 4,
      "$": 5,
      "%": 6,
      "&": 7,
      "'": 8,
      "(": 9,
      ")": 10,
      "*": 11,
      "+": 12,
      ",": 13,
      "-": 14,
      ".": 15,
      "/": 16,
      "0": 17,
      "1": 18,
      "2": 19,
      "3": 20,
      "4": 21,
      "5": 22,
      "6": 23,
      "7": 24,
      "8": 25,
      "9": 26,
      ":": 27,
      ";": 28,
      "<": 29,
      "=": 30,
      ">": 31,
      "?": 32,
      "@": 33,
      "A": 34,
      "B": 35,
      "C": 36,
      "D": 37,
      "E": 38,
      "F": 39,
      "G": 40,
      "H": 41,
      "I": 42,
      "J": 43,
      "K": 44,
      "L": 45,
      "M": 46,
      "N": 47,
      "O": 48,
      "P": 49,
      "Q": 50,
      "R": 51,
      "S": 52,
      "T": 53,
      "U": 54,
      "V": 55,
      "W": 56,
      "X": 57,
      "Y": 58,
      "Z": 59,
      "[": 60,
      "\\": 61,
      "]": 62,
      "^": 63,
      "_": 64,
      "`": 65,
      "a": 66,
      "b": 67,
      "c": 68,
      "d": 69,
      "e": 70,
      "f": 71,
      "g": 72,
      "h": 73,
      "i": 74,
      "j": 75,
      "k": 76,
      "l": 77,
      "m": 78,
      "n": 79,
      "o": 80,
      "p": 81,
      "q": 82,
      "r": 83,
      "s": 84,
      "t": 85,
      "u": 86,
      "v": 87,
      "w": 88,
      "x": 89,
      "y": 90,
      "z": 91,
      "{": 92,
      "|": 93,
      "}": 94,
      "~": 95,
      "¡": 96,
      "¢": 97,
      "£": 98,
      "¤": 99,
      "¥": 100,
      "¦": 101,
      "§": 102,
      "¨": 103,
      "©": 104,
      "ª": 105,
      "«": 106,
      "¬": 107,
      "®": 108,
      "¯": 109,
      "°": 110,
      "±": 111,
      "²": 112,
      "³": 113,
      "´": 114,
      "µ": 115,
      "¶": 116,
      "·": 117,
      "¸": 118,
      "¹": 119,
      "º": 120,
      "»": 121,
      "¼": 122,
      "½": 123,
      "¾": 124,
      "¿": 125,
      "À": 126,
      "Á": 127,
      "Â": 128,
      "Ã": 129,
      "Ä": 130,
      "Å": 131,
      "Æ": 132,
      "Ç": 133,
      "È": 134,
      "É": 135,
      "Ê": 136,
      "Ë": 137,
      "Ì": 138,
      "Í": 139,
      "Î": 140,
      "Ï": 141,
      "Ð": 142,
      "Ñ": 143,
      "Ò": 144,
      "Ó": 145,
      "Ô": 146,
      "Õ": 147,
      "Ö": 148,
      "×": 149,
      "Ø": 150,
      "Ù": 151,
      "Ú": 152,
      "Û": 153,
      "Ü": 154,
      "Ý": 155,
      "Þ": 156,
      "ß": 157,
      "à": 158,
      "á": 159,
      "â": 160,
      "ã": 161,
      "ä": 162,
      "å": 163,
      "æ": 164,
      "ç": 165,
      "è": 166,
      "é": 167,
      "ê": 168,
      "ë": 169,
      "ì": 170,
      "í": 171,
      "î": 172,
      "ï": 173,
      "ð": 174,
      "ñ": 175,
      "ò": 176,
      "ó": 177,
      "ô": 178,
      "õ": 179,
      "ö": 180,
      "÷": 181,
      "ø": 182,
      "ù": 183,
      "ú": 184,
      "û": 185,
      "ü": 186,
      "ý": 187,
      "þ": 188,
      "ÿ": 189,
      "Ā": 190,
      "ā": 191,
      "Ă": 192,
      "ă": 193,
      "Ą": 194,
      "ą": 195,
      "Ć": 196,
      "ć": 197,
      "Ĉ": 198,
      "ĉ": 199,
      "Ċ": 200,
      "ċ": 201,
      "Č": 202,
      "č": 203,
      "Ď": 204,
      "ď": 205,
      "Đ": 206,
      "đ": 207,
      "Ē": 208,
      "ē": 209,
      "Ĕ": 210,
      "ĕ": 211,
      "Ė": 212,
      "ė": 213,
      "Ę": 214,
      "ę": 215,
      "Ě": 216,
      "ě": 217,
      "Ĝ": 218,
      "ĝ": 219,
      "Ğ": 220,
      "ğ": 221,
      "Ġ": 222,
      "ġ": 223,
      "Ģ": 224,
      "ģ": 225,
      "Ĥ": 226,
      "ĥ": 227,
      "Ħ": 228,
      "ħ": 229,
      "Ĩ": 230,
      "ĩ": 231,
      "Ī": 232,
      "ī": 233,
      "Ĭ": 234,
      "ĭ": 235,
      "Į": 236,
      "į": 237,
      "İ": 238,
      "ı": 239,
      "Ĳ": 240,
      "ĳ": 241,
      "Ĵ": 242,
      "ĵ": 243,
      "Ķ": 244,
      "ķ": 245,
      "ĸ": 246,
      "Ĺ": 247,
      "ĺ": 248,
      "Ļ": 249,
      "ļ": 250,
      "Ľ": 251,
      "ľ": 252,
      "Ŀ": 253,
      "ŀ": 254,
      "Ł": 255,
      "ł": 256,
      "Ń": 257,
      "Ġt": 258,
      "he": 259,
      "ou": 260,
      "Ġa": 261,
      "in": 262,
      "re": 263,
      "Ġw": 264,
      "Ġs": 265,
      "ha": 266,
      "on": 267,
      "Ġy": 268,
      "Ġthe": 269,
      "Ġm": 270,
      "Ġyou": 271,
      "Ġb": 272,
      "er": 273,
      "it": 274,
      "ing": 275,
      "ll": 276,
      "Ġd": 277,
      "is": 278,
      "Ġc": 279,
      "an": 280,
      "Ġto": 281,
      "Ġf": 282,
      "Ġg": 283,
      "or": 284,
      "hat": 285,
      "en": 286,
      "Ġl": 287,
      "..": 288,
      "ĠI": 289,
      "'s": 290,
      "es": 291,
      "Ġo": 292,
      "Ġn": 293,
      "nd": 294,
      "Ġp": 295,
      "ve": 296,
      "ow": 297,
      "om": 298,
      "ed": 299,
      "ot": 300,
      "ĠĊ": 301,
      "ar": 302,
      "et": 303,
      "Ġhe": 304,
      "as": 305,
      "at": 306,
      "us": 307,
      "Ġth": 308,
      "ay": 309,
      "Ġof": 310,
      "Ġit": 311,
      "Ġh": 312,
      "Ġha": 313,
      "Ġin": 314,
      "'t": 315,
      "le": 316,
      "Ġbe": 317,
      "gh": 318,
      "Ġthat": 319,
      "Ġme": 320,
      "id": 321,
      "Ġon": 322,
      "Ġand": 323,
      "You": 324,
      "Ġk": 325,
      "Ġis": 326,
      "ic": 327,
      "...": 328,
      "ld": 329,
      "Ġwe": 330,
      "ut": 331,
      "ke": 332,
      "im": 333,
      "Ġe": 334,
      "al": 335,
      "oo": 336,
      "ght": 337,
      "ver": 338,
      "Ġdo": 339,
      "ac": 340,
      "out": 341,
      "ri": 342,
      "Ġfor": 343,
      "Ġre": 344,
      "The": 345,
      "ad": 346,
      "ome": 347,
      "se": 348,
      "Ġst": 349,
      "Ġu": 350,
      "Ġwas": 351,
      "Ġli": 352,
      "Ġkn": 353,
      "ust": 354,
      "am": 355,
      "Ġyour": 356,
      "ill": 357,
      "Ġthis": 358,
      "ir": 359,
      "Ġhave": 360,
      "We": 361,
      "He": 362,
      "Ġmy": 363,
      "'m": 364,
      "ly": 365,
      "Ġnot": 366,
      "Ġgo": 367,
      "ith": 368,
      "Ġan": 369,
      "Ġknow": 370,
      "'re": 371,
      "ee": 372,
      "all": 373,
      "st": 374,
      "ent": 375,
      "ion": 376,
      "ould": 377,
      "What": 378,
      "Ġj": 379,
      "Ġwith": 380,
      "ant": 381,
      "Ġare": 382,
      "ro": 383,
      "ĠS": 384,
      "ea": 385,
      "Ġcan": 386,
      "It": 387,
      "Ġdon": 388,
      "ĠM": 389,
      "her": 390,
      "ho": 391,
      "Ġne": 392,
      "hing": 393,
      "ur": 394,
      "Ġwhat": 395,
      "ec": 396,
      "ĠT": 397,
      "if": 398,
      "ĠA": 399,
      "ter": 400,
      "ĠC": 401,
      "uc": 402,
      "Ġget": 403,
      "ry": 404,
      "Ġab": 405,
      "Ġall": 406,
      "'ll": 407,
      "Ġlike": 408,
      "ake": 409,
      "Ġjust": 410,
      "No": 411,
      "Ġhere": 412,
      "Ġout": 413,
      "pp": 414,
      "one": 415,
      "Ġso": 416,
      "Ġas": 417,
      "Ġup": 418,
      "un": 419,
      "Ġat": 420,
      "ce": 421,
      "ink": 422,
      "And": 423,
      "han": 424,
      "Ġhim": 425,
      "ood": 426,
      "our": 427,
      "right": 428,
      "Ġwant": 429,
      "op": 430,
      "ook": 431,
      "ra": 432,
      "ĠB": 433,
      "Ġabout": 434,
      "ight": 435,
      "ack": 436,
      "Ġdid": 437,
      "il": 438,
      "ore": 439,
      "Ġsh": 440,
      "Ġright": 441,
      "and": 442,
      "ĠD": 443,
      "ĠG": 444,
      "very": 445,
      "ie": 446,
      "ell": 447,
      "Oh": 448,
      "Ġthere": 449,
      "Ġwor": 450,
      "ally": 451,
      "Ġgot": 452,
      "Ġher": 453,
      "ge": 454,
      "Ġthink": 455,
      "ind": 456,
      "eah": 457,
      "Ġr": 458,
      "Ġus": 459,
      "Ġno": 460,
      "ess": 461,
      "hy": 462,
      "ĠH": 463,
      "Ġone": 464,
      "rom": 465,
      "art": 466,
      "ĠW": 467,
      "That": 468,
      "ul": 469,
      "od": 470,
      "Ġsee": 471,
      "'ve": 472,
      "est": 473,
      "ive": 474,
      "end": 475,
      "ain": 476,
      "Ġany": 477,
      "Ġthey": 478,
      "Ġbut": 479,
      "ch": 480,
      "Ġwill": 481,
      "Ġal": 482,
      "Ġwhe": 483,
      "ure": 484,
      "king": 485,
      "ĠL": 486,
      "Ġlo": 487,
      "na": 488,
      "ist": 489,
      "ong": 490,
      "ig": 491,
      "Ġde": 492,
      "ĠP": 493,
      "Yeah": 494,
      "ime": 495,
      "ol": 496,
      "But": 497,
      "um": 498,
      "ab": 499,
      "âĻ": 500,
      "ers": 501,
      "Ġif": 502,
      "Ġshe": 503,
      "Ġsome": 504,
      "os": 505,
      "Ġnow": 506,
      "Ġfrom": 507,
      "Ġsa": 508,
      "ate": 509,
      "ĠR": 510,
      "ast": 511,
      "Ġpl": 512,
      "Ġhis": 513,
      "ven": 514,
      "ĠJ": 515,
      "ame": 516,
      "Ġsay": 517,
      "ice": 518,
      "rou": 519,
      "kay": 520,
      "âĻª": 521,
      "Ġgoing": 522,
      "Ġwho": 523,
      "Well": 524,
      "Ġwould": 525,
      "use": 526,
      "Ġcom": 527,
      "ation": 528,
      "ine": 529,
      "Ġman": 530,
      "Ġback": 531,
      "Th": 532,
      "Ġor": 533,
      "are": 534,
      "Ġtime": 535,
      "ear": 536,
      "ĠF": 537,
      "Ġex": 538,
      "qu": 539,
      "ĠO": 540,
      "Ġthem": 541,
      "Ġcon": 542,
      "Yes": 543,
      "Ġwere": 544,
      "So": 545,
      "Ġlook": 546,
      "way": 547,
      "own": 548,
      "ard": 549,
      "ase": 550,
      "Ġneed": 551,
      "nt": 552,
      "ct": 553,
      "Ġgu": 554,
      "Ġgood": 555,
      "em": 556,
      "Ġsp": 557,
      "Ġhad": 558,
      "el": 559,
      "onna": 560,
      "ick": 561,
      "Ġbeen": 562,
      "Ġcould": 563,
      "omet": 564,
      "They": 565,
      "This": 566,
      "Ġgonna": 567,
      "Ġtoo": 568,
      "ect": 569,
      "ause": 570,
      "other": 571,
      "itt": 572,
      "Ġag": 573,
      "ort": 574,
      "Ġoff": 575,
      "Ġcome": 576,
      "Ġthing": 577,
      "hank": 578,
      "thing": 579,
      "ous": 580,
      "Ġour": 581,
      "Ġpro": 582,
      "fe": 583,
      "Ġv": 584,
      "ace": 585,
      "ĠN": 586,
      "Ġtell": 587,
      "ĠE": 588,
      "res": 589,
      "IN": 590,
      "'d": 591,
      "hi": 592,
      "Ġevery": 593,
      "ck": 594,
      "Ġhas": 595,
      "Ġwhen": 596,
      "Ġtake": 597,
      "ak": 598,
      "She": 599,
      "Hey": 600,
      "omething": 601,
      "ide": 602,
      "ble": 603,
      "ap": 604,
      "Ġway": 605,
      "uck": 606,
      "How": 607,
      "red": 608,
      "Ġint": 609,
      "Whe": 610,
      "Ġdidn": 611,
      "Ġmean": 612,
      "Ġdown": 613,
      "uch": 614,
      "lf": 615,
      "Ġam": 616,
      "Ġby": 617,
      "Ġtr": 618,
      "reat": 619,
      "Ġhapp": 620,
      "Ġhow": 621,
      "Ġtal": 622,
      "There": 623,
      "ag": 624,
      "Ġreally": 625,
      "If": 626,
      "ĠK": 627,
      "ud": 628,
      "Ġmore": 629,
      "ff": 630,
      "Ġsomething": 631,
      "Ġpe": 632,
      "Ġover": 633,
      "Ġle": 634,
      "Ġcl": 635,
      "Ġ\"": 636,
      "Why": 637,
      "Do": 638,
      "Ġcall": 639,
      "ople": 640,
      "Ġshould": 641,
      "Ġmake": 642,
      "Ġlet": 643,
      "th": 644,
      "lease": 645,
      "Ġlove": 646,
      "Ġmo": 647,
      "ber": 648,
      "Come": 649,
      "ep": 650,
      "ittle": 651,
      "oy": 652,
      "ĠYou": 653,
      "ose": 654,
      "orry": 655,
      "ving": 656,
      "ity": 657,
      "Ġday": 658,
      "Ġsu": 659,
      "Ġthen": 660,
      "ait": 661,
      "ound": 662,
      "HE": 663,
      "Let": 664,
      "iss": 665,
      "ther": 666,
      "ies": 667,
      "ody": 668,
      "Ġbec": 669,
      "Don": 670,
      "Ġbl": 671,
      "Ġnever": 672,
      "Ġguy": 673,
      "Ġpeople": 674,
      "Ġlittle": 675,
      "Ġsaid": 676,
      "Ġdoes": 677,
      "lp": 678,
      "Ġqu": 679,
      "wo": 680,
      "Ġ1": 681,
      "Ġwork": 682,
      "act": 683,
      "be": 684,
      "ew": 685,
      "Ġvery": 686,
      "Ġonly": 687,
      "nder": 688,
      "Ġen": 689,
      "ond": 690,
      "Ġro": 691,
      "OU": 692,
      "Ġse": 693,
      "ree": 694,
      "Ġsc": 695,
      "Okay": 696,
      "Ġco": 697,
      "Ġhappen": 698,
      "Ġbr": 699,
      "ite": 700,
      "eep": 701,
      "All": 702,
      "Ġbet": 703,
      "Ġdoing": 704,
      "ady": 705,
      "00": 706,
      "self": 707,
      "ING": 708,
      "pl": 709,
      "ass": 710,
      "riend": 711,
      "ue": 712,
      "Ġagain": 713,
      "eel": 714,
      "Ġmuch": 715,
      "My": 716,
      "ought": 717,
      "ting": 718,
      "ough": 719,
      "age": 720,
      "Ġeven": 721,
      "ning": 722,
      "ĠY": 723,
      "Thank": 724,
      "ish": 725,
      "ment": 726,
      "irst": 727,
      "--": 728,
      "Ġwhere": 729,
      "ire": 730,
      "Now": 731,
      "Ġaf": 732,
      "AN": 733,
      "ather": 734,
      "Ġhelp": 735,
      "Ġkill": 736,
      "Ġother": 737,
      "au": 738,
      "Ġyear": 739,
      "ny": 740,
      "Ġfind": 741,
      "Ġwhy": 742,
      "Ġtwo": 743,
      ".\"": 744,
      "Ġunder": 745,
      "per": 746,
      "Ġinto": 747,
      "ĠWhat": 748,
      "Ġfeel": 749,
      "ER": 750,
      "Ġun": 751,
      "ty": 752,
      "Ġar": 753,
      "Is": 754,
      "Ġwr": 755,
      "ret": 756,
      "ves": 757,
      "get": 758,
      "oney": 759,
      "ord": 760,
      "Ġpr": 761,
      "round": 762,
      "Ġtalk": 763,
      "St": 764,
      "Ġim": 765,
      "fore": 766,
      "ne": 767,
      "wn": 768,
      "body": 769,
      "ĠâĻª": 770,
      "ade": 771,
      "urn": 772,
      "Not": 773,
      "Ġgive": 774,
      "Ġlife": 775,
      "row": 776,
      "Who": 777,
      "Ġbecause": 778,
      "Ġstill": 779,
      "ull": 780,
      "Look": 781,
      "ave": 782,
      "ob": 783,
      "Just": 784,
      "Ġsorry": 785,
      "Are": 786,
      "Ġlea": 787,
      "Ġtheir": 788,
      "Ġnight": 789,
      "Ġanything": 790,
      "Ġlong": 791,
      "irl": 792,
      "aybe": 793,
      "Ġwell": 794,
      "Ġnew": 795,
      "Ġfriend": 796,
      "ft": 797,
      "ach": 798,
      "ang": 799,
      "Ġfirst": 800,
      "Ġhome": 801,
      "Ġokay": 802,
      "iz": 803,
      "Ġtry": 804,
      "ich": 805,
      "Ġthought": 806,
      "Ġsure": 807,
      "Ġbel": 808,
      "ise": 809,
      "day": 810,
      "Ġthan": 811,
      "ool": 812,
      "Ġmust": 813,
      "ĠNo": 814,
      "Where": 815,
      "Ġcar": 816,
      "Ġaway": 817,
      "ress": 818,
      "we": 819,
      "Ġthese": 820,
      "ng": 821,
      "Ġbefore": 822,
      "har": 823,
      "ans": 824,
      "Ġwon": 825,
      "RE": 826,
      "AT": 827,
      "ĠMr": 828,
      "ater": 829,
      "In": 830,
      "Ġpo": 831,
      "Ġhand": 832,
      "pt": 833,
      "ways": 834,
      "Ġchan": 835,
      "Ġpart": 836,
      "ious": 837,
      "Ġput": 838,
      "og": 839,
      "Ġafter": 840,
      "Ġgirl": 841,
      "Ġwh": 842,
      "Ġcare": 843,
      "Ġask": 844,
      "Ġ'": 845,
      "old": 846,
      "Ġac": 847,
      "Ġwait": 848,
      "ence": 849,
      "Ġrem": 850,
      "Ġtold": 851,
      "able": 852,
      "ouse": 853,
      "ia": 854,
      "Ġact": 855,
      "Ġsec": 856,
      "Ġlast": 857,
      "ĠGod": 858,
      "Ġyears": 859,
      "Ġthings": 860,
      "Ġstart": 861,
      "Ġkeep": 862,
      "Ġgreat": 863,
      "Ġcour": 864,
      "ary": 865,
      "Ġfl": 866,
      "ON": 867,
      "Ġbetter": 868,
      "ance": 869,
      "ĠHe": 870,
      "Ġdr": 871,
      "Ġkid": 872,
      "ip": 873,
      "ieve": 874,
      "Ġaround": 875,
      "Ġdis": 876,
      "hed": 877,
      "Ġalways": 878,
      "ark": 879,
      "Ġsm": 880,
      "Ġshow": 881,
      "les": 882,
      "Ġad": 883,
      "ory": 884,
      "ful": 885,
      "Ġcou": 886,
      "Ġche": 887,
      "Good": 888,
      "ily": 889,
      "Get": 890,
      "ons": 891,
      "Ġmoney": 892,
      "Ġmin": 893,
      "Ġbu": 894,
      "ĠSt": 895,
      "Ġ2": 896,
      "Ġthose": 897,
      "ried": 898,
      "Ġkind": 899,
      "oss": 900,
      "Ġplay": 901,
      "Ġplease": 902,
      "Ġlot": 903,
      "Ġname": 904,
      "Ġbig": 905,
      "Your": 906,
      "Ġplace": 907,
      "Ġcont": 908,
      "LL": 909,
      "here": 910,
      "Go": 911,
      "ĠV": 912,
      "int": 913,
      "Ġboy": 914,
      "Ġsir": 915,
      "Ġdoesn": 916,
      "Ġnothing": 917,
      "Ġold": 918,
      "aking": 919,
      "av": 920,
      "ial": 921,
      "Did": 922,
      "Ġreal": 923,
      "Ġmade": 924,
      "isten": 925,
      "When": 926,
      "up": 927,
      "igh": 928,
      "llo": 929,
      "stand": 930,
      "ign": 931,
      "Ġever": 932,
      "ict": 933,
      "ĠU": 934,
      "Then": 935,
      "ĠIt": 936,
      "ike": 937,
      "Ġte": 938,
      "orm": 939,
      "ub": 940,
      "ail": 941,
      "ath": 942,
      "ever": 943,
      "ute": 944,
      "ĠTHE": 945,
      "Ġbelieve": 946,
      "xt": 947,
      "atch": 948,
      "rough": 949,
      "Ġres": 950,
      "ved": 951,
      "Ġeverything": 952,
      "ions": 953,
      "Can": 954,
      "Ġper": 955,
      "ren": 956,
      "ĠYeah": 957,
      "Ġdone": 958,
      "Ġleave": 959,
      "Ġown": 960,
      "Ġguys": 961,
      "pen": 962,
      "Ġhar": 963,
      "ye": 964,
      "Ġid": 965,
      "Ġel": 966,
      "Ġcr": 967,
      "Ġhear": 968,
      "Ġbeing": 969,
      "ps": 970,
      "Ġstay": 971,
      "Ġbad": 972,
      "Ġwanted": 973,
      "ian": 974,
      "Ġwom": 975,
      "Ġbit": 976,
      "Ġthrough": 977,
      "Ġunderstand": 978,
      "ually": 979,
      "ran": 980,
      "port": 981,
      "Ġhead": 982,
      "Ġhouse": 983,
      "Ġleft": 984,
      "aw": 985,
      "man": 986,
      "Ġwrong": 987,
      "Ġsha": 988,
      "ult": 989,
      "ĠOh": 990,
      "ĠCh": 991,
      "ated": 992,
      "Ġworld": 993,
      "Ġhappened": 994,
      "ember": 995,
      "ĠYOU": 996,
      "Ġfam": 997,
      "Ġcame": 998,
      "Ġgr": 999,
      "Ġmight": 1000,
      "Ġcoming": 1001,
      "Ġapp": 1002,
      "Ġcourse": 1003,
      "Please": 1004,
      "Ġmar": 1005,
      "pect": 1006,
      "Ġstop": 1007,
      "OR": 1008,
      "aught": 1009,
      "Ġfather": 1010,
      "erson": 1011,
      "AR": 1012,
      "so": 1013,
      "mer": 1014,
      "uh": 1015,
      "ĠYes": 1016,
      "Ġrun": 1017,
      "Ġmeet": 1018,
      "Ġ[": 1019,
      "Ġmom": 1020,
      "Ġser": 1021,
      "For": 1022,
      "atter": 1023,
      "ms": 1024,
      "Ġisn": 1025,
      "ife": 1026,
      "oh": 1027,
      "ix": 1028,
      "Ġbus": 1029,
      "side": 1030,
      "Ġelse": 1031,
      "Ġfound": 1032,
      "ek": 1033,
      "Ġph": 1034,
      "Ġ]": 1035,
      "Ġrec": 1036,
      "Here": 1037,
      "ling": 1038,
      "Ġenough": 1039,
      "ug": 1040,
      "ince": 1041,
      "oll": 1042,
      "Ġsho": 1043,
      "oth": 1044,
      "Ġtalking": 1045,
      "Ġchi": 1046,
      "ors": 1047,
      "ream": 1048,
      "Ġdead": 1049,
      "Ġend": 1050,
      "my": 1051,
      "tain": 1052,
      "Ġtra": 1053,
      "Ġch": 1054,
      "Ġass": 1055,
      "Ġsupp": 1056,
      "iv": 1057,
      "Ġsomeone": 1058,
      "aby": 1059,
      "Ġmother": 1060,
      "ner": 1061,
      "imes": 1062,
      "Ġfun": 1063,
      "Sh": 1064,
      "Ġanother": 1065,
      "ock": 1066,
      "Ġdec": 1067,
      "ating": 1068,
      "Ġcomp": 1069,
      "ES": 1070,
      "hes": 1071,
      "Ġcle": 1072,
      "ĠThe": 1073,
      "Ġson": 1074,
      "rest": 1075,
      "oc": 1076,
      "ible": 1077,
      "Ġgetting": 1078,
      "Ġsame": 1079,
      "Ġsur": 1080,
      "ecause": 1081,
      "ĠWe": 1082,
      "Ġfin": 1083,
      "ost": 1084,
      "Ġmind": 1085,
      "ah": 1086,
      "akes": 1087,
      "Ġra": 1088,
      "Ġmon": 1089,
      "Ġatt": 1090,
      "Ġlooking": 1091,
      "ied": 1092,
      "Ġsl": 1093,
      "Ġmiss": 1094,
      "Ġhard": 1095,
      "gether": 1096,
      "Ġperson": 1097,
      "IS": 1098,
      "mm": 1099,
      "Ġthree": 1100,
      "ta": 1101,
      "Ġjob": 1102,
      "Uh": 1103,
      "Ġwent": 1104,
      "Ġyeah": 1105,
      "Ġturn": 1106,
      "Ġdif": 1107,
      "Ġinv": 1108,
      "Ġmor": 1109,
      "Ġtoday": 1110,
      "Ġchild": 1111,
      "ations": 1112,
      "Maybe": 1113,
      "air": 1114,
      "Ġpret": 1115,
      "Ġpre": 1116,
      "Ġfine": 1117,
      "Ġmay": 1118,
      "Ġnice": 1119,
      "EN": 1120,
      "ple": 1121,
      "Ġuh": 1122,
      "Ġplan": 1123,
      "Every": 1124,
      "To": 1125,
      "Ġwasn": 1126,
      "ĠAnd": 1127,
      "Ġsw": 1128,
      "Ġwhich": 1129,
      "Ġbre": 1130,
      "Ġmany": 1131,
      "Ġtrying": 1132,
      "Ġyourself": 1133,
      "Ġwar": 1134,
      "ready": 1135,
      "Ġroom": 1136,
      "Ġtogether": 1137,
      "Ġbest": 1138,
      "Ġsaw": 1139,
      "IT": 1140,
      "ĠTH": 1141,
      "ope": 1142,
      "Ġproble": 1143,
      "leep": 1144,
      "der": 1145,
      "ings": 1146,
      "Ġpol": 1147,
      "ical": 1148,
      "Ġdes": 1149,
      "ont": 1150,
      "Re": 1151,
      "Ġthank": 1152,
      "Ġyes": 1153,
      "Ġhell": 1154,
      "Ġhur": 1155,
      "As": 1156,
      "Hello": 1157,
      "anna": 1158,
      "uff": 1159,
      "Ġacc": 1160,
      "Ġ-": 1161,
      "Ġseen": 1162,
      "Ġweek": 1163,
      "hile": 1164,
      "ove": 1165,
      "Ġbo": 1166,
      "alk": 1167,
      "Ġalready": 1168,
      "ĠTO": 1169,
      "Ġnext": 1170,
      "ars": 1171,
      "On": 1172,
      "Ġremember": 1173,
      "Because": 1174,
      "Ġfamily": 1175,
      "Ġlive": 1176,
      "Ġmatter": 1177,
      "orrow": 1178,
      "ister": 1179,
      "Ġcra": 1180,
      "ucking": 1181,
      "Right": 1182,
      "pe": 1183,
      "Ġstr": 1184,
      "Ġbaby": 1185,
      "Ġmost": 1186,
      "Ġbrother": 1187,
      "Ġi": 1188,
      "Ġhour": 1189,
      "az": 1190,
      "iness": 1191,
      "Ġheard": 1192,
      "ss": 1193,
      "Ġidea": 1194,
      "Ġ3": 1195,
      "Ex": 1196,
      "dy": 1197,
      "Ġcha": 1198,
      "Ġwouldn": 1199,
      "Ġknew": 1200,
      "ness": 1201,
      "Mr": 1202,
      "Ġgl": 1203,
      "ident": 1204,
      "Ġuse": 1205,
      "Ġword": 1206,
      "Ġmen": 1207,
      "ower": 1208,
      "Ġopen": 1209,
      "Ġwithout": 1210,
      "Ġmorning": 1211,
      "Ġwoman": 1212,
      "ery": 1213,
      "Ġused": 1214,
      "Wait": 1215,
      "Ġcalled": 1216,
      "ĠThat": 1217,
      "ott": 1218,
      "Ġwhole": 1219,
      "anc": 1220,
      "One": 1221,
      "chool": 1222,
      "ile": 1223,
      "Ġcomm": 1224,
      "Ġheart": 1225,
      "AS": 1226,
      "Ġmove": 1227,
      "Ġsecond": 1228,
      "ason": 1229,
      "Ġtook": 1230,
      "OW": 1231,
      "Ġfriends": 1232,
      "aut": 1233,
      "amn": 1234,
      "ition": 1235,
      "ung": 1236,
      "the": 1237,
      "osed": 1238,
      "ient": 1239,
      "Ġpay": 1240,
      "gg": 1241,
      "less": 1242,
      "ird": 1243,
      "Ġyet": 1244,
      "rent": 1245,
      "Ġwife": 1246,
      "ctor": 1247,
      "Ġpretty": 1248,
      "ens": 1249,
      "Ġsaying": 1250,
      "Ġquest": 1251,
      "Ġset": 1252,
      "pped": 1253,
      "Ġdays": 1254,
      "Ġmyself": 1255,
      "ank": 1256,
      "Ġrel": 1257,
      "Ġrest": 1258,
      "Ġbring": 1259,
      "Ġfuck": 1260,
      "ins": 1261,
      "Ġdri": 1262,
      "onight": 1263,
      "Ġfr": 1264,
      "Ġalso": 1265,
      "ier": 1266,
      "Al": 1267,
      "ib": 1268,
      "Ġdiffe": 1269,
      "Ġago": 1270,
      "Ġem": 1271,
      "Ġlisten": 1272,
      "Ġmaybe": 1273,
      "ax": 1274,
      "Ġsuch": 1275,
      "Ġhaven": 1276,
      "ild": 1277,
      "Ġguess": 1278,
      "ash": 1279,
      "ably": 1280,
      "Ġcount": 1281,
      "Ġwanna": 1282,
      "ts": 1283,
      "uth": 1284,
      "Ġalone": 1285,
      "eak": 1286,
      "GH": 1287,
      "Ġready": 1288,
      "zy": 1289,
      "Ġdrink": 1290,
      "Ġproblem": 1291,
      "ey": 1292,
      "Ġgone": 1293,
      "OM": 1294,
      "ntil": 1295,
      "ense": 1296,
      "Have": 1297,
      "where": 1298,
      "Take": 1299,
      "Ġgi": 1300,
      "Ġsit": 1301,
      "Ġfar": 1302,
      "Any": 1303,
      "Ġfucking": 1304,
      "Ġschool": 1305,
      "Ġkilled": 1306,
      "orn": 1307,
      "aughter": 1308,
      "Ġsleep": 1309,
      "Ġmet": 1310,
      "augh": 1311,
      "Ġface": 1312,
      "Ġfew": 1313,
      "Some": 1314,
      "Ġent": 1315,
      "Ġfight": 1316,
      "Ġdie": 1317,
      "ward": 1318,
      "ĠTh": 1319,
      "LE": 1320,
      "Ġ(": 1321,
      "Ġhat": 1322,
      "Ġworry": 1323,
      "OT": 1324,
      "Thanks": 1325,
      "Ġwhile": 1326,
      "cuse": 1327,
      "Ġstand": 1328,
      "Ġdad": 1329,
      "Ġshit": 1330,
      "Ġgotta": 1331,
      "Sorry": 1332,
      "Ġsoon": 1333,
      "Ġdeal": 1334,
      "Ġtom": 1335,
      "Ġhold": 1336,
      "ying": 1337,
      "Ġlost": 1338,
      "Ġev": 1339,
      "Be": 1340,
      "Ġactually": 1341,
      "med": 1342,
      "Ġ...": 1343,
      "Ġonce": 1344,
      "See": 1345,
      "vel": 1346,
      "Ġwants": 1347,
      "Ġdoor": 1348,
      "ount": 1349,
      "Ġpass": 1350,
      "Stop": 1351,
      "Ġhope": 1352,
      "An": 1353,
      "Â´": 1354,
      "Ah": 1355,
      "onder": 1356,
      "Ġeat": 1357,
      "Ġbusiness": 1358,
      "Ġhappy": 1359,
      "Ġeas": 1360,
      "Ġcouldn": 1361,
      "Ġbeaut": 1362,
      "Ġcase": 1363,
      "Of": 1364,
      "Ġtonight": 1365,
      "Or": 1366,
      "Ġlate": 1367,
      "Ġpoint": 1368,
      "bably": 1369,
      "Ġanyone": 1370,
      "yes": 1371,
      "Ġchar": 1372,
      "ize": 1373,
      "Ġ?": 1374,
      "rew": 1375,
      "ED": 1376,
      "Ġprom": 1377,
      "Ġmus": 1378,
      "Hi": 1379,
      "Ġmonth": 1380,
      "app": 1381,
      "OK": 1382,
      "Ġsays": 1383,
      "Ġter": 1384,
      "att": 1385,
      "you": 1386,
      "Ġboth": 1387,
      "Ġcompl": 1388,
      "cept": 1389,
      "Tell": 1390,
      "Ġsk": 1391,
      "ĠBr": 1392,
      "pr": 1393,
      "form": 1394,
      "io": 1395,
      "Ġcho": 1396,
      "als": 1397,
      "ither": 1398,
      "Ġhum": 1399,
      "ired": 1400,
      "iful": 1401,
      "iet": 1402,
      "Ġphone": 1403,
      "At": 1404,
      "weet": 1405,
      "Ġtomorrow": 1406,
      "rist": 1407,
      "Ġbreak": 1408,
      "Ġsince": 1409,
      "Ġjo": 1410,
      "land": 1411,
      "Ġstuff": 1412,
      "With": 1413,
      "Ġeach": 1414,
      "Like": 1415,
      "ET": 1416,
      "Ġuntil": 1417,
      "ork": 1418,
      "ared": 1419,
      "Ġtri": 1420,
      "ph": 1421,
      "Ġthinking": 1422,
      "Ġsign": 1423,
      "aj": 1424,
      "Ġret": 1425,
      "vers": 1426,
      "ĠDo": 1427,
      "ohn": 1428,
      "utes": 1429,
      "Ġtrue": 1430,
      "aster": 1431,
      "ered": 1432,
      "lic": 1433,
      "AY": 1434,
      "ollow": 1435,
      "actly": 1436,
      "Ġread": 1437,
      "Ġpres": 1438,
      "Ġhaving": 1439,
      "Ġpolice": 1440,
      "cess": 1441,
      "sw": 1442,
      "Ġwater": 1443,
      "ison": 1444,
      "IC": 1445,
      "Ġnum": 1446,
      "FF": 1447,
      "Wh": 1448,
      "Ġblood": 1449,
      "Ġminute": 1450,
      "enc": 1451,
      "Ġwalk": 1452,
      "Ġdeath": 1453,
      "Ġhands": 1454,
      "Ġinc": 1455,
      "Ġworking": 1456,
      "ates": 1457,
      "erest": 1458,
      "Ġob": 1459,
      "Ġsound": 1460,
      "its": 1461,
      "Ġhot": 1462,
      "ged": 1463,
      "Ġcheck": 1464,
      "Ġgave": 1465,
      "Ġyoung": 1466,
      "Ġmess": 1467,
      "Ġbeg": 1468,
      "ĠHow": 1469,
      "ump": 1470,
      "Ġlight": 1471,
      "Ġposs": 1472,
      "Ġlater": 1473,
      "Ġwonder": 1474,
      "VE": 1475,
      "Ġimp": 1476,
      "fect": 1477,
      "ding": 1478,
      "Ġdifferent": 1479,
      "Ġeyes": 1480,
      "Ġear": 1481,
      "hen": 1482,
      "Ġ5": 1483,
      "sh": 1484,
      "und": 1485,
      "ual": 1486,
      "Ġminutes": 1487,
      "led": 1488,
      "arent": 1489,
      "Ġknows": 1490,
      "Ġexpl": 1491,
      "Ġmoment": 1492,
      "Ġcrazy": 1493,
      "ete": 1494,
      "Ġinter": 1495,
      "Ġsing": 1496,
      "Ġins": 1497,
      "Ġchange": 1498,
      "000": 1499,
      "Ġeveryone": 1500,
      "uct": 1501,
      "ude": 1502,
      "raid": 1503,
      "Ġfe": 1504,
      "EA": 1505,
      "Give": 1506,
      "ST": 1507,
      "ets": 1508,
      "Ġfact": 1509,
      "Ġluck": 1510,
      "Ġbody": 1511,
      "Ġbro": 1512,
      "Ġgun": 1513,
      "hip": 1514,
      "me": 1515,
      "Ġconf": 1516,
      "atc": 1517,
      "more": 1518,
      "Ġmeans": 1519,
      "come": 1520,
      "Ġkids": 1521,
      "Ġap": 1522,
      "Ġ4": 1523,
      "ross": 1524,
      "Ġprobably": 1525,
      "ger": 1526,
      "ned": 1527,
      "Ġhit": 1528,
      "band": 1529,
      "Ġimport": 1530,
      "ĠMar": 1531,
      "Ġhuh": 1532,
      "Ġlooks": 1533,
      "Â¶": 1534,
      "ale": 1535,
      "Ġbeautiful": 1536,
      "Ġmur": 1537,
      "Ġdream": 1538,
      "head": 1539,
      "Listen": 1540,
      "Ġhon": 1541,
      "ĠHey": 1542,
      "Ġspec": 1543,
      "Ġtaking": 1544,
      "ention": 1545,
      "Ġdef": 1546,
      "Ġside": 1547,
      "to": 1548,
      "co": 1549,
      "Ġhurt": 1550,
      "te": 1551,
      "Ġasked": 1552,
      "Ġaw": 1553,
      "Ġchance": 1554,
      "Ġtimes": 1555,
      "Ġbook": 1556,
      "Ġafraid": 1557,
      "Ġpower": 1558,
      "Ġhigh": 1559,
      "any": 1560,
      "HAT": 1561,
      "Ġdaughter": 1562,
      "Ġinterest": 1563,
      "ĠIs": 1564,
      "nc": 1565,
      "usband": 1566,
      "ĠAN": 1567,
      "Ġpick": 1568,
      "Ġshot": 1569,
      "Ġbed": 1570,
      "Ġfire": 1571,
      "ĠSo": 1572,
      "Ġreason": 1573,
      "Ġinside": 1574,
      "Ġcut": 1575,
      "Ġmusic": 1576,
      "ised": 1577,
      "Ġtrou": 1578,
      "Ġsy": 1579,
      "Ġmakes": 1580,
      "Ġfree": 1581,
      "Ġmaking": 1582,
      "Ġits": 1583,
      "ina": 1584,
      "Ġcons": 1585,
      "ik": 1586,
      "ited": 1587,
      "Ġimportant": 1588,
      "Ġmine": 1589,
      "Ġcomes": 1590,
      "Ġleast": 1591,
      "uss": 1592,
      "unk": 1593,
      "Ġnews": 1594,
      "ents": 1595,
      "Ġstory": 1596,
      "Ġpain": 1597,
      "ĠIN": 1598,
      "ject": 1599,
      "ĠThank": 1600,
      "Ġforg": 1601,
      "iously": 1602,
      "eal": 1603,
      "Ġsupposed": 1604,
      "Ġansw": 1605,
      "eg": 1606,
      "men": 1607,
      "Ġagainst": 1608,
      "Ġclose": 1609,
      "UT": 1610,
      "ric": 1611,
      "Ġwin": 1612,
      "Ġfour": 1613,
      "ertain": 1614,
      "olog": 1615,
      "Ġhusband": 1616,
      "unch": 1617,
      "most": 1618,
      "Ġquestion": 1619,
      "Ġsweet": 1620,
      "Ġprot": 1621,
      "Ġcor": 1622,
      "not": 1623,
      "Ġain": 1624,
      "Ġtou": 1625,
      "rop": 1626,
      "Really": 1627,
      "Ġfollow": 1628,
      "Ġwish": 1629,
      "ames": 1630,
      "Ġhours": 1631,
      "ĠIT": 1632,
      "ĠIn": 1633,
      "by": 1634,
      "Ġspeak": 1635,
      "Ġclear": 1636,
      "Ġlaw": 1637,
      "ĠAl": 1638,
      "ĠOkay": 1639,
      "Ġparty": 1640,
      "ĠShe": 1641,
      "Nothing": 1642,
      "Ġwaiting": 1643,
      "vie": 1644,
      "Ġsent": 1645,
      "ener": 1646,
      "aid": 1647,
      "Ġcoll": 1648,
      "Ġstarted": 1649,
      "Ġinst": 1650,
      "Ġ)": 1651,
      "Ġind": 1652,
      "Ġsend": 1653,
      "Ġwatch": 1654,
      "ital": 1655,
      "ween": 1656,
      "Ġsister": 1657,
      "Ġanymore": 1658,
      "Ġfive": 1659,
      "Ġmarried": 1660,
      "amp": 1661,
      "Ġable": 1662,
      "Ġfull": 1663,
      "outh": 1664,
      "hind": 1665,
      "Ġlead": 1666,
      "Will": 1667,
      "Ch": 1668,
      "Ġfa": 1669,
      "ane": 1670,
      "arr": 1671,
      "sel": 1672,
      "oon": 1673,
      "Ġhalf": 1674,
      "Ġleg": 1675,
      "Ġquite": 1676,
      "Ġreg": 1677,
      "rought": 1678,
      "Ġtruth": 1679,
      "Ġlear": 1680,
      "ĠWell": 1681,
      "Ġeasy": 1682,
      "Ġforget": 1683,
      "ience": 1684,
      "Ġ#": 1685,
      "ene": 1686,
      "CK": 1687,
      "Ġteam": 1688,
      "anger": 1689,
      "Ġfore": 1690,
      "Ġair": 1691,
      "lcome": 1692,
      "ĠDad": 1693,
      "meric": 1694,
      "His": 1695,
      "Ġnumber": 1696,
      "Ġgoes": 1697,
      "Ġfall": 1698,
      "Ġstud": 1699,
      "Ġdog": 1700,
      "AND": 1701,
      "Ġtown": 1702,
      "Ġtrust": 1703,
      "Ġdied": 1704,
      "ĠDon": 1705,
      "ĠCl": 1706,
      "Ġexactly": 1707,
      "ush": 1708,
      "ished": 1709,
      "ok": 1710,
      "upid": 1711,
      "aken": 1712,
      "Me": 1713,
      "ĠOK": 1714,
      "ony": 1715,
      "fter": 1716,
      "Ġgets": 1717,
      "Ġfront": 1718,
      "bs": 1719,
      "ues": 1720,
      "Ġbehind": 1721,
      "Ġvis": 1722,
      "Ġdep": 1723,
      "Ġgod": 1724,
      "cer": 1725,
      "CH": 1726,
      "Qu": 1727,
      "Excuse": 1728,
      "Ġgame": 1729,
      "Ġchildren": 1730,
      "ton": 1731,
      "Ġbra": 1732,
      "Ġsim": 1733,
      "oot": 1734,
      "Ġshoot": 1735,
      "ĠChrist": 1736,
      "ering": 1737,
      "den": 1738,
      "Ġbuy": 1739,
      "iec": 1740,
      "Ġbetween": 1741,
      "Ġdisc": 1742,
      "Ġri": 1743,
      "Ġmill": 1744,
      "ĠAll": 1745,
      "Ġstre": 1746,
      "ator": 1747,
      "AM": 1748,
      "Br": 1749,
      "ĠOF": 1750,
      "Ġsex": 1751,
      "Ġbar": 1752,
      "igure": 1753,
      "AL": 1754,
      "Ġbrought": 1755,
      "ĠAn": 1756,
      "rol": 1757,
      "oor": 1758,
      "Ġthough": 1759,
      "Ġext": 1760,
      "Ġsecret": 1761,
      "br": 1762,
      "ĠDr": 1763,
      "God": 1764,
      "ines": 1765,
      "Ġfil": 1766,
      "Ġes": 1767,
      "Ġmed": 1768,
      "son": 1769,
      "Ġsn": 1770,
      "icture": 1771,
      "Ġtrouble": 1772,
      "Ġcap": 1773,
      "Ġcop": 1774,
      "cl": 1775,
      "Ġdet": 1776,
      "Ġtelling": 1777,
      "Ġland": 1778,
      "ĠSh": 1779,
      "Ġpri": 1780,
      "Ġtried": 1781,
      "ĠZ": 1782,
      "ĠAr": 1783,
      "Even": 1784,
      "Ġbuild": 1785,
      "Ġdin": 1786,
      "Ġoffice": 1787,
      "unt": 1788,
      "ole": 1789,
      "arth": 1790,
      "ĠBE": 1791,
      "iate": 1792,
      "li": 1793,
      "Ġmem": 1794,
      "Ġmil": 1795,
      "Ġfell": 1796,
      "ĠON": 1797,
      "Ġmonths": 1798,
      "ote": 1799,
      "ĠBut": 1800,
      "ĠWhy": 1801,
      "Ġexpect": 1802,
      "Ġcouple": 1803,
      "ĠWho": 1804,
      "Ġalive": 1805,
      "inc": 1806,
      "Ġpat": 1807,
      "Ġyours": 1808,
      "Ġ10": 1809,
      "Ġgirls": 1810,
      "ĠSc": 1811,
      "Ġline": 1812,
      "ief": 1813,
      "THE": 1814,
      "Ġbecome": 1815,
      "ined": 1816,
      "Ġdra": 1817,
      "ster": 1818,
      "Ġpicture": 1819,
      "entle": 1820,
      "Ġdist": 1821,
      "ĠJohn": 1822,
      "Ġcountry": 1823,
      "Ġneeds": 1824,
      "ĠRe": 1825,
      "ID": 1826,
      "osp": 1827,
      "ĠAmeric": 1828,
      "Ġaren": 1829,
      "Ġsafe": 1830,
      "Sure": 1831,
      "SE": 1832,
      "Ġdest": 1833,
      "ĠGood": 1834,
      "ats": 1835,
      "Ġorder": 1836,
      "Ġfigure": 1837,
      "Ġpull": 1838,
      "ield": 1839,
      "Ġwomen": 1840,
      "âĢ": 1841,
      "Ġalmost": 1842,
      "Ġfood": 1843,
      "Ġparent": 1844,
      "Ġwind": 1845,
      "gr": 1846,
      "leas": 1847,
      "oke": 1848,
      "Our": 1849,
      "ĠCar": 1850,
      "Ġperfect": 1851,
      "Ġstupid": 1852,
      "Ġwear": 1853,
      "Ġrid": 1854,
      "These": 1855,
      "oe": 1856,
      "Um": 1857,
      "ters": 1858,
      "Ġsort": 1859,
      "Ġ20": 1860,
      "Ġhate": 1861,
      "Ġmad": 1862,
      "Ġseems": 1863,
      "IGH": 1864,
      "Ġadv": 1865,
      "YOU": 1866,
      "Ġrep": 1867,
      "ĠNew": 1868,
      "Ġanswer": 1869,
      "Ġless": 1870,
      "ometimes": 1871,
      "Ġcool": 1872,
      "?\"": 1873,
      "Ġtrans": 1874,
      "Ġstra": 1875,
      "ards": 1876,
      "Ġpast": 1877,
      "ĠME": 1878,
      "Ġreturn": 1879,
      "Ġele": 1880,
      "Would": 1881,
      "itc": 1882,
      "Ġgra": 1883,
      "Ġmist": 1884,
      "Ġmag": 1885,
      "Ġprotect": 1886,
      "Ġplaying": 1887,
      "Ġquick": 1888,
      "Ġgrand": 1889,
      "Ġalong": 1890,
      "Ġsmall": 1891,
      "Ġshall": 1892,
      "Ġsomebody": 1893,
      "Ġeither": 1894,
      "IM": 1895,
      "ex": 1896,
      "Ġdear": 1897,
      "mp": 1898,
      "Does": 1899,
      "Ġtest": 1900,
      "Ġhuman": 1901,
      "ma": 1902,
      "ics": 1903,
      "Ġahead": 1904,
      "Ġfav": 1905,
      "rank": 1906,
      "ract": 1907,
      "Ġhor": 1908,
      "After": 1909,
      "Ġ!": 1910,
      "fort": 1911,
      "Ġ$": 1912,
      "Ġpap": 1913,
      "Ġdoctor": 1914,
      "itting": 1915,
      "Ġum": 1916,
      "Ġblack": 1917,
      "itch": 1918,
      "ĠGr": 1919,
      "Ġlose": 1920,
      "Ġeverybody": 1921,
      "AU": 1922,
      "Ġliving": 1923,
      "Ġsick": 1924,
      "irth": 1925,
      "Ġfeeling": 1926,
      "LD": 1927,
      "kes": 1928,
      "Ġboys": 1929,
      "Ġclean": 1930,
      "Dad": 1931,
      "idence": 1932,
      "Ġoutside": 1933,
      "pping": 1934,
      "ĠWhere": 1935,
      "ney": 1936,
      "ley": 1937,
      "ically": 1938,
      "Ġsave": 1939,
      "Ġtaken": 1940,
      "âĻ«": 1941,
      "Ġfunny": 1942,
      "Ġsub": 1943,
      "range": 1944,
      "Ġcity": 1945,
      "ĠCome": 1946,
      "Ġreport": 1947,
      "ere": 1948,
      "ants": 1949,
      "ead": 1950,
      "Ġspecial": 1951,
      "omm": 1952,
      "Ġattack": 1953,
      "ert": 1954,
      "Ġcry": 1955,
      "ility": 1956,
      "eed": 1957,
      "Ġhang": 1958,
      "Ġwhatever": 1959,
      "Ġexper": 1960,
      "Ġadd": 1961,
      "ĠSp": 1962,
      "Ġrecord": 1963,
      "oul": 1964,
      "Ġhey": 1965,
      "umb": 1966,
      "ef": 1967,
      "ots": 1968,
      "UN": 1969,
      "Ġdou": 1970,
      "Ġhimself": 1971,
      "ĠTHAT": 1972,
      "Ġstrong": 1973,
      "Ġcertain": 1974,
      "Ġpar": 1975,
      "Ġhair": 1976,
      "Ġsix": 1977,
      "Ġpiec": 1978,
      "KE": 1979,
      "Ġparents": 1980,
      "ĠNot": 1981,
      "Ġcomplete": 1982,
      "ev": 1983,
      "Man": 1984,
      "Ġdire": 1985,
      "Ġball": 1986,
      "ler": 1987,
      "alm": 1988,
      "ular": 1989,
      "Wow": 1990,
      "bye": 1991,
      "Ġcannot": 1992,
      "Ġtw": 1993,
      "ighs": 1994,
      "Ġresp": 1995,
      "Ġart": 1996,
      "Ġleaving": 1997,
      "uring": 1998,
      "Ġrunning": 1999,
      "Ġlady": 2000,
      "Ġlaugh": 2001,
      "Ġoffic": 2002,
      "dle": 2003,
      "ELL": 2004,
      "Ġtop": 2005,
      "Ġref": 2006,
      "Ġpossible": 2007,
      "selves": 2008,
      "Ġlives": 2009,
      "ks": 2010,
      "artment": 2011,
      "ĠBl": 2012,
      "Ġdamn": 2013,
      "ama": 2014,
      "Sir": 2015,
      "Ġnear": 2016,
      "elt": 2017,
      "ists": 2018,
      "Ġsell": 2019,
      "ury": 2020,
      "ones": 2021,
      "ĠHA": 2022,
      "Ġinform": 2023,
      "Ġsurpr": 2024,
      "ĠThis": 2025,
      "iting": 2026,
      "ĠMrs": 2027,
      "ept": 2028,
      "duc": 2029,
      "Ġpromise": 2030,
      "Which": 2031,
      "room": 2032,
      "cause": 2033,
      "Ġdinner": 2034,
      "Ġexc": 2035,
      "cle": 2036,
      "Ġcontin": 2037,
      "gy": 2038,
      "Cl": 2039,
      "Mom": 2040,
      "Ġtouch": 2041,
      "Got": 2042,
      "Ġbirth": 2043,
      "Ġclass": 2044,
      "ĠMiss": 2045,
      "RO": 2046,
      "Ġwatc": 2047,
      "Ġmillion": 2048,
      "Ġmid": 2049,
      "Ġvo": 2050,
      "haps": 2051,
      "ospital": 2052,
      "Ġsense": 2053,
      "esus": 2054,
      "ided": 2055,
      "TH": 2056,
      "Very": 2057,
      "fic": 2058,
      "Ġshut": 2059,
      "Ġhappens": 2060,
      "Ġdress": 2061,
      "Ġdanger": 2062,
      "Dr": 2063,
      "II": 2064,
      "VER": 2065,
      "Ġserious": 2066,
      "ALL": 2067,
      "Ġmeeting": 2068,
      "ides": 2069,
      "ĠLet": 2070,
      "eter": 2071,
      "ature": 2072,
      "Ġanyway": 2073,
      "aul": 2074,
      "ision": 2075,
      "Ġlie": 2076,
      "Ġ19": 2077,
      "ized": 2078,
      "Ġscared": 2079,
      "Ġfast": 2080,
      "Ġthanks": 2081,
      "ten": 2082,
      "Ġasking": 2083,
      "Ġimag": 2084,
      "ĠSe": 2085,
      "joy": 2086,
      "ĠDO": 2087,
      "Ġfre": 2088,
      "Ġterri": 2089,
      "Ġship": 2090,
      "ĠAre": 2091,
      "TER": 2092,
      "ai": 2093,
      "Ġ6": 2094,
      "Ġgentle": 2095,
      "eth": 2096,
      "Ġshouldn": 2097,
      "ows": 2098,
      "Ġseem": 2099,
      "Ġcontrol": 2100,
      "Ġkiss": 2101,
      "\".": 2102,
      "Hold": 2103,
      "Ġbull": 2104,
      "Ġcold": 2105,
      "ĠAND": 2106,
      "ĠMy": 2107,
      "erv": 2108,
      "Ġaff": 2109,
      "Ġsold": 2110,
      "Ġexplain": 2111,
      "Ġdrive": 2112,
      "Ġstar": 2113,
      "Ġ--": 2114,
      "Ġwords": 2115,
      "ĠGO": 2116,
      "Keep": 2117,
      "Was": 2118,
      "used": 2119,
      "gan": 2120,
      "bb": 2121,
      "Ġcol": 2122,
      "Two": 2123,
      "ction": 2124,
      "ities": 2125,
      "Ġsong": 2126,
      "Sp": 2127,
      "airs": 2128,
      "aptain": 2129,
      "Ġboss": 2130,
      "Ġkey": 2131,
      "Ġten": 2132,
      "olute": 2133,
      "Ġcompany": 2134,
      "cc": 2135,
      "stem": 2136,
      "arry": 2137,
      "sy": 2138,
      "Ġtreat": 2139,
      "Ġhospital": 2140,
      "Ġbeat": 2141,
      "Ġsus": 2142,
      "Ġpress": 2143,
      "Everything": 2144,
      "ĠYour": 2145,
      "ĠMom": 2146,
      "Ġfool": 2147,
      "Ġru": 2148,
      "From": 2149,
      "Ġeng": 2150,
      "Ġclos": 2151,
      "Ġpos": 2152,
      "ĠThey": 2153,
      "ming": 2154,
      "Ġbag": 2155,
      "Un": 2156,
      "Ġlonger": 2157,
      "Ã©": 2158,
      "Ġthrow": 2159,
      "Ġlock": 2160,
      "Ġroad": 2161,
      "Only": 2162,
      "Che": 2163,
      "ĠST": 2164,
      "ency": 2165,
      "rence": 2166,
      "Ġbitch": 2167,
      "Pe": 2168,
      "Ġtrain": 2169,
      "Ġphot": 2170,
      "ys": 2171,
      "Ġinvest": 2172,
      "uture": 2173,
      "Ġfly": 2174,
      "Ġpub": 2175,
      "amer": 2176,
      "ĠJust": 2177,
      "ze": 2178,
      "Ġbegin": 2179,
      ",\"": 2180,
      "Ġstep": 2181,
      "lo": 2182,
      "ution": 2183,
      "ape": 2184,
      "LY": 2185,
      "ĠIS": 2186,
      "Ġfelt": 2187,
      "Ġoh": 2188,
      "Ġknown": 2189,
      "\"?": 2190,
      "Ġbas": 2191,
      "oose": 2192,
      "ift": 2193,
      "Ġstate": 2194,
      "aur": 2195,
      "Put": 2196,
      "Ġ.": 2197,
      "Ġmurder": 2198,
      "Ġred": 2199,
      "Ġdark": 2200,
      "Ġbreat": 2201,
      "Ġtot": 2202,
      "ries": 2203,
      "Fuck": 2204,
      "sc": 2205,
      "Ġsqu": 2206,
      "hose": 2207,
      "Ġstraight": 2208,
      "Per": 2209,
      "ces": 2210,
      "Ġdisapp": 2211,
      "Ġglad": 2212,
      "illy": 2213,
      "ative": 2214,
      "aces": 2215,
      "ially": 2216,
      "Ġ9": 2217,
      "ific": 2218,
      "Could": 2219,
      "Ġdi": 2220,
      "Ġhoney": 2221,
      "Ġentire": 2222,
      "By": 2223,
      "roy": 2224,
      "azing": 2225,
      "Ġ7": 2226,
      "Ġord": 2227,
      "fess": 2228,
      "Gu": 2229,
      "ges": 2230,
      "inal": 2231,
      "zz": 2232,
      "Ġvict": 2233,
      "adies": 2234,
      "Ġfix": 2235,
      "Ġmark": 2236,
      "lex": 2237,
      "irt": 2238,
      "ging": 2239,
      "Ġesc": 2240,
      "vern": 2241,
      "Ġfoot": 2242,
      "omb": 2243,
      "Ġfault": 2244,
      "Bye": 2245,
      "Ġothers": 2246,
      "Mar": 2247,
      "Ġweird": 2248,
      "Ġcalling": 2249,
      "Ġfuture": 2250,
      "ĠChar": 2251,
      "dd": 2252,
      "Ġgrow": 2253,
      "Ġloc": 2254,
      "Am": 2255,
      "lie": 2256,
      "Ġeye": 2257,
      "Tr": 2258,
      "aven": 2259,
      "ider": 2260,
      "Ġweeks": 2261,
      "erc": 2262,
      "Ġallow": 2263,
      "Ġcatch": 2264,
      "Ġpur": 2265,
      "ĠDan": 2266,
      "Ġwall": 2267,
      "ĠCan": 2268,
      "Ġabs": 2269,
      "rap": 2270,
      "Ġworth": 2271,
      "Ġwed": 2272,
      "Ġsystem": 2273,
      "Ġserv": 2274,
      "reen": 2275,
      "Ġcreat": 2276,
      "Help": 2277,
      "atur": 2278,
      "Mm": 2279,
      "ully": 2280,
      "Ġshort": 2281,
      "Ġprison": 2282,
      "Ġexp": 2283,
      "Ġopp": 2284,
      "nie": 2285,
      "IR": 2286,
      "ĠLord": 2287,
      "Ab": 2288,
      "Ġcent": 2289,
      "ffee": 2290,
      "Ġ8": 2291,
      "Ġchanged": 2292,
      "Ġris": 2293,
      "Ġran": 2294,
      "mit": 2295,
      "Ġring": 2296,
      "Ġanybody": 2297,
      "Ġrock": 2298,
      "eor": 2299,
      "Nice": 2300,
      "ĠCha": 2301,
      "no": 2302,
      "Ġdeep": 2303,
      "Ġfeet": 2304,
      "Ġcond": 2305,
      "IGHT": 2306,
      "Ġsuper": 2307,
      "Ġ..": 2308,
      "fer": 2309,
      "Ġbox": 2310,
      "Her": 2311,
      "Ġfavor": 2312,
      "inite": 2313,
      "ae": 2314,
      "ĠThere": 2315,
      "Ġvoice": 2316,
      "Ġsun": 2317,
      "Ġ*": 2318,
      "olutely": 2319,
      "esty": 2320,
      "Ġsomewhere": 2321,
      "uation": 2322,
      "oof": 2323,
      "Ġdev": 2324,
      "Ġlooked": 2325,
      "Ġdrug": 2326,
      "Something": 2327,
      "Ġsol": 2328,
      "ĠJack": 2329,
      "Ġmeant": 2330,
      "Ġpleas": 2331,
      "key": 2332,
      "Ġworked": 2333,
      "eaking": 2334,
      "urry": 2335,
      "Ġbud": 2336,
      "Ġdate": 2337,
      "Huh": 2338,
      "ĠGo": 2339,
      "ounds": 2340,
      "Ġbott": 2341,
      "Ġturned": 2342,
      "Ġbur": 2343,
      "Ġseeing": 2344,
      "la": 2345,
      "Great": 2346,
      "ĠTo": 2347,
      "Ġrad": 2348,
      "ational": 2349,
      "ments": 2350,
      "Ġones": 2351,
      "sing": 2352,
      "ode": 2353,
      "ech": 2354,
      "Ġhappening": 2355,
      "bo": 2356,
      "arling": 2357,
      "AD": 2358,
      "Ġz": 2359,
      "Sc": 2360,
      "Ġclot": 2361,
      "Ġdem": 2362,
      "Ġking": 2363,
      "eave": 2364,
      "Fine": 2365,
      "een": 2366,
      "Ġfinally": 2367,
      "Say": 2368,
      "Ne": 2369,
      "Ġlearn": 2370,
      "but": 2371,
      "alt": 2372,
      "ĠMan": 2373,
      "Ġarri": 2374,
      "ray": 2375,
      "ru": 2376,
      "enny": 2377,
      "Ġloved": 2378,
      "Ġtre": 2379,
      "Ġmouth": 2380,
      "Ġgener": 2381,
      "Ġdance": 2382,
      "uckles": 2383,
      "Ġtill": 2384,
      "Ġpiece": 2385,
      "Ġty": 2386,
      "Ġground": 2387,
      "Ġrather": 2388,
      "Whoa": 2389,
      "Ġspend": 2390,
      "ANT": 2391,
      "Ġtem": 2392,
      "erry": 2393,
      "ele": 2394,
      "ĠWill": 2395,
      "Ġgiven": 2396,
      ".'": 2397,
      "ana": 2398,
      "Ġwrite": 2399,
      "Ġmoving": 2400,
      "Never": 2401,
      "Isn": 2402,
      "Rem": 2403,
      "rec": 2404,
      "ĠEng": 2405,
      "Ġquiet": 2406,
      "Ġtakes": 2407,
      "ĠHi": 2408,
      "ked": 2409,
      "Ġweren": 2410,
      "rat": 2411,
      "Ġquestions": 2412,
      "ron": 2413,
      "ior": 2414,
      "Ġwhite": 2415,
      "IE": 2416,
      "ousand": 2417,
      "oint": 2418,
      "Ġcur": 2419,
      "ories": 2420,
      "urity": 2421,
      "UR": 2422,
      "Ġsmell": 2423,
      "Ġcook": 2424,
      "Ġworks": 2425,
      "nect": 2426,
      "bers": 2427,
      "terday": 2428,
      "Those": 2429,
      "els": 2430,
      "uk": 2431,
      "People": 2432,
      "EE": 2433,
      "Ġchoice": 2434,
      "Ġpoor": 2435,
      "ages": 2436,
      "Ġevening": 2437,
      "ians": 2438,
      "Pro": 2439,
      "well": 2440,
      "Stay": 2441,
      "Ġang": 2442,
      "Ġrespect": 2443,
      "Ġarrest": 2444,
      "ĠMaj": 2445,
      "Ġeff": 2446,
      "icha": 2447,
      "NOW": 2448,
      "icks": 2449,
      "Cause": 2450,
      "now": 2451,
      "Ġoper": 2452,
      "ĠWh": 2453,
      "Ġenjoy": 2454,
      "...?": 2455,
      "Hmm": 2456,
      "iot": 2457,
      "Ġanim": 2458,
      "Ġer": 2459,
      "ilt": 2460,
      "Ġpresent": 2461,
      "Ġve": 2462,
      "Ġconcer": 2463,
      "Ġhist": 2464,
      "Ġlucky": 2465,
      "Bl": 2466,
      "Ġworried": 2467,
      "OME": 2468,
      "Ġamazing": 2469,
      "ara": 2470,
      "ION": 2471,
      "Ġaccept": 2472,
      "Ġwedding": 2473,
      "ives": 2474,
      "oman": 2475,
      "iff": 2476,
      "CE": 2477,
      "Ġweap": 2478,
      "Ġprep": 2479,
      "lish": 2480,
      "OD": 2481,
      "erve": 2482,
      "Ġwatching": 2483,
      "ills": 2484,
      "Ġearly": 2485,
      "Ġnobody": 2486,
      "bt": 2487,
      "ĠTom": 2488,
      "Ġneeded": 2489,
      "Ġcell": 2490,
      "ĠRo": 2491,
      "Ġgiving": 2492,
      "May": 2493,
      "elf": 2494,
      "Ġfail": 2495,
      "Ġkept": 2496,
      "Damn": 2497,
      "ĠPr": 2498,
      "initely": 2499,
      "Ġdro": 2500,
      "let": 2501,
      "Ġsounds": 2502,
      "Ġcover": 2503,
      "Ġaccident": 2504,
      "that": 2505,
      "Ġcoffee": 2506,
      "ls": 2507,
      "ĠHE": 2508,
      "Ġmarry": 2509,
      "Ġnorm": 2510,
      "Ġsto": 2511,
      "First": 2512,
      "Ġcost": 2513,
      "Ġfear": 2514,
      "Ġhid": 2515,
      "ky": 2516,
      "Ġya": 2517,
      "ĠAd": 2518,
      "ately": 2519,
      "Ġpersonal": 2520,
      "Ġcourt": 2521,
      "ean": 2522,
      "orth": 2523,
      "ken": 2524,
      "undred": 2525,
      "Ġwelcome": 2526,
      "ism": 2527,
      "Ġsuc": 2528,
      "Ġmistake": 2529,
      "Ġfair": 2530,
      "Ġdecided": 2531,
      "UST": 2532,
      "Ġmis": 2533,
      "ichael": 2534,
      "Ġproper": 2535,
      "Ġmovie": 2536,
      "Ġbusy": 2537,
      "Gr": 2538,
      "Ġill": 2539,
      "bert": 2540,
      "Ġmissing": 2541,
      "Tom": 2542,
      "Ġsad": 2543,
      "Ġthousand": 2544,
      "Shut": 2545,
      "Ġpriv": 2546,
      "udden": 2547,
      "unity": 2548,
      "Ġmod": 2549,
      "Ġhung": 2550,
      "Ġbank": 2551,
      "Ġla": 2552,
      "Ġjud": 2553,
      "Ġkidding": 2554,
      "Ġcre": 2555,
      "Act": 2556,
      "ball": 2557,
      "pper": 2558,
      "viously": 2559,
      "Ġbirthday": 2560,
      "ched": 2561,
      "ĠWE": 2562,
      "Ġconv": 2563,
      "oming": 2564,
      "Ġworse": 2565,
      "ured": 2566,
      "fully": 2567,
      "Ġdestroy": 2568,
      "ĠEx": 2569,
      "Ġhonest": 2570,
      "ĠFOR": 2571,
      "Ġclothes": 2572,
      "go": 2573,
      "Ġdoll": 2574,
      "what": 2575,
      "Ġinformation": 2576,
      "ruct": 2577,
      "Ġhop": 2578,
      "Ġrequ": 2579,
      "work": 2580,
      "Ġbuilding": 2581,
      "Ġtired": 2582,
      "Ġcaught": 2583,
      "roup": 2584,
      "aughs": 2585,
      "Shit": 2586,
      "ĠLe": 2587,
      "Leave": 2588,
      "rill": 2589,
      "Ġ15": 2590,
      "ules": 2591,
      "RA": 2592,
      "Ġed": 2593,
      "CT": 2594,
      "Ġmurd": 2595,
      "ILL": 2596,
      "Ġcir": 2597,
      "Ġpack": 2598,
      "ĠTV": 2599,
      "iol": 2600,
      "Ġma": 2601,
      "Ġride": 2602,
      "Ġrelations": 2603,
      "alking": 2604,
      "US": 2605,
      "Ġinvol": 2606,
      "Ġwonderful": 2607,
      "Ġca": 2608,
      "ĠFor": 2609,
      "Ġrespons": 2610,
      "Ġmessage": 2611,
      "avid": 2612,
      "ced": 2613,
      "Ar": 2614,
      "Ġgold": 2615,
      "ĠBe": 2616,
      "ror": 2617,
      "oud": 2618,
      "ov": 2619,
      "Ġbast": 2620,
      "Ġjoin": 2621,
      "Make": 2622,
      "Ġevidence": 2623,
      "Ġcompletely": 2624,
      "Sha": 2625,
      "hmm": 2626,
      "Ġsear": 2627,
      "ĠGet": 2628,
      "Ġvisit": 2629,
      "friend": 2630,
      "ĠFr": 2631,
      "Ġsoul": 2632,
      "amed": 2633,
      "Everyone": 2634,
      "Someone": 2635,
      "Ġsituation": 2636,
      "light": 2637,
      "Ġpatient": 2638,
      "HO": 2639,
      "ĠKing": 2640,
      "Ġstreet": 2641,
      "hel": 2642,
      "iter": 2643,
      "ĠHello": 2644,
      "Ġform": 2645,
      "ĠQ": 2646,
      "Ġgovern": 2647,
      "Ġfinish": 2648,
      "cell": 2649,
      "Ġblow": 2650,
      "Ha": 2651,
      "MAN": 2652,
      "Ġcamer": 2653,
      "Ġcross": 2654,
      "Ġenem": 2655,
      "Ġsometimes": 2656,
      "En": 2657,
      "ĠDid": 2658,
      "ices": 2659,
      "Ġinvestig": 2660,
      "Nobody": 2661,
      "Ġhundred": 2662,
      "ITH": 2663,
      "ĠSam": 2664,
      "Ġtrack": 2665,
      "ĠWAS": 2666,
      "Ġdiv": 2667,
      "Ġtable": 2668,
      "ted": 2669,
      "Ġsingle": 2670,
      "Ġpublic": 2671,
      "Ġswear": 2672,
      "ĠTHIS": 2673,
      "wards": 2674,
      "min": 2675,
      "ĠYork": 2676,
      "sp": 2677,
      "Miss": 2678,
      "ĠHER": 2679,
      "Ġinf": 2680,
      "Ġpeace": 2681,
      "Ġ12": 2682,
      "Ġcareful": 2683,
      "Ġdangerous": 2684,
      "Ġfing": 2685,
      "acy": 2686,
      "enty": 2687,
      "ĠBar": 2688,
      "ni": 2689,
      "Ġage": 2690,
      "Ġdrop": 2691,
      "Ġstrange": 2692,
      "que": 2693,
      "resident": 2694,
      "Ġpop": 2695,
      "Ġdiffic": 2696,
      "Ġburn": 2697,
      "ese": 2698,
      "idge": 2699,
      "lfriend": 2700,
      "irty": 2701,
      "Ġlying": 2702,
      "irlfriend": 2703,
      "Ġsoc": 2704,
      "riage": 2705,
      "attle": 2706,
      "ander": 2707,
      "Ġsurv": 2708,
      "Ġfish": 2709,
      "aged": 2710,
      "Call": 2711,
      "gn": 2712,
      "gu": 2713,
      "Ġmiddle": 2714,
      "Ġvictim": 2715,
      "Ġcamp": 2716,
      "Ġconnect": 2717,
      "Ġpaper": 2718,
      "Pl": 2719,
      "che": 2720,
      "ius": 2721,
      "uts": 2722,
      "Ġcontact": 2723,
      "Ġcarry": 2724,
      "ONE": 2725,
      "Ġuni": 2726,
      "Ġoffer": 2727,
      "Ġhasn": 2728,
      "NA": 2729,
      "Ġborn": 2730,
      "Ġsal": 2731,
      "une": 2732,
      "ective": 2733,
      "Hurry": 2734,
      "Ġbroke": 2735,
      "Ġsum": 2736,
      "ĠFrank": 2737,
      "Ġmot": 2738,
      "Ġ30": 2739,
      "acher": 2740,
      "Ġhistory": 2741,
      "Remember": 2742,
      "ENT": 2743,
      "Ġacross": 2744,
      "how": 2745,
      "Ġstri": 2746,
      "Ġexam": 2747,
      "for": 2748,
      "Ġgentlemen": 2749,
      "Ġyesterday": 2750,
      "vo": 2751,
      "Ġcard": 2752,
      "Ġmention": 2753,
      "set": 2754,
      "read": 2755,
      "AUGH": 2756,
      "ures": 2757,
      "Ġbath": 2758,
      "Ġmach": 2759,
      "Move": 2760,
      "mas": 2761,
      "ional": 2762,
      "Ġapolog": 2763,
      "itness": 2764,
      "urch": 2765,
      "Ġpaid": 2766,
      "OH": 2767,
      "ĠLI": 2768,
      "ume": 2769,
      "ĠInd": 2770,
      "Ġfinished": 2771,
      "Ġhero": 2772,
      "ĠGu": 2773,
      "Ġletter": 2774,
      "Ġslow": 2775,
      "Ġtast": 2776,
      "Actually": 2777,
      "uri": 2778,
      "Ġthinks": 2779,
      "Ġpract": 2780,
      "Should": 2781,
      "atic": 2782,
      "Ġrece": 2783,
      "Ġtalked": 2784,
      "roud": 2785,
      "Didn": 2786,
      "Ġsil": 2787,
      "ires": 2788,
      "Ġsudden": 2789,
      "....": 2790,
      "WE": 2791,
      "rect": 2792,
      "Ġpot": 2793,
      "Ġjump": 2794,
      "Ġanywhere": 2795,
      "iny": 2796,
      "ears": 2797,
      "Ġvill": 2798,
      "Ġcat": 2799,
      "Ġusing": 2800,
      "ĠSha": 2801,
      "ains": 2802,
      "Ġdifficult": 2803,
      "ĠMY": 2804,
      "ĠChe": 2805,
      "omp": 2806,
      "Whatever": 2807,
      "Ġfloor": 2808,
      "Ġhandle": 2809,
      "Ġforever": 2810,
      "ager": 2811,
      "Ġsuppose": 2812,
      "ris": 2813,
      "Ġbrain": 2814,
      "Ġhide": 2815,
      "ĠOf": 2816,
      "Ġroll": 2817,
      "iam": 2818,
      "Ġlist": 2819,
      "ored": 2820,
      "tern": 2821,
      "Ġtick": 2822,
      "Ġsimple": 2823,
      "ili": 2824,
      "ulations": 2825,
      "ighb": 2826,
      "Since": 2827,
      "ĠMc": 2828,
      "Ġstation": 2829,
      "Ġdrunk": 2830,
      "Ġsupport": 2831,
      "Ġsea": 2832,
      "Ġround": 2833,
      "Ok": 2834,
      "Ġduring": 2835,
      "Ġlab": 2836,
      "ission": 2837,
      "Ġbelong": 2838,
      "Welcome": 2839,
      "ĠAm": 2840,
      "icking": 2841,
      "olly": 2842,
      "uge": 2843,
      "Ġarm": 2844,
      "RI": 2845,
      "Ġtotally": 2846,
      "Ġself": 2847,
      "ĠAs": 2848,
      "ucks": 2849,
      "uel": 2850,
      "enn": 2851,
      "Ġdirect": 2852,
      "Ġterrible": 2853,
      "Ġhurry": 2854,
      "Ġwake": 2855,
      "do": 2856,
      "Ġthreat": 2857,
      "itive": 2858,
      "ĠRight": 2859,
      "view": 2860,
      "ĠYOUR": 2861,
      "Ġsaved": 2862,
      "ring": 2863,
      "Ġgirlfriend": 2864,
      "Ġsitting": 2865,
      "tle": 2866,
      "ently": 2867,
      "Ġagree": 2868,
      "Ġappro": 2869,
      "OP": 2870,
      "hol": 2871,
      "eorge": 2872,
      "ching": 2873,
      "noc": 2874,
      "ĠNOT": 2875,
      "ĠPar": 2876,
      "stairs": 2877,
      "Ġtrip": 2878,
      "avy": 2879,
      "ossible": 2880,
      "Ġnormal": 2881,
      "Ġstick": 2882,
      "Ooh": 2883,
      "Ġpost": 2884,
      "Ġbought": 2885,
      "Ġkick": 2886,
      "owers": 2887,
      "ald": 2888,
      "Ġforgot": 2889,
      "Ġspace": 2890,
      "ĠMajesty": 2891,
      "llen": 2892,
      "Car": 2893,
      "ino": 2894,
      "Ġblue": 2895,
      "OULD": 2896,
      "Ġtur": 2897,
      "Ġsecurity": 2898,
      "RY": 2899,
      "Ġsteal": 2900,
      "night": 2901,
      "Ġneighb": 2902,
      "Ġval": 2903,
      "ĠKNOW": 2904,
      "yer": 2905,
      "Ġearth": 2906,
      "ĠÂ¶": 2907,
      "rench": 2908,
      "Ġarea": 2909,
      "Ġglass": 2910,
      "ĠPh": 2911,
      "Ġdarling": 2912,
      "Think": 2913,
      "Ġproblems": 2914,
      "Ġfield": 2915,
      "ĠEd": 2916,
      "Ġcharge": 2917,
      "ongrat": 2918,
      "Ġdefinitely": 2919,
      "ns": 2920,
      "Ġmain": 2921,
      "ĠHAVE": 2922,
      "ulous": 2923,
      "Looks": 2924,
      "Ġbother": 2925,
      "Ġice": 2926,
      "Ġfilm": 2927,
      "Ġsat": 2928,
      "Ġ100": 2929,
      "Ġproud": 2930,
      "time": 2931,
      "Ġcrime": 2932,
      "ogn": 2933,
      "Everybody": 2934,
      "Ġir": 2935,
      "ĠCaptain": 2936,
      "Ġstopped": 2937,
      "!\"": 2938,
      "Ġangry": 2939,
      "inct": 2940,
      "Three": 2941,
      "reet": 2942,
      "Ġsuff": 2943,
      "Ġeight": 2944,
      "Ġdare": 2945,
      "ĠAb": 2946,
      "Ġlunch": 2947,
      "Ġwearing": 2948,
      "astic": 2949,
      "ĠGer": 2950,
      "Ġtor": 2951,
      "Ġlar": 2952,
      "Ġinterested": 2953,
      "Ġsmart": 2954,
      "ination": 2955,
      "ium": 2956,
      "oly": 2957,
      "Ġhorse": 2958,
      "Ġfill": 2959,
      "Ġmissed": 2960,
      "Ġgroup": 2961,
      "Ġsugg": 2962,
      "Ġemp": 2963,
      "About": 2964,
      "Ġhotel": 2965,
      "Ġkilling": 2966,
      "Ġsuggest": 2967,
      "gent": 2968,
      "Ġstore": 2969,
      "just": 2970,
      "Ġinteresting": 2971,
      "Ġcust": 2972,
      "Ġgas": 2973,
      "Ġcalls": 2974,
      "amb": 2975,
      "PP": 2976,
      "noon": 2977,
      "Ġrelationship": 2978,
      "'?": 2979,
      "Ġladies": 2980,
      "uty": 2981,
      "ĠLook": 2982,
      "ounc": 2983,
      "NO": 2984,
      "Ġbase": 2985,
      "Ġtech": 2986,
      "uter": 2987,
      "ĠMe": 2988,
      "Ġchick": 2989,
      "Ġpun": 2990,
      "Ġscream": 2991,
      "Sit": 2992,
      "Ġgen": 2993,
      "Ġimagine": 2994,
      "Ġforce": 2995,
      "Ġbuddy": 2996,
      "Ġemb": 2997,
      "Ġposition": 2998,
      "Ġmagic": 2999,
      "Ġocc": 3000,
      "ĠMin": 3001,
      "ĠIf": 3002,
      "ĠAt": 3003,
      "Ġscene": 3004,
      "Ġhy": 3005,
      "Anyway": 3006,
      "Try": 3007,
      "over": 3008,
      "OUT": 3009,
      "iday": 3010,
      "Ġclub": 3011,
      "of": 3012,
      "Ġpray": 3013,
      "mediate": 3014,
      "gue": 3015,
      "KING": 3016,
      "cent": 3017,
      "ugg": 3018,
      "oday": 3019,
      "ĠEarth": 3020,
      "Ġiss": 3021,
      "oring": 3022,
      "Ġaccount": 3023,
      "ĠThanks": 3024,
      "Ġcirc": 3025,
      "Ġseven": 3026,
      "ĠCol": 3027,
      "ĠAmerican": 3028,
      "ĠPro": 3029,
      "Ġcas": 3030,
      "ĠTr": 3031,
      "ĠPresident": 3032,
      "Ġequ": 3033,
      "Ġlovely": 3034,
      "Ġboat": 3035,
      "lin": 3036,
      "Ġbird": 3037,
      "Ġimmediate": 3038,
      "Ġboyfriend": 3039,
      "Ġest": 3040,
      "hard": 3041,
      "ived": 3042,
      "Ġexcuse": 3043,
      "Ġservice": 3044,
      "Ġidiot": 3045,
      "Open": 3046,
      "Ġseat": 3047,
      "Ġfat": 3048,
      "oun": 3049,
      "reed": 3050,
      "hys": 3051,
      "âĢĵ": 3052,
      "Ġviol": 3053,
      "uro": 3054,
      "Ġinstead": 3055,
      "Ġshare": 3056,
      "Ġscrew": 3057,
      "Ġforward": 3058,
      "aff": 3059,
      "Ġpal": 3060,
      "ancy": 3061,
      "Perhaps": 3062,
      "cri": 3063,
      "Ġgovernment": 3064,
      "Ġextra": 3065,
      "UCK": 3066,
      "Ġmarriage": 3067,
      "Ġapartment": 3068,
      "aim": 3069,
      "Ġseconds": 3070,
      "Ġstanding": 3071,
      "ĠMart": 3072,
      "ĠNE": 3073,
      "Ġplane": 3074,
      "John": 3075,
      "Ġcause": 3076,
      "Ġcalm": 3077,
      "Ġdraw": 3078,
      "Ġsuspect": 3079,
      "Ġspent": 3080,
      "Ġinvolved": 3081,
      "Ġapprec": 3082,
      "Ġbeha": 3083,
      "Ġprop": 3084,
      "ĠComm": 3085,
      "ĠSir": 3086,
      "ĠCon": 3087,
      "ĠOn": 3088,
      "ails": 3089,
      "line": 3090,
      "Ġbomb": 3091,
      "ending": 3092,
      "Over": 3093,
      "Watch": 3094,
      "Ġwitness": 3095,
      "onel": 3096,
      "Ġtea": 3097,
      "Ġdiscuss": 3098,
      "Ġmiles": 3099,
      "Ġwindow": 3100,
      "Ġrecogn": 3101,
      "ĠAmerica": 3102,
      "hood": 3103,
      "Once": 3104,
      "LA": 3105,
      "ĠEl": 3106,
      "Ġrob": 3107,
      "Ġspir": 3108,
      "Ġsuccess": 3109,
      "itten": 3110,
      "ĠMad": 3111,
      "Ġquickly": 3112,
      "ka": 3113,
      "Ġgift": 3114,
      "irm": 3115,
      "Ġmir": 3116,
      "ica": 3117,
      "Ġafternoon": 3118,
      "Ġtele": 3119,
      "Ġbastard": 3120,
      "Ġrich": 3121,
      "Ġsurprise": 3122,
      "ern": 3123,
      "Ġrealize": 3124,
      "Ġdoubt": 3125,
      "elebr": 3126,
      "Ġliked": 3127,
      "ĠWITH": 3128,
      "ffic": 3129,
      "yn": 3130,
      "Jesus": 3131,
      "Ġband": 3132,
      "ĠPaul": 3133,
      "ibility": 3134,
      "mb": 3135,
      "Ġsake": 3136,
      "ption": 3137,
      "LO": 3138,
      "ĠMa": 3139,
      "ĠBen": 3140,
      "ĠUn": 3141,
      "Ġbill": 3142,
      "Ġloves": 3143,
      "Ġdying": 3144,
      "Ġlow": 3145,
      "ecially": 3146,
      "Ġdanc": 3147,
      "verse": 3148,
      "aced": 3149,
      "unting": 3150,
      "Ġdeli": 3151,
      "cha": 3152,
      "uit": 3153,
      "Ġbecame": 3154,
      "Ġalright": 3155,
      "ising": 3156,
      "ien": 3157,
      "Ġpartic": 3158,
      "Ġlikes": 3159,
      "het": 3160,
      "gel": 3161,
      "Ġimpress": 3162,
      "por": 3163,
      "'.": 3164,
      "Ġpen": 3165,
      "Ġjoke": 3166,
      "oop": 3167,
      "ĠJim": 3168,
      "bed": 3169,
      "Ġmaster": 3170,
      "ĠNow": 3171,
      "like": 3172,
      "ĠSH": 3173,
      "ongratulations": 3174,
      "Ġlived": 3175,
      "Ġann": 3176,
      "Ġfighting": 3177,
      "ining": 3178,
      "ĠWHAT": 3179,
      "Ġfeels": 3180,
      "Ġheal": 3181,
      "Ġoften": 3182,
      "Ġbroken": 3183,
      "eve": 3184,
      "ege": 3185,
      "Ġjail": 3186,
      "Ġ50": 3187,
      "ibly": 3188,
      "ĠBob": 3189,
      "Bet": 3190,
      "ĠDON": 3191,
      "Ġclient": 3192,
      "Ġelect": 3193,
      "ral": 3194,
      "ĠJoe": 3195,
      "Ġble": 3196,
      "Ġda": 3197,
      "ified": 3198,
      "Char": 3199,
      "ended": 3200,
      "resh": 3201,
      "Ġlevel": 3202,
      "damn": 3203,
      "aint": 3204,
      "Ser": 3205,
      "Ġbear": 3206,
      "Ġprofess": 3207,
      "gram": 3208,
      "ĠCAN": 3209,
      "ajor": 3210,
      "ĠHere": 3211,
      "Ġfur": 3212,
      "ĠMay": 3213,
      "Ġwrote": 3214,
      "Ġdecision": 3215,
      "Ġlay": 3216,
      "PS": 3217,
      "Ġmoved": 3218,
      "ĠChristmas": 3219,
      "LES": 3220,
      "Ġtree": 3221,
      "Ġpsy": 3222,
      "ĠOr": 3223,
      "gar": 3224,
      "uthor": 3225,
      "yle": 3226,
      "igg": 3227,
      "ĠOne": 3228,
      "Ġhungry": 3229,
      "Ġupset": 3230,
      "Alright": 3231,
      "Ad": 3232,
      "enry": 3233,
      "Ġcomfort": 3234,
      "Ġmachine": 3235,
      "Ġ18": 3236,
      "Ġwalking": 3237,
      "Ġboard": 3238,
      "esides": 3239,
      "Ġwithin": 3240,
      "ify": 3241,
      "Ġcertainly": 3242,
      "Ġcelebr": 3243,
      "ĠFather": 3244,
      "asy": 3245,
      "Ġreach": 3246,
      "Ġattention": 3247,
      "Ġwood": 3248,
      "âĢİ": 3249,
      "ĠHar": 3250,
      "Ġconst": 3251,
      "eng": 3252,
      "Ġexist": 3253,
      "ncle": 3254,
      "Ġpolit": 3255,
      "lt": 3256,
      "Ġdam": 3257,
      "Ġdriving": 3258,
      "ya": 3259,
      "uce": 3260,
      "Ġpresident": 3261,
      "WHAT": 3262,
      "itchen": 3263,
      "Ġaddress": 3264,
      "Ġkiller": 3265,
      "Ġplanet": 3266,
      "Cle": 3267,
      "Ġlim": 3268,
      "Ġnecess": 3269,
      "Ġforgive": 3270,
      "**": 3271,
      "Ġhuge": 3272,
      "hole": 3273,
      "Ġtar": 3274,
      "ĠWhen": 3275,
      "ploy": 3276,
      "lor": 3277,
      "Ġguest": 3278,
      "Ġorgan": 3279,
      "Ġdig": 3280,
      "THAT": 3281,
      "itor": 3282,
      "duct": 3283,
      "More": 3284,
      "Today": 3285,
      "Ġneck": 3286,
      "eneral": 3287,
      "nal": 3288,
      "Ġarmy": 3289,
      "Ġbeginning": 3290,
      "Ġstarting": 3291,
      "pens": 3292,
      "ĠARE": 3293,
      "ument": 3294,
      "Ġprove": 3295,
      "Sometimes": 3296,
      "Ġmount": 3297,
      "Ġtough": 3298,
      "Ġeating": 3299,
      "ĠLO": 3300,
      "wise": 3301,
      "ĠCH": 3302,
      "HER": 3303,
      "Next": 3304,
      "Ġdude": 3305,
      "Ġyell": 3306,
      "Ġsens": 3307,
      "Ġcab": 3308,
      "heart": 3309,
      "Ġpark": 3310,
      "Ġmission": 3311,
      "Ġmass": 3312,
      "Ġprivate": 3313,
      "Ġcamera": 3314,
      "Ġident": 3315,
      "Ġabsolutely": 3316,
      "Î¿": 3317,
      "Ġshar": 3318,
      "appy": 3319,
      "Ġhonor": 3320,
      "Ġpleasure": 3321,
      "Ġknock": 3322,
      "lier": 3323,
      "rey": 3324,
      "ham": 3325,
      "uke": 3326,
      "Ġperform": 3327,
      "ĠJesus": 3328,
      "50": 3329,
      "ches": 3330,
      "ĠMor": 3331,
      "ĠSu": 3332,
      "Ġwhether": 3333,
      "ĠAh": 3334,
      "Mmm": 3335,
      "Ġthird": 3336,
      "IST": 3337,
      "Out": 3338,
      "Mrs": 3339,
      "phone": 3340,
      "Ġteach": 3341,
      "RUN": 3342,
      "Ġcow": 3343,
      "Ġradio": 3344,
      "ishing": 3345,
      "ends": 3346,
      "Ġdifference": 3347,
      "Ġprov": 3348,
      "omes": 3349,
      "Ġweak": 3350,
      "Ġfeed": 3351,
      "Before": 3352,
      "Ġimpossible": 3353,
      "ĠJo": 3354,
      "Love": 3355,
      "ĠUh": 3356,
      "ergy": 3357,
      "aked": 3358,
      "30": 3359,
      "Ġremind": 3360,
      "ita": 3361,
      "ened": 3362,
      "year": 3363,
      "Ġlawyer": 3364,
      "bel": 3365,
      "ram": 3366,
      "ĠFran": 3367,
      "Ġconvers": 3368,
      "Ġnone": 3369,
      "Ġjour": 3370,
      "ĠEm": 3371,
      "Ġcrack": 3372,
      "ĠGET": 3373,
      "eared": 3374,
      "Ġrules": 3375,
      "Turn": 3376,
      "arm": 3377,
      "icated": 3378,
      "ND": 3379,
      "za": 3380,
      "ca": 3381,
      "ox": 3382,
      "Ġaut": 3383,
      "Ġmatch": 3384,
      "Ġpartner": 3385,
      "GE": 3386,
      "Ġholding": 3387,
      "ĠOUT": 3388,
      "Ġinnoc": 3389,
      "Ġbell": 3390,
      "ĠFrench": 3391,
      "ĠEnglish": 3392,
      "Ġenemy": 3393,
      "Ġstuck": 3394,
      "Anything": 3395,
      "Ġofficer": 3396,
      "uzz": 3397,
      "erm": 3398,
      "Ġexcept": 3399,
      "ording": 3400,
      "Ġdesign": 3401,
      "Ġspot": 3402,
      "Ġimmediately": 3403,
      "yl": 3404,
      "Ġexperience": 3405,
      "ises": 3406,
      "Ġegg": 3407,
      "ki": 3408,
      "Ġchoose": 3409,
      "Ġtravel": 3410,
      "Ġfaith": 3411,
      "roll": 3412,
      "LING": 3413,
      "Bring": 3414,
      "ĠWas": 3415,
      "nel": 3416,
      "Ġide": 3417,
      "ena": 3418,
      "Ġunc": 3419,
      "Ġevil": 3420,
      "DO": 3421,
      "geant": 3422,
      "Ġnamed": 3423,
      "ĠÃ": 3424,
      "SO": 3425,
      "off": 3426,
      "Ġpassed": 3427,
      "law": 3428,
      "Ġtrick": 3429,
      "Ġpromised": 3430,
      "Ġsac": 3431,
      "host": 3432,
      "de": 3433,
      "Ġgay": 3434,
      "...\"": 3435,
      "Ġste": 3436,
      "Ġant": 3437,
      "duce": 3438,
      "bit": 3439,
      "Ġstaying": 3440,
      "TO": 3441,
      "ply": 3442,
      "Still": 3443,
      "ĠUS": 3444,
      "Ġfinal": 3445,
      "ids": 3446,
      "Ġshop": 3447,
      "Ġprec": 3448,
      "Ġdreams": 3449,
      "ERS": 3450,
      "icide": 3451,
      "Ġhi": 3452,
      "under": 3453,
      "Ġquit": 3454,
      "uten": 3455,
      "Ġconsider": 3456,
      "Ġvide": 3457,
      "Ġescape": 3458,
      "Ġblock": 3459,
      "fet": 3460,
      "Ġupon": 3461,
      "ĠDavid": 3462,
      "Ġtype": 3463,
      "ondon": 3464,
      "ĠHigh": 3465,
      "bl": 3466,
      "Ġnatur": 3467,
      "Ġrisk": 3468,
      "Ġshoes": 3469,
      "iculous": 3470,
      "Ġwine": 3471,
      "ato": 3472,
      "aching": 3473,
      "Ġrace": 3474,
      "ppy": 3475,
      "ucker": 3476,
      "Ġblind": 3477,
      "Ġcontinue": 3478,
      "inary": 3479,
      "sec": 3480,
      "ĠQu": 3481,
      "ervous": 3482,
      "Ġbab": 3483,
      "Ġworst": 3484,
      "Ġarms": 3485,
      "Ġcash": 3486,
      "Ġspeaking": 3487,
      "Ġcollege": 3488,
      "ĠUP": 3489,
      "Ġpictures": 3490,
      "Back": 3491,
      "Ġphys": 3492,
      "Ġkitchen": 3493,
      "Ġteacher": 3494,
      "Ġgives": 3495,
      "CRE": 3496,
      "Ġdirty": 3497,
      "itted": 3498,
      "Ġsuit": 3499,
      "Ġappreciate": 3500,
      "Aw": 3501,
      "ĠCharlie": 3502,
      "Ġlt": 3503,
      "Ġok": 3504,
      "Ġwaste": 3505,
      "ĠMike": 3506,
      "Ġbattle": 3507,
      "Sm": 3508,
      "ĠâĻ«": 3509,
      "Ġsand": 3510,
      "Ġsleeping": 3511,
      "Ġguard": 3512,
      "Ġaud": 3513,
      "reme": 3514,
      "unts": 3515,
      "itary": 3516,
      "Ġlistening": 3517,
      "iced": 3518,
      "eral": 3519,
      "iew": 3520,
      "apan": 3521,
      "ueen": 3522,
      "ĠReally": 3523,
      "Ġcops": 3524,
      "Ġallowed": 3525,
      "ĠSer": 3526,
      "Ġcorrect": 3527,
      "osh": 3528,
      "Ġprice": 3529,
      "ĠALL": 3530,
      "Ġgar": 3531,
      "Ġpregn": 3532,
      "ology": 3533,
      "Ġlearned": 3534,
      "esome": 3535,
      "Ġwhoa": 3536,
      "Ġrain": 3537,
      "Ġtight": 3538,
      "FFFF": 3539,
      "Ġcomputer": 3540,
      "Ġmate": 3541,
      "Ġcrying": 3542,
      "Ġengine": 3543,
      "wood": 3544,
      "Ġresult": 3545,
      "Ġeh": 3546,
      "ached": 3547,
      "Ġwarm": 3548,
      "Ġheaven": 3549,
      "Ġputting": 3550,
      "AKE": 3551,
      "Ġfort": 3552,
      "urs": 3553,
      "Ġsky": 3554,
      "Ġskin": 3555,
      "AB": 3556,
      "Ġcute": 3557,
      "Ġchallen": 3558,
      "RUNT": 3559,
      "Ġcharac": 3560,
      "Ġ11": 3561,
      "Ġenergy": 3562,
      "Ġwild": 3563,
      "Ġcollect": 3564,
      "Last": 3565,
      "Ġpiss": 3566,
      "Ġrelax": 3567,
      "Ġopport": 3568,
      "UM": 3569,
      "Ġchurch": 3570,
      "Ġourselves": 3571,
      "Ġbuilt": 3572,
      "Ġorders": 3573,
      "Ġfeelings": 3574,
      "Dan": 3575,
      "Ġdrugs": 3576,
      "Ġuncle": 3577,
      "Ġhost": 3578,
      "iles": 3579,
      "iment": 3580,
      "Ġperhaps": 3581,
      "Ġthemselves": 3582,
      "velop": 3583,
      "Ġintro": 3584,
      "can": 3585,
      "Ġnervous": 3586,
      "ĠAB": 3587,
      "ĠDe": 3588,
      "ners": 3589,
      "ART": 3590,
      "ivil": 3591,
      "Ġsword": 3592,
      "ping": 3593,
      "Ġrev": 3594,
      "asc": 3595,
      "utenant": 3596,
      "iety": 3597,
      "ĠGrand": 3598,
      "Ġhello": 3599,
      "ĠJames": 3600,
      "Ġemer": 3601,
      "Ġtruck": 3602,
      "Aah": 3603,
      "Ġauthor": 3604,
      "ĠMichael": 3605,
      "Ġdel": 3606,
      "Ġspl": 3607,
      "iers": 3608,
      "Ġclaim": 3609,
      "Ġtarget": 3610,
      "Ġfired": 3611,
      "gency": 3612,
      "Ġblame": 3613,
      "Ġcrim": 3614,
      "yan": 3615,
      "Ġpicked": 3616,
      "Ġweapon": 3617,
      "ACK": 3618,
      "Want": 3619,
      "Ġowe": 3620,
      "ĠAT": 3621,
      "ĠGeorge": 3622,
      "arently": 3623,
      "Too": 3624,
      "Ġ,": 3625,
      "Ġclosed": 3626,
      "ĠHERE": 3627,
      "Ġeverywhere": 3628,
      "Ġhall": 3629,
      "cking": 3630,
      "Ġsearch": 3631,
      "ĠAS": 3632,
      "Ġhadn": 3633,
      "Ġsight": 3634,
      "Ġbooks": 3635,
      "ĠWait": 3636,
      "bing": 3637,
      "Ġcal": 3638,
      "Ġherself": 3639,
      "Ġvillage": 3640,
      "Ġnames": 3641,
      "ands": 3642,
      "rowd": 3643,
      "Ġdollars": 3644,
      "ule": 3645,
      "Ġremain": 3646,
      "ĠLee": 3647,
      "Ġcrap": 3648,
      "Ġpressure": 3649,
      "gest": 3650,
      "house": 3651,
      "Ġarrived": 3652,
      "chan": 3653,
      "rog": 3654,
      "Somebody": 3655,
      "fast": 3656,
      "gin": 3657,
      "IND": 3658,
      "aring": 3659,
      "Ġhol": 3660,
      "Con": 3661,
      "IL": 3662,
      "ĠMm": 3663,
      "ĠLuc": 3664,
      "ades": 3665,
      "ĠSm": 3666,
      "Ġview": 3667,
      "ĠParis": 3668,
      "Ġearlier": 3669,
      "Mother": 3670,
      "aret": 3671,
      "ĠLIKE": 3672,
      "imate": 3673,
      "Ġbigger": 3674,
      "Ġden": 3675,
      "ĠNO": 3676,
      "Father": 3677,
      "Ġrese": 3678,
      "ĠJUST": 3679,
      "uly": 3680,
      "Ġwilling": 3681,
      "Forget": 3682,
      "Ġprogram": 3683,
      "Ġisland": 3684,
      "Ġseriously": 3685,
      "Ġevent": 3686,
      "otten": 3687,
      "Ġtaste": 3688,
      "pin": 3689,
      "Ġmajor": 3690,
      "ichard": 3691,
      "ĠHis": 3692,
      "Ġrestaur": 3693,
      "Ġcustom": 3694,
      "ĠJul": 3695,
      "Le": 3696,
      "ances": 3697,
      "Ġlaughing": 3698,
      "Ġthr": 3699,
      "Ġneg": 3700,
      "ĠLou": 3701,
      "Ġtour": 3702,
      "ata": 3703,
      "gain": 3704,
      "Ġdecide": 3705,
      "ĠAlex": 3706,
      "eff": 3707,
      "ĠSO": 3708,
      "shit": 3709,
      "Ġaction": 3710,
      "ille": 3711,
      "dom": 3712,
      "iant": 3713,
      "Ġchat": 3714,
      "Ġridiculous": 3715,
      "fortun": 3716,
      "Ġcast": 3717,
      "Ġcred": 3718,
      "ĠPlease": 3719,
      "though": 3720,
      "Ġcontract": 3721,
      "Ġjudge": 3722,
      "Has": 3723,
      "fit": 3724,
      "olice": 3725,
      "Honey": 3726,
      "ĠLondon": 3727,
      "Ġplayed": 3728,
      "Ġfurther": 3729,
      "Ġlocked": 3730,
      "Ġfinger": 3731,
      "10": 3732,
      "huh": 3733,
      "Ġfresh": 3734,
      "ask": 3735,
      "ceed": 3736,
      "Ġplaces": 3737,
      "Ġpush": 3738,
      "Ġhelped": 3739,
      "Ġapart": 3740,
      "ĠHave": 3741,
      "ement": 3742,
      "icle": 3743,
      "Ġdrinking": 3744,
      "ero": 3745,
      "Ġfol": 3746,
      "Ġmoon": 3747,
      "Ġfant": 3748,
      "Ġspirit": 3749,
      "EM": 3750,
      "Ġvol": 3751,
      "Ġbrothers": 3752,
      "Ġchair": 3753,
      "arrass": 3754,
      "sighs": 3755,
      "Ġways": 3756,
      "isa": 3757,
      "Under": 3758,
      "ĠWith": 3759,
      "erk": 3760,
      "aning": 3761,
      "Aren": 3762,
      "stood": 3763,
      "Ġsoft": 3764,
      "Ġplans": 3765,
      "ipe": 3766,
      "col": 3767,
      "Ġmedic": 3768,
      "lect": 3769,
      "Ġstreng": 3770,
      "Ġfoc": 3771,
      "ads": 3772,
      "Ġstole": 3773,
      "angu": 3774,
      "Ġfit": 3775,
      "Ġproject": 3776,
      "Ġinnocent": 3777,
      "Run": 3778,
      "con": 3779,
      "Ġfavorite": 3780,
      "Ġwriting": 3781,
      "EAH": 3782,
      "ĠDaddy": 3783,
      "Ġsle": 3784,
      "olf": 3785,
      "ini": 3786,
      "epar": 3787,
      "Ġdeserve": 3788,
      "aded": 3789,
      "ilty": 3790,
      "oned": 3791,
      "Ġnotice": 3792,
      "ĠRIGHT": 3793,
      "oger": 3794,
      "Ġflight": 3795,
      "Ġlegs": 3796,
      "Ġsummer": 3797,
      "Ġ40": 3798,
      "Ġswim": 3799,
      "ĠDoctor": 3800,
      "Ġadm": 3801,
      "Ġabove": 3802,
      "ĠBrit": 3803,
      "val": 3804,
      "ĠPl": 3805,
      "va": 3806,
      "Ġhook": 3807,
      "ĠGreat": 3808,
      "Ġorig": 3809,
      "Ġunless": 3810,
      "Ġbreath": 3811,
      "Ġincred": 3812,
      "Ġcup": 3813,
      "roat": 3814,
      "Ġobs": 3815,
      "ĠThen": 3816,
      "ĠPeter": 3817,
      "overed": 3818,
      "Ġtechn": 3819,
      "Ġspeed": 3820,
      "Ġbathroom": 3821,
      "yal": 3822,
      "Ġbri": 3823,
      "venge": 3824,
      "aly": 3825,
      "Check": 3826,
      "ĠSure": 3827,
      "Jack": 3828,
      "raph": 3829,
      "iving": 3830,
      "Ġfac": 3831,
      "Ġcommun": 3832,
      "Time": 3833,
      "Ġlord": 3834,
      "ented": 3835,
      "ĠRuss": 3836,
      "ORE": 3837,
      "Ġpan": 3838,
      "Ġfamous": 3839,
      "Ġsmoke": 3840,
      "Ġembarrass": 3841,
      "Ġpregnant": 3842,
      "Ġchamp": 3843,
      "Ġpus": 3844,
      "iling": 3845,
      "Ġsurprised": 3846,
      "Ma": 3847,
      "Ġhiding": 3848,
      "Ġmeat": 3849,
      "Ġ0": 3850,
      "ĠMary": 3851,
      "Ġemot": 3852,
      "Mor": 3853,
      "Ġbunch": 3854,
      "ĠCity": 3855,
      "Ġcommon": 3856,
      "Ġbloody": 3857,
      "Ġtwice": 3858,
      "Ġusually": 3859,
      "ĠPark": 3860,
      "Ġharm": 3861,
      "Ġfigured": 3862,
      "Ġinterview": 3863,
      "Ġur": 3864,
      "ĠFred": 3865,
      "Ġrepl": 3866,
      "âĻªâĻª": 3867,
      "Ġcommand": 3868,
      "App": 3869,
      "IG": 3870,
      "boy": 3871,
      "Ġtax": 3872,
      "OUGH": 3873,
      "Ġgang": 3874,
      "arah": 3875,
      "Ġbeer": 3876,
      "ĠJapan": 3877,
      "Ġhelping": 3878,
      "Ġassist": 3879,
      "Ġpig": 3880,
      "Ġmemory": 3881,
      "Sam": 3882,
      "ĠSP": 3883,
      "Ġvan": 3884,
      "Ġlocal": 3885,
      "Ow": 3886,
      "vious": 3887,
      "Ġitself": 3888,
      "Ġdoc": 3889,
      "Ġlosing": 3890,
      "Captain": 3891,
      "arch": 3892,
      "ette": 3893,
      "Ġsmile": 3894,
      "hh": 3895,
      "hin": 3896,
      "Ġheavy": 3897,
      "usic": 3898,
      "Kill": 3899,
      "Ġduty": 3900,
      "rible": 3901,
      "SH": 3902,
      "Ġbow": 3903,
      "Ġsuddenly": 3904,
      "Ġbene": 3905,
      "Ġstage": 3906,
      "antic": 3907,
      "ĠWar": 3908,
      "Ġdevelop": 3909,
      "Ġshowed": 3910,
      "Ġjack": 3911,
      "Ġempty": 3912,
      "Ġbless": 3913,
      "Ġanimal": 3914,
      "Ġcrew": 3915,
      "ada": 3916,
      "Ġvac": 3917,
      "Ġobject": 3918,
      "Ġrequest": 3919,
      "Ġdouble": 3920,
      "LAUGH": 3921,
      "arden": 3922,
      "Ġanc": 3923,
      "iel": 3924,
      "Ġnecessary": 3925,
      "Boy": 3926,
      "ett": 3927,
      "Ġobviously": 3928,
      "Ġchicken": 3929,
      "Ġamb": 3930,
      "Ġknife": 3931,
      "ession": 3932,
      "Ġwritten": 3933,
      "Ġimm": 3934,
      "Ġregret": 3935,
      "ari": 3936,
      "ĠFl": 3937,
      "Ġincl": 3938,
      "Ġsimply": 3939,
      "itz": 3940,
      "Ġ200": 3941,
      "ĠGerman": 3942,
      "ĠPL": 3943,
      "wh": 3944,
      "using": 3945,
      "Ġprocess": 3946,
      "Other": 3947,
      "Ġsepar": 3948,
      "Ġhole": 3949,
      "da": 3950,
      "rate": 3951,
      "Ġseemed": 3952,
      "Ġfollowing": 3953,
      "Su": 3954,
      "ees": 3955,
      "pa": 3956,
      "Ġkeeping": 3957,
      "ĠSw": 3958,
      "Ġquar": 3959,
      "Ġlarge": 3960,
      "Ġvideo": 3961,
      "rick": 3962,
      "oom": 3963,
      "ĠMon": 3964,
      "20": 3965,
      "Ġcloser": 3966,
      "ĠGOT": 3967,
      "Ġkeeps": 3968,
      "ĠWANT": 3969,
      "Ġadmit": 3970,
      "Ġcivil": 3971,
      "ams": 3972,
      "ARD": 3973,
      "Ġopportunity": 3974,
      "Mad": 3975,
      "Ġdivor": 3976,
      "Ġcoun": 3977,
      "Ġ16": 3978,
      "low": 3979,
      "cher": 3980,
      "hop": 3981,
      "Sighs": 3982,
      "eless": 3983,
      "Ġghost": 3984,
      "EST": 3985,
      "Ġriver": 3986,
      "Ġreading": 3987,
      "riff": 3988,
      "Ġcars": 3989,
      "Ġacting": 3990,
      "Ġstrength": 3991,
      "rupt": 3992,
      "Se": 3993,
      "{\\": 3994,
      "ration": 3995,
      "itude": 3996,
      "IF": 3997,
      "Ġstat": 3998,
      "Ġnote": 3999,
      "Cha": 4000,
      "Ġrom": 4001,
      "Show": 4002,
      "Ġturns": 4003,
      "Ġraise": 4004,
      "Ġrent": 4005,
      "GO": 4006,
      "Ġmarket": 4007,
      "ĠX": 4008,
      "vert": 4009,
      "Ġasleep": 4010,
      "INK": 4011,
      "ĠCor": 4012,
      "aker": 4013,
      "Ġstudy": 4014,
      "Ġbreakfast": 4015,
      "Ġpapers": 4016,
      "Ġrestaurant": 4017,
      "Ġgreen": 4018,
      "Ġwondering": 4019,
      "Ġmedical": 4020,
      "Brother": 4021,
      "reg": 4022,
      "Five": 4023,
      "empt": 4024,
      "Ġcompet": 4025,
      "Exactly": 4026,
      "Ġphoto": 4027,
      "Shall": 4028,
      "she": 4029,
      "Goodbye": 4030,
      "Er": 4031,
      "ender": 4032,
      "umber": 4033,
      "Ġbottom": 4034,
      "ses": 4035,
      "anda": 4036,
      "pic": 4037,
      "Ġought": 4038,
      "ality": 4039,
      "Ġign": 4040,
      "Ġstarts": 4041,
      "Ġexcited": 4042,
      "Another": 4043,
      "ealous": 4044,
      "BUT": 4045,
      "Big": 4046,
      "oved": 4047,
      "Ġnose": 4048,
      "ĠRay": 4049,
      "ences": 4050,
      "OL": 4051,
      "ĠHon": 4052,
      "Ġguilty": 4053,
      "aughing": 4054,
      "Both": 4055,
      "father": 4056,
      "gress": 4057,
      "iring": 4058,
      "Ġupstairs": 4059,
      "Ġconversation": 4060,
      "Ġdue": 4061,
      "INE": 4062,
      "bsolutely": 4063,
      "Congratulations": 4064,
      "Daddy": 4065,
      "ĠSan": 4066,
      "Ġnatural": 4067,
      "Ġmerc": 4068,
      "Ġfile": 4069,
      "this": 4070,
      "Most": 4071,
      "Whoo": 4072,
      "Ġbottle": 4073,
      "Ġwound": 4074,
      "Ġrout": 4075,
      "Up": 4076,
      "ĠWest": 4077,
      "Ġsever": 4078,
      "Ġaccess": 4079,
      "Ġguns": 4080,
      "Pr": 4081,
      "Ġsilly": 4082,
      "Ġfem": 4083,
      "ground": 4084,
      "vent": 4085,
      "Ġknowing": 4086,
      "andy": 4087,
      "Ġheld": 4088,
      "mission": 4089,
      "back": 4090,
      "Ġmum": 4091,
      "Ġund": 4092,
      "Ġanimals": 4093,
      "Ġresponsible": 4094,
      "Ġnature": 4095,
      "ĠHer": 4096,
      "ased": 4097,
      "pose": 4098,
      "Ġamong": 4099,
      "Ġawful": 4100,
      "Ġtow": 4101,
      "elly": 4102,
      "ker": 4103,
      "Ġcaptain": 4104,
      "Ġhoping": 4105,
      "Besides": 4106,
      "Ġshooting": 4107,
      "Ġcontinues": 4108,
      "Find": 4109,
      "lder": 4110,
      "ĠCal": 4111,
      "look": 4112,
      "rit": 4113,
      "ico": 4114,
      "Ġgotten": 4115,
      "cean": 4116,
      "oody": 4117,
      "Ġagent": 4118,
      "pector": 4119,
      "EL": 4120,
      "Son": 4121,
      "Ġpoison": 4122,
      "Ġswe": 4123,
      "apa": 4124,
      "Ġcharacter": 4125,
      "Ġweapons": 4126,
      "Were": 4127,
      "ays": 4128,
      "ĠNick": 4129,
      "Ġdaddy": 4130,
      "Ġgoddamn": 4131,
      "Ġneighbor": 4132,
      "ellig": 4133,
      "aper": 4134,
      "Ġmanage": 4135,
      "olution": 4136,
      "Ġshows": 4137,
      "Pre": 4138,
      "asps": 4139,
      "Ġkeys": 4140,
      "Ġplant": 4141,
      "Ġscr": 4142,
      "cellent": 4143,
      "rian": 4144,
      "Ġnumbers": 4145,
      "ĠSorry": 4146,
      "ĠHenry": 4147,
      "Ġtells": 4148,
      "Ġmix": 4149,
      "Ġboo": 4150,
      "Ġgreatest": 4151,
      "Ġgrab": 4152,
      "ĠBill": 4153,
      "Ġwhom": 4154,
      "Ġappear": 4155,
      "Ġemploy": 4156,
      "Ġflying": 4157,
      "Ġpath": 4158,
      "Ġstars": 4159,
      "Ġpock": 4160,
      "Ġshame": 4161,
      "Ġcondition": 4162,
      "Ġinvestigation": 4163,
      "itty": 4164,
      "rab": 4165,
      "fessor": 4166,
      "Ġdogs": 4167,
      "BI": 4168,
      "orld": 4169,
      "HING": 4170,
      "ieutenant": 4171,
      "UL": 4172,
      "Ġlangu": 4173,
      "yond": 4174,
      "ĠHouse": 4175,
      "Ġparticular": 4176,
      "Ġleader": 4177,
      "Ġdry": 4178,
      "Ġhig": 4179,
      "usion": 4180,
      "Ġlights": 4181,
      "Ġenc": 4182,
      "Ġban": 4183,
      "ĠAf": 4184,
      "Ġmilitary": 4185,
      "ĠABOUT": 4186,
      "af": 4187,
      "Ġthroat": 4188,
      "Ġphotog": 4189,
      "urope": 4190,
      "Ġwhose": 4191,
      "ference": 4192,
      "ĠKim": 4193,
      "Ġcorner": 4194,
      "Ph": 4195,
      "Ġpants": 4196,
      "ĠGeneral": 4197,
      "HERE": 4198,
      "cH": 4199,
      "Ġinj": 4200,
      "rie": 4201,
      "Hang": 4202,
      "Yep": 4203,
      "Ġbeyond": 4204,
      "Ġstories": 4205,
      "Ġport": 4206,
      "uses": 4207,
      "Ġfellow": 4208,
      "Ġreact": 4209,
      "Ġshock": 4210,
      "ĠQueen": 4211,
      "sed": 4212,
      "omed": 4213,
      "itions": 4214,
      "ĠStop": 4215,
      "ompl": 4216,
      "Ġvir": 4217,
      "Ġplanning": 4218,
      "Ġprefer": 4219,
      "Ġsize": 4220,
      "ĠCo": 4221,
      "Ġesp": 4222,
      "Ġcode": 4223,
      "Ġnorth": 4224,
      "ESS": 4225,
      "Ġrule": 4226,
      "erer": 4227,
      "Ġopin": 4228,
      "zen": 4229,
      "Ġfle": 4230,
      "achel": 4231,
      "Ġtrial": 4232,
      "Ġchecked": 4233,
      "Quick": 4234,
      "sen": 4235,
      "Ġtaught": 4236,
      "Ġweekend": 4237,
      "Ġapologize": 4238,
      "Ġaware": 4239,
      "Guys": 4240,
      "Ġuniverse": 4241,
      "Ġlied": 4242,
      "Ġscare": 4243,
      "ĠSec": 4244,
      "Ġ25": 4245,
      "Ġfreak": 4246,
      "Ġsoldiers": 4247,
      "ĠMother": 4248,
      "Ġcult": 4249,
      "Ġnine": 4250,
      "ival": 4251,
      "ĠEvery": 4252,
      "Ġadvice": 4253,
      "ĠRob": 4254,
      "ardon": 4255,
      "Ġbringing": 4256,
      "Frank": 4257,
      "rant": 4258,
      "ĠÂ": 4259,
      "Ġcous": 4260,
      "ĠHIM": 4261,
      "ĠYoung": 4262,
      "ĠAnt": 4263,
      "Ġwalked": 4264,
      "Ġlots": 4265,
      "Ġneither": 4266,
      "urg": 4267,
      "Happy": 4268,
      "van": 4269,
      "retty": 4270,
      "ites": 4271,
      "roans": 4272,
      "Ġprepared": 4273,
      "Dude": 4274,
      "While": 4275,
      "imp": 4276,
      "Ġsinging": 4277,
      "Fin": 4278,
      "ora": 4279,
      "Ġspoke": 4280,
      "Ġspread": 4281,
      "Ġcock": 4282,
      "Doesn": 4283,
      "Until": 4284,
      "olen": 4285,
      "Ġ14": 4286,
      "Ġsurg": 4287,
      "Ġeffect": 4288,
      "Ġsour": 4289,
      "Ġtowards": 4290,
      "Ġseveral": 4291,
      "Ġsam": 4292,
      "ĠJew": 4293,
      "emon": 4294,
      "ints": 4295,
      ".,": 4296,
      "Ġcareer": 4297,
      "Without": 4298,
      "Ġsubject": 4299,
      "Ġattract": 4300,
      "Tomorrow": 4301,
      "WH": 4302,
      "aire": 4303,
      "bec": 4304,
      "ilar": 4305,
      "Ġrub": 4306,
      "Stand": 4307,
      "Ġhearing": 4308,
      "Ġideas": 4309,
      "Ġbare": 4310,
      "icy": 4311,
      "Ġlies": 4312,
      "Ġbiggest": 4313,
      "urious": 4314,
      "ounce": 4315,
      "ĠSee": 4316,
      "Ġleaves": 4317,
      "Ġarrested": 4318,
      "Ġcomfortable": 4319,
      "Ġavo": 4320,
      "ading": 4321,
      "odies": 4322,
      "ĠRed": 4323,
      "Ġscient": 4324,
      "Ind": 4325,
      "ĠTHERE": 4326,
      "El": 4327,
      "istinct": 4328,
      "Ġodd": 4329,
      "outing": 4330,
      "ĠWOR": 4331,
      "ĠScott": 4332,
      "Ġsacri": 4333,
      "onsense": 4334,
      "âĢİ.": 4335,
      "Ġheat": 4336,
      "ĠMac": 4337,
      "orses": 4338,
      "Ġawesome": 4339,
      "ĠPhil": 4340,
      "Ġfake": 4341,
      "Ġoil": 4342,
      "ledge": 4343,
      "Ġdropped": 4344,
      "BE": 4345,
      "Ġrac": 4346,
      "ulation": 4347,
      "Ġhanging": 4348,
      "ruction": 4349,
      "KS": 4350,
      "WELL": 4351,
      "Ġpet": 4352,
      "Ġamount": 4353,
      "arc": 4354,
      "Ġpulled": 4355,
      "Ġmurdered": 4356,
      "GRUNT": 4357,
      "eech": 4358,
      "Ġcomb": 4359,
      "Ġcake": 4360,
      "Ġjealous": 4361,
      "Ġsmo": 4362,
      "Enough": 4363,
      "Better": 4364,
      "ĠREA": 4365,
      "Ġflowers": 4366,
      "Ġ24": 4367,
      "Ġrap": 4368,
      "Ġhurts": 4369,
      "Ġpowerful": 4370,
      "ament": 4371,
      "Ġfuckin": 4372,
      "isc": 4373,
      "Ġonto": 4374,
      "HEN": 4375,
      "Ġdevil": 4376,
      "Ãĺ": 4377,
      "ROW": 4378,
      "field": 4379,
      "ection": 4380,
      "Ġbetray": 4381,
      "Ġtext": 4382,
      "board": 4383,
      "Ġbeauty": 4384,
      "Ġsnow": 4385,
      "Ġfolks": 4386,
      "aes": 4387,
      "hold": 4388,
      "Ġended": 4389,
      "Ġchief": 4390,
      "ĠBo": 4391,
      "Ġdeg": 4392,
      "Ġserve": 4393,
      "Ġinvited": 4394,
      "ontin": 4395,
      "Ġpaying": 4396,
      "ault": 4397,
      "ooper": 4398,
      "usting": 4399,
      "udd": 4400,
      "Ġdepartment": 4401,
      "urt": 4402,
      "Ġdriver": 4403,
      "rilliant": 4404,
      "ARS": 4405,
      "Ġafford": 4406,
      "Ġpers": 4407,
      "Their": 4408,
      "Ġfarm": 4409,
      "Ġclearly": 4410,
      "ĠTake": 4411,
      "ĠSim": 4412,
      "Ġenv": 4413,
      "Ġsurvive": 4414,
      "New": 4415,
      "Ġemergency": 4416,
      "incess": 4417,
      "ĠONE": 4418,
      "kin": 4419,
      "acle": 4420,
      "Ġscience": 4421,
      "laughs": 4422,
      "Ġrings": 4423,
      "Ġkidna": 4424,
      "Ġhorrible": 4425,
      "Ġdestroyed": 4426,
      "Ġdumb": 4427,
      "fortunately": 4428,
      "Ġloud": 4429,
      "iction": 4430,
      "with": 4431,
      "ĠNothing": 4432,
      "Ġconcerned": 4433,
      "Ġcig": 4434,
      "urse": 4435,
      "ĠMag": 4436,
      "Ġbegan": 4437,
      "kn": 4438,
      "ICE": 4439,
      "Ġpossibly": 4440,
      "Ġpurpose": 4441,
      "Ġdancing": 4442,
      "Ġasshole": 4443,
      "IA": 4444,
      "ĠChan": 4445,
      "bell": 4446,
      "nes": 4447,
      "hal": 4448,
      "asure": 4449,
      "rel": 4450,
      "Ġolder": 4451,
      "inese": 4452,
      "Ġdump": 4453,
      "usted": 4454,
      "ANS": 4455,
      "Ġcreated": 4456,
      "AP": 4457,
      "Ġexpens": 4458,
      "ips": 4459,
      "gging": 4460,
      "ĠMark": 4461,
      "Ġissue": 4462,
      "Ġcream": 4463,
      "Ġmov": 4464,
      "Ġmilk": 4465,
      "Ġwis": 4466,
      "Ġsuicide": 4467,
      "Ġbullet": 4468,
      "vered": 4469,
      "Ġstab": 4470,
      "evin": 4471,
      "Talk": 4472,
      "Ġballs": 4473,
      "\",": 4474,
      "ĠEurope": 4475,
      "Ġcredit": 4476,
      "ipped": 4477,
      "ashed": 4478,
      "Ġstolen": 4479,
      "Ġdelic": 4480,
      "Ġmatters": 4481,
      "Ġsweetheart": 4482,
      "Ġgeneral": 4483,
      "face": 4484,
      "Ġtun": 4485,
      "Ġextreme": 4486,
      "ued": 4487,
      "Ġlift": 4488,
      "Ġdescri": 4489,
      "Ġcriminal": 4490,
      "Ġfan": 4491,
      "rag": 4492,
      "Sec": 4493,
      "phan": 4494,
      "give": 4495,
      "Ġdisappear": 4496,
      "resent": 4497,
      "Ready": 4498,
      "Ġchallenge": 4499,
      "tering": 4500,
      "Ġnearly": 4501,
      "ARE": 4502,
      "ĠDID": 4503,
      "Ġsin": 4504,
      "hand": 4505,
      "ĠSU": 4506,
      "ĠPal": 4507,
      "ĠJan": 4508,
      "Four": 4509,
      "Ġbelieved": 4510,
      "Ġeasier": 4511,
      "ĠFR": 4512,
      "ples": 4513,
      "ij": 4514,
      "iding": 4515,
      "arrator": 4516,
      "AIN": 4517,
      "cho": 4518,
      "ĠTe": 4519,
      "Ġmater": 4520,
      "Ġplays": 4521,
      "Ġheads": 4522,
      "Ġbreaking": 4523,
      "etective": 4524,
      "Ġexpress": 4525,
      "Sho": 4526,
      "Ġweight": 4527,
      "Ġpractice": 4528,
      "Ġloss": 4529,
      "Laughs": 4530,
      "gie": 4531,
      "Ġmap": 4532,
      "Sounds": 4533,
      "ization": 4534,
      "None": 4535,
      "Ġlanguage": 4536,
      "ĠCr": 4537,
      "ĠCON": 4538,
      "Ġshirt": 4539,
      "Ġ17": 4540,
      "asons": 4541,
      "Ġnoticed": 4542,
      "Ġvote": 4543,
      "Ġflat": 4544,
      "Ġcapt": 4545,
      "ĠPat": 4546,
      "iver": 4547,
      "Ġsuck": 4548,
      "ache": 4549,
      "eps": 4550,
      "mon": 4551,
      "ÃĻ": 4552,
      "Ġproduct": 4553,
      "ential": 4554,
      "izing": 4555,
      "Ġcopy": 4556,
      "Ġwa": 4557,
      "Ġsna": 4558,
      "Ġagreed": 4559,
      "ĠUncle": 4560,
      "Ġsocial": 4561,
      "die": 4562,
      "Ġfaster": 4563,
      "ĠMaster": 4564,
      "Probably": 4565,
      "don": 4566,
      "reak": 4567,
      "allow": 4568,
      "Ġresc": 4569,
      "Ġterror": 4570,
      "Ġselling": 4571,
      "Ġclim": 4572,
      "\"...": 4573,
      "iation": 4574,
      "Ġsignal": 4575,
      "Ġrecords": 4576,
      "Ġdressed": 4577,
      "Ġproof": 4578,
      "Ġtape": 4579,
      "Ġplenty": 4580,
      "CREAM": 4581,
      "Cut": 4582,
      "alf": 4583,
      "unny": 4584,
      "Ġcreate": 4585,
      "gged": 4586,
      "Ġpainting": 4587,
      "Ġhealth": 4588,
      "Ġsou": 4589,
      "Ġenter": 4590,
      "Ġstorm": 4591,
      "Ġletting": 4592,
      "Jim": 4593,
      "ĠCle": 4594,
      "YEAH": 4595,
      "Ġrealized": 4596,
      "Ġexample": 4597,
      "ĠBig": 4598,
      "Ġproduc": 4599,
      "Ġopinion": 4600,
      "Ġfreed": 4601,
      "Ġespecially": 4602,
      "Ġaband": 4603,
      "ĠLa": 4604,
      "Ġmanager": 4605,
      "Ġdefend": 4606,
      "orts": 4607,
      "Ġteeth": 4608,
      "Ġsees": 4609,
      "Ġsettle": 4610,
      "Ġpieces": 4611,
      "Ġstrike": 4612,
      "ĠPLAY": 4613,
      "vis": 4614,
      "aine": 4615,
      "chuckles": 4616,
      "ĠEn": 4617,
      "Always": 4618,
      "Seriously": 4619,
      "Ġdick": 4620,
      "ĠLike": 4621,
      "Ask": 4622,
      "gly": 4623,
      "ĠCho": 4624,
      "ĠPe": 4625,
      "ĠRome": 4626,
      "apt": 4627,
      "Ġresponsibility": 4628,
      "oops": 4629,
      "hings": 4630,
      "ĠCarl": 4631,
      "Ġnuts": 4632,
      "ators": 4633,
      "Ġroof": 4634,
      "ĠJohnny": 4635,
      "Ġresearch": 4636,
      "Ġcrowd": 4637,
      "omas": 4638,
      "ĠMaybe": 4639,
      "Shh": 4640,
      "cover": 4641,
      "Ġmovies": 4642,
      "Ġbucks": 4643,
      "ONG": 4644,
      "Ġproperty": 4645,
      "net": 4646,
      "oug": 4647,
      "Ġfund": 4648,
      "Ġactiv": 4649,
      "ĠChief": 4650,
      "Ġbleed": 4651,
      "pir": 4652,
      "Ġgrown": 4653,
      "Ladies": 4654,
      "ĠSEE": 4655,
      "book": 4656,
      "hem": 4657,
      "ĠMax": 4658,
      "Ġmeaning": 4659,
      "Ġhorses": 4660,
      "Ġreve": 4661,
      "ĠTHEY": 4662,
      "Ġrecognize": 4663,
      "Ġsomehow": 4664,
      "Ġcolor": 4665,
      "Tw": 4666,
      "Ġfate": 4667,
      "Ġbutt": 4668,
      "ATE": 4669,
      "Ġbodies": 4670,
      "ĠAny": 4671,
      "Ġhardly": 4672,
      "Ġfalling": 4673,
      "Ġav": 4674,
      "Ġoutta": 4675,
      "ĠHa": 4676,
      "Ġdesk": 4677,
      "rica": 4678,
      "Ġbright": 4679,
      "Ġpil": 4680,
      "Ġtruly": 4681,
      "Ġinsane": 4682,
      "ĠDanny": 4683,
      "Ġtong": 4684,
      "Ġpoints": 4685,
      "Ġlone": 4686,
      "Ġstaff": 4687,
      "ĠCat": 4688,
      "Ġstayed": 4689,
      "Ġpretend": 4690,
      "Ġstudent": 4691,
      "Baby": 4692,
      "san": 4693,
      "Ġfright": 4694,
      "Ġweather": 4695,
      "ĠBye": 4696,
      "ucky": 4697,
      "fety": 4698,
      "Ġexec": 4699,
      "uding": 4700,
      "Ġ13": 4701,
      "order": 4702,
      "Ġsurgery": 4703,
      "Yo": 4704,
      "Ġho": 4705,
      "ĠRichard": 4706,
      "Ġsoldier": 4707,
      "Unless": 4708,
      "Chuckles": 4709,
      "Must": 4710,
      "Ġpred": 4711,
      "Ġrepe": 4712,
      "Ġbridge": 4713,
      "Christ": 4714,
      "Ġnor": 4715,
      "ils": 4716,
      "Ġwhis": 4717,
      "ĠTHINK": 4718,
      "Ġmodel": 4719,
      "althy": 4720,
      "De": 4721,
      "raw": 4722,
      "ĠHan": 4723,
      "icked": 4724,
      "ĠHam": 4725,
      "Ġturning": 4726,
      "ux": 4727,
      "they": 4728,
      "Ġrelig": 4729,
      "ashion": 4730,
      "Ġtraining": 4731,
      "Ġbrave": 4732,
      "IVE": 4733,
      "Ġfed": 4734,
      "elle": 4735,
      "Ġqueen": 4736,
      "Ġopening": 4737,
      "Ugh": 4738,
      "EP": 4739,
      "Ġours": 4740,
      "ĠFrance": 4741,
      "11": 4742,
      "fl": 4743,
      "Ġbeach": 4744,
      "Ġjustice": 4745,
      "Ġforgotten": 4746,
      "Ġmonster": 4747,
      "gun": 4748,
      "sey": 4749,
      "ĠAL": 4750,
      "istic": 4751,
      "Ġnowhere": 4752,
      "Ġseason": 4753,
      "ĠScot": 4754,
      "Ġticket": 4755,
      "Ġnet": 4756,
      "Ġscreaming": 4757,
      "Ġcommunic": 4758,
      "Ġslept": 4759,
      "Absolutely": 4760,
      "Ġdisappeared": 4761,
      "ĠEX": 4762,
      "Ġoperation": 4763,
      "Ġtoil": 4764,
      "ĠMex": 4765,
      "Ġattempt": 4766,
      "Ġcomplain": 4767,
      "Ġreceived": 4768,
      "rong": 4769,
      "ĠSund": 4770,
      "Dear": 4771,
      "Ġeasily": 4772,
      "Ġcousin": 4773,
      "SP": 4774,
      "asion": 4775,
      "ĠBoy": 4776,
      "your": 4777,
      "lyn": 4778,
      "Ġbullshit": 4779,
      "ictor": 4780,
      "Ġtotal": 4781,
      "Ġcancer": 4782,
      "Rel": 4783,
      "mo": 4784,
      "Ġver": 4785,
      "Ġopened": 4786,
      "Jo": 4787,
      "ddie": 4788,
      "Ġocean": 4789,
      "Ġsched": 4790,
      "Ġfailed": 4791,
      "Ġmembers": 4792,
      "Ġgames": 4793,
      "Ġlines": 4794,
      "omen": 4795,
      "Ġincredible": 4796,
      "iod": 4797,
      "ĠGive": 4798,
      "hell": 4799,
      "itation": 4800,
      "oph": 4801,
      "Ġfinding": 4802,
      "Ġfocus": 4803,
      "Ġborrow": 4804,
      "Ġpool": 4805,
      "END": 4806,
      "OUND": 4807,
      "ĠStan": 4808,
      "ĠWH": 4809,
      "AST": 4810,
      "ito": 4811,
      "Ġstone": 4812,
      "Ġrough": 4813,
      "Ġshower": 4814,
      "SS": 4815,
      "vin": 4816,
      "ĠANY": 4817,
      "Ġliter": 4818,
      "ateful": 4819,
      "Ġdrag": 4820,
      "ĠSA": 4821,
      "udge": 4822,
      "Ġbreathe": 4823,
      "aesar": 4824,
      "cious": 4825,
      "Ġment": 4826,
      "Ġdating": 4827,
      "ressed": 4828,
      "ITT": 4829,
      "ĠShut": 4830,
      "Ġperfectly": 4831,
      "Ġdemon": 4832,
      "Ġast": 4833,
      "NE": 4834,
      "Acc": 4835,
      "Ġfucked": 4836,
      "itiz": 4837,
      "Ġappoint": 4838,
      "ĠWhite": 4839,
      "Ġgri": 4840,
      "Guess": 4841,
      "down": 4842,
      "Ġspeech": 4843,
      "versity": 4844,
      "ford": 4845,
      "will": 4846,
      "ĠKat": 4847,
      "Ġthrew": 4848,
      "ĠSch": 4849,
      "Ġcurrent": 4850,
      "Gl": 4851,
      "Ġprof": 4852,
      "ĠRobert": 4853,
      "Ġpocket": 4854,
      "Bel": 4855,
      "ĠJane": 4856,
      "Ġforest": 4857,
      "Ġmember": 4858,
      "ĠSome": 4859,
      "Start": 4860,
      "Grand": 4861,
      "Ġintroduce": 4862,
      "aren": 4863,
      "Ġreality": 4864,
      "Little": 4865,
      "Ġears": 4866,
      "Ġexpected": 4867,
      "mother": 4868,
      "arty": 4869,
      "Ġsen": 4870,
      "Ġusual": 4871,
      "Ġspell": 4872,
      "ĠStreet": 4873,
      "Ġdistur": 4874,
      "12": 4875,
      "lause": 4876,
      "IME": 4877,
      "VERY": 4878,
      "Ġbite": 4879,
      "rib": 4880,
      "Ġwash": 4881,
      "Ġfavour": 4882,
      "Ġugly": 4883,
      "ERING": 4884,
      "Ġescap": 4885,
      "Ben": 4886,
      "urance": 4887,
      "aches": 4888,
      "ĠGU": 4889,
      "Ã¶": 4890,
      "Ġwet": 4891,
      "isf": 4892,
      "IGHS": 4893,
      "Ġreturned": 4894,
      "ĠMic": 4895,
      "Ġmaterial": 4896,
      "Ġchest": 4897,
      "Ġrecently": 4898,
      "Ġbread": 4899,
      "Ġconnection": 4900,
      "Ġdeliver": 4901,
      "Ġmail": 4902,
      "ano": 4903,
      "icted": 4904,
      "Except": 4905,
      "Ġcaused": 4906,
      "Ġbang": 4907,
      ")}": 4908,
      "Sweet": 4909,
      "ICK": 4910,
      "ĠSy": 4911,
      "Ġdamage": 4912,
      "Col": 4913,
      "omin": 4914,
      "ummy": 4915,
      "met": 4916,
      "pes": 4917,
      "eez": 4918,
      "gic": 4919,
      "hange": 4920,
      "ĠGot": 4921,
      "Ed": 4922,
      "Paul": 4923,
      "Ġsomet": 4924,
      "Ġintellig": 4925,
      "Ġbrings": 4926,
      "Ġfollowed": 4927,
      "Ġpriest": 4928,
      "Ġordered": 4929,
      "ĠEngland": 4930,
      "IRE": 4931,
      "Ġsouth": 4932,
      "vey": 4933,
      "CHE": 4934,
      "mail": 4935,
      "USIC": 4936,
      "rid": 4937,
      "Ġnon": 4938,
      "Sw": 4939,
      "Ġdoors": 4940,
      "Ġheading": 4941,
      "iliar": 4942,
      "RAT": 4943,
      "oms": 4944,
      "Ġtrad": 4945,
      "Calm": 4946,
      "ening": 4947,
      "Doctor": 4948,
      "Ġstrugg": 4949,
      "OMAN": 4950,
      "ops": 4951,
      "Ġtemper": 4952,
      "',": 4953,
      "ĠChinese": 4954,
      "Ġends": 4955,
      "rend": 4956,
      "ctors": 4957,
      "Ġdistance": 4958,
      "Te": 4959,
      "Ġmut": 4960,
      "Ġgoodbye": 4961,
      "Ġarrange": 4962,
      "anks": 4963,
      "ĠBlack": 4964,
      "):": 4965,
      "Fire": 4966,
      "door": 4967,
      "Ġtie": 4968,
      "Ġcovered": 4969,
      "Ġofficial": 4970,
      "ĠMs": 4971,
      "Ġmurderer": 4972,
      "Fl": 4973,
      "ago": 4974,
      "Ġfingers": 4975,
      "Ġjourney": 4976,
      "born": 4977,
      "Ġtall": 4978,
      "erves": 4979,
      "Ġlikely": 4980,
      "ilies": 4981,
      "Trust": 4982,
      "ko": 4983,
      "Ġdisappoint": 4984,
      "vision": 4985,
      "ĠSouth": 4986,
      "Charlie": 4987,
      "ĠMAN": 4988,
      "mond": 4989,
      "ĠHaw": 4990,
      "Ġtrees": 4991,
      "ipp": 4992,
      "Ġcards": 4993,
      "Ġforced": 4994,
      "Ġcares": 4995,
      "ĠStates": 4996,
      "AUSE": 4997,
      "Int": 4998,
      "Ġtheory": 4999,
      "Ġdise": 5000,
      "Ġlately": 5001,
      "Ġlonely": 5002,
      "Ġnoise": 5003,
      "Easy": 5004,
      "Ġtransfer": 5005,
      "esh": 5006,
      "outs": 5007,
      "ĠTell": 5008,
      "Ġindeed": 5009,
      "Ġbrilliant": 5010,
      "Ġled": 5011,
      "gs": 5012,
      "ĠDay": 5013,
      "Ġgrad": 5014,
      "Ġthousands": 5015,
      "Ġbal": 5016,
      "Ġsociety": 5017,
      "Ġwoods": 5018,
      "Bar": 5019,
      "Ġnation": 5020,
      "Ġtort": 5021,
      "rees": 5022,
      "Ġsaving": 5023,
      "WAY": 5024,
      "Ġdiscovered": 5025,
      "Ġtongue": 5026,
      "UD": 5027,
      "was": 5028,
      "ONNA": 5029,
      "Ġincre": 5030,
      "Ġpaint": 5031,
      "Ġstreets": 5032,
      "arant": 5033,
      "Ġburied": 5034,
      "aura": 5035,
      "Ġfantastic": 5036,
      "Ġrelease": 5037,
      "inda": 5038,
      "Ġmood": 5039,
      "Ġloose": 5040,
      "ĠHy": 5041,
      "Ġruined": 5042,
      "Ġrum": 5043,
      "Ġexpecting": 5044,
      "Long": 5045,
      "cy": 5046,
      "stit": 5047,
      "ĠBecause": 5048,
      "Ġcheap": 5049,
      "Ġimpro": 5050,
      "Ġinfl": 5051,
      "Ġclock": 5052,
      "Ġnewsp": 5053,
      "Ġgrew": 5054,
      "hington": 5055,
      "ANG": 5056,
      "Ġcommunity": 5057,
      "arily": 5058,
      "Ġkinda": 5059,
      "Ġdirector": 5060,
      "Pretty": 5061,
      "orney": 5062,
      "Ġbelie": 5063,
      "chi": 5064,
      "Ġdefe": 5065,
      "OUR": 5066,
      "Ġdetails": 5067,
      "Ġthoughts": 5068,
      "Ġcrit": 5069,
      "atching": 5070,
      "Ġsweetie": 5071,
      "Ġtiny": 5072,
      "rely": 5073,
      "Ġrevenge": 5074,
      "iled": 5075,
      "anish": 5076,
      "omach": 5077,
      "Ġunit": 5078,
      "Ġcheese": 5079,
      "Ġeduc": 5080,
      "Ġstyle": 5081,
      "Ġgenius": 5082,
      "ĠLAUGH": 5083,
      "Ġparts": 5084,
      "Poor": 5085,
      "Ġsending": 5086,
      "Ġlegal": 5087,
      "ĠSun": 5088,
      "iano": 5089,
      "Although": 5090,
      "Ġringing": 5091,
      "uj": 5092,
      "ĠMur": 5093,
      "ĠCOM": 5094,
      "cel": 5095,
      "ĠFBI": 5096,
      "there": 5097,
      "road": 5098,
      "ieur": 5099,
      "ĠHarry": 5100,
      "Ġshad": 5101,
      "Ġdesper": 5102,
      "ĠJimmy": 5103,
      "Ġsplit": 5104,
      "lla": 5105,
      "Ġsafety": 5106,
      "Im": 5107,
      "Ġpure": 5108,
      "leased": 5109,
      "Ġoppos": 5110,
      "Ġwheel": 5111,
      "Ġfinds": 5112,
      "Ġwarning": 5113,
      "Ġpunish": 5114,
      "ained": 5115,
      "onsieur": 5116,
      "Follow": 5117,
      "ĠĠ": 5118,
      "Ġbat": 5119,
      "Ġinsist": 5120,
      "Ġprofessional": 5121,
      "ona": 5122,
      "Ġindust": 5123,
      "ĠUnited": 5124,
      "Down": 5125,
      "Ġvers": 5126,
      "Ġep": 5127,
      "Ġmyst": 5128,
      "Ġobvious": 5129,
      "Ġcases": 5130,
      "Ġoriginal": 5131,
      "ĠTony": 5132,
      "onnie": 5133,
      "ella": 5134,
      "CHUCK": 5135,
      "Ġsite": 5136,
      "ĠJess": 5137,
      "Ġcenter": 5138,
      "isp": 5139,
      "Ġletters": 5140,
      "Again": 5141,
      "Id": 5142,
      "lim": 5143,
      "Ġrights": 5144,
      "Ġperiod": 5145,
      "Ġpermission": 5146,
      "ilities": 5147,
      "Ġfamiliar": 5148,
      "Michael": 5149,
      "iform": 5150,
      "clock": 5151,
      "Ġlocation": 5152,
      "FOR": 5153,
      "Ġju": 5154,
      "Ġvot": 5155,
      "Ġreached": 5156,
      "Ġhandsome": 5157,
      "Ġattacked": 5158,
      "ĠMartin": 5159,
      "Ġholiday": 5160,
      "Ġfreedom": 5161,
      "ira": 5162,
      "ĠGl": 5163,
      "Ġprinc": 5164,
      "mma": 5165,
      "Ġdrinks": 5166,
      "mber": 5167,
      "Ġscary": 5168,
      "ĠAnge": 5169,
      "Ġveh": 5170,
      "oken": 5171,
      "Ġhidden": 5172,
      "VEN": 5173,
      "Ġgate": 5174,
      "ĠMal": 5175,
      "Ġdisg": 5176,
      "ĠWilliam": 5177,
      "BLE": 5178,
      "inger": 5179,
      "Ġbarely": 5180,
      "Holy": 5181,
      "Ġexpensive": 5182,
      "Bob": 5183,
      "cus": 5184,
      "Ġpin": 5185,
      "romise": 5186,
      "ulate": 5187,
      "ĠJeff": 5188,
      "Ġruns": 5189,
      "Ġstudents": 5190,
      "Ġmentioned": 5191,
      "ĠBritish": 5192,
      "po": 5193,
      "essed": 5194,
      "place": 5195,
      "Ġfuneral": 5196,
      "Ġbedroom": 5197,
      "iron": 5198,
      "ĠBra": 5199,
      "ĠWILL": 5200,
      "ĠSteve": 5201,
      "ĠVal": 5202,
      "Ġchanges": 5203,
      "Ġfamilies": 5204,
      "aturday": 5205,
      "Ġvictims": 5206,
      "ba": 5207,
      "Ġaunt": 5208,
      "inging": 5209,
      "Ġcommit": 5210,
      "Ro": 5211,
      "ĠSant": 5212,
      "ĠGONNA": 5213,
      "asty": 5214,
      "Ġsandw": 5215,
      "Ġnonsense": 5216,
      "anting": 5217,
      "Ġregular": 5218,
      "Ġexciting": 5219,
      "Things": 5220,
      "Ġate": 5221,
      "THEY": 5222,
      "ĠMinister": 5223,
      "Co": 5224,
      "Pull": 5225,
      "Ġlink": 5226,
      "ĠBACK": 5227,
      "iev": 5228,
      "ocking": 5229,
      "Ġanswers": 5230,
      "AG": 5231,
      "Sub": 5232,
      "Ġangel": 5233,
      "ĠCL": 5234,
      "ĠTra": 5235,
      "ĠCent": 5236,
      "ĠDNA": 5237,
      "âĶ": 5238,
      "Ġsugar": 5239,
      "Ġunderstood": 5240,
      "Ġmemories": 5241,
      "âĶĢ": 5242,
      "Ġstomach": 5243,
      "Step": 5244,
      "Ġruin": 5245,
      "Clear": 5246,
      "ĠSal": 5247,
      "ĠStar": 5248,
      "reams": 5249,
      "Ġsigned": 5250,
      "Ġfemale": 5251,
      "Jul": 5252,
      "Ġreasons": 5253,
      "ĠAgent": 5254,
      "ĠNe": 5255,
      "Ġshowing": 5256,
      "ĠAdam": 5257,
      "Forgive": 5258,
      "Ġresults": 5259,
      "Ob": 5260,
      "Ġfought": 5261,
      "Ġpage": 5262,
      "ĠFriday": 5263,
      "bor": 5264,
      "Ġcos": 5265,
      "hild": 5266,
      "ANK": 5267,
      "soc": 5268,
      "Ġmountain": 5269,
      "hales": 5270,
      "Ġnaked": 5271,
      "Ġcarefully": 5272,
      "ension": 5273,
      "Ġgentleman": 5274,
      "Ġshape": 5275,
      "Also": 5276,
      "Ġconvinc": 5277,
      "ĠSunday": 5278,
      "...!": 5279,
      "eck": 5280,
      "Ġspare": 5281,
      "ĠColonel": 5282,
      "spector": 5283,
      "ATION": 5284,
      "fficer": 5285,
      "Tonight": 5286,
      "hamed": 5287,
      "Ġcoat": 5288,
      "reaming": 5289,
      "Ann": 5290,
      "Ġburning": 5291,
      "ĠExcuse": 5292,
      "ein": 5293,
      "Ġtap": 5294,
      "Ġow": 5295,
      "ĠSon": 5296,
      "iece": 5297,
      "Ġaffect": 5298,
      "OTH": 5299,
      "Ġdiam": 5300,
      "Ġtickets": 5301,
      "Ġdivorce": 5302,
      "Fucking": 5303,
      "Ġtim": 5304,
      "Ġhom": 5305,
      "Ten": 5306,
      "Ġfirm": 5307,
      "Ġnights": 5308,
      "Ġgrateful": 5309,
      "Ġcomplicated": 5310,
      "Ġstatement": 5311,
      "AK": 5312,
      "iest": 5313,
      "Had": 5314,
      "Such": 5315,
      "ĠMat": 5316,
      "Ġairport": 5317,
      "Ġprepare": 5318,
      "Ġancient": 5319,
      "Ġavoid": 5320,
      "QU": 5321,
      "Ġlic": 5322,
      "ĠNorth": 5323,
      "ĠHonor": 5324,
      "rated": 5325,
      "Ġcere": 5326,
      "Ġforeign": 5327,
      "hered": 5328,
      "ĠDep": 5329,
      "Ġhappiness": 5330,
      "AME": 5331,
      "Ġartist": 5332,
      "Ġmedicine": 5333,
      "Girl": 5334,
      "ali": 5335,
      "ĠCO": 5336,
      "However": 5337,
      "bbed": 5338,
      "kins": 5339,
      "Ġgarden": 5340,
      "ĠLove": 5341,
      "Anyone": 5342,
      "Hon": 5343,
      "ĠEast": 5344,
      "hips": 5345,
      "ERE": 5346,
      "ĠSuper": 5347,
      "Rep": 5348,
      "bles": 5349,
      "ĠSarah": 5350,
      "icky": 5351,
      "ĠGOING": 5352,
      "Ġgrowing": 5353,
      "Ġmale": 5354,
      "Ġbye": 5355,
      "Alex": 5356,
      "GAS": 5357,
      "Ġdies": 5358,
      "Hell": 5359,
      "Ġuniform": 5360,
      "Ġbuying": 5361,
      "azz": 5362,
      "ĠCarol": 5363,
      "Ġbreathing": 5364,
      "Ġhired": 5365,
      "Ġloyal": 5366,
      "Ġbecomes": 5367,
      "Att": 5368,
      "Ġbehav": 5369,
      "Ġpair": 5370,
      "ula": 5371,
      "Ġremem": 5372,
      "THIS": 5373,
      "Six": 5374,
      "ĠFranc": 5375,
      "who": 5376,
      "Ġopens": 5377,
      "ket": 5378,
      "Ġpassion": 5379,
      "Ġhumans": 5380,
      "Cool": 5381,
      "Ġcart": 5382,
      "LLY": 5383,
      "Ġfactory": 5384,
      "Ġeggs": 5385,
      "HA": 5386,
      "Ġboring": 5387,
      "Ġfif": 5388,
      "thur": 5389,
      "entlemen": 5390,
      "Ġtoilet": 5391,
      "did": 5392,
      "Ġdisp": 5393,
      "Ġraised": 5394,
      "Ġpersonally": 5395,
      "David": 5396,
      "OY": 5397,
      "Ġfancy": 5398,
      "ĠBer": 5399,
      "ulf": 5400,
      "Ġguarant": 5401,
      "Ġchose": 5402,
      "ÂĿ": 5403,
      "Ġcourage": 5404,
      "Ġadult": 5405,
      "Ġtouched": 5406,
      "Ġadvant": 5407,
      "specially": 5408,
      "Ġaudience": 5409,
      "Morning": 5410,
      "Ġhigher": 5411,
      "Ġcigaret": 5412,
      "Ġpill": 5413,
      "Ġgoin": 5414,
      "Ġknowledge": 5415,
      "Ġbroad": 5416,
      "Ġgather": 5417,
      "Ġsurround": 5418,
      "Ġcircum": 5419,
      "hetic": 5420,
      "Ġcitiz": 5421,
      "bered": 5422,
      "INGS": 5423,
      "Ġstrang": 5424,
      "iley": 5425,
      "Ġexplos": 5426,
      "gen": 5427,
      "Ġdesert": 5428,
      "Ġcentury": 5429,
      "alter": 5430,
      "Ġpercent": 5431,
      "Ġsecrets": 5432,
      "thy": 5433,
      "acks": 5434,
      "Ġlesson": 5435,
      "UH": 5436,
      "tit": 5437,
      "alse": 5438,
      "ĠMO": 5439,
      "ĠDa": 5440,
      "Ġassume": 5441,
      "Ġhug": 5442,
      "Ġsuffer": 5443,
      "Ġfilled": 5444,
      "Ġterms": 5445,
      "Ġtear": 5446,
      "Ġfro": 5447,
      "Ġheaded": 5448,
      "Ġslight": 5449,
      "Ġphotos": 5450,
      "ser": 5451,
      "Ġjoy": 5452,
      "irector": 5453,
      "secut": 5454,
      "15": 5455,
      "arl": 5456,
      "Ġmotherf": 5457,
      "holic": 5458,
      "ĠAM": 5459,
      "rying": 5460,
      "Ġwaited": 5461,
      "Ġflo": 5462,
      "Ġmagaz": 5463,
      "Sim": 5464,
      "Ġmeal": 5465,
      "Ġpositive": 5466,
      "Ġbasically": 5467,
      "ĠScotland": 5468,
      "ĠTy": 5469,
      "ĠChris": 5470,
      "aa": 5471,
      "Ġlau": 5472,
      "ĠSE": 5473,
      "ables": 5474,
      "Ġsource": 5475,
      "Same": 5476,
      "arn": 5477,
      "ida": 5478,
      "Ġashamed": 5479,
      "ĠWil": 5480,
      "ĠWHO": 5481,
      "80": 5482,
      "ales": 5483,
      "ĠMil": 5484,
      "ĠNat": 5485,
      "ĠNOW": 5486,
      "Ġbrief": 5487,
      "Kn": 5488,
      "ffe": 5489,
      "orter": 5490,
      "ĠMo": 5491,
      "ĠRoy": 5492,
      "Ġbelow": 5493,
      "Peter": 5494,
      "Â¡": 5495,
      "esse": 5496,
      "INGING": 5497,
      "Des": 5498,
      "Ġopt": 5499,
      "Ġpee": 5500,
      "ĠLE": 5501,
      "Ġawake": 5502,
      "Ġdirection": 5503,
      "bar": 5504,
      "ĠSOME": 5505,
      "ĠRoman": 5506,
      "Ġtit": 5507,
      "Ġcurious": 5508,
      "ola": 5509,
      "Ġbuzz": 5510,
      "Ġdesp": 5511,
      "onday": 5512,
      "Ġresist": 5513,
      "Ġplanned": 5514,
      "Ġgiant": 5515,
      "Ġcompetition": 5516,
      "SHE": 5517,
      "Ã¡": 5518,
      "ĠHIS": 5519,
      "ĠPete": 5520,
      "Ġrole": 5521,
      "Ġenemies": 5522,
      "ias": 5523,
      "sters": 5524,
      "Ġspring": 5525,
      "Ġpatients": 5526,
      "Ġpu": 5527,
      "Ġplate": 5528,
      "Ġfixed": 5529,
      "vy": 5530,
      "vest": 5531,
      "ĠPer": 5532,
      "ailable": 5533,
      "ĠBR": 5534,
      "Ġjobs": 5535,
      "According": 5536,
      "Feel": 5537,
      "Ġmic": 5538,
      "Ġinfect": 5539,
      "ĠWould": 5540,
      "ĠNa": 5541,
      "Ġilleg": 5542,
      "PH": 5543,
      "ĠLieutenant": 5544,
      "Ġbelongs": 5545,
      "Ġstock": 5546,
      "inking": 5547,
      "Ġclever": 5548,
      "Ever": 5549,
      "ums": 5550,
      "Ġprogress": 5551,
      "believ": 5552,
      "Ġromantic": 5553,
      "Eh": 5554,
      "Ġah": 5555,
      "uman": 5556,
      "ĠSergeant": 5557,
      "Ġdiamond": 5558,
      "imin": 5559,
      "alley": 5560,
      "ĠBa": 5561,
      "Ġrat": 5562,
      "play": 5563,
      "REAT": 5564,
      "Ġrepresent": 5565,
      "ĠProfessor": 5566,
      "Relax": 5567,
      "even": 5568,
      "Ġtrade": 5569,
      "Ġtrave": 5570,
      "Em": 5571,
      "cast": 5572,
      "aries": 5573,
      "ĠMel": 5574,
      "Ġdirectly": 5575,
      "ĠHighness": 5576,
      "ga": 5577,
      "ourt": 5578,
      "Ġtrail": 5579,
      "Boss": 5580,
      "got": 5581,
      "Ġach": 5582,
      "Ġdoctors": 5583,
      "ĠTIME": 5584,
      "ĠWOULD": 5585,
      "cks": 5586,
      "ASE": 5587,
      "Life": 5588,
      "Ġhous": 5589,
      "Ġjerk": 5590,
      "ivid": 5591,
      "Ġsuspic": 5592,
      "Ġsatisf": 5593,
      "Ġrate": 5594,
      "Ġchem": 5595,
      "Ġdealing": 5596,
      "mare": 5597,
      "Ġaccording": 5598,
      "URE": 5599,
      "atherine": 5600,
      "Ġimage": 5601,
      "ĠJapanese": 5602,
      "Mike": 5603,
      "inn": 5604,
      "Ġlad": 5605,
      "ĠCaesar": 5606,
      "Ġnational": 5607,
      "ĠRose": 5608,
      "izza": 5609,
      "Ġbadly": 5610,
      "OWN": 5611,
      "Ġreveal": 5612,
      "Ohh": 5613,
      "Ġyounger": 5614,
      "ĠTommy": 5615,
      "ĠSil": 5616,
      "Ġlover": 5617,
      "enced": 5618,
      "MO": 5619,
      "Ġunt": 5620,
      "bleep": 5621,
      "Know": 5622,
      "SIGHS": 5623,
      "Ġmort": 5624,
      "Ġgro": 5625,
      "ĠID": 5626,
      "ĠBur": 5627,
      "Ġpolitical": 5628,
      "Ġbound": 5629,
      "ĠMars": 5630,
      "raft": 5631,
      "peror": 5632,
      "Ġdrown": 5633,
      "Ġbased": 5634,
      "fire": 5635,
      "iforn": 5636,
      "Ġoffered": 5637,
      "Ġtip": 5638,
      "ĠRyan": 5639,
      "ĠJake": 5640,
      "Ġwalls": 5641,
      "Ġconcern": 5642,
      "James": 5643,
      "Ġdish": 5644,
      "Ġnurse": 5645,
      "ĠBet": 5646,
      "ĠRam": 5647,
      "Ġsquare": 5648,
      "holog": 5649,
      "ironment": 5650,
      "Ġdoin": 5651,
      "ĠLady": 5652,
      "Ġguests": 5653,
      "Ġsooner": 5654,
      "Ġsoup": 5655,
      "100": 5656,
      "Care": 5657,
      "fice": 5658,
      "pering": 5659,
      "Ġharder": 5660,
      "Ġscrewed": 5661,
      "Ġcelebrate": 5662,
      "Ġjury": 5663,
      "CO": 5664,
      "ĠTwo": 5665,
      "ĠRos": 5666,
      "Ġwinter": 5667,
      "Hy": 5668,
      "ĠSHE": 5669,
      "ĠDev": 5670,
      "ĠWay": 5671,
      "Uncle": 5672,
      "Ġbuck": 5673,
      "Ġgor": 5674,
      "ordon": 5675,
      "##": 5676,
      "rig": 5677,
      "rive": 5678,
      "Ġyourselves": 5679,
      "Ġdeb": 5680,
      "ols": 5681,
      "Cheers": 5682,
      "Especially": 5683,
      "Ġplayer": 5684,
      "Ġcommitted": 5685,
      "Ġdemand": 5686,
      "rict": 5687,
      "ship": 5688,
      "rial": 5689,
      "hern": 5690,
      "ours": 5691,
      "Ġsweat": 5692,
      "Ġshake": 5693,
      "ange": 5694,
      "Ġfaces": 5695,
      "Ġwatched": 5696,
      "ĠCharles": 5697,
      "ĠIndian": 5698,
      "Ġrescue": 5699,
      "BER": 5700,
      "Ġuseless": 5701,
      "Ġwhore": 5702,
      "Otherwise": 5703,
      "uments": 5704,
      "Ġchef": 5705,
      "colate": 5706,
      "Send": 5707,
      "Ġmama": 5708,
      "ĠSqu": 5709,
      "ifornia": 5710,
      "Ġbecoming": 5711,
      "Ġdisease": 5712,
      "iven": 5713,
      "ĠOFF": 5714,
      "Ġassistant": 5715,
      "Hope": 5716,
      "mar": 5717,
      "ĠSAY": 5718,
      "ecial": 5719,
      "ĠAndy": 5720,
      "ĠPrince": 5721,
      "Ġdata": 5722,
      "Ġrush": 5723,
      "Ġunf": 5724,
      "Ġstronger": 5725,
      "COME": 5726,
      "Ġhunt": 5727,
      "Ġvacation": 5728,
      "Comm": 5729,
      "Ġpounds": 5730,
      "Ġstood": 5731,
      "ware": 5732,
      "alian": 5733,
      "ĠMum": 5734,
      "ĠMama": 5735,
      "ĠWashington": 5736,
      "ĠFROM": 5737,
      "AH": 5738,
      "ila": 5739,
      "Ġbutter": 5740,
      "ĠYe": 5741,
      "Ġinsurance": 5742,
      "Ġbi": 5743,
      "Ġpopular": 5744,
      "believable": 5745,
      "Ġthief": 5746,
      "Ġfootball": 5747,
      "40": 5748,
      "Woman": 5749,
      "Ġdecent": 5750,
      "Ġgrave": 5751,
      "ALLY": 5752,
      "Ġcarrying": 5753,
      "Ġneighborhood": 5754,
      "Ġmob": 5755,
      "Ġmoves": 5756,
      "Ġcrash": 5757,
      "Ġrespond": 5758,
      "Eat": 5759,
      "iro": 5760,
      "ĠAp": 5761,
      "ĠDel": 5762,
      "Ġtrap": 5763,
      "Ġtelevision": 5764,
      "Narrator": 5765,
      "ĠRod": 5766,
      "ĠKore": 5767,
      "LET": 5768,
      "Ġcharges": 5769,
      "Luc": 5770,
      "ĠReg": 5771,
      "Ġcapable": 5772,
      "Ġsuccessful": 5773,
      "Wake": 5774,
      "Ġmaid": 5775,
      "ika": 5776,
      "Ġtreatment": 5777,
      "ODY": 5778,
      "Ġslowly": 5779,
      "Ġsuffering": 5780,
      "uary": 5781,
      "orse": 5782,
      "ĠEN": 5783,
      "Ġkicked": 5784,
      "Ġfortune": 5785,
      "Ġdelicious": 5786,
      "Bra": 5787,
      "Ġdownstairs": 5788,
      "Ġchanging": 5789,
      "Pat": 5790,
      "rang": 5791,
      "Ġscreen": 5792,
      "Ġconfused": 5793,
      "Ġpicking": 5794,
      "atches": 5795,
      "Mark": 5796,
      "bage": 5797,
      "hod": 5798,
      "ura": 5799,
      "IP": 5800,
      "bie": 5801,
      "rs": 5802,
      "ĠIntern": 5803,
      "Ġadvantage": 5804,
      "Coming": 5805,
      "Ġincident": 5806,
      "Sur": 5807,
      "geous": 5808,
      "Ġrise": 5809,
      "Hit": 5810,
      "bid": 5811,
      "Ġwire": 5812,
      "Ġbirds": 5813,
      "Cor": 5814,
      "ĠIF": 5815,
      "Ġpowers": 5816,
      "antly": 5817,
      "ĠSa": 5818,
      "endent": 5819,
      "ĠRE": 5820,
      "ĠJer": 5821,
      "Ġvision": 5822,
      "Ġmiracle": 5823,
      "ĠPLAYING": 5824,
      "Ġcircumst": 5825,
      "Ġspo": 5826,
      "Ġotherwise": 5827,
      "ĠAlice": 5828,
      "Ġcapital": 5829,
      "Ġburned": 5830,
      "Ġtoast": 5831,
      "Ġfalse": 5832,
      "ĠCOULD": 5833,
      "Ġwhoever": 5834,
      "Ġestab": 5835,
      "Master": 5836,
      "Police": 5837,
      "ĠPRO": 5838,
      "agn": 5839,
      "Ġfriendship": 5840,
      "pet": 5841,
      "eds": 5842,
      "ĠDen": 5843,
      "rett": 5844,
      "Ġrobber": 5845,
      "Lord": 5846,
      "âĻ¬": 5847,
      "Ġchecking": 5848,
      "ĠTHEM": 5849,
      "ĠGOOD": 5850,
      "Ġachieve": 5851,
      "ĠMont": 5852,
      "ĠCOME": 5853,
      "ĠDong": 5854,
      "ĠPet": 5855,
      "Ġassign": 5856,
      "Quiet": 5857,
      "ĠLOOK": 5858,
      "utter": 5859,
      "aming": 5860,
      "ĠVir": 5861,
      "Ġtradition": 5862,
      "Ġreck": 5863,
      "Roger": 5864,
      "ston": 5865,
      "Ġexact": 5866,
      "Ġowner": 5867,
      "Ġvalue": 5868,
      "known": 5869,
      "Ġtherap": 5870,
      "Ġgy": 5871,
      "Ġbeating": 5872,
      "Ġalco": 5873,
      "ĠRO": 5874,
      "ĠKen": 5875,
      "Ġnightmare": 5876,
      "Ġlaws": 5877,
      "Ġexpert": 5878,
      "ja": 5879,
      "Ġtears": 5880,
      "atives": 5881,
      "Ġgoodness": 5882,
      "Ġapparently": 5883,
      "Ġmadam": 5884,
      "Ġjournal": 5885,
      "Apparently": 5886,
      "Ġmult": 5887,
      "ĠAmy": 5888,
      "ĠCall": 5889,
      "Ġseal": 5890,
      "Ġcoinc": 5891,
      "Ġsacrifice": 5892,
      "Shoot": 5893,
      "AIT": 5894,
      "NAR": 5895,
      "Ġlaid": 5896,
      "ordin": 5897,
      "Ġinvite": 5898,
      "ĠAlan": 5899,
      "Ġinstruct": 5900,
      "Ġavailable": 5901,
      "Ġpills": 5902,
      "ISH": 5903,
      "Ġbags": 5904,
      "ĠSmith": 5905,
      "Joe": 5906,
      "Mart": 5907,
      "WOMAN": 5908,
      "Ġwise": 5909,
      "ĠAir": 5910,
      "Ġshr": 5911,
      "Won": 5912,
      "zo": 5913,
      "Ġbones": 5914,
      "ashing": 5915,
      "Ġdesire": 5916,
      "Bu": 5917,
      "Play": 5918,
      "Ġenvironment": 5919,
      "Bea": 5920,
      "GET": 5921,
      "Save": 5922,
      "Ġdust": 5923,
      "Ġuna": 5924,
      "ĠSaturday": 5925,
      "Soon": 5926,
      "Ġissues": 5927,
      "Ġtail": 5928,
      "Ġwide": 5929,
      "Ġhealthy": 5930,
      "Ġproperly": 5931,
      "Ġglasses": 5932,
      "lock": 5933,
      "Âª": 5934,
      "Ġreleased": 5935,
      "Ġacqu": 5936,
      "Ġcollea": 5937,
      "Ġiron": 5938,
      "ois": 5939,
      "Ġbone": 5940,
      "Ġfra": 5941,
      "ĠDave": 5942,
      "Ġcooking": 5943,
      "Ġbleeding": 5944,
      "Ġlat": 5945,
      "ushed": 5946,
      "ĠWorld": 5947,
      "ĠRock": 5948,
      "reek": 5949,
      "ublic": 5950,
      "Ġ60": 5951,
      "Ġhyp": 5952,
      "Ġphysical": 5953,
      "hest": 5954,
      "ĠJac": 5955,
      "Door": 5956,
      "Ġdrove": 5957,
      "\"!": 5958,
      "Ġbrand": 5959,
      "Ġsett": 5960,
      "Ġdistract": 5961,
      "Ġpa": 5962,
      "Ġshift": 5963,
      "Ġcloud": 5964,
      "iple": 5965,
      "Ġswitch": 5966,
      "Ġescaped": 5967,
      "eping": 5968,
      "ĠChina": 5969,
      "MY": 5970,
      "uries": 5971,
      "ĠEve": 5972,
      "Ġremains": 5973,
      "Ġrecomm": 5974,
      "Ġsongs": 5975,
      "Ġpalace": 5976,
      "ĠWERE": 5977,
      "ĠRa": 5978,
      "Ġunderw": 5979,
      "Ġcompan": 5980,
      "Ġfallen": 5981,
      "Ġsimilar": 5982,
      "Ġdetail": 5983,
      "Ġtechnology": 5984,
      "ĠRussian": 5985,
      "Ġtied": 5986,
      "Ġrow": 5987,
      "ĠLittle": 5988,
      "OUS": 5989,
      "Ġcabin": 5990,
      "Ġphotograph": 5991,
      "Bad": 5992,
      "Drop": 5993,
      "Jake": 5994,
      "Mc": 5995,
      "utiful": 5996,
      "Ġscore": 5997,
      "ouncer": 5998,
      "Ġextremely": 5999,
      "ami": 6000,
      "ĠSl": 6001,
      "ĠHolly": 6002,
      "ĠKevin": 6003,
      "ussy": 6004,
      "aign": 6005,
      "ez": 6006,
      "Ġforces": 6007,
      "Ġtroops": 6008,
      "agne": 6009,
      "Ġcruel": 6010,
      "Ġdetective": 6011,
      "Ġess": 6012,
      "Ġleading": 6013,
      "Ġbillion": 6014,
      "sit": 6015,
      "Ġpity": 6016,
      "uma": 6017,
      "Ġchap": 6018,
      "then": 6019,
      "Ġsexy": 6020,
      "Ġofficers": 6021,
      "Ġmodern": 6022,
      "Fran": 6023,
      "Red": 6024,
      "Ġwoke": 6025,
      "Ġbike": 6026,
      "Ġreward": 6027,
      "Ġspin": 6028,
      "Ġviolence": 6029,
      "Ġjacket": 6030,
      "udy": 6031,
      "Ġjoking": 6032,
      "ĠDoes": 6033,
      "Perfect": 6034,
      "amie": 6035,
      "Ġsexual": 6036,
      "ube": 6037,
      "ĠRoger": 6038,
      "ĠJones": 6039,
      "Ġconcl": 6040,
      "izz": 6041,
      "Believe": 6042,
      "500": 6043,
      "Ġhearts": 6044,
      "ĠShi": 6045,
      "Ġpride": 6046,
      "Inst": 6047,
      "Drink": 6048,
      "Ġmystery": 6049,
      "Ġsigns": 6050,
      "Ġstudio": 6051,
      "HOW": 6052,
      "ĠTur": 6053,
      "Ġshots": 6054,
      "Ġtemple": 6055,
      "Ġdisgusting": 6056,
      "Men": 6057,
      "Many": 6058,
      "Use": 6059,
      "ville": 6060,
      "Ġwitch": 6061,
      "Ġjew": 6062,
      "ĠHold": 6063,
      "ĠRoss": 6064,
      "chy": 6065,
      "ĠAR": 6066,
      "Ġalarm": 6067,
      "ĠEll": 6068,
      "Ġgrant": 6069,
      "Ġdetect": 6070,
      "yeah": 6071,
      "icago": 6072,
      "Ġentertain": 6073,
      "Ġprotection": 6074,
      "Ġdeeply": 6075,
      "LI": 6076,
      "bon": 6077,
      "isions": 6078,
      "Ġmanaged": 6079,
      "Har": 6080,
      "Ġinit": 6081,
      "Ġreb": 6082,
      "Ġmel": 6083,
      "egas": 6084,
      "uan": 6085,
      "ĠJin": 6086,
      "ĠOVER": 6087,
      "Ġappears": 6088,
      "shot": 6089,
      "Ġdeterm": 6090,
      "ĠWhoa": 6091,
      "atory": 6092,
      "isode": 6093,
      "Ġham": 6094,
      "ulance": 6095,
      "ĠNice": 6096,
      "Ġtrapped": 6097,
      "ĠSpanish": 6098,
      "Ġarrive": 6099,
      "Close": 6100,
      "illa": 6101,
      "ĠFuck": 6102,
      "uled": 6103,
      "Ġcheer": 6104,
      "Ġgrandfather": 6105,
      "omeday": 6106,
      "Ġappointment": 6107,
      "have": 6108,
      "ript": 6109,
      "ural": 6110,
      "ĠHol": 6111,
      "usan": 6112,
      "Ġmillions": 6113,
      "Ġsales": 6114,
      "Ġbabe": 6115,
      "ĠTw": 6116,
      "ĠBU": 6117,
      "Ġsail": 6118,
      "ĠVictor": 6119,
      "Ġpissed": 6120,
      "ann": 6121,
      "ĠGold": 6122,
      "Ġbored": 6123,
      "Ġgal": 6124,
      "otic": 6125,
      "iller": 6126,
      "ĠOR": 6127,
      "Ġaffair": 6128,
      "please": 6129,
      "Ġdecl": 6130,
      "ĠBy": 6131,
      "uddy": 6132,
      "ĠThomas": 6133,
      "Ġhonestly": 6134,
      "ped": 6135,
      "Ġ:": 6136,
      "hew": 6137,
      "Ġmovement": 6138,
      "Ġfiles": 6139,
      "Danny": 6140,
      "Ġliar": 6141,
      "Ġdepends": 6142,
      "Ġtreated": 6143,
      "Def": 6144,
      "Ã³": 6145,
      "Ġanger": 6146,
      "herry": 6147,
      "Ġload": 6148,
      "ĠPolice": 6149,
      "Ġcampaign": 6150,
      "xy": 6151,
      "yo": 6152,
      "illed": 6153,
      "ĠBilly": 6154,
      "ĠRep": 6155,
      "Ġstops": 6156,
      "rain": 6157,
      "Going": 6158,
      "alker": 6159,
      "etch": 6160,
      "geon": 6161,
      "Ġteen": 6162,
      "apping": 6163,
      "teen": 6164,
      "rem": 6165,
      "Ġlake": 6166,
      "Ġlack": 6167,
      "Ġmetal": 6168,
      "ertainly": 6169,
      "Ġliterally": 6170,
      "Ġvehicle": 6171,
      "reck": 6172,
      "Ġtransport": 6173,
      "ĠMonday": 6174,
      "Ġexha": 6175,
      "Ġtraffic": 6176,
      "EOP": 6177,
      "Ġwave": 6178,
      "Ġbon": 6179,
      "Ġpump": 6180,
      "Ġhunting": 6181,
      "Ġstress": 6182,
      "Ġbride": 6183,
      "Ġunus": 6184,
      "Ġwarn": 6185,
      "Ġreports": 6186,
      "Ġsurface": 6187,
      "Ġbabies": 6188,
      "erved": 6189,
      "ĠMed": 6190,
      "Ġconnected": 6191,
      "Gentlemen": 6192,
      "Mum": 6193,
      "sk": 6194,
      "onse": 6195,
      "Ġbond": 6196,
      "Ġstret": 6197,
      "ĠAust": 6198,
      "Nope": 6199,
      "aki": 6200,
      "ĠBEEN": 6201,
      "Ġoccur": 6202,
      "hoo": 6203,
      "uf": 6204,
      "ril": 6205,
      "ĠJose": 6206,
      "Ġannoy": 6207,
      "Ġnegot": 6208,
      "ĠFrancis": 6209,
      "Ġsurely": 6210,
      "ĠStep": 6211,
      "Ġminds": 6212,
      "Ġ300": 6213,
      "OTHER": 6214,
      "Ġsentence": 6215,
      "Ġships": 6216,
      "Ġvictory": 6217,
      "Ġeffort": 6218,
      "ĠMexico": 6219,
      "EOPLE": 6220,
      "19": 6221,
      "Ms": 6222,
      "Ã±": 6223,
      "Ġpiano": 6224,
      "Ġattorney": 6225,
      "aze": 6226,
      "Anybody": 6227,
      "Ġpulling": 6228,
      "Ġedge": 6229,
      "Ġbail": 6230,
      "Ġformer": 6231,
      "ĠDoc": 6232,
      "Ġsale": 6233,
      "ĠJerry": 6234,
      "bey": 6235,
      "Ġexperi": 6236,
      "Ġreceive": 6237,
      "GRO": 6238,
      "Ġlower": 6239,
      "ĠWin": 6240,
      "Ġtalent": 6241,
      "Ġindivid": 6242,
      "Ġsteps": 6243,
      "Ġelectric": 6244,
      "Ġdesperate": 6245,
      "ĠPapa": 6246,
      "ques": 6247,
      "Ġfinanc": 6248,
      "Ġconfirm": 6249,
      "Ġrevolution": 6250,
      "Ġseparate": 6251,
      "Ġwow": 6252,
      "has": 6253,
      "ican": 6254,
      "Ġaside": 6255,
      "Ġattitude": 6256,
      "Ġsolve": 6257,
      "Cr": 6258,
      "ĠAunt": 6259,
      "Ġdefense": 6260,
      "Ġmotor": 6261,
      "Ġmirror": 6262,
      "Ġcounter": 6263,
      "Ġbum": 6264,
      "Young": 6265,
      "ĠLaw": 6266,
      "Ġprincess": 6267,
      "ensive": 6268,
      "ĠArmy": 6269,
      "RATOR": 6270,
      "ĠRon": 6271,
      ")\\": 6272,
      "Ġputs": 6273,
      "Ġstranger": 6274,
      "Being": 6275,
      "Ġterm": 6276,
      "Ġpresence": 6277,
      "Ġkingdom": 6278,
      "Sn": 6279,
      "town": 6280,
      "uz": 6281,
      "ĠDE": 6282,
      "Ġassum": 6283,
      "Ġchocolate": 6284,
      "ĠGUY": 6285,
      "Either": 6286,
      "oni": 6287,
      "Ġcorn": 6288,
      "ĠOUR": 6289,
      "Ġagre": 6290,
      "agon": 6291,
      "Ġdece": 6292,
      "Honest": 6293,
      "jo": 6294,
      "ĠIike": 6295,
      "Almost": 6296,
      "Ġbeast": 6297,
      "ĠOw": 6298,
      "Neither": 6299,
      "ontinues": 6300,
      "Ġschedule": 6301,
      "Ġlicense": 6302,
      "ĠEddie": 6303,
      "Ġ21": 6304,
      "Ġrare": 6305,
      "Ġearn": 6306,
      "Unfortunately": 6307,
      "Ġillegal": 6308,
      ",...": 6309,
      "Nah": 6310,
      "WHO": 6311,
      "Ġwest": 6312,
      "Ġsed": 6313,
      "Ġcarried": 6314,
      "OMET": 6315,
      "ĠChristian": 6316,
      "liver": 6317,
      "Ġambulance": 6318,
      "ĠCalifornia": 6319,
      "otion": 6320,
      "ĠCount": 6321,
      "Ġbutton": 6322,
      "Ġchances": 6323,
      "Ġaccompl": 6324,
      "prise": 6325,
      "Ġstaring": 6326,
      "Ġconvinced": 6327,
      "mark": 6328,
      "Ġfashion": 6329,
      "ĠJae": 6330,
      "ogan": 6331,
      "thew": 6332,
      "ĠHAD": 6333,
      "ĠVery": 6334,
      "ĠBrother": 6335,
      "Ġexplan": 6336,
      "ropri": 6337,
      "itched": 6338,
      "Ġthrowing": 6339,
      "Ġlips": 6340,
      "unior": 6341,
      "ĠEr": 6342,
      "Ġsneak": 6343,
      "ĠAfrica": 6344,
      "Ġgoal": 6345,
      "ĠWow": 6346,
      "ĠLight": 6347,
      "ardo": 6348,
      "Ġdestiny": 6349,
      "Ġsmoking": 6350,
      "ĠWAY": 6351,
      "Ġspoken": 6352,
      "Ġunp": 6353,
      "THERE": 6354,
      "Ġdarkness": 6355,
      "fr": 6356,
      "era": 6357,
      "Ġliqu": 6358,
      "Ġconside": 6359,
      "ĠNEED": 6360,
      "Ġprecious": 6361,
      "Ġrepeat": 6362,
      "Lou": 6363,
      "aylor": 6364,
      "icate": 6365,
      "alled": 6366,
      "ĠTim": 6367,
      "Ġ500": 6368,
      "Ġmistakes": 6369,
      "Ġconsidered": 6370,
      "Ġwha": 6371,
      "Ġult": 6372,
      "Sl": 6373,
      "Ġcy": 6374,
      "Ġmyster": 6375,
      "quar": 6376,
      "Ġtalks": 6377,
      "ĠUN": 6378,
      "Ġfully": 6379,
      "60": 6380,
      "sm": 6381,
      "Ġtank": 6382,
      "itar": 6383,
      "Ġnut": 6384,
      "arrow": 6385,
      "ĠMatt": 6386,
      "Ġintern": 6387,
      "Ġleads": 6388,
      "Ġembarrassing": 6389,
      "iber": 6390,
      "Ġsucceed": 6391,
      "ros": 6392,
      "Ġassoc": 6393,
      "aging": 6394,
      "Ġadop": 6395,
      "why": 6396,
      "urd": 6397,
      "urning": 6398,
      "Ġwhenever": 6399,
      "Ġwarrant": 6400,
      "Ġspecies": 6401,
      "Ġrefuse": 6402,
      "Ġpolitics": 6403,
      "Ġcustomers": 6404,
      "Ġpizza": 6405,
      "ĠTed": 6406,
      "ĠDetective": 6407,
      "Ġscen": 6408,
      "Ġsla": 6409,
      "Ġhated": 6410,
      "Ġchosen": 6411,
      "THING": 6412,
      "bbing": 6413,
      "miss": 6414,
      "Ġpatter": 6415,
      "ĠOk": 6416,
      "Ġsolution": 6417,
      "Ġsew": 6418,
      "Ġremove": 6419,
      "ĠCommander": 6420,
      "Ġmountains": 6421,
      "Ġperformance": 6422,
      "Mama": 6423,
      "loe": 6424,
      "ĠDes": 6425,
      "ĠHuh": 6426,
      "HEY": 6427,
      "Ġcoast": 6428,
      "Ġsymb": 6429,
      "Ġwinning": 6430,
      "Ġexchange": 6431,
      "Ġsmells": 6432,
      "Plus": 6433,
      "Ġstealing": 6434,
      "Ġpie": 6435,
      "ĠSand": 6436,
      "Ġprim": 6437,
      "Ġassault": 6438,
      "IDE": 6439,
      "Ġloving": 6440,
      "Ġconcent": 6441,
      "ĠVegas": 6442,
      "Ġrabb": 6443,
      "Ġprovide": 6444,
      "Eng": 6445,
      "mate": 6446,
      "Ġborder": 6447,
      "Ġalert": 6448,
      "Ġplus": 6449,
      "hia": 6450,
      "Ġcontest": 6451,
      "Ġroute": 6452,
      "rance": 6453,
      "Ġdirt": 6454,
      "ĠOoh": 6455,
      "Ġpleased": 6456,
      "Americ": 6457,
      "Ġgall": 6458,
      "ĠDOWN": 6459,
      "ĠItalian": 6460,
      "Ġshopping": 6461,
      "licop": 6462,
      "ĠIsland": 6463,
      "Ġgods": 6464,
      "Ġaccepted": 6465,
      "Ġpanic": 6466,
      "CHUCKLES": 6467,
      "away": 6468,
      "hm": 6469,
      "stal": 6470,
      "ĠDoug": 6471,
      "agger": 6472,
      "Ġflower": 6473,
      "Ġequip": 6474,
      "Finally": 6475,
      "rad": 6476,
      "Ġfasc": 6477,
      "verage": 6478,
      "Ġexperiment": 6479,
      "Mommy": 6480,
      "Ġanti": 6481,
      "isher": 6482,
      "Ġnotes": 6483,
      "ĠFrom": 6484,
      "Ġtrace": 6485,
      "ĠAmericans": 6486,
      "umbling": 6487,
      "Ġcloses": 6488,
      "ĠLeon": 6489,
      "Ġhundreds": 6490,
      "UE": 6491,
      "swer": 6492,
      "Ġcircumstances": 6493,
      "abe": 6494,
      "Ġguards": 6495,
      "Ġspending": 6496,
      "Ġyellow": 6497,
      "Ġpushed": 6498,
      "Half": 6499,
      "Ġheav": 6500,
      "ĠCap": 6501,
      "Ġability": 6502,
      "Ġfab": 6503,
      "unter": 6504,
      "NARRATOR": 6505,
      "BY": 6506,
      "Free": 6507,
      "Ġthin": 6508,
      "abeth": 6509,
      "Ġflag": 6510,
      "Ġordinary": 6511,
      "Ġcameras": 6512,
      "200": 6513,
      "ala": 6514,
      "ĠSen": 6515,
      "ĠFine": 6516,
      "Ġexcellent": 6517,
      "Ġconc": 6518,
      "Ġconfident": 6519,
      "aud": 6520,
      "zing": 6521,
      "erable": 6522,
      "Ġgain": 6523,
      "ĠJean": 6524,
      "Ġscar": 6525,
      "Ġcreature": 6526,
      "Ġeventually": 6527,
      "Ġmercy": 6528,
      "Ġnetwork": 6529,
      "Ġsandwich": 6530,
      "len": 6531,
      "utation": 6532,
      "ĠMi": 6533,
      "Ġeaten": 6534,
      "DOOR": 6535,
      "Ġincluding": 6536,
      "lan": 6537,
      "Âł": 6538,
      "omfort": 6539,
      "ĠBuzz": 6540,
      "ĠKy": 6541,
      "Ġhelps": 6542,
      "Ġkinds": 6543,
      "Ġregard": 6544,
      "Ġcleaning": 6545,
      "ĠTR": 6546,
      "ĠEVERY": 6547,
      "Ġarch": 6548,
      "Ġconvince": 6549,
      "cHFFFF": 6550,
      "Ġwishes": 6551,
      "ĠSighs": 6552,
      "ĠApp": 6553,
      "ĠListen": 6554,
      "Ġspy": 6555,
      "Ġpartners": 6556,
      "gger": 6557,
      "Ġdocument": 6558,
      "PING": 6559,
      "Ġsisters": 6560,
      "Ġhorn": 6561,
      "elling": 6562,
      "Ġblast": 6563,
      "Ġwhist": 6564,
      "Ġserved": 6565,
      "Ġattend": 6566,
      "Ġbrains": 6567,
      "Ġabandoned": 6568,
      "Ġunusual": 6569,
      "BOTH": 6570,
      "gas": 6571,
      "inting": 6572,
      "Ġyo": 6573,
      "Ġtrash": 6574,
      "ĠClark": 6575,
      "GASPS": 6576,
      "PEN": 6577,
      "Ġfishing": 6578,
      "rier": 6579,
      "ĠTime": 6580,
      "Ġconference": 6581,
      "ĠGrace": 6582,
      "Ġrocks": 6583,
      "Ġinflu": 6584,
      "Mon": 6585,
      "hab": 6586,
      "Ġmr": 6587,
      "Ġstairs": 6588,
      "iger": 6589,
      "Ġshoulder": 6590,
      "Ahh": 6591,
      "ĠBrown": 6592,
      "Ġjoined": 6593,
      "Ġestate": 6594,
      "ĠLouis": 6595,
      "conom": 6596,
      "Ġtemperature": 6597,
      "ui": 6598,
      "when": 6599,
      "Ġsucks": 6600,
      "Ġarmed": 6601,
      "ĠLeo": 6602,
      "Ġsilence": 6603,
      "Max": 6604,
      "hai": 6605,
      "anny": 6606,
      "ĠSay": 6607,
      "ulse": 6608,
      "Ġclue": 6609,
      "Ġuns": 6610,
      "Ġbreast": 6611,
      "Ġpassing": 6612,
      "Work": 6613,
      "Ġnic": 6614,
      "Ġjunk": 6615,
      "Ġteaching": 6616,
      "EAD": 6617,
      "-(": 6618,
      "CAUSE": 6619,
      "Might": 6620,
      "tin": 6621,
      "aps": 6622,
      "Ġsetting": 6623,
      "Ġparking": 6624,
      "Ġzero": 6625,
      "Ġscript": 6626,
      "Ġmayor": 6627,
      "Yet": 6628,
      "iac": 6629,
      "iance": 6630,
      "odd": 6631,
      "Ġgrade": 6632,
      "annah": 6633,
      "Ġchain": 6634,
      "Ġwinner": 6635,
      "Enjoy": 6636,
      "Ġmixed": 6637,
      "Ġbehavior": 6638,
      "ĠTELL": 6639,
      "ĠHOW": 6640,
      "Ġintend": 6641,
      "Ġinstr": 6642,
      "Ġopposite": 6643,
      "music": 6644,
      "ability": 6645,
      "ĠBobby": 6646,
      "Ġpilot": 6647,
      "ipping": 6648,
      "Ġwolf": 6649,
      "ori": 6650,
      "Ġonline": 6651,
      "Ġarg": 6652,
      "Ġengaged": 6653,
      "Ġprisoner": 6654,
      "Ġsilver": 6655,
      "Ġlit": 6656,
      "Ġseries": 6657,
      "Ġequipment": 6658,
      "George": 6659,
      "Light": 6660,
      "Ġaim": 6661,
      "aro": 6662,
      "berg": 6663,
      "Ġcoach": 6664,
      "Ġelev": 6665,
      "Ġentirely": 6666,
      "Ġmisunder": 6667,
      "titles": 6668,
      "-[": 6669,
      "Each": 6670,
      "lies": 6671,
      "sequ": 6672,
      "never": 6673,
      "Ġuseful": 6674,
      "ASS": 6675,
      "Ġbasket": 6676,
      "rade": 6677,
      "lev": 6678,
      "Thought": 6679,
      "Ġexerc": 6680,
      "Ġriding": 6681,
      "Ġcreep": 6682,
      "Ġthrown": 6683,
      "Ġnewspaper": 6684,
      "fle": 6685,
      "know": 6686,
      "Ġbust": 6687,
      "Ġhack": 6688,
      "opy": 6689,
      "eeping": 6690,
      "ĠChurch": 6691,
      "ception": 6692,
      "Ġmessages": 6693,
      "Ġinsult": 6694,
      "Ġgrandmother": 6695,
      "Ġdevice": 6696,
      "Ġsilent": 6697,
      "Ġblew": 6698,
      "Henry": 6699,
      "Old": 6700,
      "Ġeast": 6701,
      "ĠBang": 6702,
      "ĠPol": 6703,
      "Ġflash": 6704,
      "uesday": 6705,
      "ĠIndia": 6706,
      "ompany": 6707,
      "Ġauthority": 6708,
      "Ġmechan": 6709,
      "ĠHot": 6710,
      "ĠMommy": 6711,
      "Ġpurs": 6712,
      "Ġpropos": 6713,
      "Ġmassive": 6714,
      "Hm": 6715,
      "Off": 6716,
      "ĠHug": 6717,
      "Ġseek": 6718,
      "Ġdebt": 6719,
      "Ġunderstanding": 6720,
      "Ġadvance": 6721,
      "Ġveget": 6722,
      "Ġdawn": 6723,
      "ophie": 6724,
      "Ġbatter": 6725,
      "Ġprint": 6726,
      "ORT": 6727,
      "Ġcollap": 6728,
      "Ġmedia": 6729,
      "Ġterrif": 6730,
      "Ġmagazine": 6731,
      "Sil": 6732,
      "Slow": 6733,
      "SCREAM": 6734,
      "Ġvamp": 6735,
      "Ġpoet": 6736,
      "LAUGHS": 6737,
      "Ġdegrees": 6738,
      "Ġded": 6739,
      "Ġfrank": 6740,
      "Ġlibr": 6741,
      "Ġshouting": 6742,
      "Ġbackground": 6743,
      "Though": 6744,
      "ugs": 6745,
      "Ġrail": 6746,
      "Ġrooms": 6747,
      "Ġbastards": 6748,
      "Ġapproach": 6749,
      "Ġguarantee": 6750,
      "bly": 6751,
      "Ġconfidence": 6752,
      "ĠMajor": 6753,
      "Ġhill": 6754,
      "ĠBarry": 6755,
      "ĠState": 6756,
      "Ġgarage": 6757,
      "Ġexplanation": 6758,
      "ban": 6759,
      "Ġce": 6760,
      "ĠTurn": 6761,
      "resp": 6762,
      "Ġcrown": 6763,
      "Ġconfir": 6764,
      "gl": 6765,
      "Ġcure": 6766,
      "ĠTae": 6767,
      "uls": 6768,
      "Ġpsyc": 6769,
      "Ġemotional": 6770,
      "Ġquarter": 6771,
      "mony": 6772,
      "amin": 6773,
      "ĠBel": 6774,
      "ĠChicago": 6775,
      "Chief": 6776,
      "ĠDaniel": 6777,
      "Ġrange": 6778,
      "secutor": 6779,
      "gment": 6780,
      "Ġet": 6781,
      "Ġmile": 6782,
      "Ġyouth": 6783,
      "Ġitem": 6784,
      "ician": 6785,
      "enture": 6786,
      "ĠMus": 6787,
      "Ġclin": 6788,
      "AC": 6789,
      "Ġsem": 6790,
      "Ġsons": 6791,
      "Ġknees": 6792,
      "Ġdelight": 6793,
      "Ġclown": 6794,
      "Ġblank": 6795,
      "Ġtests": 6796,
      "Speaking": 6797,
      "Ġtreasure": 6798,
      "becca": 6799,
      "render": 6800,
      "Seems": 6801,
      "Ġengage": 6802,
      "Ġidentity": 6803,
      "lished": 6804,
      "ĠCHE": 6805,
      "ĠBaby": 6806,
      "ĠOff": 6807,
      "Ġsearching": 6808,
      "Haven": 6809,
      "than": 6810,
      "Ġcooper": 6811,
      "athy": 6812,
      "udes": 6813,
      "Ġwallet": 6814,
      "Ġremembered": 6815,
      "EX": 6816,
      "Fred": 6817,
      "Ġeter": 6818,
      "Ġpardon": 6819,
      "keep": 6820,
      "inds": 6821,
      "iana": 6822,
      "Ġapplause": 6823,
      "EAKING": 6824,
      "Ġnail": 6825,
      "Ġkil": 6826,
      "Ġstink": 6827,
      "ĠWes": 6828,
      "Ġsav": 6829,
      "Ġchase": 6830,
      "Res": 6831,
      "laughter": 6832,
      "Ġwond": 6833,
      "Ġbom": 6834,
      "lling": 6835,
      "Ġcro": 6836,
      "ongress": 6837,
      "Ġfruit": 6838,
      "Ġevents": 6839,
      "uki": 6840,
      "Ġpushing": 6841,
      "Ain": 6842,
      "YES": 6843,
      "while": 6844,
      "Ġrehe": 6845,
      "Ġactual": 6846,
      "Ġpotential": 6847,
      "hey": 6848,
      "asing": 6849,
      "ĠBUT": 6850,
      "Ġlog": 6851,
      "ĠJon": 6852,
      "Ġcouch": 6853,
      "AII": 6854,
      "liv": 6855,
      "rer": 6856,
      "Ġpunch": 6857,
      "owing": 6858,
      "Ġalien": 6859,
      "Ġhouses": 6860,
      "ases": 6861,
      "ĠMORE": 6862,
      "ĠHill": 6863,
      "uckling": 6864,
      "anche": 6865,
      "ĠCarter": 6866,
      "Ġmidnight": 6867,
      "Speak": 6868,
      "Ġdefeat": 6869,
      "AW": 6870,
      "FE": 6871,
      "oted": 6872,
      "ucle": 6873,
      "Ġbrown": 6874,
      "Ġchildhood": 6875,
      "Ġtelephone": 6876,
      "Ġrobbery": 6877,
      "ipl": 6878,
      "Ġdea": 6879,
      "Ġpit": 6880,
      "Ġthrill": 6881,
      "ĠTor": 6882,
      "ĠRi": 6883,
      "ĠKeep": 6884,
      "Ġslip": 6885,
      "Ġprior": 6886,
      "Ġcoincidence": 6887,
      "NY": 6888,
      "Ġsan": 6889,
      "ĠJason": 6890,
      "Ġinterrupt": 6891,
      "Â¶Â¶": 6892,
      "Ġresponse": 6893,
      "Ġfailure": 6894,
      "Ġcoward": 6895,
      "rite": 6896,
      "ĠSing": 6897,
      "Its": 6898,
      "Ġnovel": 6899,
      "Ġqual": 6900,
      "Ġbeloved": 6901,
      "Ġbegins": 6902,
      "GRUNTS": 6903,
      "Gun": 6904,
      "Ġna": 6905,
      "ĠHarr": 6906,
      "ĠLET": 6907,
      "ĠPa": 6908,
      "ĠKelly": 6909,
      "standing": 6910,
      "Ġhurting": 6911,
      "Ġimpression": 6912,
      "bow": 6913,
      "reec": 6914,
      "Ġanni": 6915,
      "Ġje": 6916,
      "Ġsecure": 6917,
      "Ġmagn": 6918,
      "force": 6919,
      "Ġknocked": 6920,
      "Announcer": 6921,
      "alth": 6922,
      "ĠMeg": 6923,
      "ĠGreen": 6924,
      "Ġplain": 6925,
      "OUN": 6926,
      "Ġindep": 6927,
      "Ġ80": 6928,
      "Tra": 6929,
      "ua": 6930,
      "Ã¨": 6931,
      "Ġslave": 6932,
      "duced": 6933,
      "Instead": 6934,
      "IAN": 6935,
      "Ġrude": 6936,
      "agine": 6937,
      "eremy": 6938,
      "Ġlaughs": 6939,
      "icing": 6940,
      "ĠDam": 6941,
      "ĠGar": 6942,
      "ĠNational": 6943,
      "ĠYear": 6944,
      "Ġconfess": 6945,
      "Ġhonour": 6946,
      "Ġsecretary": 6947,
      "Ġtwist": 6948,
      "Ġsolid": 6949,
      "Ġwings": 6950,
      "ĠMAKE": 6951,
      "ĠBudd": 6952,
      "Ġroyal": 6953,
      "Ġhates": 6954,
      "Mo": 6955,
      "okay": 6956,
      "Ġnasty": 6957,
      "Ġreject": 6958,
      "ĠGary": 6959,
      "Ġflesh": 6960,
      "ursday": 6961,
      "Ġpunk": 6962,
      "ĠMount": 6963,
      "Ġloan": 6964,
      "Ġcheating": 6965,
      "Ġwid": 6966,
      "ima": 6967,
      "ĠMUSIC": 6968,
      "ittee": 6969,
      "ĠHead": 6970,
      "Ġmoments": 6971,
      "Ġmotherfucker": 6972,
      "coff": 6973,
      "Ġtempor": 6974,
      "ĠAbout": 6975,
      "Ġoccasion": 6976,
      "Careful": 6977,
      "Ġagreement": 6978,
      "NOT": 6979,
      "asha": 6980,
      "ĠTri": 6981,
      "istry": 6982,
      "Answer": 6983,
      "Ġhighly": 6984,
      "La": 6985,
      "OS": 6986,
      "bur": 6987,
      "war": 6988,
      "acking": 6989,
      "Ġkills": 6990,
      "ggy": 6991,
      "Wouldn": 6992,
      "Ġannounce": 6993,
      "ĠLucy": 6994,
      "looking": 6995,
      "GRUNTING": 6996,
      "General": 6997,
      "Ġtend": 6998,
      "Ġthee": 6999,
      "ench": 7000,
      "ĠDick": 7001,
      "Ġdepos": 7002,
      "DON": 7003,
      "Rec": 7004,
      "Ġhitting": 7005,
      "acon": 7006,
      "ĠMid": 7007,
      "ĠAG": 7008,
      "ĠBu": 7009,
      "Ġimpl": 7010,
      "ograp": 7011,
      "Ġcontain": 7012,
      "Ġstands": 7013,
      "Ġindustry": 7014,
      "Ġliber": 7015,
      "Ġstruct": 7016,
      "Pick": 7017,
      "Ġtoy": 7018,
      "asey": 7019,
      "Ġreputation": 7020,
      "ĠMEAN": 7021,
      "Ġdisappointed": 7022,
      "70": 7023,
      "Del": 7024,
      "Ġpink": 7025,
      "Ġwasting": 7026,
      "ĠEric": 7027,
      "izabeth": 7028,
      "Ġdisaster": 7029,
      "Ġtunnel": 7030,
      "Ġtoward": 7031,
      "enger": 7032,
      "Ġthy": 7033,
      "Ġjam": 7034,
      "ĠCam": 7035,
      "Ġfriendly": 7036,
      "Ġassass": 7037,
      "oster": 7038,
      "Ġfalls": 7039,
      "ĠAnna": 7040,
      "Ġclosing": 7041,
      "Ap": 7042,
      "lying": 7043,
      "ĠOut": 7044,
      "ipal": 7045,
      "Ġterrit": 7046,
      "Ġpossibility": 7047,
      "Ġkissed": 7048,
      "Ġsometime": 7049,
      "bum": 7050,
      "iated": 7051,
      "Ġwriter": 7052,
      "Money": 7053,
      "Ġing": 7054,
      "usive": 7055,
      "idering": 7056,
      "Ġshy": 7057,
      "ĠRachel": 7058,
      "ĠJen": 7059,
      "Ġcounting": 7060,
      "Ġmessed": 7061,
      "Ġsystems": 7062,
      "Ġstatus": 7063,
      "ITTLE": 7064,
      "laughing": 7065,
      "Ġhelicop": 7066,
      "aters": 7067,
      "Ġprince": 7068,
      "attoo": 7069,
      "Ġlaunch": 7070,
      "Obviously": 7071,
      "Ġeconom": 7072,
      "Ġdozen": 7073,
      "ĠLisa": 7074,
      "Ġcontroll": 7075,
      "ORN": 7076,
      "ITY": 7077,
      "Ray": 7078,
      "bes": 7079,
      "Ġtent": 7080,
      "Ġsides": 7081,
      "Ġls": 7082,
      "Ġhomes": 7083,
      "ĠBO": 7084,
      "ordinary": 7085,
      "Ġbelt": 7086,
      "Ġmustn": 7087,
      "TERING": 7088,
      "Ġintelligence": 7089,
      "ifts": 7090,
      "Ġwarri": 7091,
      "Ġmarks": 7092,
      "Add": 7093,
      "ĠTAKE": 7094,
      "Ġrope": 7095,
      "Ġwarned": 7096,
      "Ġmostly": 7097,
      "Ġlatest": 7098,
      "Ġtask": 7099,
      "Ġwherever": 7100,
      "ĠBrad": 7101,
      "ALK": 7102,
      "Aye": 7103,
      "Ġworkers": 7104,
      "ISS": 7105,
      "Ġcustody": 7106,
      "wa": 7107,
      "ani": 7108,
      "Ġholy": 7109,
      "icles": 7110,
      "ĠColl": 7111,
      "ĠCourt": 7112,
      "ĠHim": 7113,
      "Excellent": 7114,
      "Ġwindows": 7115,
      "his": 7116,
      "uis": 7117,
      "arge": 7118,
      "ado": 7119,
      "Ġreported": 7120,
      "Ġpurse": 7121,
      "Hands": 7122,
      "rish": 7123,
      "oto": 7124,
      "Ġhabit": 7125,
      "Ġarrang": 7126,
      "ĠVan": 7127,
      "Ass": 7128,
      "Ġfella": 7129,
      "grunts": 7130,
      "Ġdeny": 7131,
      "Ġceremony": 7132,
      "Hard": 7133,
      "iable": 7134,
      "happy": 7135,
      "Ġyard": 7136,
      "Ġfulf": 7137,
      "ĠFel": 7138,
      "Kim": 7139,
      "riel": 7140,
      "versary": 7141,
      "Ġtrusted": 7142,
      "gypt": 7143,
      "WO": 7144,
      "iner": 7145,
      "Ġlif": 7146,
      "Ġrhy": 7147,
      "Ġgrass": 7148,
      "Ġphil": 7149,
      "Ġpolicy": 7150,
      "Ġlearning": 7151,
      "Ġmental": 7152,
      "craft": 7153,
      "ingo": 7154,
      "ĠTex": 7155,
      "Looking": 7156,
      "REN": 7157,
      "iane": 7158,
      "Ġskills": 7159,
      "Ġexecut": 7160,
      "Ġwreck": 7161,
      "adem": 7162,
      "arts": 7163,
      "ĠWoody": 7164,
      "Ġproceed": 7165,
      "Ġcorpor": 7166,
      "ĠBlue": 7167,
      "Ġlung": 7168,
      "ĠHell": 7169,
      "Ġchatter": 7170,
      "DER": 7171,
      "Mag": 7172,
      "Pass": 7173,
      "lig": 7174,
      "amatic": 7175,
      "ĠDAY": 7176,
      "Ġflu": 7177,
      "Ġdiscover": 7178,
      "==": 7179,
      "Dis": 7180,
      "Ġmat": 7181,
      "ĠMu": 7182,
      "Ġrice": 7183,
      "ĠHmm": 7184,
      "Ġagents": 7185,
      "apers": 7186,
      "berry": 7187,
      "Ġshoe": 7188,
      "Ġcircle": 7189,
      "ĠEmily": 7190,
      "Ant": 7191,
      "ĠDec": 7192,
      "Ġtrunk": 7193,
      "beat": 7194,
      "Ġremote": 7195,
      "Ġcleared": 7196,
      "Ġfacts": 7197,
      "Ġlegend": 7198,
      "ĠWhich": 7199,
      "Ġvirus": 7200,
      "Darling": 7201,
      "Mind": 7202,
      "bre": 7203,
      "Ġbesides": 7204,
      "Ġparties": 7205,
      "Ġstrate": 7206,
      "Ġrefer": 7207,
      "Ġmask": 7208,
      "ushing": 7209,
      "Ġgosh": 7210,
      "ĠPut": 7211,
      "ĠJosh": 7212,
      "ĠREALLY": 7213,
      "hall": 7214,
      "Ġhel": 7215,
      "ague": 7216,
      "Ġ23": 7217,
      "Ġassure": 7218,
      "Ġrape": 7219,
      "Ġbeaten": 7220,
      "OMETHING": 7221,
      "ji": 7222,
      "pse": 7223,
      "woman": 7224,
      "Ġthick": 7225,
      "Ġlifet": 7226,
      "ugust": 7227,
      "Ġcomplex": 7228,
      "Ġchasing": 7229,
      "Ġleaders": 7230,
      "Quite": 7231,
      "Ġfilms": 7232,
      "âĢĶ": 7233,
      "ĠDepartment": 7234,
      "ĠVirgin": 7235,
      "ropriate": 7236,
      "BO": 7237,
      "IES": 7238,
      "Ġmer": 7239,
      "Ġcounc": 7240,
      "Ġdecisions": 7241,
      "Bo": 7242,
      "lly": 7243,
      "asp": 7244,
      "tery": 7245,
      "ĠBY": 7246,
      "Ġjuice": 7247,
      "cial": 7248,
      "mir": 7249,
      "Ġbump": 7250,
      "Ġrot": 7251,
      "ĠHank": 7252,
      "ĠFirst": 7253,
      "Ġmethod": 7254,
      "Ġbetrayed": 7255,
      "coffs": 7256,
      "Ġhire": 7257,
      "Ġelder": 7258,
      "roke": 7259,
      "Ġtitle": 7260,
      "Dam": 7261,
      "Friend": 7262,
      "Music": 7263,
      "WHERE": 7264,
      "bird": 7265,
      "uate": 7266,
      "Ġsalt": 7267,
      "ourse": 7268,
      "Ġexit": 7269,
      "Ġproced": 7270,
      "Ġvar": 7271,
      "Ġmonkey": 7272,
      "Ġspecific": 7273,
      "Ġstopping": 7274,
      "Ġgolden": 7275,
      "Ġbasement": 7276,
      "Certainly": 7277,
      "Ġnucle": 7278,
      "ĠBor": 7279,
      "Ġtricks": 7280,
      "Ġcells": 7281,
      "ĠEmperor": 7282,
      "ylan": 7283,
      "Ġdelay": 7284,
      "Jan": 7285,
      "Ġnerve": 7286,
      "Ġanx": 7287,
      "ĠWoo": 7288,
      "Ġsports": 7289,
      "Ġrose": 7290,
      "Ġunknown": 7291,
      "Ġfourth": 7292,
      "ĠAtl": 7293,
      "ffered": 7294,
      "14": 7295,
      "Nick": 7296,
      "Ġwins": 7297,
      "ppers": 7298,
      "Whoever": 7299,
      "Ġ22": 7300,
      "Ġstays": 7301,
      "ĠChuckles": 7302,
      "ĠGrandma": 7303,
      "car": 7304,
      "Ġbes": 7305,
      "omer": 7306,
      "Ġforth": 7307,
      "ĠThree": 7308,
      "ĠArthur": 7309,
      "Ġfrequ": 7310,
      "Ġcloset": 7311,
      "Ġcosts": 7312,
      "Ġdelivery": 7313,
      "Ġfuel": 7314,
      "ĠHay": 7315,
      "ĠNic": 7316,
      "ĠNaz": 7317,
      "Ġcutting": 7318,
      "Adam": 7319,
      "Jimmy": 7320,
      "Ġalcohol": 7321,
      "fish": 7322,
      "Ġou": 7323,
      "Ġjoint": 7324,
      "Black": 7325,
      "Ġpotato": 7326,
      ".!": 7327,
      "Mary": 7328,
      "foot": 7329,
      "kward": 7330,
      "Ġtattoo": 7331,
      "Ġsomeday": 7332,
      "Ġgig": 7333,
      "Ġgear": 7334,
      "ĠHall": 7335,
      "ĠJung": 7336,
      "Ġasks": 7337,
      "ups": 7338,
      "Ġglo": 7339,
      "Ġoccup": 7340,
      "Beautiful": 7341,
      "Ġsettled": 7342,
      "Breat": 7343,
      "Us": 7344,
      "mosp": 7345,
      "Ġpound": 7346,
      "Ġargue": 7347,
      "Ġcris": 7348,
      "Ġwounded": 7349,
      "Fight": 7350,
      "ĠRad": 7351,
      "Ġscan": 7352,
      "Ġswing": 7353,
      "Ġrefused": 7354,
      "Second": 7355,
      "Ġreligion": 7356,
      "Gee": 7357,
      "uous": 7358,
      "Ġforbid": 7359,
      "ummer": 7360,
      "ewis": 7361,
      "Ġyelling": 7362,
      "Imagine": 7363,
      "Sister": 7364,
      "aah": 7365,
      "eer": 7366,
      "Ġactor": 7367,
      "Ġsupply": 7368,
      "ological": 7369,
      "Ġsnake": 7370,
      "Ġelephan": 7371,
      "ĠBarb": 7372,
      "Ġignore": 7373,
      "ĠSecret": 7374,
      "Ġfrightened": 7375,
      "Later": 7376,
      "Rob": 7377,
      "cut": 7378,
      "non": 7379,
      "uable": 7380,
      "Ġfever": 7381,
      "imum": 7382,
      "ĠMer": 7383,
      "ĠDirector": 7384,
      "Ġvul": 7385,
      "action": 7386,
      "Ġresour": 7387,
      "Ġgarbage": 7388,
      "Ġclimb": 7389,
      "Ġstruggle": 7390,
      "Ġshadow": 7391,
      "Ġrecommend": 7392,
      "ĠHAPP": 7393,
      "ervation": 7394,
      "Ġeducation": 7395,
      "gers": 7396,
      "inner": 7397,
      "utch": 7398,
      "ĠAng": 7399,
      "ĠBruce": 7400,
      "Ġinsp": 7401,
      "Ġcastle": 7402,
      "Ġversion": 7403,
      "Ġcharming": 7404,
      "SEL": 7405,
      "Ġtyp": 7406,
      "Ġpunishment": 7407,
      "iar": 7408,
      "acing": 7409,
      "ĠTre": 7410,
      "Ġwanting": 7411,
      "Ġunion": 7412,
      "Whose": 7413,
      "Ġminister": 7414,
      "ĠRoad": 7415,
      "Ġunique": 7416,
      "Ġjumped": 7417,
      "ios": 7418,
      "Ġstub": 7419,
      "ĠNor": 7420,
      "Stupid": 7421,
      "Ġstudying": 7422,
      "Prep": 7423,
      "Ġreaction": 7424,
      "ĠCONT": 7425,
      "CAR": 7426,
      "Ġpow": 7427,
      "Ġsuffered": 7428,
      "Ġsquad": 7429,
      "Ġculture": 7430,
      "ĠDIDN": 7431,
      "omfortable": 7432,
      "Number": 7433,
      "Papa": 7434,
      "aser": 7435,
      "ĠLITTLE": 7436,
      "venue": 7437,
      "arewell": 7438,
      "Ġsport": 7439,
      "ianc": 7440,
      "Ġgrandma": 7441,
      "Johnny": 7442,
      "Ġimpressed": 7443,
      "Ġchampagne": 7444,
      "Previously": 7445,
      "Ġbury": 7446,
      "ĠIm": 7447,
      "ĠNever": 7448,
      "Ġending": 7449,
      "Ġcraw": 7450,
      "Ġentered": 7451,
      "Ġtwenty": 7452,
      "Ġmurders": 7453,
      "Ġselfish": 7454,
      "Ġpussy": 7455,
      "ĠLaura": 7456,
      "Ġshell": 7457,
      "uded": 7458,
      "REE": 7459,
      "uba": 7460,
      "Ġautom": 7461,
      "Ã¶u": 7462,
      "Colonel": 7463,
      "Ġlibrary": 7464,
      "tes": 7465,
      "oma": 7466,
      "andal": 7467,
      "Ġswallow": 7468,
      "ĠInspector": 7469,
      "Ġspeaks": 7470,
      "Ġthreatened": 7471,
      "umes": 7472,
      "ĠKate": 7473,
      "ounced": 7474,
      "Ġphotograp": 7475,
      "BODY": 7476,
      "Jess": 7477,
      "pting": 7478,
      "Ġmister": 7479,
      "ester": 7480,
      "Ġsurvived": 7481,
      "Robert": 7482,
      "War": 7483,
      "Ġconqu": 7484,
      "Ġprevent": 7485,
      "Ġconcert": 7486,
      "Ġmaintain": 7487,
      "Ġencour": 7488,
      "Ġlifetime": 7489,
      "Sarah": 7490,
      "mans": 7491,
      "rating": 7492,
      "Ġoption": 7493,
      "amm": 7494,
      "Ġshel": 7495,
      "Ġhowever": 7496,
      "Ġ90": 7497,
      "Ġviolent": 7498,
      "Ġsharp": 7499,
      "Ġfinancial": 7500,
      "Kiss": 7501,
      "Need": 7502,
      "Ġdent": 7503,
      "ĠAsh": 7504,
      "ulated": 7505,
      "Meet": 7506,
      "Trans": 7507,
      "Super": 7508,
      "Ġmysterious": 7509,
      "Ġple": 7510,
      "Ġcandy": 7511,
      "razy": 7512,
      "ĠWHEN": 7513,
      "hib": 7514,
      "Ġprotecting": 7515,
      "Ġlimit": 7516,
      "Ġswimming": 7517,
      "Mine": 7518,
      "win": 7519,
      "Ġreview": 7520,
      "Ġfellas": 7521,
      "Couldn": 7522,
      "nic": 7523,
      "Ġgamb": 7524,
      "ĠLuke": 7525,
      "Grab": 7526,
      "girl": 7527,
      "ĠWant": 7528,
      "abor": 7529,
      "Ġpros": 7530,
      "Ġremark": 7531,
      "Ġ199": 7532,
      "Ġcouncil": 7533,
      "Cons": 7534,
      "Ġguts": 7535,
      "Ġbeef": 7536,
      "alty": 7537,
      "ria": 7538,
      "riv": 7539,
      "ĠHit": 7540,
      "Ġconsequ": 7541,
      "Ġgrace": 7542,
      "Ġjokes": 7543,
      "Ġheavily": 7544,
      "dam": 7545,
      "Ġdeck": 7546,
      "Ġconditions": 7547,
      "Ġcrossed": 7548,
      "Bill": 7549,
      "Ġtooth": 7550,
      "ĠGreg": 7551,
      "Ġrip": 7552,
      "Ġfrozen": 7553,
      "shi": 7554,
      "andom": 7555,
      "olves": 7556,
      "Ġquality": 7557,
      "ĠClaire": 7558,
      "Ġuniversity": 7559,
      "good": 7560,
      "Ġplastic": 7561,
      "ĠOfficer": 7562,
      "ords": 7563,
      "Ġgreater": 7564,
      "Ġmicro": 7565,
      "Honestly": 7566,
      ".]": 7567,
      "Ġpassport": 7568,
      "Goddamn": 7569,
      "ronic": 7570,
      "Ġwitnesses": 7571,
      "Ġbalance": 7572,
      "25": 7573,
      "IV": 7574,
      "MM": 7575,
      "ĠWall": 7576,
      "ĠUp": 7577,
      "Ġurgent": 7578,
      "Ġcounsel": 7579,
      "Ret": 7580,
      "Tim": 7581,
      "Ġthou": 7582,
      "hant": 7583,
      "Ġsheriff": 7584,
      "Ġsauce": 7585,
      "ĠKang": 7586,
      "pected": 7587,
      "ĠAnn": 7588,
      "Ġstarving": 7589,
      "Ġcrisis": 7590,
      "Eight": 7591,
      "Ġdim": 7592,
      "Ġhits": 7593,
      "unte": 7594,
      "ĠDor": 7595,
      "Ġrecall": 7596,
      "Ġsensitive": 7597,
      "ĠÃ¢": 7598,
      "Twenty": 7599,
      "AGE": 7600,
      "Imp": 7601,
      "uing": 7602,
      "Ġsection": 7603,
      "ĠCALL": 7604,
      "avis": 7605,
      "Madam": 7606,
      "inating": 7607,
      "ĠFour": 7608,
      "Ġtheme": 7609,
      "itches": 7610,
      "ification": 7611,
      "UP": 7612,
      "Ġbid": 7613,
      "Ġfest": 7614,
      "Ġatmosp": 7615,
      "Ġshout": 7616,
      "ĠHong": 7617,
      "olo": 7618,
      "Ġclients": 7619,
      "Ġprofessor": 7620,
      "ĠLOVE": 7621,
      "Kind": 7622,
      "Promise": 7623,
      "Rose": 7624,
      "oard": 7625,
      "Ġwra": 7626,
      "Ġfiring": 7627,
      "vere": 7628,
      "Ġanal": 7629,
      "ĠGe": 7630,
      "ĠPort": 7631,
      "Ġblond": 7632,
      "Getting": 7633,
      "Ġtrained": 7634,
      "Ġfoolish": 7635,
      "Ġrequire": 7636,
      "Ġblowing": 7637,
      "cHFFFFFF": 7638,
      "Bull": 7639,
      "run": 7640,
      "isy": 7641,
      "Ġgrou": 7642,
      "ĠHal": 7643,
      "Ġremoved": 7644,
      "ĠChuck": 7645,
      "ORD": 7646,
      "Ġembarrassed": 7647,
      "Set": 7648,
      "Â§": 7649,
      "Ġnoble": 7650,
      "olved": 7651,
      "Ġspect": 7652,
      "anced": 7653,
      "Ġescort": 7654,
      "ĠJackson": 7655,
      "Knock": 7656,
      "iper": 7657,
      "Ġfurn": 7658,
      "Ġpour": 7659,
      "amps": 7660,
      "ĠTuesday": 7661,
      "Ġuses": 7662,
      "ĠPR": 7663,
      "Ġcrimes": 7664,
      "Ġconscious": 7665,
      "ĠGrandpa": 7666,
      "Ġsurrounded": 7667,
      "Ġsuspicious": 7668,
      "Cho": 7669,
      "coming": 7670,
      "life": 7671,
      "Ġsuits": 7672,
      "Ġimagination": 7673,
      "Ġzone": 7674,
      "Ġracing": 7675,
      "Ġrehears": 7676,
      "Sign": 7677,
      "Ter": 7678,
      "Ġcats": 7679,
      "ĠMerc": 7680,
      "ĠCAR": 7681,
      "umn": 7682,
      "Ġappeal": 7683,
      "Ġhumili": 7684,
      "Ġsymbol": 7685,
      "CON": 7686,
      "Wonder": 7687,
      "ĠOur": 7688,
      "Whether": 7689,
      "atched": 7690,
      "Ġpainful": 7691,
      "Ġsmooth": 7692,
      "ĠJacob": 7693,
      "ĠHollywood": 7694,
      "hatt": 7695,
      "Ġsteel": 7696,
      "stein": 7697,
      "ĠLong": 7698,
      "Ġloser": 7699,
      "ERY": 7700,
      "izard": 7701,
      "LEASE": 7702,
      "Ġawkward": 7703,
      "Ġtouching": 7704,
      "Ġconduct": 7705,
      "Ġrobot": 7706,
      "Ġimpressive": 7707,
      "Ġconstruction": 7708,
      "Ġdesigned": 7709,
      "Ġprecise": 7710,
      "Ġta": 7711,
      "Ġcave": 7712,
      "arian": 7713,
      "Ġwasted": 7714,
      "Ġcomed": 7715,
      "Ġcommander": 7716,
      "Ġlanded": 7717,
      "Ġcustomer": 7718,
      "Ġbenefit": 7719,
      "ĠSAID": 7720,
      "Ġgym": 7721,
      "Way": 7722,
      "Ġtag": 7723,
      "eeze": 7724,
      "Ġaboard": 7725,
      "Ġshown": 7726,
      "ĠHome": 7727,
      "Ġactions": 7728,
      "Ġbreaks": 7729,
      "Ġconsc": 7730,
      "Ġlion": 7731,
      "ivered": 7732,
      "Throw": 7733,
      "ĠEgypt": 7734,
      "ĠShow": 7735,
      "Ġsatell": 7736,
      "Understand": 7737,
      "Ġparticularly": 7738,
      "aya": 7739,
      "Ġbegging": 7740,
      "sell": 7741,
      "acey": 7742,
      "issa": 7743,
      "uction": 7744,
      "OUGHT": 7745,
      "Ġinjured": 7746,
      "Ġnuclear": 7747,
      "Da": 7748,
      "ĠKe": 7749,
      "Ġpretending": 7750,
      "Ġboot": 7751,
      "load": 7752,
      "Ġcalc": 7753,
      "Ġgorgeous": 7754,
      "Ġtherapy": 7755,
      "quarters": 7756,
      "Par": 7757,
      "Ty": 7758,
      "rock": 7759,
      "ĠSCREAM": 7760,
      "ĠLarry": 7761,
      "Ġprem": 7762,
      "Ġrelated": 7763,
      "IO": 7764,
      "Ġfianc": 7765,
      "Ġaccused": 7766,
      "otted": 7767,
      "Ġwalks": 7768,
      "ACH": 7769,
      "Pardon": 7770,
      "TA": 7771,
      "ÃŃ": 7772,
      "inals": 7773,
      "orious": 7774,
      "Andy": 7775,
      "ĠBrian": 7776,
      "Ġshield": 7777,
      "ĠJe": 7778,
      "ĠTHING": 7779,
      "Ġmiserable": 7780,
      "lace": 7781,
      "Heh": 7782,
      "ĠContinues": 7783,
      "ĠHappy": 7784,
      "Ġplat": 7785,
      "aws": 7786,
      "Ġinstinct": 7787,
      "Ġanniversary": 7788,
      "Jane": 7789,
      "Sy": 7790,
      "Sleep": 7791,
      "ĠâĢĵ": 7792,
      "Ġtab": 7793,
      "ĠSn": 7794,
      "ĠSho": 7795,
      "ĠWed": 7796,
      "ĠRich": 7797,
      "Ġsuitc": 7798,
      "EAL": 7799,
      "Ġcreatures": 7800,
      "Ġnormally": 7801,
      "Ġextraordinary": 7802,
      "Ġsenior": 7803,
      "stitute": 7804,
      "Ġterritory": 7805,
      ":$": 7806,
      "ouch": 7807,
      "Ġbatt": 7808,
      "Ġfence": 7809,
      "Ġthor": 7810,
      "Ġmeas": 7811,
      "ĠBea": 7812,
      "oren": 7813,
      "Ġvic": 7814,
      "Ġintention": 7815,
      "Ġdeserves": 7816,
      "ĠThursday": 7817,
      "Ġregist": 7818,
      "Ġbullets": 7819,
      "box": 7820,
      "Ġcitizens": 7821,
      "dog": 7822,
      "pos": 7823,
      "Ġge": 7824,
      "Ġlun": 7825,
      "Ġvirt": 7826,
      "URN": 7827,
      "Ġequal": 7828,
      "Ġuncomfortable": 7829,
      "Ġpsycholog": 7830,
      "Ġporn": 7831,
      "Ġalbum": 7832,
      "ĠRes": 7833,
      "ANCE": 7834,
      "pense": 7835,
      "Ġvaluable": 7836,
      "Ġreplace": 7837,
      "Ġtaxi": 7838,
      "Ġdisturb": 7839,
      "ĠTexas": 7840,
      "\"\"": 7841,
      "bast": 7842,
      "gues": 7843,
      "iots": 7844,
      "new": 7845,
      "Ġdial": 7846,
      "ĠNight": 7847,
      "Ġsignific": 7848,
      "Ġvoices": 7849,
      "ĠSean": 7850,
      "Ġservices": 7851,
      "ĠMorgan": 7852,
      "Women": 7853,
      "ĠPRE": 7854,
      "ĠRick": 7855,
      "Ġmighty": 7856,
      "Shouldn": 7857,
      "Ġbaseball": 7858,
      "OSE": 7859,
      "vity": 7860,
      "Ġheight": 7861,
      "ĠMU": 7862,
      "essa": 7863,
      "olt": 7864,
      "Ġsmiling": 7865,
      "ICH": 7866,
      "Ġbowl": 7867,
      "Home": 7868,
      "tr": 7869,
      "Ġwounds": 7870,
      "odes": 7871,
      "ORY": 7872,
      "Ġsurrender": 7873,
      "Ġinvented": 7874,
      "Ġattractive": 7875,
      "Ġbelieves": 7876,
      "Ġarranged": 7877,
      "AV": 7878,
      "CL": 7879,
      "Jeff": 7880,
      "Ġbot": 7881,
      "ĠSoo": 7882,
      "ĠTOO": 7883,
      "Ġfrust": 7884,
      "ĠMarg": 7885,
      "Ġpackage": 7886,
      "Agent": 7887,
      "DY": 7888,
      "FT": 7889,
      "Mic": 7890,
      "Richard": 7891,
      "Ġwing": 7892,
      "Ġtheater": 7893,
      "Ġstake": 7894,
      "ĠBay": 7895,
      "Ġplaced": 7896,
      "otte": 7897,
      "Ġprisoners": 7898,
      "Tommy": 7899,
      "Ġcigarette": 7900,
      "13": 7901,
      "LIE": 7902,
      "PER": 7903,
      "because": 7904,
      "ador": 7905,
      "irk": 7906,
      "Ġspr": 7907,
      "ixon": 7908,
      "Child": 7909,
      "ront": 7910,
      "ishop": 7911,
      "Ġfans": 7912,
      "Ġheck": 7913,
      "atan": 7914,
      "Ġnothin": 7915,
      "ĠHeaven": 7916,
      "Ġrecent": 7917,
      "Ġcurse": 7918,
      "Ġenjoying": 7919,
      "Ġjudgment": 7920,
      "ĠJulia": 7921,
      "ĠGermany": 7922,
      "Ġtower": 7923,
      "ĠEverything": 7924,
      "Kat": 7925,
      "Ġmax": 7926,
      "Ġnap": 7927,
      "ĠTok": 7928,
      "ĠBL": 7929,
      "ĠLos": 7930,
      "Ġguitar": 7931,
      "izes": 7932,
      "Real": 7933,
      "Ġtransform": 7934,
      "Ġdoub": 7935,
      "Wasn": 7936,
      "Ġweakness": 7937,
      "Ġvirgin": 7938,
      "orking": 7939,
      "veill": 7940,
      "Ġnep": 7941,
      "ouncil": 7942,
      "Ġchemical": 7943,
      "ĠFe": 7944,
      "ecture": 7945,
      "wered": 7946,
      "ograph": 7947,
      "Ġsergeant": 7948,
      "Ġphones": 7949,
      "Ġofficially": 7950,
      "Ġlabor": 7951,
      "Ġhelicopter": 7952,
      "some": 7953,
      "ÂĴ": 7954,
      "ĠSab": 7955,
      "ores": 7956,
      "ĠPH": 7957,
      "Ġreasonable": 7958,
      "Ġpathetic": 7959,
      "Ġstraw": 7960,
      "Ġarticle": 7961,
      "reetings": 7962,
      "Ġtorture": 7963,
      "xygen": 7964,
      "lam": 7965,
      "wife": 7966,
      "Ġbeings": 7967,
      "Reg": 7968,
      "Ġvolunte": 7969,
      "Best": 7970,
      "During": 7971,
      "High": 7972,
      "yers": 7973,
      "Ġ}": 7974,
      "Ġwand": 7975,
      "imately": 7976,
      "ĠDean": 7977,
      "ĠGirl": 7978,
      "Ġloaded": 7979,
      "umps": 7980,
      "Ġblows": 7981,
      "ANTING": 7982,
      "ĠNEW": 7983,
      "Ġbehave": 7984,
      "ĠMayor": 7985,
      "Ġroutine": 7986,
      "Ġdegree": 7987,
      "ĠCatholic": 7988,
      "ĠWayne": 7989,
      "ECT": 7990,
      "Lee": 7991,
      "orable": 7992,
      "Ġpitch": 7993,
      "ĠTa": 7994,
      "ĠGeor": 7995,
      "ĠPO": 7996,
      "Ġdrank": 7997,
      "Ġdreaming": 7998,
      "Ġawait": 7999,
      "Bravo": 8000,
      "FR": 8001,
      "King": 8002,
      "kind": 8003,
      "ĠServ": 8004,
      "ĠCould": 8005,
      "ĠHoly": 8006,
      "Ġcommer": 8007,
      "ĠYE": 8008,
      "Ġfunction": 8009,
      "ierce": 8010,
      "WHY": 8011,
      "Ġargument": 8012,
      "Chan": 8013,
      "JUST": 8014,
      "Lemon": 8015,
      "Sa": 8016,
      "Ġbars": 8017,
      "Ġtox": 8018,
      "Ġpra": 8019,
      "ĠSOMETHING": 8020,
      "Ġshed": 8021,
      "ĠKong": 8022,
      "Ġunlike": 8023,
      "Ġentrance": 8024,
      "Ġsignature": 8025,
      "iko": 8026,
      "THER": 8027,
      "Ġapproaching": 8028,
      "Ġrabbit": 8029,
      "16": 8030,
      "Cont": 8031,
      "Ġmath": 8032,
      "hers": 8033,
      "Ġorphan": 8034,
      "Ġexcl": 8035,
      "Ġcheering": 8036,
      "Ġdeveloped": 8037,
      "gasps": 8038,
      "pro": 8039,
      "Ġtone": 8040,
      "irts": 8041,
      "ĠMore": 8042,
      "ĠGal": 8043,
      "ĠEmma": 8044,
      "Ġplayers": 8045,
      "Ġcountries": 8046,
      "Ġcharity": 8047,
      "Ġtransl": 8048,
      "Ġchampion": 8049,
      "Ġwaves": 8050,
      "ĠSanta": 8051,
      "Comp": 8052,
      "Wanna": 8053,
      "ĠChi": 8054,
      "ĠPEOPLE": 8055,
      "ĠJoo": 8056,
      "ĠUni": 8057,
      "ĠHoward": 8058,
      "Ġimpact": 8059,
      "ĠMcC": 8060,
      "Ġfacility": 8061,
      "ĠWORK": 8062,
      "Ġbombs": 8063,
      "ĠSchool": 8064,
      "Ġcoordin": 8065,
      "Steve": 8066,
      "Ġservant": 8067,
      "Ġdollar": 8068,
      "Ġconfirmed": 8069,
      "Tot": 8070,
      "ington": 8071,
      "Ġshine": 8072,
      "aka": 8073,
      "ĠKar": 8074,
      "Ġflood": 8075,
      "Ġproduction": 8076,
      "jin": 8077,
      "stone": 8078,
      "ĠTer": 8079,
      "Ġthrone": 8080,
      "Ġbroadcast": 8081,
      "Ġstubborn": 8082,
      "Dead": 8083,
      "bi": 8084,
      "Ġaltern": 8085,
      "Ġblown": 8086,
      "ordan": 8087,
      "Ġpresents": 8088,
      "Ġkissing": 8089,
      "Ġfairy": 8090,
      "bble": 8091,
      "ante": 8092,
      "roaning": 8093,
      "ĠHas": 8094,
      "Ġalthough": 8095,
      "elve": 8096,
      "ĠEv": 8097,
      "Ġrecon": 8098,
      "Ġcomplet": 8099,
      "ĠMaria": 8100,
      "Ġprize": 8101,
      "Ġapology": 8102,
      "Ġadmire": 8103,
      "Ġancest": 8104,
      "Break": 8105,
      "athan": 8106,
      "iments": 8107,
      "ĠGRUNT": 8108,
      "Ġrandom": 8109,
      "aph": 8110,
      "onscious": 8111,
      "scar": 8112,
      "Ġgeneration": 8113,
      "Ġtracks": 8114,
      "ĠFrankie": 8115,
      "Sergeant": 8116,
      "Ġcollection": 8117,
      "nesday": 8118,
      "veillance": 8119,
      "Lieutenant": 8120,
      "uals": 8121,
      "Ġlf": 8122,
      "Ġthirst": 8123,
      "alie": 8124,
      "Ġeveryday": 8125,
      "RYING": 8126,
      "mind": 8127,
      "ĠInt": 8128,
      "imony": 8129,
      "ifer": 8130,
      "ĠGa": 8131,
      "Ġplot": 8132,
      "Ġbackup": 8133,
      "azy": 8134,
      "Ġteams": 8135,
      "Ġrecording": 8136,
      "ĠDOOR": 8137,
      "ysis": 8138,
      "Ġpacked": 8139,
      "ĠRoyal": 8140,
      "wr": 8141,
      "ĠTaylor": 8142,
      "ĠCast": 8143,
      "oln": 8144,
      "ĠRiver": 8145,
      "ĠKa": 8146,
      "oughing": 8147,
      "Hand": 8148,
      "Ġsink": 8149,
      "Ġped": 8150,
      "icient": 8151,
      "alls": 8152,
      "rah": 8153,
      "raham": 8154,
      "ĠHAS": 8155,
      "ĠWalter": 8156,
      "ĠJenny": 8157,
      "Yesterday": 8158,
      "Ġbug": 8159,
      "ARK": 8160,
      "ĠAndrew": 8161,
      "Read": 8162,
      "chiat": 8163,
      "Ġinstrument": 8164,
      "Night": 8165,
      "nam": 8166,
      "rep": 8167,
      "etic": 8168,
      "ĠJi": 8169,
      "Ġchip": 8170,
      "Ġaccent": 8171,
      "ĠAnnie": 8172,
      "Ġgenerous": 8173,
      "Ġenjoyed": 8174,
      "Carl": 8175,
      "Ġsacred": 8176,
      "Ġdelivered": 8177,
      "CI": 8178,
      "Fif": 8179,
      "Mur": 8180,
      "itors": 8181,
      "Ġofthe": 8182,
      "Gotta": 8183,
      "Seven": 8184,
      "IFF": 8185,
      "Sing": 8186,
      "oured": 8187,
      "Ġwore": 8188,
      "stant": 8189,
      "igan": 8190,
      "abel": 8191,
      "osing": 8192,
      "ĠKyle": 8193,
      "Ġseats": 8194,
      "ĠHelp": 8195,
      "Ġboom": 8196,
      "Ġskull": 8197,
      "Ġdrawing": 8198,
      "Ġidentify": 8199,
      "Ġincredibly": 8200,
      "Ġatmosphere": 8201,
      "Ġnephew": 8202,
      "Detective": 8203,
      "groans": 8204,
      "Ġfond": 8205,
      "Ġoutfit": 8206,
      "ĠHo": 8207,
      "ĠRom": 8208,
      "Ġactress": 8209,
      "Ġdisco": 8210,
      "Ġapple": 8211,
      "Ġconsidering": 8212,
      "Ġquietly": 8213,
      "Ġprayer": 8214,
      "Ġkidnapped": 8215,
      "Mel": 8216,
      "Tony": 8217,
      "Ġwipe": 8218,
      "Ġlap": 8219,
      "Ġjung": 8220,
      "ĠSub": 8221,
      "ĠAc": 8222,
      "ĠWater": 8223,
      "ĠLily": 8224,
      "Ġsomeplace": 8225,
      "Ġoffering": 8226,
      "Ġcrush": 8227,
      "pson": 8228,
      "ĠAnne": 8229,
      "Ġelection": 8230,
      "Ġdamned": 8231,
      "Professor": 8232,
      "Ġflew": 8233,
      "ĠSol": 8234,
      "ĠFer": 8235,
      "ĠFar": 8236,
      "Ġunits": 8237,
      "neath": 8238,
      "ĠUm": 8239,
      "Ġapply": 8240,
      "Ġterribly": 8241,
      "IRL": 8242,
      "Ġinfluence": 8243,
      "Min": 8244,
      "Pay": 8245,
      "mates": 8246,
      "kel": 8247,
      "ĠBon": 8248,
      "Ġresign": 8249,
      "Ġsym": 8250,
      "ĠMatthew": 8251,
      "Ġreckon": 8252,
      "Ġclinic": 8253,
      "Gasps": 8254,
      "ras": 8255,
      "Ġmeasure": 8256,
      "ĠAct": 8257,
      "ĠBoss": 8258,
      "ĠGib": 8259,
      "ĠFin": 8260,
      "ĠVer": 8261,
      "Ġdecor": 8262,
      "Ġstruck": 8263,
      "Ġaddition": 8264,
      "Ġdropping": 8265,
      "Having": 8266,
      "Left": 8267,
      "Ġnegative": 8268,
      "Com": 8269,
      "Ġnick": 8270,
      "ashi": 8271,
      "una": 8272,
      "ĠBack": 8273,
      "ĠGi": 8274,
      "ĠPop": 8275,
      "ĠFlor": 8276,
      "Ġintent": 8277,
      "Ġmole": 8278,
      "Ġcheat": 8279,
      "Ġappet": 8280,
      "Ġinvent": 8281,
      "Ġtrigger": 8282,
      "Ġlanding": 8283,
      "Ġboxes": 8284,
      "LAUGHING": 8285,
      "Ġtoss": 8286,
      "asant": 8287,
      "ĠJamie": 8288,
      "Ġunhappy": 8289,
      "Ġ45": 8290,
      "Ġprivile": 8291,
      "Ġmotion": 8292,
      "Ġdemonst": 8293,
      "Ġexhausted": 8294,
      "Ġinternational": 8295,
      "Ġworries": 8296,
      "Ġagency": 8297,
      "ormal": 8298,
      "Ġplanes": 8299,
      "Ġ35": 8300,
      "Ġtribe": 8301,
      "Ġburst": 8302,
      "ĠChef": 8303,
      "Ġorigin": 8304,
      "oice": 8305,
      "ĠĠĊ": 8306,
      "Ġaverage": 8307,
      "Ġfold": 8308,
      "ication": 8309,
      "ĠCy": 8310,
      "rows": 8311,
      "ĠStone": 8312,
      "Ġlistened": 8313,
      "Ġclassic": 8314,
      "ĠAtt": 8315,
      "Ġshark": 8316,
      "Ġdumped": 8317,
      "Girls": 8318,
      "Ac": 8319,
      "Ġton": 8320,
      "Ġgross": 8321,
      "rael": 8322,
      "ĠBell": 8323,
      "Ġapplic": 8324,
      "ĠShit": 8325,
      "ĠSTOP": 8326,
      "IRST": 8327,
      "Ġconscience": 8328,
      "'!": 8329,
      "OF": 8330,
      "uv": 8331,
      "Ġpi": 8332,
      "amily": 8333,
      "steps": 8334,
      "Ġworker": 8335,
      "Ġworrying": 8336,
      "ĠGovern": 8337,
      "Ġsuitcase": 8338,
      "Hot": 8339,
      "Ġknee": 8340,
      "ĠHO": 8341,
      "Ġrobbed": 8342,
      "Ġcommission": 8343,
      "ĠMarcus": 8344,
      "ĠCliff": 8345,
      "onym": 8346,
      "ĠBlake": 8347,
      "ĠNEVER": 8348,
      "Ġabandon": 8349,
      "ĠFrancisco": 8350,
      "Ġexercise": 8351,
      "Water": 8352,
      "Ġpant": 8353,
      "Ġlob": 8354,
      "istan": 8355,
      "Ġhomework": 8356,
      "orman": 8357,
      "Ġthroughout": 8358,
      "ĠEdward": 8359,
      "Ġastron": 8360,
      ".?": 8361,
      "BR": 8362,
      "Copy": 8363,
      "Fort": 8364,
      "ĠCole": 8365,
      "ĠBull": 8366,
      "igning": 8367,
      "quis": 8368,
      "iren": 8369,
      "Ġadjust": 8370,
      "ORRY": 8371,
      "Ġslap": 8372,
      "Ġglory": 8373,
      "Ġtroubles": 8374,
      "Supp": 8375,
      "ILD": 8376,
      "both": 8377,
      "uits": 8378,
      "see": 8379,
      "ĠMIN": 8380,
      "Through": 8381,
      "ĠOver": 8382,
      "ANING": 8383,
      "Ġbelief": 8384,
      "ĠUnder": 8385,
      "Ġinformed": 8386,
      "Ġblocks": 8387,
      "would": 8388,
      "Ġbills": 8389,
      "sect": 8390,
      "ĠBET": 8391,
      "ĠClub": 8392,
      "Ġsouls": 8393,
      "ĠTeam": 8394,
      "Laughter": 8395,
      "Ġsch": 8396,
      "Ġpha": 8397,
      "Ġrein": 8398,
      "Ġstones": 8399,
      "Hear": 8400,
      "Ġans": 8401,
      "Ġunex": 8402,
      "Ġcheek": 8403,
      "ĠShin": 8404,
      "Ġdistrict": 8405,
      "Ġsumm": 8406,
      "Ġfields": 8407,
      "Ġdigging": 8408,
      "Ġdivorced": 8409,
      "ĠJews": 8410,
      "helle": 8411,
      "Ġvampire": 8412,
      "MENT": 8413,
      "dles": 8414,
      "Ġdom": 8415,
      "Ġdiss": 8416,
      "ĠCom": 8417,
      "Ġrit": 8418,
      "olve": 8419,
      "Ġunbelievable": 8420,
      "Ġretire": 8421,
      "Ġconfession": 8422,
      "Ġcostume": 8423,
      "Ġhoped": 8424,
      "Ġreminds": 8425,
      "Quickly": 8426,
      "Ġexplosion": 8427,
      "Ġannoying": 8428,
      "Ġindividual": 8429,
      "End": 8430,
      "vor": 8431,
      "zed": 8432,
      "âĦ": 8433,
      "âĹ": 8434,
      "Ġdates": 8435,
      "ĠGun": 8436,
      "umi": 8437,
      "about": 8438,
      "ĠRem": 8439,
      "ĠFore": 8440,
      "Ġspark": 8441,
      "Ġoblig": 8442,
      "ĠMorning": 8443,
      "Ġraped": 8444,
      "Ġoptions": 8445,
      "âĦ¢": 8446,
      "âĹı": 8447,
      "ipt": 8448,
      "Ġcert": 8449,
      "Ġsheep": 8450,
      "Ġbrut": 8451,
      "Ġargu": 8452,
      "Ġsurf": 8453,
      "ĠArt": 8454,
      "Ġlessons": 8455,
      "ĠSecurity": 8456,
      "Ġsample": 8457,
      "Ġscientists": 8458,
      "Ġreligious": 8459,
      "bal": 8460,
      "Ġwives": 8461,
      "Ġlaughter": 8462,
      "ĠMos": 8463,
      "ĠWalker": 8464,
      "ĠNik": 8465,
      "Ġprints": 8466,
      "Ġminor": 8467,
      "ĠVen": 8468,
      "ĠAngel": 8469,
      "Ġexposed": 8470,
      "ĠMadam": 8471,
      "Ġlaund": 8472,
      "bastian": 8473,
      "Ġfo": 8474,
      "inder": 8475,
      "ĠLaughs": 8476,
      "Ġguide": 8477,
      "ĠEmp": 8478,
      "oby": 8479,
      "Ġrealise": 8480,
      "ocal": 8481,
      "ITE": 8482,
      "efan": 8483,
      "ĠQU": 8484,
      "Ġtiming": 8485,
      "Ev": 8486,
      "irring": 8487,
      "ĠOPEN": 8488,
      "ocr": 8489,
      "ĠSHOULD": 8490,
      "ABY": 8491,
      "Ġpersu": 8492,
      "ĠPeople": 8493,
      "Ġcried": 8494,
      "adise": 8495,
      "ĠSea": 8496,
      "Ġcandid": 8497,
      "ĠMmm": 8498,
      "ĠAud": 8499,
      "ĠCouncil": 8500,
      "Ġcomment": 8501,
      "Ġsmok": 8502,
      "Ġinvis": 8503,
      "Ġboots": 8504,
      "ĠThor": 8505,
      "prints": 8506,
      "Ġcolonel": 8507,
      "Ġtorn": 8508,
      "ĠJewish": 8509,
      "Attention": 8510,
      "ĠKorea": 8511,
      "iens": 8512,
      "Ġtune": 8513,
      "igs": 8514,
      "awa": 8515,
      "ynam": 8516,
      "tor": 8517,
      "Ġnarrow": 8518,
      "Ġens": 8519,
      "Ġacce": 8520,
      "ĠTHEN": 8521,
      "Ġowns": 8522,
      "attered": 8523,
      "Ġanswering": 8524,
      "ĠDOES": 8525,
      "Ġbasic": 8526,
      "Ġexistence": 8527,
      "Ġscratch": 8528,
      "Ġanswered": 8529,
      "nity": 8530,
      "Ġwithd": 8531,
      "ĠAPP": 8532,
      "hane": 8533,
      "ĠGreek": 8534,
      "ĠOz": 8535,
      "ĠYep": 8536,
      "Ġstrict": 8537,
      "Ġcharged": 8538,
      "Ġlawyers": 8539,
      "ĠJohnson": 8540,
      "ĠChand": 8541,
      "cellency": 8542,
      "ĠParker": 8543,
      "Ġsacrific": 8544,
      "Ġslightly": 8545,
      "Ġelevator": 8546,
      "Ra": 8547,
      "uart": 8548,
      "ĠGab": 8549,
      "ĠLea": 8550,
      "ĠLeave": 8551,
      "ĠKaren": 8552,
      "Ġcared": 8553,
      "ailing": 8554,
      "Ġelimin": 8555,
      "Ġcolour": 8556,
      "Death": 8557,
      "ispers": 8558,
      "ĠInternet": 8559,
      "Martin": 8560,
      "Ġcompanies": 8561,
      "cles": 8562,
      "Ðµ": 8563,
      "Ġdiet": 8564,
      "Ġcage": 8565,
      "Ġfart": 8566,
      "Ġooh": 8567,
      "Ġbeeping": 8568,
      "ĠBoo": 8569,
      "Ġstring": 8570,
      "Ġneighbors": 8571,
      "ISTIN": 8572,
      "Ġemotions": 8573,
      "five": 8574,
      "sha": 8575,
      "Ġange": 8576,
      "iffe": 8577,
      "Ġconce": 8578,
      "Ġconven": 8579,
      "Ġprofit": 8580,
      "Ġpoem": 8581,
      "Ġsets": 8582,
      "Ġreturning": 8583,
      "umbo": 8584,
      "True": 8585,
      "Ġbelly": 8586,
      "Ġjewel": 8587,
      "Ġdetermined": 8588,
      "Prepare": 8589,
      "BELL": 8590,
      "Lisa": 8591,
      "Ġmal": 8592,
      "Ġduck": 8593,
      "Ġgre": 8594,
      "ĠOld": 8595,
      "Ġmakeup": 8596,
      "angle": 8597,
      "Ġdishes": 8598,
      "Ġchew": 8599,
      "Ġserving": 8600,
      "Ġtraitor": 8601,
      "Ġsurveillance": 8602,
      "peed": 8603,
      "Ġforgiven": 8604,
      "Ġemotion": 8605,
      "Ġinstructions": 8606,
      "bu": 8607,
      "two": 8608,
      "Ġdough": 8609,
      "eare": 8610,
      "ĠTem": 8611,
      "ĠLy": 8612,
      "Ġafterwards": 8613,
      "Ġdrama": 8614,
      "ĠStay": 8615,
      "ibilities": 8616,
      "Ġsymp": 8617,
      "Ġdragged": 8618,
      "Ġnearby": 8619,
      "Ġ70": 8620,
      "guard": 8621,
      "ĠOnly": 8622,
      "Ġprofession": 8623,
      "President": 8624,
      "rical": 8625,
      "holes": 8626,
      "Ġgoods": 8627,
      "yeong": 8628,
      "Ġchir": 8629,
      "Alice": 8630,
      "Ġmistaken": 8631,
      "ĠSpain": 8632,
      "Ġbeneath": 8633,
      "Ġgroups": 8634,
      "Queen": 8635,
      "Said": 8636,
      "TING": 8637,
      "yu": 8638,
      "Ġmart": 8639,
      "ichi": 8640,
      "acles": 8641,
      "Ġwashed": 8642,
      "stra": 8643,
      "Ġcancel": 8644,
      "ĠJa": 8645,
      "Ġunfortunately": 8646,
      "Ġdramatic": 8647,
      "Ġrecover": 8648,
      "OKAY": 8649,
      "Ġcleaned": 8650,
      "ĠTrans": 8651,
      "Ġholes": 8652,
      "Ġquarters": 8653,
      "ĠPalmer": 8654,
      "Ġcaptured": 8655,
      "SELF": 8656,
      "Sal": 8657,
      "TY": 8658,
      "word": 8659,
      "Ġwhi": 8660,
      "orp": 8661,
      "Ġoxygen": 8662,
      "Ġlip": 8663,
      "ĠJud": 8664,
      "ĠOliver": 8665,
      "Ġadmin": 8666,
      "people": 8667,
      "Ġburden": 8668,
      "ennis": 8669,
      "LOS": 8670,
      "which": 8671,
      "Ġhighest": 8672,
      "Ġpattern": 8673,
      "hony": 8674,
      "useum": 8675,
      "Ġque": 8676,
      "Ġchannel": 8677,
      "Ġappeared": 8678,
      "Ġtries": 8679,
      "Ġincrease": 8680,
      "Subtitles": 8681,
      "Ġthorough": 8682,
      "NG": 8683,
      "bag": 8684,
      "Ġward": 8685,
      "owed": 8686,
      "ĠDis": 8687,
      "ĠKent": 8688,
      "thm": 8689,
      "Ġsmaller": 8690,
      "ĠSTART": 8691,
      "Ġeffective": 8692,
      "CC": 8693,
      "hu": 8694,
      "ĠAugust": 8695,
      "ĠBible": 8696,
      "Ġperman": 8697,
      "Ġdrill": 8698,
      "Ġsafely": 8699,
      "ĠSeok": 8700,
      "EEP": 8701,
      "Ġpractically": 8702,
      "Ġrolling": 8703,
      "Ġeffects": 8704,
      "Jean": 8705,
      "ME": 8706,
      "rin": 8707,
      "rary": 8708,
      "yard": 8709,
      "ota": 8710,
      "Ġease": 8711,
      "outhern": 8712,
      "Ġguilt": 8713,
      "ormous": 8714,
      "Been": 8715,
      "Ġadventure": 8716,
      "Ġbehalf": 8717,
      "Ġprofile": 8718,
      "Ġfraud": 8719,
      "mel": 8720,
      "Ġnin": 8721,
      "Ġinn": 8722,
      "ousy": 8723,
      "Ġstandard": 8724,
      "Ġdocuments": 8725,
      "ĠApril": 8726,
      "Ġprocedure": 8727,
      "Amen": 8728,
      "Ġaggress": 8729,
      "eaks": 8730,
      "Ġpleasant": 8731,
      "PHONE": 8732,
      "Ġtraveling": 8733,
      "Ġresources": 8734,
      "Dep": 8735,
      "lers": 8736,
      "othy": 8737,
      "ĠVERY": 8738,
      "Ġidiots": 8739,
      "Ġfootage": 8740,
      "Ġmeantime": 8741,
      "Ġpsych": 8742,
      "Jac": 8743,
      "Kid": 8744,
      "Lock": 8745,
      "VING": 8746,
      "nold": 8747,
      "ĠInc": 8748,
      "Ġpad": 8749,
      "ĠBat": 8750,
      "child": 8751,
      "ĠLewis": 8752,
      "iah": 8753,
      "ONS": 8754,
      "Ġdismiss": 8755,
      "Ġshared": 8756,
      "inson": 8757,
      "nedy": 8758,
      "Ġinterests": 8759,
      "Ġindistinct": 8760,
      "erek": 8761,
      "nocking": 8762,
      "Ġdaily": 8763,
      "Phil": 8764,
      "Ġterrorist": 8765,
      "Ġfederal": 8766,
      "45": 8767,
      "Makes": 8768,
      "Rad": 8769,
      "every": 8770,
      "rik": 8771,
      "ĠDar": 8772,
      "ells": 8773,
      "Ġtrauma": 8774,
      "Ġcounts": 8775,
      "Ġholds": 8776,
      "Ġtracking": 8777,
      "Ġpopulation": 8778,
      "Ġmachines": 8779,
      "GL": 8780,
      "mes": 8781,
      "ĠyÃ¶u": 8782,
      "anch": 8783,
      "Ġgolf": 8784,
      "Ġconcept": 8785,
      "Ġprotest": 8786,
      "Ġterrific": 8787,
      "Ġshocked": 8788,
      "Ġsatellite": 8789,
      "Ġcommercial": 8790,
      "Mal": 8791,
      "fits": 8792,
      "lotte": 8793,
      "Ġhen": 8794,
      "Ġstates": 8795,
      "ieves": 8796,
      "oshi": 8797,
      "ĠFive": 8798,
      "Ġrelieve": 8799,
      "Ġbothering": 8800,
      "ĠAngeles": 8801,
      "Laughing": 8802,
      "Ã¼": 8803,
      "Ġwrap": 8804,
      "Ġtoler": 8805,
      "ĠCass": 8806,
      "ĠNina": 8807,
      "ĠYEAH": 8808,
      "Ġmommy": 8809,
      "Ġsinger": 8810,
      "ĠOKAY": 8811,
      "Ġprotected": 8812,
      "Ġdescribe": 8813,
      "ĠVirginia": 8814,
      "Ġbeside": 8815,
      "moon": 8816,
      "ties": 8817,
      "Ġcatching": 8818,
      "Ġinher": 8819,
      "ĠPac": 8820,
      "aste": 8821,
      "Ġbitter": 8822,
      "Ġstatue": 8823,
      "Phone": 8824,
      "ĠSimon": 8825,
      "Ġvotes": 8826,
      "miral": 8827,
      "BB": 8828,
      "Lady": 8829,
      "je": 8830,
      "iture": 8831,
      "Ġpipe": 8832,
      "ĠMen": 8833,
      "ĠDamn": 8834,
      "ĠWon": 8835,
      "ĠJoy": 8836,
      "ĠJang": 8837,
      "elia": 8838,
      "ADE": 8839,
      "iami": 8840,
      "Ġactivity": 8841,
      "Ġwondered": 8842,
      "thank": 8843,
      "Ġpy": 8844,
      "ĠSusan": 8845,
      "obal": 8846,
      "ĠItaly": 8847,
      "Ġimprove": 8848,
      "Ġstrangers": 8849,
      "Him": 8850,
      "Part": 8851,
      "Ġpir": 8852,
      "ĠDun": 8853,
      "ĠHard": 8854,
      "Ġscale": 8855,
      "Ġunderneath": 8856,
      "Ġbegun": 8857,
      "Ġconfl": 8858,
      "Ġfilthy": 8859,
      "ĠHEL": 8860,
      "Ġcausing": 8861,
      "Ġtechni": 8862,
      "Ġpunished": 8863,
      "Daniel": 8864,
      "Ġodds": 8865,
      "Lemonis": 8866,
      "Funny": 8867,
      "Lo": 8868,
      "ti": 8869,
      "Ġmas": 8870,
      "acked": 8871,
      "andon": 8872,
      "ector": 8873,
      "incoln": 8874,
      "ONEY": 8875,
      "ĠLAUGHING": 8876,
      "Definitely": 8877,
      "ĠMUCH": 8878,
      "hour": 8879,
      "water": 8880,
      "Ġsab": 8881,
      "essel": 8882,
      "Ġhmm": 8883,
      "aman": 8884,
      "ĠWON": 8885,
      "Ġexists": 8886,
      "Ġdowntown": 8887,
      "Ġpsycho": 8888,
      "Ġexpression": 8889,
      "Ġcommunication": 8890,
      "MAR": 8891,
      "Ġles": 8892,
      "Ġpor": 8893,
      "ooh": 8894,
      "ĠSomething": 8895,
      "ĠMet": 8896,
      "ĠLat": 8897,
      "Ġspit": 8898,
      "LEY": 8899,
      "Ġchoices": 8900,
      "Surely": 8901,
      "Ġfreaking": 8902,
      "ĠMarty": 8903,
      "Harry": 8904,
      "Kids": 8905,
      "MUSIC": 8906,
      "WITH": 8907,
      "point": 8908,
      "Ġfrag": 8909,
      "Ġgut": 8910,
      "ĠSav": 8911,
      "cto": 8912,
      "aughters": 8913,
      "Ġfeather": 8914,
      "ĠPrime": 8915,
      "ĠExactly": 8916,
      "Ġhopes": 8917,
      "Ġpsychiat": 8918,
      "uties": 8919,
      "alling": 8920,
      "hang": 8921,
      "ĠDonna": 8922,
      "Ġworthy": 8923,
      "Ġchill": 8924,
      "uffs": 8925,
      "Ġpasses": 8926,
      "incent": 8927,
      "Ġinvestigating": 8928,
      "Ġhyd": 8929,
      "Ġcowboy": 8930,
      "Ġunable": 8931,
      "Ġphilos": 8932,
      "Ġelephant": 8933,
      "Buzz": 8934,
      "dies": 8935,
      "hattering": 8936,
      "ĠDown": 8937,
      "ĠDog": 8938,
      "ĠWatch": 8939,
      "Ġoffense": 8940,
      "ĠYu": 8941,
      "Ġdisgr": 8942,
      "ĠBrook": 8943,
      "Ġtrem": 8944,
      "Ġinvestigate": 8945,
      "RIEND": 8946,
      "Ġorganization": 8947,
      "Ġcriminals": 8948,
      "Ġfleet": 8949,
      "Ġfavourite": 8950,
      "Ġloyalty": 8951,
      "Ġjungle": 8952,
      "GER": 8953,
      "Rock": 8954,
      "Ryan": 8955,
      "Ġmud": 8956,
      "asper": 8957,
      "riet": 8958,
      "ĠAD": 8959,
      "Ġorange": 8960,
      "oston": 8961,
      "Ġinterfe": 8962,
      "ologist": 8963,
      "ĠChoi": 8964,
      "Ġstrategy": 8965,
      "Ġconsequences": 8966,
      "ISTINCT": 8967,
      "ctober": 8968,
      "Catch": 8969,
      "Kevin": 8970,
      "RU": 8971,
      "Ye": 8972,
      "Ġfee": 8973,
      "leg": 8974,
      "ĠShar": 8975,
      "Ġprob": 8976,
      "ths": 8977,
      "ATER": 8978,
      "ogue": 8979,
      "ĠTHAN": 8980,
      "ĠZe": 8981,
      "Ġintelligent": 8982,
      "Ġepisode": 8983,
      "Ġoccurred": 8984,
      "WHEN": 8985,
      "giving": 8986,
      "Ġreception": 8987,
      "ĠCIA": 8988,
      "ainted": 8989,
      "Ġflav": 8990,
      "Ġtraged": 8991,
      "Ġslut": 8992,
      "ĠSheriff": 8993,
      "Ġclasses": 8994,
      "Ġ198": 8995,
      "Ġangle": 8996,
      "Ġmotive": 8997,
      "Ġgrief": 8998,
      "Ġsomethin": 8999,
      "ĠJoseph": 9000,
      "Fore": 9001,
      "rup": 9002,
      "ĠSung": 9003,
      "ĠJu": 9004,
      "ĠJesse": 9005,
      "Ġproduce": 9006,
      "Ġprick": 9007,
      "Ġacts": 9008,
      "Ġguessing": 9009,
      "Ġearned": 9010,
      "William": 9011,
      "Ġcasual": 9012,
      "duction": 9013,
      "Ġemployee": 9014,
      "Ġinvisible": 9015,
      "]:": 9016,
      "cr": 9017,
      "din": 9018,
      "su": 9019,
      "Ġsighs": 9020,
      "usty": 9021,
      "Ġoverw": 9022,
      "ression": 9023,
      "Ġactive": 9024,
      "Ġinvitation": 9025,
      "Ġdealer": 9026,
      "Ġconsult": 9027,
      "Ġdestruction": 9028,
      "Ġgrabbed": 9029,
      "Glad": 9030,
      "ĠCentral": 9031,
      "ĠBuddha": 9032,
      "dad": 9033,
      "tell": 9034,
      "ĠMir": 9035,
      "unning": 9036,
      "agers": 9037,
      "ĠKn": 9038,
      "Ġpolite": 9039,
      "Ġ197": 9040,
      "Ġhistor": 9041,
      "ĠJoey": 9042,
      "ĠDeath": 9043,
      "Ġauthorities": 9044,
      "ixt": 9045,
      "put": 9046,
      "sers": 9047,
      "vation": 9048,
      "Ġcable": 9049,
      "athered": 9050,
      "ĠMake": 9051,
      "ĠAw": 9052,
      "opher": 9053,
      "Ġpays": 9054,
      "eresting": 9055,
      "Ġmessing": 9056,
      "ĠJackie": 9057,
      "Ġscreams": 9058,
      "Ġestablish": 9059,
      "Eric": 9060,
      "SON": 9061,
      "sn": 9062,
      "Ġobey": 9063,
      "alph": 9064,
      "irman": 9065,
      "Ġank": 9066,
      "ĠDi": 9067,
      "Ġvessel": 9068,
      "Ġmarch": 9069,
      "Ġpayment": 9070,
      "Ġevac": 9071,
      "Anna": 9072,
      "class": 9073,
      "Ġseparated": 9074,
      "livia": 9075,
      "ĠAGAIN": 9076,
      "oner": 9077,
      "eder": 9078,
      "osis": 9079,
      "Whenever": 9080,
      "ĠYoon": 9081,
      "Ġprime": 9082,
      "angers": 9083,
      "Ġcheated": 9084,
      "rences": 9085,
      "Ġslipped": 9086,
      "Ġcharm": 9087,
      "Ġprotoc": 9088,
      "Ġimagined": 9089,
      "Ġheroes": 9090,
      "LACE": 9091,
      "Ġunderwear": 9092,
      "Cos": 9093,
      "Much": 9094,
      "nor": 9095,
      "uine": 9096,
      "Ġcities": 9097,
      "ĠWHERE": 9098,
      "ANN": 9099,
      "Ġrecru": 9100,
      "Ġpatrol": 9101,
      "Ġrepair": 9102,
      "ĠSpecial": 9103,
      "Ġspirits": 9104,
      "colm": 9105,
      "ĠBerlin": 9106,
      "Ġvulner": 9107,
      "Oi": 9108,
      "Walk": 9109,
      "really": 9110,
      "Ġsust": 9111,
      "haw": 9112,
      "Ġhip": 9113,
      "Ġplants": 9114,
      "Ġprevious": 9115,
      "Ġpropose": 9116,
      "Ġnecklace": 9117,
      "Indeed": 9118,
      "Ġdefendant": 9119,
      "Ġstructure": 9120,
      "aith": 9121,
      "from": 9122,
      "Ġcott": 9123,
      "alo": 9124,
      "ĠWoman": 9125,
      "Ġalib": 9126,
      "ĠPan": 9127,
      "Ġmanner": 9128,
      "ĠEven": 9129,
      "Ġflow": 9130,
      "Ġaccur": 9131,
      "Ġpersonality": 9132,
      "OHN": 9133,
      "Hail": 9134,
      "MS": 9135,
      "Roy": 9136,
      "hello": 9137,
      "Ġdess": 9138,
      "lem": 9139,
      "ĠCos": 9140,
      "ĠBIG": 9141,
      "ĠGall": 9142,
      "ellow": 9143,
      "Ġrotten": 9144,
      "Ġcomin": 9145,
      "ĠSteven": 9146,
      "pring": 9147,
      "Ġsounded": 9148,
      "Ġdreamed": 9149,
      "Ġinstance": 9150,
      "Ġdepart": 9151,
      "LOOK": 9152,
      "Ġromance": 9153,
      "-...": 9154,
      "ACE": 9155,
      "Ho": 9156,
      "MA": 9157,
      "Med": 9158,
      "power": 9159,
      "want": 9160,
      "rea": 9161,
      "Ġsession": 9162,
      "Ġbusted": 9163,
      "orage": 9164,
      "Ġstable": 9165,
      "Head": 9166,
      "Ġ28": 9167,
      "Ġcruc": 9168,
      "Ġrelative": 9169,
      "Ġconsum": 9170,
      "ĠONLY": 9171,
      "Ġelement": 9172,
      "Ġbottles": 9173,
      "Carol": 9174,
      "Ġfacing": 9175,
      "Ġcritical": 9176,
      "Ġarchit": 9177,
      "''": 9178,
      "Dev": 9179,
      "mi": 9180,
      "erie": 9181,
      "omi": 9182,
      "ĠSophie": 9183,
      "ĠDiv": 9184,
      "istent": 9185,
      "ivity": 9186,
      "Ġsends": 9187,
      "Ġtastes": 9188,
      "Name": 9189,
      "made": 9190,
      "Ġtum": 9191,
      "ribut": 9192,
      "ĠSid": 9193,
      "ĠFEE": 9194,
      "Ġbru": 9195,
      "ATHER": 9196,
      "Ġfridge": 9197,
      "Ġfools": 9198,
      "Understood": 9199,
      "ĠBritain": 9200,
      "Ġscientist": 9201,
      "ĠHitler": 9202,
      "COM": 9203,
      "Nor": 9204,
      "Sen": 9205,
      "bish": 9206,
      "rina": 9207,
      "had": 9208,
      "Ġtools": 9209,
      "ĠSk": 9210,
      "ĠRand": 9211,
      "Ġsequ": 9212,
      "Ġleak": 9213,
      "uffy": 9214,
      "aleb": 9215,
      "Ġcorpse": 9216,
      "Ġreporter": 9217,
      "kesp": 9218,
      "ĠGermans": 9219,
      "Ġcigarettes": 9220,
      "Ġlaundry": 9221,
      "Dou": 9222,
      "Gordon": 9223,
      "Jason": 9224,
      "TE": 9225,
      "ĠMiller": 9226,
      "ĠPri": 9227,
      "Ġclicks": 9228,
      "Ġtalkin": 9229,
      "Ġdisag": 9230,
      "Ġcompass": 9231,
      "Ġlevels": 9232,
      "ĠMuslim": 9233,
      "24": 9234,
      "nis": 9235,
      "Ġske": 9236,
      "ĠIra": 9237,
      "ĠSept": 9238,
      "ĠDef": 9239,
      "ares": 9240,
      "Ġtalented": 9241,
      "Ġenormous": 9242,
      "Ġbuff": 9243,
      "Ġattacks": 9244,
      "Ġdressing": 9245,
      "Ġtempt": 9246,
      "Ġfortun": 9247,
      "kespeare": 9248,
      "Bleep": 9249,
      "Jose": 9250,
      "Jerry": 9251,
      "Wrong": 9252,
      "Ġlend": 9253,
      "Ġnigg": 9254,
      "ĠAlf": 9255,
      "Ġalley": 9256,
      "ĠGil": 9257,
      "ĠGasps": 9258,
      "ulty": 9259,
      "Ġplates": 9260,
      "Ġsue": 9261,
      "irect": 9262,
      "Ġresident": 9263,
      "Ġrequired": 9264,
      "Ġpeaceful": 9265,
      "Ġobsessed": 9266,
      "Ġcolleague": 9267,
      "ĠTokyo": 9268,
      "Till": 9269,
      "ZZ": 9270,
      "Ġln": 9271,
      "arter": 9272,
      "Ġjer": 9273,
      "eable": 9274,
      "ĠArab": 9275,
      "ĠPot": 9276,
      "Ġchamber": 9277,
      "ĠThink": 9278,
      "Ġconspir": 9279,
      "Ġstudies": 9280,
      "ĠDOING": 9281,
      "Ġsolved": 9282,
      "Ġnaturally": 9283,
      "ĠJulie": 9284,
      "Aunt": 9285,
      "Bast": 9286,
      "Count": 9287,
      "cing": 9288,
      "Ġdaughters": 9289,
      "Ġcongratulations": 9290,
      "iches": 9291,
      "osaur": 9292,
      "Ġintr": 9293,
      "Ġroot": 9294,
      "Ġcoff": 9295,
      "aval": 9296,
      "Ġbuildings": 9297,
      "ĠRebecca": 9298,
      "Ġsalad": 9299,
      "Ġempire": 9300,
      "Trying": 9301,
      "netic": 9302,
      "GROANS": 9303,
      "Ġwarrior": 9304,
      "burg": 9305,
      "rd": 9306,
      "ishes": 9307,
      "Ġbeard": 9308,
      "ripp": 9309,
      "ĠCont": 9310,
      "ĠDark": 9311,
      "ĠHoney": 9312,
      "Ġalt": 9313,
      "Ġ48": 9314,
      "Ġdrawn": 9315,
      "Ġblackmail": 9316,
      "ĠBetty": 9317,
      "Ġliquor": 9318,
      "ĠHughes": 9319,
      "Ġengagement": 9320,
      "UES": 9321,
      "fly": 9322,
      "itution": 9323,
      "Ġnerves": 9324,
      "eau": 9325,
      "hoe": 9326,
      "Ġvib": 9327,
      "Ġadvert": 9328,
      "Ġ27": 9329,
      "ĠINTO": 9330,
      "ĠPrincess": 9331,
      "Ġclaims": 9332,
      "ĠKatie": 9333,
      "Ġmobile": 9334,
      "name": 9335,
      "Ġpenny": 9336,
      "raight": 9337,
      "Ġwheels": 9338,
      "Doc": 9339,
      "izzy": 9340,
      "Ġobst": 9341,
      "Ġpainted": 9342,
      "jection": 9343,
      "Ġtesting": 9344,
      "ROWD": 9345,
      "Grandma": 9346,
      "ĠRepublic": 9347,
      "keeper": 9348,
      "ĠHAPPEN": 9349,
      "18": 9350,
      "MP": 9351,
      "TS": 9352,
      "Å¡": 9353,
      "Ġx": 9354,
      "Ġpulse": 9355,
      "semb": 9356,
      "ĠSara": 9357,
      "ookie": 9358,
      "Ġanytime": 9359,
      "Ġmans": 9360,
      "Ġmanip": 9361,
      "emet": 9362,
      "ĠNancy": 9363,
      "ockey": 9364,
      "Ġmoral": 9365,
      "Expl": 9366,
      "Ġinspect": 9367,
      "Ġlocker": 9368,
      "screaming": 9369,
      "engers": 9370,
      "ĠHarris": 9371,
      "Far": 9372,
      "bout": 9373,
      "Ġfag": 9374,
      "Ġfits": 9375,
      "ocks": 9376,
      "ENCE": 9377,
      "Ġmuscle": 9378,
      "ĠShould": 9379,
      "Ġsearched": 9380,
      "Ġthreatening": 9381,
      "Ġstabbed": 9382,
      "Ġcapture": 9383,
      "ography": 9384,
      "Ġfestival": 9385,
      "90": 9386,
      "Boo": 9387,
      "Ġpod": 9388,
      "Ġmerely": 9389,
      "adia": 9390,
      "Ġtherefore": 9391,
      "Ġdrives": 9392,
      "Ġpoliceman": 9393,
      "ĠGOD": 9394,
      "Ġburnt": 9395,
      "ĠFreddie": 9396,
      "Ġcombat": 9397,
      "ĠKyung": 9398,
      "ĠHotel": 9399,
      "Ġhelmet": 9400,
      "17": 9401,
      "Lots": 9402,
      "wait": 9403,
      "oust": 9404,
      "lymp": 9405,
      "ĠLaughing": 9406,
      "ĠRoll": 9407,
      "ĠChloe": 9408,
      "Ġfeature": 9409,
      "ealing": 9410,
      "Ġdepend": 9411,
      "Ġabsolute": 9412,
      "Ġnecessarily": 9413,
      "Ġghosts": 9414,
      "ĠWednesday": 9415,
      "Ġsympt": 9416,
      "Ġoverwhel": 9417,
      "CLA": 9418,
      "Ġdu": 9419,
      "entially": 9420,
      "ĠTWO": 9421,
      "ĠGordon": 9422,
      "Ġhelpful": 9423,
      "Ġdriven": 9424,
      "Ġframe": 9425,
      "Ġinterrog": 9426,
      "Ġdestro": 9427,
      "Ġpaperwork": 9428,
      "Ġtransferred": 9429,
      "Ġdeaf": 9430,
      "Bro": 9431,
      "fall": 9432,
      "ii": 9433,
      "ecess": 9434,
      "ĠToo": 9435,
      "Ġworm": 9436,
      "ATH": 9437,
      "ierre": 9438,
      "Ġskill": 9439,
      "Ġcitizen": 9440,
      "ĠGUYS": 9441,
      "Found": 9442,
      "Ġfran": 9443,
      "ĠSC": 9444,
      "Ġrats": 9445,
      "osity": 9446,
      "Ġspray": 9447,
      "itchell": 9448,
      "ĠExcellency": 9449,
      "Ġjoining": 9450,
      "Ġstrip": 9451,
      "Ġshelter": 9452,
      "Ġtons": 9453,
      "erg": 9454,
      "itter": 9455,
      "Ġgettin": 9456,
      "Ġrack": 9457,
      "ĠLONG": 9458,
      "eline": 9459,
      "ously": 9460,
      "Ġvast": 9461,
      "ĠEVEN": 9462,
      "Ġintense": 9463,
      "ĠKo": 9464,
      "Ġserial": 9465,
      "Ġschools": 9466,
      "ĠArm": 9467,
      "***": 9468,
      "Ġcritic": 9469,
      "Gonna": 9470,
      "GUN": 9471,
      "Lucky": 9472,
      "zi": 9473,
      "Ġtender": 9474,
      "iti": 9475,
      "Ġcub": 9476,
      "Ġpic": 9477,
      "Ġbears": 9478,
      "Ġweed": 9479,
      "inky": 9480,
      "elson": 9481,
      "Ġselect": 9482,
      "Ġcoal": 9483,
      "Ġchips": 9484,
      "Ġsurgeon": 9485,
      "Ġpurcha": 9486,
      "Ġjumping": 9487,
      "Ġmedication": 9488,
      "ĠEXP": 9489,
      "Ġfifth": 9490,
      "Ġcreepy": 9491,
[...]
